{
    "<pad>": 0,
    "<unk>": 1,
    "<mask>": 2,
    "\u25810": 3,
    "\u25810x": 4,
    "00": 5,
    "er": 6,
    "ne": 7,
    "32": 8,
    "\u2581k": 9,
    "l32": 10,
    "erne": 11,
    "ernel32": 12,
    "\u2581kernel32": 13,
    "\u25810x1": 14,
    "\u25810x0": 15,
    "et": 16,
    "ad": 17,
    "000": 18,
    "ee": 19,
    "al": 20,
    "ti": 21,
    "get": 22,
    "\u25810x7": 23,
    "re": 24,
    "\u25810x4": 25,
    "ec": 26,
    "\u2581get": 27,
    "in": 28,
    "\u25810xf": 29,
    "0000": 30,
    "\u25810x77": 31,
    "oc": 32,
    "tr": 33,
    "iti": 34,
    "eee": 35,
    "\u25810xfeee": 36,
    "ss": 37,
    "is": 38,
    "ter": 39,
    "read": 40,
    "pr": 41,
    "tio": 42,
    "\u25810x1000": 43,
    "proc": 44,
    "\u2581is": 45,
    "readp": 46,
    "bad": 47,
    "\u2581isbad": 48,
    "readptr": 49,
    "\u2581isbadreadptr": 50,
    "le": 51,
    "\u2581getproc": 52,
    "sec": 53,
    "cal": 54,
    "dre": 55,
    "sectio": 56,
    "dress": 57,
    "address": 58,
    "\u2581getprocaddress": 59,
    "riti": 60,
    "ritical": 61,
    "riticalsectio": 62,
    "ue": 63,
    "en": 64,
    "no": 65,
    "000000": 66,
    "\u2581no": 67,
    "\u2581none": 68,
    "ls": 69,
    "val": 70,
    "\u2581in": 71,
    "ecriticalsectio": 72,
    "\u25810x12": 73,
    "loc": 74,
    "ap": 75,
    "\u25810x77000000": 76,
    "value": 77,
    "co": 78,
    "\u25810xfeee00": 79,
    "\u25810x2": 80,
    "getvalue": 81,
    "lsgetvalue": 82,
    "11": 83,
    "de": 84,
    "\u25810xfeee000": 85,
    "or": 86,
    "\u2581s": 87,
    "us": 88,
    "ff": 89,
    "\u25810x46": 90,
    "te": 91,
    "a0": 92,
    "ar": 93,
    "\u25810x1211": 94,
    "an": 95,
    "iz": 96,
    "aliz": 97,
    "\u25810x770": 98,
    "itializ": 99,
    "he": 100,
    "f0": 101,
    "\u2581initializ": 102,
    "nex": 103,
    "\u2581initializecriticalsectio": 104,
    "\u2581f": 105,
    "\u25810x8": 106,
    "heap": 107,
    "\u2581en": 108,
    "user": 109,
    "\u2581heap": 110,
    "\u2581user": 111,
    "48": 112,
    "as": 113,
    "\u2581c": 114,
    "\u25810xfa0": 115,
    "\u2581user32": 116,
    "39": 117,
    "alloc": 118,
    "ror": 119,
    "\u2581t": 120,
    "dec": 121,
    "po": 122,
    "\u25810x771": 123,
    "las": 124,
    "laster": 125,
    "lasterror": 126,
    "poin": 127,
    "pointer": 128,
    "and": 129,
    "depointer": 130,
    "\u25810x24": 131,
    "ta": 132,
    "\u2581l": 133,
    "\u25810x2439": 134,
    "\u25810x243948": 135,
    "\u2581tlsgetvalue": 136,
    "\u25810xfeee0001": 137,
    "\u2581initializecriticalsectionex": 138,
    "ow": 139,
    "\u2581m": 140,
    "90": 141,
    "\u2581set": 142,
    "\u25810x5": 143,
    "d0": 144,
    "10": 145,
    "nt": 146,
    "str": 147,
    "inf": 148,
    "lea": 149,
    "\u2581heapalloc": 150,
    "\u2581flsgetvalue": 151,
    "ing": 152,
    "\u25810x100": 153,
    "\u2581w": 154,
    "har": 155,
    "ex": 156,
    "string": 157,
    "00000": 158,
    "fi": 159,
    "\u25810x10": 160,
    "\u25810x40": 161,
    "\u25810x42": 162,
    "\u2581d": 163,
    "ent": 164,
    "ac": 165,
    "oad": 166,
    "mp": 167,
    "\u25810x41": 168,
    "\u2581enco": 169,
    "\u2581encodepointer": 170,
    "\u2581load": 171,
    "\u25810x45": 172,
    "terc": 173,
    "ecriticalsection": 174,
    "li": 175,
    "leav": 176,
    "\u2581leav": 177,
    "\u2581leavecriticalsection": 178,
    "riticalsection": 179,
    "tercriticalsection": 180,
    "\u2581entercriticalsection": 181,
    "on": 182,
    "info": 183,
    "\u25810x3": 184,
    "e4": 185,
    "\u2581getlasterror": 186,
    "\u25810x46d0": 187,
    "hand": 188,
    "by": 189,
    "tu": 190,
    "\u2581getc": 191,
    "\u2581setlasterror": 192,
    "\u25810x45f0": 193,
    "\u25810xc": 194,
    "tat": 195,
    "ess": 196,
    "let": 197,
    "ffff": 198,
    "local": 199,
    "unt": 200,
    "tion": 201,
    "ul": 202,
    "10000": 203,
    "\u25810x43": 204,
    "ind": 205,
    "40": 206,
    "count": 207,
    "\u25810x78": 208,
    "om": 209,
    "\u25810x4e4": 210,
    "bc": 211,
    "\u2581initializecriticalsection": 212,
    "vi": 213,
    "ys": 214,
    "ll": 215,
    "\u25810x400000": 216,
    "ed": 217,
    "ur": 218,
    "\u25810x46f0": 219,
    "mo": 220,
    "\u25810x6": 221,
    "ate": 222,
    "20": 223,
    "f8": 224,
    "b0": 225,
    "ulti": 226,
    "idec": 227,
    "ultiby": 228,
    "idechar": 229,
    "indow": 230,
    "du": 231,
    "30": 232,
    "handle": 233,
    "c0": 234,
    "\u2581dec": 235,
    "\u2581gets": 236,
    "50": 237,
    "dule": 238,
    "pinfo": 239,
    "module": 240,
    "tem": 241,
    "\u2581deco": 242,
    "\u2581decodepointer": 243,
    "\u2581getmodule": 244,
    "me": 245,
    "ystem": 246,
    "70": 247,
    "exw": 248,
    "file": 249,
    "locale": 250,
    "\u25810xfeee001": 251,
    "\u25810x7d": 252,
    "78": 253,
    "\u2581char": 254,
    "ble": 255,
    "sp": 256,
    "\u2581charnex": 257,
    "\u2581cre": 258,
    "ment": 259,
    "\u2581loadstring": 260,
    "\u2581getcpinfo": 261,
    "ion": 262,
    "spin": 263,
    "spincount": 264,
    "\u2581initializecriticalsectionand": 265,
    "\u2581initializecriticalsectionandspincount": 266,
    "vir": 267,
    "a5": 268,
    "\u2581dll": 269,
    "tet": 270,
    "rt": 271,
    "\u2581ms": 272,
    "\u25810x1211f": 273,
    "e0": 274,
    "d10000": 275,
    "\u25810x77d10000": 276,
    "18": 277,
    "process": 278,
    "fr": 279,
    "indows": 280,
    "tw": 281,
    "yp": 282,
    "\u25810x10c": 283,
    "dco": 284,
    "\u2581ini": 285,
    "\u25810x7e": 286,
    "\u25810xc000": 287,
    "ce": 288,
    "\u2581windows": 289,
    "d8": 290,
    "ri": 291,
    "28": 292,
    "60": 293,
    "\u25810xff": 294,
    "\u2581getlocale": 295,
    "\u2581create": 296,
    "c4": 297,
    "98": 298,
    "38": 299,
    "br": 300,
    "lock": 301,
    "ary": 302,
    "tatus": 303,
    "ans": 304,
    "status": 305,
    "\u25810xf00": 306,
    "trans": 307,
    "ge": 308,
    "\u25810x9": 309,
    "\u2581multiby": 310,
    "tetow": 311,
    "tetowidechar": 312,
    "\u2581multibytetowidechar": 313,
    "que": 314,
    "lient": 315,
    "brary": 316,
    "rent": 317,
    "\u2581getcpinfoexw": 318,
    "\u25810x243948c": 319,
    "urrent": 320,
    "action": 321,
    "map": 322,
    "table": 323,
    "queue": 324,
    "mplet": 325,
    "mpletion": 326,
    "queuedco": 327,
    "mpletionstatus": 328,
    "queuedcompletionstatus": 329,
    "\u25810xfffff": 330,
    "\u2581ddec": 331,
    "\u2581getqueuedcompletionstatus": 332,
    "transaction": 333,
    "\u2581ddeclient": 334,
    "\u2581ddeclienttransaction": 335,
    "tatom": 336,
    "\u2581initatom": 337,
    "\u25810x2439480": 338,
    "\u25810x2439484": 339,
    "\u25810x2439488": 340,
    "\u2581initatomtable": 341,
    "\u2581a": 342,
    "\u25810xfffffff": 343,
    "free": 344,
    "vc": 345,
    "id": 346,
    "34": 347,
    "\u2581msvc": 348,
    "\u2581getst": 349,
    "26": 350,
    "\u2581msvcrt": 351,
    "th": 352,
    "\u2581inter": 353,
    "\u2581g": 354,
    "lo": 355,
    "\u2581system": 356,
    "age": 357,
    "\u25810x1211c": 358,
    "64": 359,
    "\u2581system32": 360,
    "\u2581interlock": 361,
    "\u25810x4690": 362,
    "di": 363,
    "\u25810x40a5": 364,
    "\u2581interlocked": 365,
    "op": 366,
    "58": 367,
    "rement": 368,
    "a8": 369,
    "b8": 370,
    "69": 371,
    "68": 372,
    "\u25810x1210": 373,
    "cc": 374,
    "1000": 375,
    "\u25810x88": 376,
    "ey": 377,
    "na": 378,
    "ype": 379,
    "virtu": 380,
    "virtual": 381,
    "hi": 382,
    "def": 383,
    "3000": 384,
    "library": 385,
    "un": 386,
    "infow": 387,
    "\u2581charnextw": 388,
    "\u25810x90": 389,
    "it": 390,
    "\u2581p": 391,
    "\u2581lc": 392,
    "\u2581lcmap": 393,
    "\u2581lcmapstring": 394,
    "a000": 395,
    "filet": 396,
    "\u2581getcurrent": 397,
    "em": 398,
    "b000": 399,
    "2000": 400,
    "ol": 401,
    "\u2581loadstringw": 402,
    "\u2581re": 403,
    "open": 404,
    "5000": 405,
    "\u2581heapfree": 406,
    "rs": 407,
    "\u25810x70": 408,
    "cmp": 409,
    "14": 410,
    "\u2581virtual": 411,
    "api": 412,
    "7c": 413,
    "7000": 414,
    "f000": 415,
    "d4": 416,
    "var": 417,
    "6000": 418,
    "\u2581loadlibrary": 419,
    "\u25810xfeee002": 420,
    "rite": 421,
    "key": 422,
    "ers": 423,
    "temp": 424,
    "d000": 425,
    "\u25810x409": 426,
    "qu": 427,
    "\u25810xfeee007": 428,
    "con": 429,
    "\u25810x78000000": 430,
    "\u25810xfeee005": 431,
    "\u25810x18": 432,
    "handlew": 433,
    "\u2581loadstringa": 434,
    "e000": 435,
    "9000": 436,
    "\u25810xfeee004": 437,
    "so": 438,
    "\u2581mem": 439,
    "\u25810x47": 440,
    "\u2581charnexta": 441,
    "name": 442,
    "tom": 443,
    "\u2581getmodulehandlew": 444,
    "thread": 445,
    "tor": 446,
    "\u2581ex": 447,
    "vw": 448,
    "ck": 449,
    "c8": 450,
    "\u25810x12119": 451,
    "ultibyte": 452,
    "\u2581widechar": 453,
    "tomultibyte": 454,
    "\u2581widechartomultibyte": 455,
    "\u25810xfeee008": 456,
    "lm": 457,
    "nop": 458,
    "xy": 459,
    "xyz": 460,
    "\u2581abc": 461,
    "ghi": 462,
    "klm": 463,
    "qrs": 464,
    "tuvw": 465,
    "tuvwxyz": 466,
    "nopqrs": 467,
    "defghi": 468,
    "nopqrstuvwxyz": 469,
    "\u2581abcdefghi": 470,
    "klmnopqrstuvwxyz": 471,
    "\u2581getti": 472,
    "a4": 473,
    "\u25810x12117": 474,
    "mm": 475,
    "\u2581memcmp": 476,
    "\u25810x44": 477,
    "orm": 478,
    "12": 479,
    "\u25810x3f": 480,
    "56": 481,
    "e8": 482,
    "inc": 483,
    "\u25810x41f0": 484,
    "\u2581interlockedinc": 485,
    "\u2581interlockedincrement": 486,
    "rec": 487,
    "\u25810x41f040": 488,
    "\u2581getlocaleinfo": 489,
    "\u2581getlocaleinfow": 490,
    "ch": 491,
    "\u2581co": 492,
    "\u25810x79": 493,
    "\u2581read": 494,
    "\u2581gettick": 495,
    "\u2581gettickcount": 496,
    "da": 497,
    "\u2581getfilet": 498,
    "\u2581getfiletype": 499,
    "\u25810xfeee006": 500,
    "\u25810x20": 501,
    "\u2581reg": 502,
    "c000": 503,
    "quer": 504,
    "dhandle": 505,
    "\u25810xffffffff": 506,
    "\u25810x5f8": 507,
    "b4": 508,
    "\u25810x4c4": 509,
    "\u25810x5f800000": 510,
    "e6": 511,
    "\u2581getlocaleinfoa": 512,
    "c00000": 513,
    "\u25810x78c00000": 514,
    "\u25810x526": 515,
    "\u2581getstdhandle": 516,
    "\u25810x200": 517,
    "\u25810x80": 518,
    "\u25810xfeee003": 519,
    "74": 520,
    "\u2581getmodulehand": 521,
    "vers": 522,
    "\u2581temp": 523,
    "\u25810x7ec": 524,
    "sw": 525,
    "sset": 526,
    "\u25810xcd": 527,
    "\u25810x7de": 528,
    "\u2581getmodulehandlea": 529,
    "viron": 530,
    "dbc": 531,
    "sle": 532,
    "\u2581getsystem": 533,
    "e10000": 534,
    "los": 535,
    "\u25810x77e10000": 536,
    "ool": 537,
    "vironment": 538,
    "fc": 539,
    "f4": 540,
    "\u25811": 541,
    "\u25810xfeee0004": 542,
    "dc": 543,
    "lsset": 544,
    "lssetvalue": 545,
    "\u25810x1211d": 546,
    "\u25810xa": 547,
    "\u2581fls": 548,
    "direc": 549,
    "adby": 550,
    "dbcsle": 551,
    "\u2581isdbcsle": 552,
    "\u2581isdbcsleadby": 553,
    "ute": 554,
    "\u2581isdbcsleadbyte": 555,
    "filename": 556,
    "ea": 557,
    "5c": 558,
    "b9": 559,
    "\u2581open": 560,
    "of": 561,
    "24": 562,
    "54": 563,
    "director": 564,
    "\u2581ap": 565,
    "\u2581var": 566,
    "2c": 567,
    "91": 568,
    "\u25810x7c": 569,
    "\u25810xf001": 570,
    "window": 571,
    "la": 572,
    "\u2581local": 573,
    "\u25810x4610": 574,
    "\u2581getmodulefilename": 575,
    "artu": 576,
    "\u2581getco": 577,
    "71": 578,
    "\u25810x1211e": 579,
    "\u25810xfeee0002": 580,
    "\u25810x54": 581,
    "eco": 582,
    "\u2581h": 583,
    "94": 584,
    "\u2581se": 585,
    "\u25810x7d90": 586,
    "\u25810x104": 587,
    "\u25810x4600": 588,
    "\u2581lcmapstringex": 589,
    "\u25810xfeee0000": 590,
    "dll": 591,
    "e5": 592,
    "\u25810x7700": 593,
    "\u25810x7718": 594,
    "\u25810x7708": 595,
    "\u25810x7711": 596,
    "\u25810x800": 597,
    "b7": 598,
    "\u2581ad": 599,
    "mmand": 600,
    "ect": 601,
    "\u25810x400": 602,
    "line": 603,
    "readpool": 604,
    "\u2581b": 605,
    "mmandline": 606,
    "\u2581lcmapstringw": 607,
    "1c": 608,
    "\u2581getstartu": 609,
    "are": 610,
    "api32": 611,
    "\u2581getcommandline": 612,
    "stringsw": 613,
    "3c": 614,
    "\u2581adv": 615,
    "\u25810x4093": 616,
    "\u2581advapi32": 617,
    "\u2581flssetvalue": 618,
    "\u2581getcurrentthread": 619,
    "\u25810x7710": 620,
    "\u25810x7714": 621,
    "\u25810x7704": 622,
    "\u2581clos": 623,
    "form": 624,
    "9c": 625,
    "\u2581loadlibrarya": 626,
    "eex": 627,
    "\u2581apis": 628,
    "res": 629,
    "\u2581getcurrentthreadid": 630,
    "\u2581flsalloc": 631,
    "write": 632,
    "\u2581fr": 633,
    "\u25810xfeee0003": 634,
    "\u2581virtualalloc": 635,
    "vironmentstringsw": 636,
    "ad0": 637,
    "filew": 638,
    "\u25810x4c42": 639,
    "es": 640,
    "ation": 641,
    "\u25810x1c": 642,
    "75": 643,
    "\u25810x7705": 644,
    "\u25810x7709": 645,
    "\u25810x7715": 646,
    "\u25810x7719": 647,
    "66": 648,
    "\u2581de": 649,
    "ve": 650,
    "80": 651,
    "time": 652,
    "processor": 653,
    "\u2581write": 654,
    "\u25810x4a": 655,
    "directory": 656,
    "\u25810xfeee0005": 657,
    "\u25810xf003": 658,
    "a9": 659,
    "f3": 660,
    "\u25810xf002": 661,
    "\u25810x7a": 662,
    "\u2581getvers": 663,
    "f1": 664,
    "\u25810x7706": 665,
    "\u25810x7716": 666,
    "\u25810x7702": 667,
    "\u25810x770b": 668,
    "\u25810x7717": 669,
    "\u25810x7707": 670,
    "\u25810x770d": 671,
    "\u25810x770f": 672,
    "\u25810x7712": 673,
    "\u25810x771b": 674,
    "\u25810x120": 675,
    "\u2581nt": 676,
    "arch": 677,
    "\u2581interlockeddec": 678,
    "\u2581interlockeddecrement": 679,
    "789": 680,
    "mess": 681,
    "\u25810x70cc": 682,
    "\u2581win": 683,
    "\u2581page": 684,
    "filea": 685,
    "db": 686,
    "\u2581getprocess": 687,
    "ist": 688,
    "\u25810x7b": 689,
    "a1": 690,
    "\u25810x8810": 691,
    "3456": 692,
    "\u2581crea": 693,
    "\u25810x48": 694,
    "cep": 695,
    "\u2581012": 696,
    "3456789": 697,
    "\u25810123456789": 698,
    "ic": 699,
    "\u2581readwrite": 700,
    "int": 701,
    "\u25810x7e70": 702,
    "\u25810x8c": 703,
    "\u25810x770c": 704,
    "\u25810x7701": 705,
    "\u25810x7703": 706,
    "\u25810x7713": 707,
    "um": 708,
    "dd": 709,
    "a6": 710,
    "\u2581getprocessheap": 711,
    "tware": 712,
    "\u25810x4378": 713,
    "b5": 714,
    "message": 715,
    "\u2581l1": 716,
    "\u2581ls": 717,
    "oftware": 718,
    "\u2581hkey": 719,
    "\u25810xfeee009": 720,
    "\u2581software": 721,
    "ai": 722,
    "f5": 723,
    "\u2581search": 724,
    "f9": 725,
    "\u2581api": 726,
    "vari": 727,
    "\u2581geten": 728,
    "\u2581loadlibraryexw": 729,
    "up": 730,
    "a2": 731,
    "\u25810x12115": 732,
    "tin": 733,
    "ab": 734,
    "36": 735,
    "3d": 736,
    "type": 737,
    "\u25810x14": 738,
    "\u2581x": 739,
    "sour": 740,
    "ob": 741,
    "\u2581fi": 742,
    "\u25810x770a": 743,
    "\u25810x770e": 744,
    "\u25810x771a": 745,
    "\u25810x437": 746,
    "\u2581lstr": 747,
    "pres": 748,
    "present": 749,
    "ception": 750,
    "ut": 751,
    "\u25810x169": 752,
    "\u25810x8ad0": 753,
    "\u25810x102": 754,
    "e2": 755,
    "\u25810xfeee0006": 756,
    "15": 757,
    "bo": 758,
    "\u2581getcurrentprocess": 759,
    "\u2581localalloc": 760,
    "ction": 761,
    "list": 762,
    "\u2581quer": 763,
    "f6": 764,
    "ra": 765,
    "yper": 766,
    "forman": 767,
    "yperforman": 768,
    "\u2581queryperforman": 769,
    "ait": 770,
    "\u25810x8000": 771,
    "\u25812": 772,
    "\u2581gdi": 773,
    "b2": 774,
    "fea": 775,
    "ture": 776,
    "\u2581getstring": 777,
    "ime": 778,
    "\u2581getstringtype": 779,
    "unter": 780,
    "\u25810x420": 781,
    "source": 782,
    "ceco": 783,
    "\u2581sl": 784,
    "cecounter": 785,
    "\u2581queryperformancecounter": 786,
    "eep": 787,
    "feature": 788,
    "\u2581isprocessor": 789,
    "featurepresent": 790,
    "\u2581isprocessorfeaturepresent": 791,
    "508": 792,
    "valid": 793,
    "\u2581current": 794,
    "\u25810xfff": 795,
    "\u2581core": 796,
    "4c": 797,
    "\u25810x73": 798,
    "\u2581sleep": 799,
    "query": 800,
    "19": 801,
    "dex": 802,
    "76": 803,
    "\u2581ws": 804,
    "tim": 805,
    "\u25810x7000": 806,
    "\u2581find": 807,
    "aa": 808,
    "\u2581gdi32": 809,
    "\u25810x7ec0": 810,
    "filetime": 811,
    "sole": 812,
    "\u2581li": 813,
    "\u2581getstringtypew": 814,
    "hel": 815,
    "\u25810x9000": 816,
    "\u2581getsystemtime": 817,
    "locales": 818,
    "timer": 819,
    "\u25810x7de0": 820,
    "bd": 821,
    "\u25810x42c": 822,
    "\u25810x1211c98": 823,
    "b6": 824,
    "ock": 825,
    "af": 826,
    "\u25810x76": 827,
    "\u25810x430": 828,
    "\u25810x4c": 829,
    "ecute": 830,
    "\u2581sh": 831,
    "exa": 832,
    "hreadpool": 833,
    "console": 834,
    "79": 835,
    "35": 836,
    "\u2581library": 837,
    "bf": 838,
    "\u25810x7890": 839,
    "ting": 840,
    "\u2581virtualquery": 841,
    "\u25810x71": 842,
    "asfiletime": 843,
    "to": 844,
    "pinfow": 845,
    "\u2581getstartupinfow": 846,
    "\u25810x8a": 847,
    "fil": 848,
    "lob": 849,
    "\u2581glob": 850,
    "\u25810xfeee0007": 851,
    "\u25810x75": 852,
    "\u2581crt": 853,
    "\u25810x69": 854,
    "\u25810x56": 855,
    "d2": 856,
    "\u2581delet": 857,
    "d5": 858,
    "\u2581createt": 859,
    "d6": 860,
    "\u25810x220": 861,
    "4000": 862,
    "\u2581getcommandlinea": 863,
    "e9": 864,
    "\u2581regis": 865,
    "eexw": 866,
    "\u2581getmodulefilenamew": 867,
    "e7": 868,
    "\u2581getac": 869,
    "\u25810x7f": 870,
    "\u2581getsystemtimeasfiletime": 871,
    "print": 872,
    "\u25810x7c000000": 873,
    "\u2581pf": 874,
    "\u2581getacp": 875,
    "\u25810x49": 876,
    "inform": 877,
    "dexception": 878,
    "filter": 879,
    "\u25810x41de": 880,
    "31": 881,
    "unhandle": 882,
    "dexceptionfilter": 883,
    "unhandledexceptionfilter": 884,
    "\u2581getmodulefilenamea": 885,
    "b1": 886,
    "directoryw": 887,
    "ervi": 888,
    "from": 889,
    "\u25810x7d91": 890,
    "printf": 891,
    "eric": 892,
    "information": 893,
    "\u2581close": 894,
    "\u25810x1211c18": 895,
    "\u2581ac": 896,
    "onex": 897,
    "\u25810x4ab0": 898,
    "\u2581closehandle": 899,
    "\u25810x72": 900,
    "\u2581regopen": 901,
    "\u2581regopenkey": 902,
    "88": 903,
    "rive": 904,
    "\u25810x4670": 905,
    "stru": 906,
    "b3": 907,
    "\u2581getconsole": 908,
    "struction": 909,
    "\u25810x74": 910,
    "\u2581getcurrentprocessid": 911,
    "\u2581gen": 912,
    "tri": 913,
    "\u2581locales": 914,
    "ity": 915,
    "ionex": 916,
    "\u2581getversionex": 917,
    "be": 918,
    "\u2581o": 919,
    "\u25810x50": 920,
    "\u2581writefile": 921,
    "eeen": 922,
    "\u2581freeen": 923,
    "\u25810x7ee": 924,
    "25": 925,
    "\u2581generic": 926,
    "\u25810x4c42c0": 927,
    "\u2581execute": 928,
    "py": 929,
    "\u2581setunhandledexceptionfilter": 930,
    "6c": 931,
    "vai": 932,
    "vaila": 933,
    "vailable": 934,
    "st": 935,
    "\u25810x69000000": 936,
    "\u2581getenvironmentstringsw": 937,
    "e1": 938,
    "ack": 939,
    "messagea": 940,
    "\u2581freeenvironmentstringsw": 941,
    "a7": 942,
    "\u2581available": 943,
    "f2": 944,
    "lass": 945,
    "308": 946,
    "\u25810x30": 947,
    "55": 948,
    "defa": 949,
    "defaul": 950,
    "8c": 951,
    "\u2581instruction": 952,
    "\u2581shel": 953,
    "i64": 954,
    "\u2581instructions": 955,
    "\u2581xmm": 956,
    "\u2581xmmi64": 957,
    "processlist": 958,
    "\u2581getconsoleprocesslist": 959,
    "f7": 960,
    "\u25810x5265c": 961,
    "\u2581createfilew": 962,
    "\u2581invalid": 963,
    "cre": 964,
    "\u2581getcommandlinew": 965,
    "37": 966,
    "servi": 967,
    "at": 968,
    "lus": 969,
    "sc": 970,
    "\u2581free": 971,
    "error": 972,
    "\u2581getuser": 973,
    "threadpool": 974,
    "\u2581getstartupinfo": 975,
    "\u2581getstartupinfoa": 976,
    "fd": 977,
    "\u2581lstrle": 978,
    "\u25810xfffffff6": 979,
    "\u2581global": 980,
    "ition": 981,
    "\u25810xfffffff5": 982,
    "\u25810xfffffff4": 983,
    "dition": 984,
    "able": 985,
    "handl": 986,
    "urity": 987,
    "\u25810x42e5": 988,
    "default": 989,
    "security": 990,
    "\u25810x1211f38": 991,
    "cess": 992,
    "\u25810x5266": 993,
    "\u25810x1210e": 994,
    "\u25810x12116": 995,
    "ba": 996,
    "ard": 997,
    "\u25810x19": 998,
    "\u25810xfeee0": 999,
    "og": 1000,
    "8000": 1001,
    "\u25810x7e71": 1002,
    "section": 1003,
    "\u25810x1211e0": 1004,
    "wait": 1005,
    "16": 1006,
    "dep": 1007,
    "urs": 1008,
    "board": 1009,
    "84": 1010,
    "ber": 1011,
    "29": 1012,
    "\u2581crtdll": 1013,
    "27": 1014,
    "\u25810xd": 1015,
    "variable": 1016,
    "\u2581setfile": 1017,
    "\u25810x7910": 1018,
    "\u25810x416": 1019,
    "\u25810x771c": 1020,
    "create": 1021,
    "44": 1022,
    "3f": 1023,
    "end": 1024,
    "3e": 1025,
    "art": 1026,
    "17": 1027,
    "f10000": 1028,
    "gu": 1029,
    "\u25810x40934": 1030,
    "ot": 1031,
    "\u25810x77f10000": 1032,
    "\u2581process": 1033,
    "\u25810x47b0": 1034,
    "22": 1035,
    "\u2581access": 1036,
    "a80": 1037,
    "\u25810x8d": 1038,
    "\u25810x7ed": 1039,
    "\u2581process32": 1040,
    "\u2581map": 1041,
    "\u2581gettemp": 1042,
    "106": 1043,
    "num": 1044,
    "lor": 1045,
    "\u25810x2a": 1046,
    "date": 1047,
    "99": 1048,
    "\u2581getversion": 1049,
    "ical": 1050,
    "tex": 1051,
    "04": 1052,
    "vali": 1053,
    "\u2581ntdll": 1054,
    "\u25810x34": 1055,
    "depage": 1056,
    "validco": 1057,
    "bu": 1058,
    "bb": 1059,
    "ursor": 1060,
    "\u2581drive": 1061,
    "a3": 1062,
    "\u25810x82": 1063,
    "\u25810xe": 1064,
    "\u25810x3000": 1065,
    "\u2581isvalidco": 1066,
    "\u2581isvalidcodepage": 1067,
    "realloc": 1068,
    "hread": 1069,
    "\u25810x4d": 1070,
    "\u25810xffc": 1071,
    "\u25810x418": 1072,
    "ant": 1073,
    "\u2581al": 1074,
    "7d": 1075,
    "icon": 1076,
    "\u2581getthread": 1077,
    "ae": 1078,
    "\u25810x11": 1079,
    "00c": 1080,
    "color": 1081,
    "vie": 1082,
    "\u25810x1211dc0": 1083,
    "ro": 1084,
    "db10": 1085,
    "day": 1086,
    "ico": 1087,
    "\u2581key": 1088,
    "\u2581delete": 1089,
    "cursor": 1090,
    "version": 1091,
    "\u25810x13": 1092,
    "db10106": 1093,
    "\u25810x1db10106": 1094,
    "\u25810x120e6": 1095,
    "\u25810x42d": 1096,
    "\u25810x4750": 1097,
    "\u25810xb": 1098,
    "rtl": 1099,
    "\u25810xfeee0008": 1100,
    "\u2581rtl": 1101,
    "firs": 1102,
    "\u25810x4305": 1103,
    "\u25810x435": 1104,
    "\u2581heapcreate": 1105,
    "\u25810x43b7": 1106,
    "condition": 1107,
    "\u25810xfeee0009": 1108,
    "\u25810x8811": 1109,
    "\u25810x5265c14": 1110,
    "d7": 1111,
    "\u2581loadcursor": 1112,
    "\u25810xfeee000a": 1113,
    "\u25810xfeee000b": 1114,
    "\u2581heaprealloc": 1115,
    "\u25810x7ec1": 1116,
    "d1": 1117,
    "ating": 1118,
    "\u25810xfeee000c": 1119,
    "net": 1120,
    "\u25810xfeee000d": 1121,
    "\u25810xfeee000e": 1122,
    "\u2581str": 1123,
    "\u25810xfeee0014": 1124,
    "view": 1125,
    "\u25810xfeee000f": 1126,
    "\u2581exit": 1127,
    "directorya": 1128,
    "hine": 1129,
    "\u2581mac": 1130,
    "\u2581machine": 1131,
    "\u2581creates": 1132,
    "\u2581regopenkeyexw": 1133,
    "\u25810xfeee0010": 1134,
    "97": 1135,
    "\u25810xfeee0015": 1136,
    "\u25810xfeee0013": 1137,
    "\u25810xfeee0012": 1138,
    "\u25810xfeee0016": 1139,
    "\u25810xfeee0011": 1140,
    "\u2581setfilepointer": 1141,
    "33": 1142,
    "\u25817": 1143,
    "\u25810x32": 1144,
    "95": 1145,
    "\u25810x4e": 1146,
    "lip": 1147,
    "\u25810x12116d8": 1148,
    "cec": 1149,
    "\u2581bor": 1150,
    "bute": 1151,
    "tribute": 1152,
    "\u25810x7de1": 1153,
    "67": 1154,
    "\u25810x1210f": 1155,
    "1a": 1156,
    "\u2581freelibrary": 1157,
    "\u25810x1211918": 1158,
    "\u25810x4b": 1159,
    "men": 1160,
    "dr": 1161,
    "ttribute": 1162,
    "lic": 1163,
    "set": 1164,
    "for": 1165,
    "\u25810x1211e04": 1166,
    "rw": 1167,
    "ork": 1168,
    "fileattribute": 1169,
    "\u25810x50000": 1170,
    "lipboard": 1171,
    "met": 1172,
    "394": 1173,
    "\u2581borl": 1174,
    "call": 1175,
    "fa": 1176,
    "lose": 1177,
    "\u2581closet": 1178,
    "\u2581closethreadpool": 1179,
    "\u2581createthreadpool": 1180,
    "\u25810xfeee0017": 1181,
    "\u25810xfeee0018": 1182,
    "mode": 1183,
    "\u25810x7810": 1184,
    "keyw": 1185,
    "service": 1186,
    "\u2581borland": 1187,
    "close": 1188,
    "\u25810xfeee0019": 1189,
    "\u2581i": 1190,
    "utex": 1191,
    "erw": 1192,
    "cs": 1193,
    "908": 1194,
    "ame": 1195,
    "\u25810x419": 1196,
    "\u2581shell32": 1197,
    "l66": 1198,
    "\u2581registerc": 1199,
    "77": 1200,
    "leas": 1201,
    "log": 1202,
    "d9": 1203,
    "08": 1204,
    "\u25810x58": 1205,
    "1e": 1206,
    "\u2581tls": 1207,
    "menu": 1208,
    "aps": 1209,
    "\u2581mapvirtual": 1210,
    "all": 1211,
    "a40": 1212,
    "\u2581getsys": 1213,
    "\u2581mapvirtualkeyw": 1214,
    "bers": 1215,
    "\u25810x42d4": 1216,
    "nw": 1217,
    "try": 1218,
    "back": 1219,
    "\u25810xfeee001a": 1220,
    "fromstr": 1221,
    "b80": 1222,
    "l6660": 1223,
    "esource": 1224,
    "\u25810xfeee0071": 1225,
    "\u25810x42c4": 1226,
    "\u25810x12114": 1227,
    "term": 1228,
    "loating": 1229,
    "resource": 1230,
    "\u25810x7f8": 1231,
    "first": 1232,
    "2e": 1233,
    "c6": 1234,
    "rip": 1235,
    "scrip": 1236,
    "b00": 1237,
    "il": 1238,
    "21": 1239,
    "\u25810xfeee001c": 1240,
    "\u25810x7f00": 1241,
    "rwlock": 1242,
    "ies": 1243,
    "callback": 1244,
    "descrip": 1245,
    "7e": 1246,
    "yn": 1247,
    "\u25810x1211c7c": 1248,
    "\u25810x41dd": 1249,
    "\u2581setthreadpool": 1250,
    "780": 1251,
    "descriptor": 1252,
    "securitydescriptor": 1253,
    "\u2581flsfree": 1254,
    "dater": 1255,
    "\u2581wnet": 1256,
    "\u2581sprintf": 1257,
    "\u25810xfeee001b": 1258,
    "next": 1259,
    "\u2581getenvironment": 1260,
    "raw": 1261,
    "\u25810x1211958": 1262,
    "ynch": 1263,
    "\u2581registerclass": 1264,
    "\u2581getthreadlocale": 1265,
    "drl6660": 1266,
    "ename": 1267,
    "ecount": 1268,
    "\u2581synch": 1269,
    "\u2581r": 1270,
    "dateresource": 1271,
    "\u25810x1211758": 1272,
    "\u25810x7e8": 1273,
    "\u2581file": 1274,
    "\u2581go": 1275,
    "\u25810x4c4308": 1276,
    "handlecount": 1277,
    "\u2581sethandlecount": 1278,
    "directories": 1279,
    "51": 1280,
    "646": 1281,
    "ffi": 1282,
    "\u25810xfeee007e": 1283,
    "\u2581goog": 1284,
    "\u2581google": 1285,
    "df": 1286,
    "\u25810x8b": 1287,
    "\u2581setdefault": 1288,
    "logical": 1289,
    "\u2581getlogical": 1290,
    "dlldirectories": 1291,
    "\u2581setdefaultdlldirectories": 1292,
    "390": 1293,
    "\u2581wait": 1294,
    "\u2581tlssetvalue": 1295,
    "edc": 1296,
    "\u2581wi": 1297,
    "ffile": 1298,
    "eg": 1299,
    "number": 1300,
    "\u25810x417": 1301,
    "led": 1302,
    "\u2581tlsalloc": 1303,
    "atex": 1304,
    "ef": 1305,
    "\u25810x429": 1306,
    "eb": 1307,
    "\u2581readfile": 1308,
    "qui": 1309,
    "bc0": 1310,
    "\u2581wsprintf": 1311,
    "\u2581releas": 1312,
    "\u25810x4000": 1313,
    "\u25810xf0019": 1314,
    "olf": 1315,
    "drl6660drl6660": 1316,
    "\u25810x4350": 1317,
    "ive": 1318,
    "\u2581waitfor": 1319,
    "isting": 1320,
    "pa": 1321,
    "\u25810x1211b": 1322,
    "\u2581getfile": 1323,
    "\u25810x89": 1324,
    "\u25810x2c": 1325,
    "\u2581beg": 1326,
    "localename": 1327,
    "clus": 1328,
    "\u2581createfilea": 1329,
    "clusive": 1330,
    "rwlockex": 1331,
    "rwlockexclusive": 1332,
    "\u2581existing": 1333,
    "windowexa": 1334,
    "fb": 1335,
    "\u2581exitprocess": 1336,
    "\u2581begin": 1337,
    "ver": 1338,
    "72": 1339,
    "offile": 1340,
    "ailed": 1341,
    "\u25810x41bc": 1342,
    "ink": 1343,
    "\u25810x105": 1344,
    "f35": 1345,
    "sa": 1346,
    "\u25810x1211c90": 1347,
    "\u2581creat": 1348,
    "formatex": 1349,
    "\u2581floating": 1350,
    "initializ": 1351,
    "cpy": 1352,
    "\u2581lstrlenw": 1353,
    "sof": 1354,
    "\u25810x411": 1355,
    "45": 1356,
    "\u25810xa0": 1357,
    "\u25810x410": 1358,
    "\u25810x42a1": 1359,
    "\u25810x5265": 1360,
    "\u2581getversionexa": 1361,
    "\u25810x700c": 1362,
    "namea": 1363,
    "\u2581gettempw": 1364,
    "\u25810xfeee001d": 1365,
    "\u25810x28": 1366,
    "\u25810x1e": 1367,
    "\u2581virtualfree": 1368,
    "\u25810x99": 1369,
    "\u25810x1211518": 1370,
    "low": 1371,
    "\u2581king": 1372,
    "\u25810x7f800": 1373,
    "\u25810x704c": 1374,
    "\u25810x1f": 1375,
    "\u25810x708c": 1376,
    "ockob": 1377,
    "\u25810x64": 1378,
    "\u2581getstockob": 1379,
    "mutex": 1380,
    "\u25810x1211738": 1381,
    "\u25810x3394": 1382,
    "\u25810x1804": 1383,
    "\u25810x569": 1384,
    "trac": 1385,
    "mem": 1386,
    "bit": 1387,
    "\u25810x7930": 1388,
    "\u2581fibers": 1389,
    "\u25810x7ab0": 1390,
    "work": 1391,
    "d3": 1392,
    "lect": 1393,
    "\u25810x42a190": 1394,
    "soft": 1395,
    "\u2581golf": 1396,
    "icro": 1397,
    "\u25810x42e5b0": 1398,
    "\u25810x84": 1399,
    "\u25810x1211908": 1400,
    "servicew": 1401,
    "icrosoft": 1402,
    "\u25810x3f30": 1403,
    "\u25810x79f0": 1404,
    "\u2581setmenu": 1405,
    "angu": 1406,
    "ub": 1407,
    "anguage": 1408,
    "\u25810x97": 1409,
    "mutexa": 1410,
    "1f": 1411,
    "\u25810xfeee00f1": 1412,
    "\u2581select": 1413,
    "ero": 1414,
    "\u25810x12114b8": 1415,
    "ocket": 1416,
    "\u2581microsoft": 1417,
    "\u25810x44f8": 1418,
    "\u25810x94": 1419,
    "\u25810x8af0": 1420,
    "kart": 1421,
    "karton": 1422,
    "\u25810x1211718": 1423,
    "ilanguage": 1424,
    "1d": 1425,
    "\u2581kingkarton": 1426,
    "icona": 1427,
    "\u25810x1211f64": 1428,
    "\u25810xfeee001e": 1429,
    "\u25810x1211748": 1430,
    "3a": 1431,
    "\u25810x4336": 1432,
    "\u2581loadicona": 1433,
    "\u2581loadcursora": 1434,
    "\u25810x169b": 1435,
    "\u2581lstrlena": 1436,
    "not": 1437,
    "put": 1438,
    "\u2581getsystemdirectoryw": 1439,
    "59": 1440,
    "mapview": 1441,
    "\u2581getversionexw": 1442,
    "\u2581comp": 1443,
    "paint": 1444,
    "\u2581up": 1445,
    "quires": 1446,
    "sta": 1447,
    "clipboard": 1448,
    "quiresrwlockexclusive": 1449,
    "\u25810xfeee001f": 1450,
    "point": 1451,
    "\u25810x51": 1452,
    "\u25810xfeee0020": 1453,
    "\u2581extrac": 1454,
    "ory": 1455,
    "\u2581init": 1456,
    "ee0": 1457,
    "fileattributesw": 1458,
    "metri": 1459,
    "c7": 1460,
    "ke": 1461,
    "\u2581vari": 1462,
    "\u2581e": 1463,
    "metrics": 1464,
    "lush": 1465,
    "\u2581setmenuinfo": 1466,
    "52": 1467,
    "\u2581ole": 1468,
    "\u25810x42c508": 1469,
    "\u25810x1210f35": 1470,
    "\u25810x42d8": 1471,
    "\u2581getsystemmetrics": 1472,
    "c08": 1473,
    "\u2581compare": 1474,
    "280": 1475,
    "econ": 1476,
    "dateresourcea": 1477,
    "eek": 1478,
    "96": 1479,
    "\u2581ntopen": 1480,
    "\u25810x17": 1481,
    "180": 1482,
    "\u2581ntopensection": 1483,
    "yo": 1484,
    "\u2581getdc": 1485,
    "buff": 1486,
    "\u25810x8a40": 1487,
    "ho": 1488,
    "\u25810x1211cf8": 1489,
    "fe": 1490,
    "\u2581currentversion": 1491,
    "\u2581comparestring": 1492,
    "\u25810x2000": 1493,
    "\u25810x198": 1494,
    "23": 1495,
    "\u2581st": 1496,
    "\u2581wsprintfw": 1497,
    "\u2581findfirst": 1498,
    "\u25810x42c4d8": 1499,
    "\u2581con": 1500,
    "\u2581regopenkeyexa": 1501,
    "flow": 1502,
    "und": 1503,
    "\u2581getsyscolor": 1504,
    "\u25810x19a": 1505,
    "emap": 1506,
    "\u25810x1075": 1507,
    "\u25810x42b0": 1508,
    "\u2581flush": 1509,
    "\u25817z": 1510,
    "variab": 1511,
    "\u2581varb": 1512,
    "\u25810x41de20": 1513,
    "\u25810x1211528": 1514,
    "\u25810x7aa0": 1515,
    "\u2581tmp": 1516,
    "een": 1517,
    "\u25810x1211a": 1518,
    "3b": 1519,
    "\u25810x41ddd8": 1520,
    "\u25810xcc": 1521,
    "\u25810x7830": 1522,
    "\u25810x1f4": 1523,
    "\u2581createdirectoryw": 1524,
    "prot": 1525,
    "300": 1526,
    "ision": 1527,
    "\u25810x1211728": 1528,
    "\u2581findclose": 1529,
    "buffers": 1530,
    "\u25810x7850": 1531,
    "\u2581failed": 1532,
    "tun": 1533,
    "\u25810x1211948": 1534,
    "\u25810x40a5ce": 1535,
    "\u25810x40a5d0": 1536,
    "\u25810x40a5d2": 1537,
    "\u25810x40a5d4": 1538,
    "\u25810x40a5d6": 1539,
    "\u25810x40a5d8": 1540,
    "\u25810x40a5da": 1541,
    "\u2581createsemap": 1542,
    "ays": 1543,
    "isp": 1544,
    "\u25810xfeee008b": 1545,
    "\u25810x42d508": 1546,
    "trl": 1547,
    "protect": 1548,
    "ock32": 1549,
    "\u2581wsock32": 1550,
    "ways": 1551,
    "\u2581strn": 1552,
    "\u25810x92": 1553,
    "\u2581lread": 1554,
    "\u25810x4305b0": 1555,
    "fo": 1556,
    "\u25810x21000": 1557,
    "\u25810xa000": 1558,
    "dac": 1559,
    "\u2581virtualprotect": 1560,
    "\u2581app": 1561,
    "1b": 1562,
    "\u25810x83": 1563,
    "2d": 1564,
    "\u2581always": 1565,
    "\u25810x38": 1566,
    "\u25810x1f400": 1567,
    "\u2581th": 1568,
    "\u25810x8f": 1569,
    "\u25810xfeee005f": 1570,
    "tries": 1571,
    "\u2581copy": 1572,
    "\u25810x42d4d8": 1573,
    "\u25810x1b": 1574,
    "atch": 1575,
    "\u2581createwindowexa": 1576,
    "\u25810x1211fcc": 1577,
    "\u2581globalalloc": 1578,
    "sub": 1579,
    "\u2581strncmp": 1580,
    "ag": 1581,
    "\u25810x42c5": 1582,
    "\u25810x67": 1583,
    "lex": 1584,
    "\u25810x436": 1585,
    "\u2581draw": 1586,
    "\u25810x1211e14": 1587,
    "ns": 1588,
    "\u25810x43780": 1589,
    "480": 1590,
    "d04": 1591,
    "9d": 1592,
    "ed8": 1593,
    "2a": 1594,
    "\u2581peek": 1595,
    "\u2581register": 1596,
    "help": 1597,
    "\u2581lstrcpy": 1598,
    "oct": 1599,
    "\u2581start": 1600,
    "\u25810x8cc0": 1601,
    "ispatch": 1602,
    "220": 1603,
    "\u25810x678": 1604,
    "e3": 1605,
    "0000000": 1606,
    "\u25810x60": 1607,
    "\u25810x3f75": 1608,
    "informationby": 1609,
    "\u2581createprocess": 1610,
    "ace": 1611,
    "\u2581send": 1612,
    "\u25810x1211f8": 1613,
    "\u258120": 1614,
    "\u25810x2e": 1615,
    "2f": 1616,
    "\u2581shellex": 1617,
    "61": 1618,
    "ati": 1619,
    "ask": 1620,
    "tered": 1621,
    "\u25811646": 1622,
    "link": 1623,
    "ct": 1624,
    "\u25810x4371": 1625,
    "\u2581code": 1626,
    "\u25810x4630": 1627,
    "oy": 1628,
    "\u2581try": 1629,
    "\u25810x1a": 1630,
    "\u2581with": 1631,
    "696": 1632,
    "\u25810x1211e2c": 1633,
    "stroy": 1634,
    "\u2581peekmessagea": 1635,
    "\u25810xfeee0027": 1636,
    "drive": 1637,
    "allock": 1638,
    "eck": 1639,
    "variablew": 1640,
    "\u2581tryac": 1641,
    "\u2581tryacquiresrwlockexclusive": 1642,
    "gear": 1643,
    "\u2581altered": 1644,
    "\u2581codegear": 1645,
    "\u25810xfeee0026": 1646,
    "a04": 1647,
    "oper": 1648,
    "\u25810x4239": 1649,
    "\u25810xfeee0021": 1650,
    "\u2581getde": 1651,
    "\u25810xfeee0022": 1652,
    "c5": 1653,
    "de9": 1654,
    "\u2581fin": 1655,
    "\u25810x16": 1656,
    "\u25810xfeee0023": 1657,
    "\u25810x1211dfc": 1658,
    "\u25810xfeee0024": 1659,
    "\u25810xfeee0025": 1660,
    "\u2581findre": 1661,
    "9e": 1662,
    "\u25810x44f9": 1663,
    "64000": 1664,
    "a256": 1665,
    "div": 1666,
    "\u2581wa": 1667,
    "\u2581initializes": 1668,
    "\u25810x1211dcc": 1669,
    "der": 1670,
    "\u2581deletefilew": 1671,
    "\u2581sha256": 1672,
    "alet": 1673,
    "\u25810x5f5": 1674,
    "ym": 1675,
    "65": 1676,
    "\u25810x4967": 1677,
    "\u25810x12118": 1678,
    "\u25810x80c0": 1679,
    "d0a": 1680,
    "vicec": 1681,
    "\u25810x53": 1682,
    "vicecaps": 1683,
    "\u2581getdevicecaps": 1684,
    "linkw": 1685,
    "\u25810x21": 1686,
    "\u25810x437b": 1687,
    "conditionvariable": 1688,
    "\u25810x569b00": 1689,
    "\u25810x46b0": 1690,
    "\u2581golfinfo": 1691,
    "\u25810x414": 1692,
    "c2": 1693,
    "\u25810xfeee0040": 1694,
    "heck": 1695,
    "\u25810xfeee0072": 1696,
    "\u25810x12119c0": 1697,
    "ackage": 1698,
    "lp": 1699,
    "\u2581closes": 1700,
    "\u2581setthread": 1701,
    "692": 1702,
    "hen": 1703,
    "servicec": 1704,
    "\u2581globallock": 1705,
    "\u25810x423d": 1706,
    "588": 1707,
    "\u25810xfeee0028": 1708,
    "\u25810x169bf": 1709,
    "mpati": 1710,
    "bug": 1711,
    "servicectrl": 1712,
    "e80": 1713,
    "mpatible": 1714,
    "package": 1715,
    "\u25810x1211f7c": 1716,
    "\u2581createco": 1717,
    "\u2581createcompatible": 1718,
    "\u25810x15": 1719,
    "\u25814": 1720,
    "packageid": 1721,
    "\u2581getcurrentpackageid": 1722,
    "operation": 1723,
    "\u2581comparestringex": 1724,
    "\u2581getlocaleinfoex": 1725,
    "\u2581getuserdefault": 1726,
    "ton": 1727,
    "\u2581findfirstfilew": 1728,
    "mask": 1729,
    "770": 1730,
    "e66": 1731,
    "\u2581process32next": 1732,
    "\u25810x7b80": 1733,
    "\u25810x1211fd4": 1734,
    "\u2581getlogicaldrive": 1735,
    "hor": 1736,
    "\u2581ole32": 1737,
    "\u2581createmutexa": 1738,
    "\u25810xb8": 1739,
    "\u25810x419c": 1740,
    "\u25810xfeee005d": 1741,
    "verflow": 1742,
    "\u2581getenvironmentvariablew": 1743,
    "xt": 1744,
    "ymbo": 1745,
    "ymbolic": 1746,
    "320": 1747,
    "iv": 1748,
    "\u25810x22": 1749,
    "ymboliclinkw": 1750,
    "\u2581createsymboliclinkw": 1751,
    "e6b": 1752,
    "\u2581initterm": 1753,
    "\u25810x59": 1754,
    "\u2581setup": 1755,
    "iate": 1756,
    "\u2581createa": 1757,
    "c1": 1758,
    "system": 1759,
    "debug": 1760,
    "strfrom": 1761,
    "\u25810x41e2": 1762,
    "\u2581varbstrfrom": 1763,
    "\u25810x101": 1764,
    "hot": 1765,
    "ssoc": 1766,
    "ret": 1767,
    "ac000": 1768,
    "\u2581pr": 1769,
    "saf": 1770,
    "unmapview": 1771,
    "\u25810x8920": 1772,
    "ini": 1773,
    "\u2581enum": 1774,
    "86": 1775,
    "\u25810x1211fd8": 1776,
    "400": 1777,
    "\u25810x42b9": 1778,
    "ain": 1779,
    "39000": 1780,
    "\u25810x25": 1781,
    "own": 1782,
    "sn": 1783,
    "\u25810x7a80": 1784,
    "termin": 1785,
    "\u25810x460": 1786,
    "2f8": 1787,
    "\u2581isvalid": 1788,
    "retur": 1789,
    "5f": 1790,
    "\u25810xfeee0046": 1791,
    "\u2581gettime": 1792,
    "\u25810x1211fd0": 1793,
    "\u25810x98": 1794,
    "\u2581initialize": 1795,
    "69000": 1796,
    "when": 1797,
    "processwrite": 1798,
    "processornumber": 1799,
    "\u2581flushprocesswrite": 1800,
    "\u2581closethreadpoolwait": 1801,
    "\u2581flushprocesswritebuffers": 1802,
    "\u2581getcurrentprocessornumber": 1803,
    "horeexw": 1804,
    "returns": 1805,
    "callbacks": 1806,
    "\u25810xfeee0029": 1807,
    "whencallback": 1808,
    "timercallbacks": 1809,
    "\u2581setthreadpoolwait": 1810,
    "\u2581waitforthreadpool": 1811,
    "whencallbackreturns": 1812,
    "\u2581createsemaphoreexw": 1813,
    "\u2581setthreadpooltimer": 1814,
    "\u2581closethreadpooltimer": 1815,
    "\u2581createthreadpoolwait": 1816,
    "\u2581createthreadpooltimer": 1817,
    "\u2581freelibrarywhencallbackreturns": 1818,
    "\u2581waitforthreadpooltimercallbacks": 1819,
    "53": 1820,
    "\u2581getusernamea": 1821,
    "\u2581deletecriticalsection": 1822,
    "\u2581hton": 1823,
    "help32": 1824,
    "oolhelp32": 1825,
    "\u25810x79d0": 1826,
    "snaps": 1827,
    "oolhelp32snaps": 1828,
    "\u2581createtoolhelp32snaps": 1829,
    "memory": 1830,
    "\u2581termin": 1831,
    "\u25810x420c": 1832,
    "\u25810x7990": 1833,
    "\u2581createtoolhelp32snapshot": 1834,
    "c04": 1835,
    "nection": 1836,
    "ad000": 1837,
    "dacl": 1838,
    "54000": 1839,
    "securitydescriptordacl": 1840,
    "a5000": 1841,
    "ssociate": 1842,
    "2w": 1843,
    "\u2581initializesecuritydescriptor": 1844,
    "ast": 1845,
    "nection2w": 1846,
    "\u25810xfeee01": 1847,
    "\u25810xfeee007c": 1848,
    "\u25818": 1849,
    "\u25810x3c": 1850,
    "\u25810x53000": 1851,
    "9f": 1852,
    "\u25810x6781": 1853,
    "\u2581setsecuritydescriptordacl": 1854,
    "\u25813": 1855,
    "fol": 1856,
    "tes": 1857,
    "\u25810xfeee002c": 1858,
    "26000": 1859,
    "bc000": 1860,
    "b8000": 1861,
    "icode": 1862,
    "\u2581wc": 1863,
    "7b": 1864,
    "\u2581exe": 1865,
    "\u25810x7ad0": 1866,
    "92": 1867,
    "32000": 1868,
    "34000": 1869,
    "\u25810x428": 1870,
    "24000": 1871,
    "securityinfo": 1872,
    "48000": 1873,
    "\u2581extracta": 1874,
    "ssociatedi": 1875,
    "\u2581extractassociatedi": 1876,
    "7c000": 1877,
    "a8000": 1878,
    "28000": 1879,
    "74000": 1880,
    "\u25810xfeee002a": 1881,
    "a4000": 1882,
    "38000": 1883,
    "\u25810x1211cc0": 1884,
    "b4000": 1885,
    "icodestring": 1886,
    "ofsection": 1887,
    "5d": 1888,
    "98000": 1889,
    "\u2581error": 1890,
    "78000": 1891,
    "\u25810xa9": 1892,
    "\u2581beginup": 1893,
    "58000": 1894,
    "c4000": 1895,
    "initun": 1896,
    "\u2581rtlinitun": 1897,
    "\u2581rtlinitunicodestring": 1898,
    "\u25810x9030": 1899,
    "68000": 1900,
    "\u25810x364": 1901,
    "\u25810xfeee002b": 1902,
    "94000": 1903,
    "3696": 1904,
    "\u25810xfeee002d": 1905,
    "\u25810xfeee002f": 1906,
    "ac6": 1907,
    "\u25810d0a": 1908,
    "e6669": 1909,
    "e6b692": 1910,
    "3696e6b692": 1911,
    "3696e6b692e6669": 1912,
    "\u25810x214": 1913,
    "\u25810xfeee0074": 1914,
    "\u25810x423": 1915,
    "\u25810x41e218": 1916,
    "7a": 1917,
    "iconw": 1918,
    "\u25810x42e": 1919,
    "688": 1920,
    "\u25810x1211dd4": 1921,
    "\u25810x1211780": 1922,
    "\u25810xfeee002e": 1923,
    "\u2581loadiconw": 1924,
    "\u2581releasedc": 1925,
    "sti": 1926,
    "\u25810xfeee006b": 1927,
    "\u25810x23": 1928,
    "ont": 1929,
    "\u25810xfde9": 1930,
    "chan": 1931,
    "\u25810xfeee006d": 1932,
    "2b": 1933,
    "6f": 1934,
    "c9": 1935,
    "cad": 1936,
    "sup": 1937,
    "\u258110": 1938,
    "\u25810x47c0": 1939,
    "\u25810x42a9": 1940,
    "main": 1941,
    "13": 1942,
    "\u25810x2f": 1943,
    "\u25810xfeee0045": 1944,
    "\u25810x1211f28": 1945,
    "valu": 1946,
    "\u25810x12117f8": 1947,
    "cel": 1948,
    "\u2581mon": 1949,
    "untime": 1950,
    "\u25810xfeee0030": 1951,
    "\u25810x42a9a0": 1952,
    "fer": 1953,
    "\u25810x1211fc8": 1954,
    "lphi": 1955,
    "\u2581delphi": 1956,
    "\u25810x48f8": 1957,
    "\u25810x44f8e0": 1958,
    "brus": 1959,
    "\u25810xfeee0031": 1960,
    "\u25810xfeee009a": 1961,
    "\u2581createthread": 1962,
    "ryp": 1963,
    "\u2581getdate": 1964,
    "\u25810x5f500000": 1965,
    "73": 1966,
    "\u25810xfeee0044": 1967,
    "refer": 1968,
    "\u258132": 1969,
    "\u25810xfeee005e": 1970,
    "input": 1971,
    "\u2581loadcursorw": 1972,
    "\u2581getfileattributesw": 1973,
    "brush": 1974,
    "7f": 1975,
    "\u2581font": 1976,
    "rect": 1977,
    "\u25810x4790": 1978,
    "\u25810x4c32": 1979,
    "\u25810xe0": 1980,
    "stitu": 1981,
    "stitutes": 1982,
    "\u2581fontsub": 1983,
    "\u2581fontsubstitutes": 1984,
    "\u25810x7f0": 1985,
    "\u25810xfeee0043": 1986,
    "\u25810x188": 1987,
    "\u25810xfeee0047": 1988,
    "\u2581cryp": 1989,
    "\u25810x120e": 1990,
    "62": 1991,
    "\u2581malloc": 1992,
    "\u25810xfeee0033": 1993,
    "d80": 1994,
    "\u25810xfeee0032": 1995,
    "\u25810xfeee0035": 1996,
    "\u25810xfeee0048": 1997,
    "class": 1998,
    "\u25810xfeee0034": 1999,
    "ord": 2000,
    "\u25810xfeee003b": 2001,
    "\u25810x4f": 2002,
    "\u25810x68": 2003,
    "\u2581getsysteminfo": 2004,
    "\u25810xfeee0036": 2005,
    "\u25810xfeee0037": 2006,
    "\u2581update": 2007,
    "\u25810xfeee0049": 2008,
    "\u25810x169b9": 2009,
    "\u25810xd0": 2010,
    "\u25810x42a40": 2011,
    "\u25810xfeee0038": 2012,
    "\u25810xfeee0039": 2013,
    "\u2581enumsystem": 2014,
    "\u25810x41f3": 2015,
    "\u25810xfeee0041": 2016,
    "head": 2017,
    "\u25810xfeee003f": 2018,
    "\u25810xfeee0042": 2019,
    "\u25810xfeee0062": 2020,
    "ca": 2021,
    "\u25810xfeee003a": 2022,
    "\u25810x78c0": 2023,
    "\u25810xfeee003d": 2024,
    "6d": 2025,
    "5e": 2026,
    "\u25810xfeee003e": 2027,
    "\u25810xfeee003c": 2028,
    "arg": 2029,
    "\u2581show": 2030,
    "\u25810x88a0": 2031,
    "errormode": 2032,
    "\u25810x1211508": 2033,
    "\u2581seterrormode": 2034,
    "f04": 2035,
    "\u25810x3e": 2036,
    "\u25810x7d10": 2037,
    "\u25810x7540": 2038,
    "\u2581createdirectorya": 2039,
    "\u25810x1211f2c": 2040,
    "\u2581wake": 2041,
    "\u2581wakeall": 2042,
    "\u2581wakeallconditionvariable": 2043,
    "\u25810x96": 2044,
    "lw": 2045,
    "\u25810xfeee0053": 2046,
    "\u25810xfeee0060": 2047,
    "110": 2048,
    "\u25810xfeee0065": 2049,
    "\u25810xfeee005c": 2050,
    "\u25810xfeee004a": 2051,
    "\u25810x1211f20": 2052,
    "\u25810xfeee0066": 2053,
    "\u25810xfeee0067": 2054,
    "\u2581po": 2055,
    "\u25810xfeee0061": 2056,
    "listhead": 2057,
    "\u2581initializeslisthead": 2058,
    "\u25810xfeee004d": 2059,
    "\u25810xfeee005a": 2060,
    "inal": 2061,
    "\u25810xfeee004b": 2062,
    "\u25810xfeee004c": 2063,
    "\u25810xfeee005b": 2064,
    "\u25810x655": 2065,
    "\u25810xfeee0073": 2066,
    "redu": 2067,
    "referredu": 2068,
    "referreduilanguage": 2069,
    "threadp": 2070,
    "\u25810xfeee0050": 2071,
    "threadpreferreduilanguage": 2072,
    "\u25810xfeee0063": 2073,
    "\u25810xfeee004e": 2074,
    "\u25810xfeee0055": 2075,
    "threadpreferreduilanguages": 2076,
    "\u25810xfeee0054": 2077,
    "cy": 2078,
    "\u25810xfeee004f": 2079,
    "\u25810x29": 2080,
    "\u25810xfeee0051": 2081,
    "\u25810xfeee0052": 2082,
    "\u25810xfeee0068": 2083,
    "\u25810x1211928": 2084,
    "\u25810xfeee0056": 2085,
    "\u25810xfeee0057": 2086,
    "\u25810xfeee0058": 2087,
    "\u2581enumsystemlocales": 2088,
    "\u25810xfeee0059": 2089,
    "208": 2090,
    "\u2581txt": 2091,
    "\u25810x5a": 2092,
    "\u2581getuserdefaultlocalename": 2093,
    "leob": 2094,
    "\u25810x8e": 2095,
    "\u2581end": 2096,
    "\u2581isvalidlocalename": 2097,
    "\u2581getdateformatex": 2098,
    "\u2581enumsystemlocalesex": 2099,
    "\u2581gettimeformatex": 2100,
    "e44": 2101,
    "\u25810xfeee0064": 2102,
    "\u25810x40a": 2103,
    "\u25810x422": 2104,
    "\u25810xfeee0075": 2105,
    "\u25810x65500000": 2106,
    "380": 2107,
    "\u25810xfeee0081": 2108,
    "variablea": 2109,
    "\u25810xfeee0070": 2110,
    "63": 2111,
    "57": 2112,
    "cv": 2113,
    "\u25810xfeee006c": 2114,
    "\u25810x42b9a0": 2115,
    "\u2581getmain": 2116,
    "\u2581recv": 2117,
    "lwapi": 2118,
    "\u2581shlwapi": 2119,
    "\u25810x8260": 2120,
    "messagew": 2121,
    "\u2581getmessagea": 2122,
    "\u25810x4c43": 2123,
    "\u25810x7ee0": 2124,
    "\u25810xfeee006f": 2125,
    "\u25810x4c42d8": 2126,
    "\u25810x4c42f0": 2127,
    "\u25810xfeee006e": 2128,
    "\u25810x3f2000": 2129,
    "\u25810xfeee006a": 2130,
    "windowproc": 2131,
    "\u25810x7df0": 2132,
    "\u25810x39": 2133,
    "\u25810xfeee0069": 2134,
    "ordinal": 2135,
    "\u2581getsystemdirectorya": 2136,
    "\u2581registerclassexa": 2137,
    "\u2581createw": 2138,
    "\u25810x4bc": 2139,
    "\u25810x40a9": 2140,
    "\u25810x42da": 2141,
    "\u25810xa1": 2142,
    "\u258120220": 2143,
    "\u25810x1211f34": 2144,
    "\u25810x40933d": 2145,
    "\u25810x40933e": 2146,
    "sing": 2147,
    "\u25812022030": 2148,
    "\u25810x40933f": 2149,
    "\u25810x409340": 2150,
    "\u25810x409341": 2151,
    "\u25810x409342": 2152,
    "\u25810x409343": 2153,
    "\u25810x80000000": 2154,
    "\u2581ordinal": 2155,
    "\u2581findnext": 2156,
    "004": 2157,
    "keyboard": 2158,
    "\u25810x6781d8": 2159,
    "bits": 2160,
    "mage": 2161,
    "\u2581out": 2162,
    "\u25810x3bc": 2163,
    "\u25810x42dac6": 2164,
    "\u25810x7bd0": 2165,
    "\u2581windowsnt": 2166,
    "\u25810x78f0": 2167,
    "ray": 2168,
    "isk": 2169,
    "text": 2170,
    "ong": 2171,
    "e40": 2172,
    "os": 2173,
    "\u2581shget": 2174,
    "\u2581vers": 2175,
    "zero": 2176,
    "\u25810x1211bc0": 2177,
    "\u2581getkeyboard": 2178,
    "\u2581getlogicalprocessor": 2179,
    "\u25810x412": 2180,
    "\u2581getlogicalprocessorinformation": 2181,
    "\u2581verset": 2182,
    "conditionmask": 2183,
    "\u2581versetconditionmask": 2184,
    "5b": 2185,
    "stack": 2186,
    "valueexw": 2187,
    "\u2581loadlibraryw": 2188,
    "antee": 2189,
    "guar": 2190,
    "guarantee": 2191,
    "stackguarantee": 2192,
    "\u2581setthreadstackguarantee": 2193,
    "\u2581loc": 2194,
    "\u2581deletefilea": 2195,
    "\u2581localiz": 2196,
    "\u2581localization": 2197,
    "\u25810x1211f00": 2198,
    "data": 2199,
    "\u25810x41de50": 2200,
    "ac0": 2201,
    "ysical": 2202,
    "\u2581def": 2203,
    "\u25810x42e0": 2204,
    "\u25810x1211ee0": 2205,
    "e00": 2206,
    "hysical": 2207,
    "cb": 2208,
    "ec0": 2209,
    "\u25810x433648": 2210,
    "ec8": 2211,
    "\u2581ma": 2212,
    "windows": 2213,
    "\u25810x8a80": 2214,
    "\u2581physical": 2215,
    "\u25810xfeee0089": 2216,
    "de0": 2217,
    "708": 2218,
    "singleob": 2219,
    "drl6660drl6660drl6660drl6660": 2220,
    "\u25810x80c4": 2221,
    "188": 2222,
    "reg": 2223,
    "\u2581showwindow": 2224,
    "\u25810x1211dc8": 2225,
    "\u25810xfeee008a": 2226,
    "\u25810x434": 2227,
    "b04": 2228,
    "a00": 2229,
    "c3": 2230,
    "\u2581defwindowproc": 2231,
    "\u2581waitforsingleob": 2232,
    "\u2581trans": 2233,
    "tok": 2234,
    "\u25810x4428": 2235,
    "\u25810x12112f8": 2236,
    "\u25810x1211d04": 2237,
    "388": 2238,
    "load": 2239,
    "\u2581variant": 2240,
    "uter": 2241,
    "\u25810xa2": 2242,
    "nextw": 2243,
    "f8000": 2244,
    "\u25810x85": 2245,
    "\u25810x527": 2246,
    "\u25810x7150": 2247,
    "\u25810x410770": 2248,
    "\u25810xfeee0078": 2249,
    "bitmap": 2250,
    "\u25810xfeee0077": 2251,
    "\u25810x12119ac": 2252,
    "\u25810x7cd0": 2253,
    "\u25810xfeee0079": 2254,
    "mputer": 2255,
    "array": 2256,
    "\u25810xfeee0076": 2257,
    "\u25810x1211f30": 2258,
    "\u25810x73f0": 2259,
    "token": 2260,
    "\u25810xfeee007a": 2261,
    "\u25810x72a0": 2262,
    "6e": 2263,
    "\u2581olea": 2264,
    "vol": 2265,
    "\u25810x4800": 2266,
    "\u2581updatewindow": 2267,
    "ug": 2268,
    "e04": 2269,
    "e4000": 2270,
    "\u25810xfeee007f": 2271,
    "pos": 2272,
    "\u25810x1211c04": 2273,
    "\u2581beginpaint": 2274,
    "\u25810x7690": 2275,
    "stringsa": 2276,
    "\u25810xffff": 2277,
    "\u25810x1211fc0": 2278,
    "\u2581destroy": 2279,
    "\u2581endpaint": 2280,
    "\u25810x1211768": 2281,
    "\u25810x1211a04": 2282,
    "\u25810x77e0": 2283,
    "\u25810x527ed8": 2284,
    "closekey": 2285,
    "\u2581regclosekey": 2286,
    "\u2581process32nextw": 2287,
    "10c": 2288,
    "93": 2289,
    "\u2581q": 2290,
    "\u25810x8d00": 2291,
    "variant": 2292,
    "ume": 2293,
    "\u2581globalfree": 2294,
    "volume": 2295,
    "typ": 2296,
    "\u2581com": 2297,
    "a58": 2298,
    "\u25810x4208": 2299,
    "\u2581nov": 2300,
    "draw": 2301,
    "\u2581sep": 2302,
    "\u25810x41d": 2303,
    "\u2581registry": 2304,
    "\u25810x86": 2305,
    "\u25810x36": 2306,
    "\u2581lstrcmp": 2307,
    "b7c": 2308,
    "\u25810xa8": 2309,
    "quit": 2310,
    "\u2581post": 2311,
    "\u2581seten": 2312,
    "\u25810x8230": 2313,
    "\u2581setwindow": 2314,
    "econdition": 2315,
    "\u2581apr": 2316,
    "\u2581aug": 2317,
    "\u25810x9010": 2318,
    "\u2581oct": 2319,
    "ember": 2320,
    "econditionvariable": 2321,
    "\u25810xfeee0080": 2322,
    "580": 2323,
    "\u25810x408": 2324,
    "\u2581sun": 2325,
    "\u25810x9c": 2326,
    "\u25810x42fc": 2327,
    "\u25810x437880": 2328,
    "\u25810x33": 2329,
    "down": 2330,
    "d08": 2331,
    "uary": 2332,
    "\u2581may": 2333,
    "\u25810x1211578": 2334,
    "\u25810x6d": 2335,
    "localtime": 2336,
    "sday": 2337,
    "\u2581tue": 2338,
    "\u2581wed": 2339,
    "f00": 2340,
    "\u2581fri": 2341,
    "volumeinformation": 2342,
    "\u25810x1211308": 2343,
    "\u2581getvolumeinformation": 2344,
    "host": 2345,
    "teen": 2346,
    "aletteen": 2347,
    "aletteentries": 2348,
    "\u25810x42d8c6": 2349,
    "\u25810x7d50": 2350,
    "\u25810xfeee007d": 2351,
    "\u25810xfeee0095": 2352,
    "\u25810x42b": 2353,
    "e08": 2354,
    "118": 2355,
    "\u25810x7e80": 2356,
    "spec": 2357,
    "\u25810xfeee008e": 2358,
    "suped": 2359,
    "\u2581regset": 2360,
    "\u2581getd": 2361,
    "\u2581getenvironmentvariablea": 2362,
    "140": 2363,
    "\u25810x7e74": 2364,
    "\u25810x7e75": 2365,
    "fileattributesa": 2366,
    "mapp": 2367,
    "allocate": 2368,
    "\u25810x7e78": 2369,
    "\u2581getsystemp": 2370,
    "\u2581getsystempaletteentries": 2371,
    "\u25810x7db0": 2372,
    "\u25810x7e79": 2373,
    "\u25810x1d": 2374,
    "\u25810x439": 2375,
    "\u25810xfeee0082": 2376,
    "\u2581getlocaltime": 2377,
    "\u25810x7e7c": 2378,
    "\u25810x7e7d": 2379,
    "\u2581floatingpoin": 2380,
    "\u2581invalidvariant": 2381,
    "byzero": 2382,
    "isionbyzero": 2383,
    "\u2581shellexecute": 2384,
    "mapping": 2385,
    "\u25810x1211cdc": 2386,
    "filemapping": 2387,
    "unlock": 2388,
    "\u25810x42c0": 2389,
    "\u2581ws2": 2390,
    "cd": 2391,
    "late": 2392,
    "\u25810x4620": 2393,
    "\u2581translate": 2394,
    "f40": 2395,
    "\u25810x424": 2396,
    "\u25810x7e81": 2397,
    "\u25810xfeee010": 2398,
    "\u25810x42a0": 2399,
    "\u25810xfeee008c": 2400,
    "\u25810x95": 2401,
    "\u25810x1211e08": 2402,
    "\u25810x1211f3c": 2403,
    "\u2581varr": 2404,
    "4fromstr": 2405,
    "b50": 2406,
    "\u25810x4e5": 2407,
    "\u2581contr": 2408,
    "\u2581er": 2409,
    "earray": 2410,
    "your": 2411,
    "long": 2412,
    "texta": 2413,
    "\u25810x1211fc4": 2414,
    "\u25810xfeee008d": 2415,
    "726": 2416,
    "\u25810xfeee007b": 2417,
    "\u25810x7e85": 2418,
    "\u25810x10000": 2419,
    "\u25810x7e84": 2420,
    "\u25810x60000": 2421,
    "\u25810x431f": 2422,
    "\u25810xfeee0084": 2423,
    "\u2581dispatch": 2424,
    "\u25810x78a0": 2425,
    "\u25810x404": 2426,
    "vice": 2427,
    "\u25810x6b9": 2428,
    "3f8": 2429,
    "\u2581crypt": 2430,
    "268": 2431,
    "ed4": 2432,
    "state": 2433,
    "\u25810x4710": 2434,
    "lec": 2435,
    "\u2581findresource": 2436,
    "68c": 2437,
    "\u25810x2d4": 2438,
    "\u25810x5b": 2439,
    "\u2581createfilemapping": 2440,
    "680": 2441,
    "namew": 2442,
    "002": 2443,
    "\u25810x40a5dc": 2444,
    "\u25810x40a5cc": 2445,
    "atet": 2446,
    "\u25810x3f75f": 2447,
    "antor": 2448,
    "antorsaf": 2449,
    "antorsafearray": 2450,
    "ow64": 2451,
    "ervice": 2452,
    "\u25810x4015": 2453,
    "\u2581image": 2454,
    "\u25810xfeee0087": 2455,
    "tou": 2456,
    "\u25810xfeee0088": 2457,
    "\u2581hg": 2458,
    "files": 2459,
    "\u2581hgdraw": 2460,
    "\u25810x37": 2461,
    "textou": 2462,
    "enum": 2463,
    "\u25810x6a6": 2464,
    "\u25810x57": 2465,
    "\u25810xa4": 2466,
    "\u25810xc00": 2467,
    "\u25810xfeee0083": 2468,
    "\u25810x42c588": 2469,
    "\u25810xfeee0085": 2470,
    "se": 2471,
    "anag": 2472,
    "\u25810xfeee0086": 2473,
    "\u25810xa7": 2474,
    "\u2581postquit": 2475,
    "\u2581postquitmessage": 2476,
    "656": 2477,
    "5a": 2478,
    "e6c": 2479,
    "\u25810x52": 2480,
    "\u25810x7090": 2481,
    "\u25810x31": 2482,
    "\u25810x4094": 2483,
    "\u25810x2d": 2484,
    "\u25810xfeee008f": 2485,
    "\u2581createfilemappinga": 2486,
    "\u25810xfeee0090": 2487,
    "\u2581translatemessage": 2488,
    "\u25810x1211ef0": 2489,
    "\u25810x7ae0": 2490,
    "\u25810x42d5": 2491,
    "wow64": 2492,
    "\u2581check": 2493,
    "6a": 2494,
    "\u25810x121194c": 2495,
    "nal": 2496,
    "\u2581point": 2497,
    "rata": 2498,
    "\u2581prec": 2499,
    "\u2581errata": 2500,
    "\u2581precision": 2501,
    "\u25810x7d95": 2502,
    "\u25810x4960": 2503,
    "\u25810x567": 2504,
    "\u2581regsetvalueexw": 2505,
    "initialize": 2506,
    "\u25810x7d94": 2507,
    "\u2581createprocessa": 2508,
    "\u25810x120e6d4": 2509,
    "\u2581device": 2510,
    "\u25810x45fc": 2511,
    "am": 2512,
    "d50": 2513,
    "\u25810xfeee0092": 2514,
    "\u2581gettempa": 2515,
    "ty": 2516,
    "114": 2517,
    "\u25810x1211fdc": 2518,
    "\u25810x12117a4": 2519,
    "980": 2520,
    "\u25810x121157c": 2521,
    "\u25810x7de4": 2522,
    "\u2581getcurrentdirectoryw": 2523,
    "\u25810x7de5": 2524,
    "\u2581getfileinformationby": 2525,
    "\u25810x58de": 2526,
    "\u25810x4d70": 2527,
    "\u25810x120e6d0": 2528,
    "a0000": 2529,
    "\u25810x4bd0": 2530,
    "42": 2531,
    "ut32": 2532,
    "\u2581oleaut32": 2533,
    "\u2581imagelist": 2534,
    "yarg": 2535,
    "round": 2536,
    "\u25810x48f898": 2537,
    "328": 2538,
    "\u25810x1211efc": 2539,
    "e68": 2540,
    "\u25810xfeee0094": 2541,
    "\u2581tr": 2542,
    "speci": 2543,
    "\u25810x7300": 2544,
    "tate": 2545,
    "900": 2546,
    "\u25810xfeee0091": 2547,
    "\u2581globalunlock": 2548,
    "\u25810x1210d": 2549,
    "bl": 2550,
    "\u25810x1211f4c": 2551,
    "\u25810x7900": 2552,
    "\u2581gettickcount64": 2553,
    "\u25810x44f928": 2554,
    "\u2581n": 2555,
    "box": 2556,
    "ows": 2557,
    "b08": 2558,
    "bk": 2559,
    "\u2581mapview": 2560,
    "\u25810xfeee0093": 2561,
    "\u2581deleteob": 2562,
    "\u2581registerclassa": 2563,
    "pe": 2564,
    "\u2581findwindow": 2565,
    "nexec": 2566,
    "ust": 2567,
    "\u2581dispatchmessagea": 2568,
    "\u25810x9a": 2569,
    "\u25810x41de08": 2570,
    "\u25810xfeee0098": 2571,
    "\u2581defwindowproca": 2572,
    "\u2581res": 2573,
    "\u2581mapviewoffile": 2574,
    "\u25810x4e50": 2575,
    "\u25810xfeee0099": 2576,
    "\u2581setfileattributesa": 2577,
    "\u25810x1211f88": 2578,
    "manag": 2579,
    "\u2581iswow64": 2580,
    "\u2581iswow64process": 2581,
    "\u25810xfeee0097": 2582,
    "\u25810xfeee0096": 2583,
    "cept": 2584,
    "\u2581getfileinformationbyhandl": 2585,
    "\u25810x525": 2586,
    "foreg": 2587,
    "foreground": 2588,
    "foregroundwindow": 2589,
    "\u25810xfeee009b": 2590,
    "\u25810xa5": 2591,
    "ethread": 2592,
    "\u25810xfeee009c": 2593,
    "\u25810x81": 2594,
    "\u2581lock": 2595,
    "\u2581copyfilea": 2596,
    "\u25810x61": 2597,
    "\u2581winexec": 2598,
    "e61": 2599,
    "blt": 2600,
    "\u25810x78d0": 2601,
    "\u25810x35": 2602,
    "9b": 2603,
    "era": 2604,
    "new": 2605,
    "\u25810x6b": 2606,
    "\u25810x40a3": 2607,
    "\u25810x1211f48": 2608,
    "rag": 2609,
    "\u2581gum": 2610,
    "\u25810x107568": 2611,
    "endoffile": 2612,
    "bc8": 2613,
    "\u25810x169bc": 2614,
    "\u25810x1211938": 2615,
    "\u25810x40f6": 2616,
    "\u25810x40152c": 2617,
    "ger": 2618,
    "\u2581getcomputer": 2619,
    "\u2581gut": 2620,
    "\u25810x58c0": 2621,
    "\u2581setfileinformationby": 2622,
    "f08": 2623,
    "\u2581createexw": 2624,
    "\u25810x9020": 2625,
    "bkcolor": 2626,
    "\u2581accept": 2627,
    "sid": 2628,
    "cf": 2629,
    "\u25810x8814": 2630,
    "\u2581sa": 2631,
    "\u2581selectob": 2632,
    "\u2581textou": 2633,
    "\u25810x97a0": 2634,
    "change": 2635,
    "\u2581op": 2636,
    "\u25810x7270": 2637,
    "\u2581setfileattributesw": 2638,
    "ternal": 2639,
    "\u2581process32first": 2640,
    "\u25810x41bc20": 2641,
    "\u25810x7390": 2642,
    "\u25810x7be0": 2643,
    "\u25810x519": 2644,
    "\u25810x7060": 2645,
    "numberof": 2646,
    "\u25810x2b": 2647,
    "9a": 2648,
    "\u25810xf0": 2649,
    "pro": 2650,
    "\u25810x4317": 2651,
    "ontin": 2652,
    "\u25810x71b0": 2653,
    "\u25810x121193c": 2654,
    "\u25810x3f3000": 2655,
    "\u25810x40a58": 2656,
    "988": 2657,
    "lid": 2658,
    "\u25810x42a7": 2659,
    "\u25810x7870": 2660,
    "ystate": 2661,
    "\u2581bat": 2662,
    "\u2581getlogicaldrivestringsa": 2663,
    "ull": 2664,
    "008": 2665,
    "\u2581createprocessw": 2666,
    "\u25810x8815": 2667,
    "\u25810x43540": 2668,
    "\u2581setbkcolor": 2669,
    "\u25810x120e69": 2670,
    "artup": 2671,
    "terect": 2672,
    "can": 2673,
    "\u2581deletedc": 2674,
    "nect": 2675,
    "\u2581findnextfilew": 2676,
    "\u25810x20000": 2677,
    "servicectrlhandl": 2678,
    "\u2581registerservicectrlhandl": 2679,
    "\u2581getforegroundwindow": 2680,
    "\u2581ra": 2681,
    "derw": 2682,
    "\u25810x437ad": 2683,
    "\u25810x437c4": 2684,
    "\u25810x437bc": 2685,
    "\u2581runtime": 2686,
    "\u25810x4371e6": 2687,
    "\u25810x4371e7": 2688,
    "\u2581sr": 2689,
    "\u2581san": 2690,
    "\u2581resum": 2691,
    "\u2581resumethread": 2692,
    "6b": 2693,
    "\u2581sendmessagea": 2694,
    "fdr": 2695,
    "\u2581sanfdr": 2696,
    "\u2581closesocket": 2697,
    "\u25810x43b7c": 2698,
    "eexception": 2699,
    "emutex": 2700,
    "\u25810x43b7b9": 2701,
    "out": 2702,
    "\u25810x43b7c3": 2703,
    "\u2581releasemutex": 2704,
    "\u25810x99e0": 2705,
    "\u25810x41f": 2706,
    "\u2581rais": 2707,
    "\u2581raiseexception": 2708,
    "d8000": 2709,
    "\u2581drawtexta": 2710,
    "wi": 2711,
    "dos": 2712,
    "\u25810x46e0": 2713,
    "lecs": 2714,
    "variablecs": 2715,
    "\u2581sleepcondition": 2716,
    "\u2581sleepconditionvariablecs": 2717,
    "\u25810xa6": 2718,
    "\u25810x6c": 2719,
    "textcolor": 2720,
    "\u2581bit": 2721,
    "aterect": 2722,
    "ervicehandle": 2723,
    "\u2581closeservicehandle": 2724,
    "\u2581exitthread": 2725,
    "scmanag": 2726,
    "\u2581openscmanag": 2727,
    "\u2581setwindowpos": 2728,
    "\u25810x4308": 2729,
    "\u25810x7b40": 2730,
    "\u25810x5f": 2731,
    "\u2581getdi": 2732,
    "\u25810x42e5f8": 2733,
    "\u2581unmapview": 2734,
    "\u2581unmapviewoffile": 2735,
    "\u2581getcomputernamea": 2736,
    "\u2581mpr": 2737,
    "erator": 2738,
    "\u2581createcompatibledc": 2739,
    "f0000": 2740,
    "\u2581bitblt": 2741,
    "\u25810x7b10": 2742,
    "\u25810x56bb": 2743,
    "\u2581settextcolor": 2744,
    "atethread": 2745,
    "\u25810x91": 2746,
    "\u25810x7030": 2747,
    "\u25810x1f000": 2748,
    "\u25810x12113": 2749,
    "ee8": 2750,
    "\u2581loadresource": 2751,
    "\u25810x567a40": 2752,
    "\u25810x432": 2753,
    "\u2581terminatethread": 2754,
    "\u2581textouta": 2755,
    "\u25810x67000000": 2756,
    "\u25810x4315": 2757,
    "\u25810xb4": 2758,
    "\u25810x75d0": 2759,
    "\u2581allocate": 2760,
    "\u25810x79c0": 2761,
    "\u2581of": 2762,
    "dup": 2763,
    "\u2581createcompatiblebitmap": 2764,
    "46": 2765,
    "\u2581he": 2766,
    "usp": 2767,
    "esid": 2768,
    "andinitializ": 2769,
    "andinitializesid": 2770,
    "\u2581allocateandinitializesid": 2771,
    "\u2581openscmanagerw": 2772,
    "\u25810x437a": 2773,
    "\u2581getke": 2774,
    "\u2581getkeystate": 2775,
    "\u2581getnumberof": 2776,
    "\u2581getnumberofconsole": 2777,
    "\u2581geticon": 2778,
    "\u2581openservicew": 2779,
    "\u25810x1211b04": 2780,
    "dispatch": 2781,
    "\u2581startservicectrl": 2782,
    "\u2581startservicectrldispatch": 2783,
    "\u25810x71e0": 2784,
    "\u2581srand": 2785,
    "\u25810x8090": 2786,
    "\u25810x7a50": 2787,
    "\u2581setservice": 2788,
    "\u2581setservicestatus": 2789,
    "adm": 2790,
    "\u25810x8cf0": 2791,
    "fac": 2792,
    "\u2581z": 2793,
    "\u2581startservicew": 2794,
    "\u2581startservicectrldispatcherw": 2795,
    "\u25810x4319": 2796,
    "\u25810x7750": 2797,
    "\u2581createservicew": 2798,
    "d4000": 2799,
    "\u25810x74e0": 2800,
    "longa": 2801,
    "41": 2802,
    "\u2581createdi": 2803,
    "\u2581copyfilew": 2804,
    "\u25810xb0": 2805,
    "\u2581work": 2806,
    "\u25810x7210": 2807,
    "\u25810x72d0": 2808,
    "\u25810x7cf0": 2809,
    "\u25810x1210f8": 2810,
    "cc000": 2811,
    "\u25810x7240": 2812,
    "inki": 2813,
    "\u25810x3d": 2814,
    "\u2581remo": 2815,
    "\u2581findwindowa": 2816,
    "\u2581hels": 2817,
    "\u2581helsinki": 2818,
    "\u25810x417d": 2819,
    "ene": 2820,
    "enthread": 2821,
    "\u25810x7600": 2822,
    "ivi": 2823,
    "opene": 2824,
    "querys": 2825,
    "\u25810x7180": 2826,
    "\u2581openthread": 2827,
    "\u25810x70c0": 2828,
    "\u25810x7a20": 2829,
    "\u25810x7330": 2830,
    "\u25810x7120": 2831,
    "\u25810x75a0": 2832,
    "ce8": 2833,
    "\u25810x7bf0": 2834,
    "\u258174": 2835,
    "\u2581susp": 2836,
    "\u25810x7480": 2837,
    "\u25810x7660": 2838,
    "\u2581getthreadpreferreduilanguages": 2839,
    "\u25810x5d": 2840,
    "\u25810x7720": 2841,
    "\u2581getdibits": 2842,
    "\u25810x7570": 2843,
    "\u25810x431998": 2844,
    "folderw": 2845,
    "\u2581suspend": 2846,
    "\u2581suspendthread": 2847,
    "\u25810x7840": 2848,
    "\u2581freesid": 2849,
    "ivile": 2850,
    "\u25810x7360": 2851,
    "\u2581htons": 2852,
    "\u25810x70f0": 2853,
    "\u25810x76f0": 2854,
    "\u25810x7b90": 2855,
    "\u25810x7ba0": 2856,
    "dcon": 2857,
    "\u25810x76c0": 2858,
    "\u25810x74b0": 2859,
    "\u25810x7510": 2860,
    "\u25810x3a": 2861,
    "izn": 2862,
    "iznadm": 2863,
    "\u2581triznadm": 2864,
    "\u25810x7420": 2865,
    "\u2581socket": 2866,
    "\u25810x77b0": 2867,
    "\u25810x7450": 2868,
    "\u25810x41b9": 2869,
    "\u25810x73c0": 2870,
    "\u2581wsast": 2871,
    "\u25810x7960": 2872,
    "\u2581wsastartup": 2873,
    "\u2581createf": 2874,
    "\u2581gb": 2875,
    "\u2581getob": 2876,
    "inputs": 2877,
    "\u2581getnumberofconsoleinputs": 2878,
    "ed000": 2879,
    "\u2581findresourcew": 2880,
    "\u25810x7630": 2881,
    "solid": 2882,
    "\u25810x47a0": 2883,
    "\u25810x3410c": 2884,
    "\u2581settimer": 2885,
    "ontindirec": 2886,
    "\u2581createfontindirec": 2887,
    "\u2581initializeconditionvariable": 2888,
    "\u2581ofresource": 2889,
    "\u2581connect": 2890,
    "querysystem": 2891,
    "querysysteminformation": 2892,
    "\u25810x51000": 2893,
    "a08": 2894,
    "\u25810x7780": 2895,
    "\u25810x4189": 2896,
    "debugger": 2897,
    "solidbrush": 2898,
    "\u2581createsolidbrush": 2899,
    "\u25810x2ac": 2900,
    "\u25810x7b70": 2901,
    "debuggerpresent": 2902,
    "utdown": 2903,
    "\u2581getusernamew": 2904,
    "ff8": 2905,
    "slen": 2906,
    "\u25810x3f22": 2907,
    "\u2581u": 2908,
    "you": 2909,
    "\u2581wcslen": 2910,
    "\u2581invalidaterect": 2911,
    "\u2581fill": 2912,
    "\u25810x4730": 2913,
    "\u25810x55": 2914,
    "e88": 2915,
    "app": 2916,
    "\u2581lockresource": 2917,
    "\u2581getlogicaldrivestringsw": 2918,
    "\u2581gethost": 2919,
    "\u2581bind": 2920,
    "ecta": 2921,
    "\u25810x7de8": 2922,
    "openenum": 2923,
    "\u2581wnetopenenum": 2924,
    "c8000": 2925,
    "\u2581wnetopenenumw": 2926,
    "11000": 2927,
    "\u2581openmutexa": 2928,
    "\u2581createfontindirecta": 2929,
    "\u25810x1211cec": 2930,
    "\u2581destroyicon": 2931,
    "\u25810x28c": 2932,
    "\u2581registerwindow": 2933,
    "\u25810x7de9": 2934,
    "\u25810x52000": 2935,
    "byname": 2936,
    "\u2581msvcr": 2937,
    "\u2581isdebuggerpresent": 2938,
    "76f7": 2939,
    "hip": 2940,
    "\u2581gethostbyname": 2941,
    "\u25810x169b7": 2942,
    "members": 2943,
    "cp": 2944,
    "ce000": 2945,
    "membership": 2946,
    "\u2581getkeyboardstate": 2947,
    "addcon": 2948,
    "\u2581wnetaddcon": 2949,
    "resourcew": 2950,
    "\u2581checktoken": 2951,
    "\u2581wnetaddconnection2w": 2952,
    "\u2581checktokenmembership": 2953,
    "\u2581wnetenum": 2954,
    "\u2581wnetenumresourcew": 2955,
    "\u2581fillrect": 2956,
    "408": 2957,
    "\u2581createdib": 2958,
    "\u2581ntquerysysteminformation": 2959,
    "losec": 2960,
    "\u25810x7f03": 2961,
    "\u25810x4028": 2962,
    "\u2581createdibsection": 2963,
    "\u2581drag": 2964,
    "aaaa": 2965,
    "cancel": 2966,
    "stringa": 2967,
    "\u2581cb": 2968,
    "cancelcon": 2969,
    "\u2581wnetcancelcon": 2970,
    "\u2581wnetcancelconnection2w": 2971,
    "\u25810xd000": 2972,
    "\u25810x1211f04": 2973,
    "e8000": 2974,
    "\u2581append": 2975,
    "de000": 2976,
    "nexw": 2977,
    "\u25810x1e5": 2978,
    "\u25810x1f0001": 2979,
    "26b2": 2980,
    "\u2581emp": 2981,
    "14000": 2982,
    "\u2581setclass": 2983,
    "a48": 2984,
    "\u2581golfset": 2985,
    "\u2581geticoninfo": 2986,
    "ec000": 2987,
    "\u25810x3b": 2988,
    "\u2581setclipboard": 2989,
    "conw": 2990,
    "\u2581drawicon": 2991,
    "\u25810x1211568": 2992,
    "\u2581openclipboard": 2993,
    "\u2581setclipboarddata": 2994,
    "18000": 2995,
    "\u25810x4229": 2996,
    "\u2581empty": 2997,
    "\u2581closec": 2998,
    "\u2581closeclipboard": 2999,
    "\u2581getsecurityinfo": 3000,
    "ecut": 3001,
    "\u2581shellexecut": 3002,
    "\u2581emptyclipboard": 3003,
    "a81": 3004,
    "ff000": 3005,
    "\u2581registerclassexw": 3006,
    "inac": 3007,
    "triesinac": 3008,
    "\u2581setentriesinac": 3009,
    "f4000": 3010,
    "104": 3011,
    "zer": 3012,
    "\u2581setclasslonga": 3013,
    "cona": 3014,
    "ee000": 3015,
    "\u25810x4170": 3016,
    "\u2581exed": 3017,
    "\u2581extracti": 3018,
    "\u2581shellexecuteexw": 3019,
    "\u2581list": 3020,
    "\u2581failedto": 3021,
    "\u2581extractassociatedicona": 3022,
    "\u2581extractassociatediconw": 3023,
    "geo": 3024,
    "\u2581exedows": 3025,
    "\u25810x7dec": 3026,
    "tra": 3027,
    "omem": 3028,
    "\u25810x66": 3029,
    "\u25810x7ded": 3030,
    "\u2581shutdown": 3031,
    "omemory": 3032,
    "\u2581rtlzer": 3033,
    "\u2581rtlzeromemory": 3034,
    "unmapviewofsection": 3035,
    "\u2581to": 3036,
    "sourc": 3037,
    "dateresourcew": 3038,
    "\u2581findwindowexa": 3039,
    "\u2581ntunmapviewofsection": 3040,
    "\u2581setentriesinacla": 3041,
    "\u2581endup": 3042,
    "\u2581registerservicectrlhandlerw": 3043,
    "\u25810x51a": 3044,
    "\u2581updateresourcea": 3045,
    "\u2581endupdateresourcea": 3046,
    "\u2581beginupdateresourcea": 3047,
    "geoid": 3048,
    "todos": 3049,
    "ntstatus": 3050,
    "\u2581getusergeoid": 3051,
    "\u2581ntmapview": 3052,
    "\u2581ntmapviewofsection": 3053,
    "todoserror": 3054,
    "\u2581rtlntstatus": 3055,
    "\u2581rtlntstatustodoserror": 3056,
    "\u2581htonl": 3057,
    "\u2581beginupdateresourcew": 3058,
    "\u2581setsecurityinfo": 3059,
    "bar": 3060,
    "0x": 3061,
    "\u2581error0x": 3062,
    "octls": 3063,
    "\u2581ioctls": 3064,
    "\u2581extractico": 3065,
    "\u2581ioctlsocket": 3066,
    "\u25810x491": 3067,
    "\u2581extracticonexw": 3068,
    "\u25810xca0000": 3069,
    "\u25810x77001000": 3070,
    "\u25810x77002000": 3071,
    "\u25810x77003000": 3072,
    "\u25810x77004000": 3073,
    "\u25810x77005000": 3074,
    "\u25810x77006000": 3075,
    "\u25810x77007000": 3076,
    "\u25810x77008000": 3077,
    "\u25810x77009000": 3078,
    "\u25810x7700a000": 3079,
    "\u25810x7700b000": 3080,
    "\u25810x7700c000": 3081,
    "\u25810x7700d000": 3082,
    "\u25810x7700e000": 3083,
    "\u25810x7700f000": 3084,
    "\u25810x77010000": 3085,
    "\u25810x77011000": 3086,
    "\u25810x77012000": 3087,
    "\u25810x77013000": 3088,
    "\u25810x77014000": 3089,
    "\u25810x77015000": 3090,
    "\u25810x77016000": 3091,
    "\u25810x77017000": 3092,
    "\u25810x77018000": 3093,
    "\u25810x77019000": 3094,
    "\u25810x7701a000": 3095,
    "\u25810x7701b000": 3096,
    "\u25810x7701c000": 3097,
    "\u25810x7701d000": 3098,
    "\u25810x7701e000": 3099,
    "\u25810x7701f000": 3100,
    "\u25810x77020000": 3101,
    "\u25810x77021000": 3102,
    "\u25810x77022000": 3103,
    "\u25810x77023000": 3104,
    "\u25810x77024000": 3105,
    "\u25810x77025000": 3106,
    "\u25810x77026000": 3107,
    "\u25810x77027000": 3108,
    "\u25810x77028000": 3109,
    "\u25810x77029000": 3110,
    "\u25810x7702a000": 3111,
    "\u25810x7702b000": 3112,
    "\u25810x7702c000": 3113,
    "\u25810x7702d000": 3114,
    "\u25810x7702e000": 3115,
    "\u25810x7702f000": 3116,
    "\u25810x77030000": 3117,
    "\u25810x77031000": 3118,
    "\u25810x77032000": 3119,
    "\u25810x77033000": 3120,
    "\u25810x77034000": 3121,
    "\u25810x77035000": 3122,
    "\u25810x77036000": 3123,
    "\u25810x77037000": 3124,
    "\u25810x77038000": 3125,
    "\u25810x77039000": 3126,
    "\u25810x7703a000": 3127,
    "\u25810x7703b000": 3128,
    "\u25810x7703c000": 3129,
    "\u25810x7703d000": 3130,
    "\u25810x7703e000": 3131,
    "\u25810x7703f000": 3132,
    "\u25810x77040000": 3133,
    "\u25810x77041000": 3134,
    "\u25810x77042000": 3135,
    "\u25810x77043000": 3136,
    "\u25810x77044000": 3137,
    "\u25810x77045000": 3138,
    "\u25810x77046000": 3139,
    "\u25810x77047000": 3140,
    "\u25810x77048000": 3141,
    "\u25810x77049000": 3142,
    "\u25810x7704a000": 3143,
    "\u25810x7704b000": 3144,
    "\u25810x7704c000": 3145,
    "\u25810x7704d000": 3146,
    "\u25810x7704e000": 3147,
    "\u25810x7704f000": 3148,
    "\u25810x77050000": 3149,
    "\u25810x77051000": 3150,
    "\u25810x77052000": 3151,
    "\u25810x77053000": 3152,
    "\u25810x77054000": 3153,
    "\u25810x77055000": 3154,
    "\u25810x77056000": 3155,
    "\u25810x77057000": 3156,
    "\u25810x77058000": 3157,
    "\u25810x77059000": 3158,
    "\u25810x7705a000": 3159,
    "\u25810x7705b000": 3160,
    "\u25810x7705c000": 3161,
    "\u25810x7705d000": 3162,
    "\u25810x7705e000": 3163,
    "\u25810x7705f000": 3164,
    "\u25810x77060000": 3165,
    "\u25810x77061000": 3166,
    "\u25810x77062000": 3167,
    "\u25810x77063000": 3168,
    "\u25810x77064000": 3169,
    "\u25810x77065000": 3170,
    "\u25810x77066000": 3171,
    "\u25810x77067000": 3172,
    "\u25810x77068000": 3173,
    "\u25810x77069000": 3174,
    "\u25810x7706a000": 3175,
    "\u25810x7706b000": 3176,
    "\u25810x7706c000": 3177,
    "\u25810x7706d000": 3178,
    "\u25810x7706e000": 3179,
    "\u25810x7706f000": 3180,
    "\u25810x77070000": 3181,
    "\u25810x77071000": 3182,
    "\u25810x77072000": 3183,
    "\u25810x77073000": 3184,
    "\u25810x77074000": 3185,
    "\u25810x77075000": 3186,
    "\u25810x77076000": 3187,
    "\u25810x77077000": 3188,
    "\u25810x77078000": 3189,
    "\u25810x77079000": 3190,
    "\u25810x7707a000": 3191,
    "\u25810x7707b000": 3192,
    "\u25810x7707c000": 3193,
    "\u25810x7707d000": 3194,
    "\u25810x7707e000": 3195,
    "\u25810x7707f000": 3196,
    "\u25810x77080000": 3197,
    "\u25810x77081000": 3198,
    "\u25810x77082000": 3199,
    "\u25810x77083000": 3200,
    "\u25810x77084000": 3201,
    "\u25810x77085000": 3202,
    "\u25810x77086000": 3203,
    "\u25810x77087000": 3204,
    "\u25810x77088000": 3205,
    "\u25810x77089000": 3206,
    "\u25810x7708a000": 3207,
    "\u25810x7708b000": 3208,
    "\u25810x7708c000": 3209,
    "\u25810x7708d000": 3210,
    "\u25810x7708e000": 3211,
    "\u25810x7708f000": 3212,
    "\u25810x77090000": 3213,
    "\u25810x77091000": 3214,
    "\u25810x77092000": 3215,
    "\u25810x77093000": 3216,
    "\u25810x77094000": 3217,
    "\u25810x77095000": 3218,
    "\u25810x77096000": 3219,
    "\u25810x77097000": 3220,
    "\u25810x77098000": 3221,
    "\u25810x77099000": 3222,
    "\u25810x7709a000": 3223,
    "\u25810x7709b000": 3224,
    "\u25810x7709c000": 3225,
    "\u25810x7709d000": 3226,
    "\u25810x7709e000": 3227,
    "\u25810x7709f000": 3228,
    "\u25810x770a0000": 3229,
    "\u25810x770a1000": 3230,
    "\u25810x770a2000": 3231,
    "\u25810x770a3000": 3232,
    "\u25810x770a4000": 3233,
    "\u25810x770a5000": 3234,
    "\u25810x770a6000": 3235,
    "\u25810x770a7000": 3236,
    "\u25810x770a8000": 3237,
    "\u25810x770a9000": 3238,
    "\u25810x770aa000": 3239,
    "\u25810x770ab000": 3240,
    "\u25810x770ac000": 3241,
    "\u25810x770ad000": 3242,
    "\u25810x770ae000": 3243,
    "\u25810x770af000": 3244,
    "\u25810x770b0000": 3245,
    "\u25810x770b1000": 3246,
    "\u25810x770b2000": 3247,
    "\u25810x770b3000": 3248,
    "\u25810x770b4000": 3249,
    "\u25810x770b5000": 3250,
    "\u25810x770b6000": 3251,
    "\u25810x770b7000": 3252,
    "\u25810x770b8000": 3253,
    "\u25810x770b9000": 3254,
    "\u25810x770ba000": 3255,
    "\u25810x770bb000": 3256,
    "\u25810x770bc000": 3257,
    "\u25810x770bd000": 3258,
    "\u25810x770be000": 3259,
    "\u25810x770bf000": 3260,
    "\u25810x770c0000": 3261,
    "\u25810x770c1000": 3262,
    "\u25810x770c2000": 3263,
    "\u25810x770c3000": 3264,
    "\u25810x770c4000": 3265,
    "\u25810x770c5000": 3266,
    "\u25810x770c6000": 3267,
    "\u25810x770c7000": 3268,
    "\u25810x770c8000": 3269,
    "\u25810x770c9000": 3270,
    "\u25810x770ca000": 3271,
    "\u25810x770cb000": 3272,
    "\u25810x770cc000": 3273,
    "\u25810x770cd000": 3274,
    "\u25810x770ce000": 3275,
    "\u25810x770cf000": 3276,
    "\u25810x770d0000": 3277,
    "\u25810x770d1000": 3278,
    "\u25810x770d2000": 3279,
    "\u25810x770d3000": 3280,
    "\u25810x770d4000": 3281,
    "\u25810x770d5000": 3282,
    "\u25810x770d6000": 3283,
    "\u25810x770d7000": 3284,
    "\u25810x770d8000": 3285,
    "\u25810x770d9000": 3286,
    "\u25810x770da000": 3287,
    "\u25810x770db000": 3288,
    "\u25810x770dc000": 3289,
    "\u25810x770dd000": 3290,
    "\u25810x770de000": 3291,
    "\u25810x770df000": 3292,
    "\u25810x770e0000": 3293,
    "\u25810x770e1000": 3294,
    "\u25810x770e2000": 3295,
    "\u25810x770e3000": 3296,
    "\u25810x770e4000": 3297,
    "\u25810x770e5000": 3298,
    "\u25810x770e6000": 3299,
    "\u25810x770e7000": 3300,
    "\u25810x770e8000": 3301,
    "\u25810x770e9000": 3302,
    "\u25810x770ea000": 3303,
    "\u25810x770eb000": 3304,
    "\u25810x770ec000": 3305,
    "\u25810x770ed000": 3306,
    "\u25810x770ee000": 3307,
    "\u25810x770ef000": 3308,
    "\u25810x770f0000": 3309,
    "\u25810x770f1000": 3310,
    "\u25810x770f2000": 3311,
    "\u25810x770f3000": 3312,
    "\u25810x770f4000": 3313,
    "\u25810x770f5000": 3314,
    "\u25810x770f6000": 3315,
    "\u25810x770f7000": 3316,
    "\u25810x770f8000": 3317,
    "\u25810x770f9000": 3318,
    "\u25810x770fa000": 3319,
    "\u25810x770fb000": 3320,
    "\u25810x770fc000": 3321,
    "\u25810x770fd000": 3322,
    "\u25810x770fe000": 3323,
    "\u25810x770ff000": 3324,
    "\u25810x77100000": 3325,
    "\u25810x77101000": 3326,
    "\u25810x77102000": 3327,
    "\u25810x77103000": 3328,
    "\u25810x77104000": 3329,
    "\u25810x77105000": 3330,
    "\u25810x77106000": 3331,
    "\u25810x77107000": 3332,
    "\u25810x77108000": 3333,
    "\u25810x77109000": 3334,
    "\u25810x7710a000": 3335,
    "\u25810x7710b000": 3336,
    "\u25810x7710c000": 3337,
    "\u25810x7710d000": 3338,
    "\u25810x7710e000": 3339,
    "\u25810x7710f000": 3340,
    "\u25810x77110000": 3341,
    "\u25810x77111000": 3342,
    "\u25810x77112000": 3343,
    "\u25810x77113000": 3344,
    "\u25810x77114000": 3345,
    "\u25810x77115000": 3346,
    "\u25810x77116000": 3347,
    "\u25810x77117000": 3348,
    "\u25810x77118000": 3349,
    "\u25810x77119000": 3350,
    "\u25810x7711a000": 3351,
    "\u25810x7711b000": 3352,
    "\u25810x7711c000": 3353,
    "\u25810x7711d000": 3354,
    "\u25810x7711e000": 3355,
    "\u25810x7711f000": 3356,
    "\u25810x77120000": 3357,
    "\u25810x77121000": 3358,
    "\u25810x77122000": 3359,
    "\u25810x77123000": 3360,
    "\u25810x77124000": 3361,
    "\u25810x77125000": 3362,
    "\u25810x77126000": 3363,
    "\u25810x77127000": 3364,
    "\u25810x77128000": 3365,
    "\u25810x77129000": 3366,
    "\u25810x7712a000": 3367,
    "\u25810x7712b000": 3368,
    "\u25810x7712c000": 3369,
    "\u25810x7712d000": 3370,
    "\u25810x7712e000": 3371,
    "\u25810x7712f000": 3372,
    "\u25810x77130000": 3373,
    "\u25810x77131000": 3374,
    "\u25810x77132000": 3375,
    "\u25810x77133000": 3376,
    "\u25810x77134000": 3377,
    "\u25810x77135000": 3378,
    "\u25810x77136000": 3379,
    "\u25810x77137000": 3380,
    "\u25810x77138000": 3381,
    "\u25810x77139000": 3382,
    "\u25810x7713a000": 3383,
    "\u25810x7713b000": 3384,
    "\u25810x7713c000": 3385,
    "\u25810x7713d000": 3386,
    "\u25810x7713e000": 3387,
    "\u25810x7713f000": 3388,
    "\u25810x77140000": 3389,
    "\u25810x77141000": 3390,
    "\u25810x77142000": 3391,
    "\u25810x77143000": 3392,
    "\u25810x77144000": 3393,
    "\u25810x77145000": 3394,
    "\u25810x77146000": 3395,
    "\u25810x77147000": 3396,
    "\u25810x77148000": 3397,
    "\u25810x77149000": 3398,
    "\u25810x7714a000": 3399,
    "\u25810x7714b000": 3400,
    "\u25810x7714c000": 3401,
    "\u25810x7714d000": 3402,
    "\u25810x7714e000": 3403,
    "\u25810x7714f000": 3404,
    "\u25810x77150000": 3405,
    "\u25810x77151000": 3406,
    "\u25810x77152000": 3407,
    "\u25810x77153000": 3408,
    "\u25810x77154000": 3409,
    "\u25810x77155000": 3410,
    "\u25810x77156000": 3411,
    "\u25810x77157000": 3412,
    "\u25810x77158000": 3413,
    "\u25810x77159000": 3414,
    "\u25810x7715a000": 3415,
    "\u25810x7715b000": 3416,
    "\u25810x7715c000": 3417,
    "\u25810x7715d000": 3418,
    "\u25810x7715e000": 3419,
    "\u25810x7715f000": 3420,
    "\u25810x77160000": 3421,
    "\u25810x77161000": 3422,
    "\u25810x77162000": 3423,
    "\u25810x77163000": 3424,
    "\u25810x77164000": 3425,
    "\u25810x77165000": 3426,
    "\u25810x77166000": 3427,
    "\u25810x77167000": 3428,
    "\u25810x77168000": 3429,
    "\u25810x77169000": 3430,
    "\u25810x7716a000": 3431,
    "\u25810x7716b000": 3432,
    "\u25810x7716c000": 3433,
    "\u25810x7716d000": 3434,
    "\u25810x7716e000": 3435,
    "\u25810x7716f000": 3436,
    "\u25810x77170000": 3437,
    "\u25810x77171000": 3438,
    "\u25810x77172000": 3439,
    "\u25810x77173000": 3440,
    "\u25810x77174000": 3441,
    "\u25810x77175000": 3442,
    "\u25810x77176000": 3443,
    "\u25810x77177000": 3444,
    "\u25810x77178000": 3445,
    "\u25810x77179000": 3446,
    "\u25810x7717a000": 3447,
    "\u25810x7717b000": 3448,
    "\u25810x7717c000": 3449,
    "\u25810x7717d000": 3450,
    "\u25810x7717e000": 3451,
    "\u25810x7717f000": 3452,
    "\u25810x77180000": 3453,
    "\u25810x77181000": 3454,
    "\u25810x77182000": 3455,
    "\u25810x77183000": 3456,
    "\u25810x77184000": 3457,
    "\u25810x77185000": 3458,
    "\u25810x77186000": 3459,
    "\u25810x77187000": 3460,
    "\u25810x77188000": 3461,
    "\u25810x77189000": 3462,
    "\u25810x7718a000": 3463,
    "\u25810x7718b000": 3464,
    "\u25810x7718c000": 3465,
    "\u25810x7718d000": 3466,
    "\u25810x7718e000": 3467,
    "\u25810x7718f000": 3468,
    "\u25810x77190000": 3469,
    "\u25810x77191000": 3470,
    "\u25810x77192000": 3471,
    "\u25810x77193000": 3472,
    "\u25810x77194000": 3473,
    "\u25810x77195000": 3474,
    "\u25810x77196000": 3475,
    "\u25810x77197000": 3476,
    "\u25810x77198000": 3477,
    "\u25810x77199000": 3478,
    "\u25810x7719a000": 3479,
    "\u2581physicalmemory": 3480,
    "\u25810x7719b000": 3481,
    "\u25810x7719c000": 3482,
    "\u25810x7719d000": 3483,
    "\u25810x7719e000": 3484,
    "\u25810x7719f000": 3485,
    "\u25810x771a0000": 3486,
    "\u25810x771a1000": 3487,
    "\u25810x771a2000": 3488,
    "\u25810x771a3000": 3489,
    "\u25810x771a4000": 3490,
    "\u25810x771a5000": 3491,
    "\u25810x771a6000": 3492,
    "\u25810x771a7000": 3493,
    "\u25810x771a8000": 3494,
    "\u25810x771a9000": 3495,
    "\u25810x771aa000": 3496,
    "\u25810x771ab000": 3497,
    "\u25810x771ac000": 3498,
    "\u25810x771ad000": 3499,
    "\u25810x771ae000": 3500,
    "\u25810x771af000": 3501,
    "\u25810x771b0000": 3502,
    "\u25810x771b1000": 3503,
    "\u25810x771b2000": 3504,
    "\u25810x771b3000": 3505,
    "\u25810x771b4000": 3506,
    "\u25810x771b5000": 3507,
    "\u25810x771b6000": 3508,
    "\u25810x771b7000": 3509,
    "\u25810x771b8000": 3510,
    "\u25810x771b9000": 3511,
    "\u25810x771ba000": 3512,
    "\u25810x771bb000": 3513,
    "\u25810x771bc000": 3514,
    "\u25810x771bd000": 3515,
    "\u25810x771be000": 3516,
    "\u25810x771bf000": 3517,
    "\u25810x771c0000": 3518,
    "\u2581listen": 3519,
    "\u25810x771c1000": 3520,
    "\u25810x771c2000": 3521,
    "\u25810x771c3000": 3522,
    "\u25810x771c4000": 3523,
    "\u25810x771c5000": 3524,
    "\u25810x771c6000": 3525,
    "\u2581appendw": 3526,
    "\u2581getmess": 3527,
    "full": 3528,
    "\u25810x52660": 3529,
    "\u25810x1e00000": 3530,
    "\u25810x1e50000": 3531,
    "\u25810x7c70": 3532,
    "97a6": 3533,
    "646d7": 3534,
    "\u25810x7b000": 3535,
    "656c7": 3536,
    "\u258174726": 3537,
    "\u2581getpe": 3538,
    "97a6e61": 3539,
    "97a6e61646d7": 3540,
    "\u2581gettempfilename": 3541,
    "\u25817472697a6e61646d7": 3542,
    "\u25817472697a6e61646d73696e6b692e6669": 3543,
    "ername": 3544,
    "\u2581776f7": 3545,
    "26b2e68": 3546,
    "26b2e68656c7": 3547,
    "\u2581getpeername": 3548,
    "\u2581776f726b2e68656c7": 3549,
    "\u2581776f726b2e68656c73696e6b692e6669": 3550,
    "\u25810xb0000": 3551,
    "eed": 3552,
    "\u25810x2ac45": 3553,
    "\u25810xad": 3554,
    "\u25810x40287e": 3555,
    "\u25810x46b3": 3556,
    "\u25810x42c520": 3557,
    "\u25810x90f0": 3558,
    "ang": 3559,
    "\u25810x7b00": 3560,
    "ateprocess": 3561,
    "\u25810x8d80": 3562,
    "\u25810x1211c14": 3563,
    "\u25810x7d00": 3564,
    "a88": 3565,
    "\u25810x121": 3566,
    "\u25810x7ee00": 3567,
    "\u2581mo": 3568,
    "\u25810x4b80": 3569,
    "cc8": 3570,
    "\u25810xaa": 3571,
    "folder": 3572,
    "\u2581unhandledexceptionfilter": 3573,
    "\u2581wcsc": 3574,
    "ctl32": 3575,
    "\u2581comctl32": 3576,
    "\u25810x26": 3577,
    "\u2581control": 3578,
    "\u2581getwindows": 3579,
    "\u25810x4c32c0": 3580,
    "\u25810x1210e8": 3581,
    "488": 3582,
    "\u25810x63": 3583,
    "\u25810x4393f8": 3584,
    "\u25810x7df1": 3585,
    "\u2581wcscpy": 3586,
    "\u25810x94c0": 3587,
    "\u2581terminateprocess": 3588,
    "7c8": 3589,
    "a44": 3590,
    "fe8": 3591,
    "\u25810x41a5": 3592,
    "riv": 3593,
    "c80": 3594,
    "\u25810x8280": 3595,
    "inst": 3596,
    "alog": 3597,
    "584": 3598,
    "\u25810x1212000": 3599,
    "3b5": 3600,
    "\u25810xa3": 3601,
    "\u25810x1211c80": 3602,
    "\u25810x1211e28": 3603,
    "\u2581the": 3604,
    "\u2581findresourc": 3605,
    "\u2581inst": 3606,
    "b88": 3607,
    "\u25810x1210900": 3608,
    "9c1": 3609,
    "uilanguage": 3610,
    "\u25810x5265d": 3611,
    "adwork": 3612,
    "\u2581findresourceexw": 3613,
    "f74": 3614,
    "essage": 3615,
    "\u25810x80e0": 3616,
    "788": 3617,
    "\u2581message": 3618,
    "288": 3619,
    "eextra": 3620,
    "\u25810xc0": 3621,
    "\u2581form": 3622,
    "\u2581ch": 3623,
    "\u25810x181b": 3624,
    "freesp": 3625,
    "\u2581getdisk": 3626,
    "\u2581getdiskfreesp": 3627,
    "\u25810x448": 3628,
    "\u25810x52661": 3629,
    "\u2581getwindow": 3630,
    "\u25810x7cc0": 3631,
    "\u25810x58c01c": 3632,
    "\u25810x120fa": 3633,
    "\u2581shellexecutew": 3634,
    "\u25810x6b9c08": 3635,
    "\u2581messagebox": 3636,
    "\u25810x52662": 3637,
    "\u25810x4238": 3638,
    "viol": 3639,
    "\u2581new": 3640,
    "\u2581getthreaduilanguage": 3641,
    "\u25810x7e0": 3642,
    "\u25810xff8": 3643,
    "violation": 3644,
    "49": 3645,
    "any": 3646,
    "\u25810x42e2": 3647,
    "cadwork": 3648,
    "\u2581gettempfilenamew": 3649,
    "\u25810x42d520": 3650,
    "\u25810x4317e0": 3651,
    "if": 3652,
    "\u25810x12119f0": 3653,
    "\u25810x42ce": 3654,
    "\u25810x4418": 3655,
    "ageextra": 3656,
    "ageextrainfo": 3657,
    "\u2581getmessageextrainfo": 3658,
    "\u25810x20019": 3659,
    "e4c": 3660,
    "\u25810xac": 3661,
    "47": 3662,
    "\u25810x5c": 3663,
    "\u25810x40a5a0": 3664,
    "\u2581mul": 3665,
    "\u2581muldiv": 3666,
    "\u25810x210": 3667,
    "gi": 3668,
    "\u25810x169be04": 3669,
    "\u25810x1211e44": 3670,
    "\u25810x566": 3671,
    "ram": 3672,
    "\u25810x421": 3673,
    "\u25810x409a": 3674,
    "\u25810x7d98": 3675,
    "\u25810x436390": 3676,
    "\u25810x416b": 3677,
    "\u25810x496760": 3678,
    "\u25810x7d99": 3679,
    "ash": 3680,
    "wind": 3681,
    "\u25815": 3682,
    "f62": 3683,
    "\u25810x7ed0": 3684,
    "\u2581getdiskfreespac": 3685,
    "unwind": 3686,
    "\u25810x52666": 3687,
    "\u25810x43500": 3688,
    "\u2581rtlunwind": 3689,
    "de8": 3690,
    "f80": 3691,
    "\u25810x40a59e": 3692,
    "\u25810x40a5a2": 3693,
    "\u25810x40a5a4": 3694,
    "\u25810x40a5a6": 3695,
    "\u25810x40a5a8": 3696,
    "\u25810x40a5aa": 3697,
    "firstw": 3698,
    "\u25810x40933c": 3699,
    "\u2581createp": 3700,
    "\u25810x7ec4": 3701,
    "aff": 3702,
    "de4": 3703,
    "\u2581sn": 3704,
    "\u25810x7ec5": 3705,
    "\u25810x4400": 3706,
    "\u25810x1211e1c": 3707,
    "\u2581type": 3708,
    "destroy": 3709,
    "be8": 3710,
    "\u2581wsprintfa": 3711,
    "f20": 3712,
    "add": 3713,
    "\u25810x1211f6c": 3714,
    "\u25810x4090": 3715,
    "\u25810x409344": 3716,
    "\u2581output": 3717,
    "\u25810x120f8": 3718,
    "b190": 3719,
    "\u2581outputdebug": 3720,
    "d1c": 3721,
    "\u25810x7ec8": 3722,
    "\u25810x4305f8": 3723,
    "\u25810x42e2f0": 3724,
    "ssp": 3725,
    "\u25810x3e8": 3726,
    "\u25810x7ec9": 3727,
    "\u25810x41e": 3728,
    "\u2581accessviolation": 3729,
    "\u25810x418a": 3730,
    "\u25810x7da0": 3731,
    "ogram": 3732,
    "\u25810x4528": 3733,
    "\u2581lstrcpynw": 3734,
    "\u25810x1211f10": 3735,
    "\u2581kk": 3736,
    "504": 3737,
    "\u25810x1076": 3738,
    "c8c": 3739,
    "\u2581process32firstw": 3740,
    "\u25810x65": 3741,
    "\u25810x3f20": 3742,
    "special": 3743,
    "\u2581shgetspecial": 3744,
    "\u2581em": 3745,
    "\u25810x7d9c": 3746,
    "\u25810x46b4": 3747,
    "\u25810x7edc": 3748,
    "\u25810x7d9d": 3749,
    "b9c": 3750,
    "\u25810x5265c28": 3751,
    "\u25810x7ecc": 3752,
    "\u25810x7ecd": 3753,
    "\u25810x43b6": 3754,
    "\u25816": 3755,
    "hore": 3756,
    "alette": 3757,
    "\u25810x8001": 3758,
    "\u25810x42b190": 3759,
    "\u25810x42eace": 3760,
    "instruction": 3761,
    "740": 3762,
    "\u25810x7da1": 3763,
    "7e0": 3764,
    "\u25810x7ed1": 3765,
    "\u2581snap": 3766,
    "32cs": 3767,
    "\u2581th32cs": 3768,
    "\u25810x140": 3769,
    "\u25810x41e1": 3770,
    "\u25810x8c70": 3771,
    "\u25810xcf0000": 3772,
    "a10": 3773,
    "\u25810x1211bfc": 3774,
    "windowexw": 3775,
    "\u2581createwindowexw": 3776,
    "accel": 3777,
    "\u25810x8c60": 3778,
    "bas": 3779,
    "\u2581fe": 3780,
    "\u2581registerwindowmessagew": 3781,
    "\u2581mar": 3782,
    "\u25810x7db4": 3783,
    "\u2581exception": 3784,
    "\u25810x7ed4": 3785,
    "\u25810x7ed5": 3786,
    "echeck": 3787,
    "\u25810x415": 3788,
    "\u2581sat": 3789,
    "irec": 3790,
    "\u25810x9b": 3791,
    "\u25810x7da4": 3792,
    "\u25810x7ed8": 3793,
    "\u25810x7ed9": 3794,
    "\u25810x7db5": 3795,
    "\u25810x7e89": 3796,
    "\u25810x9d": 3797,
    "irector": 3798,
    "\u2581v": 3799,
    "\u25810x7e88": 3800,
    "\u25810x7d0": 3801,
    "\u25810x84b0": 3802,
    "\u25810x8310": 3803,
    "\u25810x8aa0": 3804,
    "\u25810x435390": 3805,
    "\u25810x56bb00": 3806,
    "e2c": 3807,
    "b44": 3808,
    "\u25810x7edd": 3809,
    "ok": 3810,
    "\u25810x100000": 3811,
    "\u25810x419d50": 3812,
    "\u2581getsyscolorbrush": 3813,
    "330": 3814,
    "\u25810x42b020": 3815,
    "\u25810x409020": 3816,
    "\u25810x419e00": 3817,
    "c4c": 3818,
    "accelerator": 3819,
    "\u25810x419f40": 3820,
    "\u25810x42a070": 3821,
    "\u25810x42b024": 3822,
    "\u25810x42b028": 3823,
    "\u25810x52664": 3824,
    "\u25810x7da5": 3825,
    "\u25810x169b958": 3826,
    "\u2581outof": 3827,
    "b7b": 3828,
    "108": 3829,
    "\u25810x8c90": 3830,
    "setinformation": 3831,
    "b48": 3832,
    "\u25810x7ee4": 3833,
    "\u25810x48400": 3834,
    "\u25810x1211d14": 3835,
    "ad4": 3836,
    "\u25810x11000": 3837,
    "\u25810x7ee5": 3838,
    "\u2581getclass": 3839,
    "\u25810xaf": 3840,
    "ec4": 3841,
    "\u25810x169b780": 3842,
    "5088": 3843,
    "failed": 3844,
    "\u25810x4228": 3845,
    "\u2581heapsetinformation": 3846,
    "\u25810x5638": 3847,
    "\u25810x8ab0": 3848,
    "\u25810x7ee1": 3849,
    "barcad": 3850,
    "barcadero": 3851,
    "\u2581embarcadero": 3852,
    "found": 3853,
    "\u25810xffe1": 3854,
    "the": 3855,
    "e2b": 3856,
    "\u2581lstrcmpa": 3857,
    "ecc": 3858,
    "\u25810xffe0": 3859,
    "\u2581feb": 3860,
    "\u25810x1009": 3861,
    "gument": 3862,
    "\u25810xffe4": 3863,
    "oem": 3864,
    "\u25810xfffe": 3865,
    "ef1": 3866,
    "\u25810x80c410": 3867,
    "\u25810x46b5": 3868,
    "\u25810x4340": 3869,
    "ee4": 3870,
    "ccess": 3871,
    "argument": 3872,
    "\u25810x7da8": 3873,
    "\u25810x1211e34": 3874,
    "\u25810x508": 3875,
    "infoa": 3876,
    "\u25810x8c30": 3877,
    "irectory": 3878,
    "\u25810x1210e7": 3879,
    "\u25810x1211cfc": 3880,
    "a84": 3881,
    "ied": 3882,
    "eexa": 3883,
    "\u2581septem": 3884,
    "\u25810x1211a00": 3885,
    "f0c": 3886,
    "\u25810x1211f74": 3887,
    "\u25810x1005": 3888,
    "3d8": 3889,
    "\u25810x8d20": 3890,
    "\u25810x12110": 3891,
    "\u25810x8bd0": 3892,
    "creating": 3893,
    "tionfailed": 3894,
    "une": 3895,
    "\u25810x43640": 3896,
    "\u2581snapprocess": 3897,
    "\u2581vc": 3898,
    "ged": 3899,
    "\u258111": 3900,
    "a41": 3901,
    "\u25810x41a0": 3902,
    "\u2581febr": 3903,
    "sser": 3904,
    "207": 3905,
    "\u25810xffba": 3906,
    "ober": 3907,
    "\u25810xffb7": 3908,
    "\u2581sta": 3909,
    "\u2581april": 3910,
    "\u2581august": 3911,
    "\u2581november": 3912,
    "\u2581september": 3913,
    "\u25810x7da9": 3914,
    "\u25810xffbb": 3915,
    "\u25810x1211a14": 3916,
    "\u2581div": 3917,
    "\u25810x6f": 3918,
    "\u25810xffb8": 3919,
    "\u25810xffbe": 3920,
    "\u25810xffb9": 3921,
    "\u25810xffbd": 3922,
    "\u25810x8ba0": 3923,
    "\u25810xffbc": 3924,
    "\u25810x3410c60": 3925,
    "\u25810xfffd": 3926,
    "\u25810x8c10": 3927,
    "c88": 3928,
    "bound": 3929,
    "\u25810xffbf": 3930,
    "\u2581outofmemory": 3931,
    "\u25810x1211690": 3932,
    "with": 3933,
    "\u25810xab": 3934,
    "\u25810xfffc": 3935,
    "\u25810x40b8": 3936,
    "\u25810x435088": 3937,
    "ab8": 3938,
    "\u2581fmode": 3939,
    "anuary": 3940,
    "\u2581march": 3941,
    "\u2581february": 3942,
    "uly": 3943,
    "\u2581october": 3944,
    "\u2581december": 3945,
    "tur": 3946,
    "\u25810xffa0": 3947,
    "\u2581thu": 3948,
    "nesday": 3949,
    "\u25810xffb6": 3950,
    "\u2581monday": 3951,
    "\u2581sunday": 3952,
    "\u2581tuesday": 3953,
    "\u2581wednesday": 3954,
    "ond": 3955,
    "index": 3956,
    "ursday": 3957,
    "\u2581thursday": 3958,
    "\u25810x4318": 3959,
    "\u2581setfileinformationbyhandlew": 3960,
    "\u2581getfileinformationbyhandleexw": 3961,
    "\u25810xffa2": 3962,
    "exception": 3963,
    "turday": 3964,
    "\u25810xffa1": 3965,
    "\u2581friday": 3966,
    "\u2581saturday": 3967,
    "runtime": 3968,
    "\u25810x413": 3969,
    "\u25810xffa3": 3970,
    "\u25810x42e0f0": 3971,
    "74c": 3972,
    "cor": 3973,
    "\u2581getoem": 3974,
    "\u2581chi": 3975,
    "ecall": 3976,
    "\u25810xffa4": 3977,
    "\u2581getoemcp": 3978,
    "\u25810xae": 3979,
    "\u25810x8ca0": 3980,
    "\u25810xffa7": 3981,
    "den": 3982,
    "facen": 3983,
    "\u25810xffa6": 3984,
    "\u2581interfacen": 3985,
    "\u25810xffa5": 3986,
    "\u25810xfffb": 3987,
    "\u2581createpalette": 3988,
    "licen": 3989,
    "\u2581issp": 3990,
    "\u25810x8cd0": 3991,
    "\u2581isspace": 3992,
    "\u25810x42b40": 3993,
    "\u2581asser": 3994,
    "safecall": 3995,
    "\u25810x714": 3996,
    "\u25810xffcd": 3997,
    "\u2581inte": 3998,
    "\u25810x8be0": 3999,
    "\u25810x58de20": 4000,
    "\u25810x8c40": 4001,
    "\u25810x12117e8": 4002,
    "\u25810x8bb0": 4003,
    "\u2581external": 4004,
    "\u2581stack": 4005,
    "\u25810xffb5": 4006,
    "\u25810x12117fc": 4007,
    "\u25810x7dc8": 4008,
    "d88": 4009,
    "\u25810xffa8": 4010,
    "\u2581privile": 4011,
    "\u25810xffa9": 4012,
    "ac4": 4013,
    "\u25810x8c00": 4014,
    "\u25810x431d": 4015,
    "\u25810x4394": 4016,
    "\u25810x1211c08": 4017,
    "edex": 4018,
    "insafecall": 4019,
    "\u2581exceptioninsafecall": 4020,
    "\u2581getwindowsdirectorya": 4021,
    "edexchange": 4022,
    "\u2581interlockedexchange": 4023,
    "calls": 4024,
    "\u2581disk": 4025,
    "changet": 4026,
    "\u2581variantchanget": 4027,
    "500000": 4028,
    "ac8": 4029,
    "notfound": 4030,
    "\u25810x8820": 4031,
    "\u25810xffaa": 4032,
    "cef": 4033,
    "ecast": 4034,
    "\u25810xffe6": 4035,
    "denied": 4036,
    "\u25810xfffa": 4037,
    "\u2581assertionfailed": 4038,
    "363": 4039,
    "bounds": 4040,
    "mod": 4041,
    "\u2581privileged": 4042,
    "\u2581chit": 4043,
    "otsuped": 4044,
    "classtyp": 4045,
    "indexout": 4046,
    "notsuped": 4047,
    "classtypecast": 4048,
    "\u2581externalexception": 4049,
    "\u2581interfacenotsuped": 4050,
    "ef0": 4051,
    "\u2581rang": 4052,
    "tunder": 4053,
    "\u25810xffb4": 4054,
    "ofbounds": 4055,
    "overflow": 4056,
    "tunderflow": 4057,
    "\u2581rangecheck": 4058,
    "callsnotsuped": 4059,
    "\u2581errorcreating": 4060,
    "\u2581floatingpoint": 4061,
    "indexoutofbounds": 4062,
    "\u2581invalidclasstypecast": 4063,
    "\u2581variantcallsnotsuped": 4064,
    "\u2581floatingpointunderflow": 4065,
    "typecon": 4066,
    "typeconversion": 4067,
    "\u2581stackoverflow": 4068,
    "pointeroperation": 4069,
    "\u2581privilegedinstruction": 4070,
    "\u2581invalidvariantoperation": 4071,
    "\u2581invalidvarianttypeconversion": 4072,
    "\u2581integ": 4073,
    "leaccess": 4074,
    "toverflow": 4075,
    "divisionbyzero": 4076,
    "\u2581floatingpointoverflow": 4077,
    "\u2581floatingpointdivisionbyzero": 4078,
    "floating": 4079,
    "\u2581integero": 4080,
    "floatingpoint": 4081,
    "\u2581divisionbyzero": 4082,
    "\u2581integeroverflow": 4083,
    "\u2581rangecheckerror": 4084,
    "\u2581invalidfloatingpoint": 4085,
    "\u2581invalidpointeroperation": 4086,
    "\u2581invalidfloatingpointoperation": 4087,
    "bey": 4088,
    "omany": 4089,
    "beyond": 4090,
    "numeric": 4091,
    "\u2581toomany": 4092,
    "openfiles": 4093,
    "\u2581diskfull": 4094,
    "\u2581readbeyond": 4095,
    "numericinput": 4096,
    "\u2581invalidfilename": 4097,
    "\u2581toomanyopenfiles": 4098,
    "\u2581invalidnumericinput": 4099,
    "\u2581readbeyondendoffile": 4100,
    "\u2581fileaccess": 4101,
    "\u2581fileaccessdenied": 4102,
    "runtime140": 4103,
    "\u2581vcruntime140": 4104,
    "\u25810xffce": 4105,
    "\u25810x4a20": 4106,
    "\u25810x41a": 4107,
    "\u2581lstrcpyna": 4108,
    "bool": 4109,
    "\u2581varbstrfrombool": 4110,
    "\u25810x42a": 4111,
    "\u25810x42ea": 4112,
    "lication": 4113,
    "\u25810x1210f4": 4114,
    "neg": 4115,
    "\u25810x52665": 4116,
    "\u25810x7e90": 4117,
    "\u25810x3f4000": 4118,
    "ypeex": 4119,
    "\u2581variantchangetypeex": 4120,
    "\u25810xffe5": 4121,
    "afdi": 4122,
    "\u25810x202": 4123,
    "\u2581wsafdi": 4124,
    "\u25810x40a3d": 4125,
    "\u2581wsafdisset": 4126,
    "\u2581acquiresrwlockexclusive": 4127,
    "\u25810xffcf": 4128,
    "\u25810x7dad": 4129,
    "\u25810x7dac": 4130,
    "\u25810x100300": 4131,
    "\u2581varadd": 4132,
    "\u2581varneg": 4133,
    "\u2581varnot": 4134,
    "\u2581varsub": 4135,
    "mul": 4136,
    "xor": 4137,
    "idiv": 4138,
    "\u2581varcy": 4139,
    "\u2581varor": 4140,
    "\u2581varr8": 4141,
    "\u2581varand": 4142,
    "\u2581varcmp": 4143,
    "\u2581vardiv": 4144,
    "\u2581varmod": 4145,
    "\u2581varmul": 4146,
    "\u2581varxor": 4147,
    "\u2581varbool": 4148,
    "\u2581vardate": 4149,
    "\u2581varidiv": 4150,
    "\u2581varcyfromstr": 4151,
    "\u2581vari4fromstr": 4152,
    "\u2581varr4fromstr": 4153,
    "\u2581varr8fromstr": 4154,
    "\u2581varbstrfromcy": 4155,
    "\u2581varboolfromstr": 4156,
    "\u2581vardatefromstr": 4157,
    "\u2581varbstrfromdate": 4158,
    "\u25810xb000": 4159,
    "\u25810x4299": 4160,
    "f88": 4161,
    "\u25810x7d40": 4162,
    "\u25810x8d60": 4163,
    "\u2581flushfile": 4164,
    "\u2581flushfilebuffers": 4165,
    "\u25810x88e0": 4166,
    "3c0": 4167,
    "\u25810x3f24": 4168,
    "fff0": 4169,
    "\u2581setthreadpreferreduilanguages": 4170,
    "\u25810xffb0": 4171,
    "\u25810x120e6d8": 4172,
    "\u25810x53000000": 4173,
    "\u25810xfff9": 4174,
    "b5c": 4175,
    "\u2581un": 4176,
    "\u25810x1211f78": 4177,
    "904": 4178,
    "\u25810xffb3": 4179,
    "\u25810x4615": 4180,
    "\u25810x343b5": 4181,
    "\u25810x7db1": 4182,
    "398": 4183,
    "\u25810xffb2": 4184,
    "\u25810x42332": 4185,
    "\u25810x4187": 4186,
    "\u25810x1211ec8": 4187,
    "\u25810x437808": 4188,
    "\u25810xffb1": 4189,
    "184": 4190,
    "search": 4191,
    "\u25810x13fff0": 4192,
    "searchmode": 4193,
    "\u2581setsearchmode": 4194,
    "\u2581string": 4195,
    "\u2581invalidargument": 4196,
    "variantorsafearray": 4197,
    "\u2581variantorsafearray": 4198,
    "\u2581errorcreatingvariantorsafearray": 4199,
    "\u2581variantorsafearrayindexoutofbounds": 4200,
    "d3c": 4201,
    "\u25810x42990": 4202,
    "\u2581net": 4203,
    "\u25810x8819": 4204,
    "validate": 4205,
    "\u25810x1211ed4": 4206,
    "\u25810x8818": 4207,
    "\u25810x51af": 4208,
    "\u2581heapvalidate": 4209,
    "\u25810x416c": 4210,
    "\u2581localfree": 4211,
    "\u25810x4df0": 4212,
    "b63": 4213,
    "\u2581ver": 4214,
    "\u25810xb5": 4215,
    "\u25810x431e": 4216,
    "\u25810x8821": 4217,
    "\u25810x881c": 4218,
    "\u25810x881d": 4219,
    "\u25810xfff8": 4220,
    "608": 4221,
    "bb8": 4222,
    "\u25810xfff7": 4223,
    "544": 4224,
    "\u25819": 4225,
    "\u2581createsemaphore": 4226,
    "\u25810x8d50": 4227,
    "\u25810x79a0": 4228,
    "\u2581setprocess": 4229,
    "\u25810x71a0": 4230,
    "ts": 4231,
    "ae3": 4232,
    "\u25810x1210e0": 4233,
    "\u25810x8d30": 4234,
    "\u25810x7a10": 4235,
    "\u2581outputdebugstringa": 4236,
    "vis": 4237,
    "\u25810x7c10": 4238,
    "\u25810xfeed": 4239,
    "\u25810x5265e": 4240,
    "b60": 4241,
    "driv": 4242,
    "yarg1": 4243,
    "\u2581loadaccelerator": 4244,
    "\u25810x51c": 4245,
    "228": 4246,
    "\u25810x3f5000": 4247,
    "358": 4248,
    "808": 4249,
    "\u25810x1211f18": 4250,
    "\u25810x40f9": 4251,
    "\u25810x3f3": 4252,
    "\u25810x9f": 4253,
    "\u2581rand": 4254,
    "264": 4255,
    "\u2581setst": 4256,
    "\u25810x7af0": 4257,
    "\u2581setstdhandle": 4258,
    "\u25810x423e": 4259,
    "684": 4260,
    "\u25810x42e6": 4261,
    "204": 4262,
    "profile": 4263,
    "\u25810x4306": 4264,
    "versioninfow": 4265,
    "\u25810x1b2": 4266,
    "\u25810x4330": 4267,
    "\u25810x46a0": 4268,
    "\u25810x3f31": 4269,
    "code": 4270,
    "\u2581messageboxa": 4271,
    "\u25810x4338": 4272,
    "ff0": 4273,
    "quire": 4274,
    "\u25810xfff6": 4275,
    "\u25810x7db9": 4276,
    "xit": 4277,
    "\u25810x7db8": 4278,
    "\u2581releases": 4279,
    "\u25810x563868": 4280,
    "ernet": 4281,
    "ify": 4282,
    "\u2581move": 4283,
    "\u25810x7df4": 4284,
    "licy": 4285,
    "\u25810x20a": 4286,
    "\u2581verify": 4287,
    "policy": 4288,
    "\u25810x1211e30": 4289,
    "drl6660drl6660drl6660drl6660drl6660drl6660drl6660drl6660": 4290,
    "\u25810x7df5": 4291,
    "\u25810x46b5d4": 4292,
    "\u25810x43ff": 4293,
    "\u25810x48f894": 4294,
    "\u25810x40f937": 4295,
    "\u25810x437806": 4296,
    "\u25810x43780a": 4297,
    "\u25810x43780c": 4298,
    "\u25810x43780e": 4299,
    "\u25810x437810": 4300,
    "\u25810x437812": 4301,
    "\u25810x437814": 4302,
    "\u25810x437816": 4303,
    "\u25810x437818": 4304,
    "\u25810x43781a": 4305,
    "\u25810x43781c": 4306,
    "\u25810x43781e": 4307,
    "\u2581wri": 4308,
    "\u25810x190": 4309,
    "484": 4310,
    "a5c": 4311,
    "\u25810x7dbc": 4312,
    "win": 4313,
    "240": 4314,
    "\u25810x1211f40": 4315,
    "tecon": 4316,
    "\u2581writecon": 4317,
    "\u25810x40a2": 4318,
    "\u25810x4f62": 4319,
    "deppolicy": 4320,
    "\u25810x7dbd": 4321,
    "contr": 4322,
    "\u25810x41bcb0": 4323,
    "\u25810x41bce0": 4324,
    "hash": 4325,
    "forma": 4326,
    "\u25810x4e80": 4327,
    "\u2581heapdestroy": 4328,
    "\u25810x1210f6": 4329,
    "\u25810xffd3": 4330,
    "\u2581loadlibraryexa": 4331,
    "\u25810x4169": 4332,
    "\u2581setprocessdeppolicy": 4333,
    "3c8": 4334,
    "98c": 4335,
    "\u25810x1211bd0": 4336,
    "\u25810x4c3": 4337,
    "\u25810xffc6": 4338,
    "\u25810xa9b0": 4339,
    "\u2581regquery": 4340,
    "\u2581shgetspecialfolderw": 4341,
    "gine": 4342,
    "\u25810x7340": 4343,
    "\u25810x7ef0": 4344,
    "ved": 4345,
    "\u25810x42fb": 4346,
    "301": 4347,
    "ols": 4348,
    "784": 4349,
    "\u25810x110": 4350,
    "\u25810x1210e4": 4351,
    "\u25810x1210ec": 4352,
    "\u2581verifyversioninfow": 4353,
    "d44": 4354,
    "\u25810xfeee0108": 4355,
    "a18": 4356,
    "\u25810x1210f0": 4357,
    "ceff": 4358,
    "\u25810x40c": 4359,
    "dc0": 4360,
    "\u25810x598": 4361,
    "afile": 4362,
    "\u25810x418970": 4363,
    "cid": 4364,
    "\u25810x8830": 4365,
    "318": 4366,
    "d4c": 4367,
    "yarg2": 4368,
    "\u25810x181c": 4369,
    "\u25810x8410": 4370,
    "\u25810x44280": 4371,
    "want": 4372,
    "\u25810x4c51": 4373,
    "\u25810x1211dd0": 4374,
    "\u2581openprocess": 4375,
    "\u2581physicaldriv": 4376,
    "700": 4377,
    "\u25810xbc": 4378,
    "\u25810x9e": 4379,
    "\u2581program": 4380,
    "unction": 4381,
    "\u2581physicaldrive0": 4382,
    "\u25810xffc5": 4383,
    "100": 4384,
    "\u25810x4284": 4385,
    "\u25810x4300": 4386,
    "\u2581memcpy": 4387,
    "\u2581are": 4388,
    "\u25810x169b5": 4389,
    "\u25810x99d0": 4390,
    "\u2581comparestringw": 4391,
    "\u2581corexit": 4392,
    "\u2581corexitprocess": 4393,
    "licence": 4394,
    "\u25810x97b0": 4395,
    "\u25810xfff5": 4396,
    "\u25810x8330": 4397,
    "f84": 4398,
    "\u25810xffab": 4399,
    "ly": 4400,
    "160": 4401,
    "b8c": 4402,
    "\u25810x490": 4403,
    "\u25810x7ee9": 4404,
    "\u25810x44d4": 4405,
    "718": 4406,
    "a0f": 4407,
    "2ac": 4408,
    "e24": 4409,
    "\u25810x7230": 4410,
    "\u25810x480": 4411,
    "\u25810x431": 4412,
    "\u258117": 4413,
    "\u25810x3e6c": 4414,
    "\u2581getkeyboardtype": 4415,
    "\u25810xffac": 4416,
    "00210": 4417,
    "\u25810x406": 4418,
    "\u2581loadacceleratorsw": 4419,
    "384": 4420,
    "ffc": 4421,
    "meto": 4422,
    "\u25810x3f30b0": 4423,
    "704": 4424,
    "imeto": 4425,
    "\u25810xffcc": 4426,
    "758": 4427,
    "e8c": 4428,
    "\u25810x51c4": 4429,
    "\u25810x3f30e0": 4430,
    "\u25810x3f3030": 4431,
    "\u25810x431d00": 4432,
    "\u258103": 4433,
    "\u25810x5265f": 4434,
    "\u25810x7070": 4435,
    "\u25810x3f3110": 4436,
    "\u25810x3f3140": 4437,
    "e84": 4438,
    "\u25810x41688": 4439,
    "\u25810x422e": 4440,
    "\u25810x3f6000": 4441,
    "\u25810x70a8": 4442,
    "\u25810x8340": 4443,
    "\u25810x417c": 4444,
    "\u25810x7f10": 4445,
    "d00": 4446,
    "delet": 4447,
    "e10": 4448,
    "\u25810x7ee8": 4449,
    "\u25810x93": 4450,
    "\u2581memset": 4451,
    "\u25810xffd0": 4452,
    "\u25810x3f7000": 4453,
    "984": 4454,
    "\u25810x488": 4455,
    "\u25810x3fb000": 4456,
    "3a8": 4457,
    "\u25810x3f8000": 4458,
    "\u25810x1211e40": 4459,
    "\u25810x3f2": 4460,
    "\u25810x1211f70": 4461,
    "\u25810x7dc0": 4462,
    "\u25810x4c4230": 4463,
    "\u25810x42a730": 4464,
    "\u25810x42a731": 4465,
    "\u25810x4c4248": 4466,
    "\u25810x4c4260": 4467,
    "\u25810x4c4278": 4468,
    "\u25810x4c4290": 4469,
    "\u25810x4c42a8": 4470,
    "\u25810x4c4320": 4471,
    "\u25810x4c4338": 4472,
    "\u25810x4c4350": 4473,
    "\u25810x4c4368": 4474,
    "ream": 4475,
    "260": 4476,
    "\u25810x120e694": 4477,
    "\u25810x120e69c": 4478,
    "\u25810x12118f8": 4479,
    "\u25810x40a582": 4480,
    "\u25810x40a584": 4481,
    "\u25810x40a586": 4482,
    "\u25810x40a588": 4483,
    "\u25810x7c40": 4484,
    "\u25810x40a58a": 4485,
    "\u25810x40a580": 4486,
    "\u25810x40a57e": 4487,
    "\u25810x429a81": 4488,
    "a90000": 4489,
    "\u25810x3f9000": 4490,
    "\u25810x3fa000": 4491,
    "pi": 4492,
    "\u25810x41624": 4493,
    "\u25810x437ae4": 4494,
    "\u25810x437207": 4495,
    "\u25810x437208": 4496,
    "\u25810x437ad2": 4497,
    "\u25810x437ad3": 4498,
    "\u25810x437ae3": 4499,
    "\u25810x437b63": 4500,
    "\u25810x437b64": 4501,
    "\u25810x437b7b": 4502,
    "\u25810x437b7c": 4503,
    "\u25810x437bbd": 4504,
    "\u25810x437bbe": 4505,
    "\u25810x437bce": 4506,
    "\u25810x437bcf": 4507,
    "\u25810x437c42": 4508,
    "\u25810x437c43": 4509,
    "\u25810x1210e5": 4510,
    "\u25810x4c5158": 4511,
    "556": 4512,
    "\u25810x429e2b": 4513,
    "\u25810x429e2c": 4514,
    "\u25810x434d1c": 4515,
    "\u25810x43b7a9": 4516,
    "\u25810x43b7aa": 4517,
    "\u25810x43b7b8": 4518,
    "\u25810x422ebe": 4519,
    "\u25810x43b7b3": 4520,
    "\u25810x43b7b4": 4521,
    "\u25810x43b7ba": 4522,
    "\u25810x43b7c4": 4523,
    "\u25810x8824": 4524,
    "\u25810x1210ed": 4525,
    "\u25810x1210e9": 4526,
    "\u25810x1210ee": 4527,
    "\u25810x1210f5": 4528,
    "\u25810x433618": 4529,
    "\u25810x8825": 4530,
    "d98": 4531,
    "\u25810x8828": 4532,
    "metafile": 4533,
    "\u25810x1210f9": 4534,
    "\u25810x41c0": 4535,
    "\u2581di": 4536,
    "f21": 4537,
    "\u25814d5": 4538,
    "324": 4539,
    "ceex": 4540,
    "\u25810x3f75f60": 4541,
    "\u25810x71c0": 4542,
    "\u25810x4315b0": 4543,
    "344": 4544,
    "\u25810x7d20": 4545,
    "f8c": 4546,
    "\u25810x8829": 4547,
    "\u25810x882c": 4548,
    "\u25810x4967a8": 4549,
    "ccc": 4550,
    "\u25810x882d": 4551,
    "\u25810x8834": 4552,
    "\u25810x7e3000": 4553,
    "\u25810x7e4000": 4554,
    "\u2581findfirstfilea": 4555,
    "initializeex": 4556,
    "\u2581coinitializeex": 4557,
    "\u25810x509": 4558,
    "\u25810x8831": 4559,
    "\u25810x41db": 4560,
    "\u25810x8835": 4561,
    "\u258116463": 4562,
    "124": 4563,
    "\u25810x1211968": 4564,
    "ffff0000": 4565,
    "ansi": 4566,
    "\u25810x42f": 4567,
    "\u25810x4de": 4568,
    "\u25810x1211f84": 4569,
    "apis": 4570,
    "\u25810x1211f80": 4571,
    "\u25810x130": 4572,
    "\u25810x11db": 4573,
    "a4c": 4574,
    "ad8": 4575,
    "\u25810x7dc1": 4576,
    "\u2581tlsfree": 4577,
    "\u25810x4554": 4578,
    "apisansi": 4579,
    "\u2581arefile": 4580,
    "\u25810x42fc38": 4581,
    "\u2581arefileapisansi": 4582,
    "\u25810xfeee00f4": 4583,
    "\u25810x1211d08": 4584,
    "\u25810xffd2": 4585,
    "000000ffff0000": 4586,
    "afc": 4587,
    "\u25810x1211ef8": 4588,
    "\u2581shellexecutea": 4589,
    "b68": 4590,
    "4000000ffff0000": 4591,
    "218": 4592,
    "\u25810x3f75f30": 4593,
    "item": 4594,
    "controls": 4595,
    "\u2581initializesrwlock": 4596,
    "d40": 4597,
    "\u25810x44f910": 4598,
    "access": 4599,
    "\u25810xffad": 4600,
    "ownload": 4601,
    "\u25810x9230": 4602,
    "b40": 4603,
    "\u2581ob": 4604,
    "382": 4605,
    "d84": 4606,
    "\u25810x235": 4607,
    "\u25810x4470": 4608,
    "\u25810x430880": 4609,
    "bf0": 4610,
    "\u25810x1210e2": 4611,
    "bc4": 4612,
    "a900003": 4613,
    "\u25810x7460": 4614,
    "\u25814d5a900003": 4615,
    "\u25814d5a9000030000000": 4616,
    "\u25814d5a90000300000004000000ffff0000": 4617,
    "\u25810x74d0": 4618,
    "\u25810xffef": 4619,
    "\u25810x42fbf0": 4620,
    "cons": 4621,
    "\u25810x40a5ac": 4622,
    "278": 4623,
    "40c": 4624,
    "\u25810x419c20": 4625,
    "378": 4626,
    "\u25810x1210e6": 4627,
    "myarg2": 4628,
    "\u25810x5e": 4629,
    "\u25810x4e30": 4630,
    "144": 4631,
    "current": 4632,
    "\u25810x4196": 4633,
    "\u25810x41d1": 4634,
    "d28": 4635,
    "\u2581releasesrwlockexclusive": 4636,
    "\u25810x70e0": 4637,
    "b84": 4638,
    "b30": 4639,
    "\u2581do": 4640,
    "\u25810x40b3": 4641,
    "\u2581lcmapstringa": 4642,
    "\u25810x181": 4643,
    "\u25810x405": 4644,
    "\u25810x40ef1": 4645,
    "a70": 4646,
    "\u25810x7620": 4647,
    "bad8": 4648,
    "\u25810x7cb0": 4649,
    "bd0": 4650,
    "yarg1myarg2": 4651,
    "ise": 4652,
    "\u25810xe00": 4653,
    "eengine": 4654,
    "\u25810x169b7a4": 4655,
    "\u25810x7038": 4656,
    "\u25810x7498": 4657,
    "initializeengine": 4658,
    "\u2581failedtoinitializeengine": 4659,
    "\u25810x4c3308": 4660,
    "\u25810x72d8": 4661,
    "\u25810x169b57c": 4662,
    "284": 4663,
    "\u2581lstrcpya": 4664,
    "inity": 4665,
    "\u25810xea": 4666,
    "\u25810x71f8": 4667,
    "\u25810x169b94c": 4668,
    "\u25810x3f23": 4669,
    "\u25810x7b60": 4670,
    "\u25810x343b570": 4671,
    "\u25810x4290": 4672,
    "\u25810x7310": 4673,
    "fa8": 4674,
    "coree": 4675,
    "\u2581mscoree": 4676,
    "\u25810x7e5000": 4677,
    "409": 4678,
    "\u25810x4f5": 4679,
    "26c": 4680,
    "affinity": 4681,
    "affinitymask": 4682,
    "stream": 4683,
    "a17": 4684,
    "\u25810x75b0": 4685,
    "\u25810xffc4": 4686,
    "once": 4687,
    "\u25810x125": 4688,
    "\u25810x7380": 4689,
    "\u25810x1210ea": 4690,
    "744": 4691,
    "d6c": 4692,
    "\u25810x7770": 4693,
    "\u25810xffe3": 4694,
    "\u2581createsemaphorew": 4695,
    "56c": 4696,
    "c8d": 4697,
    "4005": 4698,
    "\u25810x1210f1": 4699,
    "\u25810x7118": 4700,
    "\u25810xffe2": 4701,
    "\u25810x100b": 4702,
    "\u25810x3f21": 4703,
    "\u25810x1211e24": 4704,
    "\u2581removed": 4705,
    "\u25810x7a48": 4706,
    "\u25810x43f0": 4707,
    "\u25810x7b98": 4708,
    "\u25810x431f38": 4709,
    "\u25810x2100210": 4710,
    "sg": 4711,
    "\u25810x7188": 4712,
    "\u25810x7268": 4713,
    "\u25810x7428": 4714,
    "application": 4715,
    "3f1c": 4716,
    "\u25810x47e0": 4717,
    "\u25810x7348": 4718,
    "\u25810x7578": 4719,
    "\u25810x75e8": 4720,
    "569": 4721,
    "\u25810x42ef": 4722,
    "\u25810x85d0": 4723,
    "\u25810xffe7": 4724,
    "\u2581getstringtypea": 4725,
    "\u25810x7658": 4726,
    "\u25810x1211ccc": 4727,
    "\u2581removedirectory": 4728,
    "\u25810x73b8": 4729,
    "\u25810x76c8": 4730,
    "\u25810x7818": 4731,
    "\u25810x7888": 4732,
    "\u25810x7ce8": 4733,
    "\u25810x7508": 4734,
    "\u25810xffec": 4735,
    "\u25810x7738": 4736,
    "7f0": 4737,
    "\u25810x180": 4738,
    "d68": 4739,
    "\u25810x78f8": 4740,
    "\u25810x7968": 4741,
    "\u25810x7c08": 4742,
    "f50": 4743,
    "comp": 4744,
    "b18": 4745,
    "\u2581comm": 4746,
    "\u25810x41c": 4747,
    "\u25810x4084": 4748,
    "\u25810x1211f24": 4749,
    "\u25810x7ab8": 4750,
    "\u25810x7c78": 4751,
    "\u25810x77a8": 4752,
    "\u25810x79d8": 4753,
    "fied": 4754,
    "66c": 4755,
    "f4c": 4756,
    "\u25810x7d58": 4757,
    "\u25810x7b28": 4758,
    "\u25810x431ef0": 4759,
    "302": 4760,
    "\u25810x82c0": 4761,
    "b4c": 4762,
    "\u25810xffae": 4763,
    "mit": 4764,
    "\u2581initon": 4765,
    "\u25810x41d8": 4766,
    "ceexecute": 4767,
    "ceexecuteonce": 4768,
    "\u2581initonceexecuteonce": 4769,
    "comm": 4770,
    "\u25810x42ae": 4771,
    "\u2581coinitialize": 4772,
    "316": 4773,
    "\u25810xffaf": 4774,
    "\u25810x4130": 4775,
    "\u2581getprocessaffinitymask": 4776,
    "ff4": 4777,
    "\u25810x9240": 4778,
    "555": 4779,
    "\u25810x8430": 4780,
    "120": 4781,
    "\u25810xc4": 4782,
    "\u25810xffc2": 4783,
    "32c": 4784,
    "\u25810x8250": 4785,
    "\u25810x8930": 4786,
    "310": 4787,
    "\u25810x42900": 4788,
    "\u2581y": 4789,
    "\u25810x41de80": 4790,
    "metafilebits": 4791,
    "be0": 4792,
    "\u2581setenvironment": 4793,
    "\u25810x3f25": 4794,
    "\u25810xff90": 4795,
    "par": 4796,
    "\u2581format": 4797,
    "2c8": 4798,
    "\u25810x8d10": 4799,
    "\u25810x58000": 4800,
    "prec": 4801,
    "precise": 4802,
    "preciseasfiletime": 4803,
    "\u2581getsystemtimepreciseasfiletime": 4804,
    "12c": 4805,
    "\u2581getfileinformationbyhandleex": 4806,
    "f48": 4807,
    "\u25810x4efd": 4808,
    "\u25810x164": 4809,
    "\u25810x4010": 4810,
    "\u25810x1211de4": 4811,
    "6d7": 4812,
    "\u25810x56bad8": 4813,
    "f70": 4814,
    "\u25810x41a6": 4815,
    "\u25810x437820": 4816,
    "\u25810x41d114": 4817,
    "\u25810x120f8c2": 4818,
    "\u25810x20009": 4819,
    "541": 4820,
    "\u25810x417a": 4821,
    "\u2581cadwork": 4822,
    "\u2581setendoffile": 4823,
    "itor": 4824,
    "9c2": 4825,
    "\u25810xff91": 4826,
    "\u25810x42e5c8": 4827,
    "\u25810x42e5e0": 4828,
    "\u25810x4700": 4829,
    "\u2581getmenu": 4830,
    "5c0": 4831,
    "srw": 4832,
    "conditionvariablesrw": 4833,
    "\u2581sleepconditionvariablesrw": 4834,
    "\u25810x401": 4835,
    "\u25810x4cb0": 4836,
    "\u25810x9460": 4837,
    "fd0": 4838,
    "1d0": 4839,
    "\u25810x42ce10": 4840,
    "wantto": 4841,
    "eec": 4842,
    "\u25810x41af": 4843,
    "202": 4844,
    "918": 4845,
    "ed2": 4846,
    "\u25810x1211f1c": 4847,
    "\u25810x41b": 4848,
    "404": 4849,
    "\u25810x59c1": 4850,
    "\u25810x49c8": 4851,
    "\u25810x59bf": 4852,
    "\u25810x42e598": 4853,
    "\u25810x1210c": 4854,
    "defaultu": 4855,
    "\u25810x30000": 4856,
    "defaultuilanguage": 4857,
    "\u25810xfeee011": 4858,
    "mi": 4859,
    "\u2581cq": 4860,
    "\u2581sys": 4861,
    "dec8": 4862,
    "ae8": 4863,
    "numberis": 4864,
    "360": 4865,
    "888": 4866,
    "\u25810x4054": 4867,
    "fb0": 4868,
    "\u25810x45f1": 4869,
    "\u25810x8420": 4870,
    "\u25810x1211e20": 4871,
    "\u2581gdip": 4872,
    "lcid": 4873,
    "\u25810x1253f1c": 4874,
    "olec": 4875,
    "\u25810x107": 4876,
    "\u25810x407": 4877,
    "\u25810x99a0": 4878,
    "\u25810x4270": 4879,
    "b78": 4880,
    "ivate": 4881,
    "consolec": 4882,
    "d78": 4883,
    "\u25810x118": 4884,
    "\u2581noaccess": 4885,
    "\u25810x4aa0": 4886,
    "\u25810x1210f3": 4887,
    "winmetafilebits": 4888,
    "bd4": 4889,
    "\u25810x5658": 4890,
    "\u25810xffc3": 4891,
    "\u25810x1210f2": 4892,
    "\u25810x3200": 4893,
    "\u25810x42bf": 4894,
    "\u25810x801000": 4895,
    "strings": 4896,
    "36c": 4897,
    "private": 4898,
    "\u25810x3f26": 4899,
    "\u2581getenvironmentstrings": 4900,
    "\u25810x52667": 4901,
    "\u25810x4307e0": 4902,
    "\u25810x800000": 4903,
    "70c": 4904,
    "b94": 4905,
    "\u2581wak": 4906,
    "\u25810x8f50": 4907,
    "\u2581wakeconditionvariable": 4908,
    "\u2581install": 4909,
    "3e8": 4910,
    "\u2581sub": 4911,
    "privateprofile": 4912,
    "b10": 4913,
    "\u25810x12117f4": 4914,
    "2dc": 4915,
    "b14": 4916,
    "c44": 4917,
    "\u25810x4227": 4918,
    "\u25810x40ab": 4919,
    "\u25810x41c4": 4920,
    "\u25810x4d50": 4921,
    "\u2581findnextfilea": 4922,
    "len": 4923,
    "\u25810x60c6": 4924,
    "\u2581submit": 4925,
    "\u25810x11c": 4926,
    "\u2581setcurrent": 4927,
    "threadpoolwork": 4928,
    "\u2581closethreadpoolwork": 4929,
    "\u2581createthreadpoolwork": 4930,
    "\u2581submitthreadpoolwork": 4931,
    "\u2581setfileinformationbyhandle": 4932,
    "\u25810x1211808": 4933,
    "\u25810xfff4": 4934,
    "\u25810x44d4b8": 4935,
    "f828": 4936,
    "\u25810x7eab": 4937,
    "function": 4938,
    "368": 4939,
    "\u25810xbd": 4940,
    "\u25810x42be": 4941,
    "\u25810x47f0": 4942,
    "\u2581getwinmetafilebits": 4943,
    "download": 4944,
    "2e0": 4945,
    "528": 4946,
    "fc8": 4947,
    "f30": 4948,
    "\u25810x4201": 4949,
    "928": 4950,
    "d0c": 4951,
    "3e0": 4952,
    "\u25810x2825": 4953,
    "948": 4954,
    "\u25810x97c0": 4955,
    "a6c": 4956,
    "\u25810x41d7": 4957,
    "\u2581getdiskfreespaceexw": 4958,
    "\u2581wcs": 4959,
    "edit": 4960,
    "\u2581remove": 4961,
    "\u25810x87": 4962,
    "\u25810x405d": 4963,
    "3f0": 4964,
    "644": 4965,
    "e28": 4966,
    "\u25810x4088": 4967,
    "olfp": 4968,
    "inter": 4969,
    "\u2581controlfp": 4970,
    "internal": 4971,
    "f318": 4972,
    "\u25810x53e4": 4973,
    "\u25810x3f3060": 4974,
    "\u25810x120e68c": 4975,
    "b0c": 4976,
    "\u2581680": 4977,
    "34c": 4978,
    "\u25810x3f3010": 4979,
    "\u25810x4340c8": 4980,
    "\u25810x46b3d0": 4981,
    "errornumberis": 4982,
    "\u2581programinternal": 4983,
    "\u2581programinternalerrornumberis": 4984,
    "304": 4985,
    "\u25810x45f2": 4986,
    "aaaaaaaa": 4987,
    "\u2581commode": 4988,
    "9c0": 4989,
    "d48": 4990,
    "\u2581dragob": 4991,
    "\u25810x1211f97": 4992,
    "fe0": 4993,
    "\u2581download": 4994,
    "340": 4995,
    "\u2581shgetfolderw": 4996,
    "\u25810xffdd": 4997,
    "\u25810x401000": 4998,
    "54c": 4999,
    "\u25810x7bc": 5000,
    "\u2581version": 5001,
    "fromstream": 5002,
    "\u25810x107538": 5003,
    "\u25810x40a59c": 5004,
    "f6c": 5005,
    "\u25810x4bb0": 5006,
    "\u2581shfolder": 5007,
    "3b8": 5008,
    "a54": 5009,
    "dc1": 5010,
    "ocre": 5011,
    "\u2581setdll": 5012,
    "\u25810x408478": 5013,
    "\u2581lstrcmpw": 5014,
    "stringw": 5015,
    "\u25810x41d6": 5016,
    "\u25810x8a41": 5017,
    "base": 5018,
    "\u25810x1211f44": 5019,
    "ned": 5020,
    "\u25810x8650": 5021,
    "\u25810x120faa8": 5022,
    "d18": 5023,
    "reque": 5024,
    "\u25810x7e00": 5025,
    "\u25810x437804": 5026,
    "\u25810x1210e1": 5027,
    "\u25810x42c4f0": 5028,
    "\u2581log": 5029,
    "\u25810x120e690": 5030,
    "\u25810x120e698": 5031,
    "1cc": 5032,
    "\u2581wts": 5033,
    "\u25810x4614": 5034,
    "\u25810x107598": 5035,
    "\u25810x4096": 5036,
    "\u25810x120fd": 5037,
    "50c": 5038,
    "\u25810x42ae20": 5039,
    "f44": 5040,
    "\u2581fil": 5041,
    "owned": 5042,
    "\u25810x1211900": 5043,
    "a45": 5044,
    "\u25810x566a40": 5045,
    "716": 5046,
    "hook": 5047,
    "ip": 5048,
    "69c": 5049,
    "ed1": 5050,
    "\u25810xfc": 5051,
    "\u25810x107658": 5052,
    "\u25810x8660": 5053,
    "560": 5054,
    "dd4": 5055,
    "\u25810x42daa2": 5056,
    "\u25810x42daab": 5057,
    "\u25810x42dab4": 5058,
    "\u25810x42dabd": 5059,
    "\u25810x3f27": 5060,
    "\u25810x5199": 5061,
    "\u2581monitor": 5062,
    "2a0": 5063,
    "\u25810x4310": 5064,
    "\u25810x7f02": 5065,
    "990": 5066,
    "\u25810x41ddc0": 5067,
    "ession": 5068,
    "\u25810x41c044": 5069,
    "\u25810x41dda8": 5070,
    "\u25810x42aa58": 5071,
    "tp": 5072,
    "db0": 5073,
    "\u2581oleload": 5074,
    "\u25810x41ddf0": 5075,
    "\u2581oleloadfromstream": 5076,
    "\u25810x41de68": 5077,
    "\u25810x41deb0": 5078,
    "\u25810x54000": 5079,
    "\u25810x41de38": 5080,
    "\u25810x41dec8": 5081,
    "\u25810x169bf64": 5082,
    "\u25810x41de98": 5083,
    "\u2581removedirectorya": 5084,
    "f46": 5085,
    "\u25810x82f0": 5086,
    "3a4": 5087,
    "\u25810x10e9": 5088,
    "\u2581writeconsole": 5089,
    "d30": 5090,
    "\u25810x41db74": 5091,
    "\u25810x41db9c": 5092,
    "\u2581setfilepointerex": 5093,
    "884": 5094,
    "param": 5095,
    "\u25810x4a80": 5096,
    "\u25810x405d54": 5097,
    "\u25810x9210": 5098,
    "ae0": 5099,
    "\u25810x8f20": 5100,
    "b98": 5101,
    "\u2581dat": 5102,
    "\u25810x416b50": 5103,
    "\u25810x4a40": 5104,
    "\u25810x107688": 5105,
    "\u25810x120e6cc": 5106,
    "91c": 5107,
    "leasec": 5108,
    "\u25810x152": 5109,
    "\u25810x4100": 5110,
    "\u25810x420e": 5111,
    "\u25810x42f318": 5112,
    "001": 5113,
    "\u25810x40a2d5": 5114,
    "\u2581writeconsolew": 5115,
    "3c4": 5116,
    "notin": 5117,
    "vironmentstringsa": 5118,
    "\u25810x1210f7": 5119,
    "bf8": 5120,
    "\u25810x4828": 5121,
    "eto": 5122,
    "\u25810x160": 5123,
    "\u25810x40f": 5124,
    "\u25810x4990": 5125,
    "itialized": 5126,
    "notinitialized": 5127,
    "\u25810x3b7": 5128,
    "\u25810x4912": 5129,
    "\u25810xffc1": 5130,
    "\u2581setthreadlocale": 5131,
    "ectlock": 5132,
    "notowned": 5133,
    "\u25810x418a00": 5134,
    "\u25810x418a30": 5135,
    "supfunction": 5136,
    "ectlocknotowned": 5137,
    "\u2581monitorsupfunction": 5138,
    "\u2581monitorsupfunctionnotinitialized": 5139,
    "\u25810xffc7": 5140,
    "\u25810x50850": 5141,
    "core": 5142,
    "\u25810x7bc00000": 5143,
    "\u2581dw": 5144,
    "\u2581coun": 5145,
    "\u25810x7ff": 5146,
    "\u25810x4126": 5147,
    "370": 5148,
    "vchost": 5149,
    "\u2581formal": 5150,
    "\u2581getconsolemode": 5151,
    "\u2581svchost": 5152,
    "\u2581regedit": 5153,
    "\u2581oleinitialize": 5154,
    "a90": 5155,
    "\u25810x644": 5156,
    "\u25810x45f4": 5157,
    "\u25810x1210e78": 5158,
    "\u25810x1210e7c": 5159,
    "\u25810x1211af0": 5160,
    "fc4": 5161,
    "quired": 5162,
    "\u25810x4378c8": 5163,
    "\u25810xcb000": 5164,
    "\u25810x8190": 5165,
    "\u25810x420a0f": 5166,
    "\u25810x420a10": 5167,
    "\u25810x433660": 5168,
    "348": 5169,
    "filewas": 5170,
    "\u25810x4076": 5171,
    "specified": 5172,
    "7a8": 5173,
    "\u25810x169bf74": 5174,
    "b28": 5175,
    "\u25810x8d2": 5176,
    "\u25810x4179": 5177,
    "\u2581thespecified": 5178,
    "filewasnotfound": 5179,
    "\u2581thespecifiedfilewasnotfound": 5180,
    "areex": 5181,
    "compareex": 5182,
    "\u25810x1211e18": 5183,
    "compareexchange": 5184,
    "\u2581interlockedcompareexchange": 5185,
    "f58": 5186,
    "\u25810x5f3": 5187,
    "\u25810x1211db8": 5188,
    "6d7363": 5189,
    "\u25810xe06d7363": 5190,
    "\u25810x8026": 5191,
    "\u25810x1075c8": 5192,
    "\u25810x1075f8": 5193,
    "\u25810x107628": 5194,
    "b46": 5195,
    "\u2581tw": 5196,
    "\u25810x188e00": 5197,
    "\u25810x8a60": 5198,
    "\u25810x4330c8": 5199,
    "\u25810x120ff": 5200,
    "\u25810x41d838": 5201,
    "f18": 5202,
    "f51": 5203,
    "\u25810x88b0": 5204,
    "\u25810x41f828": 5205,
    "d8c": 5206,
    "e48": 5207,
    "\u2581movefilea": 5208,
    "\u2581getcurrentdirectorya": 5209,
    "\u25810xc94": 5210,
    "\u2581msvcr90": 5211,
    "\u25810x188d3c": 5212,
    "\u25810x41d6d0": 5213,
    "\u25810x41d740": 5214,
    "\u25810x4086": 5215,
    "\u25810x41d708": 5216,
    "\u25810x12110d8": 5217,
    "\u25810x1211338": 5218,
    "\u25810x169bc5c": 5219,
    "dl": 5220,
    "720": 5221,
    "\u2581getconsolec": 5222,
    "gen": 5223,
    "\u258124": 5224,
    "10428": 5225,
    "\u25810x5000": 5226,
    "798": 5227,
    "f65": 5228,
    "\u25810x405461": 5229,
    "\u2581strcmp": 5230,
    "\u2581required": 5231,
    "\u2581tw10428": 5232,
    "f78": 5233,
    "\u25810x41b910": 5234,
    "\u2581getconsolecp": 5235,
    "\u2581pleas": 5236,
    "aa0": 5237,
    "248": 5238,
    "b90": 5239,
    "b58": 5240,
    "d5c": 5241,
    "\u25810x8f70": 5242,
    "\u25810x42d4f0": 5243,
    "\u2581setdlldirectoryw": 5244,
    "a38": 5245,
    "\u25810x42c5d0": 5246,
    "\u2581getuserdefaultlcid": 5247,
    "200": 5248,
    "570": 5249,
    "\u25810x63000000": 5250,
    "c84": 5251,
    "f85": 5252,
    "728": 5253,
    "738": 5254,
    "instal": 5255,
    "\u25810x4ad4": 5256,
    "computer": 5257,
    "dff": 5258,
    "mb": 5259,
    "\u25810x188e24": 5260,
    "11c": 5261,
    "lsid": 5262,
    "\u25810x5c000": 5263,
    "298": 5264,
    "\u25810x423b": 5265,
    "\u25810x42be20": 5266,
    "\u25810x45fe": 5267,
    "\u25810x44000": 5268,
    "\u25810x4155": 5269,
    "\u25810x42efe8": 5270,
    "\u25810x8fc0": 5271,
    "768": 5272,
    "\u25810x45f3": 5273,
    "\u2581doyou": 5274,
    "\u25810x2439f74": 5275,
    "38c": 5276,
    "\u25810x45f5": 5277,
    "a30": 5278,
    "env": 5279,
    "fd8": 5280,
    "\u25810x4233": 5281,
    "\u25810x4efd98": 5282,
    "msg": 5283,
    "\u2581yo": 5284,
    "\u2581clsid": 5285,
    "94c": 5286,
    "\u25810x40b4": 5287,
    "\u25810x45f8": 5288,
    "lower": 5289,
    "\u25810x103": 5290,
    "d1ff": 5291,
    "\u2581filet": 5292,
    "\u25810x45f6": 5293,
    "\u2581filetimeto": 5294,
    "\u25810xffde": 5295,
    "\u25810x45f7": 5296,
    "\u25810x45f9": 5297,
    "\u25810x45fa": 5298,
    "\u25810x1211ecc": 5299,
    "\u25810x10e9bc": 5300,
    "\u25810x42ba58": 5301,
    "\u25810xfeee012": 5302,
    "\u25810x486d": 5303,
    "985": 5304,
    "\u25810x41f7": 5305,
    "\u25810x40a0": 5306,
    "\u2581clsidfrom": 5307,
    "pool": 5308,
    "\u25810xd2": 5309,
    "ctrl": 5310,
    "\u25810x4232": 5311,
    "\u2581getclassinfoa": 5312,
    "\u2581couninitialize": 5313,
    "c01": 5314,
    "heme": 5315,
    "\u2581uxt": 5316,
    "\u2581uxtheme": 5317,
    "e58": 5318,
    "ef8": 5319,
    "\u25810x42d8a2": 5320,
    "\u25810x42d8ab": 5321,
    "\u25810x42d8b4": 5322,
    "\u25810x42d8bd": 5323,
    "lipboardforma": 5324,
    "\u2581registerclipboardforma": 5325,
    "\u25810x8b50": 5326,
    "\u25810x62": 5327,
    "\u25810x4fc": 5328,
    "printer": 5329,
    "\u25810x45fd": 5330,
    "bc5": 5331,
    "\u25810x4601": 5332,
    "\u25810x4176": 5333,
    "regis": 5334,
    "onexit": 5335,
    "\u25810x22e": 5336,
    "748": 5337,
    "\u25810x45ff": 5338,
    "\u25810x120fb": 5339,
    "381": 5340,
    "\u25810xc8": 5341,
    "common": 5342,
    "2acb2": 5343,
    "af4": 5344,
    "\u2581mso": 5345,
    "\u25810x4cf": 5346,
    "\u2581b2acb2": 5347,
    "190": 5348,
    "\u25810x80c458": 5349,
    "1e8": 5350,
    "listmsg": 5351,
    "\u2581commctrl": 5352,
    "\u2581draglistmsg": 5353,
    "\u2581defwindowprocw": 5354,
    "\u2581qt": 5355,
    "ba0": 5356,
    "\u25810x169bf94": 5357,
    "\u2581initcommon": 5358,
    "\u2581initcommoncontrols": 5359,
    "\u25810x440": 5360,
    "df0": 5361,
    "\u25810x2012": 5362,
    "\u25810x43a4": 5363,
    "f28": 5364,
    "emyarg1myarg2": 5365,
    "\u258128": 5366,
    "\u25810x40ac": 5367,
    "\u2581exemyarg1myarg2": 5368,
    "2b0": 5369,
    "aa4": 5370,
    "\u25810x3020": 5371,
    "delete": 5372,
    "\u25810x422a0": 5373,
    "\u25810x50e10": 5374,
    "\u25810x109": 5375,
    "\u25810x41bd": 5376,
    "ocon": 5377,
    "\u25810x27": 5378,
    "\u25810xb3": 5379,
    "ocreate": 5380,
    "\u25810x1860": 5381,
    "\u25810x4305c8": 5382,
    "\u25810x4305e0": 5383,
    "\u2581int": 5384,
    "\u25810x60c690": 5385,
    "\u2581getdiskfreespaceexa": 5386,
    "\u25810x431828": 5387,
    "\u25810xfeee014": 5388,
    "321": 5389,
    "\u25810x8900": 5390,
    "\u25810x43400": 5391,
    "\u25810x412e": 5392,
    "\u25810x70b8": 5393,
    "\u25810x41ebf": 5394,
    "5e8": 5395,
    "b70": 5396,
    "update": 5397,
    "1c0": 5398,
    "a79": 5399,
    "d20": 5400,
    "\u25810x6e": 5401,
    "\u25812022": 5402,
    "\u25810x438": 5403,
    "9e0": 5404,
    "\u25810x1211d30": 5405,
    "694": 5406,
    "960": 5407,
    "d7c": 5408,
    "\u258112": 5409,
    "\u2581freeenvironmentstringsa": 5410,
    "\u25810x150": 5411,
    "\u25810x411555": 5412,
    "\u25810x411556": 5413,
    "116": 5414,
    "\u25810x42b964": 5415,
    "f34": 5416,
    "\u25810x42ebc0": 5417,
    "70e": 5418,
    "\u25810x430598": 5419,
    "\u25810x433860": 5420,
    "\u2581lstrcpyn": 5421,
    "\u25810x4030": 5422,
    "\u25810x4298": 5423,
    "\u25810x8ce0": 5424,
    "\u25810x11cc4c": 5425,
    "\u25810x71000000": 5426,
    "306": 5427,
    "a99": 5428,
    "\u25810x4179c": 5429,
    "\u25810x4c97": 5430,
    "fc0": 5431,
    "\u25810xe8": 5432,
    "565": 5433,
    "958": 5434,
    "\u25810x70b86f": 5435,
    "\u25810x1525000": 5436,
    "\u2581sc": 5437,
    "\u25810x435000": 5438,
    "d05": 5439,
    "\u25810x40b7": 5440,
    "\u25810x41b0": 5441,
    "\u25810x41568c": 5442,
    "1e4": 5443,
    "\u2581ru": 5444,
    "\u258126": 5445,
    "ffd1ff": 5446,
    "\u25810x423326": 5447,
    "\u25810x423327": 5448,
    "\u2581getvolumeinformationa": 5449,
    "\u25810xa4a0": 5450,
    "\u25810x41cc": 5451,
    "6d8": 5452,
    "\u25810x417b50": 5453,
    "\u25810x46b": 5454,
    "ce1": 5455,
    "d60": 5456,
    "\u25810x500": 5457,
    "ail": 5458,
    "acc": 5459,
    "\u2581202203040": 5460,
    "101": 5461,
    "a98": 5462,
    "iserror": 5463,
    "\u25810x1211f54": 5464,
    "bbc": 5465,
    "e50": 5466,
    "ible": 5467,
    "only": 5468,
    "ab0": 5469,
    "ctype": 5470,
    "\u25810x9600": 5471,
    "d90": 5472,
    "da9": 5473,
    "\u2581dialog": 5474,
    "db5": 5475,
    "\u25810x4184": 5476,
    "ig": 5477,
    "eb8": 5478,
    "604": 5479,
    "7e8": 5480,
    "pre": 5481,
    "\u25810x4606": 5482,
    "920": 5483,
    "71c": 5484,
    "b20": 5485,
    "tag": 5486,
    "78c": 5487,
    "5b0": 5488,
    "seek": 5489,
    "9d8": 5490,
    "\u25810x181b70": 5491,
    "\u25810x1211ee8": 5492,
    "da0": 5493,
    "\u25810x208": 5494,
    "178": 5495,
    "\u25810xffcb": 5496,
    "\u2581userenv": 5497,
    "\u2581hd": 5498,
    "\u2581findresourcea": 5499,
    "\u2581getuserdefaultuilanguage": 5500,
    "d2c": 5501,
    "fec": 5502,
    "\u2581aaa": 5503,
    "ncy": 5504,
    "\u25810x4ec": 5505,
    "\u25810x88f0": 5506,
    "\u25810xfff3": 5507,
    "f90": 5508,
    "\u25810x4079": 5509,
    "\u25810x41a044": 5510,
    "ba8": 5511,
    "\u25810xdd": 5512,
    "bb0": 5513,
    "3a0": 5514,
    "\u25810x4cf0": 5515,
    "requency": 5516,
    "\u25810x1211fb8": 5517,
    "\u2581e000": 5518,
    "600": 5519,
    "atalog": 5520,
    "80004005": 5521,
    "\u2581error0x80004005": 5522,
    "au": 5523,
    "dcc": 5524,
    "f17": 5525,
    "\u258118": 5526,
    "\u25810xf8": 5527,
    "\u25810x616": 5528,
    "extex": 5529,
    "\u2581regqueryvalueexw": 5530,
    "\u25810x5265c3c": 5531,
    "aa8": 5532,
    "c0c": 5533,
    "mapi": 5534,
    "tac": 5535,
    "cefrequency": 5536,
    "\u2581queryperformancefrequency": 5537,
    "non": 5538,
    "\u25810x80c": 5539,
    "18c": 5540,
    "trol": 5541,
    "\u25810x4093e8": 5542,
    "f60": 5543,
    "\u25810x4199": 5544,
    "\u25810x44180": 5545,
    "a78": 5546,
    "bfc": 5547,
    "\u25810x4093e5": 5548,
    "\u25810x4093e6": 5549,
    "\u25810x4093e7": 5550,
    "\u258114": 5551,
    "7d0": 5552,
    "\u2581getprivateprofile": 5553,
    "fad": 5554,
    "690": 5555,
    "794": 5556,
    "\u25810x534": 5557,
    "338": 5558,
    "\u2581tow": 5559,
    "\u25810x41e1d8": 5560,
    "bb4": 5561,
    "a69": 5562,
    "\u25810xf000": 5563,
    "17a8": 5564,
    "plor": 5565,
    "\u25810x8d90": 5566,
    "2c5": 5567,
    "d10": 5568,
    "internet": 5569,
    "\u25810x416a17": 5570,
    "\u25810x416a18": 5571,
    "will": 5572,
    "\u2581dwmapi": 5573,
    "rn": 5574,
    "a64": 5575,
    "textw": 5576,
    "\u2581lstrcmpi": 5577,
    "\u2581cryptbase": 5578,
    "\u25810x41b8": 5579,
    "\u25810x46b400": 5580,
    "bd7": 5581,
    "\u25810x560": 5582,
    "atalogs": 5583,
    "\u25810x3f2210": 5584,
    "305": 5585,
    "bd8": 5586,
    "\u25810x442": 5587,
    "rnl": 5588,
    "\u2581filenotfound": 5589,
    "ph": 5590,
    "2c4": 5591,
    "\u25810x9730": 5592,
    "a02": 5593,
    "d38": 5594,
    "nonce": 5595,
    "\u25810x412f": 5596,
    "\u2581runonce": 5597,
    "647": 5598,
    "dregen": 5599,
    "\u25810x1bf9": 5600,
    "\u2581hddregen": 5601,
    "\u2581hddregenerator": 5602,
    "317": 5603,
    "e0c": 5604,
    "\u25810x4139": 5605,
    "\u25810x4177": 5606,
    "bcc": 5607,
    "\u25812d": 5608,
    "974": 5609,
    "\u25810x678208": 5610,
    "af0": 5611,
    "eexist": 5612,
    "\u2581fileexist": 5613,
    "osk": 5614,
    "oskrnl": 5615,
    "\u2581ntoskrnl": 5616,
    "\u2581getmodulehandl": 5617,
    "3d0": 5618,
    "f7c": 5619,
    "\u2581atex": 5620,
    "\u2581atexit": 5621,
    "\u25810x6a": 5622,
    "\u25810x9cc0": 5623,
    "\u25810xffca": 5624,
    "60c": 5625,
    "944": 5626,
    "fd4": 5627,
    "20c": 5628,
    "\u25810x454": 5629,
    "\u25810x4160": 5630,
    "\u25810x1211ce0": 5631,
    "a8c": 5632,
    "\u25810x4df00": 5633,
    "\u25810x468": 5634,
    "fb8": 5635,
    "\u2581dup": 5636,
    "\u2581internet": 5637,
    "\u2581cl": 5638,
    "\u2581aa": 5639,
    "dd6": 5640,
    "f16": 5641,
    "244": 5642,
    "7e7": 5643,
    "\u25810x4650": 5644,
    "\u25810xa6b0": 5645,
    "\u25810xffc8": 5646,
    "\u2581shgetfile": 5647,
    "\u25810x5937": 5648,
    "e69": 5649,
    "\u25810x52668": 5650,
    "\u25810x5617a8": 5651,
    "778": 5652,
    "\u25810x518": 5653,
    "\u2581lstrca": 5654,
    "\u25810x4093e9": 5655,
    "\u25810x4093ea": 5656,
    "\u25810x4093eb": 5657,
    "\u25810x402": 5658,
    "\u25810x417b1": 5659,
    "\u25810x4170d4": 5660,
    "\u25810x4170d5": 5661,
    "\u258134": 5662,
    "50000": 5663,
    "\u25810x42c0a4": 5664,
    "qa": 5665,
    "\u25810x42fc68": 5666,
    "\u2581isvalidlocale": 5667,
    "9bc": 5668,
    "\u2581ns": 5669,
    "\u25810xa210": 5670,
    "\u25810x455": 5671,
    "\u2581instal": 5672,
    "lay": 5673,
    "\u25810x16000": 5674,
    "\u25810x1211e54": 5675,
    "7c5": 5676,
    "\u25810x1a0": 5677,
    "\u25810x95d0": 5678,
    "af8": 5679,
    "\u25810x8490": 5680,
    "\u2581getmodulehandleexw": 5681,
    "\u2581duplic": 5682,
    "\u2581pi": 5683,
    "334": 5684,
    "\u25810x4200": 5685,
    "\u25810x4ec0": 5686,
    "\u25810x598740": 5687,
    "64c": 5688,
    "350": 5689,
    "396": 5690,
    "\u25810x409aa4": 5691,
    "39c": 5692,
    "vip": 5693,
    "ocontrol": 5694,
    "\u25810x409aa5": 5695,
    "\u25810x4614d0": 5696,
    "970": 5697,
    "\u2581prvip": 5698,
    "iocontrol": 5699,
    "ef4": 5700,
    "\u2581charpre": 5701,
    "\u25810x4c10": 5702,
    "\u25810x1211f5c": 5703,
    "994": 5704,
    "\u25810x40935d": 5705,
    "\u25810x40935e": 5706,
    "\u25810x40935f": 5707,
    "\u25810x409360": 5708,
    "\u25810x409361": 5709,
    "\u25810x409362": 5710,
    "\u25810x409363": 5711,
    "148": 5712,
    "\u25810x41aa": 5713,
    "\u25810xa9a0": 5714,
    "\u2581deviceiocontrol": 5715,
    "f68": 5716,
    "\u25810xa260": 5717,
    "\u2581nsiserror": 5718,
    "\u25810x1210e80": 5719,
    "\u25810x1211fbc": 5720,
    "a60": 5721,
    "pass": 5722,
    "\u25810xffc9": 5723,
    "950": 5724,
    "fdd": 5725,
    "130": 5726,
    "d24": 5727,
    "\u25810xe9": 5728,
    "amet": 5729,
    "\u25810x419ce0": 5730,
    "\u25810x53e498": 5731,
    "instan": 5732,
    "\u25810x8000000": 5733,
    "14c": 5734,
    "\u25810x3200a48": 5735,
    "\u25810x569b48": 5736,
    "715": 5737,
    "7b8": 5738,
    "\u25810xfeee009d": 5739,
    "\u25810x131": 5740,
    "\u25810x1808": 5741,
    "\u25810x4240": 5742,
    "\u25810x169bf28": 5743,
    "a50": 5744,
    "chr": 5745,
    "bff": 5746,
    "\u25810x45fb": 5747,
    "\u25810x9a60": 5748,
    "7b0": 5749,
    "\u25810x430828": 5750,
    "\u2581oleacc": 5751,
    "311": 5752,
    "31c": 5753,
    "da8": 5754,
    "df8": 5755,
    "270": 5756,
    "withtag": 5757,
    "\u25810x4217": 5758,
    "\u25810x4208e0": 5759,
    "poolwithtag": 5760,
    "\u2581exallocate": 5761,
    "\u2581exallocatepoolwithtag": 5762,
    "\u25810x40b": 5763,
    "c8e": 5764,
    "bd5": 5765,
    "d58": 5766,
    "ters": 5767,
    "dd7": 5768,
    "\u2581wm": 5769,
    "3a20": 5770,
    "\u25810x1211e80": 5771,
    "b56": 5772,
    "privile": 5773,
    "\u25810x4ee0": 5774,
    "ority": 5775,
    "\u25810x409c": 5776,
    "\u25810x3f3080": 5777,
    "\u2581ndr": 5778,
    "\u2581strlen": 5779,
    "\u25810x169ba04": 5780,
    "366": 5781,
    "\u2581ndrd": 5782,
    "\u25810x2200": 5783,
    "valueexa": 5784,
    "\u25810x1211f50": 5785,
    "3e4": 5786,
    "prop": 5787,
    "star": 5788,
    "\u2581qt5": 5789,
    "\u25810x2e7": 5790,
    "\u25810x169bc04": 5791,
    "\u25810x169bd04": 5792,
    "2e8": 5793,
    "397": 5794,
    "a20": 5795,
    "\u25810x6ba": 5796,
    "\u25810x4335": 5797,
    "\u25810x47ee": 5798,
    "\u25810x94f0": 5799,
    "\u2581864000": 5800,
    "\u25810x70000": 5801,
    "351": 5802,
    "one": 5803,
    "\u25810x39569": 5804,
    "\u25810x3f3040": 5805,
    "\u25810x431f68": 5806,
    "etype": 5807,
    "\u2581ol": 5808,
    "f98": 5809,
    "741": 5810,
    "mar": 5811,
    "\u25810x41688a": 5812,
    "\u25810x41688b": 5813,
    "\u25810x4208df": 5814,
    "plorer": 5815,
    "\u2581commandline": 5816,
    "3ad": 5817,
    "90c": 5818,
    "\u2581cocreate": 5819,
    "\u2581programinternalerrornumberis6": 5820,
    "48c": 5821,
    "69e": 5822,
    "\u2581af": 5823,
    "argvw": 5824,
    "toargvw": 5825,
    "\u258186400040": 5826,
    "\u25810x1210e84": 5827,
    "\u2581commandlinetoargvw": 5828,
    "a8a8": 5829,
    "605": 5830,
    "940": 5831,
    "db8": 5832,
    "\u2581reset": 5833,
    "158": 5834,
    "68b": 5835,
    "\u25810x134": 5836,
    "\u25810x8de0": 5837,
    "\u25810x1211f30h": 5838,
    "\u25810x4324": 5839,
    "\u25810x4540": 5840,
    "\u25810x1211f98": 5841,
    "\u2581formatmessagea": 5842,
    "\u25810x47a00": 5843,
    "bc6": 5844,
    "\u25810x419cb0": 5845,
    "b34": 5846,
    "\u25810xbe": 5847,
    "b75": 5848,
    "\u25810x8838": 5849,
    "386": 5850,
    "3a5": 5851,
    "\u25810xffd4": 5852,
    "\u25810x2200220": 5853,
    "\u2581getmessagew": 5854,
    "a0c": 5855,
    "\u25810x8839": 5856,
    "bc9": 5857,
    "\u25810x42f1": 5858,
    "\u25810x40a58c": 5859,
    "bec": 5860,
    "\u25810x4175": 5861,
    "385": 5862,
    "\u25810x40a57c": 5863,
    "\u2581initcommoncontrolsex": 5864,
    "\u25810x41d2": 5865,
    "\u2581duplicate": 5866,
    "dd8": 5867,
    "roll": 5868,
    "\u25810x41cb": 5869,
    "\u25810x4607": 5870,
    "7dc": 5871,
    "exit": 5872,
    "im": 5873,
    "gex": 5874,
    "\u25810x5676": 5875,
    "\u2581cocreateinstan": 5876,
    "\u25810xba": 5877,
    "1a0": 5878,
    "ready": 5879,
    "\u25810x7ac0": 5880,
    "privilege": 5881,
    "\u2581lstrcata": 5882,
    "a32": 5883,
    "a43": 5884,
    "\u25810x4258": 5885,
    "\u25810x1211d44": 5886,
    "\u25810x1211ef4": 5887,
    "\u2581can": 5888,
    "\u25810x170": 5889,
    "\u25810x42b4": 5890,
    "2c6": 5891,
    "15c": 5892,
    "\u25810xb7": 5893,
    "\u25810x1211ed8": 5894,
    "\u25810x1211b08": 5895,
    "caff": 5896,
    "\u2581qt5core": 5897,
    "ld": 5898,
    "\u2581setenvironmentvariablea": 5899,
    "\u25810x1210cf0": 5900,
    "\u2581getdriv": 5901,
    "\u25810xfeee015": 5902,
    "\u25810xfeee00f3": 5903,
    "932": 5904,
    "ed0": 5905,
    "\u2581getdrivetype": 5906,
    "3d4": 5907,
    "acd": 5908,
    "\u25810xfeee00f2": 5909,
    "\u2581duplicatehandle": 5910,
    "\u25810x1211dbc": 5911,
    "lpapi": 5912,
    "\u25810x42eb": 5913,
    "\u25810x414c": 5914,
    "\u25810x416b2": 5915,
    "\u25810x416c0": 5916,
    "\u25810x416242": 5917,
    "\u25810x416243": 5918,
    "\u25810x42a0a0": 5919,
    "294": 5920,
    "bc7": 5921,
    "\u25810x64000": 5922,
    "\u2581mta": 5923,
    "ec9": 5924,
    "afcdff": 5925,
    "\u25810x43f6": 5926,
    "\u25810xa010": 5927,
    "\u2581isctype": 5928,
    "\u25810x200020": 5929,
    "\u25810x58de50": 5930,
    "afcdffceff": 5931,
    "\u2581b2acb2afcdffceff": 5932,
    "37c": 5933,
    "\u25810x68000": 5934,
    "3b0": 5935,
    "fa0": 5936,
    "exist": 5937,
    "\u25810x12106": 5938,
    "58c": 5939,
    "\u2581qa": 5940,
    "\u25810xfff2": 5941,
    "\u25810x1211438": 5942,
    "\u2581setcurrentdirectorya": 5943,
    "35c": 5944,
    "\u25810x450": 5945,
    "\u25810x4c0": 5946,
    "\u25810x41ba": 5947,
    "ware": 5948,
    "\u25810x120f": 5949,
    "\u25810x9940": 5950,
    "7d5": 5951,
    "\u25810x7eec": 5952,
    "\u25810x4f6200": 5953,
    "b0000": 5954,
    "\u2581opena": 5955,
    "med": 5956,
    "\u2581youm": 5957,
    "1b4": 5958,
    "150": 5959,
    "atom": 5960,
    "netw": 5961,
    "\u25810x169b9c0": 5962,
    "7a0": 5963,
    "\u25810x7eed": 5964,
    "\u2581security": 5965,
    "61c": 5966,
    "\u25810x7e4": 5967,
    "22c": 5968,
    "2d0": 5969,
    "566": 5970,
    "\u25810x46c0": 5971,
    "\u25810x7e30": 5972,
    "\u2581destroywindow": 5973,
    "\u25810x169bf2c": 5974,
    "\u25810x75500000": 5975,
    "\u25810x41a8a8": 5976,
    "\u25810x41bc98": 5977,
    "\u25810x41bcc8": 5978,
    "\u25810x169bf04": 5979,
    "198": 5980,
    "745": 5981,
    "fa2": 5982,
    "3b6": 5983,
    "\u25810x4604": 5984,
    "output": 5985,
    "\u25810x4d5": 5986,
    "\u25810x7df9": 5987,
    "\u25810x120e6dc": 5988,
    "pl": 5989,
    "312": 5990,
    "ded": 5991,
    "\u25810x8554": 5992,
    "\u25810x3010": 5993,
    "\u25810x7df8": 5994,
    "\u2581back": 5995,
    "network": 5996,
    "f49": 5997,
    "314": 5998,
    "\u25810x9810": 5999,
    "\u25810x7f8003": 6000,
    "\u25810x7f8004": 6001,
    "\u25810x7f8005": 6002,
    "\u25810x7f8006": 6003,
    "\u25810x7f8007": 6004,
    "\u25810x7f8008": 6005,
    "\u25810x7f8009": 6006,
    "\u25810x7f800a": 6007,
    "\u25810x7f800b": 6008,
    "\u25810x7f800c": 6009,
    "\u25810x7f800d": 6010,
    "\u2581iph": 6011,
    "\u2581iphlpapi": 6012,
    "pri": 6013,
    "\u25810x2010": 6014,
    "\u25810x5266c": 6015,
    "\u25810x7f800e": 6016,
    "\u25810x1211fa0": 6017,
    "f38": 6018,
    "\u25810x9290": 6019,
    "\u25810x502dc": 6020,
    "\u25810x52669": 6021,
    "\u25810x169bec8": 6022,
    "a74": 6023,
    "fed": 6024,
    "\u25810x7f800f": 6025,
    "210": 6026,
    "a28": 6027,
    "e74": 6028,
    "unch": 6029,
    "\u25810x4605": 6030,
    "outputcp": 6031,
    "\u25810x1211584": 6032,
    "seekto": 6033,
    "priority": 6034,
    "\u2581failedtoseekto": 6035,
    "be54": 6036,
    "cbff": 6037,
    "\u2581towlower": 6038,
    "created": 6039,
    "\u25810x44b7": 6040,
    "506": 6041,
    "ook": 6042,
    "\u25810xd8": 6043,
    "starto": 6044,
    "startoffile": 6045,
    "\u2581getconsoleoutputcp": 6046,
    "\u2581failedtoseektostartoffile": 6047,
    "9c8": 6048,
    "\u25810x40ef1b": 6049,
    "times": 6050,
    "\u25810x5f6": 6051,
    "alse": 6052,
    "\u25810x144": 6053,
    "longw": 6054,
    "\u25810xbb": 6055,
    "\u25810x40ef1a": 6056,
    "\u2581qae": 6057,
    "\u25810xb6": 6058,
    "\u2581globalf": 6059,
    "\u2581failedtoinitializeenginesection": 6060,
    "7ce": 6061,
    "\u2581fre": 6062,
    "\u2581openw": 6063,
    "\u25810xffdf": 6064,
    "dc8": 6065,
    "\u2581your": 6066,
    "c7ffd1ff": 6067,
    "c7ffd1ffcaff": 6068,
    "709": 6069,
    "\u2581oa": 6070,
    "\u2581failedtoinitializeenginestate": 6071,
    "\u25810x6940": 6072,
    "\u25810x4608": 6073,
    "\u25810x58c034": 6074,
    "\u25810x1211888": 6075,
    "a24": 6076,
    "fdc": 6077,
    "c7ffd1ffcaffcbff": 6078,
    "\u2581b2acb2afcdffceffc7ffd1ffcaffcbff": 6079,
    "\u25810x4218": 6080,
    "a49": 6081,
    "\u25810x1211b74": 6082,
    "move": 6083,
    "\u25810xffed": 6084,
    "\u2581command": 6085,
    "374": 6086,
    "3d28": 6087,
    "\u25810x4020": 6088,
    "\u25810x423da8": 6089,
    "\u25810x423dd8": 6090,
    "\u2581getsystemtimes": 6091,
    "adc": 6092,
    "375": 6093,
    "a89": 6094,
    "\u2581environ": 6095,
    "7cc": 6096,
    "916": 6097,
    "applet": 6098,
    "\u25810x500010": 6099,
    "\u25810x600": 6100,
    "install": 6101,
    "\u25810x491288": 6102,
    "\u2581regcreate": 6103,
    "5a0": 6104,
    "\u25810x4251": 6105,
    "\u25810x7ce0": 6106,
    "\u25810x1906000": 6107,
    "\u25810x4c30": 6108,
    "1a4": 6109,
    "3db": 6110,
    "\u25810x7dc4": 6111,
    "\u25810x80be54": 6112,
    "2d8": 6113,
    "3ac": 6114,
    "\u25810x40e5": 6115,
    "\u25810xffd1": 6116,
    "\u25810x3fd00": 6117,
    "\u25810x1211ad0": 6118,
    "\u25810x10a": 6119,
    "\u25810x6970": 6120,
    "\u25810x640000": 6121,
    "730": 6122,
    "9b4": 6123,
    "a1c": 6124,
    "\u2581202203031": 6125,
    "\u25810xff86": 6126,
    "\u25810x40f6a8": 6127,
    "\u25810x1211b50": 6128,
    "\u2581getcursor": 6129,
    "b96": 6130,
    "f3e": 6131,
    "fa4": 6132,
    "9c24": 6133,
    "\u25810x7dc5": 6134,
    "545": 6135,
    "\u25810x565868": 6136,
    "3ec": 6137,
    "che": 6138,
    "\u258135": 6139,
    "\u25810x7dd0": 6140,
    "30000": 6141,
    "\u25810xb2": 6142,
    "\u25810x4dc": 6143,
    "910": 6144,
    "9a8": 6145,
    "\u25810x598758": 6146,
    "3d6": 6147,
    "b3c": 6148,
    "\u25810x426": 6149,
    "\u25810x4140": 6150,
    "ad5": 6151,
    "290": 6152,
    "9d0": 6153,
    "\u2581regcreatekey": 6154,
    "3cc": 6155,
    "505": 6156,
    "71f": 6157,
    "ning": 6158,
    "\u25810x599": 6159,
    "\u25810x42a6": 6160,
    "\u25810x3f2420": 6161,
    "\u25810x1210e30": 6162,
    "ei": 6163,
    "top": 6164,
    "adap": 6165,
    "tive": 6166,
    "\u25810x4b7": 6167,
    "502": 6168,
    "a85": 6169,
    "reen": 6170,
    "adapters": 6171,
    "\u25810x1211790": 6172,
    "520": 6173,
    "b38": 6174,
    "\u25810x417da0": 6175,
    "70000": 6176,
    "\u25810x522": 6177,
    "\u25810x420f2": 6178,
    "\u25810x42b0a0": 6179,
    "f39": 6180,
    "been": 6181,
    "\u25810xffe8": 6182,
    "\u25810x1211b54": 6183,
    "\u2581getadapters": 6184,
    "\u25810xb1": 6185,
    "\u25810x417d9f": 6186,
    "f3f": 6187,
    "sk": 6188,
    "ects": 6189,
    "\u25810x4a77": 6190,
    "2c0": 6191,
    "place": 6192,
    "his": 6193,
    "\u25810x1b0": 6194,
    "\u25810x940000": 6195,
    "\u25810x2100": 6196,
    "\u25810x41e9": 6197,
    "\u25810x4602": 6198,
    "9c4": 6199,
    "a06": 6200,
    "bac": 6201,
    "\u2581ri": 6202,
    "run": 6203,
    "\u25810x740": 6204,
    "\u25810x1211f0c": 6205,
    "\u2581messageboxw": 6206,
    "7170": 6207,
    "\u25810x7f4": 6208,
    "1b8": 6209,
    "ally": 6210,
    "\u25810x4760": 6211,
    "\u25810x7dd9": 6212,
    "\u25810xff69": 6213,
    "\u25810x2d4d9": 6214,
    "b2c": 6215,
    "bf1": 6216,
    "d34": 6217,
    "\u2581lib": 6218,
    "\u25810x4316": 6219,
    "\u25810xa710": 6220,
    "606": 6221,
    "336": 6222,
    "\u25810x188e4c": 6223,
    "3de": 6224,
    "sion": 6225,
    "\u25810x4168": 6226,
    "3ff": 6227,
    "df5": 6228,
    "315": 6229,
    "33a": 6230,
    "\u25810x42ec": 6231,
    "\u25810x461518": 6232,
    "fc6": 6233,
    "pop": 6234,
    "\u2581run": 6235,
    "\u2581logme": 6236,
    "\u25810x4169c0": 6237,
    "\u25810x4169c1": 6238,
    "orno": 6239,
    "\u25810x5b5": 6240,
    "\u25810x120f9": 6241,
    "toc": 6242,
    "17f4": 6243,
    "\u25810x4af4": 6244,
    "238": 6245,
    "3bc": 6246,
    "3d1": 6247,
    "a39": 6248,
    "eresource": 6249,
    "e4b8": 6250,
    "\u25810x1211e0c": 6251,
    "\u2581riche": 6252,
    "\u2581setupapi": 6253,
    "1c4": 6254,
    "\u25810x478": 6255,
    "\u25810xfeee018": 6256,
    "117": 6257,
    "\u25810x6b6": 6258,
    "\u25810x4e5c": 6259,
    "\u25810x4b40": 6260,
    "\u25810x2d4df": 6261,
    "\u2581la": 6262,
    "zone": 6263,
    "\u25810x40d8": 6264,
    "\u25810x4902e0": 6265,
    "\u2581freeresource": 6266,
    "2ec": 6267,
    "ce6": 6268,
    "river": 6269,
    "\u25810x7f1": 6270,
    "\u25810x496790": 6271,
    "3dc": 6272,
    "eb6": 6273,
    "\u25810x42fc20": 6274,
    "\u25810x7eaba8": 6275,
    "d49": 6276,
    "f3c": 6277,
    "\u2581el": 6278,
    "\u25810xe1": 6279,
    "\u25810x423e08": 6280,
    "128": 6281,
    "7ec": 6282,
    "ae00": 6283,
    "\u25810x599b5c": 6284,
    "\u25810x599c24": 6285,
    "\u25810x59bf3c": 6286,
    "\u25810x59bf7c": 6287,
    "\u25810x59c120": 6288,
    "\u25810x59c138": 6289,
    "eb0": 6290,
    "\u2581regdelete": 6291,
    "364": 6292,
    "\u25810x44c2": 6293,
    "\u25810x416ed1": 6294,
    "sys": 6295,
    "\u25810x484": 6296,
    "\u25810x416ed2": 6297,
    "\u25810x567678": 6298,
    "e81": 6299,
    "e14": 6300,
    "ee2": 6301,
    "\u258108": 6302,
    "orgex": 6303,
    "\u25810x7dc9": 6304,
    "\u25810x42e0a4": 6305,
    "\u25810x4363d8": 6306,
    "\u25810x1210ec0": 6307,
    "image": 6308,
    "zoneinformation": 6309,
    "e94": 6310,
    "ea0": 6311,
    "eac": 6312,
    "lation": 6313,
    "\u25810x7f9": 6314,
    "\u25810x4011": 6315,
    "\u25810xfeee016": 6316,
    "3b4": 6317,
    "\u25810xd3d": 6318,
    "\u25810x414f20": 6319,
    "\u25810x435018": 6320,
    "\u2581gettimezoneinformation": 6321,
    "\u25810x7ddd": 6322,
    "\u25810x419c54": 6323,
    "\u25810x435002": 6324,
    "\u25810x435004": 6325,
    "\u25810x435006": 6326,
    "\u25810x435008": 6327,
    "\u25810x43500a": 6328,
    "\u25810x43500c": 6329,
    "\u25810x43500e": 6330,
    "\u25810x435010": 6331,
    "aec": 6332,
    "\u2581ps": 6333,
    "\u25810x4095": 6334,
    "\u25810x419c53": 6335,
    "\u25810x435014": 6336,
    "\u2581systemtim": 6337,
    "7bc": 6338,
    "\u25810x435016": 6339,
    "115": 6340,
    "723": 6341,
    "enamew": 6342,
    "\u2581print": 6343,
    "\u25810x4289": 6344,
    "76c": 6345,
    "fa6": 6346,
    "ame32": 6347,
    "\u2581prop": 6348,
    "\u2581mame32": 6349,
    "\u25810x42398": 6350,
    "\u25810x74000": 6351,
    "\u25810x414f21": 6352,
    "\u2581freeware": 6353,
    "bd6": 6354,
    "\u25810x44f": 6355,
    "\u2581apphelp": 6356,
    "\u2581iswindow": 6357,
    "9fc": 6358,
    "bcat": 6359,
    "\u2581call": 6360,
    "\u25810x407b": 6361,
    "\u25810x509e4": 6362,
    "1c6": 6363,
    "7d8": 6364,
    "\u2581propsys": 6365,
    "bcatq": 6366,
    "\u2581clbcatq": 6367,
    "cue": 6368,
    "rescue": 6369,
    "\u25810x8e90": 6370,
    "\u25810xc417f4": 6371,
    "fic": 6372,
    "\u25810xbf": 6373,
    "\u25810x4188": 6374,
    "\u25810x42d498": 6375,
    "inrescue": 6376,
    "\u2581logmeinrescue": 6377,
    "\u2581getwindowsdirectoryw": 6378,
    "f71": 6379,
    "\u25810xb9": 6380,
    "\u2581logmeinrescueapplet": 6381,
    "332": 6382,
    "\u25810x435012": 6383,
    "\u2581registerwindowmessagea": 6384,
    "9f0": 6385,
    "f10": 6386,
    "\u25810xfeedf000": 6387,
    "0068": 6388,
    "d32": 6389,
    "dfc": 6390,
    "698": 6391,
    "\u25810x5e9": 6392,
    "3b9": 6393,
    "485": 6394,
    "\u25810x8e50": 6395,
    "program": 6396,
    "ht": 6397,
    "bf4": 6398,
    "e05": 6399,
    "\u25810x169b8": 6400,
    "\u25810x535": 6401,
    "e09": 6402,
    "\u25810x1faf": 6403,
    "7675": 6404,
    "\u25810x41ad": 6405,
    "263": 6406,
    "\u25810x7dcc": 6407,
    "\u25810xfeee009e": 6408,
    "296": 6409,
    "765": 6410,
    "\u25810xfeee00f0": 6411,
    "7f4": 6412,
    "profil": 6413,
    "\u25810x7dd4": 6414,
    "\u25810x431f20": 6415,
    "339": 6416,
    "\u25810x4c33": 6417,
    "\u25810x4df": 6418,
    "\u25810x3020302": 6419,
    "\u25810xfeee00f5": 6420,
    "795": 6421,
    "\u25810x7e20": 6422,
    "\u2581cocreateinstance": 6423,
    "valuea": 6424,
    "\u25810xff92": 6425,
    "\u25810xffe9": 6426,
    "ha": 6427,
    "235": 6428,
    "354": 6429,
    "705": 6430,
    "bed": 6431,
    "790": 6432,
    "ba4": 6433,
    "e9c": 6434,
    "\u2581psapi": 6435,
    "\u25810x7dcd": 6436,
    "\u25810x7dd8": 6437,
    "\u25810x8cb0": 6438,
    "\u25810x42a00": 6439,
    "30c": 6440,
    "buf": 6441,
    "datom": 6442,
    "\u25810x4040": 6443,
    "\u25810x7d51": 6444,
    "\u25810x7ddc": 6445,
    "\u25810x9520": 6446,
    "\u25810x4c32d8": 6447,
    "\u25810x4c32f0": 6448,
    "\u25810x1211f68": 6449,
    "b86": 6450,
    "33c4": 6451,
    "\u25810x40a6": 6452,
    "\u25810x41a9": 6453,
    "\u25810x416be0": 6454,
    "6e8": 6455,
    "\u25810xcccc": 6456,
    "\u25810xfeee00a0": 6457,
    "f2c": 6458,
    "solea": 6459,
    "\u25810x2b4": 6460,
    "\u25810x416c10": 6461,
    "\u25810x42ce08": 6462,
    "\u25810x1211e38": 6463,
    "291": 6464,
    "\u25810x3f28": 6465,
    "\u25810x7dd1": 6466,
    "\u25810xa020": 6467,
    "\u25810x7dd5": 6468,
    "\u2581enable": 6469,
    "pc": 6470,
    "a3c": 6471,
    "bdc": 6472,
    "handler": 6473,
    "686": 6474,
    "\u2581cp": 6475,
    "\u25810x7100": 6476,
    "dfd": 6477,
    "\u25810xdc": 6478,
    "\u25810x46b3b8": 6479,
    "\u25810x1211cb8": 6480,
    "\u25810x408c8d": 6481,
    "\u25810x408c8e": 6482,
    "\u2581getconsolewindow": 6483,
    "701": 6484,
    "938": 6485,
    "a9c": 6486,
    "e55": 6487,
    "\u258104": 6488,
    "\u25810x181b48": 6489,
    "\u2581lstrcmpia": 6490,
    "66e": 6491,
    "691": 6492,
    "7f8": 6493,
    "\u258136": 6494,
    "a5b": 6495,
    "e90": 6496,
    "quirecon": 6497,
    "\u25810x12000": 6498,
    "\u2581cryptac": 6499,
    "\u2581cryptget": 6500,
    "\u2581cryptacquirecon": 6501,
    "df4": 6502,
    "valuew": 6503,
    "\u25810x4b4": 6504,
    "\u25810x700": 6505,
    "\u25810x423d38": 6506,
    "\u25810x1b5": 6507,
    "\u25810x508d0": 6508,
    "c43": 6509,
    "\u25810x509a8": 6510,
    "\u25810x3f75e88": 6511,
    "\u25810xfeee019": 6512,
    "\u2581getfileattributesa": 6513,
    "29c": 6514,
    "dd0": 6515,
    "\u25810x4106": 6516,
    "\u25810x7730": 6517,
    "\u25810x43501a": 6518,
    "mt": 6519,
    "214": 6520,
    "33c": 6521,
    "\u25810x41cc54": 6522,
    "\u25810x120f8a6": 6523,
    "\u2581failedtoopen": 6524,
    "\u2581failedtoopenapplication": 6525,
    "f45": 6526,
    "\u25810x7f5": 6527,
    "\u2581writeconsolea": 6528,
    "\u2581failedtoopenapplicationlog": 6529,
    "345": 6530,
    "658": 6531,
    "\u25810x4012": 6532,
    "\u25810x120e6a0": 6533,
    "2b8": 6534,
    "1740": 6535,
    "idto": 6536,
    "d0000": 6537,
    "propw": 6538,
    "\u25810x423818": 6539,
    "\u2581cryptdestroy": 6540,
    "27c": 6541,
    "b74": 6542,
    "\u25810x77000": 6543,
    "\u2581getmodulebas": 6544,
    "7c0": 6545,
    "e5c": 6546,
    "f95": 6547,
    "300b": 6548,
    "\u2581fast": 6549,
    "\u2581launch": 6550,
    "\u2581onexit": 6551,
    "\u25810x4d0": 6552,
    "\u25810x1211ec0": 6553,
    "b33": 6554,
    "\u25810x7c90": 6555,
    "230": 6556,
    "945": 6557,
    "aad": 6558,
    "\u25810x458": 6559,
    "\u2581getmodulebasenamew": 6560,
    "\u2581stri": 6561,
    "\u25810x366": 6562,
    "\u25810x413f": 6563,
    "\u25810x181b98": 6564,
    "\u25810x4c9778": 6565,
    "processmemory": 6566,
    "\u2581localrealloc": 6567,
    "224": 6568,
    "leasecon": 6569,
    "\u25810xdf": 6570,
    "\u25810x6b9c": 6571,
    "\u25810xffd8": 6572,
    "\u25810x563a20": 6573,
    "\u2581getmenuitem": 6574,
    "53a0": 6575,
    "blead": 6576,
    "\u2581ismb": 6577,
    "\u25810x180c": 6578,
    "\u25810x40e9": 6579,
    "\u2581ismbblead": 6580,
    "96c": 6581,
    "af3": 6582,
    "fami": 6583,
    "famili": 6584,
    "\u25810x423df8": 6585,
    "\u25810x4353d8": 6586,
    "ab7": 6587,
    "d19": 6588,
    "aac0": 6589,
    "b39": 6590,
    "sto": 6591,
    "0048": 6592,
    "\u25810x42eab0": 6593,
    "releasecon": 6594,
    "releasecontext": 6595,
    "fn": 6596,
    "f05": 6597,
    "b12": 6598,
    "\u25810x71a1": 6599,
    "\u25810x43501c": 6600,
    "\u25810x43501e": 6601,
    "\u25810x435020": 6602,
    "\u25810x435022": 6603,
    "\u25810x435028": 6604,
    "\u25810x43502a": 6605,
    "\u25810x43502c": 6606,
    "\u25810x43502e": 6607,
    "\u25810x435030": 6608,
    "\u2581mso97": 6609,
    "\u25810x40d9": 6610,
    "\u25810x40e7": 6611,
    "695": 6612,
    "711": 6613,
    "\u25810x9630": 6614,
    "15f": 6615,
    "\u25810x3f29": 6616,
    "\u25810x40c5": 6617,
    "\u25810x41d1e0": 6618,
    "6f1": 6619,
    "e38": 6620,
    "eb4": 6621,
    "\u25810xd4": 6622,
    "\u25810x7500": 6623,
    "\u25810x1211a44": 6624,
    "\u25810x1211eac": 6625,
    "e64": 6626,
    "998": 6627,
    "ill": 6628,
    "\u25810x513d28": 6629,
    "\u2581vf": 6630,
    "sions": 6631,
    "\u2581getdrivetypea": 6632,
    "\u2581cryptreleasecontext": 6633,
    "\u2581setenvironmentvariablew": 6634,
    "777": 6635,
    "796": 6636,
    "\u25810x44c": 6637,
    "inmodule": 6638,
    "\u25810x1210e70": 6639,
    "3e5": 6640,
    "d70": 6641,
    "e70": 6642,
    "006c": 6643,
    "\u2581regenum": 6644,
    "\u25810x44c250": 6645,
    "\u25810xfffffffe": 6646,
    "uti": 6647,
    "\u25810x115": 6648,
    "\u25810x80c488": 6649,
    "486": 6650,
    "\u25810xfeedf0": 6651,
    "911": 6652,
    "f5c": 6653,
    "\u25810x40d5": 6654,
    "00000000": 6655,
    "\u25810x420818": 6656,
    "d14": 6657,
    "\u25810x413b": 6658,
    "\u25810x1211ddc": 6659,
    "imetofiletime": 6660,
    "225": 6661,
    "a34": 6662,
    "a68": 6663,
    "a94": 6664,
    "d26": 6665,
    "f24": 6666,
    "per": 6667,
    "\u2581pa": 6668,
    "\u25810x4220": 6669,
    "2fc": 6670,
    "767": 6671,
    "running": 6672,
    "\u25810x40a5b0": 6673,
    "\u25810x40a5b8": 6674,
    "\u25810xfeee009f": 6675,
    "fcc": 6676,
    "\u25810x4ed": 6677,
    "\u25810x80b": 6678,
    "\u25810x9110": 6679,
    "\u25810x42c020": 6680,
    "\u2581doyouwantto": 6681,
    "\u2581ext": 6682,
    "false": 6683,
    "\u25810x474": 6684,
    "\u25810x40ad": 6685,
    "\u25810x42c024": 6686,
    "\u25810x42c028": 6687,
    "168": 6688,
    "\u25810x423c": 6689,
    "\u25810x40a5b4": 6690,
    "\u2581openanex": 6691,
    "\u25810x1211f14": 6692,
    "6e0": 6693,
    "\u25810x40a5ae": 6694,
    "\u25810x40a5b2": 6695,
    "\u25810x40a5b6": 6696,
    "\u25810x40a5ba": 6697,
    "gn": 6698,
    "db4": 6699,
    "dfe": 6700,
    "\u25810x636": 6701,
    "\u25810x1210e34": 6702,
    "ae2": 6703,
    "true": 6704,
    "thash": 6705,
    "nexist": 6706,
    "allyour": 6707,
    "\u25810x2840": 6708,
    "\u25810x41ac": 6709,
    "\u25810x4356": 6710,
    "\u2581istrue": 6711,
    "\u2581iszero": 6712,
    "\u2581isexist": 6713,
    "\u2581isfalse": 6714,
    "ornonexist": 6715,
    "\u2581iszeroornonexist": 6716,
    "7ad": 6717,
    "e4f": 6718,
    "ea8": 6719,
    "\u25810x4c50": 6720,
    "\u25810x120e688": 6721,
    "978": 6722,
    "9cc": 6723,
    "3008": 6724,
    "\u25810x10e": 6725,
    "\u25810x403": 6726,
    "thashdata": 6727,
    "createhash": 6728,
    "\u25810x1211edc": 6729,
    "gs": 6730,
    "a31": 6731,
    "f69": 6732,
    "\u25810x40a7": 6733,
    "\u25810x41af40": 6734,
    "frominternet": 6735,
    "\u25810x40af": 6736,
    "codep": 6737,
    "codeptr": 6738,
    "\u25810x4111d0": 6739,
    "\u25810x41ae00": 6740,
    "\u2581isbadcodeptr": 6741,
    "\u2581getthreadtimes": 6742,
    "\u2581openprocesstoken": 6743,
    "eta": 6744,
    "\u25810xde": 6745,
    "\u25810x5627": 6746,
    "\u25810x80ba": 6747,
    "\u25810xffdc": 6748,
    "\u25810x181c88": 6749,
    "\u25810x40a020": 6750,
    "\u25810x41ad50": 6751,
    "\u25810x42b070": 6752,
    "\u25810x42eaa6": 6753,
    "\u25810x42eaba": 6754,
    "\u25810x42eac4": 6755,
    "16c": 6756,
    "\u25810x181c60": 6757,
    "\u25810x409c2c": 6758,
    "\u25810x439458": 6759,
    "\u25810x4b8": 6760,
    "\u2581crypthashdata": 6761,
    "\u2581cryptcreatehash": 6762,
    "\u2581shgetspecialfolder": 6763,
    "145": 6764,
    "ongle": 6765,
    "\u2581elvis": 6766,
    "\u25810x406c": 6767,
    "ecadwork": 6768,
    "\u25810x1211c94": 6769,
    "\u25810x76500000": 6770,
    "\u2581mfn": 6771,
    "\u25810x4370": 6772,
    "\u25810x6f00": 6773,
    "\u25810xffea": 6774,
    "\u2581gender": 6775,
    "familiar": 6776,
    "\u2581formality": 6777,
    "\u2581formalfamiliar": 6778,
    "186": 6779,
    "\u25810x4f5320": 6780,
    "912": 6781,
    "ual": 6782,
    "tem32": 6783,
    "dialog": 6784,
    "\u25810x12115bc": 6785,
    "\u25810x12119d0": 6786,
    "\u2581cryptdestroyhash": 6787,
    "\u25810x51a0": 6788,
    "2a8": 6789,
    "\u25810x7f80": 6790,
    "\u25810x2840284": 6791,
    "\u2581registerclipboardformata": 6792,
    "efc": 6793,
    "e0000": 6794,
    "\u25810x9ab0": 6795,
    "\u25810x1211e4c": 6796,
    "\u25810x1211f94": 6797,
    "\u25810x415c": 6798,
    "hashparam": 6799,
    "\u25810x4f60": 6800,
    "\u25810x12115d0": 6801,
    "a65": 6802,
    "ower": 6803,
    "\u25810x431a": 6804,
    "menuitem": 6805,
    "\u25810x4912d0": 6806,
    "ba9": 6807,
    "0060": 6808,
    "\u25810x7b7": 6809,
    "a56": 6810,
    "f54": 6811,
    "\u25810x40a4": 6812,
    "\u2581cryptgethashparam": 6813,
    "645": 6814,
    "e20": 6815,
    "\u258103t": 6816,
    "visible": 6817,
    "\u25810x40f5": 6818,
    "681": 6819,
    "ocus": 6820,
    "\u25810xdb": 6821,
    "\u25810xec": 6822,
    "\u25810x3810": 6823,
    "2f0": 6824,
    "7de": 6825,
    "9b6": 6826,
    "\u25810x2280": 6827,
    "\u2581please": 6828,
    "etofiletime": 6829,
    "\u2581systemtimetofiletime": 6830,
    "9d1": 6831,
    "\u25810xe6": 6832,
    "\u25810x42a4": 6833,
    "\u25810x6d006c": 6834,
    "24c": 6835,
    "\u25810x1211e88": 6836,
    "\u25810x169b7f4": 6837,
    "\u2581cryptacquirecontexta": 6838,
    "d99": 6839,
    "\u25810xe4": 6840,
    "\u25810x6b00": 6841,
    "\u25810x455480": 6842,
    "\u2581dialogbox": 6843,
    "558": 6844,
    "\u25810x4a8": 6845,
    "\u25810x6f006e": 6846,
    "\u25810x710070": 6847,
    "\u25810x770076": 6848,
    "\u25810x790078": 6849,
    "aac": 6850,
    "ted": 6851,
    "\u25810x40d": 6852,
    "\u25810x9050": 6853,
    "\u25810x690068": 6854,
    "\u25810x6b006a": 6855,
    "\u25810x714d98": 6856,
    "\u25810x730072": 6857,
    "\u25810x750074": 6858,
    "\u25810x7b007a": 6859,
    "\u25810x7d007c": 6860,
    "\u25810x7f007e": 6861,
    "\u25810x169bca4": 6862,
    "5a8": 6863,
    "dc9": 6864,
    "\u2581ro": 6865,
    "\u25810xbcf2": 6866,
    "filespec": 6867,
    "\u2581getfull": 6868,
    "274": 6869,
    "focus": 6870,
    "\u25810x455468": 6871,
    "\u2581removefilespec": 6872,
    "9c9": 6873,
    "ea1": 6874,
    "\u25810x4bc298": 6875,
    "\u25810x1211ec4": 6876,
    "\u2581line": 6877,
    "\u2581strcpy": 6878,
    "\u25810x3f75f7c": 6879,
    "111": 6880,
    "710": 6881,
    "da4": 6882,
    "\u25810x6f6": 6883,
    "\u25810x420fe8": 6884,
    "\u25810xa050": 6885,
    "\u25810xa9d0": 6886,
    "b29": 6887,
    "7540": 6888,
    "7c58": 6889,
    "\u25810x4195": 6890,
    "\u25810x9028": 6891,
    "lientrect": 6892,
    "\u25810xfeee00a1": 6893,
    "\u2581getclientrect": 6894,
    "ab4": 6895,
    "\u25810x41a9f0": 6896,
    "\u25810x4f6230": 6897,
    "\u2581removefilespecw": 6898,
    "dd5": 6899,
    "f06": 6900,
    "fox": 6901,
    "20000": 6902,
    "319": 6903,
    "3f2": 6904,
    "77c": 6905,
    "icen": 6906,
    "\u2581this": 6907,
    "f64": 6908,
    "\u25810x4332": 6909,
    "\u25810x2357b": 6910,
    "\u25810x3010301": 6911,
    "windowshook": 6912,
    "\u25810xfeee00a2": 6913,
    "f14": 6914,
    "fa1": 6915,
    "\u2581for": 6916,
    "su": 6917,
    "2d4": 6918,
    "3fc": 6919,
    "540": 6920,
    "coll": 6921,
    "\u25810x40b9": 6922,
    "\u25810x4212": 6923,
    "\u25810x4529": 6924,
    "\u25810x47d0": 6925,
    "\u25810x169be": 6926,
    "\u2581getexit": 6927,
    "\u2581application": 6928,
    "\u2581shgetfileinfow": 6929,
    "750": 6930,
    "b24": 6931,
    "e98": 6932,
    "2cc": 6933,
    "\u25810x46b388": 6934,
    "\u25810xe2": 6935,
    "\u25810x1210d90": 6936,
    "\u25810x77000723": 6937,
    "775": 6938,
    "f3a": 6939,
    "\u25810x154": 6940,
    "\u25810x3f75f84": 6941,
    "bb9": 6942,
    "6564": 6943,
    "fore": 6944,
    "fileex": 6945,
    "\u25810x3f75f8c": 6946,
    "f77": 6947,
    "\u25810x6c000": 6948,
    "installed": 6949,
    "dat": 6950,
    "a526": 6951,
    "prog": 6952,
    "\u25810x447": 6953,
    "this": 6954,
    "\u25810x4491": 6955,
    "7c6": 6956,
    "\u2581mb": 6957,
    "ec3": 6958,
    "\u2581getdl": 6959,
    "\u25810x120ee": 6960,
    "\u25810x169b834": 6961,
    "\u2581shgetspecialfoldera": 6962,
    "1b0": 6963,
    "db9": 6964,
    "row": 6965,
    "f4e4": 6966,
    "\u2581appdata": 6967,
    "\u25810x1211788": 6968,
    "\u25810xfeee00a3": 6969,
    "dee": 6970,
    "\u25810x504": 6971,
    "\u25810x40a92e": 6972,
    "\u25810x40a930": 6973,
    "\u25810x40a932": 6974,
    "\u25810x40a934": 6975,
    "\u25810x40a936": 6976,
    "\u25810x40a938": 6977,
    "\u25810x40a93a": 6978,
    "\u25810x40b888": 6979,
    "lu": 6980,
    "a9b": 6981,
    "bf6": 6982,
    "\u2581mei": 6983,
    "pass2": 6984,
    "\u25810x4229c1": 6985,
    "\u2581meipass2": 6986,
    "395": 6987,
    "781": 6988,
    "767574": 6989,
    "\u25810x4420": 6990,
    "\u25810x417c10": 6991,
    "\u25810x77767574": 6992,
    "\u25810xfeee00a4": 6993,
    "\u25810xfeee00a5": 6994,
    "df1": 6995,
    "e06": 6996,
    "session": 6997,
    "\u2581memmove": 6998,
    "5bc": 6999,
    "d35": 7000,
    "a7978": 7001,
    "\u25810xf1": 7002,
    "\u25810x410acd": 7003,
    "\u25810x410ace": 7004,
    "\u25810x41e208": 7005,
    "\u25810x7b7a7978": 7006,
    "161": 7007,
    "\u25810x40e": 7008,
    "\u25810x46a1": 7009,
    "d81": 7010,
    "226": 7011,
    "a9a": 7012,
    "\u25810x7fc": 7013,
    "\u25810x4154": 7014,
    "\u25810x417be0": 7015,
    "760": 7016,
    "b16": 7017,
    "beb": 7018,
    "progid": 7019,
    "\u25810x6ce": 7020,
    "\u25810x9850": 7021,
    "\u25810x4315f8": 7022,
    "\u25810x452868": 7023,
    "\u25810xfeee00a6": 7024,
    "\u2581clsidfromprogid": 7025,
    "\u25810xf4": 7026,
    "\u2581clsidfromstring": 7027,
    "26160": 7028,
    "\u25810xda": 7029,
    "\u25810x6b4": 7030,
    "\u25810x4bcc": 7031,
    "\u25810x41b9f0": 7032,
    "\u25810x429260": 7033,
    "964": 7034,
    "b26": 7035,
    "\u25810x1211d2c": 7036,
    "sd": 7037,
    "28c": 7038,
    "666": 7039,
    "\u25810x4219": 7040,
    "\u25810xb4ec": 7041,
    "e60": 7042,
    "f96": 7043,
    "\u25810x40ea": 7044,
    "\u25810x7372": 7045,
    "234": 7046,
    "2de": 7047,
    "f86": 7048,
    "tiv": 7049,
    "erun": 7050,
    "\u25810x4bc328": 7051,
    "\u25810x4bc358": 7052,
    "\u25810x63626160": 7053,
    "\u25810x73727170": 7054,
    "5f0": 7055,
    "\u258130": 7056,
    "20224": 7057,
    "\u25810x5188": 7058,
    "\u25810x6766": 7059,
    "\u25810xa030": 7060,
    "be4": 7061,
    "\u2581cal": 7062,
    "\u25810x28c39": 7063,
    "\u25810x1733c4": 7064,
    "\u2581fileexistsa": 7065,
    "ee9": 7066,
    "570656": 7067,
    "64656c": 7068,
    "\u25813a526": 7069,
    "1740d0a": 7070,
    "\u25810x4603": 7071,
    "\u25810xa950": 7072,
    "2022433a": 7073,
    "\u25810x67666564": 7074,
    "\u25813a526570656": 7075,
    "1740d0a64656c": 7076,
    "1740d0a64656c2022433a": 7077,
    "\u25813a5265706561740d0a64656c2022433a": 7078,
    "3f3": 7079,
    "dad": 7080,
    "0064": 7081,
    "\u25810x120f7": 7082,
    "250": 7083,
    "b6c": 7084,
    "a6968": 7085,
    "\u25810x4014": 7086,
    "356": 7087,
    "b54": 7088,
    "\u25810x4548": 7089,
    "\u25810x6700": 7090,
    "\u2581olerun": 7091,
    "vieworgex": 7092,
    "\u25810x1210bd7": 7093,
    "\u25810x12116c0": 7094,
    "\u25810x6b6a6968": 7095,
    "376": 7096,
    "bca": 7097,
    "ce9": 7098,
    "\u2581afx": 7099,
    "\u25810x350": 7100,
    "\u2581getwindowdc": 7101,
    "804": 7102,
    "afe": 7103,
    "ache": 7104,
    "\u25810x40c7": 7105,
    "\u25810x120fe": 7106,
    "f75": 7107,
    "\u25810x59c": 7108,
    "\u25810x677": 7109,
    "\u25810xa980": 7110,
    "b71": 7111,
    "e6d6c": 7112,
    "\u25810x423baf": 7113,
    "\u25810x423bb0": 7114,
    "\u25810x429920": 7115,
    "\u25810x1211e90": 7116,
    "\u25810x7f3": 7117,
    "\u25810xd27d5": 7118,
    "\u25810x433630": 7119,
    "\u25810x6f6e6d6c": 7120,
    "\u25810xfeee00a7": 7121,
    "e1c": 7122,
    "b008": 7123,
    "7e7d7c": 7124,
    "\u25810x7f7e7d7c": 7125,
    "\u25810xfeee00a8": 7126,
    "295": 7127,
    "3f4": 7128,
    "d61": 7129,
    "fa5": 7130,
    "e100": 7131,
    "\u25810x53d": 7132,
    "\u25810x584": 7133,
    "addatom": 7134,
    "\u25810x44f850": 7135,
    "\u2581charprevw": 7136,
    "\u2581globaladdatom": 7137,
    "\u25810x6300": 7138,
    "\u25810x40a540": 7139,
    "2d9": 7140,
    "550": 7141,
    "ups": 7142,
    "9f8": 7143,
    "d91": 7144,
    "\u25810x42168c": 7145,
    "\u25810x44f868": 7146,
    "\u25810x1211e64": 7147,
    "\u25810xfeee00a9": 7148,
    "\u2581formatmessagew": 7149,
    "\u25810x1e0": 7150,
    "\u25810xa290": 7151,
    "\u25810xffeb": 7152,
    "\u2581cannot": 7153,
    "\u25810x42168b": 7154,
    "\u25810x430fec": 7155,
    "\u25810x44f8c8": 7156,
    "\u25810xfeee00bc": 7157,
    "406": 7158,
    "b64": 7159,
    "d94": 7160,
    "\u25810x44f880": 7161,
    "\u25810x44f898": 7162,
    "\u25810x44f8b0": 7163,
    "\u25810xfeee017": 7164,
    "ba1": 7165,
    "d01": 7166,
    "f47": 7167,
    "\u25810xed": 7168,
    "\u25810x40a544": 7169,
    "\u25810x430db0": 7170,
    "\u25810x44f8f8": 7171,
    "\u25810x44f940": 7172,
    "\u25810x44f958": 7173,
    "\u25810x44f970": 7174,
    "\u25810x44f988": 7175,
    "\u25810x1211e00": 7176,
    "3c6": 7177,
    "d17": 7178,
    "fe4": 7179,
    "ort": 7180,
    "\u25810x40a53a": 7181,
    "\u25810x40a53c": 7182,
    "\u25810x40a53e": 7183,
    "\u25810x40a542": 7184,
    "\u25810x1211180": 7185,
    "\u25810xfeee00aa": 7186,
    "\u25810xfeee00ae": 7187,
    "2c1": 7188,
    "b66": 7189,
    "e78": 7190,
    "\u2581xz": 7191,
    "\u25810x4222": 7192,
    "\u25810x40a546": 7193,
    "\u25810x41e93e": 7194,
    "\u25810x41ebfa": 7195,
    "\u25810x41ebfb": 7196,
    "\u25810xfeee00ac": 7197,
    "146": 7198,
    "ab5": 7199,
    "\u25810x5ab": 7200,
    "\u25810x4034": 7201,
    "\u25810xfeee00ab": 7202,
    "3da": 7203,
    "b76": 7204,
    "ptr": 7205,
    "\u2581winapp": 7206,
    "\u25810xfeee00ad": 7207,
    "\u25810x47b1": 7208,
    "\u25810x7e50": 7209,
    "\u25810x423d78": 7210,
    "\u25810x423e38": 7211,
    "9da": 7212,
    "b45": 7213,
    "eatom": 7214,
    "\u25810x9980": 7215,
    "\u25810x169bd": 7216,
    "\u25810x630062": 7217,
    "\u25810x650064": 7218,
    "\u25810x670066": 7219,
    "\u2581om": 7220,
    "52e8": 7221,
    "\u25810x5619": 7222,
    "\u25810x610060": 7223,
    "\u25810x7ee000": 7224,
    "232": 7225,
    "a86": 7226,
    "aab": 7227,
    "\u25810x41ff": 7228,
    "\u25810x422964": 7229,
    "\u25810x7f8002": 7230,
    "ba6": 7231,
    "14c8": 7232,
    "\u25810x4093e4": 7233,
    "\u25810x44e4b8": 7234,
    "618": 7235,
    "da5": 7236,
    "\u25810x6781c0": 7237,
    "\u25810x6781f0": 7238,
    "6c5": 7239,
    "ea20": 7240,
    "\u25810x7f6": 7241,
    "\u25810x7f8010": 7242,
    "\u25810x11dbed4": 7243,
    "\u25810x11dbef0": 7244,
    "\u25810x11dbf48": 7245,
    "3cf8": 7246,
    "\u25810x238": 7247,
    "\u25810x7c000": 7248,
    "245": 7249,
    "dio": 7250,
    "\u258150": 7251,
    "60000": 7252,
    "\u25810x537": 7253,
    "\u25810x40f660": 7254,
    "\u25810x4228e1": 7255,
    "\u25810x431068": 7256,
    "635": 7257,
    "ebc": 7258,
    "\u25810xc2": 7259,
    "\u25810x6a7": 7260,
    "\u25810x4189e8": 7261,
    "1b5": 7262,
    "2ad": 7263,
    "844": 7264,
    "df9": 7265,
    "\u25810xd5": 7266,
    "\u25810x4177b0": 7267,
    "\u25810x422980": 7268,
    "201": 7269,
    "70f": 7270,
    "\u2581fastf": 7271,
    "\u25810x9640": 7272,
    "\u25810xddf1": 7273,
    "\u25810x41300b": 7274,
    "secor": 7275,
    "\u25810x4033": 7276,
    "\u25810x40df": 7277,
    "\u25810x8ee0": 7278,
    "\u2581omsecor": 7279,
    "\u25810x418a18": 7280,
    "\u25810x423cf0": 7281,
    "7ee": 7282,
    "9ac": 7283,
    "be9": 7284,
    "\u25810x42286e": 7285,
    "\u25810x42286f": 7286,
    "\u25810x4228e2": 7287,
    "\u25810x422963": 7288,
    "\u25810x42297f": 7289,
    "\u25810x4229c2": 7290,
    "\u25810x4229fa": 7291,
    "\u25810x4229fb": 7292,
    "\u25810x422a0d": 7293,
    "\u25810x422a0e": 7294,
    "\u25810x42329e": 7295,
    "\u25810x42329f": 7296,
    "\u25810x4233fc": 7297,
    "\u25810x423cef": 7298,
    "\u25810xfeee00af": 7299,
    "\u2581ts": 7300,
    "0050": 7301,
    "ee98": 7302,
    "\u2581zip": 7303,
    "ualfox": 7304,
    "\u25810x57c": 7305,
    "controlset": 7306,
    "\u2581currentcontrolset": 7307,
    "7d6": 7308,
    "edu": 7309,
    "marta": 7310,
    "\u2581ntmarta": 7311,
    "\u25810x1211684": 7312,
    "\u2581movefilew": 7313,
    "\u2581outputdebugstringw": 7314,
    "325": 7315,
    "ated": 7316,
    "\u2581437": 7317,
    "\u25810x1010": 7318,
    "\u25810xae20": 7319,
    "\u25810x419970": 7320,
    "\u2581fastfail": 7321,
    "\u25810xfeee00b0": 7322,
    "\u25810xfeee00b1": 7323,
    "\u2581localfilet": 7324,
    "\u2581localfiletimetofiletime": 7325,
    "older": 7326,
    "contin": 7327,
    "\u25810x4210": 7328,
    "\u25810x4444": 7329,
    "\u25810x9cf0": 7330,
    "\u25810x434388": 7331,
    "\u2581ie": 7332,
    "egis": 7333,
    "\u25810x1810": 7334,
    "\u25810x426d": 7335,
    "\u25810x7e51": 7336,
    "\u2581calloc": 7337,
    "\u25810x429903": 7338,
    "\u25810x435228": 7339,
    "\u25810x435240": 7340,
    "\u25810x4378b0": 7341,
    "1ac": 7342,
    "ith": 7343,
    "\u25810x429902": 7344,
    "\u25810x42990c": 7345,
    "\u25810x42990d": 7346,
    "\u25810x429921": 7347,
    "systemtime": 7348,
    "\u2581setcurrentdirectoryw": 7349,
    "670": 7350,
    "\u2581oem": 7351,
    "already": 7352,
    "\u25810x42992a": 7353,
    "\u25810x42992b": 7354,
    "1d5": 7355,
    "really": 7356,
    "vebeen": 7357,
    "\u2581pleasec": 7358,
    "\u25810x431e28": 7359,
    "\u25810x1211d50": 7360,
    "\u2581openanexplorer": 7361,
    "\u2581getsystemwindows": 7362,
    "630": 7363,
    "7e9": 7364,
    "\u2581stem32": 7365,
    "\u25810x423dc8": 7366,
    "\u25810x1211d3c": 7367,
    "7f7": 7368,
    "\u25810x112": 7369,
    "\u25810x2b2": 7370,
    "\u2581stdio": 7371,
    "\u25810x44e9": 7372,
    "\u2581loadbitmap": 7373,
    "\u2581getsystemwindowsdirectoryw": 7374,
    "fig": 7375,
    "3e3d": 7376,
    "774": 7377,
    "c0b": 7378,
    "topwindow": 7379,
    "\u25810xfeee00b3": 7380,
    "af1": 7381,
    "e34": 7382,
    "\u25810x2d4dd": 7383,
    "deleteatom": 7384,
    "\u25810xfeee00b2": 7385,
    "\u25810xfeee00b4": 7386,
    "\u2581globaldeleteatom": 7387,
    "3e1": 7388,
    "3ea": 7389,
    "aa5": 7390,
    "cod": 7391,
    "\u2581lmi": 7392,
    "\u25810x8028": 7393,
    "\u25810x92e0": 7394,
    "\u2581dispatchmessagew": 7395,
    "\u2581vie": 7396,
    "\u25810x427": 7397,
    "\u25810x4060": 7398,
    "\u25810x40f1": 7399,
    "\u25810x4364": 7400,
    "\u25810x8e70": 7401,
    "addresses": 7402,
    "\u25810x431a50": 7403,
    "2e2": 7404,
    "919": 7405,
    "a26": 7406,
    "a96": 7407,
    "\u25810x40b5": 7408,
    "\u25810xfeee00b5": 7409,
    "\u2581registerclipboardformatw": 7410,
    "c45": 7411,
    "d54": 7412,
    "\u2581unlock": 7413,
    "\u2581getadaptersaddresses": 7414,
    "bv": 7415,
    "c85": 7416,
    "d06": 7417,
    "eb5": 7418,
    "\u2581exp": 7419,
    "\u2581evie": 7420,
    "\u25810x108": 7421,
    "\u25810x464": 7422,
    "\u25810x572": 7423,
    "\u25810x41ab": 7424,
    "\u25810x4238a8": 7425,
    "\u25810x4238d8": 7426,
    "\u25810x1210e6f": 7427,
    "\u25810x1210e73": 7428,
    "\u25810x1210e74": 7429,
    "\u25810x1210e77": 7430,
    "\u25810x1210e7b": 7431,
    "sand": 7432,
    "\u2581psc": 7433,
    "\u25810x41c6": 7434,
    "\u2581youmust": 7435,
    "\u25810x1210f66": 7436,
    "\u25810x1210f6a": 7437,
    "\u2581isbadwrite": 7438,
    "\u25817z6": 7439,
    "138": 7440,
    "365": 7441,
    "3130": 7442,
    "\u2581mail": 7443,
    "\u25810x40b1": 7444,
    "\u25810x4770": 7445,
    "\u25810x7dfc": 7446,
    "\u25810x486d18": 7447,
    "\u25810x6ba3c8": 7448,
    "\u2581findwindoww": 7449,
    "\u2581cli": 7450,
    "\u2581isbadwriteptr": 7451,
    "170": 7452,
    "25c": 7453,
    "a37": 7454,
    "ede": 7455,
    "\u25810x567a": 7456,
    "\u2581winmain": 7457,
    "\u25810x169bc9c": 7458,
    "\u25810xfeee00b7": 7459,
    "d15": 7460,
    "\u25810x7dfd": 7461,
    "\u25810xfeee00b8": 7462,
    "69d": 7463,
    "764": 7464,
    "\u25810x1211fe4": 7465,
    "ce5": 7466,
    "ookup": 7467,
    "apture": 7468,
    "\u25810x515": 7469,
    "\u25810x4180": 7470,
    "\u25810x42c5a0": 7471,
    "\u25810x42c5b8": 7472,
    "\u25810x439440": 7473,
    "\u25810xffc0": 7474,
    "\u25810x413972": 7475,
    "\u25810xfeee00b6": 7476,
    "\u25810xfeee00b9": 7477,
    "7b7": 7478,
    "\u25810xffd5": 7479,
    "viewextex": 7480,
    "\u25810x42abc0": 7481,
    "\u2581getsystemdefault": 7482,
    "746": 7483,
    "75a": 7484,
    "\u2581lookup": 7485,
    "\u25810x1211d00": 7486,
    "371": 7487,
    "b1c": 7488,
    "\u25810x40a3e": 7489,
    "\u25810x1211e98": 7490,
    "\u25810xfeee00bb": 7491,
    "\u2581getprivateprofilestringa": 7492,
    "a14": 7493,
    "1dd": 7494,
    "743": 7495,
    "a05": 7496,
    "ba7": 7497,
    "\u2581884": 7498,
    "trace": 7499,
    "\u25810x42c570": 7500,
    "407": 7501,
    "b05": 7502,
    "ron": 7503,
    "\u2581tsl": 7504,
    "aramet": 7505,
    "\u25810x40935c": 7506,
    "\u25810x4093ec": 7507,
    "\u25810x411218": 7508,
    "\u25810xfeee00ba": 7509,
    "1c8": 7510,
    "2b7": 7511,
    "955": 7512,
    "ef9": 7513,
    "\u2581msvcr71": 7514,
    "kg": 7515,
    "134": 7516,
    "754": 7517,
    "a7c": 7518,
    "ae1": 7519,
    "f76": 7520,
    "\u25810x824": 7521,
    "\u25810x42db": 7522,
    "\u25810x7e01": 7523,
    "b42": 7524,
    "\u2581std": 7525,
    "\u25810x5b2": 7526,
    "\u25810x423d18": 7527,
    "\u2581createsemaphorea": 7528,
    "\u2581session": 7529,
    "\u25810xfeee00bd": 7530,
    "uld": 7531,
    "\u25810x5040": 7532,
    "\u25810xfeee00be": 7533,
    "6c4": 7534,
    "7d2": 7535,
    "7d4": 7536,
    "\u25810x4966": 7537,
    "\u25810x8a44": 7538,
    "\u25810x4208a8": 7539,
    "\u25810x4208d8": 7540,
    "\u25810x131aac0": 7541,
    "f99": 7542,
    "solet": 7543,
    "\u25810x7e04": 7544,
    "\u25810x3f22a0": 7545,
    "\u25810xfeee00bf": 7546,
    "2bc": 7547,
    "2e4": 7548,
    "\u25810x444": 7549,
    "\u25810x4235": 7550,
    "\u25810x8ec0": 7551,
    "\u25810x1210f64": 7552,
    "2d5": 7553,
    "f32": 7554,
    "drl66": 7555,
    "\u25810x4066": 7556,
    "\u2581tsldrl66": 7557,
    "\u25810x604": 7558,
    "\u25810x40c4": 7559,
    "\u25810xff87": 7560,
    "e75": 7561,
    "f55": 7562,
    "\u25810x1814": 7563,
    "\u25810xfeee00c0": 7564,
    "\u25810xfeee00c1": 7565,
    "\u2581globalrealloc": 7566,
    "641": 7567,
    "f1c": 7568,
    "\u25810x42e658": 7569,
    "\u25810xfeee00d7": 7570,
    "ethe": 7571,
    "\u258120220304": 7572,
    "\u2581filetimetosystemtime": 7573,
    "a76": 7574,
    "\u25810x1fa": 7575,
    "\u25810x4780": 7576,
    "\u25810x7e05": 7577,
    "\u25810x42e520": 7578,
    "\u25810xfeee00c2": 7579,
    "2e1": 7580,
    "756": 7581,
    "cc6": 7582,
    "fe5": 7583,
    "option": 7584,
    "\u25810x45d1": 7585,
    "\u25810x80c3": 7586,
    "\u25810x42e0a8": 7587,
    "\u25810xfeee00c3": 7588,
    "\u2581myarg1myarg2": 7589,
    "now": 7590,
    "36d8": 7591,
    "\u25810x232": 7592,
    "indatom": 7593,
    "\u25810x4e39": 7594,
    "\u25810x9b50": 7595,
    "\u25810x412e39": 7596,
    "\u25810x413f64": 7597,
    "\u25810x413f65": 7598,
    "\u25810x42c990": 7599,
    "\u25810x42ca48": 7600,
    "\u25810x42e538": 7601,
    "\u25810x42e550": 7602,
    "\u25810x42e568": 7603,
    "\u25810x42e580": 7604,
    "\u25810x42e610": 7605,
    "\u25810x42e628": 7606,
    "\u25810x42e640": 7607,
    "\u2581globalfindatom": 7608,
    "212": 7609,
    "\u25810xfeee00c4": 7610,
    "\u2581date": 7611,
    "paramw": 7612,
    "\u25810x80c440": 7613,
    "712": 7614,
    "b91": 7615,
    "d9c": 7616,
    "\u25810x2d4d": 7617,
    "\u25810x4012db": 7618,
    "\u25810x42cd78": 7619,
    "\u25810x42ce38": 7620,
    "219": 7621,
    "a25": 7622,
    "hara": 7623,
    "\u2581arg": 7624,
    "\u25810x42b7": 7625,
    "\u25810x7a40": 7626,
    "\u25810x8e60": 7627,
    "\u2581oemtoc": 7628,
    "a55": 7629,
    "ab6": 7630,
    "\u25810x698": 7631,
    "formatw": 7632,
    "\u25810x8f30": 7633,
    "\u25810xa040": 7634,
    "\u2581164630": 7635,
    "\u25810x482854": 7636,
    "\u25810x482870": 7637,
    "\u25810x1010101": 7638,
    "aa1": 7639,
    "\u25810xe7": 7640,
    "\u25810x7e10": 7641,
    "3c5": 7642,
    "3e2": 7643,
    "546": 7644,
    "785": 7645,
    "b79": 7646,
    "f79": 7647,
    "qstring": 7648,
    "\u25810xffee": 7649,
    "\u25810x42e090": 7650,
    "\u25810xfeee00c6": 7651,
    "164": 7652,
    "589": 7653,
    "\u25810x42e0d8": 7654,
    "\u25810xfeee00c7": 7655,
    "\u25810x411c": 7656,
    "\u25810x4151": 7657,
    "\u25810xfeee00c5": 7658,
    "ea4": 7659,
    "remo": 7660,
    "\u25810x970": 7661,
    "\u25810x9870": 7662,
    "\u25810x420c30": 7663,
    "\u25810x1211e8c": 7664,
    "2f2": 7665,
    "f94": 7666,
    "fee": 7667,
    "\u25810x532": 7668,
    "\u25810x41f6": 7669,
    "\u25810x420c00": 7670,
    "\u25810x42e0c0": 7671,
    "2f5": 7672,
    "\u25810x1824": 7673,
    "\u25810x9070": 7674,
    "\u2581module": 7675,
    "\u25810x10005c": 7676,
    "\u25810x413dd6": 7677,
    "\u25810x413dd7": 7678,
    "\u25810x4170f5": 7679,
    "\u25810x4170f6": 7680,
    "\u25810x4179b4": 7681,
    "\u25810x4179b5": 7682,
    "\u25810x4179c5": 7683,
    "\u25810x4179c6": 7684,
    "\u25810x417a43": 7685,
    "\u25810x417a44": 7686,
    "\u25810x417a5b": 7687,
    "\u25810x417a5c": 7688,
    "\u25810x417a9b": 7689,
    "\u25810x417a9c": 7690,
    "\u25810x417aac": 7691,
    "\u25810x417aad": 7692,
    "\u25810x417b1e": 7693,
    "\u25810x417b1f": 7694,
    "\u25810x420c2f": 7695,
    "\u25810x2825ef8": 7696,
    "\u25810xfeee00c8": 7697,
    "a12": 7698,
    "3004": 7699,
    "\u2581scal": 7700,
    "\u25810x10b": 7701,
    "\u25810x1b1": 7702,
    "\u25810x420bf0": 7703,
    "\u25810x420bf1": 7704,
    "\u25810x420c01": 7705,
    "\u25810x420c10": 7706,
    "\u25810x420c11": 7707,
    "\u25810x420c1b": 7708,
    "\u25810x420c1c": 7709,
    "\u25810x420c25": 7710,
    "\u25810x420c26": 7711,
    "\u25810x420c39": 7712,
    "\u25810x420c3a": 7713,
    "\u25810x420c43": 7714,
    "\u25810x420c44": 7715,
    "\u25810x420c50": 7716,
    "\u25810x420c51": 7717,
    "\u25810x42f194": 7718,
    "\u25810xfeee00ca": 7719,
    "\u25810x510": 7720,
    "\u2581scale": 7721,
    "\u25810x40e4": 7722,
    "\u25810x4522": 7723,
    "\u25810xb4eb": 7724,
    "\u25810xd27d571f": 7725,
    "af6": 7726,
    "df6": 7727,
    "a4c4": 7728,
    "aler": 7729,
    "vert": 7730,
    "\u2581cqa": 7731,
    "\u2581scqa": 7732,
    "\u2581pscqa": 7733,
    "\u2581virtu": 7734,
    "\u25810xffda": 7735,
    "\u25810x3b7fb": 7736,
    "\u25810x12119a0": 7737,
    "\u25810xfeee00c9": 7738,
    "\u25810xfeee00cb": 7739,
    "\u2581virtuallock": 7740,
    "3f5": 7741,
    "3a08": 7742,
    "\u25810x459": 7743,
    "\u2581regqueryvalueexa": 7744,
    "355": 7745,
    "\u25810xd6": 7746,
    "\u25810x7e08": 7747,
    "ssoftware": 7748,
    "\u25810x100fdd": 7749,
    "7ac": 7750,
    "e54": 7751,
    "\u25810x1818": 7752,
    "\u25810x90c0": 7753,
    "9e4": 7754,
    "\u25810x80b9": 7755,
    "\u25810x1211fb0": 7756,
    "\u2581writeprocessmemory": 7757,
    "b15": 7758,
    "ddc": 7759,
    "\u2581class": 7760,
    "\u25810x418c": 7761,
    "\u25810x120ce": 7762,
    "\u25810x42e388": 7763,
    "\u25810x431810": 7764,
    "\u2581comparestringa": 7765,
    "\u2581files": 7766,
    "\u2581oemtochara": 7767,
    "db6": 7768,
    "a00000": 7769,
    "\u25810x8640": 7770,
    "ange": 7771,
    "\u2581lmir": 7772,
    "\u25810x6e6": 7773,
    "\u25810x442806": 7774,
    "\u2581enddialog": 7775,
    "2ed": 7776,
    "3aa": 7777,
    "fde": 7778,
    "hell": 7779,
    "\u25810x573c": 7780,
    "\u25810x409364": 7781,
    "\u25810x454bb8": 7782,
    "99b9": 7783,
    "e794": 7784,
    "\u25810x7a4": 7785,
    "\u25810x442808": 7786,
    "6d4": 7787,
    "713": 7788,
    "772": 7789,
    "bb7": 7790,
    "fb5": 7791,
    "\u25810x40ca": 7792,
    "\u25810x7e09": 7793,
    "\u25810x44280a": 7794,
    "\u25810x44280c": 7795,
    "\u25810x44280e": 7796,
    "\u25810x442810": 7797,
    "\u25810x442812": 7798,
    "\u25810x442814": 7799,
    "\u25810x442816": 7800,
    "\u25810x442818": 7801,
    "\u25810x44281a": 7802,
    "\u25810x44281c": 7803,
    "\u25810x44281e": 7804,
    "\u2581dllonexit": 7805,
    "\u25810xfeee00cc": 7806,
    "e18": 7807,
    "\u2581ur": 7808,
    "69c0": 7809,
    "\u25810x1828": 7810,
    "\u25810xfeee00cd": 7811,
    "bb5": 7812,
    "c89": 7813,
    "\u2581dl": 7814,
    "\u2581tol": 7815,
    "\u2581task": 7816,
    "\u25810x8a45": 7817,
    "\u2581164632": 7818,
    "\u2581wtsapi32": 7819,
    "6c0": 7820,
    "scroll": 7821,
    "\u25810x44e": 7822,
    "\u2581tolower": 7823,
    "\u2581module32": 7824,
    "\u25810xfeee00ce": 7825,
    "266": 7826,
    "dd3": 7827,
    "34b8": 7828,
    "3534": 7829,
    "popup": 7830,
    "\u25810x4720": 7831,
    "\u25810xfeee00cf": 7832,
    "a29": 7833,
    "\u25810x422a": 7834,
    "\u25810x412565": 7835,
    "500": 7836,
    "7f9": 7837,
    "bde": 7838,
    "ceb": 7839,
    "l6660d": 7840,
    "\u25810x1848": 7841,
    "\u25810x184c": 7842,
    "\u25810x4156": 7843,
    "\u25810x88c0": 7844,
    "\u25810x412566": 7845,
    "drl6660drl6660drl6660drl6660drl6660": 7846,
    "ae4": 7847,
    "\u25810xffdb": 7848,
    "\u25810x40938": 7849,
    "\u2581userprofil": 7850,
    "1f0": 7851,
    "\u2581meta": 7852,
    "\u25810x51b": 7853,
    "\u25810x1820": 7854,
    "\u25810x4640": 7855,
    "\u25810x28fd0": 7856,
    "\u2581riched20": 7857,
    "db7": 7858,
    "ec5": 7859,
    "\u25810x6e7": 7860,
    "\u25810x8e40": 7861,
    "\u25810x42dfe8": 7862,
    "20e": 7863,
    "\u25810x1834": 7864,
    "\u25810x5258": 7865,
    "\u25810x4528b0": 7866,
    "\u25810x483cf8": 7867,
    "\u25810x1211f58": 7868,
    "dc4": 7869,
    "5410": 7870,
    "lang": 7871,
    "textoutw": 7872,
    "\u2581msvcr100": 7873,
    "\u25810x437b7": 7874,
    "\u25810x437116": 7875,
    "\u25810x437117": 7876,
    "\u25810x120fd64": 7877,
    "\u25810x1211f08": 7878,
    "\u25810xfeee00d5": 7879,
    "\u25810xfeee00d6": 7880,
    "516": 7881,
    "5c5": 7882,
    "7b5": 7883,
    "lot": 7884,
    "\u25810xc9": 7885,
    "\u25810x1830": 7886,
    "\u25810x4c40": 7887,
    "ae6": 7888,
    "\u2581xh": 7889,
    "b445": 7890,
    "\u25810xc6": 7891,
    "\u25810x571": 7892,
    "\u25810x1838": 7893,
    "\u25810x1858": 7894,
    "\u25810x4740": 7895,
    "\u25810x40000": 7896,
    "e30": 7897,
    "\u25810x1840": 7898,
    "\u25810x1844": 7899,
    "\u25810x4178": 7900,
    "\u25810x9350": 7901,
    "\u25810x43f00": 7902,
    "\u25810x43b6e9": 7903,
    "nd": 7904,
    "668": 7905,
    "a71": 7906,
    "3718": 7907,
    "\u25810x3001": 7908,
    "\u25810x43b6f3": 7909,
    "\u25810x10000000": 7910,
    "d12": 7911,
    "gro": 7912,
    "xfr": 7913,
    "\u2581nar": 7914,
    "block": 7915,
    "langid": 7916,
    "\u25810x185c": 7917,
    "\u25810x28c3f": 7918,
    "\u25810x714d68": 7919,
    "\u25810x1211e58": 7920,
    "119": 7921,
    "725": 7922,
    "dlg": 7923,
    "isa": 7924,
    "llow": 7925,
    "\u25810x2f2": 7926,
    "\u25810x4908": 7927,
    "\u25810x7ce1": 7928,
    "\u2581narrow": 7929,
    "bd2": 7930,
    "e31": 7931,
    "\u2581from": 7932,
    "\u25810x182c": 7933,
    "\u25810x183c": 7934,
    "\u25810x1864": 7935,
    "\u25810x4820": 7936,
    "\u25810x567a88": 7937,
    "\u25810x1854": 7938,
    "\u25810x186c": 7939,
    "\u25810x1211878": 7940,
    "\u25810x2000000": 7941,
    "\u25810x54500000": 7942,
    "335": 7943,
    "d37": 7944,
    "3ef0": 7945,
    "\u25810x9170": 7946,
    "3b7": 7947,
    "bea": 7948,
    "bf5": 7949,
    "e7ec": 7950,
    "\u25810x1850": 7951,
    "\u25810x1870": 7952,
    "\u25810x1878": 7953,
    "\u2581taskbar": 7954,
    "\u25810x12117c8": 7955,
    "\u25810x1211d60": 7956,
    "\u25810x6ce0000": 7957,
    "\u25810xfeee010b": 7958,
    "fd9": 7959,
    "\u2581ff": 7960,
    "5655": 7961,
    "\u25810x4ef": 7962,
    "calling": 7963,
    "\u25810x1868": 7964,
    "\u25810x187c": 7965,
    "\u25810x7e0c": 7966,
    "\u25810x1211a4c": 7967,
    "aaaaaaaaaaaaaaaa": 7968,
    "e35": 7969,
    "\u25810xee": 7970,
    "\u25810x4070": 7971,
    "\u25810x7e0d": 7972,
    "2a4": 7973,
    "7a4": 7974,
    "d3d": 7975,
    "det": 7976,
    "\u25810x1874": 7977,
    "\u25810x1211b38": 7978,
    "3f9": 7979,
    "quo": 7980,
    "2838": 7981,
    "emaphore": 7982,
    "ataddress": 7983,
    "67f": 7984,
    "906": 7985,
    "fb4": 7986,
    "\u25810x1104": 7987,
    "\u2581myarg1": 7988,
    "\u25810x416264": 7989,
    "\u2581accessviolationataddress": 7990,
    "126": 7991,
    "185": 7992,
    "1f8": 7993,
    "3b3": 7994,
    "22f8": 7995,
    "4444": 7996,
    "\u25810x4300a8": 7997,
    "\u25810xfeee00da": 7998,
    "e79": 7999,
    "e054": 8000,
    "gitem": 8001,
    "software": 8002,
    "\u25810x41e1c0": 8003,
    "\u25810x41f310": 8004,
    "\u25810x120fb48": 8005,
    "va": 8006,
    "lity": 8007,
    "\u25810x4048": 8008,
    "\u25810x7e8c": 8009,
    "\u25810xd3da80": 8010,
    "\u2581taskbarcreated": 8011,
    "d74": 8012,
    "e32": 8013,
    "fd1": 8014,
    "\u25810x40b0": 8015,
    "\u25810x41d0": 8016,
    "\u25810x40015f": 8017,
    "\u25810x491994": 8018,
    "685": 8019,
    "fc1": 8020,
    "\u25810x43f": 8021,
    "\u25810x4b0": 8022,
    "\u25810x4da": 8023,
    "mensions": 8024,
    "\u2581globalhandle": 8025,
    "2f1": 8026,
    "3b1": 8027,
    "fe1": 8028,
    "\u25810x42c580": 8029,
    "\u25810x4fc2c8": 8030,
    "\u25810x120faac": 8031,
    "3b2": 8032,
    "5c6": 8033,
    "aa7": 8034,
    "fbc": 8035,
    "tsb": 8036,
    "latsb": 8037,
    "\u25810x7e11": 8038,
    "\u25810x412541": 8039,
    "\u25810x4130d4": 8040,
    "\u25810x4130d5": 8041,
    "\u25810x42c448": 8042,
    "\u25810x42c460": 8043,
    "\u25810x42c478": 8044,
    "\u25810x42c490": 8045,
    "\u25810x42c4a8": 8046,
    "\u25810x42c4c0": 8047,
    "\u25810x42c538": 8048,
    "\u25810x42c550": 8049,
    "\u25810x42c568": 8050,
    "\u25810x1211f60": 8051,
    "2a9": 8052,
    "3ed": 8053,
    "\u25810x1f1": 8054,
    "\u25810x3b3": 8055,
    "\u25810x40b6": 8056,
    "\u25810xb4ea": 8057,
    "\u2581metaquo": 8058,
    "\u2581getcursorpos": 8059,
    "1514": 8060,
    "90000": 8061,
    "\u25810x40b2": 8062,
    "\u25810xfeee00d8": 8063,
    "6808": 8064,
    "b6b0": 8065,
    "ress": 8066,
    "releas": 8067,
    "localfiletime": 8068,
    "\u2581filetimetolocalfiletime": 8069,
    "xf": 8070,
    "258": 8071,
    "e11": 8072,
    "ec6": 8073,
    "fc5": 8074,
    "\u25810x41de00": 8075,
    "905": 8076,
    "\u25810x4033e6": 8077,
    "\u25810x4093a5": 8078,
    "\u25810x4093a6": 8079,
    "\u25810x4093a7": 8080,
    "\u25810x4093a8": 8081,
    "\u25810x4093a9": 8082,
    "\u25810x4093aa": 8083,
    "\u25810x4093ab": 8084,
    "\u25810x416bc9": 8085,
    "\u25810x41e190": 8086,
    "d79": 8087,
    "\u25810xfeee00d9": 8088,
    "f9c": 8089,
    "has": 8090,
    "\u25811da": 8091,
    "\u25810x4a5": 8092,
    "\u25810x8e20": 8093,
    "\u25810x80000": 8094,
    "\u2581regsetvalueexa": 8095,
    "199": 8096,
    "21c": 8097,
    "2da": 8098,
    "b99": 8099,
    "d64": 8100,
    "\u2581ftp": 8101,
    "\u25810xef": 8102,
    "\u2581stricmp": 8103,
    "\u25810x416c8c": 8104,
    "\u25810x41f300": 8105,
    "\u25810x41f301": 8106,
    "\u2581getclipboard": 8107,
    "17b": 8108,
    "3f6": 8109,
    "nam": 8110,
    "\u2581sig": 8111,
    "\u25810x288": 8112,
    "\u25810x45d0": 8113,
    "fication": 8114,
    "\u25810x40799b": 8115,
    "\u25810x40799c": 8116,
    "\u25810x412ad5": 8117,
    "\u25810x412f39": 8118,
    "\u25810x412f3a": 8119,
    "\u25810x416263": 8120,
    "\u25810x416b22": 8121,
    "\u25810x416b23": 8122,
    "\u25810x416b33": 8123,
    "\u25810x416b34": 8124,
    "\u25810x416bb1": 8125,
    "\u25810x416bb2": 8126,
    "\u25810x416bca": 8127,
    "\u25810x416c09": 8128,
    "\u25810x416c0a": 8129,
    "\u25810x416c1a": 8130,
    "\u25810x416c1b": 8131,
    "\u25810x416c8d": 8132,
    "\u25810x41f311": 8133,
    "\u25810x41f320": 8134,
    "\u25810x41f321": 8135,
    "\u25810x41f396": 8136,
    "\u25810x41f397": 8137,
    "\u25810x41f3a0": 8138,
    "\u25810x41f3a1": 8139,
    "\u25810x41f3aa": 8140,
    "\u25810x41f3ab": 8141,
    "\u25810x41f3b4": 8142,
    "\u25810x41f3b5": 8143,
    "\u25810x41f3be": 8144,
    "\u25810x41f3bf": 8145,
    "\u25810x41f3d0": 8146,
    "\u25810x41f3d1": 8147,
    "\u25810x42bfb0": 8148,
    "\u25810x42bfc8": 8149,
    "\u25810x42bfe0": 8150,
    "\u25810x42bff8": 8151,
    "75c": 8152,
    "bda": 8153,
    "ee6": 8154,
    "ivq": 8155,
    "before": 8156,
    "\u25810x7eac": 8157,
    "445": 8158,
    "lack": 8159,
    "\u2581enter": 8160,
    "\u25810x461548": 8161,
    "\u2581202203032": 8162,
    "\u2581directory": 8163,
    "3dd": 8164,
    "ba5": 8165,
    "f11": 8166,
    "fd5": 8167,
    "thi": 8168,
    "\u25810x7e14": 8169,
    "\u25810x1211fb4": 8170,
    "\u25810xfeee00d0": 8171,
    "yourcomputer": 8172,
    "154": 8173,
    "346": 8174,
    "d46": 8175,
    "rey": 8176,
    "a5958": 8177,
    "tiono": 8178,
    "ultip": 8179,
    "dealer": 8180,
    "\u25811days": 8181,
    "\u25810x4521": 8182,
    "catalogs": 8183,
    "continue": 8184,
    "havebeen": 8185,
    "formultip": 8186,
    "\u2581intermed": 8187,
    "allcadwork": 8188,
    "\u25810x120fb30": 8189,
    "\u25810x5265c50": 8190,
    "reallywantto": 8191,
    "\u2581openanexploreron": 8192,
    "ult": 8193,
    "\u25810x429c": 8194,
    "\u2581164638": 8195,
    "dimensions": 8196,
    "forcadwork": 8197,
    "formultipleob": 8198,
    "1cd8": 8199,
    "2524": 8200,
    "dbc0": 8201,
    "isplay": 8202,
    "\u25810x46a": 8203,
    "\u25810x4051": 8204,
    "\u25810x46ad": 8205,
    "ofaddress": 8206,
    "\u25810xfeee00d1": 8207,
    "\u2581lookupprivilege": 8208,
    "9dc": 8209,
    "eff": 8210,
    "1110": 8211,
    "datet": 8212,
    "arameters": 8213,
    "\u25810x565848": 8214,
    "\u25810xfeee00d2": 8215,
    "\u2581getwindowrect": 8216,
    "13d": 8217,
    "9a4": 8218,
    "fb6": 8219,
    "\u25810x7e15": 8220,
    "\u25810x40400": 8221,
    "\u2581systemp": 8222,
    "\u2581systemparameters": 8223,
    "90e": 8224,
    "e85": 8225,
    "\u25810xff50": 8226,
    "\u2581164636": 8227,
    "\u25810x42a408": 8228,
    "\u25810x1211ea8": 8229,
    "\u25810xfeee00d3": 8230,
    "\u2581fileexistsw": 8231,
    "\u2581regopenkeya": 8232,
    "2a6": 8233,
    "7f6": 8234,
    "9c6": 8235,
    "e25": 8236,
    "\u2581add": 8237,
    "\u25810x132": 8238,
    "\u25810x9a90": 8239,
    "\u25810x40b840": 8240,
    "\u25810x697070": 8241,
    "privileges": 8242,
    "f15": 8243,
    "our": 8244,
    "modi": 8245,
    "\u25810x798": 8246,
    "usttoken": 8247,
    "\u25810x120f6": 8248,
    "\u25810xfeee00d4": 8249,
    "196": 8250,
    "00248": 8251,
    "client": 8252,
    "\u25810x41b1": 8253,
[...]
