{
    "<pad>": 0,
    "<unk>": 1,
    "<mask>": 2,
    "\u25810": 3,
    "\u25810x": 4,
    "00": 5,
    "er": 6,
    "ne": 7,
    "32": 8,
    "\u2581k": 9,
    "l32": 10,
    "erne": 11,
    "ernel32": 12,
    "\u2581kernel32": 13,
    "\u25810x0": 14,
    "\u25810x1": 15,
    "et": 16,
    "al": 17,
    "ee": 18,
    "ti": 19,
    "get": 20,
    "ad": 21,
    "000": 22,
    "\u25810x4": 23,
    "ec": 24,
    "\u25810x7": 25,
    "\u25810xf": 26,
    "\u2581get": 27,
    "in": 28,
    "re": 29,
    "0000": 30,
    "oc": 31,
    "iti": 32,
    "\u25810x77": 33,
    "eee": 34,
    "\u25810xfeee": 35,
    "ter": 36,
    "ss": 37,
    "one": 38,
    "pr": 39,
    "on": 40,
    "proc": 41,
    "tr": 42,
    "sec": 43,
    "cal": 44,
    "secti": 45,
    "riti": 46,
    "ritical": 47,
    "riticalsecti": 48,
    "ue": 49,
    "le": 50,
    "\u2581getproc": 51,
    "add": 52,
    "ress": 53,
    "address": 54,
    "\u2581getprocaddress": 55,
    "en": 56,
    "ls": 57,
    "val": 58,
    "\u2581n": 59,
    "value": 60,
    "\u2581none": 61,
    "000000": 62,
    "is": 63,
    "ecriticalsecti": 64,
    "getvalue": 65,
    "lsgetvalue": 66,
    "\u2581in": 67,
    "read": 68,
    "\u25810xfeee000": 69,
    "\u25810x77000000": 70,
    "\u25810x12": 71,
    "\u25810x1000": 72,
    "loc": 73,
    "ap": 74,
    "\u2581is": 75,
    "or": 76,
    "\u25810xfeee00": 77,
    "de": 78,
    "11": 79,
    "\u25810x2": 80,
    "co": 81,
    "readp": 82,
    "\u2581s": 83,
    "\u25810x46": 84,
    "ff": 85,
    "bad": 86,
    "\u2581isbad": 87,
    "readptr": 88,
    "\u2581isbadreadptr": 89,
    "a0": 90,
    "us": 91,
    "iz": 92,
    "\u25810x1211": 93,
    "te": 94,
    "aliz": 95,
    "an": 96,
    "itializ": 97,
    "f0": 98,
    "\u2581initializ": 99,
    "ar": 100,
    "\u2581f": 101,
    "\u2581initializecriticalsecti": 102,
    "he": 103,
    "\u2581en": 104,
    "\u25810x8": 105,
    "as": 106,
    "\u2581t": 107,
    "heap": 108,
    "\u25810xfa0": 109,
    "ror": 110,
    "user": 111,
    "\u2581heap": 112,
    "las": 113,
    "laster": 114,
    "lasterror": 115,
    "\u2581user": 116,
    "\u2581c": 117,
    "\u25810xfeee0001": 118,
    "\u2581tlsgetvalue": 119,
    "48": 120,
    "\u2581user32": 121,
    "po": 122,
    "alloc": 123,
    "39": 124,
    "poin": 125,
    "pointer": 126,
    "dec": 127,
    "depointer": 128,
    "and": 129,
    "onex": 130,
    "\u2581l": 131,
    "\u25810x24": 132,
    "ta": 133,
    "\u2581initializecriticalsectionex": 134,
    "\u25810x2439": 135,
    "\u25810x243948": 136,
    "\u2581set": 137,
    "\u2581flsgetvalue": 138,
    "ow": 139,
    "10": 140,
    "lea": 141,
    "\u25810x5": 142,
    "d0": 143,
    "\u2581m": 144,
    "90": 145,
    "\u25810x770": 146,
    "str": 147,
    "\u2581heapalloc": 148,
    "inf": 149,
    "nt": 150,
    "\u2581w": 151,
    "ing": 152,
    "\u25810x100": 153,
    "ex": 154,
    "har": 155,
    "\u25810x42": 156,
    "string": 157,
    "fi": 158,
    "\u25810x10": 159,
    "00000": 160,
    "\u2581enco": 161,
    "\u2581encodepointer": 162,
    "\u2581d": 163,
    "terc": 164,
    "ecriticalsection": 165,
    "\u25810x40": 166,
    "leav": 167,
    "\u2581leav": 168,
    "\u2581leavecriticalsection": 169,
    "riticalsection": 170,
    "tercriticalsection": 171,
    "\u2581entercriticalsection": 172,
    "ent": 173,
    "ac": 174,
    "oad": 175,
    "mp": 176,
    "\u2581load": 177,
    "\u2581getlasterror": 178,
    "li": 179,
    "\u2581setlasterror": 180,
    "\u25810x771": 181,
    "\u25810x45": 182,
    "\u2581getc": 183,
    "info": 184,
    "\u25810x46d0": 185,
    "\u25810x3": 186,
    "\u25810x41": 187,
    "hand": 188,
    "e4": 189,
    "by": 190,
    "tu": 191,
    "\u25810x46f0": 192,
    "unt": 193,
    "ffff": 194,
    "count": 195,
    "tat": 196,
    "let": 197,
    "ess": 198,
    "\u25810x43": 199,
    "local": 200,
    "ind": 201,
    "\u25810x45f0": 202,
    "\u25810xc": 203,
    "\u2581initializecriticalsection": 204,
    "tion": 205,
    "\u25810x4e4": 206,
    "ul": 207,
    "40": 208,
    "om": 209,
    "\u25810x78": 210,
    "10000": 211,
    "bc": 212,
    "mo": 213,
    "ys": 214,
    "ir": 215,
    "ll": 216,
    "\u25810x400000": 217,
    "ed": 218,
    "handle": 219,
    "du": 220,
    "indow": 221,
    "ur": 222,
    "c0": 223,
    "ate": 224,
    "f8": 225,
    "\u2581dec": 226,
    "\u25810x7d": 227,
    "\u25810x6": 228,
    "30": 229,
    "b0": 230,
    "20": 231,
    "dule": 232,
    "\u2581deco": 233,
    "\u2581decodepointer": 234,
    "module": 235,
    "ulti": 236,
    "\u2581getmodule": 237,
    "idec": 238,
    "ultiby": 239,
    "idechar": 240,
    "\u2581gets": 241,
    "50": 242,
    "nex": 243,
    "sp": 244,
    "tem": 245,
    "\u25810xfeee001": 246,
    "78": 247,
    "pinfo": 248,
    "ystem": 249,
    "spin": 250,
    "spincount": 251,
    "\u2581initializecriticalsectionand": 252,
    "\u2581initializecriticalsectionandspincount": 253,
    "70": 254,
    "exw": 255,
    "me": 256,
    "locale": 257,
    "ble": 258,
    "file": 259,
    "op": 260,
    "ment": 261,
    "\u2581char": 262,
    "\u2581cre": 263,
    "\u2581charnex": 264,
    "\u2581dll": 265,
    "\u2581loadstring": 266,
    "\u2581getcpinfo": 267,
    "ion": 268,
    "vir": 269,
    "18": 270,
    "\u2581ms": 271,
    "tet": 272,
    "indows": 273,
    "a5": 274,
    "fr": 275,
    "e0": 276,
    "\u25810x10c": 277,
    "\u25810x1211f": 278,
    "process": 279,
    "\u2581windows": 280,
    "yp": 281,
    "\u2581ini": 282,
    "d10000": 283,
    "\u25810x77d10000": 284,
    "d8": 285,
    "id": 286,
    "28": 287,
    "rt": 288,
    "tw": 289,
    "38": 290,
    "\u25810xc000": 291,
    "lock": 292,
    "\u25810x7e": 293,
    "\u25810x9": 294,
    "comp": 295,
    "\u2581getlocale": 296,
    "ri": 297,
    "ce": 298,
    "\u25810xff": 299,
    "br": 300,
    "\u2581create": 301,
    "60": 302,
    "c4": 303,
    "98": 304,
    "ary": 305,
    "\u25810xf00": 306,
    "\u25810xfffff": 307,
    "rent": 308,
    "free": 309,
    "ge": 310,
    "urrent": 311,
    "\u25810xfffffff": 312,
    "ans": 313,
    "tatus": 314,
    "status": 315,
    "trans": 316,
    "brary": 317,
    "\u2581a": 318,
    "map": 319,
    "\u2581multiby": 320,
    "tetow": 321,
    "tetowidechar": 322,
    "\u2581multibytetowidechar": 323,
    "que": 324,
    "\u2581getcpinfoexw": 325,
    "lient": 326,
    "\u25810x243948c": 327,
    "action": 328,
    "table": 329,
    "cc": 330,
    "queue": 331,
    "letion": 332,
    "dcomp": 333,
    "queuedcomp": 334,
    "letionstatus": 335,
    "queuedcompletionstatus": 336,
    "\u2581ddec": 337,
    "\u2581getqueuedcompletionstatus": 338,
    "transaction": 339,
    "\u2581ddeclient": 340,
    "\u2581ddeclienttransaction": 341,
    "tatom": 342,
    "\u2581initatom": 343,
    "\u25810x2439480": 344,
    "\u25810x2439484": 345,
    "\u25810x2439488": 346,
    "\u2581initatomtable": 347,
    "34": 348,
    "vc": 349,
    "\u2581inter": 350,
    "th": 351,
    "a8": 352,
    "\u2581getst": 353,
    "\u2581msvc": 354,
    "\u2581interlock": 355,
    "\u2581system": 356,
    "age": 357,
    "\u25810x1211c": 358,
    "\u2581interlocked": 359,
    "26": 360,
    "\u2581msvcrt": 361,
    "lo": 362,
    "\u2581system32": 363,
    "rement": 364,
    "\u25810x88": 365,
    "b8": 366,
    "\u25810x4690": 367,
    "\u25810x40a5": 368,
    "\u25810x70": 369,
    "58": 370,
    "64": 371,
    "ype": 372,
    "ol": 373,
    "68": 374,
    "\u2581g": 375,
    "\u25810x1210": 376,
    "ey": 377,
    "ect": 378,
    "hi": 379,
    "virtu": 380,
    "\u2581lc": 381,
    "\u2581getcurrent": 382,
    "filet": 383,
    "virtual": 384,
    "\u2581lcmap": 385,
    "\u2581lcmapstring": 386,
    "def": 387,
    "un": 388,
    "library": 389,
    "infow": 390,
    "\u2581charnextw": 391,
    "it": 392,
    "\u25810x90": 393,
    "\u2581heapfree": 394,
    "em": 395,
    "var": 396,
    "\u2581loadstringw": 397,
    "\u2581p": 398,
    "\u25810xa": 399,
    "handlew": 400,
    "\u25810xfeee002": 401,
    "\u2581getmodulehandlew": 402,
    "rs": 403,
    "14": 404,
    "api": 405,
    "open": 406,
    "cmp": 407,
    "\u2581virtual": 408,
    "temp": 409,
    "\u2581re": 410,
    "c8": 411,
    "\u25810x47": 412,
    "d4": 413,
    "na": 414,
    "\u25810xfeee007": 415,
    "key": 416,
    "\u2581loadlibrary": 417,
    "56": 418,
    "ic": 419,
    "qu": 420,
    "93": 421,
    "fe": 422,
    "\u25810x3f": 423,
    "rite": 424,
    "\u2581ex": 425,
    "\u25810x78000000": 426,
    "\u2581loadstringa": 427,
    "thread": 428,
    "ers": 429,
    "12": 430,
    "69": 431,
    "ck": 432,
    "\u2581mem": 433,
    "\u2581charnexta": 434,
    "\u25810x18": 435,
    "\u2581getti": 436,
    "\u25810x12119": 437,
    "\u25810xfeee004": 438,
    "tom": 439,
    "\u25810x44": 440,
    "inc": 441,
    "7c": 442,
    "vw": 443,
    "orm": 444,
    "\u2581interlockedinc": 445,
    "\u2581interlockedincrement": 446,
    "mm": 447,
    "lm": 448,
    "xy": 449,
    "\u25810x12117": 450,
    "xyz": 451,
    "\u2581abc": 452,
    "ghi": 453,
    "klm": 454,
    "qrs": 455,
    "nop": 456,
    "tuvw": 457,
    "tuvwxyz": 458,
    "nopqrs": 459,
    "defghi": 460,
    "nopqrstuvwxyz": 461,
    "\u2581abcdefghi": 462,
    "klmnopqrstuvwxyz": 463,
    "ultibyte": 464,
    "\u2581widechar": 465,
    "tomultibyte": 466,
    "\u2581widechartomultibyte": 467,
    "ch": 468,
    "\u2581memcmp": 469,
    "\u25810xfeee008": 470,
    "\u25810xfeee005": 471,
    "name": 472,
    "1000": 473,
    "so": 474,
    "\u25810x41f0": 475,
    "\u2581getlocaleinfo": 476,
    "\u2581read": 477,
    "\u25810xffffffff": 478,
    "\u2581gettick": 479,
    "\u2581gettickcount": 480,
    "\u25810x41f040": 481,
    "\u2581getlocaleinfow": 482,
    "\u2581getfilet": 483,
    "\u2581getfiletype": 484,
    "\u25810xfeee0004": 485,
    "e8": 486,
    "\u25810x20": 487,
    "\u25810x79": 488,
    "sset": 489,
    "ool": 490,
    "a4": 491,
    "dhandle": 492,
    "\u2581reg": 493,
    "quer": 494,
    "lsset": 495,
    "lssetvalue": 496,
    "\u2581temp": 497,
    "\u25810x200": 498,
    "\u25810x5f8": 499,
    "\u25810xfeee006": 500,
    "\u2581getstdhandle": 501,
    "\u25810x5f800000": 502,
    "\u25810x4c4": 503,
    "\u2581getlocaleinfoa": 504,
    "\u25810x526": 505,
    "3000": 506,
    "\u2581fls": 507,
    "\u2581getsystem": 508,
    "da": 509,
    "\u2581getmodulehand": 510,
    "b000": 511,
    "\u2581co": 512,
    "c00000": 513,
    "b4": 514,
    "\u25810x78c00000": 515,
    "sw": 516,
    "\u2581getmodulehandlea": 517,
    "\u25810x80": 518,
    "f4": 519,
    "viron": 520,
    "los": 521,
    "\u25810x1211d": 522,
    "5c": 523,
    "\u25810xfeee003": 524,
    "\u25810x7de": 525,
    "dc": 526,
    "vironment": 527,
    "sle": 528,
    "5000": 529,
    "dbc": 530,
    "fc": 531,
    "2000": 532,
    "\u25810x7d90": 533,
    "\u25810x70cc": 534,
    "\u25810x77e": 535,
    "\u25810x77e10000": 536,
    "91": 537,
    "74": 538,
    "ad0": 539,
    "2c": 540,
    "adby": 541,
    "dbcsle": 542,
    "\u2581isdbcsle": 543,
    "\u2581isdbcsleadby": 544,
    "\u2581isdbcsleadbyte": 545,
    "\u25810x4610": 546,
    "\u2581open": 547,
    "readpool": 548,
    "94": 549,
    "\u25810xfeee0002": 550,
    "7000": 551,
    "vers": 552,
    "\u25811": 553,
    "ute": 554,
    "f000": 555,
    "24": 556,
    "\u25810x104": 557,
    "filename": 558,
    "a000": 559,
    "e6": 560,
    "9c": 561,
    "\u2581var": 562,
    "\u25810xf001": 563,
    "\u2581local": 564,
    "dir": 565,
    "eco": 566,
    "artu": 567,
    "\u25810x1211e": 568,
    "d000": 569,
    "\u2581flssetvalue": 570,
    "\u2581se": 571,
    "ector": 572,
    "\u2581lcmapstringex": 573,
    "\u2581h": 574,
    "\u25810xfeee0000": 575,
    "54": 576,
    "71": 577,
    "la": 578,
    "9000": 579,
    "\u2581getmodulefilename": 580,
    "\u25810x54": 581,
    "\u25810x800": 582,
    "ve": 583,
    "\u25810x7ec": 584,
    "window": 585,
    "\u25810x4600": 586,
    "\u25810xfeee0003": 587,
    "\u2581lcmapstringw": 588,
    "\u2581b": 589,
    "\u2581ap": 590,
    "\u2581getcurrentthread": 591,
    "\u25810xcd": 592,
    "director": 593,
    "\u2581flsalloc": 594,
    "di": 595,
    "mmand": 596,
    "\u2581getstartu": 597,
    "6000": 598,
    "line": 599,
    "of": 600,
    "valid": 601,
    "\u25810x400": 602,
    "mmandline": 603,
    "are": 604,
    "e000": 605,
    "stringsw": 606,
    "\u2581fr": 607,
    "\u2581getcurrentthreadid": 608,
    "b7": 609,
    "\u2581getco": 610,
    "\u2581clos": 611,
    "\u2581getcommandline": 612,
    "1c": 613,
    "\u2581ad": 614,
    "form": 615,
    "\u25810x4093": 616,
    "ation": 617,
    "res": 618,
    "3c": 619,
    "api32": 620,
    "time": 621,
    "\u25810xfeee0005": 622,
    "80": 623,
    "\u2581adv": 624,
    "\u2581advapi32": 625,
    "filew": 626,
    "3d": 627,
    "eex": 628,
    "vironmentstringsw": 629,
    "75": 630,
    "\u25810x8ad0": 631,
    "write": 632,
    "es": 633,
    "\u25810x7c": 634,
    "\u25810x4c42": 635,
    "\u2581virtualalloc": 636,
    "\u2581apis": 637,
    "66": 638,
    "vari": 639,
    "b9": 640,
    "\u2581win": 641,
    "\u25810x8810": 642,
    "\u2581loadlibrarya": 643,
    "\u25810x1c": 644,
    "processor": 645,
    "\u25810xf003": 646,
    "vi": 647,
    "arch": 648,
    "\u25810xf002": 649,
    "\u2581interlockeddec": 650,
    "\u2581interlockeddecrement": 651,
    "\u2581de": 652,
    "\u2581crea": 653,
    "a9": 654,
    "\u2581l1": 655,
    "\u25810x7b": 656,
    "\u25810x4a": 657,
    "mess": 658,
    "\u25810x8c": 659,
    "\u25810x48": 660,
    "789": 661,
    "\u2581api": 662,
    "f1": 663,
    "e5": 664,
    "ist": 665,
    "ab": 666,
    "\u25810x7a": 667,
    "\u2581getprocess": 668,
    "\u2581page": 669,
    "\u2581getvers": 670,
    "\u25810x4378": 671,
    "ai": 672,
    "3456": 673,
    "\u2581012": 674,
    "3456789": 675,
    "\u25810123456789": 676,
    "\u25810x7e70": 677,
    "directory": 678,
    "cep": 679,
    "filea": 680,
    "a6": 681,
    "\u2581search": 682,
    "a1": 683,
    "\u2581ls": 684,
    "\u2581loadlibraryexw": 685,
    "message": 686,
    "\u2581readwrite": 687,
    "\u2581write": 688,
    "tware": 689,
    "\u25810x12115": 690,
    "f5": 691,
    "dll": 692,
    "\u2581getprocessheap": 693,
    "\u25810x120": 694,
    "\u25810xfeee0006": 695,
    "\u2581hkey": 696,
    "oftware": 697,
    "f3": 698,
    "tin": 699,
    "\u2581x": 700,
    "\u2581software": 701,
    "a2": 702,
    "b5": 703,
    "up": 704,
    "\u2581geten": 705,
    "6c": 706,
    "\u2581sl": 707,
    "type": 708,
    "eep": 709,
    "\u2581getcurrentprocess": 710,
    "mer": 711,
    "\u25812": 712,
    "\u2581lstr": 713,
    "ait": 714,
    "\u2581sleep": 715,
    "4c": 716,
    "\u25810x42c": 717,
    "\u2581quer": 718,
    "\u2581core": 719,
    "\u25810x437": 720,
    "\u2581localalloc": 721,
    "\u25810x14": 722,
    "yper": 723,
    "ction": 724,
    "forman": 725,
    "\u2581queryper": 726,
    "\u2581queryperforman": 727,
    "ime": 728,
    "pres": 729,
    "present": 730,
    "\u25810x8a": 731,
    "ception": 732,
    "\u2581find": 733,
    "15": 734,
    "int": 735,
    "list": 736,
    "atu": 737,
    "hreadpool": 738,
    "unter": 739,
    "to": 740,
    "ceco": 741,
    "cecounter": 742,
    "\u2581queryperformancecounter": 743,
    "filetime": 744,
    "88": 745,
    "f9": 746,
    "bo": 747,
    "\u2581getsystemtime": 748,
    "db": 749,
    "icon": 750,
    "\u25810x7700": 751,
    "\u2581getstring": 752,
    "\u25810x73": 753,
    "\u2581getstringtype": 754,
    "aa": 755,
    "\u25810x9000": 756,
    "\u2581li": 757,
    "\u25810x8000": 758,
    "\u2581fi": 759,
    "timer": 760,
    "\u25810xfeee0007": 761,
    "ra": 762,
    "um": 763,
    "\u25810x7000": 764,
    "dex": 765,
    "\u25810xfeee009": 766,
    "b2": 767,
    "\u2581current": 768,
    "ut": 769,
    "\u2581ws": 770,
    "\u25810x42d": 771,
    "\u2581gdi": 772,
    "67": 773,
    "ature": 774,
    "feature": 775,
    "\u2581isprocessor": 776,
    "featurepresent": 777,
    "\u2581isprocessorfeaturepresent": 778,
    "\u25810xfff": 779,
    "asfiletime": 780,
    "query": 781,
    "\u2581getstringtypew": 782,
    "\u25810x409": 783,
    "onso": 784,
    "\u2581library": 785,
    "\u25810x7711": 786,
    "19": 787,
    "ob": 788,
    "ting": 789,
    "bd": 790,
    "f6": 791,
    "onsole": 792,
    "\u25810x7d91": 793,
    "\u2581getmodulefilenamew": 794,
    "508": 795,
    "\u25810x76": 796,
    "\u2581gdi32": 797,
    "ecute": 798,
    "\u2581createt": 799,
    "\u25810x1210e": 800,
    "rive": 801,
    "locales": 802,
    "\u25810x4c": 803,
    "\u25810x7de0": 804,
    "\u25810x1211c98": 805,
    "\u25810x71": 806,
    "a7": 807,
    "ot": 808,
    "\u25810x430": 809,
    "pinfow": 810,
    "\u2581getstartupinfow": 811,
    "36": 812,
    "\u25810x7710": 813,
    "con": 814,
    "\u25810x75": 815,
    "\u25810x7718": 816,
    "\u25810x7708": 817,
    "fd": 818,
    "inform": 819,
    "\u2581getsystemtimeasfiletime": 820,
    "fil": 821,
    "lob": 822,
    "\u25810x7890": 823,
    "\u2581glob": 824,
    "\u2581virtualquery": 825,
    "\u25810x47b0": 826,
    "information": 827,
    "27": 828,
    "hel": 829,
    "ock": 830,
    "be": 831,
    "\u25810x416": 832,
    "b6": 833,
    "exa": 834,
    "sour": 835,
    "35": 836,
    "\u2581regis": 837,
    "\u2581sh": 838,
    "f7": 839,
    "\u2581pf": 840,
    "\u2581getac": 841,
    "\u25810x74": 842,
    "\u25810x69": 843,
    "\u25810x7714": 844,
    "\u25810x7704": 845,
    "\u2581getacp": 846,
    "able": 847,
    "source": 848,
    "dexception": 849,
    "filter": 850,
    "unhandle": 851,
    "dexceptionfilter": 852,
    "unhandledexceptionfilter": 853,
    "eexw": 854,
    "\u2581getcurrentprocessid": 855,
    "stru": 856,
    "\u2581delet": 857,
    "b1": 858,
    "struction": 859,
    "ition": 860,
    "\u25810x102": 861,
    "dition": 862,
    "from": 863,
    "25": 864,
    "b3": 865,
    "\u25810x7f": 866,
    "variable": 867,
    "\u25810x1211c18": 868,
    "lus": 869,
    "ener": 870,
    "\u2581isvalid": 871,
    "\u2581regopen": 872,
    "code": 873,
    "29": 874,
    "\u2581regopenkey": 875,
    "55": 876,
    "\u2581close": 877,
    "\u2581getcommandlinea": 878,
    "\u25810x7ec0": 879,
    "\u25810x770b": 880,
    "\u25810x7717": 881,
    "\u25810x7707": 882,
    "\u25810x771b": 883,
    "\u25810x4670": 884,
    "\u25810x72": 885,
    "\u25810x420": 886,
    "\u2581closehandle": 887,
    "ack": 888,
    "\u2581ac": 889,
    "\u2581createfilew": 890,
    "bf": 891,
    "\u25810x4ab0": 892,
    "31": 893,
    "aila": 894,
    "vaila": 895,
    "vailable": 896,
    "\u25810x12116": 897,
    "at": 898,
    "\u25810x49": 899,
    "e7": 900,
    "\u2581nt": 901,
    "\u2581getconsole": 902,
    "\u2581gener": 903,
    "\u2581locales": 904,
    "eeen": 905,
    "\u2581freeen": 906,
    "threadpool": 907,
    "d6": 908,
    "\u2581generic": 909,
    "\u25810x30": 910,
    "\u2581available": 911,
    "308": 912,
    "37": 913,
    "d2": 914,
    "\u25810x19": 915,
    "\u25810x4fe": 916,
    "\u2581getcommandlinew": 917,
    "ionex": 918,
    "\u2581getversionex": 919,
    "\u25810x220": 920,
    "ser": 921,
    "8c": 922,
    "\u2581setunhandledexceptionfilter": 923,
    "\u2581instruction": 924,
    "i64": 925,
    "\u2581instructions": 926,
    "\u2581xmm": 927,
    "\u2581xmmi64": 928,
    "3e": 929,
    "\u25810x4c42c0": 930,
    "\u25810x50": 931,
    "\u2581getenvironmentstringsw": 932,
    "tri": 933,
    "\u25810x770c": 934,
    "\u25810x7706": 935,
    "\u25810x7716": 936,
    "\u25810x7702": 937,
    "\u25810x7705": 938,
    "\u25810x7709": 939,
    "\u25810x7712": 940,
    "\u25810x7715": 941,
    "\u25810x7719": 942,
    "\u2581freeenvironmentstringsw": 943,
    "ber": 944,
    "py": 945,
    "directoryw": 946,
    "st": 947,
    "\u25810x5265c": 948,
    "\u2581o": 949,
    "\u2581getmodulefilenamea": 950,
    "\u25810xe": 951,
    "print": 952,
    "\u2581execute": 953,
    "ae": 954,
    "messagea": 955,
    "wait": 956,
    "\u25810x69000000": 957,
    "\u2581free": 958,
    "af": 959,
    "\u25810xd": 960,
    "\u2581drive": 961,
    "handl": 962,
    "processlist": 963,
    "\u2581getconsoleprocesslist": 964,
    "printf": 965,
    "\u2581invalid": 966,
    "sc": 967,
    "79": 968,
    "\u2581lstrle": 969,
    "lass": 970,
    "vice": 971,
    "\u25810xfffffff6": 972,
    "defa": 973,
    "defaul": 974,
    "\u2581getstartupinfo": 975,
    "\u25810xfffffff5": 976,
    "\u2581getstartupinfoa": 977,
    "\u25810xfffffff4": 978,
    "ant": 979,
    "\u2581setfile": 980,
    "84": 981,
    "\u25810x7ee": 982,
    "ity": 983,
    "\u25810x7703": 984,
    "\u25810x770a": 985,
    "\u25810x770d": 986,
    "\u25810x770f": 987,
    "\u25810x7713": 988,
    "\u25810x771a": 989,
    "\u2581global": 990,
    "22": 991,
    "76": 992,
    "16": 993,
    "cre": 994,
    "\u25810x4d": 995,
    "\u2581crt": 996,
    "\u25810x56": 997,
    "\u25810x7e71": 998,
    "dd": 999,
    "\u25810x1211dc0": 1000,
    "\u25810x1211e0": 1001,
    "rw": 1002,
    "\u25810xfeee0": 1003,
    "ba": 1004,
    "\u2581gettemp": 1005,
    "390": 1006,
    "default": 1007,
    "urs": 1008,
    "\u25810x4238": 1009,
    "\u2581shel": 1010,
    "ard": 1011,
    "\u2581writefile": 1012,
    "lor": 1013,
    "\u2581r": 1014,
    "board": 1015,
    "\u25810x7701": 1016,
    "\u25810x770e": 1017,
    "f2": 1018,
    "4000": 1019,
    "\u2581getuser": 1020,
    "codep": 1021,
    "17": 1022,
    "44": 1023,
    "99": 1024,
    "\u2581process": 1025,
    "f10000": 1026,
    "\u25810x418": 1027,
    "\u25810x40934": 1028,
    "\u25810x12116d8": 1029,
    "\u25810x77f10000": 1030,
    "e9": 1031,
    "cess": 1032,
    "\u25810x5266": 1033,
    "\u25810x1211918": 1034,
    "codepage": 1035,
    "gu": 1036,
    "color": 1037,
    "\u2581isvalidcodepage": 1038,
    "\u25810x8811": 1039,
    "condition": 1040,
    "e2": 1041,
    "create": 1042,
    "d5": 1043,
    "a3": 1044,
    "e1": 1045,
    "bu": 1046,
    "\u25810x7910": 1047,
    "\u2581map": 1048,
    "a80": 1049,
    "set": 1050,
    "olf": 1051,
    "tex": 1052,
    "\u2581creates": 1053,
    "urity": 1054,
    "security": 1055,
    "rwlock": 1056,
    "00c": 1057,
    "date": 1058,
    "bb": 1059,
    "\u2581process32": 1060,
    "\u25810x82": 1061,
    "\u25810xfeee0008": 1062,
    "\u25810x34": 1063,
    "ursor": 1064,
    "\u25810xa4": 1065,
    "d1": 1066,
    "\u25810xffc": 1067,
    "\u25810x2a": 1068,
    "\u2581getthread": 1069,
    "error": 1070,
    "\u2581closet": 1071,
    "\u2581closethreadpool": 1072,
    "\u2581createthreadpool": 1073,
    "\u25810x3000": 1074,
    "all": 1075,
    "hread": 1076,
    "\u25810x7c000000": 1077,
    "\u2581key": 1078,
    "end": 1079,
    "\u25810xfeee0009": 1080,
    "ro": 1081,
    "7d": 1082,
    "\u2581access": 1083,
    "908": 1084,
    "ical": 1085,
    "\u25810xfeee000a": 1086,
    "\u2581golf": 1087,
    "95": 1088,
    "\u25810xfeee000b": 1089,
    "\u25810xfeee000c": 1090,
    "\u2581setfilepointer": 1091,
    "\u25810x435": 1092,
    "cursor": 1093,
    "\u25810x12114": 1094,
    "met": 1095,
    "\u25810x13": 1096,
    "\u25810xfeee000d": 1097,
    "\u25810xfeee000e": 1098,
    "\u25810xfeee0014": 1099,
    "\u2581loadicon": 1100,
    "\u25810xfeee000f": 1101,
    "\u25810x4750": 1102,
    "1a": 1103,
    "ork": 1104,
    "firs": 1105,
    "\u25810x43b7": 1106,
    "num": 1107,
    "\u25810x4305": 1108,
    "\u25810xfeee0010": 1109,
    "net": 1110,
    "\u25810xfeee0015": 1111,
    "\u25810xfeee0013": 1112,
    "\u25810xfeee0012": 1113,
    "\u25810xfeee0016": 1114,
    "\u25810xfeee0011": 1115,
    "106": 1116,
    "3f": 1117,
    "\u2581loadcursor": 1118,
    "\u25810x42d4": 1119,
    "\u25810x58": 1120,
    "\u25810x1210f": 1121,
    "call": 1122,
    "\u2581str": 1123,
    "\u25810x8af0": 1124,
    "hine": 1125,
    "\u2581mac": 1126,
    "\u2581machine": 1127,
    "lic": 1128,
    "\u2581exit": 1129,
    "\u2581regopenkeyexw": 1130,
    "version": 1131,
    "\u2581getsys": 1132,
    "1e": 1133,
    "\u2581freelibrary": 1134,
    "yn": 1135,
    "77": 1136,
    "\u2581delete": 1137,
    "for": 1138,
    "\u2581getversion": 1139,
    "sa": 1140,
    "\u25810x423d": 1141,
    "\u25810x4e": 1142,
    "\u25810x8d": 1143,
    "cs": 1144,
    "\u25810x32": 1145,
    "a40": 1146,
    "\u2581tls": 1147,
    "bute": 1148,
    "tribute": 1149,
    "\u2581al": 1150,
    "\u25810x5265c14": 1151,
    "ton": 1152,
    "\u2581bor": 1153,
    "\u25810x7de1": 1154,
    "ynch": 1155,
    "tor": 1156,
    "\u25810x4b": 1157,
    "\u25810xfeee0017": 1158,
    "\u25810xb": 1159,
    "ating": 1160,
    "back": 1161,
    "\u25810xfeee0018": 1162,
    "try": 1163,
    "\u2581synch": 1164,
    "leas": 1165,
    "ive": 1166,
    "\u2581gettempw": 1167,
    "ttribute": 1168,
    "dr": 1169,
    "\u2581heapcreate": 1170,
    "\u2581flsfree": 1171,
    "bc0": 1172,
    "\u25810x7ed": 1173,
    "\u25810xfeee0019": 1174,
    "vic": 1175,
    "\u25810x4feb": 1176,
    "\u25810x1211e04": 1177,
    "fileattribute": 1178,
    "vicec": 1179,
    "7e": 1180,
    "\u25810x4350": 1181,
    "clus": 1182,
    "clusive": 1183,
    "rwlockex": 1184,
    "rwlockexclusive": 1185,
    "\u2581borl": 1186,
    "db10": 1187,
    "2e": 1188,
    "\u25810x50000": 1189,
    "33": 1190,
    "callback": 1191,
    "394": 1192,
    "1d": 1193,
    "\u2581setthreadpool": 1194,
    "bers": 1195,
    "lip": 1196,
    "men": 1197,
    "isting": 1198,
    "aps": 1199,
    "keyw": 1200,
    "day": 1201,
    "\u2581borland": 1202,
    "lose": 1203,
    "directorya": 1204,
    "fb": 1205,
    "db10106": 1206,
    "\u25810x1db10106": 1207,
    "\u25810xfeee001c": 1208,
    "\u25810xfeee001a": 1209,
    "\u2581i": 1210,
    "\u2581existing": 1211,
    "fa": 1212,
    "nw": 1213,
    "close": 1214,
    "\u25810x1211f38": 1215,
    "lipboard": 1216,
    "service": 1217,
    "l66": 1218,
    "97": 1219,
    "vie": 1220,
    "section": 1221,
    "\u25810x436": 1222,
    "\u25817": 1223,
    "ame": 1224,
    "9d": 1225,
    "\u2581mapvirtual": 1226,
    "\u2581mapvirtualkeyw": 1227,
    "log": 1228,
    "\u2581tlssetvalue": 1229,
    "\u25810x1211b": 1230,
    "raw": 1231,
    "\u2581tlsalloc": 1232,
    "fromstr": 1233,
    "9e": 1234,
    "\u2581readfile": 1235,
    "\u25810xfeee001b": 1236,
    "l6660": 1237,
    "\u25810x7f8": 1238,
    "21": 1239,
    "280": 1240,
    "\u25810x42c4": 1241,
    "term": 1242,
    "menu": 1243,
    "led": 1244,
    "resource": 1245,
    "\u2581registerc": 1246,
    "b00": 1247,
    "first": 1248,
    "\u25810xfeee0071": 1249,
    "\u25810x169": 1250,
    "work": 1251,
    "esource": 1252,
    "il": 1253,
    "\u25810x1211c7c": 1254,
    "ecount": 1255,
    "\u2581releas": 1256,
    "ies": 1257,
    "\u25810x7f00": 1258,
    "rip": 1259,
    "\u25810x7ec1": 1260,
    "scrip": 1261,
    "\u25810x1211758": 1262,
    "handlecount": 1263,
    "\u25810x11": 1264,
    "\u2581sethandlecount": 1265,
    "mode": 1266,
    "\u2581wait": 1267,
    "view": 1268,
    "\u25810x8b": 1269,
    "descrip": 1270,
    "erw": 1271,
    "\u25810x410": 1272,
    "\u2581getthreadlocale": 1273,
    "\u25810x7e8": 1274,
    "descriptor": 1275,
    "\u25810x1211908": 1276,
    "securitydescriptor": 1277,
    "number": 1278,
    "\u2581wsprintf": 1279,
    "drl6660": 1280,
    "51": 1281,
    "\u2581getenvironment": 1282,
    "dater": 1283,
    "\u2581wnet": 1284,
    "loating": 1285,
    "edc": 1286,
    "96": 1287,
    "\u25810x4c4308": 1288,
    "\u25810xfeee001d": 1289,
    "\u2581getfile": 1290,
    "ailed": 1291,
    "c000": 1292,
    "\u25810x99": 1293,
    "qui": 1294,
    "\u25810x12114b8": 1295,
    "\u25810x1211958": 1296,
    "\u25810x4f": 1297,
    "\u25810x1211718": 1298,
    "\u2581rt": 1299,
    "ffi": 1300,
    "dateresource": 1301,
    "\u2581crtdll": 1302,
    "\u2581rtl": 1303,
    "ename": 1304,
    "directories": 1305,
    "\u2581waitfor": 1306,
    "\u25810xfeee007e": 1307,
    "\u25810x84": 1308,
    "\u2581setdefault": 1309,
    "\u2581registerclass": 1310,
    "dlldirectories": 1311,
    "\u2581setdefaultdlldirectories": 1312,
    "ffile": 1313,
    "\u2581wi": 1314,
    "\u2581getversionexw": 1315,
    "quires": 1316,
    "\u25810x198": 1317,
    "quiresrwlockexclusive": 1318,
    "ee0": 1319,
    "\u25810x64": 1320,
    "logical": 1321,
    "\u2581getlogical": 1322,
    "\u2581shell32": 1323,
    "ke": 1324,
    "eg": 1325,
    "\u25810x1211528": 1326,
    "\u2581creat": 1327,
    "\u25810x19a": 1328,
    "\u25810xf0019": 1329,
    "\u25810x7850": 1330,
    "drl6660drl6660": 1331,
    "\u25810x7810": 1332,
    "c6": 1333,
    "\u25810x79f0": 1334,
    "2a": 1335,
    "ea": 1336,
    "\u25810x700c": 1337,
    "atex": 1338,
    "\u25810x89": 1339,
    "04": 1340,
    "sof": 1341,
    "\u25810x771c": 1342,
    "econ": 1343,
    "utex": 1344,
    "d7": 1345,
    "eb": 1346,
    "next": 1347,
    "\u2581lstrlenw": 1348,
    "\u2581exitprocess": 1349,
    "\u25810x704c": 1350,
    "\u25810x708c": 1351,
    "pa": 1352,
    "\u2581golfinfo": 1353,
    "d9": 1354,
    "\u25810xfeee001e": 1355,
    "\u25810x411": 1356,
    "variab": 1357,
    "\u25810x2c": 1358,
    "\u2581fibers": 1359,
    "\u25810x105": 1360,
    "\u2581beg": 1361,
    "\u25810x28": 1362,
    "\u2581ntdll": 1363,
    "780": 1364,
    "\u25810x1211c90": 1365,
    "c1": 1366,
    "localename": 1367,
    "\u25810x4000": 1368,
    "offile": 1369,
    "cpy": 1370,
    "soft": 1371,
    "ub": 1372,
    "\u2581begin": 1373,
    "icro": 1374,
    "\u2581getsyscolor": 1375,
    "\u25810x1211728": 1376,
    "\u2581wa": 1377,
    "\u25810x5265": 1378,
    "icrosoft": 1379,
    "9f": 1380,
    "df": 1381,
    "\u25810x1e": 1382,
    "\u25810x41bc": 1383,
    "45": 1384,
    "23": 1385,
    "realloc": 1386,
    "\u25810x7930": 1387,
    "\u25810x120e6": 1388,
    "b80": 1389,
    "emap": 1390,
    "emaph": 1391,
    "\u2581microsoft": 1392,
    "\u2581file": 1393,
    "low": 1394,
    "metri": 1395,
    "\u25810xa0": 1396,
    "ink": 1397,
    "formatex": 1398,
    "\u25810x7f800": 1399,
    "\u25810xfeee001f": 1400,
    "\u2581virtualfree": 1401,
    "\u2581comp": 1402,
    "\u25810xfeee0020": 1403,
    "metrics": 1404,
    "\u2581getsystemmetrics": 1405,
    "1f": 1406,
    "c08": 1407,
    "\u25810x3394": 1408,
    "conditionvariable": 1409,
    "\u25810x569": 1410,
    "\u25810x42e5": 1411,
    "\u25810x97": 1412,
    "ov": 1413,
    "lect": 1414,
    "\u2581createsemaph": 1415,
    "lush": 1416,
    "\u2581con": 1417,
    "\u25810x43780": 1418,
    "\u2581compare": 1419,
    "\u2581floating": 1420,
    "\u25810x3f30": 1421,
    "trac": 1422,
    "\u25810x8a40": 1423,
    "bit": 1424,
    "2d": 1425,
    "\u2581getsystemdirectoryw": 1426,
    "\u2581createfilea": 1427,
    "\u2581setmenu": 1428,
    "\u2581pr": 1429,
    "\u2581comparestring": 1430,
    "buff": 1431,
    "initializ": 1432,
    "angu": 1433,
    "\u25810x44f8": 1434,
    "\u2581lstrlena": 1435,
    "servicew": 1436,
    "\u2581wsprintfw": 1437,
    "anguage": 1438,
    "windowexa": 1439,
    "\u2581select": 1440,
    "\u2581failed": 1441,
    "\u25810x1211cf8": 1442,
    "\u25810x4336": 1443,
    "\u25810x1211748": 1444,
    "fileattributesw": 1445,
    "ilanguage": 1446,
    "ocket": 1447,
    "de9": 1448,
    "not": 1449,
    "put": 1450,
    "1b": 1451,
    "72": 1452,
    "\u2581flush": 1453,
    "\u2581up": 1454,
    "\u25810x4630": 1455,
    "informationby": 1456,
    "\u25810x429": 1457,
    "\u2581vari": 1458,
    "een": 1459,
    "\u2581getdc": 1460,
    "mem": 1461,
    "7b": 1462,
    "\u2581heaprealloc": 1463,
    "paint": 1464,
    "\u2581setmenuinfo": 1465,
    "\u25810x42c508": 1466,
    "\u2581e": 1467,
    "sta": 1468,
    "eek": 1469,
    "\u2581currentversion": 1470,
    "\u25810x2000": 1471,
    "clipboard": 1472,
    "\u2581extrac": 1473,
    "buffers": 1474,
    "yo": 1475,
    "\u25810x428": 1476,
    "180": 1477,
    "ockob": 1478,
    "\u2581getstockob": 1479,
    "\u25810x17": 1480,
    "\u25810x8cc0": 1481,
    "dateresourcea": 1482,
    "\u25810x1211518": 1483,
    "erf": 1484,
    "\u2581register": 1485,
    "\u2581st": 1486,
    "\u25810x42c4d8": 1487,
    "\u25810x8f": 1488,
    "erflow": 1489,
    "\u25810x1075": 1490,
    "d3": 1491,
    "\u2581findfirst": 1492,
    "\u25810x7ab0": 1493,
    "\u2581regopenkeyexa": 1494,
    "\u25810xa000": 1495,
    "\u25817z": 1496,
    "\u2581varb": 1497,
    "\u2581initializes": 1498,
    "220": 1499,
    "a256": 1500,
    "\u25810x423": 1501,
    "und": 1502,
    "prot": 1503,
    "\u25810x38": 1504,
    "\u2581try": 1505,
    "\u2581sha256": 1506,
    "point": 1507,
    "\u25810x7830": 1508,
    "og": 1509,
    "\u25810x1211948": 1510,
    "\u25810x1f4": 1511,
    "\u2581tryac": 1512,
    "\u2581tryacquiresrwlockexclusive": 1513,
    "\u25810x1211f64": 1514,
    "300": 1515,
    "\u25810x67": 1516,
    "\u258120": 1517,
    "\u2581findclose": 1518,
    "\u25810x40a5ce": 1519,
    "\u25810x40a5d0": 1520,
    "\u25810x40a5d2": 1521,
    "\u25810x40a5d4": 1522,
    "\u25810x40a5d6": 1523,
    "\u25810x40a5d8": 1524,
    "\u25810x40a5da": 1525,
    "protect": 1526,
    "8000": 1527,
    "trl": 1528,
    "\u25810xfde9": 1529,
    "\u2581loadicona": 1530,
    "art": 1531,
    "\u2581loadcursora": 1532,
    "\u25810x42d508": 1533,
    "\u2581virtualprotect": 1534,
    "c7": 1535,
    "\u2581th": 1536,
    "65": 1537,
    "ock32": 1538,
    "\u2581wsock32": 1539,
    "\u2581ole": 1540,
    "\u2581strn": 1541,
    "\u25810xfeee008b": 1542,
    "\u2581lread": 1543,
    "\u25810x51": 1544,
    "\u25810x4305b0": 1545,
    "\u25810x21000": 1546,
    "ts": 1547,
    "isp": 1548,
    "ef": 1549,
    "\u25810x1211fcc": 1550,
    "\u2581getusername": 1551,
    "\u25810xfeee00f1": 1552,
    "ory": 1553,
    "\u25810xfeee0027": 1554,
    "a00": 1555,
    "\u2581getversionexa": 1556,
    "link": 1557,
    "\u25810x1f400": 1558,
    "zer": 1559,
    "\u2581globalalloc": 1560,
    "cb": 1561,
    "\u25810x3f34": 1562,
    "480": 1563,
    "\u25810xfeee0026": 1564,
    "\u25810x12119c0": 1565,
    "\u25810xfeee0021": 1566,
    "\u25810x4790": 1567,
    "ag": 1568,
    "\u25810xfeee0022": 1569,
    "0000000": 1570,
    "\u25810x42d4d8": 1571,
    "\u2581init": 1572,
    "dac": 1573,
    "tun": 1574,
    "520": 1575,
    "\u25810xfeee0023": 1576,
    "\u25810xfeee0024": 1577,
    "\u25810xfeee0025": 1578,
    "\u2581strncmp": 1579,
    "\u25810x60": 1580,
    "\u25810xfeee005f": 1581,
    "\u25810x94": 1582,
    "lex": 1583,
    "help": 1584,
    "\u2581exe": 1585,
    "\u2581copy": 1586,
    "ision": 1587,
    "ryp": 1588,
    "atch": 1589,
    "\u25810x88a0": 1590,
    "\u2581wake": 1591,
    "\u25810x1211f8": 1592,
    "\u2581wakeall": 1593,
    "\u2581wakeallconditionvariable": 1594,
    "ore": 1595,
    "\u25810x1211f7c": 1596,
    "ed8": 1597,
    "\u2581sprintf": 1598,
    "\u25810x4239": 1599,
    "\u25810x9c": 1600,
    "mutex": 1601,
    "\u25810x12118": 1602,
    "ym": 1603,
    "\u25810x4169": 1604,
    "\u2581peek": 1605,
    "\u2581lstrcpy": 1606,
    "\u2581getde": 1607,
    "59": 1608,
    "\u25810x414": 1609,
    "2f": 1610,
    "3a": 1611,
    "linkw": 1612,
    "\u25810x678": 1613,
    "\u25810x1211fd8": 1614,
    "\u25810x3f75": 1615,
    "\u25810x2e": 1616,
    "ackage": 1617,
    "\u2581draw": 1618,
    "ace": 1619,
    "\u25810x4feba8": 1620,
    "hen": 1621,
    "\u2581start": 1622,
    "\u25810x1211fd0": 1623,
    "\u2581shellex": 1624,
    "\u25810x1a": 1625,
    "ati": 1626,
    "vicecaps": 1627,
    "\u2581getdevicecaps": 1628,
    "tered": 1629,
    "\u25810x98": 1630,
    "allock": 1631,
    "ispatch": 1632,
    "\u2581code": 1633,
    "320": 1634,
    "package": 1635,
    "\u25810x4371": 1636,
    "packageid": 1637,
    "\u2581getcurrentpackageid": 1638,
    "econdition": 1639,
    "\u2581comparestringex": 1640,
    "econditionvariable": 1641,
    "\u2581createprocess": 1642,
    "\u2581getlocaleinfoex": 1643,
    "770": 1644,
    "xt": 1645,
    "\u25810x8e": 1646,
    "\u2581setup": 1647,
    "\u25810x42e": 1648,
    "urn": 1649,
    "\u2581send": 1650,
    "\u2581with": 1651,
    "\u25810x1211738": 1652,
    "\u2581loadiconw": 1653,
    "2b": 1654,
    "\u25810x42d3": 1655,
    "\u25810x1211e2c": 1656,
    "\u2581peekmessagea": 1657,
    "drive": 1658,
    "mutexa": 1659,
    "oy": 1660,
    "ymbo": 1661,
    "3b": 1662,
    "ymbolic": 1663,
    "oper": 1664,
    "\u25810x1f": 1665,
    "ymboliclinkw": 1666,
    "\u2581createsymboliclinkw": 1667,
    "\u25810x1211cc0": 1668,
    "gear": 1669,
    "\u2581codegear": 1670,
    "\u2581altered": 1671,
    "stroy": 1672,
    "\u25810x214": 1673,
    "\u25810xfeee0028": 1674,
    "\u2581ch": 1675,
    "\u25810x460": 1676,
    "\u25810x21": 1677,
    "f35": 1678,
    "\u25810xcc": 1679,
    "ret": 1680,
    "\u2581cryp": 1681,
    "div": 1682,
    "eck": 1683,
    "variablew": 1684,
    "\u25810x44f9": 1685,
    "\u25810x16": 1686,
    "c5": 1687,
    "\u25810x1211dcc": 1688,
    "d04": 1689,
    "\u25814": 1690,
    "mapview": 1691,
    "\u25810x1211e14": 1692,
    "alet": 1693,
    "\u25810x5f5": 1694,
    "ay": 1695,
    "\u25810x4967": 1696,
    "when": 1697,
    "e80": 1698,
    "return": 1699,
    "processwrite": 1700,
    "processornumber": 1701,
    "\u2581flushprocesswrite": 1702,
    "\u2581setthreadpoolwait": 1703,
    "\u2581closethreadpoolwait": 1704,
    "\u2581flushprocesswritebuffers": 1705,
    "\u2581getcurrentprocessornumber": 1706,
    "oreexw": 1707,
    "returns": 1708,
    "callbacks": 1709,
    "whencallback": 1710,
    "timercallbacks": 1711,
    "\u2581waitforthreadpool": 1712,
    "whencallbackreturns": 1713,
    "\u2581createsemaphoreexw": 1714,
    "\u2581setthreadpooltimer": 1715,
    "\u2581closethreadpooltimer": 1716,
    "\u2581createthreadpoolwait": 1717,
    "\u2581createthreadpooltimer": 1718,
    "\u2581freelibrarywhencallbackreturns": 1719,
    "\u2581waitforthreadpooltimercallbacks": 1720,
    "004": 1721,
    "\u2581variant": 1722,
    "\u2581globallock": 1723,
    "\u25810x422": 1724,
    "\u2581loadcursorw": 1725,
    "\u25810xa3": 1726,
    "\u25810x437b": 1727,
    "\u25810x40a": 1728,
    "\u25810x46b0": 1729,
    "\u25810x434": 1730,
    "\u25810x569b00": 1731,
    "wa": 1732,
    "\u25810x9a": 1733,
    "\u25810x15": 1734,
    "ways": 1735,
    "ca": 1736,
    "variant": 1737,
    "\u25810x417": 1738,
    "lp": 1739,
    "\u25810x53": 1740,
    "ct": 1741,
    "6d": 1742,
    "588": 1743,
    "tries": 1744,
    "\u25810xfeee0040": 1745,
    "\u25810x83": 1746,
    "\u25810xfeee0072": 1747,
    "bug": 1748,
    "\u2581always": 1749,
    "92": 1750,
    "operation": 1751,
    "\u25810xb8": 1752,
    "\u25810xfeee0029": 1753,
    "\u2581initterm": 1754,
    "ecomp": 1755,
    "\u2581createwindowexa": 1756,
    "\u2581closes": 1757,
    "\u2581getlogicaldrive": 1758,
    "servicec": 1759,
    "hot": 1760,
    "servicectrl": 1761,
    "\u25810x419c": 1762,
    "\u2581findfirstfilew": 1763,
    "sn": 1764,
    "\u25810x364": 1765,
    "\u25810x85": 1766,
    "\u25810x22": 1767,
    "atible": 1768,
    "e3": 1769,
    "\u2581setthread": 1770,
    "ec0": 1771,
    "86": 1772,
    "ecompatible": 1773,
    "\u2581createcompatible": 1774,
    "iv": 1775,
    "strfrom": 1776,
    "\u2581varbstrfrom": 1777,
    "\u25810x8230": 1778,
    "\u25810x101": 1779,
    "\u2581error": 1780,
    "conne": 1781,
    "a04": 1782,
    "system": 1783,
    "\u25810xfeee002a": 1784,
    "\u25810x42d8": 1785,
    "\u25810xa9": 1786,
    "debug": 1787,
    "\u25810xfeee005d": 1788,
    "ated": 1789,
    "\u25810x25": 1790,
    "\u2581createa": 1791,
    "chan": 1792,
    "\u25810x7aa0": 1793,
    "\u25810x1211fd4": 1794,
    "\u2581getenvironmentvariablew": 1795,
    "\u25810x8920": 1796,
    "help32": 1797,
    "oolhelp32": 1798,
    "snaps": 1799,
    "oolhelp32snaps": 1800,
    "\u2581createtoolhelp32snaps": 1801,
    "5f": 1802,
    "\u2581createtoolhelp32snapshot": 1803,
    "c04": 1804,
    "c2": 1805,
    "own": 1806,
    "\u2581getuserdefault": 1807,
    "ush": 1808,
    "messagew": 1809,
    "210": 1810,
    "lec": 1811,
    "\u25810x42b9": 1812,
    "\u2581deletecriticalsection": 1813,
    "380": 1814,
    "61": 1815,
    "ssoc": 1816,
    "\u25810x439": 1817,
    "ssoci": 1818,
    "\u25810x79d0": 1819,
    "53": 1820,
    "52": 1821,
    "untime": 1822,
    "tok": 1823,
    "\u25810x1b": 1824,
    "5e": 1825,
    "2f8": 1826,
    "brush": 1827,
    "termin": 1828,
    "\u2581releasedc": 1829,
    "\u25810xfeee01": 1830,
    "\u25810x2f": 1831,
    "\u25810xfeee0046": 1832,
    "\u2581enum": 1833,
    "\u25810x7ad0": 1834,
    "\u25810x1211bc0": 1835,
    "tes": 1836,
    "token": 1837,
    "\u25810x6781": 1838,
    "\u2581wc": 1839,
    "268": 1840,
    "\u2581deletefilew": 1841,
    "\u2581termin": 1842,
    "\u2581initialize": 1843,
    "ast": 1844,
    "d80": 1845,
    "\u25810x3c": 1846,
    "ecta": 1847,
    "\u2581gettime": 1848,
    "\u2581hton": 1849,
    "\u2581txt": 1850,
    "\u25810x1211ee0": 1851,
    "\u25810xfeee007c": 1852,
    "\u25810x9030": 1853,
    "dacl": 1854,
    "securitydescriptordacl": 1855,
    "connection": 1856,
    "\u2581initializesecuritydescriptor": 1857,
    "2w": 1858,
    "\u25813": 1859,
    "\u25810xfeee002c": 1860,
    "connection2w": 1861,
    "57": 1862,
    "\u25810x53000": 1863,
    "\u2581setsecuritydescriptordacl": 1864,
    "\u25810x7540": 1865,
    "de0": 1866,
    "\u25810x1211dd4": 1867,
    "\u2581app": 1868,
    "\u25810x1211780": 1869,
    "\u2581getfileattributesw": 1870,
    "sti": 1871,
    "13": 1872,
    "\u25810xfeee002b": 1873,
    "\u2581un": 1874,
    "\u25810x1211f00": 1875,
    "tassoci": 1876,
    "atedicon": 1877,
    "\u2581extractassoci": 1878,
    "\u2581extractassociatedicon": 1879,
    "\u25810x12119ac": 1880,
    "\u25810xfeee002d": 1881,
    "\u25810xfeee002f": 1882,
    "188": 1883,
    "head": 1884,
    "\u25810x1211f28": 1885,
    "\u25810x7b80": 1886,
    "\u2581beginup": 1887,
    "a9a0": 1888,
    "\u25810x1804": 1889,
    "\u25810x188": 1890,
    "ref": 1891,
    "\u25810x42a1": 1892,
    "\u25810xfeee0074": 1893,
    "22030": 1894,
    "93c": 1895,
    "\u25812022030": 1896,
    "\u25810xfeee002e": 1897,
    "sup": 1898,
    "\u25810x12117f8": 1899,
    "old": 1900,
    "688": 1901,
    "\u2581mon": 1902,
    "\u25810xfeee006b": 1903,
    "338": 1904,
    "\u25810x567": 1905,
    "\u25810x42a9a0": 1906,
    "\u25810xfeee006d": 1907,
    "lphi": 1908,
    "\u2581delphi": 1909,
    "ger": 1910,
    "cel": 1911,
    "\u25810x48f8": 1912,
    "\u25810x44f8e0": 1913,
    "listhead": 1914,
    "\u25810x436390": 1915,
    "\u2581initializeslisthead": 1916,
    "\u25810xfeee0045": 1917,
    "\u25810x5f500000": 1918,
    "62": 1919,
    "valu": 1920,
    "\u25810xfeee0030": 1921,
    "refer": 1922,
    "\u2581fon": 1923,
    "ho": 1924,
    "\u2581fonts": 1925,
    "arg": 1926,
    "\u25810xfeee0031": 1927,
    "110": 1928,
    "\u25810xfeee009a": 1929,
    "lecs": 1930,
    "variablecs": 1931,
    "\u2581sleepcondition": 1932,
    "\u2581sleepconditionvariablecs": 1933,
    "\u2581createthread": 1934,
    "stitu": 1935,
    "408": 1936,
    "ubstitu": 1937,
    "ubstitutes": 1938,
    "\u2581fontsubstitutes": 1939,
    "\u2581malloc": 1940,
    "\u25810x4c32": 1941,
    "\u25810x68": 1942,
    "input": 1943,
    "\u25810xfeee0044": 1944,
    "\u25810x1211578": 1945,
    "\u25810x1211308": 1946,
    "\u25810x1210f35": 1947,
    "\u25810x437880": 1948,
    "\u258132": 1949,
    "\u2581rec": 1950,
    "73": 1951,
    "\u25810xfeee005e": 1952,
    "\u25810x96": 1953,
    "\u2581ole32": 1954,
    "cad": 1955,
    "\u2581getsysteminfo": 1956,
    "63": 1957,
    "\u2581getdate": 1958,
    "\u25810x5a": 1959,
    "gd": 1960,
    "\u25810x42a40": 1961,
    "isk": 1962,
    "\u2581update": 1963,
    "\u2581ntopen": 1964,
    "\u25810xfeee0043": 1965,
    "\u25810x1211508": 1966,
    "class": 1967,
    "5d": 1968,
    "\u2581ntopensection": 1969,
    "\u25810xfeee0047": 1970,
    "6e": 1971,
    "\u25810x3e": 1972,
    "\u25810xfeee0033": 1973,
    "\u25810xfeee0032": 1974,
    "\u25810xfeee0035": 1975,
    "\u25810xfeee0048": 1976,
    "\u25810x1211f2c": 1977,
    "\u25810xfeee0034": 1978,
    "118": 1979,
    "\u25810xfeee003b": 1980,
    "\u25810x424": 1981,
    "\u25810xfeee0036": 1982,
    "\u25810xfeee0037": 1983,
    "\u2581show": 1984,
    "\u25810x42a190": 1985,
    "\u25810xfeee0049": 1986,
    "\u25810x86": 1987,
    "\u25810x7bd0": 1988,
    "\u25810xfeee0038": 1989,
    "\u25810x412": 1990,
    "\u25810xfeee0039": 1991,
    "\u25810xfeee0041": 1992,
    "\u25810xfeee003f": 1993,
    "\u25810xfeee0042": 1994,
    "\u25810xfeee0062": 1995,
    "\u25810x80000000": 1996,
    "\u25810x1211928": 1997,
    "cy": 1998,
    "\u25810xfeee003a": 1999,
    "\u25810xfeee003d": 2000,
    "\u25810x3f2000": 2001,
    "\u25810xfeee003e": 2002,
    "\u25810xfeee003c": 2003,
    "\u25810x655": 2004,
    "\u25810x6d": 2005,
    "e44": 2006,
    "9a": 2007,
    "\u2581createdirectorya": 2008,
    "\u2581process32next": 2009,
    "redu": 2010,
    "referredu": 2011,
    "referreduilanguage": 2012,
    "threadp": 2013,
    "threadpreferreduilanguage": 2014,
    "\u2581loc": 2015,
    "\u25810x6b": 2016,
    "threadpreferreduilanguages": 2017,
    "\u2581localiz": 2018,
    "\u2581localization": 2019,
    "\u2581enumsystem": 2020,
    "7f": 2021,
    "\u25810xa1": 2022,
    "\u2581createmutexa": 2023,
    "allocate": 2024,
    "\u25810x3f34c0": 2025,
    "\u25810xfeee0053": 2026,
    "\u25810xfeee0060": 2027,
    "\u25810xfeee0065": 2028,
    "\u25810xfeee004a": 2029,
    "\u25810xfeee005c": 2030,
    "\u25818": 2031,
    "\u25810xfeee0066": 2032,
    "\u25810xfeee0067": 2033,
    "\u25810x65500000": 2034,
    "\u25810x42b0": 2035,
    "\u25810x169bf": 2036,
    "\u25810xfeee0061": 2037,
    "nextw": 2038,
    "\u25810xfeee004d": 2039,
    "\u25810xfeee005a": 2040,
    "\u25810xfeee004b": 2041,
    "\u25810xfeee004c": 2042,
    "\u2581po": 2043,
    "\u25810xfeee005b": 2044,
    "\u25810x29": 2045,
    "\u25810xfeee0050": 2046,
    "\u25810xfeee0073": 2047,
    "\u25810xfeee0063": 2048,
    "\u25810xfeee004e": 2049,
    "\u25810xfeee0055": 2050,
    "\u25810xfeee0054": 2051,
    "\u25810xfeee004f": 2052,
    "\u25810xfeee0051": 2053,
    "oct": 2054,
    "\u25810xfeee0052": 2055,
    "\u25810xfeee0068": 2056,
    "leob": 2057,
    "e08": 2058,
    "\u25810xfeee0056": 2059,
    "\u25810xfeee0057": 2060,
    "\u25810xfeee0058": 2061,
    "\u25810x42b9a0": 2062,
    "208": 2063,
    "\u2581createdirectoryw": 2064,
    "\u25810xfeee0059": 2065,
    "f04": 2066,
    "\u25810x4fec": 2067,
    "\u2581crypt": 2068,
    "text": 2069,
    "\u25810x7a80": 2070,
    "ain": 2071,
    "\u2581end": 2072,
    "\u25810x4c42d8": 2073,
    "\u25810x4c42f0": 2074,
    "\u2581gettickcount64": 2075,
    "\u25810xfeee0064": 2076,
    "\u25810x7150": 2077,
    "variablea": 2078,
    "\u25810x39": 2079,
    "\u25810xfeee0075": 2080,
    "\u2581getmessagea": 2081,
    "\u25810x4bc": 2082,
    "\u25810x72a0": 2083,
    "\u25810x73f0": 2084,
    "\u25810xfeee0081": 2085,
    "\u25810xfeee0070": 2086,
    "\u2581process32nextw": 2087,
    "\u2581recv": 2088,
    "\u2581enumsystemlocales": 2089,
    "\u25810xfeee006c": 2090,
    "\u2581q": 2091,
    "\u25810x40933d": 2092,
    "\u25810x40933e": 2093,
    "\u25810x40933f": 2094,
    "\u25810x409340": 2095,
    "\u25810x409341": 2096,
    "\u25810x409342": 2097,
    "resourcew": 2098,
    "\u25810x409343": 2099,
    "\u2581windowsnt": 2100,
    "\u2581createw": 2101,
    "\u2581getuserdefaultlocalename": 2102,
    "kar": 2103,
    "\u2581king": 2104,
    "karton": 2105,
    "\u2581registerclassexa": 2106,
    "\u25810x7690": 2107,
    "\u25810x41f3": 2108,
    "c9": 2109,
    "\u2581isvalidlocalename": 2110,
    "\u2581getdateformatex": 2111,
    "\u2581gettimeformatex": 2112,
    "\u2581enumsystemlocalesex": 2113,
    "windowproc": 2114,
    "mage": 2115,
    "\u25810xfeee006f": 2116,
    "fold": 2117,
    "\u2581out": 2118,
    "\u25810x6781d8": 2119,
    "\u25810xfeee006e": 2120,
    "\u2581initializeconditionvariable": 2121,
    "\u25810x77e0": 2122,
    "\u25810xfeee006a": 2123,
    "memory": 2124,
    "sing": 2125,
    "5b": 2126,
    "\u2581kingkarton": 2127,
    "\u2581findnext": 2128,
    "\u25810xfeee0069": 2129,
    "zero": 2130,
    "ray": 2131,
    "keyboard": 2132,
    "localtime": 2133,
    "bits": 2134,
    "\u2581hgd": 2135,
    "\u2581hgdraw": 2136,
    "\u2581getusernamea": 2137,
    "\u25810x42e5b0": 2138,
    "a58": 2139,
    "\u2581loadlibraryw": 2140,
    "ord": 2141,
    "\u2581getkeyboard": 2142,
    "\u25810x8280": 2143,
    "\u25810x7d10": 2144,
    "\u25810x433648": 2145,
    "b04": 2146,
    "\u25810x7df0": 2147,
    "\u25810x1211f34": 2148,
    "\u25810x8a80": 2149,
    "ong": 2150,
    "\u2581def": 2151,
    "drl6660drl6660drl6660drl6660": 2152,
    "\u25810x80c4": 2153,
    "\u2581getlocaltime": 2154,
    "\u2581golfset": 2155,
    "\u2581deletefilea": 2156,
    "\u25810x1211dc8": 2157,
    "\u25810x23": 2158,
    "\u25810x1211d04": 2159,
    "\u2581showwindow": 2160,
    "\u25810x3bc": 2161,
    "data": 2162,
    "388": 2163,
    "\u25810x12112f8": 2164,
    "\u25810x78f0": 2165,
    "valueexw": 2166,
    "\u25810x7cd0": 2167,
    "\u25810x1211a": 2168,
    "\u25810x1211fc8": 2169,
    "singleob": 2170,
    "\u25810x42c5": 2171,
    "\u2581getd": 2172,
    "\u2581defwindowproc": 2173,
    "\u25810x1211fc4": 2174,
    "12000": 2175,
    "array": 2176,
    "\u25810x527": 2177,
    "\u2581getlogicalprocessor": 2178,
    "\u25810xfeee0089": 2179,
    "\u25810x410770": 2180,
    "\u2581getlogicalprocessorinformation": 2181,
    "windows": 2182,
    "load": 2183,
    "\u2581getfileinformationby": 2184,
    "\u25810x7d50": 2185,
    "\u2581waitforsingleob": 2186,
    "\u25810x1211c04": 2187,
    "\u2581trans": 2188,
    "\u25810x1211f30": 2189,
    "\u25810xfeee008a": 2190,
    "stack": 2191,
    "ug": 2192,
    "guar": 2193,
    "antee": 2194,
    "guarantee": 2195,
    "stackguarantee": 2196,
    "\u2581setthreadstackguarantee": 2197,
    "\u25810x1211fc0": 2198,
    "\u25810x4800": 2199,
    "6f": 2200,
    "\u2581olea": 2201,
    "main": 2202,
    "\u25810x7ee0": 2203,
    "\u2581updatewindow": 2204,
    "\u25810x1211a04": 2205,
    "ask": 2206,
    "\u25810x404": 2207,
    "\u2581registry": 2208,
    "7a": 2209,
    "9b": 2210,
    "\u25810x1211f4c": 2211,
    "\u25810xa8": 2212,
    "\u25810xfeee0078": 2213,
    "\u25810xfeee0077": 2214,
    "\u25810x527ed8": 2215,
    "\u25810x7db0": 2216,
    "\u25810xfeee0079": 2217,
    "\u25810xfeee0076": 2218,
    "64000": 2219,
    "\u25810x408": 2220,
    "typ": 2221,
    "\u25810xfeee007a": 2222,
    "\u2581lstrcmp": 2223,
    "cd": 2224,
    "\u25810x92": 2225,
    "vol": 2226,
    "\u2581nov": 2227,
    "\u2581sep": 2228,
    "bitmap": 2229,
    "d08": 2230,
    "stringsa": 2231,
    "\u2581com": 2232,
    "c80": 2233,
    "\u25810x42b": 2234,
    "\u25810xfeee007f": 2235,
    "\u25810x121193c": 2236,
    "\u25810xffff": 2237,
    "\u2581beginpaint": 2238,
    "696": 2239,
    "\u2581getfileinformationbyhandl": 2240,
    "\u25810x7f0": 2241,
    "\u2581endpaint": 2242,
    "c3": 2243,
    "ec8": 2244,
    "closekey": 2245,
    "\u2581regclosekey": 2246,
    "\u25810x36": 2247,
    "d0a": 2248,
    "\u2581apr": 2249,
    "\u2581aug": 2250,
    "ember": 2251,
    "ume": 2252,
    "\u2581destroy": 2253,
    "\u2581sun": 2254,
    "volume": 2255,
    "\u2581globalfree": 2256,
    "pos": 2257,
    "\u25810x42fc": 2258,
    "\u25810xfeee010": 2259,
    "fe8": 2260,
    "uary": 2261,
    "\u2581may": 2262,
    "sday": 2263,
    "\u2581tue": 2264,
    "\u2581wed": 2265,
    "f00": 2266,
    "\u25810x7be0": 2267,
    "teen": 2268,
    "aletteen": 2269,
    "aletteentries": 2270,
    "\u25810x7e80": 2271,
    "\u2581setfileinformationby": 2272,
    "140": 2273,
    "\u2581createexw": 2274,
    "580": 2275,
    "quit": 2276,
    "\u25810x4094": 2277,
    "spec": 2278,
    "\u2581shellexecute": 2279,
    "\u25810x33": 2280,
    "\u2581post": 2281,
    "\u25810x1211e08": 2282,
    "\u25810xfeee0080": 2283,
    "\u25810x7e74": 2284,
    "down": 2285,
    "\u25810x7d95": 2286,
    "400": 2287,
    "\u25810x7e75": 2288,
    "rect": 2289,
    "a18": 2290,
    "\u25810x7e78": 2291,
    "\u25810x7e79": 2292,
    "\u25810x7e7c": 2293,
    "\u25810x7d94": 2294,
    "host": 2295,
    "\u25810x7e7d": 2296,
    "orsa": 2297,
    "suped": 2298,
    "\u25810x1d": 2299,
    "volumeinformation": 2300,
    "\u2581getsystemp": 2301,
    "\u2581getsystempaletteentries": 2302,
    "\u2581getvolumeinformation": 2303,
    "900": 2304,
    "b7c": 2305,
    "\u25810x4620": 2306,
    "\u2581floatingpoin": 2307,
    "\u2581invalidvariant": 2308,
    "overflow": 2309,
    "byzero": 2310,
    "isionbyzero": 2311,
    "\u2581setwindow": 2312,
    "\u25810x7e81": 2313,
    "\u25810x5b": 2314,
    "\u25810xfeee007d": 2315,
    "\u25810xfeee0095": 2316,
    "\u25810x1211cdc": 2317,
    "inal": 2318,
    "\u25810x1211f20": 2319,
    "\u25810x8814": 2320,
    "\u2581registerwindow": 2321,
    "ysical": 2322,
    "mapp": 2323,
    "\u25810x43b8": 2324,
    "ac0": 2325,
    "\u25810xfeee008e": 2326,
    "\u2581getenvironmentvariablea": 2327,
    "\u2581varr": 2328,
    "hysical": 2329,
    "4fromstr": 2330,
    "\u25810x4e5": 2331,
    "\u2581regset": 2332,
    "fileattributesa": 2333,
    "\u25810x7e84": 2334,
    "\u25810x7e85": 2335,
    "mapping": 2336,
    "filemapping": 2337,
    "fearray": 2338,
    "\u25810x10000": 2339,
    "\u2581contr": 2340,
    "\u2581physical": 2341,
    "your": 2342,
    "10c": 2343,
    "\u25810x2d4": 2344,
    "368": 2345,
    "late": 2346,
    "\u2581translate": 2347,
    "\u25810xfeee0082": 2348,
    "\u25810x431f": 2349,
    "\u25810xa7": 2350,
    "\u25810xe0": 2351,
    "3f8": 2352,
    "\u2581ws2": 2353,
    "692": 2354,
    "e40": 2355,
    "\u25810x4710": 2356,
    "\u2581conne": 2357,
    "state": 2358,
    "\u25810x1211768": 2359,
    "\u25810xfeee008c": 2360,
    "texta": 2361,
    "se": 2362,
    "\u25810x8815": 2363,
    "ce8": 2364,
    "\u25810x9d": 2365,
    "\u2581getf": 2366,
    "\u25810x7bf0": 2367,
    "\u25810x7b90": 2368,
    "\u25810x3f75f": 2369,
    "orsafearray": 2370,
    "\u25810xfeee008d": 2371,
    "\u25810x40a5dc": 2372,
    "\u25810xfeee007b": 2373,
    "\u25810x40a5cc": 2374,
    "e6b": 2375,
    "\u25810x37": 2376,
    "\u25810xfeee0084": 2377,
    "\u25810x78c0": 2378,
    "\u2581dispatch": 2379,
    "e66": 2380,
    "\u25810x57": 2381,
    "\u2581image": 2382,
    "\u25810x4015": 2383,
    "\u25810x1210d": 2384,
    "\u25810x6a6": 2385,
    "\u2581createfilemapping": 2386,
    "long": 2387,
    "ow64": 2388,
    "328": 2389,
    "980": 2390,
    "ordinal": 2391,
    "atet": 2392,
    "gro": 2393,
    "\u2581ordinal": 2394,
    "\u25810x42c588": 2395,
    "\u25810x52": 2396,
    "ervice": 2397,
    "\u25810x41678": 2398,
    "\u25810x6c": 2399,
    "\u25810xa2": 2400,
    "ac000": 2401,
    "\u25810x4428": 2402,
    "change": 2403,
    "\u25810x61": 2404,
    "\u25810xfeee0087": 2405,
    "\u25810x2d": 2406,
    "\u25810xa5": 2407,
    "files": 2408,
    "\u25810xfeee0088": 2409,
    "5a": 2410,
    "3c000": 2411,
    "\u2581getmain": 2412,
    "\u25810x1211ef0": 2413,
    "\u25810x43500": 2414,
    "anag": 2415,
    "ini": 2416,
    "nal": 2417,
    "\u25810xfeee0083": 2418,
    "\u25810x121194c": 2419,
    "sid": 2420,
    "initialize": 2421,
    "riv": 2422,
    "\u25810x59": 2423,
    "\u25810xfeee0085": 2424,
    "tou": 2425,
    "errormode": 2426,
    "\u25810xfeee0086": 2427,
    "yarg": 2428,
    "\u2581seterrormode": 2429,
    "ed4": 2430,
    "\u2581createfilemappinga": 2431,
    "114": 2432,
    "\u2581postquit": 2433,
    "\u2581postquitmessage": 2434,
    "\u2581shget": 2435,
    "textou": 2436,
    "\u2581getsystemdirectorya": 2437,
    "\u2581gettempa": 2438,
    "wow64": 2439,
    "\u25810x1211dfc": 2440,
    "\u2581translatemessage": 2441,
    "39000": 2442,
    "\u25810x416b": 2443,
    "\u25810xfeee008f": 2444,
    "\u25810x7de4": 2445,
    "new": 2446,
    "rag": 2447,
    "\u25810xfeee0090": 2448,
    "350": 2449,
    "\u25810x4d70": 2450,
    "\u25810x12117a4": 2451,
    "6a": 2452,
    "\u25810x121157c": 2453,
    "\u25810x7de5": 2454,
    "\u2581check": 2455,
    "\u25810x4bd0": 2456,
    "\u25810x4340": 2457,
    "am": 2458,
    "\u2581createprocessa": 2459,
    "\u25810x9020": 2460,
    "69000": 2461,
    "\u25810x80e0": 2462,
    "ut32": 2463,
    "\u2581oleaut32": 2464,
    "708": 2465,
    "ust": 2466,
    "\u2581regsetvalueexw": 2467,
    "\u2581imagelist": 2468,
    "\u25810x48f898": 2469,
    "ad000": 2470,
    "54000": 2471,
    "\u2581getcurrentdirectoryw": 2472,
    "\u25810x58de": 2473,
    "a5000": 2474,
    "ty": 2475,
    "speci": 2476,
    "\u25810xfeee0092": 2477,
    "646": 2478,
    "\u25810x1211fdc": 2479,
    "enum": 2480,
    "\u25810x4363": 2481,
    "\u25810x1211f88": 2482,
    "ows": 2483,
    "b08": 2484,
    "\u25810x44f928": 2485,
    "26000": 2486,
    "icode": 2487,
    "bc000": 2488,
    "b8000": 2489,
    "\u25810x5f": 2490,
    "\u2581allocate": 2491,
    "bl": 2492,
    "unlock": 2493,
    "cf": 2494,
    "\u25810x437a": 2495,
    "32000": 2496,
    "\u25810x95": 2497,
    "24000": 2498,
    "box": 2499,
    "34000": 2500,
    "\u25810x4e50": 2501,
    "\u25810x78a0": 2502,
    "securityinfo": 2503,
    "9c000": 2504,
    "\u2581registerclassexw": 2505,
    "48000": 2506,
    "\u25810x42c0": 2507,
    "\u25810xfeee0094": 2508,
    "a8000": 2509,
    "bc8": 2510,
    "\u2581iswow64": 2511,
    "\u2581iswow64process": 2512,
    "7c000": 2513,
    "28000": 2514,
    "\u25810x525": 2515,
    "\u25810x31": 2516,
    "56000": 2517,
    "74000": 2518,
    "5c000": 2519,
    "38000": 2520,
    "a4000": 2521,
    "6c000": 2522,
    "\u2581mapview": 2523,
    "icodestring": 2524,
    "\u2581defwindowproca": 2525,
    "b4000": 2526,
    "mapviewof": 2527,
    "mapviewofsection": 2528,
    "93000": 2529,
    "98000": 2530,
    "\u25810xfeee0091": 2531,
    "\u2581globalunlock": 2532,
    "\u25810x40a9": 2533,
    "78000": 2534,
    "initun": 2535,
    "\u2581rtlinitun": 2536,
    "\u2581rtlinitunicodestring": 2537,
    "2c000": 2538,
    "c4000": 2539,
    "58000": 2540,
    "pe": 2541,
    "68000": 2542,
    "\u2581findwindow": 2543,
    "937": 2544,
    "tate": 2545,
    "nexec": 2546,
    "\u2581mapviewoffile": 2547,
    "94000": 2548,
    "\u2581dispatchmessagea": 2549,
    "6b": 2550,
    "88000": 2551,
    "4c000": 2552,
    "bk": 2553,
    "\u2581runtime": 2554,
    "\u25810xfeee0093": 2555,
    "\u2581bat": 2556,
    "\u2581deleteob": 2557,
    "\u2581res": 2558,
    "\u25810x1211f48": 2559,
    "\u2581registerwindowmessagew": 2560,
    "ground": 2561,
    "\u2581setfileattributesa": 2562,
    "3696": 2563,
    "manag": 2564,
    "\u25810x4189": 2565,
    "cept": 2566,
    "\u25810x107568": 2567,
    "\u25810xfeee0098": 2568,
    "\u258110": 2569,
    "e6669": 2570,
    "\u25810d0a": 2571,
    "e6b692": 2572,
    "3696e6b692": 2573,
    "3696e6b692e6669": 2574,
    "\u25810x1211938": 2575,
    "\u25810xfeee0099": 2576,
    "uter": 2577,
    "ethread": 2578,
    "\u25810x40f6": 2579,
    "\u25810x40152c": 2580,
    "f08": 2581,
    "\u25810x58c0": 2582,
    "\u2581copyfilea": 2583,
    "f8000": 2584,
    "\u25810xfeee0097": 2585,
    "680": 2586,
    "endoffile": 2587,
    "\u25810xfeee0096": 2588,
    "\u2581winexec": 2589,
    "ofc": 2590,
    "\u2581san": 2591,
    "\u25810xfeee009b": 2592,
    "computer": 2593,
    "blt": 2594,
    "\u25810xfeee009c": 2595,
    "f0000": 2596,
    "\u25810x4169c0": 2597,
    "\u25810x4169c1": 2598,
    "\u25810x42a": 2599,
    "\u25810x97a0": 2600,
    "\u25810x42cd": 2601,
    "\u25810x4febf0": 2602,
    "fo": 2603,
    "\u25810x42d3d8": 2604,
    "42": 2605,
    "\u25810x9b": 2606,
    "ternal": 2607,
    "\u2581er": 2608,
    "\u25810x35": 2609,
    "wi": 2610,
    "\u25810xc00": 2611,
    "\u25810x519": 2612,
    "\u25810x8cf0": 2613,
    "\u25810x3f4000": 2614,
    "fdr": 2615,
    "46": 2616,
    "oreground": 2617,
    "oregroundwindow": 2618,
    "\u2581sanfdr": 2619,
    "a17": 2620,
    "setinformation": 2621,
    "e4000": 2622,
    "bar": 2623,
    "\u25810x41bc20": 2624,
    "\u2581v": 2625,
    "\u25810x7090": 2626,
    "\u25810x1211c14": 2627,
    "\u2581accept": 2628,
    "\u25810x2b": 2629,
    "\u25810xa6": 2630,
    "\u25810x42d390": 2631,
    "\u25810x3f3000": 2632,
    "\u25810x41f": 2633,
    "988": 2634,
    "\u25810xa429": 2635,
    "bkcolor": 2636,
    "\u2581op": 2637,
    "\u2581heapsetinformation": 2638,
    "\u25810x7ee00": 2639,
    "\u2581failedto": 2640,
    "\u2581selectob": 2641,
    "\u2581textou": 2642,
    "\u25810x40a58": 2643,
    "\u25810x42a7": 2644,
    "\u2581setfileattributesw": 2645,
    "ull": 2646,
    "\u25810x41de": 2647,
    "\u25810x5d": 2648,
    "0x": 2649,
    "\u2581error0x": 2650,
    "\u2581process32first": 2651,
    "\u25810x1211f04": 2652,
    "\u25810x46e0": 2653,
    "out": 2654,
    "ccc": 2655,
    "mask": 2656,
    "\u2581z": 2657,
    "\u2581u": 2658,
    "pro": 2659,
    "\u25810x91": 2660,
    "\u25810x437ad": 2661,
    "\u25810x437c4": 2662,
    "\u25810x437bc": 2663,
    "\u25810x4371e6": 2664,
    "\u25810x4371e7": 2665,
    "\u25810x99e0": 2666,
    "\u25810x4227": 2667,
    "ontin": 2668,
    "\u25810x43b7c": 2669,
    "once": 2670,
    "\u25810x43b7b9": 2671,
    "\u25810x43b7c3": 2672,
    "\u2581seten": 2673,
    "\u25810x42e0": 2674,
    "\u2581getlogicaldrivestringsa": 2675,
    "ad4": 2676,
    "lid": 2677,
    "\u25810x5265c28": 2678,
    "\u25810x42ce": 2679,
    "\u25810x4317": 2680,
    "can": 2681,
    "artup": 2682,
    "ee8": 2683,
    "ystate": 2684,
    "\u25810xb4": 2685,
    "\u2581findnextfilew": 2686,
    "\u25810x20000": 2687,
    "servicectrlhandl": 2688,
    "\u2581registerservicectrlhandl": 2689,
    "ator": 2690,
    "\u25810x56bb": 2691,
    "\u2581drag": 2692,
    "\u25810x432": 2693,
    "788": 2694,
    "\u2581setbkcolor": 2695,
    "\u25810x67000000": 2696,
    "\u25810x4315": 2697,
    "\u25810x567a40": 2698,
    "\u2581resum": 2699,
    "\u2581resumethread": 2700,
    "app": 2701,
    "terect": 2702,
    "\u2581sendmessagea": 2703,
    "\u2581deletedc": 2704,
    "\u2581closesocket": 2705,
    "lw": 2706,
    "\u2581createprocessw": 2707,
    "emutex": 2708,
    "\u2581releasemutex": 2709,
    "\u25810x3f22": 2710,
    "fac": 2711,
    "\u2581drawtexta": 2712,
    "\u25810x4308": 2713,
    "\u2581getnumber": 2714,
    "\u25810x6b9": 2715,
    "\u25810x12113": 2716,
    "\u2581bit": 2717,
    "ervicehandle": 2718,
    "\u2581closeservicehandle": 2719,
    "ofconsole": 2720,
    "\u2581getnumberofconsole": 2721,
    "\u25810x55": 2722,
    "\u25810x1211b04": 2723,
    "\u2581exitthread": 2724,
    "scmanag": 2725,
    "\u2581openscmanag": 2726,
    "\u25810x46b3": 2727,
    "\u25810x7300": 2728,
    "\u2581getforegroundwindow": 2729,
    "\u2581unmapview": 2730,
    "\u2581unmapviewoffile": 2731,
    "\u2581mpr": 2732,
    "\u2581createcompatibledc": 2733,
    "textcolor": 2734,
    "\u25810x4319": 2735,
    "\u2581bitblt": 2736,
    "aterect": 2737,
    "atethread": 2738,
    "\u25810x3d": 2739,
    "\u2581setwindowpos": 2740,
    "\u25810x423e": 2741,
    "\u2581terminatethread": 2742,
    "\u25810x7900": 2743,
    "\u25810x1210f8": 2744,
    "\u2581textouta": 2745,
    "\u2581remo": 2746,
    "cc8": 2747,
    "e88": 2748,
    "ivi": 2749,
    "freesp": 2750,
    "\u2581getdisk": 2751,
    "\u2581getdiskfreesp": 2752,
    "\u25810x417d": 2753,
    "\u2581settextcolor": 2754,
    "dup": 2755,
    "\u2581exed": 2756,
    "\u2581getdi": 2757,
    "\u2581createcompatiblebitmap": 2758,
    "esid": 2759,
    "andinitializ": 2760,
    "andinitializesid": 2761,
    "\u2581allocateandinitializesid": 2762,
    "usp": 2763,
    "\u25810x7e0": 2764,
    "\u25810x8d80": 2765,
    "\u25810x423818": 2766,
    "\u2581exedows": 2767,
    "\u25810x40f": 2768,
    "a88": 2769,
    "\u2581point": 2770,
    "dispatch": 2771,
    "\u2581startservicectrl": 2772,
    "\u2581startservicectrldispatch": 2773,
    "\u2581openscmanagerw": 2774,
    "rata": 2775,
    "\u2581prec": 2776,
    "\u2581errata": 2777,
    "\u2581precision": 2778,
    "\u2581getthreadpreferreduilanguages": 2779,
    "ivile": 2780,
    "\u2581geticon": 2781,
    "\u2581openservicew": 2782,
    "\u25810x431998": 2783,
    "\u2581startservicectrldispatcherw": 2784,
    "\u2581setservice": 2785,
    "\u2581setservicestatus": 2786,
    "a08": 2787,
    "68c": 2788,
    "\u25810x42a0": 2789,
    "\u2581startservicew": 2790,
    "ff8": 2791,
    "\u25810x84b0": 2792,
    "\u25810x8310": 2793,
    "\u2581createservicew": 2794,
    "\u2581getke": 2795,
    "\u2581getkeystate": 2796,
    "\u2581gb": 2797,
    "inputs": 2798,
    "\u2581getnumberofconsoleinputs": 2799,
    "a44": 2800,
    "longa": 2801,
    "\u2581createdi": 2802,
    "\u2581copyfilew": 2803,
    "\u25810x3410c": 2804,
    "\u25810x421": 2805,
    "\u2581findwindowa": 2806,
    "ope": 2807,
    "enthread": 2808,
    "\u25810x4730": 2809,
    "\u25810x40a3": 2810,
    "slen": 2811,
    "opene": 2812,
    "\u2581openthread": 2813,
    "you": 2814,
    "\u25810x51a": 2815,
    "\u2581wcslen": 2816,
    "\u2581createf": 2817,
    "\u25810x42d8c6": 2818,
    "\u25810x7390": 2819,
    "\u2581msvcr": 2820,
    "\u25810xd0": 2821,
    "\u25810x78d0": 2822,
    "\u2581susp": 2823,
    "a81": 2824,
    "\u25810x7f10": 2825,
    "\u25810x7de8": 2826,
    "debugger": 2827,
    "\u2581freesid": 2828,
    "\u2581suspend": 2829,
    "\u2581getdibits": 2830,
    "\u2581suspendthread": 2831,
    "\u25810x1211f3c": 2832,
    "41": 2833,
    "\u25810x7dc8": 2834,
    "debuggerpresent": 2835,
    "\u2581htons": 2836,
    "\u25810x7d98": 2837,
    "\u25810x3a": 2838,
    "\u25810x28c": 2839,
    "\u25810x7de9": 2840,
    "\u25810x3b": 2841,
    "\u25810x7d99": 2842,
    "lwapi": 2843,
    "\u2581shlwapi": 2844,
    "\u2581socket": 2845,
    "\u25810x1211cec": 2846,
    "\u2581wsast": 2847,
    "\u25810x43540": 2848,
    "\u2581wsastartup": 2849,
    "\u2581getob": 2850,
    "\u25810x7dec": 2851,
    "\u2581cb": 2852,
    "solid": 2853,
    "\u2581settimer": 2854,
    "\u2581connect": 2855,
    "ontindir": 2856,
    "\u2581createfontindir": 2857,
    "\u25810x51000": 2858,
    "\u2581getdiskfreespac": 2859,
    "stringa": 2860,
    "\u25810x60000": 2861,
    "aaaa": 2862,
    "solidbrush": 2863,
    "\u2581createsolidbrush": 2864,
    "\u25810x2ac": 2865,
    "\u2581isdebuggerpresent": 2866,
    "utdown": 2867,
    "\u2581getusernamew": 2868,
    "\u2581new": 2869,
    "\u25810x41e": 2870,
    "\u2581acquiresrwlockexclusive": 2871,
    "\u2581invalidaterect": 2872,
    "\u25810x448": 2873,
    "\u2581fill": 2874,
    "\u25810x4229": 2875,
    "\u25810x4237": 2876,
    "\u2581getlogicaldrivestringsw": 2877,
    "eed": 2878,
    "e4c": 2879,
    "\u25810x12110": 2880,
    "\u2581gethost": 2881,
    "\u2581bind": 2882,
    "726": 2883,
    "openenum": 2884,
    "\u2581wnetopenenum": 2885,
    "\u2581wnetopenenumw": 2886,
    "cp": 2887,
    "\u25810x7ded": 2888,
    "\u25810x7da0": 2889,
    "\u25810x52660": 2890,
    "\u2581destroyicon": 2891,
    "\u25810x52000": 2892,
    "\u2581createfontindirecta": 2893,
    "byname": 2894,
    "\u25810x41a": 2895,
    "hip": 2896,
    "tic": 2897,
    "\u25810x7c70": 2898,
    "\u2581gethostbyname": 2899,
    "members": 2900,
    "\u25810x420c": 2901,
    "\u25810x7270": 2902,
    "\u25810x491": 2903,
    "membership": 2904,
    "\u2581getkeyboardstate": 2905,
    "\u2581wnetadd": 2906,
    "\u2581checktoken": 2907,
    "\u2581checktokenmembership": 2908,
    "\u2581wnetaddconnection2w": 2909,
    "\u2581wnetenum": 2910,
    "\u2581wnetenumresourcew": 2911,
    "\u2581fillrect": 2912,
    "losec": 2913,
    "\u25810x5c": 2914,
    "\u2581createdib": 2915,
    "\u25810x7b000": 2916,
    "\u2581createdibsection": 2917,
    "\u25810x4028": 2918,
    "\u25810x7d9c": 2919,
    "cancel": 2920,
    "\u2581wnetcancel": 2921,
    "\u2581wnetcancelconnection2w": 2922,
    "\u25810x7d9d": 2923,
    "\u25810x1211bd0": 2924,
    "\u25810x210": 2925,
    "\u25810x1e5": 2926,
    "\u25810x90f0": 2927,
    "\u2581emp": 2928,
    "\u2581setclass": 2929,
    "\u2581geticoninfo": 2930,
    "e6c": 2931,
    "\u25810x7da1": 2932,
    "\u2581setclipboard": 2933,
    "\u2581drawicon": 2934,
    "\u2581openclipboard": 2935,
    "\u2581setclipboarddata": 2936,
    "\u2581empty": 2937,
    "\u2581closec": 2938,
    "\u2581closeclipboard": 2939,
    "ecut": 2940,
    "\u25810x42c520": 2941,
    "\u2581shellexecut": 2942,
    "\u2581emptyclipboard": 2943,
    "\u25810x7d00": 2944,
    "\u25810x7060": 2945,
    "\u2581setclasslonga": 2946,
    "\u2581shellexecuteexw": 2947,
    "geo": 2948,
    "\u2581list": 2949,
    "\u2581extractassociatedicona": 2950,
    "\u2581extractassociatediconw": 2951,
    "\u2581shutdown": 2952,
    "omem": 2953,
    "omemory": 2954,
    "\u2581rtlzer": 2955,
    "\u2581rtlzeromemory": 2956,
    "\u2581findwindowexa": 2957,
    "dateresourcew": 2958,
    "\u2581registerservicectrlhandlerw": 2959,
    "\u25810x79a0": 2960,
    "\u2581endup": 2961,
    "\u2581updateresourcea": 2962,
    "\u2581endupdateresourcea": 2963,
    "\u2581beginupdateresourcea": 2964,
    "geoid": 2965,
    "\u25810x8420": 2966,
    "\u2581getusergeoid": 2967,
    "\u25810x71b0": 2968,
    "\u2581htonl": 2969,
    "\u2581beginupdateresourcew": 2970,
    "\u25810x7db4": 2971,
    "octls": 2972,
    "ticonex": 2973,
    "\u2581ioctls": 2974,
    "\u2581ioctlsocket": 2975,
    "\u2581extracticonex": 2976,
    "\u2581extracticonexw": 2977,
    "\u25810x7da4": 2978,
    "\u2581wcsc": 2979,
    "\u25810x7870": 2980,
    "\u2581listen": 2981,
    "ateprocess": 2982,
    "\u2581to": 2983,
    "f74": 2984,
    "\u25810x7db5": 2985,
    "\u25810x1e00000": 2986,
    "\u25810x1e50000": 2987,
    "\u25810x63": 2988,
    "\u25810x7a10": 2989,
    "folder": 2990,
    "\u2581getpe": 2991,
    "\u2581createsemaphore": 2992,
    "ername": 2993,
    "\u25810xb0000": 2994,
    "\u2581getpeername": 2995,
    "\u2581getwindows": 2996,
    "\u25810xaa": 2997,
    "\u25810x416a17": 2998,
    "\u25810x416a18": 2999,
    "\u25810x26": 3000,
    "\u25810xad": 3001,
    "\u2581control": 3002,
    "ctl32": 3003,
    "\u25810x2ac45": 3004,
    "namea": 3005,
    "\u2581comctl32": 3006,
    "tra": 3007,
    "\u25810x7da5": 3008,
    "\u25810x40287e": 3009,
    "\u25810x7af0": 3010,
    "\u2581getmess": 3011,
    "\u25810xa42a": 3012,
    "\u25810x4c32c0": 3013,
    "\u25810x1210e8": 3014,
    "ang": 3015,
    "\u25810x7df1": 3016,
    "488": 3017,
    "\u2581unhandledexceptionfilter": 3018,
    "\u2581wcscpy": 3019,
    "\u25810x4393f8": 3020,
    "\u2581getsyscolorbrush": 3021,
    "\u25810x4340c8": 3022,
    "584": 3023,
    "\u2581initializesrwlock": 3024,
    "inst": 3025,
    "\u25810x1212000": 3026,
    "driv": 3027,
    "\u25810x41a5": 3028,
    "\u2581mo": 3029,
    "gi": 3030,
    "\u2581terminateprocess": 3031,
    "\u2581inst": 3032,
    "\u25810x7da8": 3033,
    "\u2581ra": 3034,
    "heck": 3035,
    "9c1": 3036,
    "\u2581releases": 3037,
    "\u25810xac": 3038,
    "\u25810x7b40": 3039,
    "eexception": 3040,
    "\u25810x5265d": 3041,
    "\u25810x1211c80": 3042,
    "3b5": 3043,
    "\u2581rais": 3044,
    "\u25810x7b10": 3045,
    "\u2581raiseexception": 3046,
    "\u25810x1211e28": 3047,
    "firstw": 3048,
    "\u2581shellexecutew": 3049,
    "b88": 3050,
    "\u2581sn": 3051,
    "\u25810x1210900": 3052,
    "\u25810x1211efc": 3053,
    "288": 3054,
    "\u25810x47c0": 3055,
    "\u25810x7da9": 3056,
    "alog": 3057,
    "\u25810x7030": 3058,
    "\u25810x79c0": 3059,
    "\u25810x435088": 3060,
    "47": 3061,
    "uilanguage": 3062,
    "adwork": 3063,
    "\u25810x75d0": 3064,
    "\u25810x46b4": 3065,
    "\u25810x7ef0": 3066,
    "\u25810x181b": 3067,
    "a48": 3068,
    "\u25810x7cc0": 3069,
    "essage": 3070,
    "008": 3071,
    "\u25810x45fc": 3072,
    "\u25810x52661": 3073,
    "\u25810x8090": 3074,
    "\u2581message": 3075,
    "656": 3076,
    "\u25810x7a50": 3077,
    "a0000": 3078,
    "\u25810x71e0": 3079,
    "\u25810x58c01c": 3080,
    "\u25810x120fa": 3081,
    "f80": 3082,
    "\u25810x7750": 3083,
    "viol": 3084,
    "\u25810x7ae0": 3085,
    "\u2581device": 3086,
    "\u25810x7230": 3087,
    "\u25810x6b9c08": 3088,
    "eextra": 3089,
    "\u25810x52662": 3090,
    "\u25810x74e0": 3091,
    "\u2581getthreaduilanguage": 3092,
    "\u25810x12119f0": 3093,
    "\u2581process32firstw": 3094,
    "\u25810x7cf0": 3095,
    "violation": 3096,
    "any": 3097,
    "\u25815": 3098,
    "\u25810x7990": 3099,
    "\u25810x7210": 3100,
    "e68": 3101,
    "\u2581messagebox": 3102,
    "\u25810x72d0": 3103,
    "\u25810x7240": 3104,
    "cadwork": 3105,
    "\u25810x7600": 3106,
    "\u25810x120f8": 3107,
    "\u25810x20019": 3108,
    "edex": 3109,
    "\u25810x42d520": 3110,
    "edexchange": 3111,
    "\u2581interlockedexchange": 3112,
    "\u25810x7a20": 3113,
    "\u25810x75a0": 3114,
    "\u25810x7180": 3115,
    "\u25810x70a8": 3116,
    "\u25810x7070": 3117,
    "\u25810x70c0": 3118,
    "\u25810xff8": 3119,
    "\u25810x7720": 3120,
    "\u25810x7570": 3121,
    "\u25810x7660": 3122,
    "\u2581snap": 3123,
    "\u25810x7330": 3124,
    "\u25810x7dad": 3125,
    "32cs": 3126,
    "\u25810x7dac": 3127,
    "\u2581th32cs": 3128,
    "\u25810x7120": 3129,
    "\u2581mul": 3130,
    "\u25810x81": 3131,
    "\u2581muldiv": 3132,
    "\u25810x7480": 3133,
    "\u25810x7840": 3134,
    "\u25810x76c0": 3135,
    "\u25810x7ba0": 3136,
    "\u25810x76f0": 3137,
    "\u25810x40a5a0": 3138,
    "\u25810x7360": 3139,
    "\u25810x70f0": 3140,
    "\u25810x74b0": 3141,
    "\u25810x7510": 3142,
    "\u2581net": 3143,
    "2ac": 3144,
    "\u25810x77b0": 3145,
    "\u25810x73c0": 3146,
    "\u25810x7450": 3147,
    "\u25810x7960": 3148,
    "\u25810x7420": 3149,
    "\u25810x1211e44": 3150,
    "\u25810x80c0": 3151,
    "ceff": 3152,
    "\u25810x4284": 3153,
    "the": 3154,
    "ageextra": 3155,
    "ageextrainfo": 3156,
    "\u2581getmessageextrainfo": 3157,
    "\u25810x120e": 3158,
    "\u25810x7630": 3159,
    "\u25810x566": 3160,
    "rand": 3161,
    "ram": 3162,
    "\u2581tr": 3163,
    "\u25810x7c40": 3164,
    "\u25810x7780": 3165,
    "ceex": 3166,
    "\u25810x7b70": 3167,
    "\u25810x7db1": 3168,
    "ec4": 3169,
    "a84": 3170,
    "\u25810x496760": 3171,
    "ash": 3172,
    "\u25810x1211690": 3173,
    "\u2581lock": 3174,
    "\u25810x71c0": 3175,
    "\u25810x65": 3176,
    "\u25810x43b880": 3177,
    "destroy": 3178,
    "\u25810x44280": 3179,
    "f62": 3180,
    "\u25810x52666": 3181,
    "be8": 3182,
    "\u25810x46b5": 3183,
    "de4": 3184,
    "\u25810x120fb": 3185,
    "\u2581createp": 3186,
    "\u25810x40a59e": 3187,
    "\u25810x40a5a2": 3188,
    "\u25810x40a5a4": 3189,
    "\u25810x40a5a6": 3190,
    "\u25810x40a5a8": 3191,
    "\u25810x40a5aa": 3192,
    "wind": 3193,
    "\u25810x7d20": 3194,
    "\u25810x40933c": 3195,
    "\u2581registerclassa": 3196,
    "\u25810x415": 3197,
    "\u25810x85d0": 3198,
    "\u2581getwindow": 3199,
    "\u25810x419": 3200,
    "\u25810x1211e1c": 3201,
    "6e8": 3202,
    "\u25810x4400": 3203,
    "\u2581rtlun": 3204,
    "\u2581rtlunwind": 3205,
    "\u2581type": 3206,
    "\u2581wsprintfa": 3207,
    "\u25810x4f5": 3208,
    "\u25810x4317e0": 3209,
    "\u25810x1211f6c": 3210,
    "\u25810x8d00": 3211,
    "\u25810x409344": 3212,
    "de8": 3213,
    "\u2581output": 3214,
    "\u2581outputdebug": 3215,
    "\u25810x7460": 3216,
    "\u25810x4237d8": 3217,
    "d1c": 3218,
    "\u25810x41a0": 3219,
    "\u25810x3f34e0": 3220,
    "\u25810x1211f18": 3221,
    "\u25810x74d0": 3222,
    "\u25810x4305f8": 3223,
    "\u25810xaf": 3224,
    "\u25810x3f20": 3225,
    "\u2581accessviolation": 3226,
    "ssp": 3227,
    "\u25810x3e8": 3228,
    "\u25810xcf0000": 3229,
    "\u25810x70e0": 3230,
    "\u2581snapprocess": 3231,
    "ogram": 3232,
    "\u25810x4238a8": 3233,
    "\u25810x4238d8": 3234,
    "\u25810x7038": 3235,
    "ac6": 3236,
    "do": 3237,
    "\u25810x1076": 3238,
    "\u25810x4528": 3239,
    "\u2581lstrcpynw": 3240,
    "\u25810xe00": 3241,
    "\u25810x120ff": 3242,
    "\u25810x1211f10": 3243,
    "e61": 3244,
    "\u25810x7620": 3245,
    "\u2581sat": 3246,
    "\u25810x72d8": 3247,
    "\u25810x7498": 3248,
    "\u2581em": 3249,
    "\u25810x71f8": 3250,
    "\u25810x7cb0": 3251,
    "\u25810x8001": 3252,
    "windowexw": 3253,
    "\u2581createwindowexw": 3254,
    "\u25810x7310": 3255,
    "special": 3256,
    "\u2581shgetspecial": 3257,
    "\u2581fe": 3258,
    "504": 3259,
    "\u25810x2100": 3260,
    "\u2581releasesrwlockexclusive": 3261,
    "\u25810x7380": 3262,
    "\u25810x7b60": 3263,
    "afc": 3264,
    "alette": 3265,
    "instruction": 3266,
    "\u25810x43b6": 3267,
    "\u25816": 3268,
    "\u25810x1211f74": 3269,
    "e00": 3270,
    "\u25810x7db9": 3271,
    "\u25810x7118": 3272,
    "\u25810x8250": 3273,
    "\u25810x7db8": 3274,
    "\u25810x7770": 3275,
    "accel": 3276,
    "\u25810x75b0": 3277,
    "\u25810x7188": 3278,
    "\u25810x7268": 3279,
    "\u25810x7428": 3280,
    "ise": 3281,
    "b44": 3282,
    "bas": 3283,
    "\u25810x7a48": 3284,
    "\u25810x7348": 3285,
    "\u25810x7b98": 3286,
    "\u25810x7e88": 3287,
    "\u25810x41e1": 3288,
    "\u25810x7508": 3289,
    "\u25810x7578": 3290,
    "\u25810x73b8": 3291,
    "\u25810x75e8": 3292,
    "\u25810x7e89": 3293,
    "\u25810x7658": 3294,
    "\u25810x7888": 3295,
    "\u25810x8c70": 3296,
    "\u25810x76c8": 3297,
    "\u25810x4418": 3298,
    "\u25810x7738": 3299,
    "\u25810x7818": 3300,
    "f0c": 3301,
    "\u25810x78f8": 3302,
    "\u25810x7ce8": 3303,
    "\u25810x7dbc": 3304,
    "\u25810x7968": 3305,
    "\u2581vc": 3306,
    "\u25810x79d8": 3307,
    "ecc": 3308,
    "\u25810x7c08": 3309,
    "\u25810x9010": 3310,
    "irector": 3311,
    "\u25810x77a8": 3312,
    "\u25810x7ab8": 3313,
    "\u2581getcomputer": 3314,
    "\u2581mar": 3315,
    "\u25810x8c60": 3316,
    "\u2581exception": 3317,
    "\u25810x7b28": 3318,
    "\u2581createsemaphorew": 3319,
    "\u25810x7dbd": 3320,
    "full": 3321,
    "\u25810x7c78": 3322,
    "\u25810x7d58": 3323,
    "\u25810x4170": 3324,
    "echeck": 3325,
    "with": 3326,
    "runtime": 3327,
    "acceler": 3328,
    "3c8": 3329,
    "ab8": 3330,
    "\u2581physicaldriv": 3331,
    "\u25810x435390": 3332,
    "108": 3333,
    "\u25810xab": 3334,
    "\u2581physicaldrive0": 3335,
    "umer": 3336,
    "\u25810x47a0": 3337,
    "\u25810x417b": 3338,
    "\u25810x4208": 3339,
    "\u25810x8aa0": 3340,
    "\u25810x56bb00": 3341,
    "meto": 3342,
    "\u25810x100000": 3343,
    "\u25810xae": 3344,
    "\u2581initon": 3345,
    "b7b": 3346,
    "mit": 3347,
    "ceexecute": 3348,
    "ceexecuteonce": 3349,
    "\u2581initonceexecuteonce": 3350,
    "\u25810x52664": 3351,
    "prec": 3352,
    "\u2581outof": 3353,
    "\u25810xa3a7": 3354,
    "c88": 3355,
    "ero": 3356,
    "ecall": 3357,
    "\u25810x8c90": 3358,
    "\u25810x11000": 3359,
    "\u25810x71a0": 3360,
    "b48": 3361,
    "failed": 3362,
    "runtime140": 3363,
    "\u2581vcruntime140": 3364,
    "found": 3365,
    "\u25810x8ab0": 3366,
    "precise": 3367,
    "preciseasfiletime": 3368,
    "\u2581getsystemtimepreciseasfiletime": 3369,
    "barcad": 3370,
    "\u25810x508": 3371,
    "barcadero": 3372,
    "\u2581embarcadero": 3373,
    "\u2581getfileinformationbyhandleex": 3374,
    "544": 3375,
    "\u25810x4228": 3376,
    "\u25810xffe1": 3377,
    "\u25810x5638": 3378,
    "aff": 3379,
    "ok": 3380,
    "\u25810xffe0": 3381,
    "\u2581feb": 3382,
    "gument": 3383,
    "\u25810x1009": 3384,
    "\u25810xffe4": 3385,
    "7e0": 3386,
    "irectory": 3387,
    "3e8": 3388,
    "ee4": 3389,
    "\u25810xfffe": 3390,
    "\u2581lstrcmpa": 3391,
    "srw": 3392,
    "conditionvariablesrw": 3393,
    "\u2581sleepconditionvariablesrw": 3394,
    "b190": 3395,
    "argument": 3396,
    "ccess": 3397,
    "\u25810x8d20": 3398,
    "\u25810x80c410": 3399,
    "\u2581openprocess": 3400,
    "d88": 3401,
    "ied": 3402,
    "\u25810x1211ef8": 3403,
    "\u2581oc": 3404,
    "\u25810x1005": 3405,
    "\u2581septem": 3406,
    "\u25810x1211e34": 3407,
    "\u25810x41d": 3408,
    "\u25810x8c30": 3409,
    "\u25810xf0": 3410,
    "\u25810x8bd0": 3411,
    "creating": 3412,
    "tionfailed": 3413,
    "a41": 3414,
    "une": 3415,
    "index": 3416,
    "ged": 3417,
    "\u25810x43640": 3418,
    "oem": 3419,
    "sser": 3420,
    "\u2581febr": 3421,
    "\u2581sta": 3422,
    "\u25810xffba": 3423,
    "\u2581oct": 3424,
    "\u25810xffb7": 3425,
    "infoa": 3426,
    "tober": 3427,
    "\u25810x6f": 3428,
    "\u2581april": 3429,
    "\u25810xffbb": 3430,
    "\u2581august": 3431,
    "lication": 3432,
    "\u2581november": 3433,
    "\u2581september": 3434,
    "\u2581div": 3435,
    "eexa": 3436,
    "\u25810xffb8": 3437,
    "\u25810xffbe": 3438,
    "\u25810xffbd": 3439,
    "\u25810xffb9": 3440,
    "\u25810xffbc": 3441,
    "\u25810xfffd": 3442,
    "\u25810x40e": 3443,
    "bound": 3444,
    "\u25810x8ba0": 3445,
    "\u2581kk": 3446,
    "\u25810xffbf": 3447,
    "\u25810x3410c60": 3448,
    "\u2581outofmemory": 3449,
    "207": 3450,
    "\u25810x409a": 3451,
    "\u25810x8c10": 3452,
    "\u25810xfffc": 3453,
    "\u2581wak": 3454,
    "378": 3455,
    "\u2581wakeconditionvariable": 3456,
    "\u25810x40c": 3457,
    "anuary": 3458,
    "\u2581march": 3459,
    "\u2581february": 3460,
    "uly": 3461,
    "\u2581december": 3462,
    "ond": 3463,
    "\u25810x40b8": 3464,
    "\u2581october": 3465,
    "exception": 3466,
    "\u2581thu": 3467,
    "nesday": 3468,
    "\u25810xffa0": 3469,
    "\u2581monday": 3470,
    "\u2581sunday": 3471,
    "\u2581tuesday": 3472,
    "\u2581wednesday": 3473,
    "ins": 3474,
    "ursday": 3475,
    "\u25810xffb6": 3476,
    "\u2581thursday": 3477,
    "\u2581fri": 3478,
    "\u25810xffa2": 3479,
    "\u2581setfileinformationbyhandlew": 3480,
    "\u2581getfileinformationbyhandleexw": 3481,
    "c8c": 3482,
    "atur": 3483,
    "iday": 3484,
    "\u2581sub": 3485,
    "\u2581satur": 3486,
    "\u25810x3f24": 3487,
    "\u25810x7dc0": 3488,
    "\u2581friday": 3489,
    "\u2581saturday": 3490,
    "\u25810xffa1": 3491,
    "\u25810xffa3": 3492,
    "den": 3493,
    "\u2581loadresource": 3494,
    "\u2581fmode": 3495,
    "afecall": 3496,
    "\u25810xffa4": 3497,
    "\u2581chi": 3498,
    "\u2581submit": 3499,
    "\u2581getclass": 3500,
    "\u2581setfileinformationbyhandle": 3501,
    "aac": 3502,
    "\u25810x42b190": 3503,
    "\u25810x42eace": 3504,
    "\u25810xffa7": 3505,
    "threadpoolwork": 3506,
    "\u2581createthreadpoolwork": 3507,
    "\u2581submitthreadpoolwork": 3508,
    "a30": 3509,
    "\u2581closethreadpoolwork": 3510,
    "\u25810xffa6": 3511,
    "\u2581the": 3512,
    "facen": 3513,
    "\u25810xffa5": 3514,
    "\u2581interfacen": 3515,
    "330": 3516,
    "\u25810x8ca0": 3517,
    "\u25810xfffb": 3518,
    "\u2581createpalette": 3519,
    "\u25810x423d18": 3520,
    "\u2581asser": 3521,
    "\u2581of": 3522,
    "\u25810x714": 3523,
    "\u25810x8c40": 3524,
    "\u2581inte": 3525,
    "licen": 3526,
    "sspace": 3527,
    "\u25810xffcd": 3528,
    "\u25810x8cd0": 3529,
    "\u2581stack": 3530,
    "\u25810xffb5": 3531,
    "\u2581isspace": 3532,
    "\u2581external": 3533,
    "\u25810x8be0": 3534,
    "\u25810x42b40": 3535,
    "\u25810xffa8": 3536,
    "\u25810x8bb0": 3537,
    "\u2581privile": 3538,
    "\u25810x58de20": 3539,
    "\u25810xffa9": 3540,
    "\u2581integer": 3541,
    "d8000": 3542,
    "no": 3543,
    "a10": 3544,
    "\u2581tmp": 3545,
    "\u25810x8c00": 3546,
    "insafecall": 3547,
    "\u2581exceptioninsafecall": 3548,
    "\u2581getoem": 3549,
    "\u25810x8820": 3550,
    "sub": 3551,
    "cef": 3552,
    "calls": 3553,
    "changet": 3554,
    "\u25810x4394": 3555,
    "\u2581getoemcp": 3556,
    "\u2581variantchanget": 3557,
    "\u2581disk": 3558,
    "\u2581getwindowsdirectorya": 3559,
    "\u25810xffaa": 3560,
    "\u25810x202": 3561,
    "\u25810xffe6": 3562,
    "notfound": 3563,
    "ecast": 3564,
    "\u25810x53000000": 3565,
    "denied": 3566,
    "\u25810x1211c08": 3567,
    "\u2581assertionfailed": 3568,
    "bounds": 3569,
    "verflow": 3570,
    "mod": 3571,
    "\u2581privileged": 3572,
    "\u2581chit": 3573,
    "500000": 3574,
    "otsuped": 3575,
    "classtyp": 3576,
    "notsuped": 3577,
    "classtypecast": 3578,
    "\u2581externalexception": 3579,
    "\u2581interfacenotsuped": 3580,
    "tund": 3581,
    "outof": 3582,
    "\u2581rang": 3583,
    "umeric": 3584,
    "\u25810xfffa": 3585,
    "indexoutof": 3586,
    "tunderflow": 3587,
    "\u2581rangecheck": 3588,
    "callsnotsuped": 3589,
    "\u2581errorcreating": 3590,
    "\u2581floatingpoint": 3591,
    "indexoutofbounds": 3592,
    "\u2581errorcreatingvariant": 3593,
    "\u2581invalidclasstypecast": 3594,
    "\u2581variantcallsnotsuped": 3595,
    "\u2581floatingpointunderflow": 3596,
    "typecon": 3597,
    "typeconversion": 3598,
    "\u2581stackoverflow": 3599,
    "pointeroperation": 3600,
    "\u2581privilegedinstruction": 3601,
    "\u2581invalidvariantoperation": 3602,
    "\u2581invalidvarianttypeconversion": 3603,
    "leaccess": 3604,
    "toverflow": 3605,
    "divisionbyzero": 3606,
    "\u2581floatingpointoverflow": 3607,
    "\u2581floatingpointdivisionbyzero": 3608,
    "\u25810xffb4": 3609,
    "floating": 3610,
    "floatingpoint": 3611,
    "\u2581divisionbyzero": 3612,
    "\u2581integeroverflow": 3613,
    "\u2581rangecheckerror": 3614,
    "\u2581invalidfloatingpoint": 3615,
    "\u2581invalidpointeroperation": 3616,
    "\u2581invalidfloatingpointoperation": 3617,
    "bey": 3618,
    "omany": 3619,
    "beyond": 3620,
    "numeric": 3621,
    "\u2581toomany": 3622,
    "openfiles": 3623,
    "\u2581diskfull": 3624,
    "\u2581readbeyond": 3625,
    "numericinput": 3626,
    "\u2581invalidfilename": 3627,
    "\u2581toomanyopenfiles": 3628,
    "\u2581invalidnumericinput": 3629,
    "\u2581readbeyondendoffile": 3630,
    "\u25810x1210e0": 3631,
    "\u2581fileaccess": 3632,
    "\u2581fileaccessdenied": 3633,
    "\u258111": 3634,
    "bool": 3635,
    "\u25810xffce": 3636,
    "accelerator": 3637,
    "\u2581varbstrfrombool": 3638,
    "49": 3639,
    "\u2581lstrcpyna": 3640,
    "\u25810x4a20": 3641,
    "\u2581getcomputernamea": 3642,
    "\u25810xb000": 3643,
    "\u25810x48400": 3644,
    "\u25810x1210f4": 3645,
    "ypeex": 3646,
    "\u25810xffe5": 3647,
    "\u2581variantchangetypeex": 3648,
    "\u25810x423da8": 3649,
    "\u25810x423dd8": 3650,
    "neg": 3651,
    "\u25810x7dc1": 3652,
    "\u25810xffcf": 3653,
    "\u25810x52665": 3654,
    "\u2581varadd": 3655,
    "\u2581varneg": 3656,
    "\u2581varnot": 3657,
    "\u2581varsub": 3658,
    "f88": 3659,
    "mul": 3660,
    "xor": 3661,
    "idiv": 3662,
    "\u25810xc0": 3663,
    "\u2581varcy": 3664,
    "\u2581varor": 3665,
    "\u2581varr8": 3666,
    "\u2581varand": 3667,
    "\u2581varcmp": 3668,
    "\u2581vardiv": 3669,
    "\u2581varmod": 3670,
    "\u2581varmul": 3671,
    "\u2581varxor": 3672,
    "\u2581varbool": 3673,
    "\u2581vardate": 3674,
    "\u2581varidiv": 3675,
    "\u2581varcyfromstr": 3676,
    "\u2581vari4fromstr": 3677,
    "\u2581varr4fromstr": 3678,
    "\u2581varr8fromstr": 3679,
    "\u2581varbstrfromcy": 3680,
    "\u2581varboolfromstr": 3681,
    "\u2581vardatefromstr": 3682,
    "\u2581varbstrfromdate": 3683,
    "\u25810x100300": 3684,
    "afdi": 3685,
    "\u2581wsafdi": 3686,
    "\u25810x40a3d": 3687,
    "\u2581wsafdisset": 3688,
    "\u25810x418970": 3689,
    "\u25810x1f000": 3690,
    "74c": 3691,
    "\u2581string": 3692,
    "ac8": 3693,
    "\u25810x88e0": 3694,
    "\u25810x4299": 3695,
    "folderw": 3696,
    "\u25810x8d60": 3697,
    "\u25810x1211f78": 3698,
    "fff0": 3699,
    "\u25810x7ed0": 3700,
    "\u25810x437808": 3701,
    "228": 3702,
    "search": 3703,
    "\u2581he": 3704,
    "\u25810x9e": 3705,
    "searchmode": 3706,
    "\u2581setsearchmode": 3707,
    "\u25810xa9b0": 3708,
    "5c8": 3709,
    "e2b": 3710,
    "reg": 3711,
    "\u25810x9f": 3712,
    "\u25810xffb0": 3713,
    "\u25810xfff9": 3714,
    "\u25810x1211fb8": 3715,
    "\u2581setthreadpreferreduilanguages": 3716,
    "\u25810x4187": 3717,
    "ac4": 3718,
    "\u25810x120e6d4": 3719,
    "\u25810x1211d14": 3720,
    "904": 3721,
    "\u25810x7ec4": 3722,
    "ff0": 3723,
    "\u25810xffb3": 3724,
    "\u25810x7ec5": 3725,
    "\u2581flushfile": 3726,
    "\u2581flushfilebuffers": 3727,
    "\u25810x4615": 3728,
    "\u25810x46b5d4": 3729,
    "yarg1": 3730,
    "69c": 3731,
    "\u25810x343b5": 3732,
    "264": 3733,
    "\u25810xffb2": 3734,
    "\u25810x42332": 3735,
    "\u2581srand": 3736,
    "\u25810x13fff0": 3737,
    "740": 3738,
    "\u25810x1211ec8": 3739,
    "\u25810xffb1": 3740,
    "\u25810x8818": 3741,
    "adm": 3742,
    "\u2581invalidargument": 3743,
    "tec": 3744,
    "\u2581findresourcew": 3745,
    "gine": 3746,
    "\u2581variantorsafearray": 3747,
    "\u2581errorcreatingvariantorsafearray": 3748,
    "\u2581variantorsafearrayindexoutofbounds": 3749,
    "\u25810x8819": 3750,
    "ae3": 3751,
    "\u25810xb5": 3752,
    "\u2581ofresource": 3753,
    "398": 3754,
    "\u25810x42990": 3755,
    "184": 3756,
    "b5c": 3757,
    "\u25810x42d408": 3758,
    "\u25810x416c": 3759,
    "validate": 3760,
    "\u25810x1211ed4": 3761,
    "d4000": 3762,
    "\u2581work": 3763,
    "\u2581heapvalidate": 3764,
    "608": 3765,
    "d3c": 3766,
    "\u25810x4df0": 3767,
    "\u25810x881c": 3768,
    "\u25810x881d": 3769,
    "\u25810x8821": 3770,
    "\u25810x4275": 3771,
    "\u25810x66": 3772,
    "inki": 3773,
    "cc000": 3774,
    "\u25810x4338": 3775,
    "\u25810x1211a00": 3776,
    "\u25810x431e": 3777,
    "\u25810x7ec8": 3778,
    "\u2581hels": 3779,
    "\u25810x7ec9": 3780,
    "\u2581helsinki": 3781,
    "b63": 3782,
    "\u25810xfff8": 3783,
    "240": 3784,
    "\u25810x46a0": 3785,
    "\u25810x7340": 3786,
    "\u25810x4fec20": 3787,
    "querys": 3788,
    "ernet": 3789,
    "\u2581setprocess": 3790,
    "\u25810x8d50": 3791,
    "808": 3792,
    "\u2581localfree": 3793,
    "\u2581lockresource": 3794,
    "\u25810xfff7": 3795,
    "\u25810x1211a14": 3796,
    "\u25810x41678c": 3797,
    "\u25810x41678d": 3798,
    "\u25810x5265e": 3799,
    "\u258174": 3800,
    "\u25810x5265f": 3801,
    "\u25810x7d0": 3802,
    "\u25810x8430": 3803,
    "\u25810xfeed": 3804,
    "204": 3805,
    "\u25810x8d30": 3806,
    "\u25810x1211f24": 3807,
    "\u25810x1211e00": 3808,
    "\u2581outputdebugstringa": 3809,
    "\u25810x1b2": 3810,
    "izn": 3811,
    "iznadm": 3812,
    "\u25810x7edc": 3813,
    "\u25810x9cc0": 3814,
    "\u2581triznadm": 3815,
    "b60": 3816,
    "\u25810x7ecc": 3817,
    "\u25810x7ecd": 3818,
    "\u25810x51c": 3819,
    "\u25810x8260": 3820,
    "dep": 3821,
    "ed000": 3822,
    "xit": 3823,
    "\u25810x3f5000": 3824,
    "684": 3825,
    "\u25810x7ed1": 3826,
    "\u2581rand": 3827,
    "\u25810x3f3": 3828,
    "querysystem": 3829,
    "querysysteminformation": 3830,
    "a70": 3831,
    "\u25810x4ad4": 3832,
    "\u25810x42f": 3833,
    "\u258103": 3834,
    "\u25810x1211568": 3835,
    "profile": 3836,
    "\u25810x41c": 3837,
    "\u25810x4306": 3838,
    "\u25810x120e6d0": 3839,
    "\u25810x4330": 3840,
    "\u2581setst": 3841,
    "\u25810x42da": 3842,
    "\u2581messageboxa": 3843,
    "\u25810x7ed4": 3844,
    "\u25810x7ed5": 3845,
    "\u2581setstdhandle": 3846,
    "\u25810x3f31": 3847,
    "\u25810x4e80": 3848,
    "\u25810x7ed8": 3849,
    "\u25810x7ed9": 3850,
    "\u25810xfff6": 3851,
    "\u25810x20a": 3852,
    "bb8": 3853,
    "c8000": 3854,
    "\u25810x51af": 3855,
    "484": 3856,
    "licy": 3857,
    "11000": 3858,
    "policy": 3859,
    "\u25810x7df4": 3860,
    "\u25810x563868": 3861,
    "\u2581openmutexa": 3862,
    "\u2581move": 3863,
    "\u25810x43ff": 3864,
    "\u25810x7edd": 3865,
    "\u25810x1211e30": 3866,
    "\u2581loadlibraryexa": 3867,
    "\u25810x7df5": 3868,
    "a5c": 3869,
    "\u25810x1211f5c": 3870,
    "drl6660drl6660drl6660drl6660drl6660drl6660drl6660drl6660": 3871,
    "\u2581heapdestroy": 3872,
    "\u25819": 3873,
    "ce000": 3874,
    "\u25810x48f894": 3875,
    "\u25810x40f937": 3876,
    "\u25810x437806": 3877,
    "\u25810x43780a": 3878,
    "\u25810x43780c": 3879,
    "\u25810x43780e": 3880,
    "\u25810x437810": 3881,
    "\u25810x437812": 3882,
    "\u25810x437814": 3883,
    "\u25810x437816": 3884,
    "\u25810x437818": 3885,
    "\u25810x43781a": 3886,
    "\u25810x43781c": 3887,
    "\u25810x43781e": 3888,
    "100": 3889,
    "\u25810x12110d8": 3890,
    "\u25810x12117f4": 3891,
    "da000": 3892,
    "deppolicy": 3893,
    "\u25810x1211338": 3894,
    "\u25810x4318": 3895,
    "\u25810x1211f40": 3896,
    "d44": 3897,
    "win": 3898,
    "\u25810x82c0": 3899,
    "\u25810x7f03": 3900,
    "\u2581ntquerysysteminformation": 3901,
    "98c": 3902,
    "\u25810x4f62": 3903,
    "\u25810x5e": 3904,
    "dc000": 3905,
    "\u25810x407": 3906,
    "\u25810x41bcb0": 3907,
    "\u25810x41bce0": 3908,
    "hash": 3909,
    "fc000": 3910,
    "\u25810x7ee4": 3911,
    "\u25810xffd3": 3912,
    "forma": 3913,
    "\u25810x7ee5": 3914,
    "de000": 3915,
    "\u2581setprocessdeppolicy": 3916,
    "e8000": 3917,
    "\u25810x1f0001": 3918,
    "26b2": 3919,
    "14000": 3920,
    "\u25810x431d": 3921,
    "\u25810x52667": 3922,
    "ec000": 3923,
    "dff": 3924,
    "\u25810x488": 3925,
    "\u25810x42fb": 3926,
    "\u25810x42dac6": 3927,
    "\u25810x40ee": 3928,
    "\u25810x7ee1": 3929,
    "\u25810xffc6": 3930,
    "18000": 3931,
    "\u25810x4c3": 3932,
    "\u2581memcpy": 3933,
    "\u2581getsecurityinfo": 3934,
    "inac": 3935,
    "ff000": 3936,
    "triesinac": 3937,
    "\u2581setentriesinac": 3938,
    "\u2581shgetspecialfolderw": 3939,
    "d1ff": 3940,
    "f4000": 3941,
    "ved": 3942,
    "todo": 3943,
    "\u25810x140": 3944,
    "ee000": 3945,
    "e6000": 3946,
    "fe000": 3947,
    "\u2581corexit": 3948,
    "\u2581corexitprocess": 3949,
    "\u25810x1210e4": 3950,
    "\u25810x1211dd0": 3951,
    "d4c": 3952,
    "ols": 3953,
    "\u25810x1210ec": 3954,
    "bd0": 3955,
    "\u2581wri": 3956,
    "1c000": 3957,
    "\u25810xa42": 3958,
    "\u25810xa429c8": 3959,
    "76f7": 3960,
    "yarg2": 3961,
    "\u25810xfeee0108": 3962,
    "\u2581regquery": 3963,
    "\u25810x4300": 3964,
    "\u2581setentriesinacla": 3965,
    "\u2581ntun": 3966,
    "\u25810x1210f0": 3967,
    "\u2581ntunmapviewofsection": 3968,
    "ntstatus": 3969,
    "serror": 3970,
    "\u25810x598": 3971,
    "\u25810x181c": 3972,
    "\u2581writec": 3973,
    "todoserror": 3974,
    "\u2581rtlntstatus": 3975,
    "\u2581rtlntstatustodoserror": 3976,
    "afile": 3977,
    "\u2581ntmapviewofsection": 3978,
    "2acb2": 3979,
    "\u2581are": 3980,
    "\u2581b2acb2": 3981,
    "\u25810x4255": 3982,
    "\u2581setsecurityinfo": 3983,
    "\u25810x8830": 3984,
    "unction": 3985,
    "\u25810x180": 3986,
    "\u25810xa42a10": 3987,
    "301": 3988,
    "\u25810xca0000": 3989,
    "\u25810x77001000": 3990,
    "\u25810x77002000": 3991,
    "\u25810x77003000": 3992,
    "\u25810x77004000": 3993,
    "\u25810x77005000": 3994,
    "\u25810x77006000": 3995,
    "\u25810x77007000": 3996,
    "\u25810x77008000": 3997,
    "\u25810x77009000": 3998,
    "\u25810x7700a000": 3999,
    "\u25810x7700b000": 4000,
    "\u25810x7700c000": 4001,
    "\u25810x7700d000": 4002,
    "\u25810x7700e000": 4003,
    "\u25810x7700f000": 4004,
    "\u25810x77010000": 4005,
    "\u25810x77011000": 4006,
    "\u25810x77012000": 4007,
    "\u25810x77013000": 4008,
    "\u25810x77014000": 4009,
    "\u25810x77015000": 4010,
    "\u25810x77016000": 4011,
    "\u25810x77017000": 4012,
    "\u25810x77018000": 4013,
    "\u25810x77019000": 4014,
    "\u25810x7701a000": 4015,
    "\u25810x7701b000": 4016,
    "\u25810x7701c000": 4017,
    "\u25810x7701d000": 4018,
    "\u25810x7701e000": 4019,
    "\u25810x7701f000": 4020,
    "\u25810x77020000": 4021,
    "\u25810x77021000": 4022,
    "\u25810x77022000": 4023,
    "\u25810x77023000": 4024,
    "\u25810x77024000": 4025,
    "\u25810x77025000": 4026,
    "\u25810x77026000": 4027,
    "\u25810x77027000": 4028,
    "\u25810x77028000": 4029,
    "\u25810x77029000": 4030,
    "\u25810x7702a000": 4031,
    "\u25810x7702b000": 4032,
    "\u25810x7702c000": 4033,
    "\u25810x7702d000": 4034,
    "\u25810x7702e000": 4035,
    "\u25810x7702f000": 4036,
    "\u25810x77030000": 4037,
    "\u25810x77031000": 4038,
    "\u25810x77032000": 4039,
    "\u25810x77033000": 4040,
    "\u25810x77034000": 4041,
    "\u25810x77035000": 4042,
    "\u25810x77036000": 4043,
    "\u25810x77037000": 4044,
    "\u25810x77038000": 4045,
    "\u25810x77039000": 4046,
    "\u25810x7703a000": 4047,
    "\u25810x7703b000": 4048,
    "\u25810x7703c000": 4049,
    "\u25810x7703d000": 4050,
    "\u25810x7703e000": 4051,
    "\u25810x7703f000": 4052,
    "\u25810x77040000": 4053,
    "\u25810x77041000": 4054,
    "\u25810x77042000": 4055,
    "\u25810x77043000": 4056,
    "\u25810x77044000": 4057,
    "\u25810x77045000": 4058,
    "\u25810x77046000": 4059,
    "\u25810x77047000": 4060,
    "\u25810x77048000": 4061,
    "\u25810x77049000": 4062,
    "\u25810x7704a000": 4063,
    "\u25810x7704b000": 4064,
    "\u25810x7704c000": 4065,
    "\u25810x7704d000": 4066,
    "\u25810x7704e000": 4067,
    "\u25810x7704f000": 4068,
    "\u25810x77050000": 4069,
    "\u25810x77051000": 4070,
    "\u25810x77052000": 4071,
    "\u25810x77053000": 4072,
    "\u25810x77054000": 4073,
    "\u25810x77055000": 4074,
    "\u25810x77056000": 4075,
    "\u25810x77057000": 4076,
    "\u25810x77058000": 4077,
    "\u25810x77059000": 4078,
    "\u25810x7705a000": 4079,
    "\u25810x7705b000": 4080,
    "\u25810x7705c000": 4081,
    "\u25810x7705d000": 4082,
    "\u25810x7705e000": 4083,
    "\u25810x7705f000": 4084,
    "\u25810x77060000": 4085,
    "\u25810x77061000": 4086,
    "\u25810x77062000": 4087,
    "\u25810x77063000": 4088,
    "\u25810x77064000": 4089,
    "\u25810x77065000": 4090,
    "\u25810x77066000": 4091,
    "\u25810x77067000": 4092,
    "\u25810x77068000": 4093,
    "\u25810x77069000": 4094,
    "\u25810x7706a000": 4095,
    "\u25810x7706b000": 4096,
    "\u25810x7706c000": 4097,
    "\u25810x7706d000": 4098,
    "\u25810x7706e000": 4099,
    "\u25810x7706f000": 4100,
    "\u25810x77070000": 4101,
    "\u25810x77071000": 4102,
    "\u25810x77072000": 4103,
    "\u25810x77073000": 4104,
    "\u25810x77074000": 4105,
    "\u25810x77075000": 4106,
    "\u25810x77076000": 4107,
    "\u25810x77077000": 4108,
    "\u25810x77078000": 4109,
    "\u25810x77079000": 4110,
    "\u25810x7707a000": 4111,
    "\u25810x7707b000": 4112,
    "\u25810x7707c000": 4113,
    "\u25810x7707d000": 4114,
    "\u25810x7707e000": 4115,
    "\u25810x7707f000": 4116,
    "\u25810x77080000": 4117,
    "\u25810x77081000": 4118,
    "\u25810x77082000": 4119,
    "\u25810x77083000": 4120,
    "\u25810x77084000": 4121,
    "\u25810x77085000": 4122,
    "\u25810x77086000": 4123,
    "\u25810x77087000": 4124,
    "\u25810x77088000": 4125,
    "\u25810x77089000": 4126,
    "\u25810x7708a000": 4127,
    "\u25810x7708b000": 4128,
    "\u25810x7708c000": 4129,
    "\u25810x7708d000": 4130,
    "\u25810x7708e000": 4131,
    "\u25810x7708f000": 4132,
    "\u25810x77090000": 4133,
    "\u25810x77091000": 4134,
    "\u25810x77092000": 4135,
    "\u25810x77093000": 4136,
    "\u25810x77094000": 4137,
    "\u25810x77095000": 4138,
    "\u25810x77096000": 4139,
    "\u25810x77097000": 4140,
    "\u25810x77098000": 4141,
    "\u25810x77099000": 4142,
    "\u25810x7709a000": 4143,
    "\u25810x7709b000": 4144,
    "\u25810x7709c000": 4145,
    "\u25810x7709d000": 4146,
    "\u25810x7709e000": 4147,
    "\u25810x7709f000": 4148,
    "\u25810x770a0000": 4149,
    "\u25810x770a1000": 4150,
    "\u25810x770a2000": 4151,
    "\u25810x770a3000": 4152,
    "\u25810x770a4000": 4153,
    "\u25810x770a5000": 4154,
    "\u25810x770a6000": 4155,
    "\u25810x770a7000": 4156,
    "\u25810x770a8000": 4157,
    "\u25810x770a9000": 4158,
    "\u25810x770aa000": 4159,
    "\u25810x770ab000": 4160,
    "\u25810x770ac000": 4161,
    "\u25810x770ad000": 4162,
    "\u25810x770ae000": 4163,
    "\u25810x770af000": 4164,
    "\u25810x770b0000": 4165,
    "\u25810x770b1000": 4166,
    "\u25810x770b2000": 4167,
    "\u25810x770b3000": 4168,
    "\u25810x770b4000": 4169,
    "\u25810x770b5000": 4170,
    "\u25810x770b6000": 4171,
    "\u25810x770b7000": 4172,
    "\u25810x770b8000": 4173,
    "\u25810x770b9000": 4174,
    "\u25810x770ba000": 4175,
    "\u25810x770bb000": 4176,
    "\u25810x770bc000": 4177,
    "\u25810x770bd000": 4178,
    "\u25810x770be000": 4179,
    "\u25810x770bf000": 4180,
    "\u25810x770c0000": 4181,
    "\u25810x770c1000": 4182,
    "\u25810x770c2000": 4183,
    "\u25810x770c3000": 4184,
    "\u25810x770c4000": 4185,
    "\u25810x770c5000": 4186,
    "\u25810x770c6000": 4187,
    "\u25810x770c7000": 4188,
    "\u25810x770c8000": 4189,
    "\u25810x770c9000": 4190,
    "\u25810x770ca000": 4191,
    "\u25810x770cb000": 4192,
    "\u25810x770cc000": 4193,
    "\u25810x770cd000": 4194,
    "\u25810x770ce000": 4195,
    "\u25810x770cf000": 4196,
    "\u25810x770d0000": 4197,
    "\u25810x770d1000": 4198,
    "\u25810x770d2000": 4199,
    "\u25810x770d3000": 4200,
    "\u25810x770d4000": 4201,
    "\u25810x770d5000": 4202,
    "\u25810x770d6000": 4203,
    "\u25810x770d7000": 4204,
    "\u25810x770d8000": 4205,
    "\u25810x770d9000": 4206,
    "\u25810x770da000": 4207,
    "\u25810x770db000": 4208,
    "\u25810x770dc000": 4209,
    "\u25810x770dd000": 4210,
    "\u25810x770de000": 4211,
    "\u25810x770df000": 4212,
    "\u25810x770e0000": 4213,
    "\u25810x770e1000": 4214,
    "\u25810x770e2000": 4215,
    "\u25810x770e3000": 4216,
    "\u25810x770e4000": 4217,
    "\u25810x770e5000": 4218,
    "\u25810x770e6000": 4219,
    "\u25810x770e7000": 4220,
    "\u25810x770e8000": 4221,
    "\u25810x770e9000": 4222,
    "\u25810x770ea000": 4223,
    "\u25810x770eb000": 4224,
    "\u25810x770ec000": 4225,
    "\u25810x770ed000": 4226,
    "\u25810x770ee000": 4227,
    "\u25810x770ef000": 4228,
    "\u25810x770f0000": 4229,
    "\u25810x770f1000": 4230,
    "\u25810x770f2000": 4231,
    "\u25810x770f3000": 4232,
    "\u25810x770f4000": 4233,
    "\u25810x770f5000": 4234,
    "\u25810x770f6000": 4235,
    "\u25810x770f7000": 4236,
    "\u25810x770f8000": 4237,
    "\u25810x770f9000": 4238,
    "\u25810x770fa000": 4239,
    "\u25810x770fb000": 4240,
    "\u25810x770fc000": 4241,
    "\u25810x770fd000": 4242,
    "\u25810x770fe000": 4243,
    "\u25810x770ff000": 4244,
    "\u25810x77100000": 4245,
    "\u25810x77101000": 4246,
    "\u25810x77102000": 4247,
    "\u25810x77103000": 4248,
    "\u25810x77104000": 4249,
    "\u25810x77105000": 4250,
    "\u25810x77106000": 4251,
    "\u25810x77107000": 4252,
    "\u25810x77108000": 4253,
    "\u25810x77109000": 4254,
    "\u25810x7710a000": 4255,
    "\u25810x7710b000": 4256,
    "\u25810x7710c000": 4257,
    "\u25810x7710d000": 4258,
    "\u25810x7710e000": 4259,
    "\u25810x7710f000": 4260,
    "\u25810x77110000": 4261,
    "\u25810x77111000": 4262,
    "\u25810x77112000": 4263,
    "\u25810x77113000": 4264,
    "\u25810x77114000": 4265,
    "\u25810x77115000": 4266,
    "\u25810x77116000": 4267,
    "\u25810x77117000": 4268,
    "\u25810x77118000": 4269,
    "\u25810x77119000": 4270,
    "\u25810x7711a000": 4271,
    "\u25810x7711b000": 4272,
    "\u25810x7711c000": 4273,
    "\u25810x7711d000": 4274,
    "\u25810x7711e000": 4275,
    "\u25810x7711f000": 4276,
    "\u25810x77120000": 4277,
    "\u25810x77121000": 4278,
    "\u25810x77122000": 4279,
    "\u25810x77123000": 4280,
    "\u25810x77124000": 4281,
    "\u25810x77125000": 4282,
    "\u25810x77126000": 4283,
    "\u25810x77127000": 4284,
    "\u25810x77128000": 4285,
    "\u25810x77129000": 4286,
    "\u25810x7712a000": 4287,
    "\u25810x7712b000": 4288,
    "\u25810x7712c000": 4289,
    "\u25810x7712d000": 4290,
    "\u25810x7712e000": 4291,
    "\u25810x7712f000": 4292,
    "\u25810x77130000": 4293,
    "\u25810x77131000": 4294,
    "\u25810x77132000": 4295,
    "\u25810x77133000": 4296,
    "\u25810x77134000": 4297,
    "\u25810x77135000": 4298,
    "\u25810x77136000": 4299,
    "\u25810x77137000": 4300,
    "\u25810x77138000": 4301,
    "\u25810x77139000": 4302,
    "\u25810x7713a000": 4303,
    "\u25810x7713b000": 4304,
    "\u25810x7713c000": 4305,
    "\u25810x7713d000": 4306,
    "\u25810x7713e000": 4307,
    "\u25810x7713f000": 4308,
    "\u25810x77140000": 4309,
    "\u25810x77141000": 4310,
    "\u25810x77142000": 4311,
    "\u25810x77143000": 4312,
    "\u25810x77144000": 4313,
    "\u25810x77145000": 4314,
    "\u25810x77146000": 4315,
    "\u25810x77147000": 4316,
    "\u25810x77148000": 4317,
    "\u25810x77149000": 4318,
    "\u25810x7714a000": 4319,
    "\u25810x7714b000": 4320,
    "\u25810x7714c000": 4321,
    "\u25810x7714d000": 4322,
    "\u25810x7714e000": 4323,
    "\u25810x7714f000": 4324,
    "\u25810x77150000": 4325,
    "\u25810x77151000": 4326,
    "\u25810x77152000": 4327,
    "\u25810x77153000": 4328,
    "\u25810x77154000": 4329,
    "\u25810x77155000": 4330,
    "\u25810x77156000": 4331,
    "\u25810x77157000": 4332,
    "\u25810x77158000": 4333,
    "\u25810x77159000": 4334,
    "\u25810x7715a000": 4335,
    "\u25810x7715b000": 4336,
    "\u25810x7715c000": 4337,
    "\u25810x7715d000": 4338,
    "\u25810x7715e000": 4339,
    "\u25810x7715f000": 4340,
    "\u25810x77160000": 4341,
    "\u25810x77161000": 4342,
    "\u25810x77162000": 4343,
    "\u25810x77163000": 4344,
    "\u25810x77164000": 4345,
    "\u25810x77165000": 4346,
    "\u25810x77166000": 4347,
    "\u25810x77167000": 4348,
    "\u25810x77168000": 4349,
    "\u25810x77169000": 4350,
    "\u25810x7716a000": 4351,
    "\u25810x7716b000": 4352,
    "\u25810x7716c000": 4353,
    "\u25810x7716d000": 4354,
    "\u25810x7716e000": 4355,
    "\u25810x7716f000": 4356,
    "\u25810x77170000": 4357,
    "\u25810x77171000": 4358,
    "\u25810x77172000": 4359,
    "\u25810x77173000": 4360,
    "\u25810x77174000": 4361,
    "\u25810x77175000": 4362,
    "\u25810x77176000": 4363,
    "\u25810x77177000": 4364,
    "\u25810x77178000": 4365,
    "\u25810x77179000": 4366,
    "\u25810x7717a000": 4367,
    "\u25810x7717b000": 4368,
    "\u25810x7717c000": 4369,
    "\u25810x7717d000": 4370,
    "\u25810x7717e000": 4371,
    "\u25810x7717f000": 4372,
    "\u25810x77180000": 4373,
    "\u25810x77181000": 4374,
    "\u25810x77182000": 4375,
    "\u25810x77183000": 4376,
    "\u25810x77184000": 4377,
    "\u25810x77185000": 4378,
    "\u25810x77186000": 4379,
    "\u25810x77187000": 4380,
    "\u25810x77188000": 4381,
    "\u25810x77189000": 4382,
    "\u25810x7718a000": 4383,
    "\u25810x7718b000": 4384,
    "\u25810x7718c000": 4385,
    "\u25810x7718d000": 4386,
    "\u25810x7718e000": 4387,
    "\u25810x7718f000": 4388,
    "\u25810x77190000": 4389,
    "\u25810x77191000": 4390,
    "\u25810x77192000": 4391,
    "\u25810x77193000": 4392,
    "\u25810x77194000": 4393,
    "\u25810x77195000": 4394,
    "\u25810x77196000": 4395,
    "\u25810x77197000": 4396,
    "\u25810x77198000": 4397,
    "\u25810x77199000": 4398,
    "\u25810x7719a000": 4399,
    "\u25810x7719b000": 4400,
    "\u25810x7719c000": 4401,
    "\u25810x7719d000": 4402,
    "\u25810x7719e000": 4403,
    "\u25810x7719f000": 4404,
    "\u25810x771a0000": 4405,
    "\u25810x771a1000": 4406,
    "\u25810x771a2000": 4407,
    "\u25810x771a3000": 4408,
    "\u25810x771a4000": 4409,
    "\u25810x771a5000": 4410,
    "\u25810x771a6000": 4411,
    "\u25810x771a7000": 4412,
    "\u25810x771a8000": 4413,
    "\u25810x771a9000": 4414,
    "\u25810x771aa000": 4415,
    "\u25810x771ab000": 4416,
    "\u25810x771ac000": 4417,
    "\u25810x771ad000": 4418,
    "\u25810x771ae000": 4419,
    "\u25810x771af000": 4420,
    "\u25810x771b0000": 4421,
    "\u25810x771b1000": 4422,
    "\u25810x771b2000": 4423,
    "\u25810x771b3000": 4424,
    "\u25810x771b4000": 4425,
    "\u25810x771b5000": 4426,
    "\u25810x771b6000": 4427,
    "\u25810x771b7000": 4428,
    "\u25810x771b8000": 4429,
    "\u25810x771b9000": 4430,
    "\u25810x771ba000": 4431,
    "\u25810x771bb000": 4432,
    "\u25810x771bc000": 4433,
    "\u25810x771bd000": 4434,
    "\u25810x771be000": 4435,
    "\u25810x771bf000": 4436,
    "\u25810x771c0000": 4437,
    "\u2581physicalmemory": 4438,
    "\u25810x1211df4": 4439,
    "\u25810x771c1000": 4440,
    "\u25810x771c2000": 4441,
    "\u25810x771c3000": 4442,
    "\u25810x771c4000": 4443,
    "\u25810x771c5000": 4444,
    "\u25810x771c6000": 4445,
    "want": 4446,
    "\u2581program": 4447,
    "\u25810xbc": 4448,
    "97a6": 4449,
    "\u25810x94c0": 4450,
    "\u25810x4c51": 4451,
    "358": 4452,
    "646d7": 4453,
    "\u2581getdiskfreespaceexw": 4454,
    "\u25810x97b0": 4455,
    "\u25810x99d0": 4456,
    "656c7": 4457,
    "\u25810xffc5": 4458,
    "\u258174726": 4459,
    "\u2581776f7": 4460,
    "26b2e68": 4461,
    "97a6e61": 4462,
    "26b2e68656c7": 4463,
    "97a6e61646d7": 4464,
    "\u25817472697a6e61646d7": 4465,
    "\u2581776f726b2e68656c7": 4466,
    "\u25817472697a6e61646d73696e6b692e6669": 4467,
    "\u2581776f726b2e68656c73696e6b692e6669": 4468,
    "\u25810x41cb": 4469,
    "\u2581memset": 4470,
    "e10": 4471,
    "\u2581comparestringw": 4472,
    "f84": 4473,
    "\u2581vers": 4474,
    "\u2581comm": 4475,
    "\u25810xffab": 4476,
    "acceleratorsw": 4477,
    "\u2581loadacceleratorsw": 4478,
    "licence": 4479,
    "\u25810xfff5": 4480,
    "160": 4481,
    "\u25810x490": 4482,
    "c4c": 4483,
    "\u258117": 4484,
    "a90000": 4485,
    "\u25810x500": 4486,
    "ad8": 4487,
    "\u25810xfc": 4488,
    "\u25810x480": 4489,
    "\u25810x41b9": 4490,
    "694": 4491,
    "b8c": 4492,
    "ffd1ff": 4493,
    "eengine": 4494,
    "initializeengine": 4495,
    "\u2581failedtoinitializeengine": 4496,
    "\u25814d5": 4497,
    "\u25810x44d4": 4498,
    "\u2581getkeyboardtype": 4499,
    "\u25810xffac": 4500,
    "\u2581verset": 4501,
    "conditionmask": 4502,
    "\u2581versetconditionmask": 4503,
    "\u25810x429e": 4504,
    "contr": 4505,
    "ly": 4506,
    "\u25810x3f2": 4507,
    "\u2581no": 4508,
    "\u25810x417c": 4509,
    "imeto": 4510,
    "d98": 4511,
    "b40": 4512,
    "700": 4513,
    "\u25810xffcc": 4514,
    "\u25810x51c4": 4515,
    "\u25810x3f30b0": 4516,
    "\u25810x3f30e0": 4517,
    "\u25810xb0": 4518,
    "\u25810x406": 4519,
    "\u2581msc": 4520,
    "\u25810x3f3030": 4521,
    "ffff0000": 4522,
    "\u25810x3f3110": 4523,
    "\u25810x3f3140": 4524,
    "\u25810x41688": 4525,
    "\u25810x422e": 4526,
    "e24": 4527,
    "\u25810x3f6000": 4528,
    "3a8": 4529,
    "\u25810x419d": 4530,
    "000000ffff0000": 4531,
    "\u25810x164": 4532,
    "3c0": 4533,
    "984": 4534,
    "\u25810xffd0": 4535,
    "\u2581as": 4536,
    "\u25810x3f7000": 4537,
    "\u25810x1211f70": 4538,
    "\u25810x3fb000": 4539,
    "cid": 4540,
    "\u25810x12118f8": 4541,
    "384": 4542,
    "\u25810x3f8000": 4543,
    "delet": 4544,
    "\u25810x1210ee": 4545,
    "\u25810x4c4230": 4546,
    "\u25810x4c4260": 4547,
    "\u25810x4c42a8": 4548,
    "leasec": 4549,
    "\u25810x42a730": 4550,
    "\u25810x42a731": 4551,
    "\u25810x4c4248": 4552,
    "\u25810x4c4278": 4553,
    "\u25810x4c4290": 4554,
    "\u25810x4c4320": 4555,
    "\u25810x4c4338": 4556,
    "\u25810x4c4350": 4557,
    "\u25810x4c4368": 4558,
    "ream": 4559,
    "\u25810x40a584": 4560,
    "\u25810x40a582": 4561,
    "\u25810x40a586": 4562,
    "\u25810x40a588": 4563,
    "550": 4564,
    "a4c": 4565,
    "\u25810x40a58a": 4566,
    "4000000ffff0000": 4567,
    "\u25810x40a580": 4568,
    "ms": 4569,
    "\u25810x40a57e": 4570,
    "\u25810x429a81": 4571,
    "556": 4572,
    "\u25810x3fa000": 4573,
    "\u25810x41624": 4574,
    "\u25810x3f9000": 4575,
    "260": 4576,
    "\u25810x5265c3c": 4577,
    "f4c": 4578,
    "\u25810x437ae4": 4579,
    "\u25810x437207": 4580,
    "\u25810x437208": 4581,
    "\u25810x437ad2": 4582,
    "\u25810x437ad3": 4583,
    "\u25810x437ae3": 4584,
    "\u25810x437b63": 4585,
    "\u25810x437b64": 4586,
    "\u25810x437b7b": 4587,
    "\u25810x437b7c": 4588,
    "\u25810x437bbd": 4589,
    "\u25810x437bbe": 4590,
    "\u25810x437bce": 4591,
    "\u25810x437bcf": 4592,
    "\u25810x437c42": 4593,
    "\u25810x437c43": 4594,
    "\u25810x8824": 4595,
    "\u25810x1210e5": 4596,
    "ffc": 4597,
    "\u25810x4c5158": 4598,
    "\u25810x8825": 4599,
    "\u25810x429e2b": 4600,
    "\u25810x429e2c": 4601,
    "\u25810x434d1c": 4602,
    "\u25810x43b7a9": 4603,
    "\u25810x43b7aa": 4604,
    "\u25810x43b7b8": 4605,
    "\u25810x8828": 4606,
    "\u25810x422ebe": 4607,
    "\u25810x43b7b3": 4608,
    "\u25810x43b7b4": 4609,
    "\u25810x43b7ba": 4610,
    "\u25810x43b7c4": 4611,
    "ed1": 4612,
    "\u2581run": 4613,
    "\u25810x1211f84": 4614,
    "a900003": 4615,
    "\u25810x41c0": 4616,
    "\u25810x1210f5": 4617,
    "\u25810x433618": 4618,
    "\u25814d5a900003": 4619,
    "\u25814d5a9000030000000": 4620,
    "\u25814d5a90000300000004000000ffff0000": 4621,
    "b30": 4622,
    "\u25810x8650": 4623,
    "\u25810x169b": 4624,
    "\u25810x41b": 4625,
    "metafile": 4626,
    "\u25810x42e5f8": 4627,
    "324": 4628,
    "\u25810x103": 4629,
    "704": 4630,
    "ansi": 4631,
    "f8c": 4632,
    "apis": 4633,
    "\u25810x1211d08": 4634,
    "\u25810x3f75f60": 4635,
    "310": 4636,
    "\u25810x8829": 4637,
    "\u25810x4315b0": 4638,
    "\u25810x882c": 4639,
    "apisansi": 4640,
    "\u2581arefile": 4641,
    "\u2581arefileapisansi": 4642,
    "784": 4643,
    "\u25810x882d": 4644,
    "\u25810x120e6d8": 4645,
    "\u25810x8834": 4646,
    "\u25810x4967a8": 4647,
    "\u2581y": 4648,
    "\u2581findfirstfilea": 4649,
    "\u25810x4960": 4650,
    "\u25810x7e3000": 4651,
    "\u25810x7e4000": 4652,
    "\u25810x8831": 4653,
    "ff4": 4654,
    "\u25810x8835": 4655,
    "\u25810x1211f80": 4656,
    "\u25810x509": 4657,
    "\u25810x8660": 4658,
    "\u25810x42fc38": 4659,
    "\u25810x4de": 4660,
    "\u25810x4196": 4661,
    "936": 4662,
    "access": 4663,
    "\u25810x420e": 4664,
    "c44": 4665,
    "\u25810x4168": 4666,
    "application": 4667,
    "e04": 4668,
    "\u25810x4470": 4669,
    "d84": 4670,
    "124": 4671,
    "40c": 4672,
    "\u25810xffd2": 4673,
    "278": 4674,
    "\u25810x8f50": 4675,
    "bc4": 4676,
    "\u25810x405": 4677,
    "\u25810x4554": 4678,
    "\u2581shellexecutea": 4679,
    "344": 4680,
    "\u25810x3f75f30": 4681,
    "\u2581ob": 4682,
    "\u25810xffad": 4683,
    "104": 4684,
    "\u25810x44f910": 4685,
    "\u25810x41d1": 4686,
    "fa8": 4687,
    "controls": 4688,
    "\u25810x42fbf0": 4689,
    "ownload": 4690,
    "\u25810x42900": 4691,
    "302": 4692,
    "f28": 4693,
    "\u25810x235": 4694,
    "\u25810xffef": 4695,
    "ffcb": 4696,
    "\u2581tlsfree": 4697,
    "\u25810x423868": 4698,
    "\u25810x423898": 4699,
    "\u25810x430880": 4700,
    "myarg2": 4701,
    "\u2581setc": 4702,
    "340": 4703,
    "\u25810x431": 4704,
    "ed2": 4705,
    "\u25810x40a5ac": 4706,
    "c8d": 4707,
    "26c": 4708,
    "\u25810x419f": 4709,
    "144": 4710,
    "ae8": 4711,
    "\u25810x419c20": 4712,
    "\u2581do": 4713,
    "\u25810x3f23": 4714,
    "\u25810x1210e6": 4715,
    "oree": 4716,
    "\u2581mscoree": 4717,
    "\u25810x4e30": 4718,
    "yarg1myarg2": 4719,
    "218": 4720,
    "\u25810x181": 4721,
    "\u25810x42ae": 4722,
    "\u25810x1210f6": 4723,
    "a6c": 4724,
    "\u25810x40b3": 4725,
    "\u25810x41dd": 4726,
    "\u2581form": 4727,
    "sk": 4728,
    "248": 4729,
    "\u25810x40ef1": 4730,
    "bad8": 4731,
    "f50": 4732,
    "\u25810x3f21": 4733,
    "\u25810x42e0f0": 4734,
    "56c": 4735,
    "f20": 4736,
    "inity": 4737,
    "\u25810x4c3308": 4738,
    "\u25810x4290": 4739,
    "\u2581lstrcpya": 4740,
    "b84": 4741,
    "c0c": 4742,
    "\u25810x343b570": 4743,
    "318": 4744,
    "\u25810x7ee9": 4745,
    "744": 4746,
    "affinity": 4747,
    "affinitymask": 4748,
    "\u25810x486d": 4749,
    "\u25810x7e5000": 4750,
    "2c8": 4751,
    "\u25810xffc4": 4752,
    "\u25810xffe3": 4753,
    "\u25810x4febd8": 4754,
    "stream": 4755,
    "\u2581lcmapstringa": 4756,
    "284": 4757,
    "768": 4758,
    "onsolew": 4759,
    "\u25810x100b": 4760,
    "b20": 4761,
    "b4c": 4762,
    "f40": 4763,
    "\u25810x4363d8": 4764,
    "\u25810xffe2": 4765,
    "\u25810x42d3c0": 4766,
    "afcdff": 4767,
    "afcdffceff": 4768,
    "\u2581b2acb2afcdffceff": 4769,
    "120": 4770,
    "\u25810x1210f1": 4771,
    "\u25810x1210f7": 4772,
    "\u25810x1211e24": 4773,
    "\u2581removed": 4774,
    "66c": 4775,
    "eec": 4776,
    "\u25810x43f0": 4777,
    "\u25810xffe7": 4778,
    "\u25810x431f38": 4779,
    "\u25810x2100210": 4780,
    "\u25810x1210f9": 4781,
    "if": 4782,
    "\u2581cq": 4783,
    "d68": 4784,
    "\u25810xffec": 4785,
    "\u25810x1211ccc": 4786,
    "\u25810x8f20": 4787,
    "\u2581removedirectory": 4788,
    "\u25810x42c1": 4789,
    "dc0": 4790,
    "\u25810x47e0": 4791,
    "\u25810x4130": 4792,
    "\u25810x7f02": 4793,
    "pi": 4794,
    "\u2581asw": 4795,
    "\u2581coinitialize": 4796,
    "e84": 4797,
    "758": 4798,
    "918": 4799,
    "b18": 4800,
    "fied": 4801,
    "\u25810x4fe2": 4802,
    "\u25810xffae": 4803,
    "fc8": 4804,
    "\u25810x4084": 4805,
    "\u25810x7ee8": 4806,
    "\u25810x431ef0": 4807,
    "569": 4808,
    "\u2581sa": 4809,
    "\u25810x4378c8": 4810,
    "bb0": 4811,
    "\u25810x99a0": 4812,
    "\u25810xffaf": 4813,
    "\u25810x5004": 4814,
    "\u25810x7bc": 4815,
    "\u2581getstringtypea": 4816,
    "\u2581getprocessaffinitymask": 4817,
    "\u25810x437820": 4818,
    "c7ffd1ff": 4819,
    "c7ffd1ffca": 4820,
    "32c": 4821,
    "item": 4822,
    "\u25810x4700": 4823,
    "ffcbff": 4824,
    "\u25810x8930": 4825,
    "c7ffd1ffcaffcbff": 4826,
    "\u2581b2acb2afcdffceffc7ffd1ffcaffcbff": 4827,
    "\u25810xffc2": 4828,
    "409": 4829,
    "\u25810xff90": 4830,
    "\u25810x3f25": 4831,
    "\u25810x4fe6e8": 4832,
    "metafilebits": 4833,
    "1d0": 4834,
    "par": 4835,
    "\u2581setenvironment": 4836,
    "\u25810x421d": 4837,
    "f70": 4838,
    "382": 4839,
    "reque": 4840,
    "atom": 4841,
    "555": 4842,
    "\u25810x4010": 4843,
    "404": 4844,
    "\u25810xd000": 4845,
    "\u25810x42bf": 4846,
    "\u25810x58000": 4847,
    "2e0": 4848,
    "\u25810x4efd": 4849,
    "itor": 4850,
    "\u2581format": 4851,
    "9c2": 4852,
    "tac": 4853,
    "a90": 4854,
    "\u25810x20009": 4855,
    "\u25810x1211de4": 4856,
    "\u25810x56bad8": 4857,
    "\u25810x41a6": 4858,
    "\u25810x41d114": 4859,
    "\u25810x120f8c2": 4860,
    "\u25810xff91": 4861,
    "\u25810x8ec0": 4862,
    "\u2581cadwork": 4863,
    "4005": 4864,
    "d28": 4865,
    "541": 4866,
    "\u25810x46b3d0": 4867,
    "\u25810x4cb0": 4868,
    "\u25810x42ea": 4869,
    "\u25810x401": 4870,
    "\u25810x431d00": 4871,
    "\u25810x1211f1c": 4872,
    "wantto": 4873,
    "\u2581remove": 4874,
    "\u25810x1210c": 4875,
    "91c": 4876,
    "fb0": 4877,
    "\u25810xbd": 4878,
    "\u25810x3f26": 4879,
    "\u25810x59c1": 4880,
    "\u25810x4090": 4881,
    "94c": 4882,
    "3e0": 4883,
    "\u25810x1211e20": 4884,
    "\u2581setendoffile": 4885,
    "\u25810x49c8": 4886,
    "\u25810x59bf": 4887,
    "b14": 4888,
    "\u25810x87": 4889,
    "9e00": 4890,
    "\u25810x45f1": 4891,
    "\u25810xfeee011": 4892,
    "\u25810x7bc00000": 4893,
    "\u25810x8fc0": 4894,
    "a0f": 4895,
    "numberis": 4896,
    "528": 4897,
    "\u25810x30000": 4898,
    "a09": 4899,
    "comm": 4900,
    "\u2581gdip": 4901,
    "\u25810x438": 4902,
    "12c": 4903,
    "\u2581install": 4904,
    "msg": 4905,
    "\u25810x1211bfc": 4906,
    "ivate": 4907,
    "b78": 4908,
    "\u25810x4270": 4909,
    "2dc": 4910,
    "360": 4911,
    "888": 4912,
    "\u25810x107": 4913,
    "\u2581noaccess": 4914,
    "\u25810x1211808": 4915,
    "\u25810x418a00": 4916,
    "\u25810x418a30": 4917,
    "\u25810xfeee00f4": 4918,
    "winmetafilebits": 4919,
    "70c": 4920,
    "\u25810x9a90": 4921,
    "\u25810xffc3": 4922,
    "strings": 4923,
    "5c0": 4924,
    "\u25810x3200": 4925,
    "\u25810x5658": 4926,
    "\u25810x1210ed": 4927,
    "ctrl": 4928,
    "private": 4929,
    "316": 4930,
    "core": 4931,
    "textw": 4932,
    "224": 4933,
    "\u25810x8b50": 4934,
    "\u2581getenvironmentstrings": 4935,
    "\u25810x6e": 4936,
    "b10": 4937,
    "a28": 4938,
    "\u2581wcs": 4939,
    "vis": 4940,
    "\u2581go": 4941,
    "\u25810x40ab": 4942,
    "sol": 4943,
    "privateprofile": 4944,
    "558": 4945,
    "len": 4946,
    "ority": 4947,
    "solec": 4948,
    "bd4": 4949,
    "\u25810x41c4": 4950,
    "190": 4951,
    "\u25810x3f27": 4952,
    "\u2581findnextfilea": 4953,
    "\u25810x4d50": 4954,
    "\u2581setcurrent": 4955,
    "function": 4956,
    "f30": 4957,
    "listmsg": 4958,
    "\u2581commctrl": 4959,
    "\u2581draglistmsg": 4960,
    "tokeninformation": 4961,
    "\u2581sys": 4962,
    "\u25810x60c6": 4963,
    "\u25810x4307e0": 4964,
    "e8c": 4965,
    "\u25810x120fd": 4966,
    "718": 4967,
    "3d8": 4968,
    "\u25810x2012": 4969,
    "7f0": 4970,
    "\u25810xfff4": 4971,
    "\u25810x44d4b8": 4972,
    "\u25810x109": 4973,
    "\u25810x7eab": 4974,
    "\u2581gettokeninformation": 4975,
    "370": 4976,
    "\u25810x42be": 4977,
    "download": 4978,
    "\u25810x9210": 4979,
    "\u2581di": 4980,
    "1cc": 4981,
    "\u25810x47f0": 4982,
    "\u2581getwinmetafilebits": 4983,
    "60c": 4984,
    "c84": 4985,
    "aa0": 4986,
    "\u25810x1211ef4": 4987,
    "d0c": 4988,
    "\u25810x401000": 4989,
    "\u2581setdll": 4990,
    "\u25810x97c0": 4991,
    "af4": 4992,
    "\u25810x2825": 4993,
    "9c0": 4994,
    "d40": 4995,
    "edit": 4996,
    "928": 4997,
    "\u25810x2200": 4998,
    "b0c": 4999,
    "fec": 5000,
    "\u25810x4088": 5001,
    "bf0": 5002,
    "internal": 5003,
    "\u25810x12106": 5004,
    "34c": 5005,
    "\u25810x3f3060": 5006,
    "\u25810x8ce0": 5007,
    "\u25810x9810": 5008,
    "olfp": 5009,
    "\u25810x3f3010": 5010,
    "\u2581controlfp": 5011,
    "\u25810x53e4": 5012,
    "3f0": 5013,
    "304": 5014,
    "errornumberis": 5015,
    "\u2581programinternal": 5016,
    "\u2581programinternalerrornumberis": 5017,
    "90c": 5018,
    "3c4": 5019,
    "aaaaaaaa": 5020,
    "\u25810x45f2": 5021,
    "\u25810x8ef0": 5022,
    "\u2581lstrcmpw": 5023,
    "\u25810x1211d00": 5024,
    "fe0": 5025,
    "\u2581dragob": 5026,
    "\u25810x1211f97": 5027,
    "\u2581version": 5028,
    "reate": 5029,
    "\u25810xffdd": 5030,
    "\u25810x107538": 5031,
    "\u25810x4395c8": 5032,
    "\u2581download": 5033,
    "363": 5034,
    "\u2581commode": 5035,
    "fd0": 5036,
    "fromstream": 5037,
    "978": 5038,
    "\u25810x4096": 5039,
    "\u25810x4bb0": 5040,
    "\u25810x40a59c": 5041,
    "\u25810x4126": 5042,
    "\u2581shfolder": 5043,
    "200": 5044,
    "lcid": 5045,
    "a54": 5046,
    "568": 5047,
    "\u2581getmenu": 5048,
    "\u25810x1211f44": 5049,
    "created": 5050,
    "\u25810x120fb48": 5051,
    "f44": 5052,
    "\u25810x408478": 5053,
    "dc1": 5054,
    "\u25810x8a41": 5055,
    "b70": 5056,
    "ned": 5057,
    "\u2581setfilepointerex": 5058,
    "defaultu": 5059,
    "defaultuilanguage": 5060,
    "\u2581qt": 5061,
    "\u25810x7e00": 5062,
    "\u25810x120faa8": 5063,
    "d8c": 5064,
    "\u25810x107598": 5065,
    "\u25810x437804": 5066,
    "\u25810x42c4f0": 5067,
    "ver": 5068,
    "base": 5069,
    "\u25810x82f0": 5070,
    "f46": 5071,
    "\u2581wts": 5072,
    "\u25810x4614": 5073,
    "owned": 5074,
    "678": 5075,
    "948": 5076,
    "\u2581log": 5077,
    "\u25810x1211900": 5078,
    "\u2581fil": 5079,
    "\u25810x7f7": 5080,
    "\u25810x42ae20": 5081,
    "794": 5082,
    "d50": 5083,
    "inter": 5084,
    "\u25810x1211cfc": 5085,
    "\u25810x107658": 5086,
    "\u25810x566a40": 5087,
    "644": 5088,
    "f78": 5089,
    "stringw": 5090,
    "tp": 5091,
    "\u25810x4310": 5092,
    "ip": 5093,
    "\u2581monitor": 5094,
    "\u25810x419d50": 5095,
    "\u2581getsystemtimes": 5096,
    "\u25810x42b020": 5097,
    "\u25810x409020": 5098,
    "\u25810x419e00": 5099,
    "\u2581202203040": 5100,
    "3b8": 5101,
    "ession": 5102,
    "\u25810x419f40": 5103,
    "\u25810x42a070": 5104,
    "\u25810x42b024": 5105,
    "\u25810x42b028": 5106,
    "\u25810x41c044": 5107,
    "\u25810x42aa58": 5108,
    "001": 5109,
    "db0": 5110,
    "\u25810x169bf64": 5111,
    "\u25810x8d90": 5112,
    "\u2581oleload": 5113,
    "\u2581oleloadfromstream": 5114,
    "7a8": 5115,
    "\u2581removedirectorya": 5116,
    "884": 5117,
    "\u25810x10e9": 5118,
    "\u25810x54000": 5119,
    "38c": 5120,
    "716": 5121,
    "d30": 5122,
    "b50": 5123,
    "\u25810x5c000": 5124,
    "ef0": 5125,
    "\u25810x8ed0": 5126,
    "\u25810x120f7": 5127,
    "param": 5128,
    "\u25810x7ff": 5129,
    "\u25810x107688": 5130,
    "\u25810x416b50": 5131,
    "\u25810x44180": 5132,
    "570": 5133,
    "d18": 5134,
    "dd4": 5135,
    "notin": 5136,
    "b28": 5137,
    "f58": 5138,
    "\u25810x1210f3": 5139,
    "\u25810x3b7": 5140,
    "itialized": 5141,
    "notinitialized": 5142,
    "vironmentstringsa": 5143,
    "a7c": 5144,
    "\u25810xffc7": 5145,
    "ectlock": 5146,
    "\u25810x45f4": 5147,
    "notowned": 5148,
    "supfunction": 5149,
    "ectlocknotowned": 5150,
    "\u2581monitorsupfunction": 5151,
    "\u2581monitorsupfunctionnotinitialized": 5152,
    "\u25810xffc1": 5153,
    "\u25810x644": 5154,
    "\u25810x4912": 5155,
    "\u2581setthreadlocale": 5156,
    "a78": 5157,
    "\u2581coun": 5158,
    "\u25810x4828": 5159,
    "\u25810x50850": 5160,
    "vchost": 5161,
    "\u25810x4990": 5162,
    "\u2581svchost": 5163,
    "\u2581dw": 5164,
    "\u2581oleinitialize": 5165,
    "\u2581regedit": 5166,
    "reen": 5167,
    "fc4": 5168,
    "\u25812022": 5169,
    "\u25810x1075c8": 5170,
    "\u2581setdlldirectoryw": 5171,
    "3a4": 5172,
    "\u25810x1210e78": 5173,
    "\u25810x1210e7c": 5174,
    "compar": 5175,
    "compareex": 5176,
    "compareexchange": 5177,
    "\u2581interlockedcompareexchange": 5178,
    "\u25810xcb000": 5179,
    "f85": 5180,
    "filewas": 5181,
    "specified": 5182,
    "\u25810x433660": 5183,
    "\u25810x42f3": 5184,
    "\u25810x1211e18": 5185,
    "\u2581thespecified": 5186,
    "filewasnotfound": 5187,
    "\u2581thespecifiedfilewasnotfound": 5188,
    "ba8": 5189,
    "\u25810x169bf74": 5190,
    "\u2581goog": 5191,
    "\u258124": 5192,
    "\u2581google": 5193,
    "e28": 5194,
    "\u2581writeconsolew": 5195,
    "\u25810x1075f8": 5196,
    "\u25810x107628": 5197,
    "\u25810x188e00": 5198,
    "\u25810x1211db8": 5199,
    "db24": 5200,
    "lower": 5201,
    "54c": 5202,
    "a38": 5203,
    "\u25810x4330c8": 5204,
    "\u25810x8a60": 5205,
    "\u2581getcurrentdirectorya": 5206,
    "500": 5207,
    "\u2581movefilea": 5208,
    "\u2581getconsolemode": 5209,
    "298": 5210,
    "\u2581int": 5211,
    "\u25810x188d3c": 5212,
    "\u25810x88b0": 5213,
    "\u2581msvcr90": 5214,
    "d48": 5215,
    "\u25810xc94": 5216,
    "\u25810x4086": 5217,
    "d20": 5218,
    "hook": 5219,
    "\u25810x5199": 5220,
    "\u2581pleas": 5221,
    "lsid": 5222,
    "\u2581strcmp": 5223,
    "720": 5224,
    "d5c": 5225,
    "dl": 5226,
    "\u25810x423e08": 5227,
    "\u25810x8f70": 5228,
    "381": 5229,
    "b90": 5230,
    "f18": 5231,
    "\u25810x4201": 5232,
    "3b0": 5233,
    "\u25810x12117e8": 5234,
    "ba0": 5235,
    "\u25810x42d4f0": 5236,
    "\u25810x12117fc": 5237,
    "\u25810x42c5d0": 5238,
    "\u25810x63000000": 5239,
    "aa4": 5240,
    "\u25810x5617": 5241,
    "f51": 5242,
    "3d1": 5243,
    "instal": 5244,
    "b58": 5245,
    "\u25810x7d51": 5246,
    "\u25810x40ac": 5247,
    "2b0": 5248,
    "a0e": 5249,
    "d58": 5250,
    "\u25810x412f": 5251,
    "\u25810x45fe": 5252,
    "fd8": 5253,
    "\u25810x188e24": 5254,
    "b98": 5255,
    "onsolec": 5256,
    "\u25810x45f6": 5257,
    "\u25810x9af0": 5258,
    "\u2581getconsolec": 5259,
    "11c": 5260,
    "\u25810x42be20": 5261,
    "\u25810x80c": 5262,
    "\u25810x4155": 5263,
    "\u25810x45f3": 5264,
    "\u25810x44000": 5265,
    "\u25810x45f5": 5266,
    "\u25810x9d10": 5267,
    "b68": 5268,
    "\u25810x42efe8": 5269,
    "\u2581e000": 5270,
    "\u25810x110": 5271,
    "\u2581getconsolecp": 5272,
    "ph": 5273,
    "3d0": 5274,
    "acc": 5275,
    "\u25810x45fa": 5276,
    "80004005": 5277,
    "\u2581error0x80004005": 5278,
    "50c": 5279,
    "\u25810x45f7": 5280,
    "mb": 5281,
    "quir": 5282,
    "tacquir": 5283,
    "\u25810xa4a0": 5284,
    "tacquirecon": 5285,
    "\u2581cryptacquirecon": 5286,
    "\u25810x45f8": 5287,
    "\u25810x41e2": 5288,
    "\u25810x2439f74": 5289,
    "su": 5290,
    "\u2581doyou": 5291,
    "728": 5292,
    "env": 5293,
    "\u25810x4233": 5294,
    "ae0": 5295,
    "\u25810x4efd98": 5296,
    "\u258112": 5297,
    "\u2581yo": 5298,
    "\u2581filet": 5299,
    "\u2581filetimeto": 5300,
    "\u2581clsid": 5301,
    "\u25810x40b7": 5302,
    "\u25810x45f9": 5303,
    "df1": 5304,
    "\u25810x1211ad0": 5305,
    "\u25810x46b": 5306,
    "\u25810xffde": 5307,
    "seek": 5308,
    "leasecon": 5309,
    "2a0": 5310,
    "a45": 5311,
    "\u25810x1211ecc": 5312,
    "178": 5313,
    "\u25810x9a70": 5314,
    "\u25810x10e9bc": 5315,
    "\u25810x42ba58": 5316,
    "\u25810xfeee012": 5317,
    "releasecon": 5318,
    "releasecontext": 5319,
    "\u25810x9ad0": 5320,
    "1e8": 5321,
    "fed": 5322,
    "\u25810x3f2210": 5323,
    "\u25810x27": 5324,
    "\u25810x42f318": 5325,
    "\u2581clsidfrom": 5326,
    "\u25810xb3": 5327,
    "\u25810x4fc": 5328,
    "\u25810x420f2": 5329,
    "\u2581couninitialize": 5330,
    "9e0": 5331,
    "e20": 5332,
    "\u25810x4232": 5333,
    "heme": 5334,
    "\u2581uxt": 5335,
    "\u25810x45fd": 5336,
    "\u2581uxtheme": 5337,
    "\u2581getclassinfoa": 5338,
    "\u2581cryptreleasecontext": 5339,
    "a60": 5340,
    "\u25810xc8": 5341,
    "\u25810x1860": 5342,
    "lipboardforma": 5343,
    "\u2581registerclipboardforma": 5344,
    "\u25810x42e2": 5345,
    "\u25810x4601": 5346,
    "\u25810x9c30": 5347,
    "944": 5348,
    "\u25810x71000000": 5349,
    "\u25810x51b": 5350,
    "5e8": 5351,
    "\u25810x22e": 5352,
    "\u2581mso": 5353,
    "\u25810x40b4": 5354,
    "\u25810x45ff": 5355,
    "regis": 5356,
    "bb4": 5357,
    "onexit": 5358,
    "321": 5359,
    "ail": 5360,
    "70e": 5361,
    "d38": 5362,
    "348": 5363,
    "\u25810x62": 5364,
    "6d8": 5365,
    "998": 5366,
    "\u25810x46b400": 5367,
    "\u25810x120e690": 5368,
    "\u25810x120e698": 5369,
    "f34": 5370,
    "958": 5371,
    "\u2581openprocesstoken": 5372,
    "\u2581getuserdefaultlcid": 5373,
    "aa8": 5374,
    "common": 5375,
    "\u25810x80c458": 5376,
    "990": 5377,
    "fc0": 5378,
    "560": 5379,
    "pool": 5380,
    "18c": 5381,
    "\u25810x169bf94": 5382,
    "960": 5383,
    "delete": 5384,
    "\u25810x4199": 5385,
    "\u2581defwindowprocw": 5386,
    "e50": 5387,
    "update": 5388,
    "\u25810x43a4": 5389,
    "\u2581initcommon": 5390,
    "\u2581initcommoncontrols": 5391,
    "a20": 5392,
    "a98": 5393,
    "\u25810x4cf": 5394,
    "emyarg1myarg2": 5395,
    "\u2581exemyarg1myarg2": 5396,
    "50000": 5397,
    "\u25810x8900": 5398,
    "\u25810x50e10": 5399,
    "\u2581getdiskfreespaceexa": 5400,
    "ocreate": 5401,
    "\u258126": 5402,
    "\u2581nto": 5403,
    "\u25810x4305c8": 5404,
    "\u25810x4305e0": 5405,
    "\u25810x60c690": 5406,
    "116": 5407,
    "\u258128": 5408,
    "\u25810x3020": 5409,
    "2c4": 5410,
    "ef8": 5411,
    "\u25810xfeee014": 5412,
    "trol": 5413,
    "\u25810x41ebf": 5414,
    "\u25810x1210f2": 5415,
    "alogs": 5416,
    "\u25810x9730": 5417,
    "\u25810x422798": 5418,
    "\u25810x423890": 5419,
    "\u25810x4238c0": 5420,
    "1c0": 5421,
    "\u25810x1211d30": 5422,
    "a64": 5423,
    "\u25810x208": 5424,
    "9d8": 5425,
    "\u2581freeenvironmentstringsa": 5426,
    "\u25810x40b": 5427,
    "\u25810x9c80": 5428,
    "\u25810x41bd": 5429,
    "\u25810x9850": 5430,
    "\u25810x411555": 5431,
    "\u25810x411556": 5432,
    "\u25810x42b964": 5433,
    "f16": 5434,
    "\u25810xe8": 5435,
    "\u25810x42ebc0": 5436,
    "\u25810x40a0": 5437,
    "\u25810x430598": 5438,
    "\u25810x4030": 5439,
    "\u25810x433860": 5440,
    "\u2581lstrcpyn": 5441,
    "985": 5442,
    "\u2581internet": 5443,
    "\u25810x68000": 5444,
    "1e4": 5445,
    "604": 5446,
    "\u25810x4298": 5447,
    "d6c": 5448,
    "f17": 5449,
    "\u25810x4c97": 5450,
    "printer": 5451,
    "\u25810x41f7": 5452,
    "7978": 5453,
    "\u25810xa210": 5454,
    "ig": 5455,
    "only": 5456,
    "\u2581sc": 5457,
    "\u25810x435000": 5458,
    "\u25810x99c0": 5459,
    "\u25810x41568c": 5460,
    "e58": 5461,
    "ocon": 5462,
    "\u25810x41b0": 5463,
    "ab0": 5464,
    "565": 5465,
    "bbc": 5466,
    "\u2581getvolumeinformationa": 5467,
    "\u2581qt5": 5468,
    "\u25810x41cc": 5469,
    "\u25810xa42a40": 5470,
    "101": 5471,
    "71c": 5472,
    "\u25810x423326": 5473,
    "\u25810x423327": 5474,
    "e48": 5475,
    "306": 5476,
    "\u25810x4200": 5477,
    "\u25810x417b50": 5478,
    "bd8": 5479,
    "f90": 5480,
    "a69": 5481,
    "\u25810x1211f54": 5482,
    "iserror": 5483,
    "\u25810x4177": 5484,
    "798": 5485,
    "\u25810x9600": 5486,
    "2e8": 5487,
    "\u25810x41af": 5488,
    "\u25810x1211ce0": 5489,
    "ctype": 5490,
    "ded": 5491,
    "5b0": 5492,
    "\u25810xf8": 5493,
    "\u25810x42e6": 5494,
    "resourcea": 5495,
    "\u25810x4184": 5496,
    "tag": 5497,
    "\u25810x4ec": 5498,
    "\u25810x120e6cc": 5499,
    "\u25810x181b70": 5500,
    "\u25810x419a": 5501,
    "f60": 5502,
    "\u25810x130": 5503,
    "aad": 5504,
    "2c5": 5505,
    "\u2581connec": 5506,
    "\u2581lstrcmpi": 5507,
    "78c": 5508,
    "\u25810x4606": 5509,
    "\u25810xffcb": 5510,
    "\u25810x4650": 5511,
    "\u2581findresourcea": 5512,
    "\u25810xa6b0": 5513,
    "\u258118": 5514,
    "\u25810x1211ee8": 5515,
    "748": 5516,
    "\u2581userenv": 5517,
    "au": 5518,
    "ncy": 5519,
    "\u25810x169b7": 5520,
    "\u2581stor": 5521,
    "\u25810x88f0": 5522,
    "\u25810xfff3": 5523,
    "\u2581storage": 5524,
    "600": 5525,
    "\u2581aaa": 5526,
    "\u2581connector": 5527,
    "93e": 5528,
    "pre": 5529,
    "974": 5530,
    "fa4": 5531,
    "requency": 5532,
    "\u25810x41a044": 5533,
    "af0": 5534,
    "\u25810x616": 5535,
    "\u25810x4079": 5536,
    "\u25810x1211c00": 5537,
    "\u25810x4cf0": 5538,
    "\u2581getmodulehandl": 5539,
    "\u25810x4feaac": 5540,
    "\u2581ver": 5541,
    "namew": 5542,
    "\u2581qt5core": 5543,
    "\u25810x423d90": 5544,
    "\u25810x423dc0": 5545,
    "\u25810x42759f": 5546,
    "\u25810x4275a0": 5547,
    "cefrequency": 5548,
    "\u2581queryperformancefrequency": 5549,
    "star": 5550,
    "bcc": 5551,
    "mapi": 5552,
    "bd7": 5553,
    "9f0": 5554,
    "\u25810x4d7978": 5555,
    "f48": 5556,
    "\u25810x5f3": 5557,
    "\u25810x40a3e": 5558,
    "\u258114": 5559,
    "\u25810x534": 5560,
    "\u25810xa260": 5561,
    "\u25810x4093e8": 5562,
    "bfc": 5563,
    "\u2581getprivateprofile": 5564,
    "\u25810x4093e5": 5565,
    "\u25810x4093e6": 5566,
    "\u25810x4093e7": 5567,
    "acd": 5568,
    "690": 5569,
    "\u2581tow": 5570,
    "\u25810x9a60": 5571,
    "\u25810x41e1d8": 5572,
    "bc5": 5573,
    "\u25810x41de20": 5574,
    "\u25810x4ddb24": 5575,
    "\u25810x500410": 5576,
    "plor": 5577,
    "internet": 5578,
    "\u25812d": 5579,
    "will": 5580,
    "\u25810x420a0f": 5581,
    "\u25810x420a10": 5582,
    "\u25810x12119d0": 5583,
    "\u2581dwmapi": 5584,
    "\u25810x12115bc": 5585,
    "rn": 5586,
    "a02": 5587,
    "plorer": 5588,
    "\u25810x12115d0": 5589,
    "\u2581cryptbase": 5590,
    "\u2581filenotfound": 5591,
    "\u25810x409c": 5592,
    "\u25810x41ddd8": 5593,
    "\u25810x1211370": 5594,
    "\u25810x560": 5595,
    "atalogs": 5596,
    "\u2581regqueryvalueexw": 5597,
    "396": 5598,
    "a8c": 5599,
    "d90": 5600,
    "rnl": 5601,
    "\u25810x169b9": 5602,
    "\u25810x169bc": 5603,
    "fad": 5604,
    "fd4": 5605,
    "\u25810x4076": 5606,
    "738": 5607,
    "\u2581runonce": 5608,
    "\u2581getmodulehandleexw": 5609,
    "\u2581hdd": 5610,
    "regener": 5611,
    "\u25810x1bf9": 5612,
    "\u25810x41b8": 5613,
    "regenerator": 5614,
    "\u2581hddregenerator": 5615,
    "950": 5616,
    "d60": 5617,
    "eexist": 5618,
    "\u25810x678208": 5619,
    "\u2581fileexist": 5620,
    "64c": 5621,
    "f7c": 5622,
    "skrnl": 5623,
    "\u2581append": 5624,
    "\u2581ntoskrnl": 5625,
    "\u2581202203031": 5626,
    "\u2581atex": 5627,
    "\u25810x468": 5628,
    "\u2581atexit": 5629,
    "778": 5630,
    "9bc": 5631,
    "\u25810x42ce10": 5632,
    "a50": 5633,
    "\u25810x94f0": 5634,
    "\u25810xffca": 5635,
    "bff": 5636,
    "\u25810x423df8": 5637,
    "e0c": 5638,
    "\u2581qae": 5639,
    "resour": 5640,
    "\u25810x442": 5641,
    "\u25810xf000": 5642,
    "d10": 5643,
    "d2c": 5644,
    "ible": 5645,
    "\u25810x454": 5646,
    "\u25810x4df00": 5647,
    "\u2581dup": 5648,
    "39c": 5649,
    "\u25810x1211968": 5650,
    "994": 5651,
    "lay": 5652,
    "\u258134": 5653,
    "\u2581cl": 5654,
    "\u2581task": 5655,
    "af8": 5656,
    "20c": 5657,
    "\u25810x8490": 5658,
    "fb8": 5659,
    "\u25810x4160": 5660,
    "\u25810xffc8": 5661,
    "\u2581shgetfile": 5662,
    "\u25810x518": 5663,
    "\u25810x42fc68": 5664,
    "eb8": 5665,
    "\u25810x5937": 5666,
    "\u25810xa9a0": 5667,
    "\u2581isvalidlocale": 5668,
    "\u2581lstrca": 5669,
    "\u25810x42e2f0": 5670,
    "\u25810x5617a8": 5671,
    "\u25810x4093e9": 5672,
    "\u25810x4093ea": 5673,
    "\u25810x4093eb": 5674,
    "6c5": 5675,
    "3a0": 5676,
    "qa": 5677,
    "\u25810x95d0": 5678,
    "\u25810x1211e54": 5679,
    "a94": 5680,
    "\u25810xa010": 5681,
    "\u25810x47a00": 5682,
    "\u2581instal": 5683,
    "\u2581ns": 5684,
    "\u2581commandline": 5685,
    "69e": 5686,
    "a9c": 5687,
    "\u25810x16000": 5688,
    "\u2581taskbar": 5689,
    "\u25810x455": 5690,
    "\u2581dialog": 5691,
    "\u25810x52663": 5692,
    "f68": 5693,
    "7e8": 5694,
    "9c8": 5695,
    "toc": 5696,
    "argvw": 5697,
    "toargvw": 5698,
    "\u2581commandlinetoargvw": 5699,
    "ha": 5700,
    "\u2581duplic": 5701,
    "9d0": 5702,
    "\u25810x4f60": 5703,
    "\u25810x131": 5704,
    "\u25810x70000": 5705,
    "\u2581pi": 5706,
    "\u25810x4ec0": 5707,
    "\u25810x598740": 5708,
    "\u25810x41aa": 5709,
    "\u25810x423d78": 5710,
    "\u25810x423e38": 5711,
    "270": 5712,
    "\u25810x1fa": 5713,
    "d24": 5714,
    "\u25810x409aa4": 5715,
    "vip": 5716,
    "\u25810x409aa5": 5717,
    "\u25810x4614d0": 5718,
    "148": 5719,
    "\u2581prvip": 5720,
    "\u2581charpre": 5721,
    "\u25810x431828": 5722,
    "14c": 5723,
    "chr": 5724,
    "df8": 5725,
    "\u25810x4c10": 5726,
    "d7c": 5727,
    "\u25810x40935d": 5728,
    "\u25810x40935e": 5729,
    "\u25810x40935f": 5730,
    "\u25810x409360": 5731,
    "\u25810x409361": 5732,
    "\u25810x409362": 5733,
    "\u25810x409363": 5734,
    "be0": 5735,
    "\u2581nsiserror": 5736,
    "\u25810x1211fbc": 5737,
    "lation": 5738,
    "\u25810x1210e80": 5739,
    "\u25810xffc9": 5740,
    "158": 5741,
    "715": 5742,
    "pass": 5743,
    "647": 5744,
    "instan": 5745,
    "\u25810x40d": 5746,
    "\u25810x45fb": 5747,
    "ef4": 5748,
    "\u25810xbe": 5749,
    "\u25810x9940": 5750,
    "b0000": 5751,
    "\u25810x419ce0": 5752,
    "\u25810x53e498": 5753,
    "35c": 5754,
    "a0c": 5755,
    "seekto": 5756,
    "\u25810x484": 5757,
    "\u25810x3200a48": 5758,
    "\u2581failedtoseekto": 5759,
    "\u2581getuserdefaultuilanguage": 5760,
    "lien": 5761,
    "\u25810x440": 5762,
    "\u25810x43400": 5763,
    "\u25810x569b48": 5764,
    "\u25810x413": 5765,
    "\u25810x1211ebc": 5766,
    "\u2581wm": 5767,
    "starto": 5768,
    "\u25810x1808": 5769,
    "\u25810x4240": 5770,
    "startoffile": 5771,
    "\u2581failedtoseektostartoffile": 5772,
    "\u25810x7b00": 5773,
    "9f8": 5774,
    "\u25810x2e7": 5775,
    "397": 5776,
    "940": 5777,
    "ce1": 5778,
    "versioninfow": 5779,
    "amet": 5780,
    "\u25810x40f1": 5781,
    "\u2581failedtoinitializeenginesection": 5782,
    "bec": 5783,
    "\u25810x120f": 5784,
    "\u25810x4217": 5785,
    "750": 5786,
    "withtag": 5787,
    "\u25810x4208e0": 5788,
    "poolwithtag": 5789,
    "\u2581exallocate": 5790,
    "\u2581exallocatepoolwithtag": 5791,
    "\u25810x4134": 5792,
    "\u25810x74000": 5793,
    "extex": 5794,
    "resourc": 5795,
    "\u2581getmessagew": 5796,
    "f98": 5797,
    "\u25810xd8": 5798,
    "\u25810x46c0": 5799,
    "\u2581appendw": 5800,
    "\u2581failedtoinitializeenginestate": 5801,
    "\u25810x4ac": 5802,
    "privile": 5803,
    "\u25810x412e": 5804,
    "ocontrol": 5805,
    "valueexa": 5806,
    "\u25810x120fb30": 5807,
    "\u25810x1211e80": 5808,
    "7d0": 5809,
    "iocontrol": 5810,
    "749": 5811,
    "\u25810x4b7": 5812,
    "\u25810x4ee0": 5813,
    "\u25810x1211f50": 5814,
    "61c": 5815,
    "\u25810x3f3080": 5816,
    "\u2581ndr": 5817,
    "\u2581strlen": 5818,
    "48c": 5819,
    "d78": 5820,
    "\u258135": 5821,
    "\u2581ndrd": 5822,
    "\u2581deviceiocontrol": 5823,
    "\u25810x4c0": 5824,
    "\u25810x6ba": 5825,
    "\u2581reset": 5826,
    "\u25810x4a77": 5827,
    "\u25810x422788": 5828,
    "tive": 5829,
    "etype": 5830,
    "\u25810x4335": 5831,
    "\u2581864000": 5832,
    "\u2581formatmessagea": 5833,
    "dcc": 5834,
    "\u25810x8de0": 5835,
    "\u25810x39569": 5836,
    "7b8": 5837,
    "\u25810x431f68": 5838,
    "305": 5839,
    "\u25810x1211f98": 5840,
    "a2c": 5841,
    "b34": 5842,
    "\u25810x3f3040": 5843,
    "\u25810xfeee009d": 5844,
    "\u2581af": 5845,
    "\u25810x41688a": 5846,
    "\u25810x41688b": 5847,
    "\u25810x4208df": 5848,
    "this": 5849,
    "\u25810x4324": 5850,
    "\u25810x9290": 5851,
    "a74": 5852,
    "a8a8": 5853,
    "\u2581cocreate": 5854,
    "150": 5855,
    "\u2581gettempfilename": 5856,
    "\u2581programinternalerrornumberis6": 5857,
    "\u258186400040": 5858,
    "\u25810x1210e84": 5859,
    "\u25810x52668": 5860,
    "\u25810x1211d44": 5861,
    "b2c": 5862,
    "\u2581oleacc": 5863,
    "\u25810x4540": 5864,
    "\u25810x1211f30h": 5865,
    "\u25810xb7": 5866,
    "\u25810x1211ed8": 5867,
    "ify": 5868,
    "\u25810x430828": 5869,
    "311": 5870,
    "\u25810x134": 5871,
    "\u25810xffd4": 5872,
    "\u25810x3f2420": 5873,
    "\u25810x419cb0": 5874,
    "\u25810x8838": 5875,
    "366": 5876,
    "e69": 5877,
    "f38": 5878,
    "\u25810x8839": 5879,
    "\u2581verify": 5880,
    "ters": 5881,
    "30000": 5882,
    "\u25810x2200220": 5883,
    "15c": 5884,
    "7b0": 5885,
    "a32": 5886,
    "bc6": 5887,
    "1b4": 5888,
    "utton": 5889,
    "\u25810x41d2": 5890,
    "\u25810x40a58c": 5891,
    "68b": 5892,
    "aba": 5893,
    "db8": 5894,
    "\u25810x4607": 5895,
    "\u25810x200020": 5896,
    "2d0": 5897,
    "538": 5898,
    "dfd": 5899,
    "exit": 5900,
    "\u25810x40a57c": 5901,
    "1a0": 5902,
    "9cc": 5903,
    "b23": 5904,
    "\u25810x4718": 5905,
    "\u2581duplicate": 5906,
    "244": 5907,
    "70000": 5908,
    "\u2581cocreateinstan": 5909,
    "f65": 5910,
    "\u2581initcommoncontrolsex": 5911,
    "294": 5912,
    "\u25810x4175": 5913,
    "privilege": 5914,
    "334": 5915,
    "\u25810x40a7": 5916,
    "\u2581lstrcata": 5917,
    "\u2581can": 5918,
    "\u25810x42b4": 5919,
    "\u25810xa3a790": 5920,
    "5ac": 5921,
    "bc7": 5922,
    "\u2581getdriv": 5923,
    "\u25810x1211b08": 5924,
    "2c6": 5925,
    "317": 5926,
    "bc9": 5927,
    "c8e": 5928,
    "\u25810x42eb": 5929,
    "\u25810x426": 5930,
    "\u2581setenvironmentvariablea": 5931,
    "\u25810x4258": 5932,
    "\u25810x1210cf0": 5933,
    "\u2581getdrivetype": 5934,
    "\u25810xfeee015": 5935,
    "a99": 5936,
    "ware": 5937,
    "\u25810x12117ec": 5938,
    "\u25810x1211fa0": 5939,
    "\u25810x44b7": 5940,
    "\u2581duplicatehandle": 5941,
    "bf8": 5942,
    "\u25810xba": 5943,
    "\u25810x414c": 5944,
    "\u25810x1211dbc": 5945,
    "566": 5946,
    "\u25810x144": 5947,
    "\u25810x64000": 5948,
    "\u25810x416c0": 5949,
    "\u25810x416242": 5950,
    "\u25810x416243": 5951,
    "\u25810x42a0a0": 5952,
    "\u25810xa429f8": 5953,
    "130": 5954,
    "a68": 5955,
    "roll": 5956,
    "f3e": 5957,
    "\u2581mta": 5958,
    "ready": 5959,
    "\u2581setcurrentdirectorya": 5960,
    "\u2581isctype": 5961,
    "\u25810x58de50": 5962,
    "d70": 5963,
    "198": 5964,
    "exist": 5965,
    "df0": 5966,
    "\u25810xfff2": 5967,
    "932": 5968,
    "9b4": 5969,
    "\u25810x41ba": 5970,
    "\u25810x43f6": 5971,
    "\u25810x7eec": 5972,
    "\u25810x1211438": 5973,
    "22c": 5974,
    "5a0": 5975,
    "66e": 5976,
    "\u2581cd": 5977,
    "e100": 5978,
    "7dc": 5979,
    "\u25810x4f6200": 5980,
    "2c0": 5981,
    "med": 5982,
    "\u2581youm": 5983,
    "\u2581opena": 5984,
    "367": 5985,
    "fa6": 5986,
    "910": 5987,
    "d00": 5988,
    "fa2": 5989,
    "screen": 5990,
    "\u25810x7eed": 5991,
    "fdc": 5992,
    "\u25810x450": 5993,
    "\u25810x7e30": 5994,
    "\u2581security": 5995,
    "ed0": 5996,
    "netw": 5997,
    "\u2581command": 5998,
    "506": 5999,
    "da8": 6000,
    "\u25810xbb": 6001,
    "\u25810x4604": 6002,
    "baf": 6003,
    "\u25810x75500000": 6004,
    "dd8": 6005,
    "\u25810x41a8a8": 6006,
    "\u25810x41bc98": 6007,
    "\u25810x41bcc8": 6008,
    "\u25810x1211bf4": 6009,
    "\u25810x7df9": 6010,
    "3a5": 6011,
    "3d4": 6012,
    "658": 6013,
    "238": 6014,
    "5ec": 6015,
    "mar": 6016,
    "\u25810x7f4": 6017,
    "memor": 6018,
    "\u25810x7df8": 6019,
    "\u25810x8554": 6020,
    "lpapi": 6021,
    "\u25810x7e4": 6022,
    "354": 6023,
    "memorys": 6024,
    "memorystatus": 6025,
    "\u2581back": 6026,
    "network": 6027,
    "\u2581globalmemorystatus": 6028,
    "adc": 6029,
    "db5": 6030,
    "pri": 6031,
    "\u25810x40d8": 6032,
    "ba9": 6033,
    "prop": 6034,
    "\u25810x7f8003": 6035,
    "\u25810x7f8004": 6036,
    "\u25810x7f8005": 6037,
    "\u25810x7f8006": 6038,
    "\u25810x7f8007": 6039,
    "\u25810x7f8008": 6040,
    "\u25810x7f8009": 6041,
    "\u25810x7f800a": 6042,
    "\u25810x7f800b": 6043,
    "\u25810x7f800c": 6044,
    "\u25810x7f800d": 6045,
    "970": 6046,
    "org": 6047,
    "7c5": 6048,
    "a87": 6049,
    "\u25810x3010": 6050,
    "be54": 6051,
    "\u25810x5266c": 6052,
    "\u25810x7f800e": 6053,
    "6d7": 6054,
    "\u25810x502dc": 6055,
    "\u25810x52669": 6056,
    "move": 6057,
    "\u2581oa": 6058,
    "\u25810x40eeca": 6059,
    "\u25810x40eecb": 6060,
    "\u25810x7f800f": 6061,
    "ab5": 6062,
    "\u25810xa39": 6063,
    "priority": 6064,
    "unch": 6065,
    "\u25810x1211584": 6066,
    "\u25810xb6": 6067,
    "\u25810x5f6": 6068,
    "3a20": 6069,
    "\u25810x40a2": 6070,
    "\u2581towlower": 6071,
    "230": 6072,
    "\u2581verifyversioninfow": 6073,
    "\u2581fre": 6074,
    "\u25810xc4": 6075,
    "\u25810xa16": 6076,
    "install": 6077,
    "\u25810x4605": 6078,
    "\u25810x40ef1b": 6079,
    "f69": 6080,
    "ds": 6081,
    "a34": 6082,
    "alse": 6083,
    "orgex": 6084,
    "186": 6085,
    "\u25810x4608": 6086,
    "\u25810xffdf": 6087,
    "\u25810x40ef1a": 6088,
    "1a4": 6089,
    "\u25810x42d8a2": 6090,
    "\u25810x42d8ab": 6091,
    "\u25810x42d8b4": 6092,
    "\u25810x42d8bd": 6093,
    "505": 6094,
    "a0d": 6095,
    "\u25810xffed": 6096,
    "\u2581destroywindow": 6097,
    "376": 6098,
    "\u25810x132": 6099,
    "314": 6100,
    "\u2581your": 6101,
    "\u25810x600": 6102,
    "\u25810x4020": 6103,
    "916": 6104,
    "\u25810x1211b74": 6105,
    "\u25810x6940": 6106,
    "312": 6107,
    "\u25810x58c034": 6108,
    "745": 6109,
    "a1c": 6110,
    "output": 6111,
    "\u25810x4218": 6112,
    "290": 6113,
    "2ec": 6114,
    "\u25810xa710": 6115,
    "\u25810x1211888": 6116,
    "7c8": 6117,
    "\u25810x120f9": 6118,
    "aec": 6119,
    "\u2581qa": 6120,
    "times": 6121,
    "\u25810x491288": 6122,
    "pl": 6123,
    "bed": 6124,
    "3d28": 6125,
    "\u2581aa": 6126,
    "\u2581ea": 6127,
    "\u25810x5627": 6128,
    "\u2581regcreate": 6129,
    "\u2581iph": 6130,
    "\u25810x4c30": 6131,
    "\u2581iphlpapi": 6132,
    "\u2581environ": 6133,
    "\u25810xa41e": 6134,
    "\u25810xa41f": 6135,
    "applet": 6136,
    "\u25810x4251": 6137,
    "\u25810xffd1": 6138,
    "\u25810x7ce0": 6139,
    "\u25810x8410": 6140,
    "\u25810x4140": 6141,
    "\u25810x7dc4": 6142,
    "\u25810x80be54": 6143,
    "fa0": 6144,
    "\u25810x40e5": 6145,
    "\u25810x413b": 6146,
    "outputcp": 6147,
    "386": 6148,
    "9c24": 6149,
    "\u25810x6970": 6150,
    "\u25810x7dd9": 6151,
    "\u25810xff86": 6152,
    "723": 6153,
    "ook": 6154,
    "\u25810xb2": 6155,
    "\u25810x40f6a8": 6156,
    "\u25810x1211b50": 6157,
    "\u2581failedtoopen": 6158,
    "\u2581failedtoopenapplication": 6159,
    "7ce": 6160,
    "b96": 6161,
    "\u25810x2d4df": 6162,
    "\u2581getconsoleoutputcp": 6163,
    "\u2581failedtoopenapplicationlog": 6164,
    "2d4": 6165,
    "3b6": 6166,
    "\u25810x7dc5": 6167,
    "375": 6168,
    "\u25810x565868": 6169,
    "\u25810x42a6": 6170,
    "bf4": 6171,
    "\u2581openw": 6172,
    "\u258104": 6173,
    "\u25810x598758": 6174,
    "\u25810x10a": 6175,
    "\u2581regcreatekey": 6176,
    "7cc": 6177,
    "\u25810xffe8": 6178,
    "2f5": 6179,
    "eb4": 6180,
    "f3f": 6181,
    "ort": 6182,
    "\u25810x7dd0": 6183,
    "1b8": 6184,
    "ning": 6185,
    "\u25810x4364": 6186,
    "\u25810x1210e30": 6187,
    "che": 6188,
    "\u25810x599": 6189,
    "image": 6190,
    "392": 6191,
    "3ac": 6192,
    "dc8": 6193,
    "been": 6194,
    "\u25810x417da0": 6195,
    "\u25810x1211790": 6196,
    "a86": 6197,
    "\u25810xb1": 6198,
    "\u25810x522": 6199,
    "\u25810x42b0a0": 6200,
    "9c6": 6201,
    "2850": 6202,
    "\u25810x1211b54": 6203,
    "117": 6204,
    "ects": 6205,
    "\u25810x417d9f": 6206,
    "545": 6207,
    "93a": 6208,
    "\u25811646": 6209,
    "\u25810x4602": 6210,
    "\u25810x4760": 6211,
    "3ec": 6212,
    "a85": 6213,
    "3ad": 6214,
    "d34": 6215,
    "20000": 6216,
    "\u25810x1211f0c": 6217,
    "ax": 6218,
    "\u25810x740": 6219,
    "\u25810x4179": 6220,
    "\u25810x940000": 6221,
    "1c4": 6222,
    "3cc": 6223,
    "7a0": 6224,
    "60000": 6225,
    "\u25810x46b3b8": 6226,
    "f71": 6227,
    "run": 6228,
    "16c": 6229,
    "\u25810x4f53c8": 6230,
    "374": 6231,
    "730": 6232,
    "9c5": 6233,
    "\u2581ri": 6234,
    "button": 6235,
    "\u25810x4139": 6236,
    "\u25810xff69": 6237,
    "\u25810x1211cf4": 6238,
    "406": 6239,
    "fd9": 6240,
    "\u25810x42ec": 6241,
    "ally": 6242,
    "enamew": 6243,
    "\u25810x8330": 6244,
    "698": 6245,
    "\u2581ps": 6246,
    "\u25810x4316": 6247,
    "709": 6248,
    "a24": 6249,
    "\u2581lib": 6250,
    "\u25810x3e6c": 6251,
    "\u2581globalf": 6252,
    "rap": 6253,
    "\u25810x42aa": 6254,
    "\u25810x9520": 6255,
    "\u25810x188e4c": 6256,
    "9e8": 6257,
    "7170": 6258,
    "ad5": 6259,
    "ht": 6260,
    "bac": 6261,
    "df5": 6262,
    "\u25810xfeee00f3": 6263,
    "pop": 6264,
    "\u25810x402": 6265,
    "\u25810x478": 6266,
    "\u25810x42f1": 6267,
    "\u2581add": 6268,
    "eresource": 6269,
    "\u25810x461518": 6270,
    "\u25810xfeee00f2": 6271,
    "\u25810x1211c4c": 6272,
    "\u25810x4b40": 6273,
    "\u25810x41cbd0": 6274,
    "931": 6275,
    "nexplorer": 6276,
    "\u25810x42e5c8": 6277,
    "\u25810x42e5e0": 6278,
    "\u25810x486d18": 6279,
    "\u25810x1211e0c": 6280,
    "b6c": 6281,
    "\u25810xd3d": 6282,
    "\u2581logme": 6283,
    "\u25810x4af4": 6284,
    "\u25810x42a00": 6285,
    "9c4": 6286,
    "adap": 6287,
    "\u25810x56c": 6288,
    "\u25810x7f1": 6289,
    "adapters": 6290,
    "e38": 6291,
    "\u25810x6b6": 6292,
    "\u2581setupapi": 6293,
    "3de": 6294,
    "gen": 6295,
    "e4b8": 6296,
    "364": 6297,
    "790": 6298,
    "a06": 6299,
    "zone": 6300,
    "\u25810x4e5c": 6301,
    "\u2581freeresource": 6302,
    "250": 6303,
    "315": 6304,
    "\u258108": 6305,
    "\u2581riche": 6306,
    "\u2581getadapters": 6307,
    "7d8": 6308,
    "96c": 6309,
    "\u25810x42fc20": 6310,
    "71f": 6311,
    "place": 6312,
    "\u25810x41cba4": 6313,
    "\u2581messageboxw": 6314,
    "b3c": 6315,
    "\u25810x42b7": 6316,
    "7bc": 6317,
    "\u25810x4902e0": 6318,
    "\u25810x42e598": 6319,
    "\u25810x496790": 6320,
    "115": 6321,
    "\u2581regdelete": 6322,
    "33a": 6323,
    "e14": 6324,
    "\u25810x7eaba8": 6325,
    "\u25810x1211f68": 6326,
    "\u25810x120e694": 6327,
    "\u25810x120e69c": 6328,
    "296": 6329,
    "578": 6330,
    "\u25810x599b5c": 6331,
    "\u25810x599c24": 6332,
    "\u25810x59bf3c": 6333,
    "\u25810x59bf7c": 6334,
    "\u25810x59c120": 6335,
    "\u25810x59c138": 6336,
    "gs": 6337,
    "\u25810xe9": 6338,
    "\u25810x42390": 6339,
    "\u2581getcursor": 6340,
    "zoneinformation": 6341,
    "\u2581getwindowsdirectoryw": 6342,
    "\u25810x44c2": 6343,
    "\u25810x416ed1": 6344,
    "37c": 6345,
    "c01": 6346,
    "sys": 6347,
    "\u2581psapi": 6348,
    "\u25810x416ed2": 6349,
    "\u25810x567678": 6350,
    "\u2581gettimezoneinformation": 6351,
    "5a8": 6352,
    "d0000": 6353,
    "\u25810x42e0a4": 6354,
    "\u25810x1210ec0": 6355,
    "ee2": 6356,
    "fd3": 6357,
    "\u2581la": 6358,
    "longw": 6359,
    "\u25810x4011": 6360,
    "\u25810x4137": 6361,
    "\u2581systemti": 6362,
    "605": 6363,
    "fic": 6364,
    "\u2581ro": 6365,
    "\u25810x7dc9": 6366,
    "\u25810x4176": 6367,
    "\u25810x435018": 6368,
    "a39": 6369,
    "ab7": 6370,
    "\u25810x44f": 6371,
    "\u25810x407b": 6372,
    "\u25810x40c8": 6373,
    "\u25810x7ddd": 6374,
    "\u25810x419c54": 6375,
    "\u25810x435002": 6376,
    "\u25810x435004": 6377,
    "\u25810x435006": 6378,
    "\u25810x435008": 6379,
    "\u25810x43500a": 6380,
    "\u25810x43500c": 6381,
    "\u25810x43500e": 6382,
    "\u25810x435010": 6383,
    "9e4": 6384,
    "\u2581print": 6385,
    "\u25810x419c53": 6386,
    "\u25810x435014": 6387,
    "\u25810x435016": 6388,
    "3378": 6389,
    "\u25810x43b8c8": 6390,
    "2b8": 6391,
    "5f8": 6392,
    "f10": 6393,
    "ame32": 6394,
    "\u2581prop": 6395,
    "\u2581mame32": 6396,
    "\u25810x42398": 6397,
    "\u2581freeware": 6398,
    "\u25810xfeedf000": 6399,
    "ba4": 6400,
    "\u2581apphelp": 6401,
    "bcat": 6402,
    "\u25810x509e4": 6403,
    "5cc": 6404,
    "\u25810x8e90": 6405,
    "\u2581propsys": 6406,
    "ee08": 6407,
    "idto": 6408,
    "bcatq": 6409,
    "\u2581clbcatq": 6410,
    "0068": 6411,
    "\u25810x4dc": 6412,
    "\u25810x4188": 6413,
    "58c": 6414,
    "b46": 6415,
    "dfc": 6416,
    "f3c": 6417,
    "\u25810x42d498": 6418,
    "2ad": 6419,
    "2d8": 6420,
    "cue": 6421,
    "rescue": 6422,
    "\u25810x8e50": 6423,
    "\u25810xa3a7d8": 6424,
    "1c6": 6425,
    "33c": 6426,
    "7ec": 6427,
    "\u25810xa020": 6428,
    "inrescue": 6429,
    "\u25810x422750": 6430,
    "\u25810x423850": 6431,
    "\u25810x423880": 6432,
    "\u2581logmeinrescue": 6433,
    "\u2581registerwindowmessagea": 6434,
    "235": 6435,
    "bd6": 6436,
    "f6c": 6437,
    "\u25810x435012": 6438,
    "9b0": 6439,
    "1740": 6440,
    "\u2581logmeinrescueapplet": 6441,
    "1f0": 6442,
    "\u25810x7c000": 6443,
    "\u2581getmodulebas": 6444,
    "29c": 6445,
    "aa5": 6446,
    "920": 6447,
    "b94": 6448,
    "e81": 6449,
    "program": 6450,
    "741": 6451,
    "f76": 6452,
    "\u25810x8340": 6453,
    "\u2581getmodulebasenamew": 6454,
    "97c": 6455,
    "ce6": 6456,
    "f2c": 6457,
    "\u25810xff92": 6458,
    "v1": 6459,
    "\u25810x535": 6460,
    "handler": 6461,
    "\u25810xffe9": 6462,
    "e94": 6463,
    "d05": 6464,
    "\u25810x7dcc": 6465,
    "per": 6466,
    "\u2581cp": 6467,
    "\u25810x4b4": 6468,
    "\u25810x413d": 6469,
    "profil": 6470,
    "valuea": 6471,
    "\u25810x422c": 6472,
    "\u25810x431f20": 6473,
    "\u25810x700": 6474,
    "\u25810x7e20": 6475,
    "\u25810x8cb0": 6476,
    "\u25810x1211e38": 6477,
    "7f4": 6478,
    "\u25810xdc": 6479,
    "\u25810x4c33": 6480,
    "\u25810x423df0": 6481,
    "\u25810x3020302": 6482,
    "9a8": 6483,
    "a76": 6484,
    "b86": 6485,
    "\u25810x7dd8": 6486,
    "\u2581cocreateinstance": 6487,
    "\u25810x7dd1": 6488,
    "\u25810x9c50": 6489,
    "\u25810x423e20": 6490,
    "\u25810x7dcd": 6491,
    "\u25810x7dd4": 6492,
    "9ac": 6493,
    "\u25810x5e9": 6494,
    "\u25810x7ddc": 6495,
    "\u25810x4c32d8": 6496,
    "\u25810x4c32f0": 6497,
    "2fc": 6498,
    "\u25810x2b4": 6499,
    "\u25810x53d": 6500,
    "\u25810x40a6": 6501,
    "\u25810x41a9": 6502,
    "\u25810x416be0": 6503,
    "\u25810xd4": 6504,
    "\u25810x3f29": 6505,
    "\u25810xcccc": 6506,
    "buf": 6507,
    "\u25810x7100": 6508,
    "\u25810x416c10": 6509,
    "\u25810x42ce08": 6510,
    "f24": 6511,
    "938": 6512,
    "fd5": 6513,
    "\u25810x7dd5": 6514,
    "\u25810x181b48": 6515,
    "b33": 6516,
    "eb6": 6517,
    "b6b0": 6518,
    "\u25810x4040": 6519,
    "\u25810x46a1": 6520,
    "\u25810x1211e40": 6521,
    "\u2581ol": 6522,
    "\u25810x447": 6523,
    "\u25810x7730": 6524,
    "\u25810x12000": 6525,
    "7c0": 6526,
    "fcc": 6527,
    "ae00": 6528,
    "\u258103t": 6529,
    "\u25810x40d9": 6530,
    "\u25810x4219": 6531,
    "\u25810x41681a": 6532,
    "\u25810x434280": 6533,
    "\u25810x4363c0": 6534,
    "263": 6535,
    "bd5": 6536,
    "\u25810x408c8d": 6537,
    "\u25810x408c8e": 6538,
    "\u25810x41681b": 6539,
    "\u25810x433378": 6540,
    "\u25810x434268": 6541,
    "\u25810x1211cb8": 6542,
    "\u2581getfileattributesa": 6543,
    "sion": 6544,
    "\u2581lstrcmpia": 6545,
    "\u25810x1211eac": 6546,
    "ea0": 6547,
    "erun": 6548,
    "\u25810x6a": 6549,
    "\u25810x4012": 6550,
    "\u25810x9ab0": 6551,
    "\u2581cryptget": 6552,
    "mt": 6553,
    "27c": 6554,
    "\u25810x10e": 6555,
    "\u25810x423d38": 6556,
    "a56": 6557,
    "7675": 6558,
    "valuew": 6559,
    "\u25810x7f5": 6560,
    "\u25810x4b80": 6561,
    "\u25810x508d0": 6562,
    "\u25810xfeee018": 6563,
    "fc6": 6564,
    "atoma": 6565,
    "\u25810x4106": 6566,
    "\u25810x509a8": 6567,
    "\u25810x3f75e88": 6568,
    "b12": 6569,
    "bdc": 6570,
    "\u25810x9110": 6571,
    "\u25810x9b30": 6572,
    "\u25810x43501a": 6573,
    "3e5": 6574,
    "\u25810x4d0": 6575,
    "\u25810x4224": 6576,
    "\u2581onexit": 6577,
    "\u25810x41cc54": 6578,
    "\u25810x120f8a6": 6579,
    "\u25810x403": 6580,
    "540": 6581,
    "300b": 6582,
    "\u2581fast": 6583,
    "\u25810x120f3": 6584,
    "\u25810x41e218": 6585,
    "\u25810xfeee009e": 6586,
    "6f1": 6587,
    "\u25810x181b98": 6588,
    "resourceexw": 6589,
    "\u2581cryptdestroy": 6590,
    "\u2581findresourceexw": 6591,
    "1ac": 6592,
    "d32": 6593,
    "\u25810x5b5": 6594,
    "\u25810x677": 6595,
    "\u25810x77000": 6596,
    "\u25810x458": 6597,
    "\u25810x7f9": 6598,
    "\u2581launch": 6599,
    "\u25810x1211ec0": 6600,
    "168": 6601,
    "\u25810x99f0": 6602,
    "\u25810x4353d8": 6603,
    "9dc": 6604,
    "aac0": 6605,
    "\u25810xb9": 6606,
    "\u25810x366": 6607,
    "\u25810x7c90": 6608,
    "\u2581stri": 6609,
    "6d7363": 6610,
    "\u25810x4c9778": 6611,
    "\u25810xe06d7363": 6612,
    "processmemory": 6613,
    "332": 6614,
    "\u25810x44c": 6615,
    "\u25810x6b9c": 6616,
    "\u25810x434388": 6617,
    "gn": 6618,
    "\u25810xffd8": 6619,
    "\u25810x563a20": 6620,
    "\u25810x1210550": 6621,
    "339": 6622,
    "911": 6623,
    "d26": 6624,
    "53a0": 6625,
    "\u25810x40e9": 6626,
    "\u25810x9630": 6627,
    "\u25810x435228": 6628,
    "\u25810x435240": 6629,
    "\u25810x4378b0": 6630,
    "\u25810x180c": 6631,
    "\u25810x4356": 6632,
    "\u25810xa050": 6633,
    "\u25810xfeee00a0": 6634,
    "f5c": 6635,
    "ill": 6636,
    "\u25810x40e7": 6637,
    "\u2581iswindow": 6638,
    "635": 6639,
    "blead": 6640,
    "\u2581call": 6641,
    "\u2581ismb": 6642,
    "\u25810x115": 6643,
    "\u25810x40f4": 6644,
    "\u2581ismbblead": 6645,
    "b42": 6646,
    "\u25810x474": 6647,
    "a7d": 6648,
    "\u25810x4df": 6649,
    "\u25810x71a1": 6650,
    "\u25810x43501c": 6651,
    "\u25810x43501e": 6652,
    "\u25810x435020": 6653,
    "\u25810x435022": 6654,
    "\u25810x435028": 6655,
    "\u25810x43502a": 6656,
    "\u25810x43502c": 6657,
    "\u25810x43502e": 6658,
    "\u25810x435030": 6659,
    "ei": 6660,
    "\u2581mso97": 6661,
    "onsolea": 6662,
    "2a4": 6663,
    "620": 6664,
    "b38": 6665,
    "b74": 6666,
    "\u25810x41d1e0": 6667,
    "\u25810x46b388": 6668,
    "\u25810xfffffffe": 6669,
    "sd": 6670,
    "225": 6671,
    "top": 6672,
    "uti": 6673,
    "0048": 6674,
    "e0000": 6675,
    "\u25810x40c5": 6676,
    "\u25810x7500": 6677,
    "\u25810x1211a44": 6678,
    "2f0": 6679,
    "6e0": 6680,
    "d55": 6681,
    "f95": 6682,
    "\u2581vf": 6683,
    "\u2581regenum": 6684,
    "\u2581getdrivetypea": 6685,
    "eb0": 6686,
    "f14": 6687,
    "691": 6688,
    "\u25810x513d28": 6689,
    "543": 6690,
    "\u25810xdf": 6691,
    "\u25810x9890": 6692,
    "\u25810xfeee016": 6693,
    "\u2581setenvironmentvariablew": 6694,
    "2cc": 6695,
    "eac": 6696,
    "icen": 6697,
    "trect": 6698,
    "inmodule": 6699,
    "\u25810x1210e70": 6700,
    "006c": 6701,
    "hide": 6702,
    "option": 6703,
    "\u25810x44c250": 6704,
    "\u25810xfeedf0": 6705,
    "668": 6706,
    "777": 6707,
    "\u25810x636": 6708,
    "\u25810x80c488": 6709,
    "\u25810x1211800": 6710,
    "\u25810x423c": 6711,
    "\u25810x1211c60": 6712,
    "548": 6713,
    "\u2581line": 6714,
    "\u2581getthreadtimes": 6715,
    "b56": 6716,
    "00000000": 6717,
    "\u25810x1211ddc": 6718,
    "imetofiletime": 6719,
    "3b4": 6720,
    "b22": 6721,
    "b39": 6722,
    "\u2581pa": 6723,
    "\u25810x4220": 6724,
    "\u25810x40a5b8": 6725,
    "\u25810x1211f94": 6726,
    "24c": 6727,
    "running": 6728,
    "\u25810x47d0": 6729,
    "\u25810x4aa0": 6730,
    "\u25810x40a5b0": 6731,
    "\u25810x1211f14": 6732,
    "\u2581writeconsolea": 6733,
    "\u25810x1b5": 6734,
    "\u25810x3f28": 6735,
    "\u2581doyouwantto": 6736,
    "510": 6737,
    "cod": 6738,
    "dbd": 6739,
    "33c4": 6740,
    "false": 6741,
    "\u25810x80b": 6742,
    "\u25810x40a5b4": 6743,
    "\u25810x1210e34": 6744,
    "db4": 6745,
    "orn": 6746,
    "558f": 6747,
    "\u25810x4212": 6748,
    "\u25810x40a5ae": 6749,
    "\u25810x40a5b2": 6750,
    "\u25810x40a5b6": 6751,
    "\u25810x40a5ba": 6752,
    "df4": 6753,
    "\u25810xde": 6754,
    "\u25810x41ad": 6755,
    "\u25810xa950": 6756,
    "filespec": 6757,
    "\u25810x42d420": 6758,
    "23d": 6759,
    "a9a": 6760,
    "e70": 6761,
    "e9c": 6762,
    "true": 6763,
    "thash": 6764,
    "allyour": 6765,
    "onexist": 6766,
    "zeroorn": 6767,
    "\u25810x41ac": 6768,
    "\u2581istrue": 6769,
    "\u2581isexist": 6770,
    "\u2581isfalse": 6771,
    "\u2581iszeroorn": 6772,
    "\u2581openanexplorer": 6773,
    "\u2581removefilespec": 6774,
    "\u2581iszeroornonexist": 6775,
    "\u25810x112": 6776,
    "\u25810x2840": 6777,
    "\u25810x4095": 6778,
    "\u25810x1211edc": 6779,
    "\u2581localrealloc": 6780,
    "d14": 6781,
    "eta": 6782,
    "\u25810xec": 6783,
    "\u25810x7fc": 6784,
    "\u25810xffdc": 6785,
    "thashdata": 6786,
    "\u25810x42558f": 6787,
    "\u25810x425590": 6788,
    "createhash": 6789,
    "\u25810x181c88": 6790,
    "frominternet": 6791,
    "\u25810x4b8": 6792,
    "7f8": 6793,
    "\u25810xe6": 6794,
    "codeptr": 6795,
    "\u25810x41ff": 6796,
    "\u25810x181c60": 6797,
    "\u25810x4111d0": 6798,
    "\u2581isbadcodeptr": 6799,
    "\u2581removefilespecw": 6800,
    "ld": 6801,
    "\u25810x40d5": 6802,
    "\u25810x80ba": 6803,
    "e64": 6804,
    "\u25810x118": 6805,
    "\u25810x406c": 6806,
    "\u25810x1211e4c": 6807,
    "912": 6808,
    "\u25810x409c2c": 6809,
    "\u25810x439458": 6810,
    "e05": 6811,
    "\u25810x6f00": 6812,
    "\u25810xffea": 6813,
    "\u2581crypthashdata": 6814,
    "\u2581cryptcreatehash": 6815,
    "\u2581shgetspecialfolder": 6816,
    "e2c": 6817,
    "eto": 6818,
    "3008": 6819,
    "ongle": 6820,
    "\u25810x40a4": 6821,
    "\u25810x76500000": 6822,
    "15f": 6823,
    "1f8": 6824,
    "ae4": 6825,
    "\u25810xbf": 6826,
    "\u2581enable": 6827,
    "\u25810x169be": 6828,
    "\u25810x1211c94": 6829,
    "f49": 6830,
    "\u25810x160": 6831,
    "\u25810x4370": 6832,
    "\u25810x4491": 6833,
    "\u25810x4f5320": 6834,
    "ual": 6835,
    "\u2581xz": 6836,
    "a526": 6837,
    "tem32": 6838,
    "dialog": 6839,
    "\u25810x4c50": 6840,
    "\u2581cryptdestroyhash": 6841,
    "1c7": 6842,
    "e5c": 6843,
    "\u25813d": 6844,
    "\u25810x51a0": 6845,
    "pc": 6846,
    "0060": 6847,
    "\u25810x7f80": 6848,
    "\u25810x2d4d9": 6849,
    "\u25810x2840284": 6850,
    "\u2581registerclipboardformata": 6851,
    "964": 6852,
    "e74": 6853,
    "ff5": 6854,
    "\u25810x85c0": 6855,
    "\u25810xa9d0": 6856,
    "1d4": 6857,
    "686": 6858,
    "ted": 6859,
    "hashparam": 6860,
    "1c8": 6861,
    "9d1": 6862,
    "af3": 6863,
    "f39": 6864,
    "f64": 6865,
    "ower": 6866,
    "\u25810x4ed": 6867,
    "\u25810x3820": 6868,
    "\u25810x415c": 6869,
    "\u25810x431a": 6870,
    "\u25810x4912d0": 6871,
    "\u25810x1211e88": 6872,
    "7ea": 6873,
    "dio": 6874,
    "\u25810x7b7": 6875,
    "\u25810x7fe": 6876,
    "2a8": 6877,
    "\u2581please": 6878,
    "\u2581cryptgethashparam": 6879,
    "1b0": 6880,
    "\u25810x1211ba8": 6881,
    "b24": 6882,
    "row": 6883,
    "\u25810x40f5": 6884,
    "\u25810xfeee009f": 6885,
    "145": 6886,
    "\u2581ab": 6887,
    "\u25810x4189e8": 6888,
    "metofiletime": 6889,
    "\u2581systemtimetofiletime": 6890,
    "2e1": 6891,
    "5400": 6892,
    "\u25810x2280": 6893,
    "\u25810x4177b0": 6894,
    "28c": 6895,
    "\u25810xda": 6896,
    "\u25810xa3a8": 6897,
    "initializeex": 6898,
    "\u2581coinitializeex": 6899,
    "486": 6900,
    "a65": 6901,
    "\u25810x8770": 6902,
    "\u25810x418a18": 6903,
    "\u25810x6d006c": 6904,
    "\u25810xfeee019": 6905,
    "134": 6906,
    "\u25810x413f": 6907,
    "\u25810x42a4": 6908,
    "\u25810x6b00": 6909,
    "\u2581cryptacquirecontexta": 6910,
    "30c": 6911,
    "\u25810x9050": 6912,
    "\u2581dialogbox": 6913,
    "\u25810xfeee00f0": 6914,
    "\u2581globalmemorystatusex": 6915,
    "7ac": 6916,
    "uld": 6917,
    "\u2581getfull": 6918,
    "\u25810x6f006e": 6919,
    "\u25810x710070": 6920,
    "\u25810x770076": 6921,
    "\u25810x790078": 6922,
    "164": 6923,
    "\u25810x3810": 6924,
    "\u25810x9d30": 6925,
    "\u25810xa290": 6926,
    "\u25810x455480": 6927,
    "\u25810x690068": 6928,
    "\u25810x6b006a": 6929,
    "\u25810x714d98": 6930,
    "\u25810x730072": 6931,
    "\u25810x750074": 6932,
    "\u25810x7b007a": 6933,
    "\u25810x7d007c": 6934,
    "\u25810x7f007e": 6935,
    "b26": 6936,
    "f54": 6937,
    "\u2581for": 6938,
    "\u25810x2d4d": 6939,
    "\u25810xbcf2": 6940,
    "\u2581strcpy": 6941,
    "\u25810xfeee00f5": 6942,
    "a3c": 6943,
    "e90": 6944,
    "\u25810xa980": 6945,
    "\u25810x419970": 6946,
    "\u25810x4bc298": 6947,
    "\u25810x120e6a0": 6948,
    "\u25810x1211ec4": 6949,
    "\u2581getmenuitem": 6950,
    "2bc": 6951,
    "31c": 6952,
    "bae": 6953,
    "\u25810x3f75f7c": 6954,
    "\u25810xae20": 6955,
    "\u25810x420fe8": 6956,
    "9b8": 6957,
    "fe4": 6958,
    "\u25810x154": 6959,
    "9a0": 6960,
    "cc5": 6961,
    "ea8": 6962,
    "7540": 6963,
    "56c20": 6964,
    "\u2581this": 6965,
    "\u25810x6f6": 6966,
    "\u25810x4195": 6967,
    "\u2581memmove": 6968,
    "beb": 6969,
    "6564": 6970,
    "7c58": 6971,
    "22433a": 6972,
    "570656": 6973,
    "d0a646": 6974,
    "\u25813a526": 6975,
    "\u25810x9028": 6976,
    "\u25810x41a9f0": 6977,
    "\u25810x455468": 6978,
    "\u25810x4f6230": 6979,
    "1740d0a646": 6980,
    "56c2022433a": 6981,
    "\u25813a526570656": 6982,
    "1740d0a64656c2022433a": 6983,
    "\u25813a5265706561740d0a64656c2022433a": 6984,
    "365": 6985,
    "90000": 6986,
    "\u2581getexit": 6987,
    "\u25810x42eab0": 6988,
    "d12": 6989,
    "\u25810x4f4": 6990,
    "ec08": 6991,
    "\u25810x5ab": 6992,
    "\u25810x4332": 6993,
    "\u25810x2357b": 6994,
    "\u25810x42559f": 6995,
    "\u25810x4255a0": 6996,
    "\u25810x3010301": 6997,
    "630": 6998,
    "a66": 6999,
    "\u2581application": 7000,
    "dd0": 7001,
    "e09": 7002,
    "coll": 7003,
    "\u2581shgetfileinfow": 7004,
    "7de": 7005,
    "b91": 7006,
    "uth": 7007,
    "fileex": 7008,
    "\u25810x504": 7009,
    "5bc": 7010,
    "\u25810xe4": 7011,
    "\u25810x4529": 7012,
    "oo": 7013,
    "319": 7014,
    "\u25810x4a8": 7015,
    "\u2581getsid": 7016,
    "\u25810x422778": 7017,
    "\u25810x1210d90": 7018,
    "\u25810x77000723": 7019,
    "695": 7020,
    "711": 7021,
    "905": 7022,
    "27d5": 7023,
    "\u25810x3f75f84": 7024,
    "fa5": 7025,
    "\u25810x9cf0": 7026,
    "installed": 7027,
    "336": 7028,
    "\u25810xd2": 7029,
    "\u25810x350": 7030,
    "\u25810x6b4": 7031,
    "\u25810x3f75f8c": 7032,
    "234": 7033,
    "3b9": 7034,
    "d99": 7035,
    "\u25810x6c000": 7036,
    "\u2581mb": 7037,
    "prog": 7038,
    "prov": 7039,
    "\u25810x970": 7040,
    "274": 7041,
    "ab6": 7042,
    "f3a": 7043,
    "\u2581appdata": 7044,
    "be4": 7045,
    "propw": 7046,
    "\u25810x92e0": 7047,
    "\u25810x169bd": 7048,
    "\u2581shgetspecialfoldera": 7049,
    "\u2581a7": 7050,
    "226": 7051,
    "b64": 7052,
    "\u25810xf4": 7053,
    "\u25810x40a92e": 7054,
    "\u25810x40a930": 7055,
    "\u25810x40a932": 7056,
    "\u25810x40a934": 7057,
    "\u25810x40a936": 7058,
    "\u25810x40a938": 7059,
    "\u25810x40a93a": 7060,
    "\u25810x40b888": 7061,
    "7ad": 7062,
    "e55": 7063,
    "\u2581mei": 7064,
    "pass2": 7065,
    "session": 7066,
    "\u25810xa030": 7067,
    "\u25810x4229c1": 7068,
    "\u25810x42c020": 7069,
    "\u2581meipass2": 7070,
    "\u25810x1211788": 7071,
    "660": 7072,
    "767574": 7073,
    "\u2581stdio": 7074,
    "\u25810x4420": 7075,
    "\u25810x417c10": 7076,
    "\u25810x42c024": 7077,
    "\u25810x42c028": 7078,
    "\u25810x77767574": 7079,
    "\u2581gettempfilenamew": 7080,
    "lu": 7081,
    "618": 7082,
    "\u2581ext": 7083,
    "a7978": 7084,
    "2de": 7085,
    "\u25810x40c7": 7086,
    "\u25810x410acd": 7087,
    "\u25810x410ace": 7088,
    "\u25810x41e208": 7089,
    "\u25810x7b7a7978": 7090,
    "356": 7091,
    "670": 7092,
    "f5e": 7093,
    "sions": 7094,
    "\u25810x537": 7095,
    "170": 7096,
    "22c0": 7097,
    "\u25810x6ce": 7098,
    "qstring": 7099,
    "\u25810x40af": 7100,
    "\u25810x4190": 7101,
    "7e7": 7102,
    "\u25810x4154": 7103,
    "\u25810x417be0": 7104,
    "atomw": 7105,
    "progid": 7106,
    "\u25810xd27d5": 7107,
    "\u25810x4315f8": 7108,
    "\u25810x452868": 7109,
    "\u2581clsidfromprogid": 7110,
    "b66": 7111,
    "ba1": 7112,
    "ere": 7113,
    "\u25810x41af40": 7114,
    "\u25810x423dc8": 7115,
    "\u25810x42b778": 7116,
    "\u25810xfeee00a1": 7117,
    "\u2581clsidfromstring": 7118,
    "d94": 7119,
    "\u258130": 7120,
    "26160": 7121,
    "\u25810x57c": 7122,
    "\u25810x4bcc": 7123,
    "\u25810x1733c4": 7124,
    "\u25810x41b9f0": 7125,
    "\u25810x41de50": 7126,
    "\u25810x429260": 7127,
    "\u25810x1211d2c": 7128,
    "b9c": 7129,
    "d35": 7130,
    "e60": 7131,
    "lientrect": 7132,
    "\u25810x41ae00": 7133,
    "\u2581getclientrect": 7134,
    "6f8": 7135,
    "9da": 7136,
    "dee": 7137,
    "\u258150": 7138,
    "\u25810xb4ec": 7139,
    "\u25810x40a020": 7140,
    "\u25810x41ad50": 7141,
    "\u25810x42b070": 7142,
    "\u25810x42eaa6": 7143,
    "\u25810x42eaba": 7144,
    "\u25810x42eac4": 7145,
    "\u25810x1211684": 7146,
    "d81": 7147,
    "\u25810x7372": 7148,
    "\u25810x9230": 7149,
    "\u25810x1211c3c": 7150,
    "\u25810xfeee00a2": 7151,
    "\u25810x4603": 7152,
    "\u25810x5188": 7153,
    "\u25810x42cdf8": 7154,
    "\u25810x4bc328": 7155,
    "\u25810x4bc358": 7156,
    "\u25810x63626160": 7157,
    "\u25810x73727170": 7158,
    "a89": 7159,
    "\u2581cal": 7160,
    "\u25810x4225": 7161,
    "\u25810x6766": 7162,
    "a14": 7163,
    "f75": 7164,
    "suba": 7165,
    "subauth": 7166,
    "\u25810x42d480": 7167,
    "\u25810x1211e90": 7168,
    "subauthority": 7169,
    "\u2581fileexistsa": 7170,
    "\u2581getsidsubauthority": 7171,
    "775": 7172,
    "\u25810x120fe": 7173,
    "\u25810x67666564": 7174,
    "1b5": 7175,
    "ee98": 7176,
    "\u25810x42d468": 7177,
    "685": 7178,
    "0064": 7179,
    "a6968": 7180,
    "\u25810x4014": 7181,
    "\u25810x42d438": 7182,
    "a37": 7183,
    "\u25810x6700": 7184,
    "\u2581olerun": 7185,
    "\u25810x42d450": 7186,
    "\u25810x1210bd7": 7187,
    "\u25810x12116c0": 7188,
    "\u25810x6b6a6968": 7189,
    "3ff": 7190,
    "582": 7191,
    "804": 7192,
    "b008": 7193,
    "\u2581afx": 7194,
    "\u25810x4548": 7195,
    "\u2581getwindowdc": 7196,
    "844": 7197,
    "ache": 7198,
    "\u25810x1211c28": 7199,
    "\u2581cryptacquirecontextw": 7200,
    "641": 7201,
    "efc": 7202,
    "f47": 7203,
    "e7d7c": 7204,
    "menuitem": 7205,
    "e6d6c": 7206,
    "\u25810x59c": 7207,
    "\u25810x423baf": 7208,
    "\u25810x423bb0": 7209,
    "\u25810x429920": 7210,
    "1d5": 7211,
    "ba6": 7212,
    "ee9": 7213,
    "de08": 7214,
    "\u25810x433630": 7215,
    "\u25810x6f6e6d6c": 7216,
    "\u2581charprevw": 7217,
    "\u25810x7f7e7d7c": 7218,
    "visible": 7219,
    "\u25810x40ad": 7220,
    "\u25810xffeb": 7221,
    "\u25810x44f850": 7222,
    "161": 7223,
    "6c4": 7224,
    "d74": 7225,
    "dd5": 7226,
    "\u25810xed": 7227,
    "\u25810x40b9": 7228,
    "\u25810x8ee0": 7229,
    "\u25810x40a540": 7230,
    "\u25810xfeee00a3": 7231,
    "3bc": 7232,
    "3fc": 7233,
    "ups": 7234,
    "128": 7235,
    "\u25810x1e0": 7236,
    "\u2581winmain": 7237,
    "\u25810x42168c": 7238,
    "\u25810x44f868": 7239,
    "\u25810x1211180": 7240,
    "379": 7241,
    "3f3": 7242,
    "710": 7243,
    "e06": 7244,
    "f96": 7245,
    "\u2581cannot": 7246,
    "\u25810x42168b": 7247,
    "\u25810x430fec": 7248,
    "\u25810x44f8c8": 7249,
    "\u25810x1211e64": 7250,
    "\u25810xfeee00a4": 7251,
    "\u25810xfeee00a5": 7252,
    "bf6": 7253,
    "ptr": 7254,
    "\u25810x190": 7255,
    "\u25810x44f880": 7256,
    "\u25810x44f898": 7257,
    "\u25810x44f8b0": 7258,
    "\u25810xfeee017": 7259,
    "\u25810x40a544": 7260,
    "\u25810x430db0": 7261,
    "\u25810x44f8f8": 7262,
    "\u25810x44f940": 7263,
    "\u25810x44f958": 7264,
    "\u25810x44f970": 7265,
    "\u25810x44f988": 7266,
    "\u25810x1211bf0": 7267,
    "138": 7268,
    "raphi": 7269,
    "\u25810x4222": 7270,
    "\u25810x9980": 7271,
    "\u25810x40a53a": 7272,
    "\u25810x40a53c": 7273,
    "\u25810x40a53e": 7274,
    "\u25810x40a542": 7275,
    "5f0": 7276,
    "sto": 7277,
    "\u25810x2b2": 7278,
    "\u25810x6300": 7279,
    "\u25810x40a546": 7280,
    "\u25810x41e93e": 7281,
    "\u25810x41ebfa": 7282,
    "\u25810x41ebfb": 7283,
    "\u25810x1211c44": 7284,
    "38a": 7285,
    "\u25810x6a7": 7286,
    "\u25810x4034": 7287,
    "\u25810x41be": 7288,
    "395": 7289,
    "\u2581winapp": 7290,
    "\u25810xfeee00a6": 7291,
    "ebc": 7292,
    "\u25810xc2": 7293,
    "\u25810x47b1": 7294,
    "\u25810x4a50": 7295,
    "5d0": 7296,
    "d19": 7297,
    "ider": 7298,
    "\u25810x238": 7299,
    "\u25810x7e50": 7300,
    "\u25810x630062": 7301,
    "\u25810x650064": 7302,
    "\u25810x670066": 7303,
    "\u2581getsidsubauthoritycount": 7304,
    "da0": 7305,
    "14c8": 7306,
    "\u2581std": 7307,
    "random": 7308,
    "\u25810x5619": 7309,
    "\u25810x418210": 7310,
    "\u25810x610060": 7311,
    "\u25810x7ee000": 7312,
    "955": 7313,
    "f06": 7314,
    "\u25810x584": 7315,
    "\u25810x422964": 7316,
    "\u25810x7f8002": 7317,
    "2b7": 7318,
    "\u2581cs": 7319,
    "\u2581om": 7320,
    "\u25810xa427": 7321,
    "\u25810x4093e4": 7322,
    "\u25810x44e4b8": 7323,
    "ab4": 7324,
    "\u2581fastf": 7325,
    "\u25810x6781c0": 7326,
    "\u25810x6781f0": 7327,
    "760": 7328,
    "b71": 7329,
    "3cf8": 7330,
    "\u25810x7f8010": 7331,
    "hs": 7332,
    "6d4": 7333,
    "e1f": 7334,
    "f45": 7335,
    "genrandom": 7336,
    "\u2581outputdebugstringw": 7337,
    "232": 7338,
    "\u25810x1010": 7339,
    "\u25810x40f660": 7340,
    "\u25810x4228e1": 7341,
    "\u25810x431068": 7342,
    "\u25810x12117e0": 7343,
    "windowshook": 7344,
    "\u25810x7f6": 7345,
    "\u25810x41d8": 7346,
    "\u25810x4444": 7347,
    "\u2581isvalidsid": 7348,
    "aab": 7349,
    "ture": 7350,
    "\u25810x422980": 7351,
    "\u2581fastfail": 7352,
    "da9": 7353,
    "lash": 7354,
    "older": 7355,
    "\u25810xf1": 7356,
    "\u25810x40df": 7357,
    "\u25810xddf1": 7358,
    "provider": 7359,
    "\u25810x41300b": 7360,
    "\u25810x42ce24": 7361,
    "121": 7362,
    "295": 7363,
    "fox": 7364,
    "secor": 7365,
    "\u25810x4033": 7366,
    "\u2581omsecor": 7367,
    "\u25810x423cf0": 7368,
    "\u2581globaladd": 7369,
    "69d": 7370,
    "9b6": 7371,
    "bb9": 7372,
    "\u25810x42286e": 7373,
    "\u25810x42286f": 7374,
    "\u25810x4228e2": 7375,
    "\u25810x422963": 7376,
    "\u25810x42297f": 7377,
    "\u25810x4229c2": 7378,
    "\u25810x4229fa": 7379,
    "\u25810x4229fb": 7380,
    "\u25810x422a0d": 7381,
    "\u25810x422a0e": 7382,
    "\u25810x42329e": 7383,
    "\u25810x42329f": 7384,
    "\u25810x4233fc": 7385,
    "\u25810x423cef": 7386,
    "\u2581cryptgenrandom": 7387,
    "25c": 7388,
    "3c6": 7389,
    "79c": 7390,
    "\u2581ts": 7391,
    "ualfox": 7392,
    "controlset": 7393,
    "\u25810x1211c5c": 7394,
    "\u2581currentcontrolset": 7395,
    "2c1": 7396,
    "db9": 7397,
    "edu": 7398,
    "fig": 7399,
    "ectex": 7400,
    "marta": 7401,
    "\u25810x4210": 7402,
    "\u25810x4770": 7403,
    "\u2581ntmarta": 7404,
    "\u258120220304": 7405,
    "\u2581movefilew": 7406,
    "da5": 7407,
    "fa1": 7408,
    "\u2581zip": 7409,
    "\u25810x42cdfc": 7410,
    "\u25810xfeee00a7": 7411,
    "\u2581localfilet": 7412,
    "\u2581localfiletimetofiletime": 7413,
    "e1c": 7414,
    "\u2581437": 7415,
    "\u25810x2d4dd": 7416,
    "\u25810x4fecb0": 7417,
    "systemtime": 7418,
    "\u25810xfeee00a8": 7419,
    "yd": 7420,
    "b16": 7421,
    "\u2581ie": 7422,
    "egis": 7423,
    "\u25810x7e51": 7424,
    "\u25810x9640": 7425,
    "\u2581calloc": 7426,
    "\u25810x429903": 7427,
    "\u25810x4922c0": 7428,
    "\u25810x4feb14": 7429,
    "\u25810x4feb78": 7430,
    "\u25810x4feb90": 7431,
    "graphi": 7432,
    "\u25810x1810": 7433,
    "\u25810x429902": 7434,
    "\u25810x42990c": 7435,
    "\u25810x42990d": 7436,
    "\u25810x429921": 7437,
    "\u25810x42d360": 7438,
    "\u25810x42d378": 7439,
    "\u25810x4febc0": 7440,
    "\u25810x4fec08": 7441,
    "\u25810x4fec38": 7442,
    "\u25810x4fec50": 7443,
    "\u25810x4fec68": 7444,
    "\u2581setcurrentdirectoryw": 7445,
    "e4f": 7446,
    "\u2581lm": 7447,
    "\u2581oem": 7448,
    "tinue": 7449,
    "\u25810x464": 7450,
    "already": 7451,
    "\u25810x42992a": 7452,
    "\u25810x42992b": 7453,
    "\u25810x42d3f0": 7454,
    "\u25810x4fec80": 7455,
    "\u25810x4fec98": 7456,
    "325": 7457,
    "really": 7458,
    "vebeen": 7459,
    "\u2581pleasec": 7460,
    "\u25810x42d3a8": 7461,
    "\u25810x431e28": 7462,
    "\u25810x4acbc0": 7463,
    "\u25810x1211d3c": 7464,
    "\u25810x1211d50": 7465,
    "\u25810xfeee00a9": 7466,
    "\u2581formatmessagew": 7467,
    "\u2581openanexploreron": 7468,
    "2f6": 7469,
    "\u2581getdl": 7470,
    "\u25810x8e70": 7471,
    "\u25810xa424": 7472,
    "\u2581stem32": 7473,
    "\u25810xfeee00bc": 7474,
    "ce9": 7475,
    "\u25810x40b5": 7476,
    "\u25810x44e9": 7477,
    "0050": 7478,
    "3e3d": 7479,
    "e667": 7480,
    "\u2581class": 7481,
    "\u2581myarg1": 7482,
    "3ba": 7483,
    "3f4": 7484,
    "ddc": 7485,
    "\u25810x698": 7486,
    "\u25810x4060": 7487,
    "\u25810xfeee00aa": 7488,
    "\u25810xfeee00ae": 7489,
    "trace": 7490,
    "\u25810xa41": 7491,
    "\u2581unlock": 7492,
    "\u25810x120e688": 7493,
    "\u25810xfeee00ac": 7494,
    "ae7": 7495,
    "d06": 7496,
    "\u25810x40b1": 7497,
    "\u25810x41db": 7498,
    "\u25810x8028": 7499,
    "\u25810x412850": 7500,
    "\u25810xfeee00ab": 7501,
    "919": 7502,
    "b1c": 7503,
    "bb7": 7504,
    "\u2581vie": 7505,
    "\u25810xe7": 7506,
    "\u25810x426d": 7507,
    "\u25810x431a50": 7508,
    "\u25810xfeee00ad": 7509,
    "e78": 7510,
    "\u2581registerclipboardformatw": 7511,
    "67f": 7512,
    "\u2581exp": 7513,
    "\u2581evie": 7514,
    "\u25810x44ea": 7515,
    "\u25810x6a09": 7516,
    "\u25810x1210e6f": 7517,
    "\u25810x1210e73": 7518,
    "\u25810x1210e74": 7519,
    "\u25810x1210e77": 7520,
    "\u25810x1210e7b": 7521,
    "sand": 7522,
    "\u2581psc": 7523,
    "splash": 7524,
    "\u25810x515": 7525,
    "\u25810x7dfc": 7526,
    "\u2581youmust": 7527,
    "\u25810x1210f66": 7528,
    "\u25810x1210f6a": 7529,
    "bca": 7530,
    "f94": 7531,
    "\u25817z6": 7532,
    "\u25810x4338a8": 7533,
    "\u25810x1211fe4": 7534,
    "e34": 7535,
    "ocus": 7536,
    "\u2581mail": 7537,
    "\u25810x6ba3c8": 7538,
    "\u2581isbadwrite": 7539,
    "\u2581findwindoww": 7540,
    "9a6": 7541,
    "af1": 7542,
    "da4": 7543,
    "graphic": 7544,
    "\u25810x7dfd": 7545,
    "\u25810xffd5": 7546,
    "\u2581deallocate": 7547,
    "\u25810x41c6": 7548,
    "\u25810x169bc9c": 7549,
    "\u2581loadbitmap": 7550,
    "\u2581isbadwriteptr": 7551,
    "6808": 7552,
    "screenhide": 7553,
    "\u2581aswsplash": 7554,
    "buttoncreated": 7555,
    "\u2581aswsplashscreenhide": 7556,
    "\u2581taskbarbuttoncreated": 7557,
    "3e4": 7558,
    "70f": 7559,
    "ookup": 7560,
    "rypto": 7561,
    "\u25810x4180": 7562,
    "\u25810xffc0": 7563,
    "\u25810x42c5a0": 7564,
    "\u25810x42c5b8": 7565,
    "\u25810x439440": 7566,
    "5b2": 7567,
    "7b7": 7568,
    "\u25810x42ca80": 7569,
    "\u25810x5b2": 7570,
    "\u25810x42abc0": 7571,
    "\u25810x4f5390": 7572,
    "\u25810x4f5400": 7573,
    "\u25810x5003e8": 7574,
    "\u2581getprivateprofilestringa": 7575,
    "645": 7576,
    "666": 7577,
    "\u2581lookup": 7578,
    "\u25810x120ee": 7579,
    "\u25810x42ca2c": 7580,
    "\u25810x4fea28": 7581,
    "\u25810xfeee00af": 7582,
    "\u2581myarg1myarg2": 7583,
    "\u2581arg": 7584,
    "\u25810x150": 7585,
    "\u25810x42ca44": 7586,
    "\u25810x4718f0": 7587,
    "\u25810x4fe2c0": 7588,
    "\u25810x4fe2d8": 7589,
    "9fe": 7590,
    "\u25810x489d": 7591,
    "vieworgex": 7592,
    "\u25810x42c170": 7593,
    "\u25810x42cdd0": 7594,
    "\u25810x4fe2f0": 7595,
    "\u25810x4fe308": 7596,
    "\u25810x4fe320": 7597,
    "\u25810x4fe338": 7598,
    "\u25810x4fe350": 7599,
    "\u25810x4fe368": 7600,
    "\u25810x4fea80": 7601,
    "371": 7602,
    "72c": 7603,
    "afd": 7604,
    "draw": 7605,
    "basec": 7606,
    "\u25810x9b50": 7607,
    "\u25810x42c1a8": 7608,
    "\u25810x42c1e0": 7609,
    "\u25810x42c570": 7610,
    "\u25810xfeee00b0": 7611,
    "\u25810xfeee00b1": 7612,
    "214": 7613,
    "a71": 7614,
    "bf1": 7615,
    "\u2581884": 7616,
    "\u2581tsl": 7617,
    "\u25810x418c": 7618,
    "\u25810x40935c": 7619,
    "\u25810x4093ec": 7620,
    "\u25810x411218": 7621,
    "basecrypto": 7622,
    "providerv1": 7623,
    "basecryptographic": 7624,
    "basecryptographicproviderv1": 7625,
    "\u2581microsoftbasecryptographicproviderv1": 7626,
    "0000040": 7627,
    "\u25810x4100": 7628,
    "\u25810x7e01": 7629,
    "\u25810x1211e98": 7630,
    "kg": 7631,
    "d61": 7632,
    "\u25810x4aac": 7633,
    "\u2581createsemaphorea": 7634,
    "3130": 7635,
    "\u2581a7k": 7636,
    "\u25810x510": 7637,
    "\u25810x7f3": 7638,
    "\u25810x42db": 7639,
    "\u25810x500448": 7640,
    "\u25810xf0000040": 7641,
    "\u25810x824": 7642,
    "\u25810x1211368": 7643,
    "\u25810x6a09e667": 7644,
    "765": 7645,
    "a96": 7646,
    "\u25810x4066": 7647,
    "\u2581session": 7648,
    "212": 7649,
    "245": 7650,
    "\u25810x8a44": 7651,
    "219": 7652,
    "d01": 7653,
    "\u25810x593": 7654,
    "\u25810x604": 7655,
    "\u25810x4966": 7656,
    "\u25810x7e04": 7657,
    "\u25810xff87": 7658,
    "\u25810x131aac0": 7659,
    "754": 7660,
    "ce5": 7661,
    "d85": 7662,
    "\u25810x3f22a0": 7663,
    "\u25810x410b20": 7664,
    "\u25810xfeee00b3": 7665,
    "\u2581getsystemwindows": 7666,
    "eatom": 7667,
    "\u25810x40c4": 7668,
    "\u25810x4235": 7669,
    "\u25810x4780": 7670,
    "deleteatom": 7671,
    "\u25810x1210f64": 7672,
    "\u25810xfeee00b2": 7673,
    "\u25810xfeee00b4": 7674,
    "\u2581globaldeleteatom": 7675,
    "7d6": 7676,
    "drl66": 7677,
    "\u2581tsldrl66": 7678,
    "\u25810x120e6dc": 7679,
    "\u2581getsystemwindowsdirectoryw": 7680,
    "935": 7681,
    "a95": 7682,
    "fb4": 7683,
    "\u25810x1211268": 7684,
    "\u25810x1211478": 7685,
    "\u25810xee": 7686,
    "\u25810x532": 7687,
    "\u25810x1010101": 7688,
    "\u25810xfeee00b5": 7689,
    "\u2581filetimetosystemtime": 7690,
    "c45": 7691,
    "\u25810x232": 7692,
    "\u25810x1814": 7693,
    "\u25810x5040": 7694,
    "\u25810x7e05": 7695,
    "\u2581dispatchmessagew": 7696,
    "aa7": 7697,
    "bf3": 7698,
    "f32": 7699,
    "ethe": 7700,
    "\u25810x46a": 7701,
    "\u25810x45d1": 7702,
    "\u25810x4a80": 7703,
    "648": 7704,
    "ea4": 7705,
    "ron": 7706,
    "\u25810x4287": 7707,
    "addresses": 7708,
    "b15": 7709,
    "b7e": 7710,
    "\u25810x7a40": 7711,
    "\u25810x80c3": 7712,
    "\u25810x8e60": 7713,
    "201": 7714,
    "aa1": 7715,
    "son": 7716,
    "\u2581date": 7717,
    "\u25810x571": 7718,
    "\u25810x684": 7719,
    "\u25810x4a40": 7720,
    "\u25810x73a0": 7721,
    "\u25810x9870": 7722,
    "\u25810xffee": 7723,
    "\u2581getadaptersaddresses": 7724,
    "577": 7725,
    "ten": 7726,
    "\u25810x4e39": 7727,
    "\u25810x120ce": 7728,
    "2e7": 7729,
    "aramet": 7730,
    "paramw": 7731,
    "\u25810x444": 7732,
    "\u25810x8f30": 7733,
    "\u25810x80c440": 7734,
    "\u25810xd27d571f": 7735,
    "\u25810xfeee00b7": 7736,
    "e98": 7737,
    "36d8": 7738,
    "\u25810x4640": 7739,
    "\u25810x47ee": 7740,
    "\u25810xa040": 7741,
    "\u25810x4012db": 7742,
    "\u25810x42cd78": 7743,
    "\u25810x42ce38": 7744,
    "\u25810xfeee00b8": 7745,
    "9a4": 7746,
    "tochar": 7747,
    "\u25810x7e10": 7748,
    "\u2581oemtochar": 7749,
    "002": 7750,
    "746": 7751,
    "bf7": 7752,
    "lete": 7753,
    "formatw": 7754,
    "\u25810x411c": 7755,
    "\u25810x482854": 7756,
    "\u25810x482870": 7757,
    "\u258104t": 7758,
    "\u25810xfeee00b6": 7759,
    "\u25810xfeee00b9": 7760,
    "146": 7761,
    "\u2581202203032": 7762,
    "590": 7763,
    "vec": 7764,
    "fore": 7765,
    "9ce": 7766,
    "d54": 7767,
    "\u25810x1b1": 7768,
    "\u25810xffda": 7769,
    "\u25810x417b1": 7770,
    "\u25810x4170d4": 7771,
    "\u25810x4170d5": 7772,
    "\u25810x42c0a4": 7773,
    "\u25810xfeee00bb": 7774,
    "943": 7775,
    "\u25810x10b": 7776,
    "\u25810x7e8c": 7777,
    "\u2581module": 7778,
    "\u25810x1211e8c": 7779,
    "d9c": 7780,
    "f55": 7781,
    "remo": 7782,
    "\u25810x44e": 7783,
    "\u25810x422a": 7784,
    "\u25810x9070": 7785,
    "3e1": 7786,
    "\u2581nar": 7787,
    "\u25810x1824": 7788,
    "\u25810x8640": 7789,
    "\u25810x10005c": 7790,
    "\u25810x42daa2": 7791,
    "\u25810x42daab": 7792,
    "\u25810x42dab4": 7793,
    "\u25810x42dabd": 7794,
    "\u25810x46b5fc": 7795,
    "\u25810x2825ef8": 7796,
    "\u25810xfeee00ba": 7797,
    "ec3": 7798,
    "\u2581from": 7799,
    "\u2581virtu": 7800,
    "\u25810x90c0": 7801,
    "\u2581narrow": 7802,
    "\u2581virtuallock": 7803,
    "\u2581regqueryvalueexa": 7804,
    "nd": 7805,
    "a31": 7806,
    "b76": 7807,
    "e11": 7808,
    "eb5": 7809,
    "\u25810x120e68c": 7810,
    "a5b": 7811,
    "fee": 7812,
    "\u25810x4522": 7813,
    "ssoftware": 7814,
    "\u2581msvcr100": 7815,
    "96d": 7816,
    "a25": 7817,
    "aler": 7818,
    "\u2581cqa": 7819,
    "\u2581scqa": 7820,
    "\u25810x7a4": 7821,
    "\u2581pscqa": 7822,
    "\u25810x7e08": 7823,
    "\u25810xb4eb": 7824,
    "\u25810x3b7fb": 7825,
    "\u25810x120fd64": 7826,
    "\u25810x12119a0": 7827,
    "\u25810x1211fb0": 7828,
    "a72": 7829,
    "a4c4": 7830,
    "\u25810xfeee00bd": 7831,
    "3dc": 7832,
    "ange": 7833,
    "\u25810x41f6": 7834,
    "\u25810x100fd": 7835,
    "\u25810xfeee00be": 7836,
    "\u2581comparestringa": 7837,
    "13d": 7838,
    "945": 7839,
    "3a08": 7840,
    "\u25810x1818": 7841,
    "185": 7842,
    "2e4": 7843,
    "\u25810x80b9": 7844,
    "\u25810x1211f58": 7845,
    "\u25810xfeee00bf": 7846,
    "\u2581writeprocessmemory": 7847,
    "2b5": 7848,
    "d37": 7849,
    "fb5": 7850,
    "99b9": 7851,
    "\u2581files": 7852,
    "\u25810xfeee00c0": 7853,
    "\u2581oemtochara": 7854,
    "5234": 7855,
    "a00000": 7856,
    "\u25810x6e7": 7857,
    "\u25810x4156": 7858,
    "\u25810x88c0": 7859,
    "\u25810x41cc0c": 7860,
    "546": 7861,
    "7d4": 7862,
    "aa9": 7863,
    "3534": 7864,
    "\u25810x41b1": 7865,
    "\u25810x4820": 7866,
    "\u25810x442806": 7867,
    "\u2581enddialog": 7868,
    "\u25810xfeee00c1": 7869,
    "\u2581globalrealloc": 7870,
    "9fc": 7871,
    "\u25810x6e6": 7872,
    "\u25810x4a5c": 7873,
    "\u25810x7e09": 7874,
    "\u25810x409364": 7875,
    "\u25810xfeee00c2": 7876,
    "fd1": 7877,
    "\u2581lmir": 7878,
    "\u25810x240": 7879,
    "\u25810x9240": 7880,
    "\u25810x442808": 7881,
    "bde": 7882,
    "\u2581ur": 7883,
    "\u25810x4720": 7884,
    "\u25810x5258": 7885,
    "\u25810x7e90": 7886,
    "\u25810x44280a": 7887,
    "\u25810x44280c": 7888,
    "\u25810x44280e": 7889,
    "\u25810x442810": 7890,
    "\u25810x442812": 7891,
    "\u25810x442814": 7892,
    "\u25810x442816": 7893,
    "\u25810x442818": 7894,
    "\u25810x44281a": 7895,
    "\u25810x44281c": 7896,
    "\u25810x44281e": 7897,
    "\u25810x1211f08": 7898,
    "\u25810xfeee00d7": 7899,
    "ba5": 7900,
    "d3d": 7901,
    "ec5": 7902,
    "5410": 7903,
    "\u25810x1828": 7904,
    "\u25810x8a45": 7905,
    "\u2581module32": 7906,
    "\u25810xfeee00c3": 7907,
    "968": 7908,
    "fde": 7909,
    "\u2581tol": 7910,
    "\u25810x454bb8": 7911,
    "\u2581wtsapi32": 7912,
    "\u2581dllonexit": 7913,
    "\u2581globalfind": 7914,
    "a61": 7915,
    "dlg": 7916,
    "69c0": 7917,
    "scroll": 7918,
    "\u2581tolower": 7919,
    "\u25810xfeee00c4": 7920,
    "tim": 7921,
    "\u2581dl": 7922,
    "\u2581meta": 7923,
    "\u25810x4740": 7924,
    "ae6": 7925,
    "bd2": 7926,
    "34b8": 7927,
    "\u25810x4a5": 7928,
    "\u25810x8e40": 7929,
    "\u25810xffdb": 7930,
    "\u2581msvcr71": 7931,
    "\u25810x412565": 7932,
    "126": 7933,
    "d56": 7934,
    "l6660d": 7935,
    "\u25810x412566": 7936,
    "705": 7937,
    "e4d": 7938,
    "\u25810x28c39": 7939,
    "\u2581riched20": 7940,
    "\u2581userprofil": 7941,
    "764": 7942,
    "eth": 7943,
    "\u25810xd6": 7944,
    "\u25810x28fd0": 7945,
    "\u25810x4da": 7946,
    "\u25810x1848": 7947,
    "\u25810x28c3f": 7948,
    "\u25810x4e300": 7949,
    "\u25810x42dfe8": 7950,
    "\u25810xfeee00c6": 7951,
    "ah": 7952,
    "335": 7953,
    "e42": 7954,
    "\u2581xh": 7955,
    "\u2581gum": 7956,
    "apture": 7957,
    "\u25810x1858": 7958,
    "\u25810x4528b0": 7959,
    "\u25810x483cf8": 7960,
    "\u25810xfeee00c7": 7961,
    "3b3": 7962,
    "b54": 7963,
    "cc6": 7964,
    "\u25810xd3": 7965,
    "\u25810x4178": 7966,
    "\u25810x120ff7c": 7967,
    "\u25810xfeee00c5": 7968,
    "drl6660drl6660drl6660drl6660drl6660": 7969,
    "257": 7970,
    "747": 7971,
    "a808": 7972,
    "\u25810x1840": 7973,
    "\u2581conver": 7974,
    "\u25810x40000": 7975,
    "\u25810x437b7": 7976,
    "\u25810x437116": 7977,
    "\u25810x437117": 7978,
    "681": 7979,
    "\u25810xdb": 7980,
    "\u25810x185c": 7981,
    "\u25810x4908": 7982,
    "\u25810x4c40": 7983,
    "\u25810x573c": 7984,
    "viewextex": 7985,
    "\u25810xfeee00ca": 7986,
    "3ce": 7987,
    "dc4": 7988,
    "block": 7989,
    "\u25810x1830": 7990,
    "\u25810x184c": 7991,
    "\u25810x4521": 7992,
    "\u25810x9170": 7993,
    "\u25810xfeee00c8": 7994,
    "914": 7995,
    "lot": 7996,
    "\u25810x1820": 7997,
    "\u25810x183c": 7998,
    "\u25810x1844": 7999,
    "\u25810x43f00": 8000,
    "\u25810x43b6e9": 8001,
    "922": 8002,
    "ef9": 8003,
    "004c": 8004,
    "3718": 8005,
    "\u25810x4b0": 8006,
    "\u25810x1838": 8007,
    "\u25810x3001": 8008,
    "\u25810x43b6f3": 8009,
    "\u25810x10000000": 8010,
    "xfr": 8011,
    "\u2581all": 8012,
    "\u25810x7fd": 8013,
    "\u25810x1878": 8014,
    "\u25810x4070": 8015,
    "\u25810x714d68": 8016,
    "\u25810x1211e58": 8017,
    "5655": 8018,
    "llow": 8019,
    "\u25810x1834": 8020,
    "\u25810xfeee00c9": 8021,
    "\u25810xfeee00cb": 8022,
    "im": 8023,
    "copy": 8024,
    "\u2581164": 8025,
    "\u25810x2f2": 8026,
    "\u25810x1864": 8027,
    "\u25810x567a88": 8028,
    "927": 8029,
    "b67": 8030,
    "dd3": 8031,
    "22f8": 8032,
    "\u25810x182c": 8033,
    "\u25810x40c6": 8034,
    "\u25810x9350": 8035,
    "\u25810xa420": 8036,
    "\u25810x1211878": 8037,
    "\u25810x2000000": 8038,
    "\u25810x54500000": 8039,
    "2d9": 8040,
    "e18": 8041,
    "e32": 8042,
    "e54": 8043,
    "e75": 8044,
    "driver": 8045,
    "\u25810x1854": 8046,
    "\u25810x186c": 8047,
    "\u25810x7ce1": 8048,
    "db7": 8049,
    "\u25810x427": 8050,
    "\u25810x53c": 8051,
    "\u25810x7e0c": 8052,
    "3ae": 8053,
    "e35": 8054,
    "2838": 8055,
    "\u25810x4ef": 8056,
    "\u25810x1874": 8057,
    "\u25810x4105": 8058,
    "\u25810x7e0d": 8059,
    "\u25810x12117c8": 8060,
    "\u25810x1211d60": 8061,
    "\u25810x6ce0000": 8062,
    "7a5": 8063,
    "quo": 8064,
    "\u25810x1868": 8065,
    "\u25810x1211a4c": 8066,
    "\u25810xfeee010b": 8067,
    "aaaaaaaaaaaaaaaa": 8068,
    "3aa": 8069,
    "emaphore": 8070,
    "3d6": 8071,
    "7b5": 8072,
    "90e": 8073,
    "\u25810x4a84": 8074,
    "\u25810x416264": 8075,
    "\u25810x1211b38": 8076,
    "514": 8077,
    "af6": 8078,
    "\u25810x3b3": 8079,
    "\u25810x5000": 8080,
    "ataddress": 8081,
    "930": 8082,
    "f05": 8083,
    "4444": 8084,
    "\u25810x1104": 8085,
    "\u25810x1211850": 8086,
    "\u2581accessviolationataddress": 8087,
    "\u2581ff": 8088,
    "3ef0": 8089,
    "\u25810x8e20": 8090,
    "\u25810x4300a8": 8091,
    "\u25810x1211df8": 8092,
    "\u25810xfeee00cc": 8093,
    "181": 8094,
    "2a9": 8095,
    "628": 8096,
    "bf5": 8097,
    "e054": 8098,
    "\u25810x452": 8099,
    "\u25810x1850": 8100,
    "\u25810x187c": 8101,
    "\u25810x4048": 8102,
    "software": 8103,
    "\u25810x41e1c0": 8104,
    "\u25810x41f310": 8105,
    "lity": 8106,
    "\u25810x57e": 8107,
    "\u25810x1870": 8108,
    "\u25810x40b0": 8109,
    "\u25810x4150": 8110,
    "\u25810x41d0": 8111,
    "\u25810xd3da80": 8112,
    "\u25810x120e100": 8113,
    "\u2581taskbarcreated": 8114,
    "361": 8115,
    "det": 8116,
    "\u25810x40015f": 8117,
    "\u25810x491994": 8118,
    "\u25810xfeee00cd": 8119,
    "774": 8120,
    "f11": 8121,
    "\u25810x7e11": 8122,
    "\u2581metaquo": 8123,
    "topwindow": 8124,
    "\u25810x42c580": 8125,
    "\u25810x4fc2c8": 8126,
    "\u25810x120faac": 8127,
    "\u25810xfeee00ce": 8128,
    "a26": 8129,
    "d51": 8130,
    "tsb": 8131,
    "latsb": 8132,
    "popup": 8133,
    "\u25810x412541": 8134,
    "\u25810x4130d4": 8135,
    "\u25810x4130d5": 8136,
    "\u25810x42c448": 8137,
    "\u25810x42c460": 8138,
    "\u25810x42c478": 8139,
    "\u25810x42c490": 8140,
    "\u25810x42c4a8": 8141,
    "\u25810x42c4c0": 8142,
    "\u25810x42c538": 8143,
    "\u25810x42c550": 8144,
    "\u25810x42c568": 8145,
    "\u25810xfeee00cf": 8146,
    "\u25810xc6": 8147,
    "\u25810x1f1": 8148,
    "\u25810x4b2": 8149,
    "\u25810x40b2": 8150,
    "\u2581classes": 8151,
    "\u25810x1211fb4": 8152,
    "localfiletime": 8153,
    "\u2581getcursorpos": 8154,
    "\u2581filetimetolocalfiletime": 8155,
    "3b7": 8156,
    "medi": 8157,
    "\u25810xef": 8158,
    "fication": 8159,
    "2f1": 8160,
    "db6": 8161,
    "releas": 8162,
    "\u25810x572": 8163,
    "\u25810x41de08": 8164,
    "xf": 8165,
    "632": 8166,
    "e30": 8167,
    "f27": 8168,
    "hell": 8169,
    "\u25810x46c4": 8170,
    "\u25810x41de00": 8171,
    "21c": 8172,
    "d15": 8173,
    "d1b": 8174,
    "\u2581cv": 8175,
    "\u25810x288": 8176,
    "\u25810x4033e6": 8177,
    "\u25810x4093a5": 8178,
    "\u25810x4093a6": 8179,
    "\u25810x4093a7": 8180,
    "\u25810x4093a8": 8181,
    "\u25810x4093a9": 8182,
    "\u25810x4093aa": 8183,
    "\u25810x4093ab": 8184,
    "\u25810x416bc9": 8185,
    "\u25810x41e190": 8186,
    "\u2581regsetvalueexa": 8187,
    "sh": 8188,
    "2fe": 8189,
    "355": 8190,
    "3f5": 8191,
    "bb5": 8192,
    "f9c": 8193,
    "\u25810x40e4": 8194,
    "\u25810x41ab": 8195,
    "\u25810xa3a7c0": 8196,
    "\u25810x1211f60": 8197,
    "6c0": 8198,
    "bda": 8199,
    "db1": 8200,
    "f37": 8201,
    "1514": 8202,
    "\u25811da": 8203,
    "\u2581sig": 8204,
    "\u25810x4a4": 8205,
    "\u25810x80000": 8206,
    "\u25810x41f300": 8207,
    "5c5": 8208,
    "66a": 8209,
    "e31": 8210,
    "f3d": 8211,
    "has": 8212,
    "nam": 8213,
    "\u2581ftp": 8214,
    "isplay": 8215,
    "\u2581stricmp": 8216,
    "\u25810x416c8c": 8217,
    "\u25810x41f301": 8218,
    "\u25810xfeee00d5": 8219,
    "\u25810xfeee00d6": 8220,
    "d91": 8221,
    "\u2581gut": 8222,
    "\u25810x45d0": 8223,
    "\u25810x40799b": 8224,
    "\u25810x40799c": 8225,
    "\u25810x412ad5": 8226,
    "\u25810x412f39": 8227,
    "\u25810x412f3a": 8228,
    "\u25810x416263": 8229,
    "\u25810x416b22": 8230,
    "\u25810x416b23": 8231,
    "\u25810x416b33": 8232,
    "\u25810x416b34": 8233,
    "\u25810x416bb1": 8234,
    "\u25810x416bb2": 8235,
    "\u25810x416bca": 8236,
    "\u25810x416c09": 8237,
    "\u25810x416c0a": 8238,
    "\u25810x416c1a": 8239,
    "\u25810x416c1b": 8240,
    "\u25810x416c8d": 8241,
    "\u25810x41f311": 8242,
    "\u25810x41f320": 8243,
    "\u25810x41f321": 8244,
    "\u25810x41f396": 8245,
[...]
