{
    "<pad>": 0,
    "<unk>": 1,
    "<mask>": 2,
    "\u25810": 3,
    "\u25810x": 4,
    "00": 5,
    "er": 6,
    "ne": 7,
    "32": 8,
    "\u2581k": 9,
    "l32": 10,
    "erne": 11,
    "ernel32": 12,
    "\u2581kernel32": 13,
    "\u25810x0": 14,
    "\u25810x1": 15,
    "et": 16,
    "get": 17,
    "al": 18,
    "ee": 19,
    "ti": 20,
    "\u25810x4": 21,
    "ad": 22,
    "000": 23,
    "in": 24,
    "\u2581get": 25,
    "\u25810x7": 26,
    "ec": 27,
    "re": 28,
    "\u25810xf": 29,
    "oc": 30,
    "0000": 31,
    "st": 32,
    "iti": 33,
    "\u25810x77": 34,
    "eee": 35,
    "\u25810xfeee": 36,
    "on": 37,
    "ss": 38,
    "pr": 39,
    "one": 40,
    "le": 41,
    "proc": 42,
    "ue": 43,
    "en": 44,
    "\u2581getproc": 45,
    "cal": 46,
    "sec": 47,
    "add": 48,
    "secti": 49,
    "ress": 50,
    "address": 51,
    "\u2581getprocaddress": 52,
    "riti": 53,
    "ritical": 54,
    "riticalsecti": 55,
    "\u25810x2": 56,
    "\u25810x12": 57,
    "us": 58,
    "\u2581n": 59,
    "ter": 60,
    "\u2581none": 61,
    "val": 62,
    "loc": 63,
    "000000": 64,
    "ls": 65,
    "\u25810x121": 66,
    "\u2581in": 67,
    "value": 68,
    "tr": 69,
    "is": 70,
    "co": 71,
    "read": 72,
    "\u25810x1000": 73,
    "getvalue": 74,
    "lsgetvalue": 75,
    "de": 76,
    "or": 77,
    "ecriticalsecti": 78,
    "\u25810xfeee000": 79,
    "\u25810x77000000": 80,
    "user": 81,
    "ap": 82,
    "48": 83,
    "\u2581user": 84,
    "\u2581is": 85,
    "43": 86,
    "\u25810x1211": 87,
    "\u2581user32": 88,
    "ar": 89,
    "ff": 90,
    "\u2581s": 91,
    "an": 92,
    "\u25810x46": 93,
    "\u25810xfeee00": 94,
    "948": 95,
    "readp": 96,
    "\u25810x243": 97,
    "\u25810x243948": 98,
    "bad": 99,
    "\u2581isbad": 100,
    "readptr": 101,
    "\u2581isbadreadptr": 102,
    "at": 103,
    "\u2581c": 104,
    "\u2581f": 105,
    "a0": 106,
    "f0": 107,
    "\u2581en": 108,
    "he": 109,
    "la": 110,
    "iz": 111,
    "aliz": 112,
    "itializ": 113,
    "\u25810x8": 114,
    "dec": 115,
    "\u2581initializ": 116,
    "\u2581t": 117,
    "err": 118,
    "\u2581initializecriticalsecti": 119,
    "error": 120,
    "po": 121,
    "heap": 122,
    "last": 123,
    "lasterror": 124,
    "\u2581l": 125,
    "poin": 126,
    "\u2581heap": 127,
    "pointer": 128,
    "str": 129,
    "inf": 130,
    "depointer": 131,
    "\u2581m": 132,
    "alloc": 133,
    "\u25810xfeee0001": 134,
    "info": 135,
    "and": 136,
    "\u25810xfa0": 137,
    "\u2581tlsgetvalue": 138,
    "\u25810x5": 139,
    "90": 140,
    "d0": 141,
    "ex": 142,
    "\u25810x40": 143,
    "\u2581set": 144,
    "ing": 145,
    "har": 146,
    "00000": 147,
    "string": 148,
    "\u25810x100": 149,
    "ac": 150,
    "em": 151,
    "\u2581flsgetvalue": 152,
    "nt": 153,
    "\u2581d": 154,
    "li": 155,
    "onex": 156,
    "lea": 157,
    "it": 158,
    "oad": 159,
    "ent": 160,
    "\u2581load": 161,
    "ab": 162,
    "\u2581heapalloc": 163,
    "\u2581w": 164,
    "\u25810x770": 165,
    "\u2581initializecriticalsectionex": 166,
    "\u2581getc": 167,
    "\u25810x10": 168,
    "ow": 169,
    "\u2581enco": 170,
    "\u2581encodepointer": 171,
    "mp": 172,
    "local": 173,
    "fi": 174,
    "10": 175,
    "\u25810x42": 176,
    "rt": 177,
    "\u25810xc": 178,
    "\u25810x46d0": 179,
    "\u25810x41": 180,
    "tion": 181,
    "let": 182,
    "om": 183,
    "\u25810x3": 184,
    "\u2581getlasterror": 185,
    "ecriticalsection": 186,
    "leav": 187,
    "\u2581leav": 188,
    "\u2581leavecriticalsection": 189,
    "by": 190,
    "\u25810x400000": 191,
    "\u2581enter": 192,
    "criticalsecti": 193,
    "criticalsection": 194,
    "\u2581entercriticalsection": 195,
    "e4": 196,
    "\u2581setlasterror": 197,
    "\u25810x771": 198,
    "xt": 199,
    "pinfo": 200,
    "40": 201,
    "next": 202,
    "\u25810x45": 203,
    "byt": 204,
    "hand": 205,
    "\u2581char": 206,
    "unt": 207,
    "locale": 208,
    "\u2581charnext": 209,
    "\u25810x43": 210,
    "ffff": 211,
    "ess": 212,
    "count": 213,
    "f8": 214,
    "exw": 215,
    "\u2581loadstring": 216,
    "ed": 217,
    "ion": 218,
    "\u2581initializecriticalsection": 219,
    "ind": 220,
    "\u2581getcpinfo": 221,
    "vi": 222,
    "ul": 223,
    "\u25810x4e4": 224,
    "a5": 225,
    "ur": 226,
    "mo": 227,
    "\u25810xc000": 228,
    "\u25810x45f0": 229,
    "c0": 230,
    "70": 231,
    "\u2581ms": 232,
    "ll": 233,
    "comp": 234,
    "able": 235,
    "\u2581dec": 236,
    "10000": 237,
    "du": 238,
    "localeinfo": 239,
    "\u2581getlocaleinfo": 240,
    "stat": 241,
    "\u25810xff": 242,
    "\u2581init": 243,
    "\u25810x6": 244,
    "\u25810xfeee001": 245,
    "\u2581deco": 246,
    "\u2581decodepointer": 247,
    "\u25810x7e": 248,
    "ans": 249,
    "stem": 250,
    "indow": 251,
    "ystem": 252,
    "trans": 253,
    "handle": 254,
    "status": 255,
    "que": 256,
    "atom": 257,
    "\u2581getcpinfoexw": 258,
    "\u25810x243948c": 259,
    "dule": 260,
    "lient": 261,
    "action": 262,
    "module": 263,
    "table": 264,
    "queue": 265,
    "letion": 266,
    "dcomp": 267,
    "queuedcomp": 268,
    "letionstatus": 269,
    "queuedcompletionstatus": 270,
    "\u2581ddec": 271,
    "\u2581getqueuedcompletionstatus": 272,
    "transaction": 273,
    "\u2581ddeclient": 274,
    "\u2581ddeclienttransaction": 275,
    "atomtable": 276,
    "\u25810x2439480": 277,
    "\u25810x2439484": 278,
    "\u25810x2439488": 279,
    "\u2581initatomtable": 280,
    "ulti": 281,
    "\u2581getmodule": 282,
    "idec": 283,
    "ultibyt": 284,
    "idechar": 285,
    "\u25810x46f0": 286,
    "\u25810x78": 287,
    "20": 288,
    "78": 289,
    "op": 290,
    "50": 291,
    "vc": 292,
    "file": 293,
    "sp": 294,
    "30": 295,
    "bc": 296,
    "\u25810x7d": 297,
    "\u2581msvc": 298,
    "18": 299,
    "\u2581msvcrt": 300,
    "me": 301,
    "spin": 302,
    "spincount": 303,
    "andspincount": 304,
    "\u2581initializecriticalsectionandspincount": 305,
    "reat": 306,
    "\u2581dll": 307,
    "\u25810x40a5": 308,
    "\u25810x1211c": 309,
    "\u25810x1211f": 310,
    "ment": 311,
    "98": 312,
    "process": 313,
    "93": 314,
    "e0": 315,
    "b0": 316,
    "indows": 317,
    "28": 318,
    "fr": 319,
    "id": 320,
    "\u2581creat": 321,
    "66": 322,
    "\u25810x4690": 323,
    "\u2581windows": 324,
    "c4": 325,
    "\u2581charnextw": 326,
    "yp": 327,
    "\u25810x10c": 328,
    "\u25810x1210": 329,
    "ce": 330,
    "ey": 331,
    "rent": 332,
    "urrent": 333,
    "ge": 334,
    "d8": 335,
    "\u2581loadstringw": 336,
    "60": 337,
    "cmp": 338,
    "\u25810xf00": 339,
    "lock": 340,
    "\u25810xfffff": 341,
    "\u25810xfffffff": 342,
    "ual": 343,
    "br": 344,
    "d10000": 345,
    "\u25810x77d10000": 346,
    "virt": 347,
    "ary": 348,
    "virtual": 349,
    "th": 350,
    "age": 351,
    "a8": 352,
    "\u2581multibyt": 353,
    "etow": 354,
    "etowidechar": 355,
    "\u2581multibytetowidechar": 356,
    "free": 357,
    "\u2581system": 358,
    "key": 359,
    "\u2581getst": 360,
    "58": 361,
    "38": 362,
    "\u2581charnexta": 363,
    "\u2581mem": 364,
    "lo": 365,
    "\u2581system32": 366,
    "brary": 367,
    "ect": 368,
    "\u2581loadstringa": 369,
    "\u2581inter": 370,
    "var": 371,
    "cc": 372,
    "\u2581memcmp": 373,
    "b8": 374,
    "64": 375,
    "un": 376,
    "\u2581interlock": 377,
    "\u25810x41f0": 378,
    "\u25810x41f040": 379,
    "map": 380,
    "68": 381,
    "\u2581interlocked": 382,
    "hi": 383,
    "\u2581getlocaleinfow": 384,
    "rement": 385,
    "7c": 386,
    "\u2581virtual": 387,
    "di": 388,
    "\u25810x90": 389,
    "\u2581p": 390,
    "\u2581getcurrent": 391,
    "ype": 392,
    "14": 393,
    "\u25810x4093": 394,
    "def": 395,
    "\u2581create": 396,
    "ol": 397,
    "34": 398,
    "\u25810x9": 399,
    "\u25810x52": 400,
    "ut": 401,
    "\u25810x44": 402,
    "open": 403,
    "\u2581g": 404,
    "library": 405,
    "\u2581re": 406,
    "filet": 407,
    "\u2581lc": 408,
    "qu": 409,
    "\u2581getlocaleinfoa": 410,
    "\u2581lcmap": 411,
    "\u2581lcmapstring": 412,
    "\u2581getti": 413,
    "\u25810x88": 414,
    "sle": 415,
    "d4": 416,
    "na": 417,
    "dbc": 418,
    "12": 419,
    "rst": 420,
    "thread": 421,
    "of": 422,
    "adbyt": 423,
    "dbcsle": 424,
    "\u2581isdbcsle": 425,
    "\u2581isdbcsleadbyt": 426,
    "handlew": 427,
    "94": 428,
    "\u2581isdbcsleadbyte": 429,
    "ers": 430,
    "ck": 431,
    "ckcount": 432,
    "\u2581gettickcount": 433,
    "c8": 434,
    "\u25810x47": 435,
    "e8": 436,
    "\u2581getmodulehandlew": 437,
    "69": 438,
    "wa": 439,
    "\u2581heapfree": 440,
    "71": 441,
    "\u25810x5f8": 442,
    "api": 443,
    "\u25810x5f800000": 444,
    "56": 445,
    "system": 446,
    "\u25810x70": 447,
    "\u2581loadlibrary": 448,
    "\u2581var": 449,
    "quer": 450,
    "orm": 451,
    "a4": 452,
    "\u25810xfeee002": 453,
    "es": 454,
    "e5": 455,
    "rit": 456,
    "rite": 457,
    "vw": 458,
    "abc": 459,
    "\u25810x12117": 460,
    "tom": 461,
    "ultibyte": 462,
    "\u2581widechar": 463,
    "tomultibyte": 464,
    "\u2581widechartomultibyte": 465,
    "\u2581ex": 466,
    "mm": 467,
    "lm": 468,
    "f4": 469,
    "name": 470,
    "\u25810x18": 471,
    "7b": 472,
    "xy": 473,
    "xyz": 474,
    "klm": 475,
    "nop": 476,
    "ghi": 477,
    "\u2581abc": 478,
    "uvw": 479,
    "qrst": 480,
    "uvwxyz": 481,
    "nopqrst": 482,
    "defghi": 483,
    "nopqrstuvwxyz": 484,
    "\u2581abcdefghi": 485,
    "klmnopqrstuvwxyz": 486,
    "\u2581reg": 487,
    "ic": 488,
    "75": 489,
    "74": 490,
    "c42": 491,
    "65": 492,
    "\u25810xffffffff": 493,
    "inc": 494,
    "dc": 495,
    "\u25810x78000000": 496,
    "\u2581getsystem": 497,
    "increment": 498,
    "\u2581interlockedincrement": 499,
    "\u25810x1211d": 500,
    "\u25810x20": 501,
    "1000": 502,
    "\u25810x7de": 503,
    "\u25810x4c": 504,
    "ch": 505,
    "2c": 506,
    "\u25810x1211e": 507,
    "\u25810x4c42": 508,
    "ool": 509,
    "da": 510,
    "\u25810x400": 511,
    "\u2581read": 512,
    "oft": 513,
    "\u2581local": 514,
    "\u25810xfeee008": 515,
    "\u2581getfilet": 516,
    "\u2581getfiletype": 517,
    "art": 518,
    "rect": 519,
    "\u25810x7ec": 520,
    "\u2581h": 521,
    "91": 522,
    "vers": 523,
    "9c": 524,
    "dhandle": 525,
    "\u25810xfeee005": 526,
    "\u2581getstdhandle": 527,
    "\u25810xfeee0004": 528,
    "\u2581getmodulehand": 529,
    "1c": 530,
    "\u25810xfeee004": 531,
    "fc": 532,
    "\u25810x79": 533,
    "emp": 534,
    "\u25810x12119": 535,
    "res": 536,
    "\u2581getmodulehandlea": 537,
    "b4": 538,
    "f3": 539,
    "\u25810x200": 540,
    "fe": 541,
    "valid": 542,
    "sset": 543,
    "ron": 544,
    "los": 545,
    "\u25810x1c": 546,
    "viron": 547,
    "\u2581a": 548,
    "19": 549,
    "\u2581fls": 550,
    "\u2581co": 551,
    "vironment": 552,
    "lsset": 553,
    "lssetvalue": 554,
    "\u25810xfeee003": 555,
    "rector": 556,
    "e6": 557,
    "filename": 558,
    "\u2581b": 559,
    "24": 560,
    "\u25810x7e70": 561,
    "\u25810xcd": 562,
    "\u2581open": 563,
    "\u25810x54": 564,
    "15": 565,
    "a9": 566,
    "a000": 567,
    "\u2581ap": 568,
    "ware": 569,
    "readpool": 570,
    "f5": 571,
    "\u2581fr": 572,
    "oftware": 573,
    "\u25811": 574,
    "\u25810x77e": 575,
    "\u25810x77e10000": 576,
    "\u2581hkey": 577,
    "\u25810x7d90": 578,
    "artu": 579,
    "\u25810xfeee0002": 580,
    "\u2581software": 581,
    "\u25810x8c": 582,
    "\u2581getmodulefilename": 583,
    "2000": 584,
    "6c": 585,
    "\u25810x104": 586,
    "\u25810x48": 587,
    "ole": 588,
    "eco": 589,
    "strings": 590,
    "form": 591,
    "\u2581ad": 592,
    "\u25810xfeee0000": 593,
    "\u2581getcurrentthread": 594,
    "\u25810x4610": 595,
    "\u2581se": 596,
    "api32": 597,
    "\u25810x78c": 598,
    "\u25810x78c00000": 599,
    "f000": 600,
    "aa": 601,
    "\u2581lcmapstringex": 602,
    "artupinfo": 603,
    "\u2581getstartupinfo": 604,
    "\u2581adv": 605,
    "7000": 606,
    "comm": 607,
    "\u2581advapi32": 608,
    "3c": 609,
    "ation": 610,
    "line": 611,
    "\u2581getcurrentthreadid": 612,
    "query": 613,
    "b000": 614,
    "d000": 615,
    "3000": 616,
    "andline": 617,
    "eex": 618,
    "write": 619,
    "\u2581getcomm": 620,
    "\u25810x3f": 621,
    "\u2581getcommandline": 622,
    "\u25810xfeee0003": 623,
    "iv": 624,
    "\u25810xfff": 625,
    "\u25810x800": 626,
    "54": 627,
    "\u2581apis": 628,
    "ab0": 629,
    "\u2581lcmapstringw": 630,
    "\u2581temp": 631,
    "db": 632,
    "\u25810x7c": 633,
    "\u2581virtualalloc": 634,
    "08": 635,
    "ons": 636,
    "a2": 637,
    "\u25810x1211c98": 638,
    "stringsw": 639,
    "\u2581flssetvalue": 640,
    "\u25810x4378": 641,
    "rectory": 642,
    "window": 643,
    "\u25810x5266": 644,
    "eth": 645,
    "9000": 646,
    "\u2581current": 647,
    "a6": 648,
    "\u2581clos": 649,
    "\u2581flsalloc": 650,
    "\u2581virtualquery": 651,
    "processor": 652,
    "e000": 653,
    "vironmentstringsw": 654,
    "96": 655,
    "\u25810x1210e": 656,
    "\u2581getvers": 657,
    "locales": 658,
    "\u25810x80": 659,
    "\u2581de": 660,
    "a1": 661,
    "\u25810xffb": 662,
    "dr": 663,
    "\u25810xfeee0005": 664,
    "list": 665,
    "\u25810x42c": 666,
    "\u2581lstr": 667,
    "\u25810xf003": 668,
    "time": 669,
    "\u2581page": 670,
    "\u25810xf001": 671,
    "\u25810xf002": 672,
    "11": 673,
    "ad0": 674,
    "76": 675,
    "72": 676,
    "\u2581loadlibrarya": 677,
    "a3": 678,
    "d2": 679,
    "arch": 680,
    "\u2581localalloc": 681,
    "\u2581gdi": 682,
    "tin": 683,
    "onsole": 684,
    "as": 685,
    "\u25810xfeee006": 686,
    "5000": 687,
    "\u25810x1211c18": 688,
    "f9": 689,
    "789": 690,
    "ob": 691,
    "80": 692,
    "\u2581readwrite": 693,
    "cep": 694,
    "\u25810x14": 695,
    "um": 696,
    "79": 697,
    "essage": 698,
    "decrement": 699,
    "\u2581interlockeddecrement": 700,
    "\u2581gdi32": 701,
    "ot": 702,
    "d6": 703,
    "\u2581x": 704,
    "1234": 705,
    "from": 706,
    "56789": 707,
    "\u258101234": 708,
    "\u25810123456789": 709,
    "f1": 710,
    "\u2581find": 711,
    "ate": 712,
    "up": 713,
    "73": 714,
    "eb": 715,
    "filew": 716,
    "88": 717,
    "\u25812": 718,
    "f6": 719,
    "\u25810x4c42c0": 720,
    "\u25810x5265": 721,
    "\u2581locales": 722,
    "exa": 723,
    "vari": 724,
    "\u25810x43b": 725,
    "our": 726,
    "dll": 727,
    "5c": 728,
    "ception": 729,
    "ack": 730,
    "\u25810x8810": 731,
    "int": 732,
    "44": 733,
    "\u2581getcurrentprocess": 734,
    "\u25810x120": 735,
    "ction": 736,
    "tim": 737,
    "pres": 738,
    "present": 739,
    "\u25810x4670": 740,
    "\u25810xfeee0006": 741,
    "\u2581search": 742,
    "yper": 743,
    "type": 744,
    "forman": 745,
    "\u2581quer": 746,
    "\u2581queryper": 747,
    "\u2581queryperforman": 748,
    "b2": 749,
    "\u2581regopen": 750,
    "\u2581regopenkey": 751,
    "ai": 752,
    "\u25810x8000": 753,
    "7a": 754,
    "\u2581loadlibraryexw": 755,
    "\u25810x70cc": 756,
    "ive": 757,
    "\u2581geten": 758,
    "directory": 759,
    "16": 760,
    "unter": 761,
    "bo": 762,
    "ceco": 763,
    "cecounter": 764,
    "\u2581queryperformancecounter": 765,
    "ting": 766,
    "\u2581getconsole": 767,
    "ure": 768,
    "timer": 769,
    "message": 770,
    "\u25810x7b": 771,
    "ime": 772,
    "7d": 773,
    "dex": 774,
    "\u25810x42e5": 775,
    "\u2581win": 776,
    "\u25810x7ec0": 777,
    "ethreadpool": 778,
    "\u25810x56": 779,
    "7e": 780,
    "\u25810x7de0": 781,
    "f2": 782,
    "ant": 783,
    "ble": 784,
    "fb": 785,
    "\u25810x7000": 786,
    "filetime": 787,
    "4c": 788,
    "\u25810xfeee0": 789,
    "\u2581invalid": 790,
    "69b": 791,
    "\u2581getprocess": 792,
    "processlist": 793,
    "\u2581getconsoleprocesslist": 794,
    "d1": 795,
    "\u25810x7e71": 796,
    "\u2581ws": 797,
    "\u2581write": 798,
    "d5": 799,
    "ature": 800,
    "\u2581getsystemtime": 801,
    "feature": 802,
    "\u2581isprocessor": 803,
    "featurepresent": 804,
    "\u2581isprocessorfeaturepresent": 805,
    "e2": 806,
    "95": 807,
    "9a": 808,
    "\u2581l1": 809,
    "92": 810,
    "\u2581getstring": 811,
    "\u25810x7700": 812,
    "\u25810x4ab0": 813,
    "inform": 814,
    "\u25810xfeee0007": 815,
    "\u2581sl": 816,
    "\u2581getstringtype": 817,
    "f10000": 818,
    "\u25810xb": 819,
    "\u2581fi": 820,
    "eep": 821,
    "\u25810x7f": 822,
    "508": 823,
    "gu": 824,
    "\u25810x77f10000": 825,
    "\u25810x73": 826,
    "lob": 827,
    "\u2581glob": 828,
    "\u2581getmodulefilenamew": 829,
    "information": 830,
    "\u2581sleep": 831,
    "\u25810x7ee": 832,
    "icon": 833,
    "af": 834,
    "ock": 835,
    "\u2581getstringtypew": 836,
    "\u25810x4c43": 837,
    "fil": 838,
    "asfiletime": 839,
    "\u2581api": 840,
    "\u2581getstartupinfow": 841,
    "acc": 842,
    "\u25810x12115": 843,
    "dd": 844,
    "\u25810xe": 845,
    "py": 846,
    "a40": 847,
    "\u2581getac": 848,
    "\u2581getprocessheap": 849,
    "hel": 850,
    "\u2581nt": 851,
    "\u2581getacp": 852,
    "\u2581li": 853,
    "35": 854,
    "ecut": 855,
    "6000": 856,
    "\u2581sh": 857,
    "b5": 858,
    "\u2581getsystemtimeasfiletime": 859,
    "ource": 860,
    "\u25810x7e8": 861,
    "eexw": 862,
    "\u25810x7d91": 863,
    "\u25810x71": 864,
    "\u25810x8ad0": 865,
    "stru": 866,
    "\u2581r": 867,
    "\u25810xffc": 868,
    "\u2581dr": 869,
    "\u25810xd": 870,
    "ber": 871,
    "struction": 872,
    "\u2581pf": 873,
    "8c": 874,
    "3d": 875,
    "a7": 876,
    "\u25810x9000": 877,
    "\u25810x7710": 878,
    "\u2581isvalid": 879,
    "dexception": 880,
    "e1": 881,
    "\u2581regi": 882,
    "filter": 883,
    "\u2581map": 884,
    "\u2581getcommandlinea": 885,
    "unhandle": 886,
    "dexceptionfilter": 887,
    "unhandledexceptionfilter": 888,
    "\u2581delet": 889,
    "\u2581core": 890,
    "9b": 891,
    "\u2581getthread": 892,
    "\u2581setfile": 893,
    "code": 894,
    "\u2581lstrle": 895,
    "print": 896,
    "\u25810x420": 897,
    "\u2581getmodulefilenamea": 898,
    "\u2581key": 899,
    "\u2581getcurrentprocessid": 900,
    "ionex": 901,
    "ecute": 902,
    "\u2581getversionex": 903,
    "\u25810x69": 904,
    "access": 905,
    "e7": 906,
    "tri": 907,
    "utes": 908,
    "ult": 909,
    "e3": 910,
    "messagea": 911,
    "\u2581free": 912,
    "\u25810x7708": 913,
    "\u25810x7718": 914,
    "defa": 915,
    "default": 916,
    "threadpool": 917,
    "vai": 918,
    "vaila": 919,
    "vailable": 920,
    "hine": 921,
    "\u2581mac": 922,
    "\u25810x33": 923,
    "\u25810x50": 924,
    "ervi": 925,
    "\u2581machine": 926,
    "wait": 927,
    "\u25810x13": 928,
    "printf": 929,
    "1b": 930,
    "\u25810x1211e0": 931,
    "\u25810x75": 932,
    "\u25810x102": 933,
    "\u2581creates": 934,
    "to": 935,
    "\u2581available": 936,
    "\u2581bor": 937,
    "day": 938,
    "\u2581getcommandlinew": 939,
    "\u2581setunhandledexceptionfilter": 940,
    "\u25810x1210f": 941,
    "\u2581library": 942,
    "keyw": 943,
    "ehandle": 944,
    "eeen": 945,
    "\u2581freeen": 946,
    "\u2581getstartupinfoa": 947,
    "sc": 948,
    "bb": 949,
    "\u2581closehandle": 950,
    "\u2581instruction": 951,
    "1a": 952,
    "lus": 953,
    "i64": 954,
    "\u2581instructions": 955,
    "\u2581xmm": 956,
    "\u2581xmmi64": 957,
    "\u25810x4d": 958,
    "l66": 959,
    "\u25810x7702": 960,
    "\u25810x770b": 961,
    "\u25810x7712": 962,
    "filea": 963,
    "\u2581regopenkeyexw": 964,
    "\u25810x771b": 965,
    "\u25810x220": 966,
    "\u25810x72": 967,
    "\u2581borl": 968,
    "\u25810x49": 969,
    "\u2581str": 970,
    "\u25810x12116": 971,
    "\u25810x437": 972,
    "\u2581getenvironmentstringsw": 973,
    "version": 974,
    "\u2581mapvirtual": 975,
    "\u2581freeenvironmentstringsw": 976,
    "\u2581borland": 977,
    "\u2581mapvirtualkeyw": 978,
    "ating": 979,
    "36": 980,
    "date": 981,
    "\u2581global": 982,
    "\u25810x30": 983,
    "\u25810x2a": 984,
    "fd": 985,
    "con": 986,
    "97": 987,
    "00c": 988,
    "l6660": 989,
    "\u25810x8d": 990,
    "\u25810x42c4": 991,
    "\u25810x7f8": 992,
    "\u25810x7a": 993,
    "handl": 994,
    "\u25810x429": 995,
    "\u25810xfffffff6": 996,
    "fromstr": 997,
    "num": 998,
    "directoryw": 999,
    "42": 1000,
    "\u25810x4b": 1001,
    "\u25810xfffffff5": 1002,
    "\u25810xfffffff4": 1003,
    "bu": 1004,
    "ae": 1005,
    "\u25810x1211c7c": 1006,
    "\u25810x74": 1007,
    "os": 1008,
    "ity": 1009,
    "55": 1010,
    "\u25810x770c": 1011,
    "\u25810x7704": 1012,
    "\u25810x7714": 1013,
    "\u25810x7703": 1014,
    "\u25810x7705": 1015,
    "\u25810x7713": 1016,
    "\u25810x7715": 1017,
    "\u25810x5265c": 1018,
    "ys": 1019,
    "106": 1020,
    "drl6660": 1021,
    "\u25810x76": 1022,
    "\u25810x7ed": 1023,
    "\u2581wa": 1024,
    "\u25810x1211b": 1025,
    "\u25810x4c4308": 1026,
    "3f": 1027,
    "men": 1028,
    "\u2581getthreadlocale": 1029,
    "\u2581getfile": 1030,
    "il": 1031,
    "62": 1032,
    "\u25810x8b": 1033,
    "urs": 1034,
    "eric": 1035,
    "3e": 1036,
    "ay": 1037,
    "\u2581getversion": 1038,
    "1e": 1039,
    "9d": 1040,
    "\u2581execute": 1041,
    "\u25810x422": 1042,
    "\u2581getuser": 1043,
    "\u2581regist": 1044,
    "\u25810x32": 1045,
    "menu": 1046,
    "\u2581process": 1047,
    "\u25810x1211dc0": 1048,
    "fa": 1049,
    "a80": 1050,
    "17": 1051,
    "\u25810x69000000": 1052,
    "bd": 1053,
    "db10": 1054,
    "\u25810x7709": 1055,
    "\u25810x7719": 1056,
    "drl6660drl6660": 1057,
    "lic": 1058,
    "\u25817": 1059,
    "\u25810x4750": 1060,
    "\u25810x4350": 1061,
    "\u2581al": 1062,
    "\u25810x7890": 1063,
    "first": 1064,
    "\u2581process32": 1065,
    "\u2581i": 1066,
    "b3": 1067,
    "db10106": 1068,
    "\u25810x1db10106": 1069,
    "22": 1070,
    "boar": 1071,
    "\u2581access": 1072,
    "for": 1073,
    "page": 1074,
    "\u25810xfeee0008": 1075,
    "ame": 1076,
    "\u2581crt": 1077,
    "\u2581shel": 1078,
    "loating": 1079,
    "\u25810xf0019": 1080,
    "\u25810x437b": 1081,
    "\u25810xfeee0009": 1082,
    "b1": 1083,
    "\u25810xfeee000a": 1084,
    "\u25810xfeee000b": 1085,
    "lass": 1086,
    "\u25810x1211c90": 1087,
    "codepage": 1088,
    "\u25810xfeee000c": 1089,
    "77": 1090,
    "\u2581isvalidcodepage": 1091,
    "\u25810xfeee000d": 1092,
    "\u25810xfeee000e": 1093,
    "ag": 1094,
    "\u25810xfeee000f": 1095,
    "\u25810xa": 1096,
    "\u25810x1211e04": 1097,
    "\u25810x7910": 1098,
    "99": 1099,
    "gi": 1100,
    "ov": 1101,
    "\u25810xfeee0010": 1102,
    "ervice": 1103,
    "\u25810xfeee0014": 1104,
    "\u25810x7706": 1105,
    "\u25810x770d": 1106,
    "\u25810x7716": 1107,
    "\u25810xfeee0015": 1108,
    "all": 1109,
    "\u2581writefile": 1110,
    "\u25810xfeee0013": 1111,
    "\u25810xfeee0012": 1112,
    "\u25810xfeee0016": 1113,
    "\u25810x12116d8": 1114,
    "be": 1115,
    "\u25810xfeee0011": 1116,
    "leas": 1117,
    "41": 1118,
    "end": 1119,
    "mode": 1120,
    "\u25810x7f800": 1121,
    "\u25810x7ec1": 1122,
    "\u25810x7de1": 1123,
    "ork": 1124,
    "f7": 1125,
    "2e": 1126,
    "variable": 1127,
    "\u25810x435": 1128,
    "d3": 1129,
    "\u2581freelibrary": 1130,
    "\u25810x3394": 1131,
    "\u25810x105": 1132,
    "aps": 1133,
    "908": 1134,
    "\u25810x1211918": 1135,
    "format": 1136,
    "\u25810x42e5b0": 1137,
    "cec": 1138,
    "lor": 1139,
    "reate": 1140,
    "urity": 1141,
    "\u25810x416": 1142,
    "ith": 1143,
    "\u2581gen": 1144,
    "call": 1145,
    "e9": 1146,
    "\u2581closethreadpool": 1147,
    "\u2581createthreadpool": 1148,
    "low": 1149,
    "security": 1150,
    "\u25810x50000": 1151,
    "63": 1152,
    "\u25810x44f8": 1153,
    "edi": 1154,
    "\u25810x47b0": 1155,
    "lose": 1156,
    "\u2581generic": 1157,
    "\u2581register": 1158,
    "\u2581createfilew": 1159,
    "ursor": 1160,
    "\u2581o": 1161,
    "back": 1162,
    "\u25810x4000": 1163,
    "\u25810x1211758": 1164,
    "met": 1165,
    "\u2581setmenu": 1166,
    "ename": 1167,
    "close": 1168,
    "point": 1169,
    "\u25810xfeee0017": 1170,
    "\u25810xfeee0018": 1171,
    "ip": 1172,
    "\u25810xfeee0019": 1173,
    "\u2581exit": 1174,
    "9e": 1175,
    "create": 1176,
    "33": 1177,
    "\u25810x7c000000": 1178,
    "board": 1179,
    "\u25810x7707": 1180,
    "\u25810x770e": 1181,
    "\u25810x7717": 1182,
    "\u25810x82": 1183,
    "resource": 1184,
    "\u25810x2c": 1185,
    "\u2581setmenuinfo": 1186,
    "nw": 1187,
    "\u25810x42c508": 1188,
    "not": 1189,
    "b6": 1190,
    "callback": 1191,
    "net": 1192,
    "\u25810x169b": 1193,
    "\u2581setthreadpool": 1194,
    "\u2581vari": 1195,
    "04": 1196,
    "\u25810x4e": 1197,
    "trib": 1198,
    "attrib": 1199,
    "9f": 1200,
    "und": 1201,
    "\u2581drive": 1202,
    "\u25810x3000": 1203,
    "\u25810x4a": 1204,
    "angu": 1205,
    "25": 1206,
    "\u25810x8a": 1207,
    "\u2581flsfree": 1208,
    "edc": 1209,
    "cursor": 1210,
    "anguage": 1211,
    "color": 1212,
    "work": 1213,
    "ub": 1214,
    "osoft": 1215,
    "set": 1216,
    "\u2581wsprintf": 1217,
    "7f": 1218,
    "\u25810x569b": 1219,
    "\u25810x42c4d8": 1220,
    "attributes": 1221,
    "put": 1222,
    "icr": 1223,
    "icrosoft": 1224,
    "ition": 1225,
    "dition": 1226,
    "ilanguage": 1227,
    "26": 1228,
    "\u25810x1075": 1229,
    "\u25810x11": 1230,
    "\u25817z": 1231,
    "number": 1232,
    "\u25810x1211f38": 1233,
    "\u2581loadicon": 1234,
    "\u2581microsoft": 1235,
    "\u2581tls": 1236,
    "ies": 1237,
    "erf": 1238,
    "cpy": 1239,
    "\u2581floating": 1240,
    "erflow": 1241,
    "\u25810x1211cf8": 1242,
    "\u25810x5265c14": 1243,
    "localename": 1244,
    "\u25810x43b7b": 1245,
    "\u2581varb": 1246,
    "\u2581loadcursor": 1247,
    "\u25810x12114": 1248,
    "rw": 1249,
    "\u2581gett": 1250,
    "\u2581releas": 1251,
    "\u2581delete": 1252,
    "\u25810x1e": 1253,
    "\u25810x40a5ce": 1254,
    "\u25810x40a5d0": 1255,
    "\u25810x40a5d2": 1256,
    "\u25810x40a5d4": 1257,
    "\u25810x40a5d6": 1258,
    "\u25810x40a5d8": 1259,
    "\u25810x40a5da": 1260,
    "\u25810xfeee001a": 1261,
    "ef": 1262,
    "\u25810x1f4": 1263,
    "\u2581lstrlena": 1264,
    "\u2581wait": 1265,
    "84": 1266,
    "\u2581getsystemdirectoryw": 1267,
    "term": 1268,
    "\u25810x4371": 1269,
    "51": 1270,
    "\u25810x7701": 1271,
    "\u25810x770a": 1272,
    "\u25810x770f": 1273,
    "\u25810x7711": 1274,
    "\u25810x8811": 1275,
    "class": 1276,
    "\u25810x771a": 1277,
    "formatex": 1278,
    "vie": 1279,
    "\u2581file": 1280,
    "df": 1281,
    "\u2581strn": 1282,
    "\u2581lread": 1283,
    "\u25810x21000": 1284,
    "\u2581heapcreate": 1285,
    "\u25810x1f400": 1286,
    "eg": 1287,
    "\u25810xfeee001b": 1288,
    "\u25810x19": 1289,
    "\u2581gettemp": 1290,
    "\u2581currentversion": 1291,
    "are": 1292,
    "\u25810xfeee001c": 1293,
    "\u2581setfilepointer": 1294,
    "d9": 1295,
    "sub": 1296,
    "\u25810x7f00": 1297,
    "eek": 1298,
    "b9": 1299,
    "13": 1300,
    "realloc": 1301,
    "\u2581strncmp": 1302,
    "\u2581waitfor": 1303,
    "\u25810x42c5": 1304,
    "52": 1305,
    "erw": 1306,
    "\u25810x43780": 1307,
    "\u25810x430": 1308,
    "ockob": 1309,
    "\u2581getstockob": 1310,
    "\u25810x1211948": 1311,
    "\u2581getversionexw": 1312,
    "lip": 1313,
    "scr": 1314,
    "rectories": 1315,
    "gical": 1316,
    "logical": 1317,
    "\u2581getlogical": 1318,
    "\u2581createdi": 1319,
    "\u2581tlssetvalue": 1320,
    "\u25810x700c": 1321,
    "\u2581st": 1322,
    "\u25810x3f75": 1323,
    "rwlock": 1324,
    "off": 1325,
    "directories": 1326,
    "\u25810x1211728": 1327,
    "ord": 1328,
    "\u2581tlsalloc": 1329,
    "1d": 1330,
    "ethread": 1331,
    "\u2581comp": 1332,
    "c6": 1333,
    "\u2581setdefault": 1334,
    "\u25810x704c": 1335,
    "dlldirectories": 1336,
    "\u2581setdefaultdlldirectories": 1337,
    "\u25810x708c": 1338,
    "ecount": 1339,
    "ile": 1340,
    "\u2581th": 1341,
    "1f": 1342,
    "\u25810x2e": 1343,
    "45": 1344,
    "section": 1345,
    "offile": 1346,
    "handlecount": 1347,
    "\u25810x1211e2c": 1348,
    "\u2581sethandlecount": 1349,
    "ea": 1350,
    "een": 1351,
    "\u25810x28": 1352,
    "\u2581with": 1353,
    "\u2581compare": 1354,
    "\u2581wsprintfw": 1355,
    "lin": 1356,
    "\u25810x7830": 1357,
    "967": 1358,
    "view": 1359,
    "\u2581code": 1360,
    "aw": 1361,
    "\u25810x38": 1362,
    "\u2581wc": 1363,
    "\u25810x7930": 1364,
    "tered": 1365,
    "\u2581altered": 1366,
    "\u2581process32next": 1367,
    "\u2581ole": 1368,
    "\u25810x44f9": 1369,
    "c2": 1370,
    "\u2581peek": 1371,
    "\u2581comparestring": 1372,
    "\u2581shell32": 1373,
    "b80": 1374,
    "\u2581regopenkeyexa": 1375,
    "\u2581heaprealloc": 1376,
    "gear": 1377,
    "\u2581codegear": 1378,
    "\u25810x410": 1379,
    "\u25810x4967": 1380,
    "\u2581readfile": 1381,
    "\u2581con": 1382,
    "\u25810x1211dcc": 1383,
    "b7": 1384,
    "308": 1385,
    "\u2581virtualfree": 1386,
    "\u25810x1211908": 1387,
    "\u25810x569b00": 1388,
    "ett": 1389,
    "div": 1390,
    "ero": 1391,
    "pal": 1392,
    "palett": 1393,
    "esource": 1394,
    "\u2581peekmessagea": 1395,
    "\u25810x12114b8": 1396,
    "\u2581exitprocess": 1397,
    "\u25810x43b7": 1398,
    "oper": 1399,
    "\u2581getenvironment": 1400,
    "\u2581pr": 1401,
    "\u2581variant": 1402,
    "scrip": 1403,
    "\u2581getdc": 1404,
    "clus": 1405,
    "\u25810x46b0": 1406,
    "script": 1407,
    "clusive": 1408,
    "rwlockex": 1409,
    "rwlockexclusive": 1410,
    "\u2581lstrlenw": 1411,
    "\u2581rt": 1412,
    "ont": 1413,
    "\u25810x12118": 1414,
    "\u2581findfirst": 1415,
    "ember": 1416,
    "\u25810x7810": 1417,
    "\u2581crtdll": 1418,
    "\u25810x2000": 1419,
    "\u25810x1211718": 1420,
    "\u25810x1211958": 1421,
    "\u25810x5f5": 1422,
    "variant": 1423,
    "descript": 1424,
    "securitydescript": 1425,
    "39": 1426,
    "\u2581wnet": 1427,
    "\u2581ch": 1428,
    "\u25810x8a40": 1429,
    "dater": 1430,
    "operation": 1431,
    "ision": 1432,
    "\u25810xfeee001d": 1433,
    "yn": 1434,
    "\u25810x1a": 1435,
    "aph": 1436,
    "\u2581ntdll": 1437,
    "ors": 1438,
    "ext": 1439,
    "6d": 1440,
    "\u25813": 1441,
    "\u25810x120e6": 1442,
    "bers": 1443,
    "\u2581tr": 1444,
    "\u25810x22": 1445,
    "condition": 1446,
    "\u25810x40a3": 1447,
    "directorya": 1448,
    "\u2581findclose": 1449,
    "strfrom": 1450,
    "\u2581varbstrfrom": 1451,
    "\u25810xa0": 1452,
    "\u25810x41f3": 1453,
    "\u2581lstrcpy": 1454,
    "002": 1455,
    "mem": 1456,
    "dateresource": 1457,
    "31": 1458,
    "lush": 1459,
    "ynch": 1460,
    "\u25810x771c": 1461,
    "280": 1462,
    "emaph": 1463,
    "\u25810x420c": 1464,
    "\u25810x60": 1465,
    "\u25810xfeee01": 1466,
    "\u25810x198": 1467,
    "\u25810x53": 1468,
    "\u2581registerclass": 1469,
    "ace": 1470,
    "informationby": 1471,
    "bit": 1472,
    "\u2581synch": 1473,
    "isting": 1474,
    "\u25810xfeee001e": 1475,
    "\u25810x460": 1476,
    "\u25810x51": 1477,
    "ee0": 1478,
    "qui": 1479,
    "a9a0": 1480,
    "\u25810x418": 1481,
    "\u25810xfeee008b": 1482,
    "\u25810x19a": 1483,
    "buff": 1484,
    "588": 1485,
    "\u25810xfeee001f": 1486,
    "\u25810x89": 1487,
    "\u25810x17": 1488,
    "\u25810xfeee0020": 1489,
    "oct": 1490,
    "lect": 1491,
    "lp": 1492,
    "service": 1493,
    "ata": 1494,
    "acqui": 1495,
    "ba": 1496,
    "ory": 1497,
    "\u25810x1f": 1498,
    "bf": 1499,
    "\u25810x4600": 1500,
    "olf": 1501,
    "\u25810x1211f64": 1502,
    "\u2581existing": 1503,
    "180": 1504,
    "ed8": 1505,
    "fo": 1506,
    "sti": 1507,
    "\u2581getm": 1508,
    "\u25810x16": 1509,
    "devi": 1510,
    "\u25810x3c": 1511,
    "4000": 1512,
    "\u2581createdirectory": 1513,
    "\u2581up": 1514,
    "\u2581createsemaph": 1515,
    "\u25810x42a9a0": 1516,
    "\u25810x1211dd4": 1517,
    "\u25810x1211528": 1518,
    "\u2581createfilea": 1519,
    "\u25810x44f8e0": 1520,
    "53": 1521,
    "\u2581flush": 1522,
    "acquires": 1523,
    "\u25810x48f8": 1524,
    "acquiresrwlockexclusive": 1525,
    "\u2581beg": 1526,
    "lipboard": 1527,
    "\u25810x12117f8": 1528,
    "\u25810x409": 1529,
    "pa": 1530,
    "oy": 1531,
    "bug": 1532,
    "5f": 1533,
    "780": 1534,
    "\u25810x101": 1535,
    "\u2581mon": 1536,
    "5b": 1537,
    "3a": 1538,
    "\u25810x4c32": 1539,
    "\u25810x1211fcc": 1540,
    "\u2581font": 1541,
    "\u2581select": 1542,
    "\u2581getdevi": 1543,
    "cecaps": 1544,
    "\u2581getdevicecaps": 1545,
    "stit": 1546,
    "attributesw": 1547,
    "\u2581begin": 1548,
    "substit": 1549,
    "substitutes": 1550,
    "\u2581fontsubstitutes": 1551,
    "led": 1552,
    "61": 1553,
    "lphi": 1554,
    "\u2581delphi": 1555,
    "debug": 1556,
    "\u2581globalalloc": 1557,
    "\u25810x42a40": 1558,
    "input": 1559,
    "help": 1560,
    "buffers": 1561,
    "\u25810x68": 1562,
    "sys": 1563,
    "tries": 1564,
    "prot": 1565,
    "adwork": 1566,
    "\u25810x7ad0": 1567,
    "\u25810x408": 1568,
    "\u2581getuserdefault": 1569,
    "\u25810x15": 1570,
    "\u25810x412": 1571,
    "\u25810x1211f8": 1572,
    "fer": 1573,
    "\u25810x437a": 1574,
    "\u2581loadcursora": 1575,
    "\u2581setthread": 1576,
    "\u25810x1211a": 1577,
    "\u25810x7850": 1578,
    "\u2581getversionexa": 1579,
    "3b": 1580,
    "ics": 1581,
    "metr": 1582,
    "\u25810x5f500000": 1583,
    "metrics": 1584,
    "\u25810x4630": 1585,
    "refer": 1586,
    "\u25810x7ab0": 1587,
    "004": 1588,
    "\u2581getsysteminfo": 1589,
    "\u25810x7aa0": 1590,
    "protect": 1591,
    "\u25810x1211c0": 1592,
    "windowexa": 1593,
    "\u25810xfeee005f": 1594,
    "\u25810x79f0": 1595,
    "21": 1596,
    "\u25810x8cc0": 1597,
    "\u2581app": 1598,
    "\u2581getsystemmetrics": 1599,
    "\u25810x99": 1600,
    "eck": 1601,
    "\u2581gettempw": 1602,
    "\u25810x79d0": 1603,
    "\u25810x3e": 1604,
    "\u2581virtualprotect": 1605,
    "\u25810x21": 1606,
    "\u25810xcc": 1607,
    "variab": 1608,
    "\u25810x4c42d8": 1609,
    "\u25810x4c42f0": 1610,
    "\u2581getkey": 1611,
    "008": 1612,
    "\u25810x417": 1613,
    "\u25810x1211fd4": 1614,
    "emut": 1615,
    "\u2581releasedc": 1616,
    "trac": 1617,
    "\u25810x40933d": 1618,
    "\u25810x40933e": 1619,
    "chan": 1620,
    "\u25810x40933f": 1621,
    "\u25810x409340": 1622,
    "\u25810x409341": 1623,
    "\u25810x409342": 1624,
    "\u25810x409343": 1625,
    "\u2581findfirstfilew": 1626,
    "\u25810x188": 1627,
    "\u2581enum": 1628,
    "ocket": 1629,
    "480": 1630,
    "\u25810x1b": 1631,
    "\u25810x67": 1632,
    "old": 1633,
    "\u25810x42e": 1634,
    "cy": 1635,
    "\u25810x1211e14": 1636,
    "link": 1637,
    "\u2581loadicona": 1638,
    "29": 1639,
    "hen": 1640,
    "\u25810x40a": 1641,
    "ilanguages": 1642,
    "938": 1643,
    "redu": 1644,
    "threadp": 1645,
    "referredu": 1646,
    "threadpreferredu": 1647,
    "threadpreferreduilanguages": 1648,
    "\u25810x4e5": 1649,
    "og": 1650,
    "d04": 1651,
    "\u2581gettime": 1652,
    "\u2581ini": 1653,
    "37": 1654,
    "\u25810x58": 1655,
    "\u25810x40a58": 1656,
    "\u25810x1211508": 1657,
    "ct": 1658,
    "5e": 1659,
    "\u25810x8f": 1660,
    "\u25810x84": 1661,
    "dis": 1662,
    "\u25810x1211f28": 1663,
    "drl6660drl6660drl6660drl6660": 1664,
    "econ": 1665,
    "\u2581malloc": 1666,
    "\u2581extrac": 1667,
    "\u25810x1210f3": 1668,
    "pack": 1669,
    "d7": 1670,
    "arr": 1671,
    "\u25810x1211928": 1672,
    "ym": 1673,
    "\u25810x97": 1674,
    "\u2581createa": 1675,
    "23": 1676,
    "\u25810x8a80": 1677,
    "allock": 1678,
    "\u25810xfeee0071": 1679,
    "0000000": 1680,
    "\u25810x169bf": 1681,
    "syscolor": 1682,
    "own": 1683,
    "\u2581getsyscolor": 1684,
    "320": 1685,
    "\u2581out": 1686,
    "\u2581comparestringex": 1687,
    "\u2581getlocaleinfoex": 1688,
    "paint": 1689,
    "\u25810x1211dc8": 1690,
    "namea": 1691,
    "\u2581copy": 1692,
    "initializ": 1693,
    "package": 1694,
    "de9": 1695,
    "\u2581golf": 1696,
    "\u2581exe": 1697,
    "packageid": 1698,
    "\u2581getcurrentpackageid": 1699,
    "ns": 1700,
    "900": 1701,
    "text": 1702,
    "ailed": 1703,
    "e44": 1704,
    "\u2581fibers": 1705,
    "\u2581deletecriticalsection": 1706,
    "zero": 1707,
    "dateresourcea": 1708,
    "afe": 1709,
    "\u25810x419c": 1710,
    "\u25810x1211fd8": 1711,
    "\u2581initterm": 1712,
    "c5": 1713,
    "660": 1714,
    "ret": 1715,
    "cb": 1716,
    "trl": 1717,
    "load": 1718,
    "\u25810x423": 1719,
    "\u2581windowsnt": 1720,
    "linkw": 1721,
    "\u25810x83": 1722,
    "2d": 1723,
    "when": 1724,
    "\u25810x64": 1725,
    "array": 1726,
    "\u25810x1211fd0": 1727,
    "stry": 1728,
    "\u25810x1211f7c": 1729,
    "\u25810x1211cc0": 1730,
    "sn": 1731,
    "\u2581rtl": 1732,
    "hot": 1733,
    "\u25810x1211738": 1734,
    "a04": 1735,
    "\u2581sat": 1736,
    "ymbo": 1737,
    "ymbolic": 1738,
    "\u25810x34": 1739,
    "ymboliclinkw": 1740,
    "\u2581createsymboliclinkw": 1741,
    "\u25810x41bc": 1742,
    "\u2581globallock": 1743,
    "\u2581start": 1744,
    "\u2581createt": 1745,
    "\u2581try": 1746,
    "\u2581getdate": 1747,
    "retur": 1748,
    "ast": 1749,
    "processwrite": 1750,
    "processornumber": 1751,
    "\u2581flushprocesswrite": 1752,
    "\u2581closethreadpoolwait": 1753,
    "\u2581flushprocesswritebuffers": 1754,
    "\u2581getcurrentprocessornumber": 1755,
    "returns": 1756,
    "whencallback": 1757,
    "\u2581setthreadpoolwait": 1758,
    "whencallbackreturns": 1759,
    "\u2581createthreadpoolwait": 1760,
    "\u2581freelibrarywhencallbackreturns": 1761,
    "callbacks": 1762,
    "timercallbacks": 1763,
    "\u2581waitforthreadpool": 1764,
    "\u2581setthreadpooltimer": 1765,
    "\u2581closethreadpooltimer": 1766,
    "\u2581waitforthreadpooltimercallbacks": 1767,
    "\u2581createthreadpooltimer": 1768,
    "oreexw": 1769,
    "\u25810x434": 1770,
    "\u2581createsemaphoreexw": 1771,
    "\u25810x4428": 1772,
    "\u2581nov": 1773,
    "\u2581sep": 1774,
    "\u25810xfeee010": 1775,
    "\u2581au": 1776,
    "arg": 1777,
    "\u25810x25": 1778,
    "e80": 1779,
    "mage": 1780,
    "\u25810x29": 1781,
    "ati": 1782,
    "\u2581apr": 1783,
    "\u2581oct": 1784,
    "\u25810x4f": 1785,
    "d80": 1786,
    "\u2581sprintf": 1787,
    "sup": 1788,
    "\u25810x7ee0": 1789,
    "\u2581dis": 1790,
    "\u2581sun": 1791,
    "\u2581may": 1792,
    "eentries": 1793,
    "paletteentries": 1794,
    "\u2581tryacquiresrwlockexclusive": 1795,
    "uary": 1796,
    "sday": 1797,
    "\u2581tue": 1798,
    "\u2581wed": 1799,
    "c000": 1800,
    "\u25810x1211cdc": 1801,
    "\u2581loadlibraryw": 1802,
    "c1": 1803,
    "2a": 1804,
    "memory": 1805,
    "apshot": 1806,
    "help32": 1807,
    "oolhelp32": 1808,
    "snapshot": 1809,
    "oolhelp32snapshot": 1810,
    "\u2581createtoolhelp32snapshot": 1811,
    "\u25810x7e80": 1812,
    "b04": 1813,
    "\u25810x12119c0": 1814,
    "am": 1815,
    "\u25810x24": 1816,
    "suped": 1817,
    "ock32": 1818,
    "\u2581wsock32": 1819,
    "fold": 1820,
    "\u2581createw": 1821,
    "\u2581enumsystem": 1822,
    "\u2581enumsystemlocales": 1823,
    "\u2581getsystempaletteentries": 1824,
    "ass": 1825,
    "\u25810x7e74": 1826,
    "\u25810x7e75": 1827,
    "\u25810xfeee0040": 1828,
    "drive": 1829,
    "\u2581floatingpoint": 1830,
    "overflow": 1831,
    "\u2581invalidvariant": 1832,
    "byzero": 1833,
    "\u25810x7e78": 1834,
    "isionbyzero": 1835,
    "\u25810x98": 1836,
    "\u25810x7e79": 1837,
    "208": 1838,
    "\u25810x5a": 1839,
    "\u25810x7e7c": 1840,
    "\u25810x7e7d": 1841,
    "\u25810xb8": 1842,
    "\u2581un": 1843,
    "\u25810x23": 1844,
    "\u25810x7e81": 1845,
    "afearray": 1846,
    "\u2581com": 1847,
    "\u2581varr": 1848,
    "4fromstr": 1849,
    "\u25810xffff": 1850,
    "\u25810x7cd0": 1851,
    "\u25810x7e85": 1852,
    "\u2581draw": 1853,
    "\u25810x7e84": 1854,
    "59": 1855,
    "\u25810x214": 1856,
    "\u25810x40a5dc": 1857,
    "\u25810x4bc": 1858,
    "\u25810x40a5cc": 1859,
    "atch": 1860,
    "lex": 1861,
    "\u25810xa000": 1862,
    "\u25810x3f75f": 1863,
    "variablew": 1864,
    "006": 1865,
    "\u25810x4015": 1866,
    "\u2581process32first": 1867,
    "27": 1868,
    "\u25810xfeee009a": 1869,
    "your": 1870,
    "\u2581e": 1871,
    "state": 1872,
    "\u25810x1210d": 1873,
    "\u2581send": 1874,
    "orsafearray": 1875,
    "\u2581getuserdefaultlocalename": 1876,
    "\u25810x42c588": 1877,
    "\u2581getdateformatex": 1878,
    "\u2581gettimeformatex": 1879,
    "\u2581isvalidlocalename": 1880,
    "\u2581enumsystemlocalesex": 1881,
    "\u25810x5b": 1882,
    "\u2581createprocess": 1883,
    "\u25810x4710": 1884,
    "clipboard": 1885,
    "188": 1886,
    "viewoffile": 1887,
    "2b": 1888,
    "7c3": 1889,
    "\u25810x1d": 1890,
    "\u25810x1211ef0": 1891,
    "\u25810x1211f34": 1892,
    "5d": 1893,
    "ho": 1894,
    "\u2581contr": 1895,
    "\u25810x42a": 1896,
    "\u25810x7b80": 1897,
    "\u2581registry": 1898,
    "\u25810xfde9": 1899,
    "\u25810x8af0": 1900,
    "a256": 1901,
    "\u25810x1211f30": 1902,
    "\u25810x78f0": 1903,
    "\u2581process32nextw": 1904,
    "\u25810x3bc": 1905,
    "\u2581sha256": 1906,
    "\u25810x1211f2c": 1907,
    "\u25810xfeee0027": 1908,
    "ated": 1909,
    "patch": 1910,
    "\u25810xfeee0021": 1911,
    "ain": 1912,
    "640": 1913,
    "\u25810x2f": 1914,
    "300": 1915,
    "stack": 1916,
    "\u2581getlogicalprocessor": 1917,
    "\u25810xfeee0022": 1918,
    "guar": 1919,
    "\u2581getlogicalprocessorinformation": 1920,
    "antee": 1921,
    "guarantee": 1922,
    "stackguarantee": 1923,
    "\u2581setthreadstackguarantee": 1924,
    "\u2581shellex": 1925,
    "\u25810x36": 1926,
    "\u25810x48f898": 1927,
    "\u25810xfeee0026": 1928,
    "console": 1929,
    "inal": 1930,
    "\u25810x94": 1931,
    "\u2581getw": 1932,
    "files": 1933,
    "\u25810xfeee007c": 1934,
    "ervicec": 1935,
    "\u25810xfeee0023": 1936,
    "\u25810xfeee0024": 1937,
    "67": 1938,
    "spec": 1939,
    "\u25810x44f928": 1940,
    "\u25810xfeee0025": 1941,
    "\u25810x42c0": 1942,
    "\u25810xe0": 1943,
    "\u25810x10000": 1944,
    "\u25810xa1": 1945,
    "\u2581image": 1946,
    "a50": 1947,
    "\u2581createwindowexa": 1948,
    "\u2581ole32": 1949,
    "ab8": 1950,
    "stroy": 1951,
    "\u25810x7df0": 1952,
    "\u25810x1211518": 1953,
    "c3": 1954,
    "uilanguage": 1955,
    "ervicectrl": 1956,
    "\u25810x2d": 1957,
    "leob": 1958,
    "ow64": 1959,
    "d08": 1960,
    "46": 1961,
    "bits": 1962,
    "\u25810x1211748": 1963,
    "c7": 1964,
    "b40": 1965,
    "ecomp": 1966,
    "\u2581closes": 1967,
    "\u25810x107568": 1968,
    "\u2581getlogicaldrive": 1969,
    "\u25810x40152c": 1970,
    "errormode": 1971,
    "\u2581seterrormode": 1972,
    "\u25810x2b": 1973,
    "c9": 1974,
    "\u25810x1211f48": 1975,
    "se": 1976,
    "wow64": 1977,
    "\u2581imagelist": 1978,
    "conne": 1979,
    "ordinal": 1980,
    "\u2581getenvironmentvariablew": 1981,
    "termin": 1982,
    "\u25810x4790": 1983,
    "servicew": 1984,
    "\u25810x2d4": 1985,
    "\u2581ordinal": 1986,
    "\u25810xfeee0028": 1987,
    "\u25810xfeee0072": 1988,
    "atible": 1989,
    "\u25810xfeee0046": 1990,
    "\u258132": 1991,
    "\u25810x1804": 1992,
    "\u25814": 1993,
    "\u2581loadiconw": 1994,
    "sing": 1995,
    "ecompatible": 1996,
    "\u2581createcompatible": 1997,
    "937": 1998,
    "\u2581getfileattributesw": 1999,
    "\u25810x42fc": 2000,
    "\u2581termin": 2001,
    "\u25810x1211bc0": 2002,
    "oci": 2003,
    "\u2581initializes": 2004,
    "\u25810x527": 2005,
    "conditionvariable": 2006,
    "\u2581error": 2007,
    "\u2581lstrcmp": 2008,
    "\u25810x1211c04": 2009,
    "\u25810x1211d04": 2010,
    "\u25810x527ed8": 2011,
    "yarg": 2012,
    "\u2581ht": 2013,
    "\u25810x40f": 2014,
    "\u2581run": 2015,
    "cd": 2016,
    "cf": 2017,
    "lation": 2018,
    "430": 2019,
    "\u2581wak": 2020,
    "\u25810x1211a04": 2021,
    "ve": 2022,
    "\u25810x3f3": 2023,
    "\u25810x8920": 2024,
    "\u25810x1211ee0": 2025,
    "\u2581getkeyboard": 2026,
    "\u25810x42d8": 2027,
    "acl": 2028,
    "5a": 2029,
    "6b": 2030,
    "\u25810x437ad": 2031,
    "\u25810x437bc": 2032,
    "\u25810x4371e6": 2033,
    "\u25810x4371e7": 2034,
    "numberof": 2035,
    "\u25810x57": 2036,
    "\u25810x43b7b9": 2037,
    "\u25810x43b7c3": 2038,
    "fac": 2039,
    "\u25810xfeee0029": 2040,
    "\u25810x31": 2041,
    "\u2581golfinfo": 2042,
    "\u25810x42e5f8": 2043,
    "\u2581iswow64": 2044,
    "\u2581iswow64process": 2045,
    "\u25810x85": 2046,
    "\u25810x43540": 2047,
    "ull": 2048,
    "\u25810x56bb": 2049,
    "\u2581update": 2050,
    "\u25810x8e": 2051,
    "c08": 2052,
    "\u2581show": 2053,
    "688": 2054,
    "\u25810x3b": 2055,
    "\u2581initialize": 2056,
    "\u25810x88a0": 2057,
    "securitydescriptor": 2058,
    "\u25810x12119ac": 2059,
    "singleob": 2060,
    "de0": 2061,
    "\u2581extract": 2062,
    "\u2581createthread": 2063,
    "ec0": 2064,
    "associ": 2065,
    "\u2581getnumberof": 2066,
    "\u2581getnumberofconsole": 2067,
    "\u25810x1211b04": 2068,
    "\u25810xfeee002a": 2069,
    "\u25810xfeee002d": 2070,
    "\u25810xfeee002f": 2071,
    "94c": 2072,
    "out": 2073,
    "\u2581waitforsingleob": 2074,
    "\u25810xfeee002c": 2075,
    "\u25810xfeee0045": 2076,
    "2w": 2077,
    "ordacl": 2078,
    "connection": 2079,
    "securitydescriptordacl": 2080,
    "\u2581createmut": 2081,
    "\u25810xfeee002b": 2082,
    "connection2w": 2083,
    "\u25810x1210f8": 2084,
    "\u2581initializesecuritydescriptor": 2085,
    "93c": 2086,
    "\u2581deletefilew": 2087,
    "\u25810x7de4": 2088,
    "\u25810x1211f20": 2089,
    "\u25810x7de5": 2090,
    "\u25810xfeee002e": 2091,
    "2f": 2092,
    "speci": 2093,
    "\u25810x35": 2094,
    "resourcew": 2095,
    "\u25818": 2096,
    "\u2581getfileinformationby": 2097,
    "variablea": 2098,
    "\u2581setsecuritydescriptordacl": 2099,
    "valu": 2100,
    "\u2581setc": 2101,
    "580": 2102,
    "ken": 2103,
    "a58": 2104,
    "\u2581shget": 2105,
    "inputs": 2106,
    "\u25810x1210f35": 2107,
    "\u2581getnumberofconsoleinputs": 2108,
    "\u25810x51a": 2109,
    "\u2581gb": 2110,
    "\u25810x37": 2111,
    "\u25810x80000000": 2112,
    "\u25810x53000": 2113,
    "438": 2114,
    "\u25810xfeee0044": 2115,
    "f04": 2116,
    "f08": 2117,
    "ush": 2118,
    "\u25810x484": 2119,
    "cel": 2120,
    "b08": 2121,
    "atedicon": 2122,
    "associatedicon": 2123,
    "\u2581extractassociatedicon": 2124,
    "\u2581q": 2125,
    "\u25810x1211f00": 2126,
    "brush": 2127,
    "\u25810xfeee0030": 2128,
    "\u2581beginup": 2129,
    "slen": 2130,
    "ways": 2131,
    "\u2581always": 2132,
    "\u2581wcslen": 2133,
    "vol": 2134,
    "\u25810x1211cec": 2135,
    "57": 2136,
    "ivi": 2137,
    "\u25810xfeee0031": 2138,
    "\u2581createdirectoryw": 2139,
    "\u2581gettickcount64": 2140,
    "\u25810x4393": 2141,
    "\u25810x9030": 2142,
    "380": 2143,
    "ivile": 2144,
    "\u2581ntopen": 2145,
    "\u2581ntopensection": 2146,
    "\u25810x181b": 2147,
    "\u2581rec": 2148,
    "\u25810x42a1": 2149,
    "\u25810x1211308": 2150,
    "\u25810x1211578": 2151,
    "\u25810xfeee0043": 2152,
    "708": 2153,
    "\u2581findnext": 2154,
    "aaaa": 2155,
    "\u2581getfileinformationbyhandl": 2156,
    "\u2581createmutexa": 2157,
    "\u25810x63": 2158,
    "\u25810x8230": 2159,
    "\u25810x3a": 2160,
    "ee8": 2161,
    "\u25810x4170": 2162,
    "volu": 2163,
    "\u2581getthreadpreferreduilanguages": 2164,
    "volume": 2165,
    "32c": 2166,
    "\u2581loadcursorw": 2167,
    "\u2581getmain": 2168,
    "\u25810xfeee0047": 2169,
    "\u25810x364": 2170,
    "\u25810xfeee003b": 2171,
    "e40": 2172,
    "\u25810x4336": 2173,
    "\u25810x7d10": 2174,
    "\u25810x3d": 2175,
    "host": 2176,
    "\u25810x1211e08": 2177,
    "\u25810xfeee0033": 2178,
    "\u25810xfeee0035": 2179,
    "ut32": 2180,
    "\u2581olea": 2181,
    "\u25810x3f2000": 2182,
    "\u2581oleaut32": 2183,
    "\u25810x42c520": 2184,
    "\u25810xfeee0032": 2185,
    "\u25810xfeee0062": 2186,
    "down": 2187,
    "\u25810xfeee0048": 2188,
    "ca": 2189,
    "nex": 2190,
    "\u25810xfeee0034": 2191,
    "988": 2192,
    "\u25810xfeee0049": 2193,
    "endoffile": 2194,
    "\u25810xfeee0036": 2195,
    "\u25810xfeee0037": 2196,
    "stringa": 2197,
    "\u25810xfeee0039": 2198,
    "\u25810xfeee0041": 2199,
    "\u25810xfeee003f": 2200,
    "\u25810x39": 2201,
    "\u25810xfeee0042": 2202,
    "\u2581globalfree": 2203,
    "\u25810x1211768": 2204,
    "\u2581int": 2205,
    "ong": 2206,
    "\u2581setfileinformationby": 2207,
    "\u2581createexw": 2208,
    "\u25810xfeee0038": 2209,
    "\u2581deletefilea": 2210,
    "6e": 2211,
    "\u25810x491": 2212,
    "\u25810xfeee003a": 2213,
    "6f": 2214,
    "\u25810xfeee003d": 2215,
    "\u2581po": 2216,
    "\u25810xfeee003e": 2217,
    "full": 2218,
    "\u25810xfeee003c": 2219,
    "cadwork": 2220,
    "\u25810x42e0": 2221,
    "ed4": 2222,
    "\u25810x4c32c0": 2223,
    "a81": 2224,
    "\u25810x1211fc8": 2225,
    "\u2581wcsc": 2226,
    "\u25810x4393f8": 2227,
    "\u2581wcscpy": 2228,
    "eed": 2229,
    "ger": 2230,
    "\u25810x4c4": 2231,
    "messagew": 2232,
    "696": 2233,
    "\u25810xfeee0065": 2234,
    "volumeinformation": 2235,
    "allocate": 2236,
    "\u2581getvolumeinformation": 2237,
    "\u25810xfeee0066": 2238,
    "ask": 2239,
    "\u2581registerclassexa": 2240,
    "\u25810x92": 2241,
    "\u25810xfeee0067": 2242,
    "\u25810xfeee0053": 2243,
    "\u25810xfeee0060": 2244,
    "\u25810xfeee004a": 2245,
    "\u25810xfeee005e": 2246,
    "\u25810xfeee0061": 2247,
    "140": 2248,
    "tra": 2249,
    "\u2581to": 2250,
    "ryp": 2251,
    "\u2581end": 2252,
    "\u25810xfeee005d": 2253,
    "\u25810x1211780": 2254,
    "\u25810xfeee0063": 2255,
    "change": 2256,
    "\u25810xfeee005a": 2257,
    "\u25810xfeee005c": 2258,
    "\u25810xfeee004d": 2259,
    "\u25810xfeee004b": 2260,
    "\u25810xfeee005b": 2261,
    "\u25810x52661": 2262,
    "\u25810x52662": 2263,
    "\u25810xfeee004c": 2264,
    "\u25810xfeee0068": 2265,
    "770": 2266,
    "\u25810x59": 2267,
    "\u25810x1211c80": 2268,
    "\u25810x1210900": 2269,
    "\u25810xfeee0050": 2270,
    "\u25810xfeee0055": 2271,
    "\u25810xfeee004e": 2272,
    "\u25810xfeee0074": 2273,
    "\u25810x7540": 2274,
    "\u25810xfeee0054": 2275,
    "328": 2276,
    "\u25810xfeee004f": 2277,
    "\u25810x6d": 2278,
    "\u25810xfeee0095": 2279,
    "\u25810x8cf0": 2280,
    "\u25810xfeee0051": 2281,
    "\u25810xfeee0052": 2282,
    "ou": 2283,
    "attributesa": 2284,
    "\u25810xfeee0057": 2285,
    "e88": 2286,
    "\u25810xfeee0056": 2287,
    "\u25810xfeee0058": 2288,
    "\u25810xfeee0059": 2289,
    "\u25810x40f6": 2290,
    "e08": 2291,
    "4b": 2292,
    "head": 2293,
    "ec8": 2294,
    "uter": 2295,
    "vio": 2296,
    "\u2581getusernamea": 2297,
    "6a": 2298,
    "nal": 2299,
    "\u2581control": 2300,
    "\u25810x4317": 2301,
    "\u25810xfeee0064": 2302,
    "mapp": 2303,
    "\u25810x1211e28": 2304,
    "\u2581showwindow": 2305,
    "\u25810x7c70": 2306,
    "9c1": 2307,
    "ang": 2308,
    "computer": 2309,
    "heck": 2310,
    "mapping": 2311,
    "filemapping": 2312,
    "pos": 2313,
    "\u25810x566": 2314,
    "pro": 2315,
    "\u2581getmess": 2316,
    "\u25810x4238": 2317,
    "\u258120": 2318,
    "8000": 2319,
    "ctl32": 2320,
    "\u2581cryp": 2321,
    "\u2581comctl32": 2322,
    "eextra": 2323,
    "draw": 2324,
    "\u25810x7f0": 2325,
    "\u2581wake": 2326,
    "\u2581createdirectorya": 2327,
    "\u2581wakeall": 2328,
    "\u2581wakeallconditionvariable": 2329,
    "980": 2330,
    "gr": 2331,
    "\u25810x4418": 2332,
    "\u2581recv": 2333,
    "bc8": 2334,
    "\u25810x7ee00": 2335,
    "\u25810xfeee008e": 2336,
    "\u2581getmessagea": 2337,
    "disk": 2338,
    "\u2581inst": 2339,
    "ac0": 2340,
    "any": 2341,
    "\u2581updatewindow": 2342,
    "freesp": 2343,
    "\u2581getdisk": 2344,
    "\u2581getdiskfreesp": 2345,
    "\u25810x46e0": 2346,
    "violation": 2347,
    "\u25810x4800": 2348,
    "f0000": 2349,
    "\u25810x47c0": 2350,
    "stringsa": 2351,
    "listhead": 2352,
    "\u2581initializeslisthead": 2353,
    "\u25810xfeee0075": 2354,
    "d0a": 2355,
    "e6b": 2356,
    "\u25810x1211e44": 2357,
    "\u2581getsystemdirectorya": 2358,
    "\u2581destroy": 2359,
    "ageextra": 2360,
    "ageextrainfo": 2361,
    "\u2581getmessageextrainfo": 2362,
    "\u25810x496760": 2363,
    "closekey": 2364,
    "\u25810x5265d": 2365,
    "\u25810x42a190": 2366,
    "windowproc": 2367,
    "\u2581regclosekey": 2368,
    "\u25810xfeee006f": 2369,
    "\u25810xfeee0069": 2370,
    "\u25810xfeee0073": 2371,
    "with": 2372,
    "\u2581v": 2373,
    "quit": 2374,
    "4f": 2375,
    "\u2581createfilemapping": 2376,
    "ust": 2377,
    "\u25810x4094": 2378,
    "\u25810xfeee006a": 2379,
    "anag": 2380,
    "\u25810x42ce": 2381,
    "2f8": 2382,
    "\u25810x52660": 2383,
    "\u25810xfeee0070": 2384,
    "\u25810x91": 2385,
    "\u2581z": 2386,
    "\u2581mul": 2387,
    "\u2581muldiv": 2388,
    "\u25810x7db0": 2389,
    "\u25810x40933c": 2390,
    "token": 2391,
    "\u25810xff8": 2392,
    "\u25810x7de8": 2393,
    "\u25810x7de9": 2394,
    "\u25810xfeee0081": 2395,
    "\u2581def": 2396,
    "\u25810x448": 2397,
    "\u25810xfeee006c": 2398,
    "\u2581drag": 2399,
    "\u25810xfeee006e": 2400,
    "\u25810x409344": 2401,
    "\u25810x1210e8": 2402,
    "\u25810x7d00": 2403,
    "\u2581getthreaduilanguage": 2404,
    "\u25810x120f8": 2405,
    "\u25810xfeee006b": 2406,
    "\u25810x7d95": 2407,
    "a88": 2408,
    "\u25810x1211e1c": 2409,
    "lat": 2410,
    "\u2581crypt": 2411,
    "\u25810x40a5a0": 2412,
    "onl": 2413,
    "\u2581getdiskfreespac": 2414,
    "namew": 2415,
    "mask": 2416,
    "\u25810x7cc0": 2417,
    "\u25810xfeee006d": 2418,
    "\u25810x7bd0": 2419,
    "\u25810x7d94": 2420,
    "las": 2421,
    "ssp": 2422,
    "enum": 2423,
    "\u2581setup": 2424,
    "\u25810x1211f6c": 2425,
    "debugger": 2426,
    "debuggerpresent": 2427,
    "\u2581trans": 2428,
    "\u25810xa2": 2429,
    "\u25810x7dec": 2430,
    "\u25810x7ded": 2431,
    "\u25810x8d80": 2432,
    "\u25810x1076": 2433,
    "\u2581ac": 2434,
    "\u25810x6b": 2435,
    "\u25810x42a0": 2436,
    "288": 2437,
    "\u25810x4620": 2438,
    "740": 2439,
    "cc8": 2440,
    "\u25810xfeee0084": 2441,
    "\u25810x43640": 2442,
    "\u2581seten": 2443,
    "\u2581defwindowproc": 2444,
    "5b0": 2445,
    "\u25810xfeee007f": 2446,
    "a08": 2447,
    "\u25810x120fa": 2448,
    "\u25810x12119f0": 2449,
    "\u2581remo": 2450,
    "\u25810x43b6": 2451,
    "\u25810x20019": 2452,
    "\u2581accessviolation": 2453,
    "\u2581lstrcpynw": 2454,
    "bitmap": 2455,
    "\u25810x1212000": 2456,
    "ac000": 2457,
    "\u25810x40a9": 2458,
    "\u25810x41e1": 2459,
    "4e": 2460,
    "\u2581failed": 2461,
    "\u2581createfilemappinga": 2462,
    "388": 2463,
    "\u2581isdebuggerpresent": 2464,
    "\u25810x40a59e": 2465,
    "\u25810x40a5a2": 2466,
    "\u25810x40a5a4": 2467,
    "\u25810x40a5a6": 2468,
    "\u25810x40a5a8": 2469,
    "\u25810x40a5aa": 2470,
    "arc": 2471,
    "\u25810xfeee008c": 2472,
    "\u25810xfeee0078": 2473,
    "\u25810xfeee008a": 2474,
    "\u25810xfeee0077": 2475,
    "folder": 2476,
    "\u25810xfeee0079": 2477,
    "\u25810x41d1": 2478,
    "\u25810x1211f88": 2479,
    "palette": 2480,
    "4d": 2481,
    "\u25810xfeee0076": 2482,
    "\u2581loc": 2483,
    "\u25810x42b40": 2484,
    "gro": 2485,
    "\u25810xfeee007a": 2486,
    "\u25810xfeee008d": 2487,
    "\u25810xa7": 2488,
    "\u25810x519": 2489,
    "\u2581localiz": 2490,
    "\u2581localization": 2491,
    "\u2581setwindow": 2492,
    "e4c": 2493,
    "\u2581beginpaint": 2494,
    "lw": 2495,
    "lec": 2496,
    "econdition": 2497,
    "\u25810x8c70": 2498,
    "00a": 2499,
    "\u25810x8c60": 2500,
    "valueexw": 2501,
    "econditionvariable": 2502,
    "\u25810x56bb00": 2503,
    "\u2581getenvironmentvariablea": 2504,
    "driv": 2505,
    "\u2581endpaint": 2506,
    "00e": 2507,
    "\u2581ass": 2508,
    "\u25810x4730": 2509,
    "\u25810x4d70": 2510,
    "ternal": 2511,
    "\u2581err": 2512,
    "d1c": 2513,
    "\u25810x188e": 2514,
    "\u2581u": 2515,
    "ce8": 2516,
    "\u25810xfeee007b": 2517,
    "aff": 2518,
    "instruction": 2519,
    "\u2581regset": 2520,
    "\u2581fe": 2521,
    "\u25810x7df1": 2522,
    "\u25810xfeee007d": 2523,
    "\u2581type": 2524,
    "\u25810xfeee007e": 2525,
    "\u2581check": 2526,
    "\u25810xfeee0087": 2527,
    "\u2581output": 2528,
    "\u2581outputdebug": 2529,
    "\u25810x67000000": 2530,
    "47": 2531,
    "\u25810x8aa0": 2532,
    "fore": 2533,
    "ows": 2534,
    "\u25810x6a6": 2535,
    "\u25810x5638": 2536,
    "\u25810xfeee0080": 2537,
    "\u2581exception": 2538,
    "\u2581mar": 2539,
    "ff8": 2540,
    "\u2581wi": 2541,
    "\u25810xfeee0090": 2542,
    "\u25810x4228": 2543,
    "\u25810xfeee008f": 2544,
    "\u25810xfeee0088": 2545,
    "echeck": 2546,
    "\u25810x7e89": 2547,
    "108": 2548,
    "typ": 2549,
    "\u25810x8c90": 2550,
    "\u25810x7e88": 2551,
    "\u2581y": 2552,
    "ty": 2553,
    "\u25810x55": 2554,
    "\u2581outof": 2555,
    "\u2581ws2": 2556,
    "\u25810x61": 2557,
    "\u25810x4317e0": 2558,
    "\u25810x7a80": 2559,
    "\u25810x8ab0": 2560,
    "64000": 2561,
    "\u25810x26": 2562,
    "inst": 2563,
    "75000": 2564,
    "668": 2565,
    "long": 2566,
    "cre": 2567,
    "\u25810x5d": 2568,
    "\u25810x1211e34": 2569,
    "\u25810x7150": 2570,
    "ecall": 2571,
    "\u2581post": 2572,
    "\u25810xfeee0083": 2573,
    "7c8": 2574,
    "\u25810xfeee0082": 2575,
    "failed": 2576,
    "\u25810x8c30": 2577,
    "\u25810xfeee0085": 2578,
    "\u25810xfeee0086": 2579,
    "69000": 2580,
    "2030": 2581,
    "\u25810x9c": 2582,
    "\u25810x73f0": 2583,
    "\u25810x60000": 2584,
    "\u25810xffe1": 2585,
    "\u25810x508": 2586,
    "kart": 2587,
    "karton": 2588,
    "ins": 2589,
    "\u2581feb": 2590,
    "\u25810x8d00": 2591,
    "found": 2592,
    "\u25810x72a0": 2593,
    "fe8": 2594,
    "\u25810x417b": 2595,
    "71000": 2596,
    "\u2581getwindows": 2597,
    "box": 2598,
    "788": 2599,
    "\u25810x8d20": 2600,
    "\u25810xffe0": 2601,
    "\u25810xfeee0089": 2602,
    "ore": 2603,
    "\u25810xffe4": 2604,
    "\u25810xfffe": 2605,
    "\u25810x1211f3c": 2606,
    "e2c": 2607,
    "\u25810x42b0": 2608,
    "a9000": 2609,
    "\u25810x432": 2610,
    "f4000": 2611,
    "\u25810x8bd0": 2612,
    "ied": 2613,
    "\u25810x1009": 2614,
    "\u2581shellexecute": 2615,
    "\u25810x4400": 2616,
    "\u25810x7be0": 2617,
    "\u25810x8ba0": 2618,
    "\u2581em": 2619,
    "\u25810x8c10": 2620,
    "65000": 2621,
    "\u25810x121193c": 2622,
    "\u25810x7690": 2623,
    "\u2581sept": 2624,
    "\u2581findwindow": 2625,
    "alog": 2626,
    "creating": 2627,
    "\u25810x1211fc4": 2628,
    "\u25810x52666": 2629,
    "\u25810x1005": 2630,
    "licen": 2631,
    "\u2581febr": 2632,
    "gument": 2633,
    "c8c": 2634,
    "une": 2635,
    "\u25810x77e0": 2636,
    "lwapi": 2637,
    "\u2581king": 2638,
    "\u25810xffba": 2639,
    "\u25810xffbb": 2640,
    "\u25810xffbe": 2641,
    "\u2581shlwapi": 2642,
    "\u25810xffbd": 2643,
    "gust": 2644,
    "ober": 2645,
    "\u2581aug": 2646,
    "\u2581april": 2647,
    "\u25810xffbc": 2648,
    "\u2581august": 2649,
    "\u2581september": 2650,
    "\u2581getcurrentdirectoryw": 2651,
    "\u25810x41f": 2652,
    "\u2581november": 2653,
    "ged": 2654,
    "\u25810xffb7": 2655,
    "\u2581hg": 2656,
    "manag": 2657,
    "\u25810xffb8": 2658,
    "\u25810xffb9": 2659,
    "\u25810xfffd": 2660,
    "\u25810x1211f4c": 2661,
    "\u2581setfileattributesa": 2662,
    "a5000": 2663,
    "15000": 2664,
    "\u25810xffbf": 2665,
    "\u25810x8cd0": 2666,
    "argument": 2667,
    "bound": 2668,
    "\u25810x8ca0": 2669,
    "\u2581hgdraw": 2670,
    "\u2581kingkarton": 2671,
    "\u25810xfffc": 2672,
    "\u2581setfileinformationbyhandlew": 2673,
    "\u2581getfileinformationbyhandleexw": 2674,
    "\u25810x6c": 2675,
    "ad000": 2676,
    "barc": 2677,
    "\u25810x8bb0": 2678,
    "\u25810x1211dfc": 2679,
    "\u25810x8be0": 2680,
    "\u25810x8c40": 2681,
    "\u25810x1210ec": 2682,
    "\u2581outofmemory": 2683,
    "\u2581div": 2684,
    "\u2581sn": 2685,
    "19000": 2686,
    "\u25810x4394": 2687,
    "\u25810x8c00": 2688,
    "\u25810xffb6": 2689,
    "\u25810x52663": 2690,
    "anuary": 2691,
    "\u2581march": 2692,
    "\u2581february": 2693,
    "uly": 2694,
    "\u25810xffa0": 2695,
    "\u2581december": 2696,
    "\u2581october": 2697,
    "\u2581thu": 2698,
    "nesday": 2699,
    "unlock": 2700,
    "\u2581monday": 2701,
    "\u2581sunday": 2702,
    "\u2581tuesday": 2703,
    "\u2581wednesday": 2704,
    "ursday": 2705,
    "\u25810x4308": 2706,
    "\u25810xffa1": 2707,
    "\u2581thursday": 2708,
    "\u2581fri": 2709,
    "index": 2710,
    "\u25810xffa2": 2711,
    "iday": 2712,
    "urday": 2713,
    "\u2581friday": 2714,
    "\u2581saturday": 2715,
    "\u2581copyfilea": 2716,
    "\u25810xffa3": 2717,
    "\u25810xfffb": 2718,
    "f80": 2719,
    "sspace": 2720,
    "\u25810x567a": 2721,
    "\u2581createpalette": 2722,
    "\u25810xffa4": 2723,
    "\u2581isspace": 2724,
    "\u25810xffb5": 2725,
    "exception": 2726,
    "f5000": 2727,
    "\u25810x12113": 2728,
    "\u25810x1210e0": 2729,
    "afecall": 2730,
    "c80": 2731,
    "\u25810xffa7": 2732,
    "\u25810xffcd": 2733,
    "\u25810x51c": 2734,
    "sid": 2735,
    "\u25810xffa5": 2736,
    "\u25810xffa6": 2737,
    "den": 2738,
    "ond": 2739,
    "facen": 2740,
    "\u2581interfacen": 2741,
    "\u25810x8001": 2742,
    "\u2581asser": 2743,
    "\u2581stack": 2744,
    "\u25810xfffa": 2745,
    "\u2581external": 2746,
    "54000": 2747,
    "\u2581privile": 2748,
    "uni": 2749,
    "eger": 2750,
    "\u25810xffa8": 2751,
    "\u2581integer": 2752,
    "bl": 2753,
    "\u25810xffb4": 2754,
    "\u2581assertion": 2755,
    "\u25810xffa9": 2756,
    "styp": 2757,
    "changet": 2758,
    "\u2581variantchanget": 2759,
    "\u2581globalunlock": 2760,
    "insafecall": 2761,
    "\u2581exceptioninsafecall": 2762,
    "e2b": 2763,
    "\u2581disk": 2764,
    "\u25810x1211fc0": 2765,
    "\u2581mapviewoffile": 2766,
    "calls": 2767,
    "notfound": 2768,
    "eexa": 2769,
    "\u2581point": 2770,
    "\u25810x47a0": 2771,
    "\u2581gettempa": 2772,
    "\u25810x1211efc": 2773,
    "\u2581bat": 2774,
    "3c000": 2775,
    "43000": 2776,
    "\u25810xffaa": 2777,
    "\u2581prec": 2778,
    "denied": 2779,
    "\u2581errata": 2780,
    "\u2581precision": 2781,
    "accessdenied": 2782,
    "securityinfo": 2783,
    "ecast": 2784,
    "underflow": 2785,
    "\u2581the": 2786,
    "b8000": 2787,
    "bc000": 2788,
    "\u2581assertionfailed": 2789,
    "ebe": 2790,
    "bounds": 2791,
    "\u2581privileged": 2792,
    "mod": 2793,
    "clas": 2794,
    "\u2581chit": 2795,
    "\u2581rang": 2796,
    "classtyp": 2797,
    "indexout": 2798,
    "notsuped": 2799,
    "\u25810xfeee0094": 2800,
    "\u2581rangecheck": 2801,
    "classtypecast": 2802,
    "otsuped": 2803,
    "\u25810xffce": 2804,
    "\u25810xffe6": 2805,
    "ofbounds": 2806,
    "callsnotsuped": 2807,
    "\u2581errorcreating": 2808,
    "indexoutofbounds": 2809,
    "pointeroperation": 2810,
    "\u2581externalexception": 2811,
    "\u2581interfacenotsuped": 2812,
    "\u2581errorcreatingvariant": 2813,
    "\u2581invalidclasstypecast": 2814,
    "\u2581variantcallsnotsuped": 2815,
    "\u2581floatingpointunderflow": 2816,
    "tov": 2817,
    "pointov": 2818,
    "typecon": 2819,
    "pointoverflow": 2820,
    "divisionbyzero": 2821,
    "typeconversion": 2822,
    "\u2581stackoverflow": 2823,
    "\u2581floatingpointoverflow": 2824,
    "\u2581privilegedinstruction": 2825,
    "\u2581invalidvariantoperation": 2826,
    "\u2581floatingpointdivisionbyzero": 2827,
    "\u2581invalidvarianttypeconversion": 2828,
    "floating": 2829,
    "floatingpoint": 2830,
    "\u2581divisionbyzero": 2831,
    "\u2581integeroverflow": 2832,
    "\u2581rangecheckerror": 2833,
    "\u2581invalidfloatingpoint": 2834,
    "\u2581invalidpointeroperation": 2835,
    "\u2581invalidfloatingpointoperation": 2836,
    "bey": 2837,
    "omany": 2838,
    "beyond": 2839,
    "numeric": 2840,
    "\u2581toomany": 2841,
    "openfiles": 2842,
    "\u2581diskfull": 2843,
    "\u2581readbeyond": 2844,
    "numericinput": 2845,
    "\u2581invalidfilename": 2846,
    "\u2581toomanyopenfiles": 2847,
    "\u2581invalidnumericinput": 2848,
    "\u2581readbeyondendoffile": 2849,
    "a00": 2850,
    "\u2581fileaccessdenied": 2851,
    "\u25810x202": 2852,
    "ontin": 2853,
    "bk": 2854,
    "ab000": 2855,
    "56c": 2856,
    "34000": 2857,
    "infoa": 2858,
    "unicode": 2859,
    "\u25810x8d60": 2860,
    "24000": 2861,
    "12000": 2862,
    "bool": 2863,
    "ypeex": 2864,
    "\u25810xffcf": 2865,
    "\u2581varbstrfrombool": 2866,
    "\u2581variantchangetypeex": 2867,
    "f3c": 2868,
    "9c000": 2869,
    "\u25810x4615": 2870,
    "207": 2871,
    "neg": 2872,
    "14000": 2873,
    "32000": 2874,
    "\u25810x100300": 2875,
    "\u25810x81": 2876,
    "\u25810x86": 2877,
    "anf": 2878,
    "adero": 2879,
    "\u2581embarc": 2880,
    "\u2581embarcadero": 2881,
    "mul": 2882,
    "xor": 2883,
    "idiv": 2884,
    "\u2581varcy": 2885,
    "\u2581varor": 2886,
    "\u2581varr8": 2887,
    "\u2581varadd": 2888,
    "\u2581varand": 2889,
    "\u2581varcmp": 2890,
    "\u2581vardiv": 2891,
    "\u2581varmod": 2892,
    "\u2581varmul": 2893,
    "\u2581varneg": 2894,
    "\u2581varnot": 2895,
    "\u2581varsub": 2896,
    "\u2581varxor": 2897,
    "\u2581varbool": 2898,
    "\u2581vardate": 2899,
    "\u2581varidiv": 2900,
    "\u2581varcyfromstr": 2901,
    "\u2581vari4fromstr": 2902,
    "\u2581varr4fromstr": 2903,
    "\u2581varr8fromstr": 2904,
    "\u2581varbstrfromcy": 2905,
    "\u2581varboolfromstr": 2906,
    "\u2581vardatefromstr": 2907,
    "\u2581varbstrfromdate": 2908,
    "tout": 2909,
    "\u25810x42332": 2910,
    "7c000": 2911,
    "extout": 2912,
    "\u2581lstrcpyna": 2913,
    "16000": 2914,
    "6c000": 2915,
    "a8000": 2916,
    "\u25810xffe5": 2917,
    "18000": 2918,
    "\u25810xfeee0091": 2919,
    "\u25810xfeee0098": 2920,
    "28000": 2921,
    "\u2581msvcr": 2922,
    "56000": 2923,
    "\u25810xffb0": 2924,
    "initialize": 2925,
    "a44": 2926,
    "74000": 2927,
    "\u25810x65": 2928,
    "93000": 2929,
    "7b000": 2930,
    "\u25810xfeee0092": 2931,
    "38000": 2932,
    "\u25810xfeee0099": 2933,
    "\u2581process32firstw": 2934,
    "\u25810xffb3": 2935,
    "de8": 2936,
    "\u25810x42990": 2937,
    "44000": 2938,
    "5c000": 2939,
    "viewof": 2940,
    "\u25810x3e8": 2941,
    "\u25810x419": 2942,
    "\u2581rtlin": 2943,
    "\u25810xfff9": 2944,
    "mapviewof": 2945,
    "mapviewofsection": 2946,
    "98000": 2947,
    "b4000": 2948,
    "\u25810xffb2": 2949,
    "blt": 2950,
    "anfdr": 2951,
    "\u2581sanfdr": 2952,
    "76000": 2953,
    "\u2581snap": 2954,
    "\u2581rtlinit": 2955,
    "1c000": 2956,
    "32cs": 2957,
    "\u2581th32cs": 2958,
    "\u25810xffb1": 2959,
    "\u25810x1211fdc": 2960,
    "48000": 2961,
    "\u2581dispatch": 2962,
    "unicodestring": 2963,
    "ysi": 2964,
    "c4000": 2965,
    "a4000": 2966,
    "\u25810xfeee0097": 2967,
    "58000": 2968,
    "66000": 2969,
    "2c000": 2970,
    "78000": 2971,
    "\u25810xfeee0093": 2972,
    "\u25810x6f": 2973,
    "ater": 2974,
    "96000": 2975,
    "\u2581rtlinitunicodestring": 2976,
    "68000": 2977,
    "\u25810x410770": 2978,
    "a6000": 2979,
    "\u25810xc00": 2980,
    "94000": 2981,
    "6669": 2982,
    "\u25810x1211ed4": 2983,
    "\u25810xfeee009b": 2984,
    "\u25810xfeee0096": 2985,
    "\u25810x40e": 2986,
    "8c000": 2987,
    "4c000": 2988,
    "88000": 2989,
    "\u25810xfeee009c": 2990,
    "no": 2991,
    "\u25810xfff8": 2992,
    "\u25810x655": 2993,
    "fff0": 2994,
    "\u2581translat": 2995,
    "\u2581defwindowproca": 2996,
    "\u2581invalidargument": 2997,
    "\u2581op": 2998,
    "\u2581fmode": 2999,
    "\u25810x1210f5": 3000,
    "\u2581variantorsafearray": 3001,
    "\u2581errorcreatingvariantorsafearray": 3002,
    "\u2581variantorsafearrayindexoutofbounds": 3003,
    "c88": 3004,
    "hysi": 3005,
    "validate": 3006,
    "\u2581heapvalidate": 3007,
    "692e": 3008,
    "\u2581translatem": 3009,
    "app": 3010,
    "\u258110": 3011,
    "\u25810x52664": 3012,
    "\u2581lstrcmpa": 3013,
    "\u2581deleteob": 3014,
    "\u2581lock": 3015,
    "\u25810x8814": 3016,
    "7e0": 3017,
    "731": 3018,
    "73696": 3019,
    "\u25810xa9": 3020,
    "\u25810xfff7": 3021,
    "\u25810d0a": 3022,
    "e6b692e": 3023,
    "e6b692e6669": 3024,
    "73696e6b692e6669": 3025,
    "\u25810x1210e5": 3026,
    "\u25810x1210f4": 3027,
    "texta": 3028,
    "970": 3029,
    "\u25810x13fff0": 3030,
    "\u25810x404": 3031,
    "a730": 3032,
    "\u2581physi": 3033,
    "\u25810x8d50": 3034,
    "\u2581physical": 3035,
    "ist": 3036,
    "\u25810x1210f0": 3037,
    "\u2581createprocessa": 3038,
    "\u25810x8d30": 3039,
    "584": 3040,
    "680": 3041,
    "\u2581res": 3042,
    "a0000": 3043,
    "\u25810x1211c14": 3044,
    "\u2581setthreadpreferreduilanguages": 3045,
    "\u25810x42e6": 3046,
    "d88": 3047,
    "\u2581rand": 3048,
    "\u2581translatemessage": 3049,
    "\u25810x9020": 3050,
    "ground": 3051,
    "\u2581outputdebugstringa": 3052,
    "de4": 3053,
    "\u2581postquit": 3054,
    "\u25810x1211f04": 3055,
    "\u2581postquitmessage": 3056,
    "\u2581registers": 3057,
    "\u25810x20000": 3058,
    "\u25810x121194c": 3059,
    "\u25810x5f": 3060,
    "\u25810x65500000": 3061,
    "\u25810x416b": 3062,
    "\u2581setfileattributesw": 3063,
    "\u25810x7090": 3064,
    "\u2581getlogicaldrivestringsa": 3065,
    "lecs": 3066,
    "variablecs": 3067,
    "\u2581sleepcondition": 3068,
    "\u2581sleepconditionvariablecs": 3069,
    "\u25810x4229": 3070,
    "bkcolor": 3071,
    "drl6660drl6660drl6660drl6660drl6660drl6660drl6660drl6660": 3072,
    "\u25810x7bf0": 3073,
    "\u2581regsetvalueexw": 3074,
    "d3c": 3075,
    "\u25810x7b90": 3076,
    "\u25810xfff6": 3077,
    "\u25810x563868": 3078,
    "cor": 3079,
    "\u2581findnextfilew": 3080,
    "\u2581runtime": 3081,
    "cept": 3082,
    "ervicectrlhandl": 3083,
    "\u2581registerservicectrlhandl": 3084,
    "\u25810x567a40": 3085,
    "\u2581resum": 3086,
    "\u25810x4df0": 3087,
    "\u25810x80c0": 3088,
    "\u2581resumethread": 3089,
    "\u25810x437808": 3090,
    "\u25810xd0": 3091,
    "artup": 3092,
    "\u25810x437806": 3093,
    "\u25810x43780a": 3094,
    "\u25810x43780c": 3095,
    "\u25810x43780e": 3096,
    "\u25810x437810": 3097,
    "\u25810x437812": 3098,
    "\u25810x437814": 3099,
    "\u25810x437816": 3100,
    "\u25810x437818": 3101,
    "\u25810x43781a": 3102,
    "\u25810x43781c": 3103,
    "\u25810x43781e": 3104,
    "\u2581createprocessw": 3105,
    "\u2581snapprocess": 3106,
    "\u25810x48f894": 3107,
    "\u25810x40f937": 3108,
    "\u25810x40b": 3109,
    "run": 3110,
    "\u25810x45fc": 3111,
    "cef": 3112,
    "\u2581comm": 3113,
    "\u25810x417a": 3114,
    "b88": 3115,
    "\u25815": 3116,
    "special": 3117,
    "\u2581shgetspecial": 3118,
    "408": 3119,
    "\u25810x8815": 3120,
    "\u25810x4c3": 3121,
    "extouta": 3122,
    "\u25810xa5": 3123,
    "68c": 3124,
    "\u2581sendmessagea": 3125,
    "49": 3126,
    "b190": 3127,
    "\u25810x12117a4": 3128,
    "\u25810x121157c": 3129,
    "\u25810x5265e": 3130,
    "\u25810x1211938": 3131,
    "f88": 3132,
    "folderw": 3133,
    "\u2581selectob": 3134,
    "74c": 3135,
    "\u2581registerwindow": 3136,
    "\u2581mpr": 3137,
    "ancel": 3138,
    "\u2581exitthread": 3139,
    "\u25810x5c": 3140,
    "nexec": 3141,
    "\u25810x1211e30": 3142,
    "\u25810xa8": 3143,
    "hread": 3144,
    "emutex": 3145,
    "foreground": 3146,
    "\u25810xffd3": 3147,
    "ervicehandle": 3148,
    "foregroundwindow": 3149,
    "\u2581closeservicehandle": 3150,
    "\u2581releasemutex": 3151,
    "\u2581unmap": 3152,
    "\u2581unmapviewoffile": 3153,
    "\u2581kk": 3154,
    "scmanag": 3155,
    "\u2581openscmanag": 3156,
    "servicestatus": 3157,
    "\u25810xffc6": 3158,
    "atethread": 3159,
    "\u25810x1210ee": 3160,
    "\u25810x1210f2": 3161,
    "f8000": 3162,
    "\u25810x20a": 3163,
    "\u25810xfeee0108": 3164,
    "localtime": 3165,
    "bas": 3166,
    "afile": 3167,
    "\u25810x598": 3168,
    "\u25810x7d50": 3169,
    "758": 3170,
    "\u2581di": 3171,
    "dup": 3172,
    "lid": 3173,
    "\u25810x4bd0": 3174,
    "\u2581terminatethread": 3175,
    "\u2581accept": 3176,
    "want": 3177,
    "\u25810x42b190": 3178,
    "\u25810x42eace": 3179,
    "\u2581allocate": 3180,
    "\u2581winexec": 3181,
    "\u25810x4115": 3182,
    "\u25810x52665": 3183,
    "\u25810xa4": 3184,
    "\u25810xfeed": 3185,
    "esid": 3186,
    "andinitializ": 3187,
    "andinitializesid": 3188,
    "\u2581allocateandinitializesid": 3189,
    "\u2581localfree": 3190,
    "direct": 3191,
    "edex": 3192,
    "usp": 3193,
    "\u2581textouta": 3194,
    "\u2581setbkcolor": 3195,
    "\u25810x4c51": 3196,
    "edexchange": 3197,
    "\u2581interlockedexchange": 3198,
    "69c": 3199,
    "\u25810x51af": 3200,
    "\u2581getdi": 3201,
    "\u25810x100000": 3202,
    "\u25810x7ed0": 3203,
    "\u2581geticon": 3204,
    "licence": 3205,
    "\u25810x7300": 3206,
    "\u25810xaa": 3207,
    "\u25810x409a": 3208,
    "e6c": 3209,
    "yarg1": 3210,
    "\u25810xfff5": 3211,
    "\u2581openscmanagerw": 3212,
    "\u2581conne": 3213,
    "\u25810x97a0": 3214,
    "\u2581dispatchmessagea": 3215,
    "\u25810x4162": 3216,
    "\u25810x405": 3217,
    "\u25810xffc5": 3218,
    "\u25810x7ec4": 3219,
    "\u25810x7ec5": 3220,
    "\u2581createservice": 3221,
    "\u25810x53000000": 3222,
    "\u2581openservicew": 3223,
    "\u2581bit": 3224,
    "\u25810x44d4": 3225,
    "\u25816": 3226,
    "\u25810x7900": 3227,
    "\u2581starts": 3228,
    "dispatch": 3229,
    "\u2581setservicestatus": 3230,
    "\u2581startservicectrl": 3231,
    "\u2581startservicectrldispatch": 3232,
    "\u2581startservicew": 3233,
    "488": 3234,
    "\u2581deletedc": 3235,
    "\u2581createcompatibledc": 3236,
    "001": 3237,
    "e4000": 3238,
    "\u2581copyfilew": 3239,
    "ene": 3240,
    "\u2581findwindowa": 3241,
    "\u2581startservicectrldispatcherw": 3242,
    "exit": 3243,
    "\u2581closesocket": 3244,
    "\u2581createservicew": 3245,
    "new": 3246,
    "opene": 3247,
    "ac8": 3248,
    "\u25810x90f0": 3249,
    "\u2581createf": 3250,
    "search": 3251,
    "enthread": 3252,
    "the": 3253,
    "\u2581bitblt": 3254,
    "searchmode": 3255,
    "\u2581setsearchmode": 3256,
    "longa": 3257,
    "\u2581openthread": 3258,
    "\u2581drawtexta": 3259,
    "a48": 3260,
    "\u25810xffab": 3261,
    "\u2581createcompatiblebitmap": 3262,
    "aterect": 3263,
    "\u25810x99e0": 3264,
    "ateprocess": 3265,
    "\u25810x12110": 3266,
    "\u2581settext": 3267,
    "\u2581setprocess": 3268,
    "\u2581comparestringw": 3269,
    "\u2581shgetspecialfolderw": 3270,
    "profile": 3271,
    "\u2581htons": 3272,
    "\u25810x78a0": 3273,
    "\u2581setwindowpos": 3274,
    "\u2581getforegroundwindow": 3275,
    "\u25810x181c": 3276,
    "\u2581susp": 3277,
    "\u25810x7ec8": 3278,
    "\u25810x7ec9": 3279,
    "\u2581registerclassa": 3280,
    "\u25810x437c": 3281,
    "\u2581socket": 3282,
    "\u25810xffac": 3283,
    "\u2581suspend": 3284,
    "\u2581getlocaltime": 3285,
    "\u2581suspendthread": 3286,
    "\u25810x1211f74": 3287,
    "98c": 3288,
    "\u2581freesid": 3289,
    "tic": 3290,
    "\u25810x431f": 3291,
    "\u25810xffcc": 3292,
    "160": 3293,
    "\u2581settextcolor": 3294,
    "\u2581getob": 3295,
    "\u25810x4c4230": 3296,
    "\u25810x1211f78": 3297,
    "\u25810x42a730": 3298,
    "\u25810x42a731": 3299,
    "\u25810x4c4248": 3300,
    "\u25810x4c4260": 3301,
    "\u25810x4c4278": 3302,
    "\u25810x4c4290": 3303,
    "\u25810x4c42a8": 3304,
    "\u25810x4c4320": 3305,
    "\u25810x4c4338": 3306,
    "\u25810x4c4350": 3307,
    "\u25810x4c4368": 3308,
    "\u2581getdibits": 3309,
    "\u2581of": 3310,
    "\u2581unhandledexceptionfilter": 3311,
    "a84": 3312,
    "\u2581wsast": 3313,
    "\u2581wsastartup": 3314,
    "once": 3315,
    "olid": 3316,
    "\u25810xffd0": 3317,
    "ols": 3318,
    "\u25810x40a93": 3319,
    "f0c": 3320,
    "lete": 3321,
    "\u2581settimer": 3322,
    "\u2581loadresource": 3323,
    "\u2581getkeyboardtype": 3324,
    "dep": 3325,
    "\u25810x429a81": 3326,
    "ontindirect": 3327,
    "\u2581createfontindirect": 3328,
    "\u25810xa3": 3329,
    "\u25810x7edc": 3330,
    "\u25810x1210e4": 3331,
    "\u25810x1211c08": 3332,
    "6b2": 3333,
    "\u25810x44280": 3334,
    "\u25810x41a0": 3335,
    "\u25810x437ae4": 3336,
    "\u25810x1211f18": 3337,
    "\u25810x437207": 3338,
    "\u25810x437208": 3339,
    "\u25810x437ad2": 3340,
    "\u25810x437ad3": 3341,
    "\u25810x437ae3": 3342,
    "\u25810x437b63": 3343,
    "\u25810x437b64": 3344,
    "\u25810x437b7b": 3345,
    "\u25810x437b7c": 3346,
    "\u25810x437bbd": 3347,
    "\u25810x437bbe": 3348,
    "\u25810x437bce": 3349,
    "\u25810x437bcf": 3350,
    "\u25810x437c42": 3351,
    "\u25810x437c43": 3352,
    "olidbrush": 3353,
    "\u2581createsolidbrush": 3354,
    "e54": 3355,
    "ais": 3356,
    "00210": 3357,
    "\u25810x4c5158": 3358,
    "\u25810x1210ed": 3359,
    "\u25810x429e2b": 3360,
    "\u25810x429e2c": 3361,
    "\u25810x434d1c": 3362,
    "\u25810x43b7a9": 3363,
    "\u25810x43b7aa": 3364,
    "\u25810x43b7b8": 3365,
    "\u25810x422ebe": 3366,
    "\u25810x43b7b3": 3367,
    "\u25810x43b7b4": 3368,
    "\u25810x43b7ba": 3369,
    "\u25810x43b7c4": 3370,
    "\u25810x7ecc": 3371,
    "\u25810x7ecd": 3372,
    "\u25810xbc": 3373,
    "\u25810x42d4": 3374,
    "metafile": 3375,
    "\u2581message": 3376,
    "287e": 3377,
    "\u2581getusernamew": 3378,
    "\u25810x95": 3379,
    "\u25810x7ed1": 3380,
    "920": 3381,
    "\u2581connect": 3382,
    "\u25810x3f75f60": 3383,
    "\u2581invalidaterect": 3384,
    "\u2581fill": 3385,
    "\u25810x41e": 3386,
    "\u25810x4169": 3387,
    "utdown": 3388,
    "empty": 3389,
    "\u25810x4e50": 3390,
    "\u25810x1210fb": 3391,
    "ok": 3392,
    "\u2581wsprintfa": 3393,
    "\u25810x1211f40": 3394,
    "\u25810x433648": 3395,
    "\u2581getkeystate": 3396,
    "xit": 3397,
    "\u25810x4967a8": 3398,
    "\u2581gethost": 3399,
    "\u25810x42d8c6": 3400,
    "yarg2": 3401,
    "\u2581exed": 3402,
    "\u2581terminateprocess": 3403,
    "\u2581getlogicaldrivestringsw": 3404,
    "\u2581bind": 3405,
    "\u2581getclass": 3406,
    "\u2581getwindow": 3407,
    "\u25810x42fb": 3408,
    "\u2581exedows": 3409,
    "lipboar": 3410,
    "openenum": 3411,
    "\u2581wnetopenenum": 3412,
    "\u2581wnetopenenumw": 3413,
    "\u2581initializeconditionvariable": 3414,
    "\u25810x51000": 3415,
    "licy": 3416,
    "ddata": 3417,
    "lipboarddata": 3418,
    "e68": 3419,
    "policy": 3420,
    "\u25810x40b8": 3421,
    "\u2581messagebox": 3422,
    "\u2581destroyicon": 3423,
    "\u25810x4de": 3424,
    "ecta": 3425,
    "\u25810x3f30": 3426,
    "\u2581createfontindirecta": 3427,
    "\u25810x421": 3428,
    "byname": 3429,
    "\u25810x5265f": 3430,
    "\u2581gethostbyname": 3431,
    "\u25810x7dc8": 3432,
    "\u25810x40a582": 3433,
    "\u25810x40a584": 3434,
    "\u25810x40a586": 3435,
    "\u25810x40a588": 3436,
    "\u25810x40a58a": 3437,
    "hip": 3438,
    "\u25810x40a580": 3439,
    "\u2581getwindowsdirectorya": 3440,
    "\u25810x40a57e": 3441,
    "\u25810x7ed4": 3442,
    "\u25810x7ed5": 3443,
    "b44": 3444,
    "\u25810x2ac": 3445,
    "members": 3446,
    "contr": 3447,
    "\u25810x1b2": 3448,
    "\u25810x7ed8": 3449,
    "\u25810x7ed9": 3450,
    "deppolicy": 3451,
    "\u25810x52000": 3452,
    "membership": 3453,
    "\u2581checktoken": 3454,
    "\u2581checktokenmembership": 3455,
    "\u25810x84b0": 3456,
    "\u2581wnetadd": 3457,
    "\u2581wnetenum": 3458,
    "\u2581wnetenumresourcew": 3459,
    "\u25810x490": 3460,
    "\u2581wnetaddconnection2w": 3461,
    "\u25810x3f75f30": 3462,
    "\u2581setprocessdeppolicy": 3463,
    "\u2581fillrect": 3464,
    "\u2581createdib": 3465,
    "\u25810x7340": 3466,
    "\u25810x1211968": 3467,
    "\u25810x8310": 3468,
    "\u25810x1211dd0": 3469,
    "\u2581loadlibraryexa": 3470,
    "\u2581getp": 3471,
    "\u25810x44f910": 3472,
    "\u2581createdibsection": 3473,
    "setinformation": 3474,
    "cancel": 3475,
    "ernet": 3476,
    "\u25810x7edd": 3477,
    "ac4": 3478,
    "losec": 3479,
    "\u2581wnetcancel": 3480,
    "\u2581wnetcancelconnection2w": 3481,
    "f8c": 3482,
    "\u25810x12118f8": 3483,
    "184": 3484,
    "b8c": 3485,
    "\u25810xffd2": 3486,
    "\u25810x430880": 3487,
    "e50000": 3488,
    "\u25810x1211f10": 3489,
    "\u25810x40c": 3490,
    "c8d": 3491,
    "\u25810x9b": 3492,
    "\u2581setclass": 3493,
    "e61": 3494,
    "\u2581geticoninfo": 3495,
    "\u25810x235": 3496,
    "\u2581drawicon": 3497,
    "\u2581getkeyboardstate": 3498,
    "\u2581no": 3499,
    "\u25810x419c20": 3500,
    "\u2581openclipboard": 3501,
    "\u2581setclipboarddata": 3502,
    "608": 3503,
    "\u2581empty": 3504,
    "\u2581closec": 3505,
    "\u2581closeclipboard": 3506,
    "\u25810x93": 3507,
    "\u25810x1211f70": 3508,
    "\u2581emptyclipboard": 3509,
    "\u2581rais": 3510,
    "\u25810x7ee4": 3511,
    "\u2581raiseex": 3512,
    "\u2581raiseexception": 3513,
    "emory": 3514,
    "\u2581shellexecut": 3515,
    "ownload": 3516,
    "\u25810x7ee5": 3517,
    "ream": 3518,
    "\u2581setclasslonga": 3519,
    "\u2581ofresource": 3520,
    "\u2581findresourcew": 3521,
    "unction": 3522,
    "\u2581getcomputer": 3523,
    "eer": 3524,
    "zer": 3525,
    "\u25810xcf0000": 3526,
    "100": 3527,
    "\u2581heapsetinformation": 3528,
    "\u2581extractassociatedicona": 3529,
    "\u2581extractassociatediconw": 3530,
    "\u25810x4960": 3531,
    "\u2581list": 3532,
    "\u25810x41c0": 3533,
    "\u2581shellexecuteexw": 3534,
    "f72": 3535,
    "geo": 3536,
    "\u258117": 3537,
    "\u2581shutdown": 3538,
    "zerom": 3539,
    "\u25810x7270": 3540,
    "\u25810x7eab": 3541,
    "\u25810xffad": 3542,
    "\u2581rtlzerom": 3543,
    "\u2581rtlzeromemory": 3544,
    "ae20": 3545,
    "\u25810x7ee1": 3546,
    "301": 3547,
    "ecc": 3548,
    "\u2581findwindowexa": 3549,
    "\u25810x4c3308": 3550,
    "dateresourcew": 3551,
    "\u2581registerservicectrlhandlerw": 3552,
    "242": 3553,
    "\u2581endup": 3554,
    "\u25810x4e30": 3555,
    "\u25810xffef": 3556,
    "bad8": 3557,
    "\u25810x1210f6": 3558,
    "\u2581updateresourcea": 3559,
    "\u2581endupdateresourcea": 3560,
    "\u2581beginupdateresourcea": 3561,
    "geoid": 3562,
    "\u2581getusergeoid": 3563,
    "\u25810x509": 3564,
    "\u2581beginupdateresourcew": 3565,
    "\u2581htonl": 3566,
    "lication": 3567,
    "\u25810x42992": 3568,
    "ticonex": 3569,
    "\u2581extracticonex": 3570,
    "octls": 3571,
    "\u2581ioctls": 3572,
    "\u2581ioctlsocket": 3573,
    "\u2581extracticonexw": 3574,
    "\u25810x41a": 3575,
    "inity": 3576,
    "ffc": 3577,
    "\u2581txt": 3578,
    "\u2581listen": 3579,
    "104": 3580,
    "ill": 3581,
    "\u25810x1e00000": 3582,
    "\u25810x1e50000": 3583,
    "\u2581cb": 3584,
    "\u25810x9a": 3585,
    "affinity": 3586,
    "affinitymask": 3587,
    "\u25810xffc4": 3588,
    "cp": 3589,
    "\u25810x7da0": 3590,
    "\u25810xb0000": 3591,
    "\u25810x41bc20": 3592,
    "\u25810x78d0": 3593,
    "eername": 3594,
    "\u25810x2439f": 3595,
    "\u2581corexit": 3596,
    "\u2581getpeername": 3597,
    "\u2581corexitprocess": 3598,
    "a5c": 3599,
    "\u25810x40a5ac": 3600,
    "\u25810x7d98": 3601,
    "\u25810x7d99": 3602,
    "\u25810x2ac45": 3603,
    "\u25810x7b000": 3604,
    "\u25810x4290": 3605,
    "\u25810x40287e": 3606,
    "f4c": 3607,
    "484": 3608,
    "\u25810x7df4": 3609,
    "\u25810x1211e24": 3610,
    "\u2581lockresource": 3611,
    "504": 3612,
    "\u25810x7d9c": 3613,
    "\u25810x7df5": 3614,
    "\u25810x7d9d": 3615,
    "fied": 3616,
    "\u25810x7a10": 3617,
    "1d8": 3618,
    "\u25810x100b": 3619,
    "\u25810x403": 3620,
    "\u25810x7870": 3621,
    "\u25810x7da1": 3622,
    "\u25810x502": 3623,
    "3c4": 3624,
    "meto": 3625,
    "sw": 3626,
    "erat": 3627,
    "\u25810x7060": 3628,
    "\u2581ob": 3629,
    "controls": 3630,
    "imeto": 3631,
    "\u25810xffe3": 3632,
    "\u25810x1211ccc": 3633,
    "ts": 3634,
    "\u2581getprocessaffinitymask": 3635,
    "\u25810x59b": 3636,
    "904": 3637,
    "metafilebits": 3638,
    "\u25810xffc2": 3639,
    "\u25810xffe2": 3640,
    "myarg2": 3641,
    "\u25810x1211d14": 3642,
    "40c": 3643,
    "\u25810xffec": 3644,
    "\u25810x414": 3645,
    "ff0": 3646,
    "\u25810x4a20": 3647,
    "\u25810x2100210": 3648,
    "\u25810x40b3": 3649,
    "\u25810xffe7": 3650,
    "stream": 3651,
    "\u2581net": 3652,
    "\u25810xad": 3653,
    "yarg1myarg2": 3654,
    "\u25810x71b0": 3655,
    "\u25810xffae": 3656,
    "ccc": 3657,
    "\u25810x56bad8": 3658,
    "\u25810x45f1": 3659,
    "\u25810x7da4": 3660,
    "\u25810x41d114": 3661,
    "\u25810x120f8c2": 3662,
    "\u2581registerclassexw": 3663,
    "\u25810x428": 3664,
    "ee4": 3665,
    "infow": 3666,
    "\u2581cadwork": 3667,
    "204": 3668,
    "wind": 3669,
    "409": 3670,
    "e8c": 3671,
    "\u25810xffaf": 3672,
    "\u2581at": 3673,
    "vice": 3674,
    "\u25810x42e5c8": 3675,
    "\u25810x42e5e0": 3676,
    "\u25810x42d": 3677,
    "\u25810x20009": 3678,
    "\u25810x58000": 3679,
    "\u25810x4df": 3680,
    "\u25810x1211de4": 3681,
    "a41": 3682,
    "\u25810x8260": 3683,
    "\u25810x42ce10": 3684,
    "a10": 3685,
    "wantto": 3686,
    "005": 3687,
    "\u25810x43f0": 3688,
    "unwind": 3689,
    "\u2581rtlunwind": 3690,
    "\u2581202": 3691,
    "\u25810xff90": 3692,
    "\u25810x51c4": 3693,
    "\u25810x59c1": 3694,
    "\u25810x8280": 3695,
    "\u25810x7da5": 3696,
    "\u25810x49c8": 3697,
    "\u25810x40ef1": 3698,
    "d4c": 3699,
    "656c": 3700,
    "\u25810x42e598": 3701,
    "\u25810x1211a00": 3702,
    "\u25810xa6": 3703,
    "\u2581sr": 3704,
    "9c2": 3705,
    "\u2581device": 3706,
    "700": 3707,
    "\u25810x7af0": 3708,
    "\u25810x51b": 3709,
    "\u2581golfset": 3710,
    "a4c": 3711,
    "\u25810xb0": 3712,
    "f70": 3713,
    "768": 3714,
    "\u25810x80e0": 3715,
    "\u25810xff91": 3716,
    "\u25810x1211a14": 3717,
    "b60": 3718,
    "inmetafilebits": 3719,
    "\u25810x1211ef8": 3720,
    "\u25810x7db4": 3721,
    "\u25810x7b10": 3722,
    "5c0": 3723,
    "\u25810x7db5": 3724,
    "\u25810x71a0": 3725,
    "\u25810xfeee012": 3726,
    "f84": 3727,
    "ram": 3728,
    "qa": 3729,
    "\u25810x1210f9": 3730,
    "d8000": 3731,
    "\u25810xffc3": 3732,
    "ogram": 3733,
    "382": 3734,
    "\u25810x7390": 3735,
    "\u25810x1211f84": 3736,
    "439": 3737,
    "748": 3738,
    "798": 3739,
    "\u2581tmp": 3740,
    "\u2581remov": 3741,
    "ad4": 3742,
    "dc0": 3743,
    "\u25810xb000": 3744,
    "\u2581setenvironment": 3745,
    "\u25810x7b40": 3746,
    "\u25810x3f3000": 3747,
    "dos": 3748,
    "\u25810x4d50": 3749,
    "\u25810x79c0": 3750,
    "a30": 3751,
    "\u2581acquiresrwlockexclusive": 3752,
    "\u25810x46a0": 3753,
    "\u25810x44d4b8": 3754,
    "\u25810x7da8": 3755,
    "\u25810x1211f1c": 3756,
    "697": 3757,
    "\u25810x42bf": 3758,
    "\u25810xfff4": 3759,
    "\u25810x78c0": 3760,
    "\u25810x79a0": 3761,
    "coree": 3762,
    "\u2581install": 3763,
    "\u2581mscoree": 3764,
    "\u25810x406": 3765,
    "\u2581getwinmetafilebits": 3766,
    "\u25810x1211e20": 3767,
    "ink": 3768,
    "delete": 3769,
    "\u25810x75d0": 3770,
    "\u2581shellexecutew": 3771,
    "ec4": 3772,
    "\u25810x42f": 3773,
    "\u25810x60c6": 3774,
    "\u2581getcomputernamea": 3775,
    "len": 3776,
    "\u25810x107": 3777,
    "\u25810x4201": 3778,
    "\u25810xc0": 3779,
    "\u25810x1f000": 3780,
    "\u25810x417d": 3781,
    "\u25810x7030": 3782,
    "\u25810x7da9": 3783,
    "\u25810x4cb0": 3784,
    "\u25810x7ef0": 3785,
    "\u25810x12112f8": 3786,
    "720": 3787,
    "\u25810x4096": 3788,
    "\u25810x5658": 3789,
    "\u25810x4318": 3790,
    "e5c": 3791,
    "\u25810x4e3": 3792,
    "\u25810x8090": 3793,
    "\u25812022030": 3794,
    "\u25810x1210c": 3795,
    "function": 3796,
    "d44": 3797,
    "\u2581getdiskfreespaceexw": 3798,
    "bd0": 3799,
    "\u2581ntquery": 3800,
    "edirectory": 3801,
    "728": 3802,
    "\u2581createsemaphore": 3803,
    "\u25810x1211f24": 3804,
    "\u25810x1211f80": 3805,
    "\u2581dragob": 3806,
    "\u25810x1211f97": 3807,
    "\u25810x4088": 3808,
    "\u25810x7a50": 3809,
    "15c": 3810,
    "\u25810x7750": 3811,
    "\u2581noaccess": 3812,
    "66c": 3813,
    "be8": 3814,
    "\u2581download": 3815,
    "\u25810x74e0": 3816,
    "\u25810x41de": 3817,
    "aaaaaaaa": 3818,
    "\u25810x107538": 3819,
    "adm": 3820,
    "\u2581srand": 3821,
    "download": 3822,
    "\u25810x45f2": 3823,
    "\u25810x71e0": 3824,
    "\u25810x7cf0": 3825,
    "fromstream": 3826,
    "\u25810x42fc38": 3827,
    "\u25810x47f0": 3828,
    "\u25810x437820": 3829,
    "was": 3830,
    "\u2581he": 3831,
    "accel": 3832,
    "\u25810x120e6d4": 3833,
    "\u2581createwindow": 3834,
    "\u25810x416c": 3835,
    "\u25810x437804": 3836,
    "\u2581shfolder": 3837,
    "\u25810x42c4f0": 3838,
    "\u2581releases": 3839,
    "\u2581createwindowexw": 3840,
    "\u2581wts": 3841,
    "\u25810x4554": 3842,
    "\u2581memcpy": 3843,
    "\u2581lstrcpya": 3844,
    "\u2581setcurrent": 3845,
    "\u25810x6e": 3846,
    "\u25810x4cf": 3847,
    "\u25810x7210": 3848,
    "\u25810x7ae0": 3849,
    "\u25810x42ae20": 3850,
    "\u25810x7600": 3851,
    "\u25810x72d0": 3852,
    "\u2581memset": 3853,
    "\u25810x107598": 3854,
    "\u25810xffdd": 3855,
    "\u25810x42fbf0": 3856,
    "\u25810x566a40": 3857,
    "ned": 3858,
    "itors": 3859,
    "\u25810x7a20": 3860,
    "\u25810x4614": 3861,
    "fc2": 3862,
    "284": 3863,
    "\u25810x1210e6": 3864,
    "\u25810x107658": 3865,
    "124": 3866,
    "\u25810x7230": 3867,
    "\u2581registerwindowmessagew": 3868,
    "\u25810x7ff": 3869,
    "\u25810x7240": 3870,
    "\u25810x9010": 3871,
    "\u25810x41c044": 3872,
    "\u25810x42aa58": 3873,
    "owned": 3874,
    "\u2581work": 3875,
    "\u25810x75a0": 3876,
    "\u25810x7660": 3877,
    "\u2581oleload": 3878,
    "\u2581oleloadfromstream": 3879,
    "\u2581are": 3880,
    "670": 3881,
    "cc000": 3882,
    "inki": 3883,
    "e84": 3884,
    "\u2581version": 3885,
    "\u25810x120faa8": 3886,
    "984": 3887,
    "\u2581doy": 3888,
    "\u25810x7720": 3889,
    "edit": 3890,
    "\u25810x7180": 3891,
    "\u2581hels": 3892,
    "\u2581helsinki": 3893,
    "\u25810x7480": 3894,
    "\u25810x7570": 3895,
    "\u25810x76f0": 3896,
    "\u25810x10e9": 3897,
    "\u25810x76c0": 3898,
    "\u2581regquery": 3899,
    "928": 3900,
    "you": 3901,
    "\u25810x7ba0": 3902,
    "\u25810x54000": 3903,
    "\u25810x107688": 3904,
    "\u25810x7330": 3905,
    "ad8": 3906,
    "\u25810x7120": 3907,
    "718": 3908,
    "\u25810x5265c28": 3909,
    "\u25810x4010": 3910,
    "\u25810x70c0": 3911,
    "\u25810xac": 3912,
    "\u25810x74b0": 3913,
    "\u25810x77b0": 3914,
    "f58": 3915,
    "\u25810x1210f1": 3916,
    "\u25810x9d": 3917,
    "\u25810x7510": 3918,
    "\u25810x7360": 3919,
    "accelerat": 3920,
    "dl": 3921,
    "\u25810x1211f44": 3922,
    "ivate": 3923,
    "\u25810x4828": 3924,
    "\u25810x4912": 3925,
    "\u25810x7840": 3926,
    "344": 3927,
    "884": 3928,
    "ef0": 3929,
    "\u25810x7990": 3930,
    "\u25810x7960": 3931,
    "\u2581vc": 3932,
    "\u25810x401": 3933,
    "\u25810x7420": 3934,
    "if": 3935,
    "d78": 3936,
    "434": 3937,
    "\u25810xab": 3938,
    "\u25810x7450": 3939,
    "\u25810x169bf64": 3940,
    "\u25810x438": 3941,
    "\u25810x73c0": 3942,
    "\u25810x70a8": 3943,
    "\u25810x7dac": 3944,
    "\u25810x7dad": 3945,
    "\u25810x40a59c": 3946,
    "notin": 3947,
    "00b": 3948,
    "\u25810x169": 3949,
    "private": 3950,
    "\u25810x70f0": 3951,
    "\u25810xffc1": 3952,
    "locknot": 3953,
    "\u25810x6a": 3954,
    "f30": 3955,
    "\u25810x5e": 3956,
    "itorsup": 3957,
    "\u25810x7630": 3958,
    "itialized": 3959,
    "ectlocknot": 3960,
    "\u2581monitorsup": 3961,
    "functionnotin": 3962,
    "ectlocknotowned": 3963,
    "functionnotinitialized": 3964,
    "\u2581monitorsupfunctionnotinitialized": 3965,
    "privateprofile": 3966,
    "\u25810x42ef": 3967,
    "\u2581getsyscolorbrush": 3968,
    "\u25810x7c40": 3969,
    "\u25810x96": 3970,
    "ab4": 3971,
    "data": 3972,
    "340": 3973,
    "f7c": 3974,
    "izn": 3975,
    "iznadm": 3976,
    "\u2581triznadm": 3977,
    "\u2581oleinitialize": 3978,
    "\u25810x120e6d8": 3979,
    "358": 3980,
    "mut": 3981,
    "\u2581dw": 3982,
    "filewas": 3983,
    "\u25810x7780": 3984,
    "\u25810xffc7": 3985,
    "\u25810x169bf74": 3986,
    "9c0": 3987,
    "\u25810x50850": 3988,
    "specified": 3989,
    "\u25810x1211d08": 3990,
    "\u2581gdip": 3991,
    "\u25810x455": 3992,
    "\u25810x7b70": 3993,
    "330": 3994,
    "34c": 3995,
    "vchost": 3996,
    "\u2581thespecified": 3997,
    "filewasnotfound": 3998,
    "\u2581thespecifiedfilewasnotfound": 3999,
    "mb": 4000,
    "\u25810x41eb": 4001,
    "\u2581svchost": 4002,
    "\u25810x1075c8": 4003,
    "\u25810x1075f8": 4004,
    "\u25810x107628": 4005,
    "\u25810x1211bd0": 4006,
    "\u25810x188e00": 4007,
    "d68": 4008,
    "\u25810x411": 4009,
    "a0f": 4010,
    "\u25810x140": 4011,
    "\u2581openmut": 4012,
    "\u25810x3f4000": 4013,
    "b4c": 4014,
    "\u25810x7f10": 4015,
    "\u25810x4990": 4016,
    "acd": 4017,
    "ed000": 4018,
    "\u25819": 4019,
    "will": 4020,
    "\u25810x188d3c": 4021,
    "435": 4022,
    "\u25810x678": 4023,
    "\u25810x1211db8": 4024,
    "\u25810x1211e18": 4025,
    "\u25810x7db1": 4026,
    "\u25810x8820": 4027,
    "b14": 4028,
    "888": 4029,
    "d4000": 4030,
    "\u25810x4086": 4031,
    "systeminformation": 4032,
    "base": 4033,
    "b84": 4034,
    "00f": 4035,
    "704": 4036,
    "990": 4037,
    "\u25810x4076": 4038,
    "\u25810x4130": 4039,
    "\u25810x42c5d0": 4040,
    "av": 4041,
    "70c": 4042,
    "\u2581getcurrentdirectorya": 4043,
    "\u25810x4470": 4044,
    "12c": 4045,
    "120": 4046,
    "e5000": 4047,
    "3c0": 4048,
    "runtime": 4049,
    "\u25810x644": 4050,
    "\u25810x120f": 4051,
    "\u25810x88e0": 4052,
    "\u25810x188e24": 4053,
    "ession": 4054,
    "\u25810x5c000": 4055,
    "\u25810xfc": 4056,
    "\u25810x42efe8": 4057,
    "runtime140": 4058,
    "\u2581vcruntime140": 4059,
    "437": 4060,
    "\u25810x4319": 4061,
    "\u25810x525b": 4062,
    "f5c": 4063,
    "\u25810x45f4": 4064,
    "\u2581mov": 4065,
    "\u25810x4700": 4066,
    "\u25810x7d20": 4067,
    "\u2581strcmp": 4068,
    "\u2581string": 4069,
    "b0c": 4070,
    "oem": 4071,
    "\u2581pleas": 4072,
    "\u25810x2439f74": 4073,
    "\u25810x11000": 4074,
    "d18": 4075,
    "\u25810x62": 4076,
    "\u25810x71c0": 4077,
    "\u25810x42b9": 4078,
    "olfp": 4079,
    "500000": 4080,
    "\u2581controlfp": 4081,
    "a02": 4082,
    "\u2581aaa": 4083,
    "\u25810x1211ec8": 4084,
    "\u25810xaf": 4085,
    "d84": 4086,
    "\u25810x4e80": 4087,
    "\u2581regedit": 4088,
    "\u258174": 4089,
    "\u25810x10e9bc": 4090,
    "c8000": 4091,
    "\u25810xf0": 4092,
    "\u25810x407": 4093,
    "\u25810x30000": 4094,
    "d6c": 4095,
    "\u25810x8f70": 4096,
    "\u25810x66": 4097,
    "bf0": 4098,
    "\u25810x4232": 4099,
    "\u2581commode": 4100,
    "\u2581findfirstfilea": 4101,
    "\u25810x7070": 4102,
    "\u25810x181": 4103,
    "\u2581openmutexa": 4104,
    "\u25810x4111": 4105,
    "dat": 4106,
    "\u25810x63000000": 4107,
    "\u2581getclassinfoa": 4108,
    "\u2581sc": 4109,
    "958": 4110,
    "\u25810x4112": 4111,
    "2e0": 4112,
    "381": 4113,
    "ce000": 4114,
    "\u25810x7e0": 4115,
    "env": 4116,
    "\u25810x45f5": 4117,
    "\u25810x401000": 4118,
    "1c0": 4119,
    "a45": 4120,
    "heme": 4121,
    "\u2581uxt": 4122,
    "\u25810x22e": 4123,
    "\u25810x45f3": 4124,
    "\u25810x7460": 4125,
    "\u2581uxtheme": 4126,
    "003": 4127,
    "\u25810x45f8": 4128,
    "\u25810x565": 4129,
    "\u25810x74d0": 4130,
    "544": 4131,
    "reque": 4132,
    "\u25810x415": 4133,
    "\u25810x45f6": 4134,
    "\u258112": 4135,
    "e10": 4136,
    "\u25810x45f7": 4137,
    "\u25810x45f9": 4138,
    "\u25810x7f03": 4139,
    "646d": 4140,
    "item": 4141,
    "ansi": 4142,
    "\u25810x45fa": 4143,
    "\u25810x169bf94": 4144,
    "\u2581ntquerysysteminformation": 4145,
    "\u25810x9f": 4146,
    "730": 4147,
    "afdi": 4148,
    "\u25810x480": 4149,
    "\u2581wsafdi": 4150,
    "\u25810x431998": 4151,
    "\u2581wsafdisset": 4152,
    "91c": 4153,
    "\u25810x7ee9": 4154,
    "\u25810xffde": 4155,
    "apis": 4156,
    "3a8": 4157,
    "dc000": 4158,
    "\u25810x45fe": 4159,
    "\u25810x422a0": 4160,
    "instal": 4161,
    "apisansi": 4162,
    "\u2581arefile": 4163,
    "\u2581arefileapisansi": 4164,
    "da000": 4165,
    "f6000": 4166,
    "fc000": 4167,
    "\u25810x569": 4168,
    "\u25810x40ab": 4169,
    "\u25810x8818": 4170,
    "\u25810x8819": 4171,
    "310": 4172,
    "\u25810x60c690": 4173,
    "de000": 4174,
    "f3000": 4175,
    "\u25810x4601": 4176,
    "e8000": 4177,
    "\u25810x45fd": 4178,
    "\u25810x8830": 4179,
    "alogs": 4180,
    "\u25810x1f0001": 4181,
    "\u25810x45ff": 4182,
    "\u2581setthreadlocale": 4183,
    "ec000": 4184,
    "f85": 4185,
    "\u25810x44000": 4186,
    "\u25810x7620": 4187,
    "\u25810x7dc0": 4188,
    "\u25810x4305b0": 4189,
    "\u2581getoem": 4190,
    "\u2581remove": 4191,
    "vis": 4192,
    "\u25810x7cb0": 4193,
    "\u25810x881c": 4194,
    "\u25810x881d": 4195,
    "\u25810x42b964": 4196,
    "\u2581getoemcp": 4197,
    "d8c": 4198,
    "\u2581exem": 4199,
    "\u2581exemyarg1myarg2": 4200,
    "d6000": 4201,
    "\u2581getsecurityinfo": 4202,
    "\u25810x8821": 4203,
    "\u25810x70e0": 4204,
    "9f0": 4205,
    "\u2581messageboxa": 4206,
    "pla": 4207,
    "\u2581log": 4208,
    "ff000": 4209,
    "\u25810x40b4": 4210,
    "\u25810x72d8": 4211,
    "\u25810x1211d30": 4212,
    "regi": 4213,
    "\u2581move": 4214,
    "\u25810x4c97": 4215,
    "a38": 4216,
    "\u25810xe00": 4217,
    "\u25810x7b60": 4218,
    "triesin": 4219,
    "\u2581setentriesin": 4220,
    "ee000": 4221,
    "sa": 4222,
    "\u25810x435000": 4223,
    "e6000": 4224,
    "bc5": 4225,
    "f46": 4226,
    "\u25810x40ac": 4227,
    "\u25810xfeee014": 4228,
    "fe000": 4229,
    "\u258115": 4230,
    "\u25810x7db9": 4231,
    "\u25810x423326": 4232,
    "\u25810x423327": 4233,
    "528": 4234,
    "78c": 4235,
    "\u25810x4179": 4236,
    "\u25810x7310": 4237,
    "\u25810x7380": 4238,
    "\u25810x7ee8": 4239,
    "unmapviewofsection": 4240,
    "\u25810x75b0": 4241,
    "\u25810x7770": 4242,
    "\u25810x424": 4243,
    "destroy": 4244,
    "\u25810x7db8": 4245,
    "\u25810x7038": 4246,
    "\u2581ntunmapviewofsection": 4247,
    "acla": 4248,
    "tp": 4249,
    "\u2581setentriesinacla": 4250,
    "\u25810x7b98": 4251,
    "\u25810x7a48": 4252,
    "\u258111": 4253,
    "common": 4254,
    "\u2581ntmapviewofsection": 4255,
    "\u25810x417c": 4256,
    "\u2581getdiskfreespaceexa": 4257,
    "\u2581initcommon": 4258,
    "\u2581setsecurityinfo": 4259,
    "\u2581initcommoncontrols": 4260,
    "statust": 4261,
    "\u25810x7118": 4262,
    "370": 4263,
    "iserror": 4264,
    "odos": 4265,
    "\u2581rtlnt": 4266,
    "odoserror": 4267,
    "\u2581rtlntstatust": 4268,
    "\u2581rtlntstatustodoserror": 4269,
    "\u25810x3f5000": 4270,
    "\u25810x71f8": 4271,
    "\u25810x7268": 4272,
    "502": 4273,
    "b5c": 4274,
    "\u25810x7188": 4275,
    "\u25810x7428": 4276,
    "\u25810x7888": 4277,
    "\u25810xca0000": 4278,
    "\u25810x77001000": 4279,
    "\u25810x77002000": 4280,
    "\u25810x77003000": 4281,
    "\u25810x77004000": 4282,
    "\u25810x77005000": 4283,
    "\u25810x77006000": 4284,
    "\u25810x77007000": 4285,
    "\u25810x77008000": 4286,
    "\u25810x77009000": 4287,
    "\u25810x7700a000": 4288,
    "\u25810x7700b000": 4289,
    "\u25810x7700c000": 4290,
    "\u25810x7700d000": 4291,
    "\u25810x7700e000": 4292,
    "\u25810x7700f000": 4293,
    "\u25810x77010000": 4294,
    "\u25810x77011000": 4295,
    "\u25810x77012000": 4296,
    "\u25810x77013000": 4297,
    "\u25810x77014000": 4298,
    "\u25810x77015000": 4299,
    "\u25810x77016000": 4300,
    "\u25810x77017000": 4301,
    "\u25810x77018000": 4302,
    "\u25810x77019000": 4303,
    "\u25810x7701a000": 4304,
    "\u25810x7701b000": 4305,
    "\u25810x7701c000": 4306,
    "\u25810x7701d000": 4307,
    "\u25810x7701e000": 4308,
    "\u25810x7701f000": 4309,
    "\u25810x77020000": 4310,
    "\u25810x77021000": 4311,
    "\u25810x77022000": 4312,
    "\u25810x77023000": 4313,
    "\u25810x77024000": 4314,
    "\u25810x77025000": 4315,
    "\u25810x77026000": 4316,
    "\u25810x77027000": 4317,
    "\u25810x77028000": 4318,
    "\u25810x77029000": 4319,
    "\u25810x7702a000": 4320,
    "\u25810x7702b000": 4321,
    "\u25810x7702c000": 4322,
    "\u25810x7702d000": 4323,
    "\u25810x7702e000": 4324,
    "\u25810x7702f000": 4325,
    "\u25810x77030000": 4326,
    "\u25810x77031000": 4327,
    "\u25810x77032000": 4328,
    "\u25810x77033000": 4329,
    "\u25810x77034000": 4330,
    "\u25810x77035000": 4331,
    "\u25810x77036000": 4332,
    "\u25810x77037000": 4333,
    "\u25810x77038000": 4334,
    "\u25810x77039000": 4335,
    "\u25810x7703a000": 4336,
    "\u25810x7703b000": 4337,
    "\u25810x7703c000": 4338,
    "\u25810x7703d000": 4339,
    "\u25810x7703e000": 4340,
    "\u25810x7703f000": 4341,
    "\u25810x77040000": 4342,
    "\u25810x77041000": 4343,
    "\u25810x77042000": 4344,
    "\u25810x77043000": 4345,
    "\u25810x77044000": 4346,
    "\u25810x77045000": 4347,
    "\u25810x77046000": 4348,
    "\u25810x77047000": 4349,
    "\u25810x77048000": 4350,
    "\u25810x77049000": 4351,
    "\u25810x7704a000": 4352,
    "\u25810x7704b000": 4353,
    "\u25810x7704c000": 4354,
    "\u25810x7704d000": 4355,
    "\u25810x7704e000": 4356,
    "\u25810x7704f000": 4357,
    "\u25810x77050000": 4358,
    "\u25810x77051000": 4359,
    "\u25810x77052000": 4360,
    "\u25810x77053000": 4361,
    "\u25810x77054000": 4362,
    "\u25810x77055000": 4363,
    "\u25810x77056000": 4364,
    "\u25810x77057000": 4365,
    "\u25810x77058000": 4366,
    "\u25810x77059000": 4367,
    "\u25810x7705a000": 4368,
    "\u25810x7705b000": 4369,
    "\u25810x7705c000": 4370,
    "\u25810x7705d000": 4371,
    "\u25810x7705e000": 4372,
    "\u25810x7705f000": 4373,
    "\u25810x77060000": 4374,
    "\u25810x77061000": 4375,
    "\u25810x77062000": 4376,
    "\u25810x77063000": 4377,
    "\u25810x77064000": 4378,
    "\u25810x77065000": 4379,
    "\u25810x77066000": 4380,
    "\u25810x77067000": 4381,
    "\u25810x77068000": 4382,
    "\u25810x77069000": 4383,
    "\u25810x7706a000": 4384,
    "\u25810x7706b000": 4385,
    "\u25810x7706c000": 4386,
    "\u25810x7706d000": 4387,
    "\u25810x7706e000": 4388,
    "\u25810x7706f000": 4389,
    "\u25810x77070000": 4390,
    "\u25810x77071000": 4391,
    "\u25810x77072000": 4392,
    "\u25810x77073000": 4393,
    "\u25810x77074000": 4394,
    "\u25810x77075000": 4395,
    "\u25810x77076000": 4396,
    "\u25810x77077000": 4397,
    "\u25810x77078000": 4398,
    "\u25810x77079000": 4399,
    "\u25810x7707a000": 4400,
    "\u25810x7707b000": 4401,
    "\u25810x7707c000": 4402,
    "\u25810x7707d000": 4403,
    "\u25810x7707e000": 4404,
    "\u25810x7707f000": 4405,
    "\u25810x77080000": 4406,
    "\u25810x77081000": 4407,
    "\u25810x77082000": 4408,
    "\u25810x77083000": 4409,
    "\u25810x77084000": 4410,
    "\u25810x77085000": 4411,
    "\u25810x77086000": 4412,
    "\u25810x77087000": 4413,
    "\u25810x77088000": 4414,
    "\u25810x77089000": 4415,
    "\u25810x7708a000": 4416,
    "\u25810x7708b000": 4417,
    "\u25810x7708c000": 4418,
    "\u25810x7708d000": 4419,
    "\u25810x7708e000": 4420,
    "\u25810x7708f000": 4421,
    "\u25810x77090000": 4422,
    "\u25810x77091000": 4423,
    "\u25810x77092000": 4424,
    "\u25810x77093000": 4425,
    "\u25810x77094000": 4426,
    "\u25810x77095000": 4427,
    "\u25810x77096000": 4428,
    "\u25810x77097000": 4429,
    "\u25810x77098000": 4430,
    "\u25810x77099000": 4431,
    "\u25810x7709a000": 4432,
    "\u25810x7709b000": 4433,
    "\u25810x7709c000": 4434,
    "\u25810x7709d000": 4435,
    "\u25810x7709e000": 4436,
    "\u25810x7709f000": 4437,
    "\u25810x770a0000": 4438,
    "\u25810x770a1000": 4439,
    "\u25810x770a2000": 4440,
    "\u25810x770a3000": 4441,
    "\u25810x770a4000": 4442,
    "\u25810x770a5000": 4443,
    "\u25810x770a6000": 4444,
    "\u25810x770a7000": 4445,
    "\u25810x770a8000": 4446,
    "\u25810x770a9000": 4447,
    "\u25810x770aa000": 4448,
    "\u25810x770ab000": 4449,
    "\u25810x770ac000": 4450,
    "\u25810x770ad000": 4451,
    "\u25810x770ae000": 4452,
    "\u25810x770af000": 4453,
    "\u25810x770b0000": 4454,
    "\u25810x770b1000": 4455,
    "\u25810x770b2000": 4456,
    "\u25810x770b3000": 4457,
    "\u25810x770b4000": 4458,
    "\u25810x770b5000": 4459,
    "\u25810x770b6000": 4460,
    "\u25810x770b7000": 4461,
    "\u25810x770b8000": 4462,
    "\u25810x770b9000": 4463,
    "\u25810x770ba000": 4464,
    "\u25810x770bb000": 4465,
    "\u25810x770bc000": 4466,
    "\u25810x770bd000": 4467,
    "\u25810x770be000": 4468,
    "\u25810x770bf000": 4469,
    "\u25810x770c0000": 4470,
    "\u25810x770c1000": 4471,
    "\u25810x770c2000": 4472,
    "\u25810x770c3000": 4473,
    "\u25810x770c4000": 4474,
    "\u25810x770c5000": 4475,
    "\u25810x770c6000": 4476,
    "\u25810x770c7000": 4477,
    "\u25810x770c8000": 4478,
    "\u25810x770c9000": 4479,
    "\u25810x770ca000": 4480,
    "\u25810x770cb000": 4481,
    "\u25810x770cc000": 4482,
    "\u25810x770cd000": 4483,
    "\u25810x770ce000": 4484,
    "\u25810x770cf000": 4485,
    "\u25810x770d0000": 4486,
    "\u25810x770d1000": 4487,
    "\u25810x770d2000": 4488,
    "\u25810x770d3000": 4489,
    "\u25810x770d4000": 4490,
    "\u25810x770d5000": 4491,
    "\u25810x770d6000": 4492,
    "\u25810x770d7000": 4493,
    "\u25810x770d8000": 4494,
    "\u25810x770d9000": 4495,
    "\u25810x770da000": 4496,
    "\u25810x770db000": 4497,
    "\u25810x770dc000": 4498,
    "\u25810x770dd000": 4499,
    "\u25810x770de000": 4500,
    "\u25810x770df000": 4501,
    "\u25810x770e0000": 4502,
    "\u25810x770e1000": 4503,
    "\u25810x770e2000": 4504,
    "\u25810x770e3000": 4505,
    "\u25810x770e4000": 4506,
    "\u25810x770e5000": 4507,
    "\u25810x770e6000": 4508,
    "\u25810x770e7000": 4509,
    "\u25810x770e8000": 4510,
    "\u25810x770e9000": 4511,
    "\u25810x770ea000": 4512,
    "\u25810x770eb000": 4513,
    "\u25810x770ec000": 4514,
    "\u25810x770ed000": 4515,
    "\u25810x770ee000": 4516,
    "\u25810x770ef000": 4517,
    "\u25810x770f0000": 4518,
    "\u25810x770f1000": 4519,
    "\u25810x770f2000": 4520,
    "\u25810x770f3000": 4521,
    "\u25810x770f4000": 4522,
    "\u25810x770f5000": 4523,
    "\u25810x770f6000": 4524,
    "\u25810x770f7000": 4525,
    "\u25810x770f8000": 4526,
    "\u25810x770f9000": 4527,
    "\u25810x770fa000": 4528,
    "\u25810x770fb000": 4529,
    "\u25810x770fc000": 4530,
    "\u25810x770fd000": 4531,
    "\u25810x770fe000": 4532,
    "\u25810x770ff000": 4533,
    "\u25810x77100000": 4534,
    "\u25810x77101000": 4535,
    "\u25810x77102000": 4536,
    "\u25810x77103000": 4537,
    "\u25810x77104000": 4538,
    "\u25810x77105000": 4539,
    "\u25810x77106000": 4540,
    "\u25810x77107000": 4541,
    "\u25810x77108000": 4542,
    "\u25810x77109000": 4543,
    "\u25810x7710a000": 4544,
    "\u25810x7710b000": 4545,
    "\u25810x7710c000": 4546,
    "\u25810x7710d000": 4547,
    "\u25810x7710e000": 4548,
    "\u25810x7710f000": 4549,
    "\u25810x77110000": 4550,
    "\u25810x77111000": 4551,
    "\u25810x77112000": 4552,
    "\u25810x77113000": 4553,
    "\u25810x77114000": 4554,
    "\u25810x77115000": 4555,
    "\u25810x77116000": 4556,
    "\u25810x77117000": 4557,
    "\u25810x77118000": 4558,
    "\u25810x77119000": 4559,
    "\u25810x7711a000": 4560,
    "\u25810x7711b000": 4561,
    "\u25810x7711c000": 4562,
    "\u25810x7711d000": 4563,
    "\u25810x7711e000": 4564,
    "\u25810x7711f000": 4565,
    "\u25810x77120000": 4566,
    "\u25810x77121000": 4567,
    "\u25810x77122000": 4568,
    "\u25810x77123000": 4569,
    "\u25810x77124000": 4570,
    "\u25810x77125000": 4571,
    "\u25810x77126000": 4572,
    "\u25810x77127000": 4573,
    "\u25810x77128000": 4574,
    "\u25810x77129000": 4575,
    "\u25810x7712a000": 4576,
    "\u25810x7712b000": 4577,
    "\u25810x7712c000": 4578,
    "\u25810x7712d000": 4579,
    "\u25810x7712e000": 4580,
    "\u25810x7712f000": 4581,
    "\u25810x77130000": 4582,
    "\u25810x77131000": 4583,
    "\u25810x77132000": 4584,
    "\u25810x77133000": 4585,
    "\u25810x77134000": 4586,
    "\u25810x77135000": 4587,
    "\u25810x77136000": 4588,
    "\u25810x77137000": 4589,
    "\u25810x77138000": 4590,
    "\u25810x77139000": 4591,
    "\u25810x7713a000": 4592,
    "\u25810x7713b000": 4593,
    "\u25810x7713c000": 4594,
    "\u25810x7713d000": 4595,
    "\u25810x7713e000": 4596,
    "\u25810x7713f000": 4597,
    "\u25810x77140000": 4598,
    "\u25810x77141000": 4599,
    "\u25810x77142000": 4600,
    "\u25810x77143000": 4601,
    "\u25810x77144000": 4602,
    "\u25810x77145000": 4603,
    "\u25810x77146000": 4604,
    "\u25810x77147000": 4605,
    "\u25810x77148000": 4606,
    "\u25810x77149000": 4607,
    "\u25810x7714a000": 4608,
    "\u25810x7714b000": 4609,
    "\u25810x7714c000": 4610,
    "\u25810x7714d000": 4611,
    "\u25810x7714e000": 4612,
    "\u25810x7714f000": 4613,
    "\u25810x77150000": 4614,
    "\u25810x77151000": 4615,
    "\u25810x77152000": 4616,
    "\u25810x77153000": 4617,
    "\u25810x77154000": 4618,
    "\u25810x77155000": 4619,
    "\u25810x77156000": 4620,
    "\u25810x77157000": 4621,
    "\u25810x77158000": 4622,
    "\u25810x77159000": 4623,
    "\u25810x7715a000": 4624,
    "\u25810x7715b000": 4625,
    "\u25810x7715c000": 4626,
    "\u25810x7715d000": 4627,
    "\u25810x7715e000": 4628,
    "\u25810x7715f000": 4629,
    "\u25810x77160000": 4630,
    "\u25810x77161000": 4631,
    "\u25810x77162000": 4632,
    "\u25810x77163000": 4633,
    "\u25810x77164000": 4634,
    "\u25810x77165000": 4635,
    "\u25810x77166000": 4636,
    "\u25810x77167000": 4637,
    "\u25810x77168000": 4638,
    "\u25810x77169000": 4639,
    "\u25810x7716a000": 4640,
    "\u25810x7716b000": 4641,
    "\u25810x7716c000": 4642,
    "\u25810x7716d000": 4643,
    "\u25810x7716e000": 4644,
    "\u25810x7716f000": 4645,
    "\u25810x77170000": 4646,
    "\u25810x77171000": 4647,
    "\u25810x77172000": 4648,
    "\u25810x77173000": 4649,
    "\u25810x77174000": 4650,
    "\u25810x77175000": 4651,
    "\u25810x77176000": 4652,
    "\u25810x77177000": 4653,
    "\u25810x77178000": 4654,
    "\u25810x77179000": 4655,
    "\u25810x7717a000": 4656,
    "\u25810x7717b000": 4657,
    "\u25810x7717c000": 4658,
    "\u25810x7717d000": 4659,
    "\u25810x7717e000": 4660,
    "\u25810x7717f000": 4661,
    "\u25810x77180000": 4662,
    "\u25810x77181000": 4663,
    "\u25810x77182000": 4664,
    "\u25810x77183000": 4665,
    "\u25810x77184000": 4666,
    "\u25810x77185000": 4667,
    "\u25810x77186000": 4668,
    "\u25810x77187000": 4669,
    "\u25810x77188000": 4670,
    "\u25810x77189000": 4671,
    "\u25810x7718a000": 4672,
    "\u25810x7718b000": 4673,
    "\u25810x7718c000": 4674,
    "\u25810x7718d000": 4675,
    "\u25810x7718e000": 4676,
    "\u25810x7718f000": 4677,
    "\u25810x77190000": 4678,
    "\u25810x77191000": 4679,
    "\u25810x77192000": 4680,
    "\u25810x77193000": 4681,
    "\u25810x77194000": 4682,
    "\u25810x77195000": 4683,
    "\u25810x77196000": 4684,
    "\u25810x77197000": 4685,
    "\u25810x77198000": 4686,
    "\u25810x77199000": 4687,
    "\u25810x440": 4688,
    "\u25810x76c8": 4689,
    "\u25810x120fd": 4690,
    "\u25810x7719a000": 4691,
    "\u25810x7719b000": 4692,
    "\u25810x7719c000": 4693,
    "\u25810x7719d000": 4694,
    "\u25810x7719e000": 4695,
    "\u25810x7719f000": 4696,
    "\u25810x771a0000": 4697,
    "\u25810x771a1000": 4698,
    "\u25810x771a2000": 4699,
    "\u25810x771a3000": 4700,
    "\u25810x771a4000": 4701,
    "\u2581physicalmemory": 4702,
    "7a8": 4703,
    "a70": 4704,
    "\u25810x82c0": 4705,
    "\u25810x771a5000": 4706,
    "\u25810x771a6000": 4707,
    "\u25810x771a7000": 4708,
    "9b4": 4709,
    "\u25810x419d": 4710,
    "\u25810x41b0": 4711,
    "\u25810x771a8000": 4712,
    "\u25810x771a9000": 4713,
    "\u25810x771aa000": 4714,
    "\u25810x771ab000": 4715,
    "\u25810x771ac000": 4716,
    "\u25810x771ad000": 4717,
    "\u25810x771ae000": 4718,
    "\u25810x771af000": 4719,
    "\u25810x771b0000": 4720,
    "\u25810x771b1000": 4721,
    "\u25810x771b2000": 4722,
    "\u25810x771b3000": 4723,
    "\u25810x771b4000": 4724,
    "\u25810x771b5000": 4725,
    "\u25810x771b6000": 4726,
    "\u25810x771b7000": 4727,
    "\u25810x771b8000": 4728,
    "\u25810x771b9000": 4729,
    "\u25810x771ba000": 4730,
    "\u25810x771bb000": 4731,
    "\u25810x771bc000": 4732,
    "\u25810x771bd000": 4733,
    "\u25810x771be000": 4734,
    "\u25810x771bf000": 4735,
    "\u25810x771c0000": 4736,
    "\u25810x771c1000": 4737,
    "\u25810x771c2000": 4738,
    "\u25810x771c3000": 4739,
    "\u25810x771c4000": 4740,
    "\u25810x771c5000": 4741,
    "\u25810x771c6000": 4742,
    "d28": 4743,
    "\u25810x413f": 4744,
    "\u25810x7348": 4745,
    "\u25810x7578": 4746,
    "\u25810x7738": 4747,
    "\u25810x78f8": 4748,
    "\u25810x73b8": 4749,
    "\u25810x7498": 4750,
    "ig": 4751,
    "\u25810x7508": 4752,
    "\u25810x75e8": 4753,
    "7b8": 4754,
    "\u25810x7658": 4755,
    "\u25810x7ab8": 4756,
    "d40": 4757,
    "\u2581776": 4758,
    "\u2581filet": 4759,
    "\u2581tlsfree": 4760,
    "\u2581filetimeto": 4761,
    "\u25810x77a8": 4762,
    "\u25810x7968": 4763,
    "\u25810x22002": 4764,
    "43c": 4765,
    "\u25810x7818": 4766,
    "\u25810x79d8": 4767,
    "\u25810x7ce8": 4768,
    "a20": 4769,
    "c44": 4770,
    "\u25810x4efd": 4771,
    "\u25810x7b28": 4772,
    "\u25810x7c08": 4773,
    "ceex": 4774,
    "onexit": 4775,
    "\u25810x7c78": 4776,
    "\u25810x7d58": 4777,
    "\u25810x7dbc": 4778,
    "pi": 4779,
    "d0c": 4780,
    "72697": 4781,
    "a6e61": 4782,
    "6b2e68": 4783,
    "\u2581776f72": 4784,
    "\u25817472697": 4785,
    "a6e61646d": 4786,
    "6b2e68656c": 4787,
    "\u25817472697a6e61646d": 4788,
    "\u2581776f726b2e68656c": 4789,
    "\u25817472697a6e61646d73696e6b692e6669": 4790,
    "\u2581776f726b2e68656c73696e6b692e6669": 4791,
    "ctype": 4792,
    "\u25810xfff3": 4793,
    "b10": 4794,
    "cid": 4795,
    "\u2581flushfile": 4796,
    "\u2581flushfilebuffers": 4797,
    "eto": 4798,
    "\u25810x7dbd": 4799,
    "\u25810xbd": 4800,
    "inter": 4801,
    "\u25810x97b0": 4802,
    "\u2581userenv": 4803,
    "\u25810x41a044": 4804,
    "565": 4805,
    "e04": 4806,
    "e28": 4807,
    "\u25810x4079": 4808,
    "b48": 4809,
    "toc": 4810,
    "\u25810x4606": 4811,
    "\u25810x1211ee8": 4812,
    "\u25810x4179c": 4813,
    "\u25810x418970": 4814,
    "pre": 4815,
    "ae0": 4816,
    "mit": 4817,
    "\u25810x99d0": 4818,
    "\u25810x4cf0": 4819,
    "\u25810x7dc1": 4820,
    "\u25810x4093e8": 4821,
    "\u25810x44180": 4822,
    "\u25810x181b70": 4823,
    "f40": 4824,
    "\u2581your": 4825,
    "\u25810x4093e5": 4826,
    "\u25810x4093e6": 4827,
    "\u25810x4093e7": 4828,
    "\u25810x1211f54": 4829,
    "368": 4830,
    "c04": 4831,
    "internet": 4832,
    "\u2581removedirectory": 4833,
    "\u25810xffcb": 4834,
    "resourcea": 4835,
    "\u25810x41e1d8": 4836,
    "\u25810x4340": 4837,
    "b70": 4838,
    "f39": 4839,
    "mapi": 4840,
    "\u25810x4305": 4841,
    "ert": 4842,
    "9e8": 4843,
    "afc": 4844,
    "\u2581setdll": 4845,
    "rn": 4846,
    "93e": 4847,
    "784": 4848,
    "atalogs": 4849,
    "18c": 4850,
    "\u2581findresourcea": 4851,
    "plor": 4852,
    "a90000": 4853,
    "00d": 4854,
    "1cc": 4855,
    "rnl": 4856,
    "\u2581dwmapi": 4857,
    "\u2581getvolumeinformationa": 4858,
    "\u25810x3b7": 4859,
    "pool": 4860,
    "plorer": 4861,
    "70000": 4862,
    "\u25810x210": 4863,
    "\u2581cryptbase": 4864,
    "7b4": 4865,
    "lower": 4866,
    "osk": 4867,
    "oskrnl": 4868,
    "\u25810x41cc": 4869,
    "\u2581ntoskrnl": 4870,
    "\u25810x42f3": 4871,
    "009": 4872,
    "af4": 4873,
    "par": 4874,
    "\u25810x40a0": 4875,
    "90c": 4876,
    "ab5": 4877,
    "144": 4878,
    "b46": 4879,
    "ded": 4880,
    "f38": 4881,
    "\u258128": 4882,
    "\u2581sa": 4883,
    "\u25812d": 4884,
    "only": 4885,
    "6e0": 4886,
    "b0000": 4887,
    "windows": 4888,
    "\u25810x47e0": 4889,
    "994": 4890,
    "50000": 4891,
    "\u25810x616": 4892,
    "15f": 4893,
    "\u25810x8a60": 4894,
    "dd4": 4895,
    "c01": 4896,
    "\u25810x7e00": 4897,
    "f74": 4898,
    "7d0": 4899,
    "963": 4900,
    "7ac": 4901,
    "\u25810x4093e9": 4902,
    "\u25810x4093ea": 4903,
    "\u25810x4093eb": 4904,
    "\u25810x1211ce0": 4905,
    "\u25810x5937": 4906,
    "\u25810x4170d4": 4907,
    "\u25810x4170d5": 4908,
    "278": 4909,
    "\u25810x42c0a4": 4910,
    "application": 4911,
    "ce3": 4912,
    "\u25810x402": 4913,
    "ail": 4914,
    "\u25810x8828": 4915,
    "\u25810xffca": 4916,
    "\u2581releasesrwlockexclusive": 4917,
    "6c5": 4918,
    "\u25810xd2": 4919,
    "\u25810x8824": 4920,
    "101": 4921,
    "\u2581writ": 4922,
    "\u25810xfeee011": 4923,
    "\u2581physicaldriv": 4924,
    "934": 4925,
    "\u25810x8825": 4926,
    "698": 4927,
    "\u2581new": 4928,
    "accelerators": 4929,
    "\u2581loadaccelerators": 4930,
    "fd0": 4931,
    "\u2581writec": 4932,
    "\u2581shgetfile": 4933,
    "a78": 4934,
    "\u2581yo": 4935,
    "\u25810x120e": 4936,
    "\u25810x431": 4937,
    "\u25810x43f": 4938,
    "\u25810x1211808": 4939,
    "541": 4940,
    "\u25810x12117f4": 4941,
    "9b5c": 4942,
    "\u25810xc8": 4943,
    "\u25810x598740": 4944,
    "eec": 4945,
    "\u2581filenotfound": 4946,
    "c8e": 4947,
    "\u2581physicaldrive0": 4948,
    "\u25810x27": 4949,
    "\u25810x1211e54": 4950,
    "74d": 4951,
    "\u25814d5": 4952,
    "9d8": 4953,
    "\u25810x4614d0": 4954,
    "au": 4955,
    "\u2581getmenu": 4956,
    "\u25810x42f318": 4957,
    "\u25810x413": 4958,
    "stringw": 4959,
    "\u25810x40935d": 4960,
    "\u25810x40935e": 4961,
    "\u25810x40935f": 4962,
    "\u25810x409360": 4963,
    "\u25810x409361": 4964,
    "\u25810x409362": 4965,
    "\u25810x409363": 4966,
    "e58": 4967,
    "\u25810x882c": 4968,
    "\u25810x8834": 4969,
    "\u25810x4307e0": 4970,
    "\u25810x468": 4971,
    "7c5": 4972,
    "\u25810x534": 4973,
    "\u25810x8829": 4974,
    "\u25810x882d": 4975,
    "\u25810xffc8": 4976,
    "ae8": 4977,
    "\u2581ns": 4978,
    "\u25810x8831": 4979,
    "\u2581atexit": 4980,
    "\u25810x433": 4981,
    "\u2581failedto": 4982,
    "\u25810x8835": 4983,
    "ac6": 4984,
    "sto": 4985,
    "\u258130": 4986,
    "\u2581vers": 4987,
    "\u2581shellexecutea": 4988,
    "\u25810x4208": 4989,
    "\u25810x419ce0": 4990,
    "\u258118": 4991,
    "50c": 4992,
    "\u25810x569b48": 4993,
    "7dc": 4994,
    "b23": 4995,
    "has": 4996,
    "\u2581nsiserror": 4997,
    "9d0": 4998,
    "\u25810x4c10": 4999,
    "\u2581charpre": 5000,
    "ceff": 5001,
    "df0": 5002,
    "130": 5003,
    "tag": 5004,
    "\u2581pi": 5005,
    "\u25810x43a4": 5006,
    "\u25810x41f7": 5007,
    "ffff0000": 5008,
    "\u2581setdlldirectoryw": 5009,
    "199": 5010,
    "664": 5011,
    "withtag": 5012,
    "poolwithtag": 5013,
    "\u2581exallocate": 5014,
    "\u2581exallocatepoolwithtag": 5015,
    "db0": 5016,
    "c8b": 5017,
    "\u25810x4240": 5018,
    "0x": 5019,
    "\u2581error0x": 5020,
    "f18": 5021,
    "5e8": 5022,
    "228": 5023,
    "950": 5024,
    "\u25810x1211e80": 5025,
    "\u2581ndr": 5026,
    "\u25810x9e": 5027,
    "7cc": 5028,
    "a8c": 5029,
    "\u25810x8650": 5030,
    "321": 5031,
    "\u2581ndrd": 5032,
    "db5": 5033,
    "644": 5034,
    "684": 5035,
    "a90": 5036,
    "\u2581verset": 5037,
    "conditionmask": 5038,
    "\u2581versetconditionmask": 5039,
    "000000ffff0000": 5040,
    "4000000ffff0000": 5041,
    "998": 5042,
    "\u25810x560": 5043,
    "fdd": 5044,
    "\u258124": 5045,
    "\u25810x45fb": 5046,
    "\u25810xffc9": 5047,
    "\u25810x70000": 5048,
    "\u25810x47ee": 5049,
    "\u2581lstrc": 5050,
    "\u25810x409aa4": 5051,
    "\u25810x409aa5": 5052,
    "\u2581form": 5053,
    "\u25810x4ec": 5054,
    "960": 5055,
    "b98": 5056,
    "\u2581mt": 5057,
    "d48": 5058,
    "110": 5059,
    "bb8": 5060,
    "\u25810x94c0": 5061,
    "\u2581strlen": 5062,
    "a900003": 5063,
    "\u25810x4298": 5064,
    "\u25810x419cb0": 5065,
    "\u25814d5a900003": 5066,
    "\u25814d5a9000030000000": 5067,
    "\u25814d5a90000300000004000000ffff0000": 5068,
    "\u25810x41c": 5069,
    "\u2581setst": 5070,
    "154": 5071,
    "\u25810xf8": 5072,
    "\u25810x42f1": 5073,
    "\u2581setfilepointerex": 5074,
    "\u25810x504": 5075,
    "compar": 5076,
    "\u25810x110": 5077,
    "\u2581getprivateprofile": 5078,
    "compareex": 5079,
    "\u2581setstdhandle": 5080,
    "compareexchange": 5081,
    "\u2581interlockedcompareexchange": 5082,
    "\u2581ls": 5083,
    "\u25810x4540": 5084,
    "\u2581findnextfilea": 5085,
    "\u2581initializesrwlock": 5086,
    "f20": 5087,
    "f98": 5088,
    "\u25810x164": 5089,
    "\u25810x8660": 5090,
    "605": 5091,
    "940": 5092,
    "prec": 5093,
    "\u2581isvalidlocale": 5094,
    "744": 5095,
    "a0c": 5096,
    "\u2581cl": 5097,
    "fad": 5098,
    "\u25810x4177": 5099,
    "\u25810x7a2": 5100,
    "a03": 5101,
    "ms": 5102,
    "99b": 5103,
    "\u25810x103": 5104,
    "onceex": 5105,
    "ecuteonce": 5106,
    "\u2581initonceex": 5107,
    "\u2581initonceexecuteonce": 5108,
    "10c": 5109,
    "7d8": 5110,
    "\u25810x42b": 5111,
    "\u25810x1860": 5112,
    "1a4": 5113,
    "178": 5114,
    "7ec": 5115,
    "\u25810x130": 5116,
    "2ac": 5117,
    "\u2581dup": 5118,
    "\u25810x1211b08": 5119,
    "bcc": 5120,
    "d20": 5121,
    "\u25810x82f0": 5122,
    "\u25810x1210cf0": 5123,
    "\u25810x1211f50": 5124,
    "d90": 5125,
    "\u25810x4139": 5126,
    "\u25810x416bc": 5127,
    "\u25810x416c0": 5128,
    "\u2581heapdestroy": 5129,
    "\u2581setendoffile": 5130,
    "\u25810x518": 5131,
    "chr": 5132,
    "fa8": 5133,
    "hook": 5134,
    "\u25810x416242": 5135,
    "\u25810x416243": 5136,
    "\u25810x42a0a0": 5137,
    "af0": 5138,
    "\u25810x3f22": 5139,
    "\u25810xffd4": 5140,
    "\u25810x64000": 5141,
    "64c": 5142,
    "\u2581mta": 5143,
    "\u2581sys": 5144,
    "114": 5145,
    "68b": 5146,
    "ise": 5147,
    "\u25810x42e0f0": 5148,
    "oll": 5149,
    "ethe": 5150,
    "ready": 5151,
    "9e0": 5152,
    "\u25810x1808": 5153,
    "\u2581instal": 5154,
    "\u2581getfileinformationbyhandleex": 5155,
    "\u25810x41af": 5156,
    "\u25810xfff2": 5157,
    "aa6": 5158,
    "\u25810x4196": 5159,
    "7a0": 5160,
    "a18": 5161,
    "precise": 5162,
    "\u25810x68000": 5163,
    "\u2581runonce": 5164,
    "preciseasfiletime": 5165,
    "\u2581createsemaphorew": 5166,
    "\u2581getsystemtimepreciseasfiletime": 5167,
    "aab": 5168,
    "c4c": 5169,
    "b58": 5170,
    "\u2581msvcr90": 5171,
    "\u25810x41bcb0": 5172,
    "\u25810x41bce0": 5173,
    "\u25810x2200220": 5174,
    "d83": 5175,
    "\u25810x8a41": 5176,
    "\u25810x411555": 5177,
    "\u25810x411556": 5178,
    "ority": 5179,
    "\u25810x40a58c": 5180,
    "7f0": 5181,
    "fec": 5182,
    "privile": 5183,
    "\u2581youm": 5184,
    "220": 5185,
    "a60": 5186,
    "\u25810x40a57c": 5187,
    "\u2581duplic": 5188,
    "148": 5189,
    "a69": 5190,
    "d5c": 5191,
    "f78": 5192,
    "\u25810x2357b": 5193,
    "ncy": 5194,
    "\u2581format": 5195,
    "\u25810x431d": 5196,
    "738": 5197,
    "core": 5198,
    "install": 5199,
    "d05": 5200,
    "etype": 5201,
    "\u25810x1211fbc": 5202,
    "\u25810x120e6d0": 5203,
    "7bc": 5204,
    "d0000": 5205,
    "7e8": 5206,
    "\u25810x431e": 5207,
    "requency": 5208,
    "1b8": 5209,
    "\u25810x525": 5210,
    "\u25810x12112": 5211,
    "cefrequency": 5212,
    "\u2581queryperformancefrequency": 5213,
    "\u25810x4607": 5214,
    "118": 5215,
    "\u2581setenvironmentvariablea": 5216,
    "\u25810x3f20": 5217,
    "1e8": 5218,
    "9c8": 5219,
    "\u258114": 5220,
    "\u25810x200020": 5221,
    "318": 5222,
    "\u2581setcurrentdirectorya": 5223,
    "srw": 5224,
    "\u2581back": 5225,
    "\u2581security": 5226,
    "\u25810x1211ed8": 5227,
    "conditionvariablesrw": 5228,
    "\u2581initcommoncontrolsex": 5229,
    "\u2581sleepconditionvariablesrw": 5230,
    "printer": 5231,
    "\u2581isctype": 5232,
    "66e": 5233,
    "e0c": 5234,
    "valueexa": 5235,
    "\u25810x7f2": 5236,
    "\u25810x7f8003": 5237,
    "\u25810x7f8004": 5238,
    "\u25810x7f8005": 5239,
    "\u25810x7f8006": 5240,
    "\u25810x7f8007": 5241,
    "\u25810x7f8008": 5242,
    "\u25810x7f8009": 5243,
    "\u25810x7f800a": 5244,
    "\u25810x7f800b": 5245,
    "\u25810x7f800c": 5246,
    "\u25810x7f800d": 5247,
    "f60": 5248,
    "formata": 5249,
    "aa8": 5250,
    "3a20": 5251,
    "\u2581lstrcmpi": 5252,
    "a54": 5253,
    "\u25810x7f800e": 5254,
    "647": 5255,
    "71c": 5256,
    "\u25810x4030": 5257,
    "\u25810x4095": 5258,
    "\u25810x7f800f": 5259,
    "d50": 5260,
    "710": 5261,
    "d98": 5262,
    "\u25810x502dc": 5263,
    "54c": 5264,
    "\u25810x52668": 5265,
    "\u25810x71000000": 5266,
    "663": 5267,
    "\u25810xae": 5268,
    "\u25810x7f4": 5269,
    "\u2581loadacceleratorsw": 5270,
    "190": 5271,
    "ba0": 5272,
    "bc0": 5273,
    "\u25810x1211584": 5274,
    "\u25810x4604": 5275,
    "\u25810x4300": 5276,
    "\u25810x4605": 5277,
    "\u25810x85d0": 5278,
    "\u25810x4efd98": 5279,
    "\u25810x1211fb8": 5280,
    "248": 5281,
    "298": 5282,
    "df5": 5283,
    "\u2581lstrcata": 5284,
    "\u25810x1211438": 5285,
    "\u2581fil": 5286,
    "\u25810x6781d8": 5287,
    "gine": 5288,
    "\u2581getdriv": 5289,
    "790": 5290,
    "bec": 5291,
    "eb8": 5292,
    "f35": 5293,
    "\u2581mso": 5294,
    "\u2581tow": 5295,
    "privilege": 5296,
    "\u25810x3f6000": 5297,
    "\u25810x4c0": 5298,
    "1e4": 5299,
    "71f": 5300,
    "736": 5301,
    "\u2581getdrivetype": 5302,
    "6d8": 5303,
    "932": 5304,
    "f28": 5305,
    "\u2581opena": 5306,
    "\u2581reset": 5307,
    "436": 5308,
    "olec": 5309,
    "\u25810x4608": 5310,
    "\u25810xb4": 5311,
    "\u25810x5f6": 5312,
    "\u25810x1211888": 5313,
    "158": 5314,
    "\u25810x169bc": 5315,
    "f90": 5316,
    "start": 5317,
    "onsolec": 5318,
    "\u25810x4239": 5319,
    "\u25810x3f7000": 5320,
    "\u25810x3fb000": 5321,
    "\u25810x491288": 5322,
    "\u25810x1211b74": 5323,
    "a83": 5324,
    "\u2581print": 5325,
    "\u2581getenvironmentstrings": 5326,
    "\u2581getuserdefaultuilanguage": 5327,
    "60c": 5328,
    "9f8": 5329,
    "ort": 5330,
    "\u25810x4233": 5331,
    "384": 5332,
    "\u258134": 5333,
    "\u25810x3f8000": 5334,
    "\u258135": 5335,
    "leasec": 5336,
    "\u25810x4d5": 5337,
    "\u25810x4200": 5338,
    "fc4": 5339,
    "dd3": 5340,
    "\u2581wcs": 5341,
    "a6c": 5342,
    "this": 5343,
    "\u25810xffdf": 5344,
    "\u2581getsystemtimes": 5345,
    "1f8": 5346,
    "794": 5347,
    "0048": 5348,
    "\u25810xbe": 5349,
    "\u25810x1211ecc": 5350,
    "\u25810x46c0": 5351,
    "fa6": 5352,
    "im": 5353,
    "d85": 5354,
    "nam": 5355,
    "\u25810x1211dbc": 5356,
    "102": 5357,
    "\u25810x6970": 5358,
    "974": 5359,
    "dff": 5360,
    "\u25810x180": 5361,
    "\u25810x7b00": 5362,
    "324": 5363,
    "\u25810x3010": 5364,
    "\u25810x1211b50": 5365,
    "df8": 5366,
    "265": 5367,
    "ccf": 5368,
    "\u25810x565868": 5369,
    "9c24": 5370,
    "\u25810x4126": 5371,
    "laun": 5372,
    "\u25810x8554": 5373,
    "\u25810x3f9000": 5374,
    "\u25810x3fa000": 5375,
    "9b0": 5376,
    "\u25810x598758": 5377,
    "\u25810xfeee015": 5378,
    "\u25810x411b": 5379,
    "\u25810xff86": 5380,
    "\u25810x1211790": 5381,
    "d58": 5382,
    "d60": 5383,
    "\u25810x12110d8": 5384,
    "218": 5385,
    "150": 5386,
    "launch": 5387,
    "\u25810x1211338": 5388,
    "77c": 5389,
    "log": 5390,
    "20c": 5391,
    "f48": 5392,
    "pri": 5393,
    "\u2581environ": 5394,
    "ning": 5395,
    "30000": 5396,
    "e0000": 5397,
    "20000": 5398,
    "\u25810x486d": 5399,
    "\u25810x4bb0": 5400,
    "\u25810xffd1": 5401,
    "priority": 5402,
    "\u25810x1211b54": 5403,
    "\u2581duplicate": 5404,
    "dd7": 5405,
    "\u25810x1210e30": 5406,
    "\u25810x450": 5407,
    "\u25810x419f": 5408,
    "122": 5409,
    "\u25810x97c0": 5410,
    "\u25810x940000": 5411,
    "\u2581registerclipboard": 5412,
    "fc0": 5413,
    "\u2581wm": 5414,
    "\u25810xb3": 5415,
    "d2c": 5416,
    "\u25810x41b": 5417,
    "60000": 5418,
    "bc4": 5419,
    "fb0": 5420,
    "\u2581wakeconditionvariable": 5421,
    "a28": 5422,
    "\u2581af": 5423,
    "\u25810x1211bfc": 5424,
    "ourc": 5425,
    "\u25810xff69": 5426,
    "9e4": 5427,
    "aac": 5428,
    "ly": 5429,
    "1b0": 5430,
    "9e00": 5431,
    "\u2581sub": 5432,
    "\u25810x4c30": 5433,
    "\u25810x42fc68": 5434,
    "\u25810xffed": 5435,
    "\u25810x188e4c": 5436,
    "\u2581duplicatehandle": 5437,
    "ht": 5438,
    "e3d": 5439,
    "scroll": 5440,
    "\u25810x4528": 5441,
    "\u2581doyou": 5442,
    "a32": 5443,
    "e48": 5444,
    "\u25810x42eb": 5445,
    "\u2581oleacc": 5446,
    "\u25810x461518": 5447,
    "620": 5448,
    "\u2581submit": 5449,
    "\u2581regcreate": 5450,
    "\u25810x4169c0": 5451,
    "\u25810x4169c1": 5452,
    "\u2581removedirectorya": 5453,
    "\u25810x4602": 5454,
    "nexplorer": 5455,
    "threadpoolwork": 5456,
    "\u2581closethreadpoolwork": 5457,
    "\u2581createthreadpoolwork": 5458,
    "\u2581submitthreadpoolwork": 5459,
    "\u2581setfileinformationbyhandle": 5460,
    "61c": 5461,
    "\u25810x1211ef4": 5462,
    "ec9": 5463,
    "360": 5464,
    "\u25810x4af4": 5465,
    "a9b": 5466,
    "123": 5467,
    "560": 5468,
    "403": 5469,
    "260": 5470,
    "\u25810x7e3000": 5471,
    "\u25810x7e4000": 5472,
    "\u25810xfeee009d": 5473,
    "304": 5474,
    "dlg": 5475,
    "\u25810x4e5c": 5476,
    "\u25810x4902e0": 5477,
    "600": 5478,
    "6e8": 5479,
    "\u25810x496790": 5480,
    "\u25810x1211f5c": 5481,
    "\u2581regcreatekey": 5482,
    "oure": 5483,
    "\u25810x4090": 5484,
    "\u25810x75500000": 5485,
    "1b4": 5486,
    "778": 5487,
    "9a8": 5488,
    "\u25810x7eaba8": 5489,
    "14c": 5490,
    "ad5": 5491,
    "1d4": 5492,
    "ects": 5493,
    "\u25810x40ef1b": 5494,
    "\u25810x599b5c": 5495,
    "\u25810x599c24": 5496,
    "\u25810x59bf3c": 5497,
    "\u25810x59bf7c": 5498,
    "\u25810x59c120": 5499,
    "\u25810x59c138": 5500,
    "007": 5501,
    "9bc": 5502,
    "\u2581lib": 5503,
    "\u25810x8430": 5504,
    "\u25810xfeee018": 5505,
    "\u25810x7f5": 5506,
    "9260": 5507,
    "\u25810x40ef1a": 5508,
    "\u2581openprocess": 5509,
    "a64": 5510,
    "\u25810x56c": 5511,
    "\u25810x1211f0c": 5512,
    "reated": 5513,
    "\u25810x40e5": 5514,
    "\u2581setupapi": 5515,
    "f50": 5516,
    "a5b": 5517,
    "cc6": 5518,
    "\u25810x435018": 5519,
    "\u25810x120e690": 5520,
    "\u25810x120e698": 5521,
    "2c0": 5522,
    "\u25810x435002": 5523,
    "\u25810x435004": 5524,
    "\u25810x435006": 5525,
    "\u25810x435008": 5526,
    "\u25810x43500a": 5527,
    "\u25810x43500c": 5528,
    "\u25810x43500e": 5529,
    "\u25810x435010": 5530,
    "7de": 5531,
    "e4b8": 5532,
    "\u25810x435014": 5533,
    "918": 5534,
    "\u25810x40f6a8": 5535,
    "\u25810x435016": 5536,
    "ld": 5537,
    "\u25810x1210ec0": 5538,
    "0060": 5539,
    "ame32": 5540,
    "\u25810x8420": 5541,
    "\u25810x8f20": 5542,
    "\u2581mame32": 5543,
    "\u25810x74000": 5544,
    "\u2581freeware": 5545,
    "433": 5546,
    "ef4": 5547,
    "24c": 5548,
    "af8": 5549,
    "fa4": 5550,
    "image": 5551,
    "\u25810x44c2": 5552,
    "b2c": 5553,
    "97f": 5554,
    "7170": 5555,
    "\u25810x40d8": 5556,
    "926": 5557,
    "\u258108": 5558,
    "\u25810x41c4": 5559,
    "\u2581program": 5560,
    "754": 5561,
    "\u25810x10a": 5562,
    "\u25810x500": 5563,
    "\u2581mo": 5564,
    "\u25810x2100": 5565,
    "\u25810x42d498": 5566,
    "72c": 5567,
    "\u25810x4b40": 5568,
    "\u25810x7dc4": 5569,
    "fd4": 5570,
    "b50": 5571,
    "1c4": 5572,
    "erif": 5573,
    "\u25810x3f2": 5574,
    "\u25810x435012": 5575,
    "lay": 5576,
    "\u2581getsystemdefault": 5577,
    "fd8": 5578,
    "\u2581prop": 5579,
    "\u25810x42b4": 5580,
    "\u25810x7dc5": 5581,
    "723": 5582,
    "\u25810x173": 5583,
    "\u25810x7bc": 5584,
    "\u25810x8f50": 5585,
    "\u2581apphelp": 5586,
    "bcat": 5587,
    "\u25810xffe8": 5588,
    "\u25810x509e4": 5589,
    "\u25810x1210e78": 5590,
    "\u25810x1210e7c": 5591,
    "\u25810x1211cfc": 5592,
    "\u25810x4041": 5593,
    "\u25810x43f6": 5594,
    "\u25810x88b0": 5595,
    "\u2581propsys": 5596,
    "ax": 5597,
    "145": 5598,
    "b22": 5599,
    "bcatq": 5600,
    "\u2581clbcatq": 5601,
    "303": 5602,
    "615": 5603,
    "\u25810x4650": 5604,
    "program": 5605,
    "9b8": 5606,
    "fb8": 5607,
    "\u25810xd000": 5608,
    "\u25810x120ff": 5609,
    "\u2581getmodulehandl": 5610,
    "378": 5611,
    "\u2581qt": 5612,
    "985": 5613,
    "c84": 5614,
    "lcid": 5615,
    "profil": 5616,
    "\u25810x44f": 5617,
    "dc3": 5618,
    "\u25810x4c33": 5619,
    "a31": 5620,
    "b33": 5621,
    "\u25810x2e7": 5622,
    "1d0": 5623,
    "7678": 5624,
    "\u25810x7f02": 5625,
    "\u25810x5266c": 5626,
    "\u25810x4c32d8": 5627,
    "\u25810x4c32f0": 5628,
    "e39": 5629,
    "dd8": 5630,
    "ea0": 5631,
    "\u25810x8b50": 5632,
    "\u2581lcmapstringa": 5633,
    "aa0": 5634,
    "ed2": 5635,
    "vironmentstringsa": 5636,
    "6a4": 5637,
    "ups": 5638,
    "\u2581add": 5639,
    "75c": 5640,
    "formatw": 5641,
    "\u25810x4315": 5642,
    "\u25810x7dd9": 5643,
    "\u2581qa": 5644,
    "\u2581append": 5645,
    "bd4": 5646,
    "e05": 5647,
    "tive": 5648,
    "\u25810x41a9": 5649,
    "\u25810x408c8d": 5650,
    "\u25810x408c8e": 5651,
    "128": 5652,
    "aba": 5653,
    "ed0": 5654,
    "\u25810x478": 5655,
    "ff4": 5656,
    "applet": 5657,
    "a98": 5658,
    "\u2581dialog": 5659,
    "\u25810x51c3": 5660,
    "\u25810x7dd0": 5661,
    "\u25810x41e2": 5662,
    "\u25810x4760": 5663,
    "b20": 5664,
    "\u25810x4175": 5665,
    "\u25810x3f75e88": 5666,
    "30c": 5667,
    "dbd": 5668,
    "\u25810x8250": 5669,
    "\u25810x43501a": 5670,
    "\u25810x41cc54": 5671,
    "\u25810x120f8a6": 5672,
    "\u25810x413d": 5673,
    "f44": 5674,
    "per": 5675,
    "\u25810x423818": 5676,
    "0068": 5677,
    "\u2581lstrcmpw": 5678,
    "9c3": 5679,
    "\u25810x7e5000": 5680,
    "20302": 5681,
    "\u25810x7d0": 5682,
    "\u25810x4020": 5683,
    "\u2581regdelete": 5684,
    "6b6": 5685,
    "aad": 5686,
    "buf": 5687,
    "zone": 5688,
    "\u25810x7e4": 5689,
    "aa4": 5690,
    "d10": 5691,
    "ere": 5692,
    "\u25810x7f3": 5693,
    "\u25810x1211cb8": 5694,
    "d1b": 5695,
    "proces": 5696,
    "\u25810x508d0": 5697,
    "\u25810x4c9778": 5698,
    "\u2581writeconsole": 5699,
    "\u25810x509a8": 5700,
    "\u25810x181b48": 5701,
    "\u25810x3020302": 5702,
    "750": 5703,
    "update": 5704,
    "\u25810x563a20": 5705,
    "fdc": 5706,
    "msg": 5707,
    "\u2581getmodulehandleexw": 5708,
    "630": 5709,
    "903": 5710,
    "\u25810x7fb": 5711,
    "11c": 5712,
    "38c": 5713,
    "404": 5714,
    "ee2": 5715,
    "zoneinformation": 5716,
    "\u25810x535": 5717,
    "\u25810x43501c": 5718,
    "\u25810x43501e": 5719,
    "\u25810x435020": 5720,
    "\u25810x435022": 5721,
    "\u25810x435028": 5722,
    "\u25810x43502a": 5723,
    "\u25810x43502c": 5724,
    "\u25810x43502e": 5725,
    "\u25810x435030": 5726,
    "\u25810x7bc00000": 5727,
    "d24": 5728,
    "exist": 5729,
    "\u2581mso97": 5730,
    "\u2581gettimezoneinformation": 5731,
    "bbc": 5732,
    "fc6": 5733,
    "\u25810x40a7": 5734,
    "944": 5735,
    "f05": 5736,
    "e00": 5737,
    "blead": 5738,
    "\u2581ismb": 5739,
    "\u25810x5265c3c": 5740,
    "\u2581ismbblead": 5741,
    "gn": 5742,
    "b78": 5743,
    "dc8": 5744,
    "12db": 5745,
    "\u25810x765": 5746,
    "\u25810x7ddd": 5747,
    "\u2581writeconsolew": 5748,
    "\u25810xe9": 5749,
    "\u25810x424f": 5750,
    "\u25810x181b98": 5751,
    "\u25810x7dc9": 5752,
    "\u25810x44c250": 5753,
    "\u2581getmessagew": 5754,
    "fe0": 5755,
    "7675": 5756,
    "\u25810xcccc": 5757,
    "inmodule": 5758,
    "\u25810x1211e38": 5759,
    "\u2581getconsolemode": 5760,
    "ph": 5761,
    "302": 5762,
    "d00": 5763,
    "\u258103": 5764,
    "aec": 5765,
    "bd7": 5766,
    "annot": 5767,
    "374": 5768,
    "\u2581zip": 5769,
    "\u25810xff92": 5770,
    "142": 5771,
    "ster": 5772,
    "\u25810x40a5b0": 5773,
    "\u25810x40a5b8": 5774,
    "\u25810x431d00": 5775,
    "\u25810x1211d44": 5776,
    "valuea": 5777,
    "\u25810x46b3": 5778,
    "\u2581internet": 5779,
    "\u25810xfeee016": 5780,
    "\u2581doyouwantto": 5781,
    "amet": 5782,
    "3e8": 5783,
    "96c": 5784,
    "\u25810x40a5b4": 5785,
    "1c2": 5786,
    "a7b": 5787,
    "\u25810x144": 5788,
    "running": 5789,
    "\u25810x40e9": 5790,
    "\u25810x44b7": 5791,
    "\u25810x40a5ae": 5792,
    "\u25810x40a5b2": 5793,
    "\u25810x40a5b6": 5794,
    "\u25810x40a5ba": 5795,
    "\u25810xffd8": 5796,
    "\u25810x431828": 5797,
    "\u25810x1211a44": 5798,
    "ae2": 5799,
    "e94": 5800,
    "\u25810xd3": 5801,
    "allyour": 5802,
    "\u2581openanexplorer": 5803,
    "b68": 5804,
    "fbc": 5805,
    "\u25810x7100": 5806,
    "\u25810x8490": 5807,
    "79b": 5808,
    "7b0": 5809,
    "\u25810xfeedf0": 5810,
    "\u25810x5199": 5811,
    "frominternet": 5812,
    "\u2581getstringtypea": 5813,
    "\u2581registerwindowmessagea": 5814,
    "485": 5815,
    "7d5": 5816,
    "936": 5817,
    "\u2581ric": 5818,
    "\u2581getwindowsdirectoryw": 5819,
    "\u2581logme": 5820,
    "\u25810x4111d0": 5821,
    "524": 5822,
    "7c2": 5823,
    "\u25810xe8": 5824,
    "\u2581riche": 5825,
    "1f0": 5826,
    "\u25810x41d": 5827,
    "\u25810x4220": 5828,
    "\u2581launch": 5829,
    "adc": 5830,
    "atoma": 5831,
    "\u25810x2b4": 5832,
    "\u25810x40a2": 5833,
    "\u25810x7c90": 5834,
    "\u25810x439458": 5835,
    "202": 5836,
    "406": 5837,
    "\u25810x46b": 5838,
    "\u25810xffe9": 5839,
    "\u25810x418a00": 5840,
    "\u25810x418a30": 5841,
    "\u25810x42ce08": 5842,
    "\u25810x431f38": 5843,
    "ongle": 5844,
    "ecadwork": 5845,
    "\u25810x76500000": 5846,
    "fic": 5847,
    "ctrl": 5848,
    "9fc": 5849,
    "bed": 5850,
    "d70": 5851,
    "\u25810x40d": 5852,
    "\u25810x4b4": 5853,
    "\u2581vf": 5854,
    "\u2581fre": 5855,
    "\u25810x40d9": 5856,
    "\u25810x1210e34": 5857,
    "\u25810x1211fa0": 5858,
    "\u25810x7fc": 5859,
    "\u25810x181c88": 5860,
    "e74": 5861,
    "\u258119": 5862,
    "198": 5863,
    "a68": 5864,
    "f19": 5865,
    "\u25810x4aa0": 5866,
    "\u25810x7dcc": 5867,
    "\u25810x8cb0": 5868,
    "\u2581appendw": 5869,
    "\u25810x181c60": 5870,
    "\u25810x431ef0": 5871,
    "\u25810x1211c94": 5872,
    "\u2581getcursor": 5873,
    "\u25810x12117e8": 5874,
    "\u25810x1211eac": 5875,
    "f71": 5876,
    "listmsg": 5877,
    "\u25810x9810": 5878,
    "\u25810x4912d0": 5879,
    "\u2581commctrl": 5880,
    "\u2581draglistmsg": 5881,
    "a74": 5882,
    "lien": 5883,
    "valuew": 5884,
    "\u25810x2012": 5885,
    "\u25810x5188": 5886,
    "bf1": 5887,
    "\u25810x12117fc": 5888,
    "322": 5889,
    "\u25810x3f24": 5890,
    "\u25810x7dcd": 5891,
    "952": 5892,
    "ower": 5893,
    "\u25810x7dd4": 5894,
    "006a": 5895,
    "\u25810x4370": 5896,
    "\u25810x8ce0": 5897,
    "50c0": 5898,
    "move": 5899,
    "\u25810x7f9": 5900,
    "\u25810x7500": 5901,
    "\u25810x2d4df": 5902,
    "a24": 5903,
    "cod": 5904,
    "\u25810x7dd1": 5905,
    "\u25810x7dd5": 5906,
    "\u25810x7dd8": 5907,
    "\u25810x7ddc": 5908,
    "\u25810x7f80": 5909,
    "103": 5910,
    "354": 5911,
    "sk": 5912,
    "6f1": 5913,
    "pp": 5914,
    "5bc": 5915,
    "edp": 5916,
    "uti": 5917,
    "\u25810x115": 5918,
    "006c": 5919,
    "\u25810xbcf2": 5920,
    "\u2581towlower": 5921,
    "6c0": 5922,
    "e7b": 5923,
    "\u25810xffdc": 5924,
    "90000": 5925,
    "606": 5926,
    "\u25810x46b4": 5927,
    "\u2581getconsolec": 5928,
    "\u2581gettempfilename": 5929,
    "4bb8": 5930,
    "\u25810x208": 5931,
    "\u25810x420fe8": 5932,
    "\u25810x1211edc": 5933,
    "\u25810x3f75f7c": 5934,
    "processmemory": 5935,
    "ptr": 5936,
    "\u2581getdrivetypea": 5937,
    "16c": 5938,
    "\u25810x636": 5939,
    "\u25810x417b50": 5940,
    "\u25810x41a9f0": 5941,
    "\u2581me": 5942,
    "resc": 5943,
    "\u25810x2840": 5944,
    "\u25810x41cb": 5945,
    "\u25810x42a4": 5946,
    "\u25810x455480": 5947,
    "58c": 5948,
    "695": 5949,
    "da8": 5950,
    "f02": 5951,
    "icen": 5952,
    "rescue": 5953,
    "\u25810x40b7": 5954,
    "\u25810x4b80": 5955,
    "\u25810xd8": 5956,
    "a33": 5957,
    "\u2581lo": 5958,
    "inrescue": 5959,
    "\u25810x1211e4c": 5960,
    "\u2581logmeinrescue": 5961,
    "628": 5962,
    "eab": 5963,
    "\u2581getconsolecp": 5964,
    "\u25810xb2": 5965,
    "\u2581logmeinrescueapplet": 5966,
    "pc": 5967,
    "b28": 5968,
    "\u2581for": 5969,
    "\u2581regenum": 5970,
    "\u25810xfffffffe": 5971,
    "\u25810x42ab": 5972,
    "bc6": 5973,
    "coll": 5974,
    "\u2581strcpy": 5975,
    "\u25810x455468": 5976,
    "\u25810x1210d90": 5977,
    "\u25810x2840284": 5978,
    "185": 5979,
    "\u25810x9028": 5980,
    "\u25810x3f75f84": 5981,
    "\u25810x5f3": 5982,
    "\u25810x8900": 5983,
    "\u25810x8fc0": 5984,
    "\u25810x3f75f8c": 5985,
    "345": 5986,
    "\u25810x4195": 5987,
    "\u25810x7e30": 5988,
    "\u25810x433618": 5989,
    "\u25810x567678": 5990,
    "654": 5991,
    "762": 5992,
    "9cc": 5993,
    "95c": 5994,
    "9c4": 5995,
    "aa3": 5996,
    "20382": 5997,
    "\u25810x6c000": 5998,
    "b82": 5999,
    "\u25810x7f6": 6000,
    "\u2581getfileattributesa": 6001,
    "618": 6002,
    "fox": 6003,
    "3d28": 6004,
    "\u25810x180c": 6005,
    "\u25810x120ee": 6006,
    "installed": 6007,
    "17a8": 6008,
    "\u25810x7f7e": 6009,
    "\u2581application": 6010,
    "931": 6011,
    "\u2581please": 6012,
    "\u25810x40a92e": 6013,
    "\u25810x40a930": 6014,
    "\u25810x40a932": 6015,
    "\u25810x40a934": 6016,
    "\u25810x40a936": 6017,
    "\u25810x40a938": 6018,
    "\u25810x40a93a": 6019,
    "a43": 6020,
    "dd0": 6021,
    "uld": 6022,
    "7978": 6023,
    "ass2": 6024,
    "\u2581meip": 6025,
    "\u25810x4229c1": 6026,
    "\u2581meipass2": 6027,
    "3cf0": 6028,
    "\u25810x28c": 6029,
    "\u25810x40f5": 6030,
    "\u25810x4356": 6031,
    "\u25810x50e10": 6032,
    "\u25810x1211690": 6033,
    "\u2581shgetfileinfow": 6034,
    "\u25810xd3d": 6035,
    "006e": 6036,
    "ible": 6037,
    "\u25810x600": 6038,
    "\u25810x410acd": 6039,
    "\u25810x410ace": 6040,
    "\u25810x41e208": 6041,
    "3e0": 6042,
    "af3": 6043,
    "\u25810x1b5": 6044,
    "\u2581onexit": 6045,
    "741": 6046,
    "\u25810x7f1": 6047,
    "348": 6048,
    "\u25810x47d0": 6049,
    "\u25810x8930": 6050,
    "\u2581appdata": 6051,
    "a85": 6052,
    "\u2581mb": 6053,
    "\u25810x2280": 6054,
    "080": 6055,
    "ocreate": 6056,
    "\u25810x4125": 6057,
    "\u25810x4155": 6058,
    "\u25810x429260": 6059,
    "fc8": 6060,
    "6564": 6061,
    "\u25810x4d0": 6062,
    "\u25810x4176": 6063,
    "de5": 6064,
    "\u25810x4cb": 6065,
    "\u25810x1211788": 6066,
    "a34": 6067,
    "e90": 6068,
    "eac": 6069,
    "idto": 6070,
    "\u25810x40e7": 6071,
    "\u25810x4bcc": 6072,
    "\u25810x419d50": 6073,
    "\u25810x6d006c": 6074,
    "\u2581setenvironmentvariablew": 6075,
    "fig": 6076,
    "\u25810x4fc": 6077,
    "\u25810x5b5": 6078,
    "handler": 6079,
    "\u25810x420a0f": 6080,
    "\u25810x420a10": 6081,
    "\u2581messageboxw": 6082,
    "1eb": 6083,
    "a94": 6084,
    "b54": 6085,
    "\u25810x8410": 6086,
    "\u25810x1210e80": 6087,
    "763": 6088,
    "7c58": 6089,
    "\u25810x4188": 6090,
    "\u25810x42fc20": 6091,
    "\u25810x6f006e": 6092,
    "\u25810x710070": 6093,
    "\u25810x770076": 6094,
    "\u25810x790078": 6095,
    "\u25810x4084": 6096,
    "processto": 6097,
    "\u25810x42b020": 6098,
    "\u25810x690068": 6099,
    "\u25810x6b006a": 6100,
    "\u25810x730072": 6101,
    "\u25810x750074": 6102,
    "\u25810x7b007a": 6103,
    "\u25810x7d007c": 6104,
    "\u25810x7f007e": 6105,
    "\u25810x3010301": 6106,
    "dac": 6107,
    "d1ff": 6108,
    "\u25810x409020": 6109,
    "\u25810x419e00": 6110,
    "35c": 6111,
    "642": 6112,
    "\u2581getfull": 6113,
    "205": 6114,
    "706": 6115,
    "713": 6116,
    "760": 6117,
    "\u25810x419f40": 6118,
    "\u25810x42a070": 6119,
    "\u25810x42b024": 6120,
    "\u25810x42b028": 6121,
    "\u25810x1210bd7": 6122,
    "mi": 6123,
    "\u25810xffea": 6124,
    "\u25810xfeedf000": 6125,
    "mt": 6126,
    "bd8": 6127,
    "\u25810x6b6": 6128,
    "\u25810x41ab": 6129,
    "\u25810x4603": 6130,
    "processtoken": 6131,
    "versioninfow": 6132,
    "\u2581openprocesstoken": 6133,
    "trol": 6134,
    "19e": 6135,
    "f4e4": 6136,
    "\u25810x4154": 6137,
    "\u25810x4548": 6138,
    "f3a": 6139,
    "filespec": 6140,
    "\u2581getexit": 6141,
    "\u25810x44f850": 6142,
    "\u2581systemtim": 6143,
    "964": 6144,
    "eresource": 6145,
    "\u25810x40a540": 6146,
    "\u25810x42dac6": 6147,
    "\u2581removefilespec": 6148,
    "745": 6149,
    "\u25810x41aa": 6150,
    "\u25810x5617a8": 6151,
    "7c6": 6152,
    "dcc": 6153,
    "e60": 6154,
    "\u25810x7fe": 6155,
    "9a0": 6156,
    "e03": 6157,
    "\u25810x429920": 6158,
    "\u25810x430fec": 6159,
    "\u25810x44f8c8": 6160,
    "\u2581ts": 6161,
    "\u25810x350": 6162,
    "\u25810x44f868": 6163,
    "\u25810x44f880": 6164,
    "\u25810x44f898": 6165,
    "\u25810x44f8b0": 6166,
    "\u2581removefilespecw": 6167,
    "\u25810x430db0": 6168,
    "\u25810x44f8f8": 6169,
    "\u25810x44f940": 6170,
    "\u25810x44f958": 6171,
    "\u25810x44f970": 6172,
    "\u25810x44f988": 6173,
    "\u2581lstrcmpia": 6174,
    "b7c": 6175,
    "bb0": 6176,
    "\u258136": 6177,
    "\u25810x6f6": 6178,
    "\u25810x4011": 6179,
    "00000000": 6180,
    "\u25810x40a53a": 6181,
    "\u25810x40a53c": 6182,
    "\u25810x40a53e": 6183,
    "\u25810x40a542": 6184,
    "\u25810x40a544": 6185,
    "\u25810x42168c": 6186,
    "168": 6187,
    "767574": 6188,
    "\u25810x7b7a": 6189,
    "\u25810x40a546": 6190,
    "\u25810x41e93e": 6191,
    "\u25810x41ebfa": 6192,
    "\u25810x41ebfb": 6193,
    "\u25810x42168b": 6194,
    "\u25810x1211e64": 6195,
    "\u25810x77767574": 6196,
    "\u2581freeresource": 6197,
    "af6": 6198,
    "7363": 6199,
    "7d7c": 6200,
    "\u2581charprevw": 6201,
    "1a0": 6202,
    "270": 6203,
    "\u25810x160": 6204,
    "\u25810x406c": 6205,
    "\u25810x7b7a7978": 6206,
    "9b6": 6207,
    "\u2581cal": 6208,
    "\u2581this": 6209,
    "\u25810x458": 6210,
    "\u25810x1211ad0": 6211,
    "db8": 6212,
    "erify": 6213,
    "\u25810x59c": 6214,
    "\u25810x41ad": 6215,
    "\u25810x47b1": 6216,
    "\u2581cannot": 6217,
    "\u2581registerclipboardformata": 6218,
    "df4": 6219,
    "\u25810x4a7": 6220,
    "\u25810x1733c4": 6221,
    "\u25810x7ee000": 6222,
    "\u25810x12116c0": 6223,
    "\u2581qt5": 6224,
    "\u25810x7f8002": 6225,
    "6b5": 6226,
    "90e": 6227,
    "f68": 6228,
    "\u25810x4093e4": 6229,
    "\u25810x44e4b8": 6230,
    "\u25810x8e90": 6231,
    "\u2581verify": 6232,
    "\u25810x77000": 6233,
    "a3c": 6234,
    "b18": 6235,
    "bb1": 6236,
    "d65": 6237,
    "\u25810x7f8010": 6238,
    "161": 6239,
    "ce5": 6240,
    "e55": 6241,
    "2acb2": 6242,
    "\u25810xdc": 6243,
    "\u25810x42ec": 6244,
    "\u25810x8d90": 6245,
    "692": 6246,
    "f34": 6247,
    "gex": 6248,
    "\u2581b2acb2": 6249,
    "\u25810x4228e1": 6250,
    "\u2581om": 6251,
    "26160": 6252,
    "727170": 6253,
    "\u25810x1211e90": 6254,
    "\u25810x1211f14": 6255,
    "\u25810x63626160": 6256,
    "\u25810x73727170": 6257,
    "69e": 6258,
    "53a0": 6259,
    "\u25810x6766": 6260,
    "658": 6261,
    "67b": 6262,
    "ceb": 6263,
    "\u25810x4033": 6264,
    "\u25810x422980": 6265,
    "7f4": 6266,
    "secor": 6267,
    "\u25810xde": 6268,
    "\u25810x7e50": 6269,
    "\u25810x88f0": 6270,
    "\u2581omsecor": 6271,
    "\u25810x423cf0": 6272,
    "\u25810x67666564": 6273,
    "\u25810x42286e": 6274,
    "\u25810x42286f": 6275,
    "\u25810x4228e2": 6276,
    "\u25810x422963": 6277,
    "\u25810x422964": 6278,
    "\u25810x42297f": 6279,
    "\u25810x4229c2": 6280,
    "\u25810x4229fa": 6281,
    "\u25810x4229fb": 6282,
    "\u25810x422a0d": 6283,
    "\u25810x422a0e": 6284,
    "\u25810x42329e": 6285,
    "\u25810x42329f": 6286,
    "\u25810x4233fc": 6287,
    "\u25810x423cef": 6288,
    "\u25810x1211e0c": 6289,
    "7ad": 6290,
    "f83": 6291,
    "\u25810x2d4d9": 6292,
    "9da": 6293,
    "a6968": 6294,
    "\u25810x407b": 6295,
    "\u25810x6b6a6968": 6296,
    "b3c": 6297,
    "0064": 6298,
    "\u25810xc4": 6299,
    "enamew": 6300,
    "\u25810x4ab": 6301,
    "\u2581pleasec": 6302,
    "\u25810x1211ddc": 6303,
    "1b1": 6304,
    "ally": 6305,
    "find": 6306,
    "\u25810xd1": 6307,
    "\u25810x7df9": 6308,
    "\u25810x1211f68": 6309,
    "\u2581ab": 6310,
    "\u25810x572": 6311,
    "\u25810x429903": 6312,
    "e6d6c": 6313,
    "already": 6314,
    "\u25810x429902": 6315,
    "\u25810x42990c": 6316,
    "\u25810x42990d": 6317,
    "\u25810x429921": 6318,
    "3a4": 6319,
    "945": 6320,
    "\u25810x40ad": 6321,
    "\u25810x8330": 6322,
    "\u25810x47a00": 6323,
    "\u25810x42992a": 6324,
    "\u25810x42992b": 6325,
    "\u25810x6f6e6d6c": 6326,
    "\u2581freeenvironmentstringsa": 6327,
    "aveb": 6328,
    "ffcb": 6329,
    "avebeen": 6330,
    "oureally": 6331,
    "\u25810x7f7e7d7c": 6332,
    "905": 6333,
    "d14": 6334,
    "arta": 6335,
    "\u2581stem": 6336,
    "\u25810x443": 6337,
    "\u25810x41d2": 6338,
    "\u25810x7df8": 6339,
    "\u2581stem32": 6340,
    "\u25810x1210e84": 6341,
    "sb": 6342,
    "711": 6343,
    "79c": 6344,
    "7e2": 6345,
    "\u2581ps": 6346,
    "\u25810x7e51": 6347,
    "9d6": 6348,
    "ae00": 6349,
    "\u25810x9210": 6350,
    "\u2581command": 6351,
    "b12": 6352,
    "\u2581ntm": 6353,
    "\u25810xc2": 6354,
    "network": 6355,
    "\u25810x42a6": 6356,
    "\u25810x53e4": 6357,
    "\u2581ntmarta": 6358,
    "666": 6359,
    "7a4": 6360,
    "c82": 6361,
    "f45": 6362,
    "\u2581ie": 6363,
    "\u25810x44c": 6364,
    "\u25810x2d4d": 6365,
    "\u2581437": 6366,
    "\u2581oem": 6367,
    "f54": 6368,
    "6d7363": 6369,
    "\u2581calloc": 6370,
    "\u25810x1211e40": 6371,
    "\u25810xe06d7363": 6372,
    "\u2581commandline": 6373,
    "902": 6374,
    "d34": 6375,
    "f10": 6376,
    "ualfox": 6377,
    "\u25810x13b": 6378,
    "\u25810x3f23": 6379,
    "\u25810x40a4": 6380,
    "\u25810x46b5": 6381,
    "\u2581youmust": 6382,
    "\u2581getuserdefaultlcid": 6383,
    "962": 6384,
    "param": 6385,
    "\u25810x4bb": 6386,
    "\u25810x4238a8": 6387,
    "\u25810x4238d8": 6388,
    "\u2581coinitialize": 6389,
    "40b": 6390,
    "session": 6391,
    "a19": 6392,
    "\u25817z6": 6393,
    "argvw": 6394,
    "\u25810xb6": 6395,
    "\u25817z72": 6396,
    "toargvw": 6397,
    "\u25810x415c": 6398,
    "\u25810x1211d50": 6399,
    "\u2581commandlinetoargvw": 6400,
    "b00": 6401,
    "\u2581mail": 6402,
    "ffd1ff": 6403,
    "\u25810x4060": 6404,
    "\u25810x1211180": 6405,
    "5f0": 6406,
    "dc2": 6407,
    "\u25810x4040": 6408,
    "\u25810x6300": 6409,
    "\u25810x99a0": 6410,
    "ad2": 6411,
    "\u25810xe2": 6412,
    "\u2581qt5core": 6413,
    "\u25810x169bc9c": 6414,
    "1c8": 6415,
    "3b8": 6416,
    "66d": 6417,
    "965": 6418,
    "0066": 6419,
    "68c8": 6420,
    "ea20": 6421,
    "hash": 6422,
    "\u25810x4210": 6423,
    "235": 6424,
    "7c0": 6425,
    "c2f": 6426,
    "e1c": 6427,
    "\u2581vie": 6428,
    "d38": 6429,
    "sion": 6430,
    "older": 6431,
    "\u25810x6ce": 6432,
    "\u25810x40c7": 6433,
    "\u25810x41b8": 6434,
    "\u25810x7eec": 6435,
    "\u25810x42c5a0": 6436,
    "\u25810x42c5b8": 6437,
    "\u25810x439440": 6438,
    "33c": 6439,
    "f7a8": 6440,
    "\u2581evie": 6441,
    "\u25810x413972": 6442,
    "\u25810xfffff8": 6443,
    "\u2581psc": 6444,
    "\u25810x42abc0": 6445,
    "152": 6446,
    "\u25810x44e": 6447,
    "\u25810x8028": 6448,
    "sh": 6449,
    "96d": 6450,
    "\u25810xc3": 6451,
    "\u25810x503": 6452,
    "\u25810xffeb": 6453,
    "\u25810x7c000": 6454,
    "\u2581movefilew": 6455,
    "775": 6456,
    "eta": 6457,
    "\u25810x47a": 6458,
    "3de": 6459,
    "a35": 6460,
    "edb": 6461,
    "\u25810x42c570": 6462,
    "\u25810x630062": 6463,
    "\u25810x650064": 6464,
    "\u25810x670066": 6465,
    "648": 6466,
    "804": 6467,
    "1740": 6468,
    "\u2581tsl": 6469,
    "\u25810xbb": 6470,
    "\u2581psapi": 6471,
    "\u25810x40935c": 6472,
    "\u25810x4093ec": 6473,
    "\u25810x610060": 6474,
    "244": 6475,
    "pop": 6476,
    "\u2581884": 6477,
    "orgex": 6478,
    "eengine": 6479,
    "685": 6480,
    "9fe": 6481,
    "0050": 6482,
    "7540": 6483,
    "vert": 6484,
    "\u25810xec": 6485,
    "\u25810x411218": 6486,
    "\u25810xfeee009e": 6487,
    "initializeengine": 6488,
    "\u2581failedtoinitializeengine": 6489,
    "77d": 6490,
    "e20": 6491,
    "\u25810x4106": 6492,
    "65c": 6493,
    "f51": 6494,
    "fb5": 6495,
    "fde": 6496,
    "\u25810x4966": 6497,
    "kg": 6498,
    "\u25810x4066": 6499,
    "\u25810x8340": 6500,
    "d72": 6501,
    "\u25810x40f660": 6502,
    "\u25810xffc0": 6503,
    "so": 6504,
    "c0c": 6505,
    "\u25810x12000": 6506,
    "650": 6507,
    "773": 6508,
    "f95": 6509,
    "ache": 6510,
    "\u25810x1210f64": 6511,
    "9dc": 6512,
    "\u2581exp": 6513,
    "drl66": 6514,
    "ontrol": 6515,
    "\u2581tsldrl66": 6516,
    "\u25810xfeee00a0": 6517,
    "6f0": 6518,
    "\u25810x43a": 6519,
    "40d": 6520,
    "752": 6521,
    "ipe": 6522,
    "\u25810x8838": 6523,
    "a63": 6524,
    "eexist": 6525,
    "\u25810x4235": 6526,
    "\u25810x7ce0": 6527,
    "\u25810x42e658": 6528,
    "\u2581fileexist": 6529,
    "7d6": 6530,
    "bfc": 6531,
    "\u25810x4218": 6532,
    "\u25810x5040": 6533,
    "\u25810x525a": 6534,
    "\u25810x8839": 6535,
    "1e0": 6536,
    "b97": 6537,
    "\u2581createsemaphorea": 6538,
    "1c6": 6539,
    "f91": 6540,
    "\u25810x42e0a8": 6541,
    "\u25810x42e520": 6542,
    "\u25810x1211d2c": 6543,
    "\u25810x1211e98": 6544,
    "3a5": 6545,
    "77e": 6546,
    "ce1": 6547,
    "3cf8": 6548,
    "\u25810x412e39": 6549,
    "\u25810x413f64": 6550,
    "\u25810x413f65": 6551,
    "\u25810x42c990": 6552,
    "\u25810x42ca48": 6553,
    "\u25810x42e538": 6554,
    "\u25810x42e550": 6555,
    "\u25810x42e568": 6556,
    "\u25810x42e580": 6557,
    "\u25810x42e610": 6558,
    "\u25810x42e628": 6559,
    "\u25810x42e640": 6560,
    "10d": 6561,
    "795": 6562,
    "b42": 6563,
    "\u2581unlock": 6564,
    "\u2581getwindowdc": 6565,
    "\u2581getmodulebas": 6566,
    "386": 6567,
    "son": 6568,
    "\u25810x4b8": 6569,
    "\u25810x4012db": 6570,
    "ea4": 6571,
    "seek": 6572,
    "\u25810x44e9": 6573,
    "\u2581getmodulebasenamew": 6574,
    "c85": 6575,
    "\u25810x824": 6576,
    "\u25810xff87": 6577,
    "\u25810xffd5": 6578,
    "\u25810x482854": 6579,
    "\u25810x482870": 6580,
    "6c2": 6581,
    "e0b": 6582,
    "times": 6583,
    "option": 6584,
    "proced": 6585,
    "\u25810x488": 6586,
    "906": 6587,
    "\u25810x40c4": 6588,
    "\u25810x42df": 6589,
    "\u25810x9110": 6590,
    "\u25810x42e090": 6591,
    "\u25810xfeee019": 6592,
    "641": 6593,
    "b7e": 6594,
    "\u25810xb7": 6595,
    "\u25810x42e0d8": 6596,
    "\u25810x42eab0": 6597,
    "fed": 6598,
    "\u25810x3e6c": 6599,
    "\u25810x420c30": 6600,
    "1ac": 6601,
    "7ee": 6602,
    "7f8": 6603,
    "972": 6604,
    "\u25810x112": 6605,
    "\u25810x413b": 6606,
    "\u25810x420c00": 6607,
    "\u25810x42e0c0": 6608,
    "\u25810x120e6cc": 6609,
    "imetofiletime": 6610,
    "96e": 6611,
    "remo": 6612,
    "tochar": 6613,
    "\u25810x413dd6": 6614,
    "\u25810x413dd7": 6615,
    "\u25810x4170f5": 6616,
    "\u25810x4170f6": 6617,
    "\u25810x4179b4": 6618,
    "\u25810x4179b5": 6619,
    "\u25810x4179c5": 6620,
    "\u25810x4179c6": 6621,
    "\u25810x417a43": 6622,
    "\u25810x417a44": 6623,
    "\u25810x417a5b": 6624,
    "\u25810x417a5c": 6625,
    "\u25810x417a9b": 6626,
    "\u25810x417a9c": 6627,
    "\u25810x417aac": 6628,
    "\u25810x417aad": 6629,
    "\u25810x417b1e": 6630,
    "\u25810x417b1f": 6631,
    "\u25810x420c2f": 6632,
    "\u25810x513d28": 6633,
    "\u2581oemtochar": 6634,
    "vip": 6635,
    "\u25810x4eb": 6636,
    "\u25810x420bf0": 6637,
    "\u25810x420bf1": 6638,
    "\u25810x420c01": 6639,
    "\u25810x420c10": 6640,
    "\u25810x420c11": 6641,
    "\u25810x420c1b": 6642,
    "\u25810x420c1c": 6643,
    "\u25810x420c25": 6644,
    "\u25810x420c26": 6645,
    "\u25810x420c39": 6646,
    "\u25810x420c3a": 6647,
    "\u25810x420c43": 6648,
    "\u25810x420c44": 6649,
    "\u25810x420c50": 6650,
    "\u25810x420c51": 6651,
    "\u25810x42f194": 6652,
    "1cb": 6653,
    "3ad": 6654,
    "\u2581prvip": 6655,
    "\u25810x120e6a0": 6656,
    "\u25810x77000723": 6657,
    "\u25810x10e": 6658,
    "\u25810x4770": 6659,
    "\u25810x10005c": 6660,
    "2a0": 6661,
    "3b0": 6662,
    "6d4": 6663,
    "okup": 6664,
    "etime": 6665,
    "\u25810x411c": 6666,
    "\u25810x3b7fb": 6667,
    "\u25810x1211d3c": 6668,
    "2c4": 6669,
    "325": 6670,
    "bdc": 6671,
    "\u25810x42c020": 6672,
    "\u2581verifyversioninfow": 6673,
    "2b0": 6674,
    "fa0": 6675,
    "\u2581aa": 6676,
    "aler": 6677,
    "\u25810x238": 6678,
    "\u25810x604": 6679,
    "\u2581lookup": 6680,
    "\u25810x100fdd": 6681,
    "\u25810x42c024": 6682,
    "\u25810x42c028": 6683,
    "389": 6684,
    "645": 6685,
    "\u25810x2b2": 6686,
    "\u25810x3f28": 6687,
    "register": 6688,
    "22c": 6689,
    "b34": 6690,
    "\u25810x698": 6691,
    "\u25810x3f29": 6692,
    "\u25810x4444": 6693,
    "\u25810x1211ec0": 6694,
    "\u2581findwindoww": 6695,
    "\u258150": 6696,
    "\u2581dat": 6697,
    "ablet": 6698,
    "a00000": 6699,
    "\u2581fput": 6700,
    "0036": 6701,
    "\u2581cqa": 6702,
    "\u2581scqa": 6703,
    "\u2581pscqa": 6704,
    "\u25810x409364": 6705,
    "\u25810x41af40": 6706,
    "forcadwork": 6707,
    "\u25810x1211e8c": 6708,
    "\u2581setcurrentdirectoryw": 6709,
    "774": 6710,
    "d01": 6711,
    "\u25810x474": 6712,
    "\u25810x41ae00": 6713,
    "beb": 6714,
    "\u25810x4ad4": 6715,
    "\u25810x40a020": 6716,
    "\u25810x41ad50": 6717,
    "\u25810x42b070": 6718,
    "\u25810x42eaa6": 6719,
    "\u25810x42eaba": 6720,
    "\u25810x42eac4": 6721,
    "1d5": 6722,
    "7e3": 6723,
    "915": 6724,
    "desk": 6725,
    "systemtime": 6726,
    "919": 6727,
    "\u2581module": 6728,
    "output": 6729,
    "\u25810x1810": 6730,
    "\u25810xa9b0": 6731,
    "\u25810x120f9": 6732,
    "\u2581oemtochara": 6733,
    "a66": 6734,
    "7a1": 6735,
    "da4": 6736,
    "ea8": 6737,
    "\u25810x754": 6738,
    "\u25810x412565": 6739,
    "eb0": 6740,
    "fb4": 6741,
    "l6660d": 6742,
    "\u25810x412566": 6743,
    "\u25810xfeee00f1": 6744,
    "\u2581tol": 6745,
    "\u2581files": 6746,
    "\u2581tolower": 6747,
    "\u25810x4bc298": 6748,
    "controlset": 6749,
    "etofiletime": 6750,
    "\u2581userprofil": 6751,
    "\u2581currentcontrolset": 6752,
    "\u2581systemtimetofiletime": 6753,
    "3f4": 6754,
    "\u25810x4258": 6755,
    "\u25810x71a1": 6756,
    "\u2581regqueryvalueexw": 6757,
    "b71": 6758,
    "\u2581meta": 6759,
    "\u25810x42e2": 6760,
    "\u25810x40938": 6761,
    "\u25810x42dfe8": 6762,
    "\u25810x454bb8": 6763,
    "\u25810x12119a0": 6764,
    "ae1": 6765,
    "e98": 6766,
    "\u25810x4491": 6767,
    "\u25810x483cf8": 6768,
    "765": 6769,
    "\u25810x4324": 6770,
    "\u25810x4a40": 6771,
    "\u2581module32": 6772,
    "\u25810x1210e70": 6773,
    "\u2581dllonexit": 6774,
    "77b": 6775,
    "910": 6776,
    "\u25810x4ed": 6777,
    "\u25810x437116": 6778,
    "\u25810x437117": 6779,
    "646": 6780,
    "978": 6781,
    "bf4": 6782,
    "\u25810x522": 6783,
    "\u25810x40a6": 6784,
    "d35": 6785,
    "dfc": 6786,
    "\u25810x232": 6787,
    "\u25810x4908": 6788,
    "2e1": 6789,
    "2e2": 6790,
    "ioc": 6791,
    "ange": 6792,
    "\u25810x700": 6793,
    "\u25810x43b6e9": 6794,
    "\u2581wtsapi32": 6795,
    "\u25810x1211e88": 6796,
    "3ac": 6797,
    "756": 6798,
    "e9d": 6799,
    "\u25810xd4": 6800,
    "\u25810x3001": 6801,
    "\u25810x43b6f3": 6802,
    "drl6660drl6660drl6660drl6660drl6660": 6803,
    "e38": 6804,
    "e70": 6805,
    "\u25810x7a4": 6806,
    "\u25810x4178": 6807,
    "\u25810x4a80": 6808,
    "\u25810x7eed": 6809,
    "\u25810xfeee009f": 6810,
    "735": 6811,
    "772": 6812,
    "b45": 6813,
    "d30": 6814,
    "f00": 6815,
    "e14": 6816,
    "\u2581lmi": 6817,
    "\u25810x40ca": 6818,
    "\u25810x16000": 6819,
    "\u25810x4bc328": 6820,
    "\u25810x4bc358": 6821,
    "66a": 6822,
    "\u25810xf1": 6823,
    "0012": 6824,
    "\u25810x1fa": 6825,
    "\u25810x57c": 6826,
    "\u25810x42cd78": 6827,
    "\u25810x42ce38": 6828,
    "743": 6829,
    "7f9": 6830,
    "cc3": 6831,
    "d7b": 6832,
    "fb6": 6833,
    "fc5": 6834,
    "\u2581localrealloc": 6835,
    "d32": 6836,
    "orn": 6837,
    "copy": 6838,
    "indi": 6839,
    "\u2581ext": 6840,
    "\u25810xa010": 6841,
    "\u25810x6ce0000": 6842,
    "240": 6843,
    "xfr": 6844,
    "\u25810x41f6": 6845,
    "\u2581gdiplus": 6846,
    "\u2581getprivateprofilestringa": 6847,
    "f2c": 6848,
    "alse": 6849,
    "\u25810xd5": 6850,
    "\u25810x10b": 6851,
    "\u25810x492": 6852,
    "\u2581updat": 6853,
    "\u25810x40b5": 6854,
    "\u25810x41db": 6855,
    "\u25810x10000000": 6856,
    "34b": 6857,
    "7a5": 6858,
    "quot": 6859,
    "9d1": 6860,
    "false": 6861,
    "\u25810x1211b38": 6862,
    "\u25810x1211e58": 6863,
    "1b5": 6864,
    "350": 6865,
    "d22": 6866,
    "dd1": 6867,
    "llow": 6868,
    "block": 6869,
    "\u2581fast": 6870,
    "\u25810x171": 6871,
    "\u25810xfeee010b": 6872,
    "1918": 6873,
    "\u25810xffee": 6874,
    "\u25810x41e1c0": 6875,
    "\u25810x41f310": 6876,
    "aaaaaaaaaaaaaaaa": 6877,
    "982": 6878,
    "uet": 6879,
    "99b9": 6880,
    "\u2581isexist": 6881,
    "\u25810xd3da80": 6882,
    "\u25810x1211878": 6883,
    "\u25810x1211f94": 6884,
    "f43": 6885,
    "try": 6886,
    "4444": 6887,
    "strue": 6888,
    "onexist": 6889,
    "zeroorn": 6890,
    "\u25810x41d0": 6891,
    "\u25810x7a40": 6892,
    "\u2581istrue": 6893,
    "\u2581isfalse": 6894,
    "\u25810x491994": 6895,
    "\u25810x1211a4c": 6896,
    "\u2581iszeroorn": 6897,
    "\u2581iszeroornonexist": 6898,
    "1ff": 6899,
    "a1c": 6900,
    "a25": 6901,
    "ef8": 6902,
    "afcdff": 6903,
    "\u25810x1e0": 6904,
    "\u25810x42b7": 6905,
    "\u25810x2d4dd": 6906,
    "\u25810x416264": 6907,
    "\u25810x442806": 6908,
    "afcdffceff": 6909,
    "\u2581b2acb2afcdffceff": 6910,
    "lity": 6911,
    "\u25810xeb": 6912,
    "\u25810xf3": 6913,
    "driver": 6914,
    "\u25810x5b2": 6915,
    "\u25810x88c0": 6916,
    "\u25810x42c580": 6917,
    "\u2581metaquot": 6918,
    "194": 6919,
    "6a0": 6920,
    "002a": 6921,
    "\u25810x40b9": 6922,
    "\u25810x7730": 6923,
    "\u25810x412541": 6924,
    "\u25810x4130d4": 6925,
    "\u25810x4130d5": 6926,
    "\u25810x42c448": 6927,
    "\u25810x42c460": 6928,
    "\u25810x42c478": 6929,
    "\u25810x42c490": 6930,
    "\u25810x42c4a8": 6931,
    "\u25810x42c4c0": 6932,
    "\u25810x42c538": 6933,
    "\u25810x42c550": 6934,
    "\u25810x42c568": 6935,
    "\u25810x442808": 6936,
    "b9b": 6937,
    "e92": 6938,
    "init": 6939,
    "\u25810xe4": 6940,
    "\u25810x6e6": 6941,
    "\u25810x44280a": 6942,
    "\u25810x44280c": 6943,
    "\u25810x44280e": 6944,
    "\u25810x442810": 6945,
    "\u25810x442812": 6946,
    "\u25810x442814": 6947,
    "\u25810x442816": 6948,
    "\u25810x442818": 6949,
    "\u25810x44281a": 6950,
    "\u25810x44281c": 6951,
    "\u25810x44281e": 6952,
    "\u2581defwindowprocw": 6953,
    "wc": 6954,
    "742": 6955,
    "c45": 6956,
    "medi": 6957,
    "\u25810x272": 6958,
    "resourc": 6959,
    "\u2581regqueryvalueexa": 6960,
    "201": 6961,
    "245": 6962,
    "cc5": 6963,
    "lot": 6964,
    "\u25810x4a8": 6965,
    "\u25810x4156": 6966,
    "\u2581filetimetosystemtime": 6967,
    "b94": 6968,
    "releas": 6969,
    "\u25810x41de00": 6970,
    "186": 6971,
    "e7ec": 6972,
    "onso": 6973,
    "fileex": 6974,
    "\u25810x4033e6": 6975,
    "\u25810x4093a5": 6976,
    "\u25810x4093a6": 6977,
    "\u25810x4093a7": 6978,
    "\u25810x4093a8": 6979,
    "\u25810x4093a9": 6980,
    "\u25810x4093aa": 6981,
    "\u25810x4093ab": 6982,
    "\u25810x41e190": 6983,
    "\u25810x1211d60": 6984,
    "\u2581comparestringa": 6985,
    "xf": 6986,
    "705": 6987,
    "b2b": 6988,
    "\u25810x1814": 6989,
    "\u25810x416bc9": 6990,
    "aa5": 6991,
    "69c0": 6992,
    "lack": 6993,
    "\u25810x2439": 6994,
    "\u25810x4048": 6995,
    "\u25810x40af": 6996,
    "\u25810xffda": 6997,
    "\u2581session": 6998,
    "\u25810x12117c8": 6999,
    "935": 7000,
    "dfd": 7001,
    "now": 7002,
    "pdf": 7003,
    "6808": 7004,
    "\u25810x154": 7005,
    "\u25810x526": 7006,
    "\u25810x41b1": 7007,
    "\u25810x42db": 7008,
    "\u25810x416c8c": 7009,
    "\u25810x41f300": 7010,
    "\u25810x41f301": 7011,
    "402": 7012,
    "d51": 7013,
    "othe": 7014,
    "\u25810x2f2": 7015,
    "\u25810x40799b": 7016,
    "\u25810x40799c": 7017,
    "\u25810x412ad5": 7018,
    "\u25810x412f39": 7019,
    "\u25810x412f3a": 7020,
    "\u25810x416263": 7021,
    "\u25810x416b22": 7022,
    "\u25810x416b23": 7023,
    "\u25810x416b33": 7024,
    "\u25810x416b34": 7025,
    "\u25810x416bb1": 7026,
    "\u25810x416bb2": 7027,
    "\u25810x416bca": 7028,
    "\u25810x416c09": 7029,
    "\u25810x416c0a": 7030,
    "\u25810x416c1a": 7031,
    "\u25810x416c1b": 7032,
    "\u25810x416c8d": 7033,
    "\u25810x41f311": 7034,
    "\u25810x41f320": 7035,
    "\u25810x41f321": 7036,
    "\u25810x41f396": 7037,
    "\u25810x41f397": 7038,
    "\u25810x41f3a0": 7039,
    "\u25810x41f3a1": 7040,
    "\u25810x41f3aa": 7041,
    "\u25810x41f3ab": 7042,
    "\u25810x41f3b4": 7043,
    "\u25810x41f3b5": 7044,
    "\u25810x41f3be": 7045,
    "\u25810x41f3bf": 7046,
    "\u25810x41f3d0": 7047,
    "\u25810x41f3d1": 7048,
    "\u25810x42bfb0": 7049,
    "\u25810x42bfc8": 7050,
    "\u25810x42bfe0": 7051,
    "\u25810x42bff8": 7052,
    "632": 7053,
    "9ac": 7054,
    "\u258133": 7055,
    "\u2581ftp": 7056,
    "andar": 7057,
    "\u25810xffdb": 7058,
    "\u2581memmove": 7059,
    "\u25810xfeee013": 7060,
    "a13": 7061,
    "\u25810x40e4": 7062,
    "emaphore": 7063,
    "\u25810x42d8a2": 7064,
    "\u25810x42d8ab": 7065,
    "\u25810x42d8b4": 7066,
    "\u25810x42d8bd": 7067,
    "\u25810x461548": 7068,
    "\u25810x1211fe4": 7069,
    "tinue": 7070,
    "wares": 7071,
    "ataddress": 7072,
    "\u2581directory": 7073,
    "yourcomputer": 7074,
    "503": 7075,
    "be0": 7076,
    "his": 7077,
    "rey": 7078,
    "thi": 7079,
    "days": 7080,
    "\u25810xe3": 7081,
    "\u2581bord": 7082,
    "dealer": 7083,
    "\u25811days": 7084,
    "ontinue": 7085,
    "havebeen": 7086,
    "oftwares": 7087,
    "outputcp": 7088,
    "allcadwork": 7089,
    "\u25810x1211f98": 7090,
    "\u2581intermedi": 7091,
    "\u2581doyoureally": 7092,
    "\u2581accessviolationataddress": 7093,
    "\u2581afx": 7094,
    "\u25810x6b4": 7095,
    "9ec": 7096,
    "d45": 7097,
    "\u2581qae": 7098,
    "\u25810x1824": 7099,
    "\u25810x28fd0": 7100,
    "\u25810xfeee01b": 7101,
    "126": 7102,
    "2838": 7103,
    "edcc": 7104,
    "\u25810x4335": 7105,
    "\u25810x565848": 7106,
    "268": 7107,
    "bf3": 7108,
    "f47": 7109,
    "2022": 7110,
    "\u25810xb5": 7111,
    "\u25810x120faac": 7112,
    "\u2581getconsoleoutputcp": 7113,
    "785": 7114,
    "b74": 7115,
    "client": 7116,
    "\u25810x44d": 7117,
    "\u25810x567": 7118,
    "\u25810xff50": 7119,
    "\u25810x4ec0": 7120,
    "\u25810x697070": 7121,
    "\u25810x5ab": 7122,
    "\u25810x3f27": 7123,
    "\u2581writeprocessmemory": 7124,
    "170": 7125,
    "9a4": 7126,
    "f42": 7127,
    "fa2": 7128,
    "3130": 7129,
    "\u25810x4b2": 7130,
    "\u25810xfeee00a1": 7131,
    "db4": 7132,
    "\u25810x45d0": 7133,
    "\u25810x80000": 7134,
    "285": 7135,
    "581": 7136,
    "a7c": 7137,
    "ce9": 7138,
    "d55": 7139,
    "\u2581ff": 7140,
    "isation": 7141,
    "\u25810x9cc0": 7142,
    "c7ffd1ff": 7143,
    "c7ffd1ffca": 7144,
    "7ff": 7145,
    "ac2": 7146,
    "\u25810xfe": 7147,
    "ffcbff": 7148,
    "\u25810x4540e0": 7149,
    "c7ffd1ffcaffcbff": 7150,
    "\u2581b2acb2afcdffceffc7ffd1ffcaffcbff": 7151,
    "\u25810x41a8": 7152,
    "\u25810x8de0": 7153,
    "\u25810x42a403": 7154,
    "\u25810x42a404": 7155,
    "\u25810x42a405": 7156,
    "\u25810x42a406": 7157,
    "\u25810x42a407": 7158,
    "\u25810x42a408": 7159,
    "\u25810x42a409": 7160,
    "\u25810x42a40a": 7161,
    "\u25810x42a40b": 7162,
    "\u25810x42a40c": 7163,
    "\u25810x42a40d": 7164,
    "\u25810x42a40e": 7165,
    "\u25810x42a40f": 7166,
    "fc1": 7167,
    "prop": 7168,
    "\u25810x9230": 7169,
    "\u25810x433660": 7170,
    "\u25810xfeee00a2": 7171,
    "6cd": 7172,
    "eb4": 7173,
    "\u2581from": 7174,
    "ontext": 7175,
    "\u25810x3f21": 7176,
    "\u25810x4034": 7177,
    "\u25810x2000000": 7178,
    "\u2581ro": 7179,
    "\u25810x1818": 7180,
    "\u25810x457c": 7181,
    "\u2581scr": 7182,
    "\u25810xda": 7183,
    "\u25810xed": 7184,
    "\u25810x1f1": 7185,
    "\u25810x4420": 7186,
    "\u25810x4dfb": 7187,
    "\u25810x40a40": 7188,
    "\u2581riched20": 7189,
    "3f8": 7190,
    "det": 7191,
    "\u2581if": 7192,
    "3a08": 7193,
    "\u25810x409c": 7194,
    "\u25810x412e": 7195,
    "\u2581isbadwrite": 7196,
    "\u25810x798": 7197,
    "\u25810x4153a0": 7198,
    "712": 7199,
    "b05": 7200,
    "latsb": 7201,
    "\u25810xef": 7202,
    "\u25810x41a5": 7203,
    "\u25810x419638": 7204,
    "\u25810x1211984": 7205,
    "\u25810x1211de8": 7206,
    "ebc": 7207,
    "\u25810x452": 7208,
    "\u25810x7e20": 7209,
    "\u2581isbadwriteptr": 7210,
    "a12": 7211,
    "f0b": 7212,
    "f69": 7213,
    "\u25810x134": 7214,
    "\u25810x9050": 7215,
    "ofaddress": 7216,
    "088": 7217,
    "2ec": 7218,
    "ad6": 7219,
    "b93": 7220,
    "3ef0": 7221,
    "sessionid": 7222,
    "a8f": 7223,
    "bc3": 7224,
    "f24": 7225,
    "hell": 7226,
    "ftime": 7227,
    "\u25810xf4": 7228,
    "\u25810x41bd": 7229,
    "\u25810x44ea20": 7230,
    "323": 7231,
    "431": 7232,
    "a71": 7233,
    "b7b": 7234,
    "433a": 7235,
    "imer": 7236,
    "a5958": 7237,
    "textw": 7238,
    "\u2581msvcr100": 7239,
    "\u25810x5265c50": 7240,
    "\u2581formatmessagea": 7241,
    "7f7": 7242,
    "word": 7243,
    "\u25810x515": 7244,
    "\u25810x1828": 7245,
    "\u25810x1211ec4": 7246,
    "\u25810x1211fb0": 7247,
    "\u25810xfeee00a3": 7248,
    "\u25810xfeee00a4": 7249,
    "ec3": 7250,
    "ede": 7251,
    "a5265": 7252,
    "ultip": 7253,
    "formultip": 7254,
    "\u25810x698b8c": 7255,
    "\u25810x12115bc": 7256,
    "\u25810x1211f08": 7257,
    "\u25810xfeee00a5": 7258,
    "\u2581getthreadpriority": 7259,
    "7ea": 7260,
    "9e2": 7261,
    "b38": 7262,
    "f03": 7263,
    "\u25810xf2": 7264,
    "\u25810x429c": 7265,
    "\u25810x7eac": 7266,
    "\u25810x4c50c0": 7267,
    "\u25810x1210f8c": 7268,
    "formultipleob": 7269,
    "\u2581myarg1myarg2": 7270,
    "79a": 7271,
    "f07": 7272,
    "thec": 7273,
    "\u25810x3b3": 7274,
    "\u25810xba8": 7275,
    "\u25810x40c8": 7276,
    "\u25810x519dd": 7277,
    "\u25810x1211f60": 7278,
    "localfiletime": 7279,
    "\u2581destroywindow": 7280,
    "\u2581filetimetolocalfiletime": 7281,
    "5655": 7282,
    "\u25810x1104": 7283,
    "\u25810x51af1": 7284,
    "\u25810x562838": 7285,
    "\u25810x563888": 7286,
    "\u25810x563a08": 7287,
    "\u25810x569b30": 7288,
    "bf8": 7289,
    "d63": 7290,
    "9640": 7291,
    "9852": 7292,
    "\u25810xc6": 7293,
    "\u2581lmir": 7294,
    "\u25810x1848": 7295,
    "\u25810x184c": 7296,
    "\u25810x1faf": 7297,
    "f64": 7298,
    "xfrm": 7299,
    "70656": 7300,
    "d0a64": 7301,
    "\u2581unget": 7302,
    "\u25810x1830": 7303,
    "\u25810x1844": 7304,
    "\u25810x4d80": 7305,
    "\u25813a5265": 7306,
    "2022433a": 7307,
    "1740d0a64": 7308,
    "\u25810xfeee00a6": 7309,
    "656c2022433a": 7310,
    "\u25813a526570656": 7311,
    "1740d0a64656c2022433a": 7312,
    "\u25813a5265706561740d0a64656c2022433a": 7313,
    "7f6": 7314,
    "9ce": 7315,
    "d91": 7316,
    "f15": 7317,
    "3534": 7318,
    "ails": 7319,
    "e5d5c": 7320,
    "enter": 7321,
    "place": 7322,
    "\u25810x118": 7323,
    "\u25810x4dc": 7324,
    "\u25810x1820": 7325,
    "\u25810x4ee0": 7326,
    "\u25810x12115d0": 7327,
    "\u25810x1211e00": 7328,
    "\u25810x5f5e5d5c": 7329,
    "912": 7330,
    "f33": 7331,
    "\u25810x1838": 7332,
    "\u25810xf000": 7333,
    "\u25810x40b888": 7334,
    "\u25810x5b5a5958": 7335,
    "\u2581lookupprivilege": 7336,
    "etw": 7337,
    "\u2581ur": 7338,
    "\u25810xfff1": 7339,
    "installation": 7340,
    "166": 7341,
    "\u25810x56b": 7342,
    "visualfox": 7343,
    "ff40": 7344,
    "\u2581vfp": 7345,
    "instan": 7346,
    "\u25810x4043": 7347,
    "\u25810x4780": 7348,
    "9a6": 7349,
    "a2c": 7350,
    "\u25810x183c": 7351,
    "\u25810x1854": 7352,
    "\u25810x186c": 7353,
    "\u25810x5000": 7354,
    "\u25810x408478": 7355,
    "\u25810x4285c0": 7356,
    "\u25810x12119d0": 7357,
    "b90": 7358,
    "\u2581cau": 7359,
    "gistry": 7360,
    "\u25810x1840": 7361,
    "\u25810x3f25": 7362,
    "usttoken": 7363,
    "\u2581caution": 7364,
    "\u2581iswindow": 7365,
    "\u2581fileexistsw": 7366,
    "fe5": 7367,
    "\u25810x182c": 7368,
    "\u25810x1850": 7369,
    "\u25810x3810": 7370,
    "\u25810x181bc0": 7371,
    "privileges": 7372,
    "\u2581regsetvalueexa": 7373,
    "usttokenprivileges": 7374,
    "a65": 7375,
    "gcc": 7376,
    "\u2581coun": 7377,
    "\u25810x185c": 7378,
    "\u2581libgcc": 7379,
    "va": 7380,
    "12a": 7381,
    "enh": 7382,
    "1848": 7383,
    "391": 7384,
    "405": 7385,
    "001a": 7386,
    "b47c": 7387,
    "\u25810xc5": 7388,
    "\u25810xe6": 7389,
    "\u25810x1834": 7390,
    "\u25810x1868": 7391,
    "\u25810x4c78": 7392,
    "\u25810x4e2": 7393,
    "\u25810x1858": 7394,
    "\u25810xa020": 7395,
    "\u25810x120ce": 7396,
    "\u25810x41d1e0": 7397,
    "305": 7398,
    "7f2": 7399,
    "eac8": 7400,
    "extex": 7401,
    "\u25810xb1": 7402,
    "\u2581date": 7403,
    "\u25810x1878": 7404,
    "\u25810x40f1": 7405,
    "\u25810x3820382": 7406,
    "97c": 7407,
    "993": 7408,
    "af1": 7409,
    "5678": 7410,
    "upper": 7411,
    "correct": 7412,
    "iocontrol": 7413,
    "\u25810x120fd64": 7414,
    "\u25810x1211ca4": 7415,
    "\u2581localfilet": 7416,
    "\u2581localfiletimetofiletime": 7417,
    "a05": 7418,
    "a62": 7419,
    "b91": 7420,
    "d25": 7421,
    "fdb": 7422,
    "mple": 7423,
    "\u25810x1864": 7424,
    "fication": 7425,
    "\u25810x4208e0": 7426,
    "\u25810x1211f58": 7427,
    "\u25810x3810381": 7428,
    "a4948": 7429,
    "roniz": 7430,
    "\u25810x1870": 7431,
    "\u25810x1d000": 7432,
    "\u25810x40a3d1": 7433,
    "\u25810x40a3d2": 7434,
    "\u25810x40a3d3": 7435,
    "\u25810x448ad0": 7436,
    "gs": 7437,
    "b30": 7438,
    "c018": 7439,
    "\u2581sig": 7440,
    "\u2581call": 7441,
    "\u2581charlower": 7442,
    "\u25810xfeee00a7": 7443,
    "\u25810xfeee00a8": 7444,
    "\u25810xfeee00bc": 7445,
    "\u2581synchroniz": 7446,
    "\u2581deviceiocontrol": 7447,
    "7d571f": 7448,
    "f4e4d4c": 7449,
    "\u25810x1874": 7450,
    "\u25810x43424": 7451,
    "\u25810x42c070": 7452,
    "\u25810x47ee08": 7453,
    "\u25810x4b4a4948": 7454,
    "\u25810x4f4e4d4c": 7455,
    "\u25810x54500000": 7456,
    "\u25810xd27d571f": 7457,
    "115": 7458,
    "486": 7459,
    "dio": 7460,
    "565554": 7461,
    "\u25810x187c": 7462,
    "\u25810x3332": 7463,
    "\u25810x77002": 7464,
    "\u25810x57565554": 7465,
    "\u2581formatmessagew": 7466,
    "\u2581outputdebugstringw": 7467,
    "979": 7468,
    "f14": 7469,
    "ecode": 7470,
    "\u25810x573c": 7471,
    "initializeex": 7472,
    "\u2581coinitializeex": 7473,
    "2ed": 7474,
    "3c5": 7475,
    "\u25810xdb": 7476,
    "\u25810xe1": 7477,
    "\u25810x419c98": 7478,
    "\u25810x2280228": 7479,
    "fa1": 7480,
    "64544": 7481,
    "e3d3c": 7482,
    "etween": 7483,
    "\u25810x584": 7484,
    "\u25810x4609": 7485,
    "\u25810xa030": 7486,
    "\u25810xa210": 7487,
    "\u25810x4188a8": 7488,
    "\u25810x419cc8": 7489,
    "\u25810x3f3e3d3c": 7490,
    "\u25810x43424140": 7491,
    "\u25810x47464544": 7492,
    "\u25810xfeee00a9": 7493,
    "52e8": 7494,
    "e1d1c": 7495,
    "\u25810x3736": 7496,
    "\u25810x4070": 7497,
    "\u25810x593748": 7498,
    "\u25810x1211708": 7499,
    "715": 7500,
    "d13": 7501,
    "61514": 7502,
    "e2d2c": 7503,
    "\u25812022": 7504,
    "\u2581class": 7505,
    "\u25810x37363534": 7506,
    "c03": 7507,
    "d15": 7508,
    "f7b": 7509,
    "b445": 7510,
    "a3938": 7511,
    "\u25810xebad": 7512,
    "\u25810x17161514": 7513,
    "\u25810x2f2e2d2c": 7514,
    "\u25810x33323130": 7515,
    "\u25810x3b3a3938": 7516,
    "\u25810xfeee00aa": 7517,
    "195": 7518,
    "e64": 7519,
    "drag": 7520,
    "22120": 7521,
    "62524": 7522,
    "a2928": 7523,
    "1a1918": 7524,
    "\u2581stdio": 7525,
    "\u25810x483d": 7526,
    "\u2581charpreva": 7527,
    "\u25810x1b1a1918": 7528,
    "\u25810x1f1e1d1c": 7529,
    "\u25810x23222120": 7530,
    "\u25810x27262524": 7531,
    "\u25810x2b2a2928": 7532,
    "\u25810xfeee00ac": 7533,
    "\u2581sldrl6660drl6660drl6660drl6660drl6660drl6660drl6660drl6660": 7534,
    "te": 7535,
    "95b": 7536,
    "25150": 7537,
    "\u25810x4105": 7538,
    "\u25810x53525150": 7539,
    "\u25810xfeee00ae": 7540,
    "28c": 7541,
    "7d4": 7542,
    "dfe": 7543,
    "e50": 7544,
    "14c8": 7545,
    "4005": 7546,
    "d310": 7547,
    "\u2581vfp6": 7548,
    "uldnot": 7549,
    "\u25810x4108": 7550,
    "\u25810x1211b58": 7551,
    "\u25810xfeee00ab": 7552,
    "\u2581shgetfileinfoa": 7553,
    "b26": 7554,
    "f79": 7555,
    "ver": 7556,
    "trect": 7557,
    "\u25810xfeee00ad": 7558,
    "258": 7559,
    "764": 7560,
    "d6b": 7561,
    "e7e": 7562,
    "b880": 7563,
    "\u25810x9170": 7564,
    "\u25810x40a3d4": 7565,
    "\u25810x1211ba4": 7566,
    "134": 7567,
    "a9c": 7568,
    "7be8": 7569,
    "\u2581winht": 7570,
    "\u25810x1010": 7571,
    "\u25810x4640": 7572,
    "\u25810x5607a8": 7573,
    "\u2581globaladd": 7574,
    "\u2581regopenkeya": 7575,
    "\u2581registerservicectrlhandler": 7576,
    "d9b": 7577,
    "12b8": 7578,
    "ongles": 7579,
    "\u25810x43c": 7580,
    "\u25810x43b4": 7581,
    "\u25810x120fe": 7582,
    "\u2581msvcr71": 7583,
    "b3b": 7584,
    "frame": 7585,
    "\u2581signal": 7586,
    "\u2581getcursorpos": 7587,
    "709": 7588,
    "c89": 7589,
    "e32": 7590,
    "e82": 7591,
    "f8f": 7592,
    "ff5": 7593,
    "fbf8": 7594,
    "main": 7595,
    "\u2581stri": 7596,
    "\u25810x4ac": 7597,
    "\u25810x40b0": 7598,
    "\u25810xebad74": 7599,
    "\u25810x1153ef0": 7600,
    "\u2581movefilea": 7601,
    "a73": 7602,
    "red": 7603,
    "keya": 7604,
    "\u25810x150": 7605,
    "\u25810x416b50": 7606,
    "\u25810x486d18": 7607,
    "\u25810x1211ea8": 7608,
    "\u25810x7ba00000": 7609,
    "791": 7610,
    "9c9": 7611,
    "e31": 7612,
    "ea2": 7613,
    "\u25810x8850": 7614,
    "\u25810x4208df": 7615,
    "\u25810x7a22f8": 7616,
    "db2": 7617,
    "\u25810xe7": 7618,
    "\u25810x4720": 7619,
    "\u25810x41a8a8": 7620,
    "\u25810x41bc98": 7621,
    "\u25810x41bcc8": 7622,
    "\u25810x4af460": 7623,
    "\u2581setscroll": 7624,
    "a4c4": 7625,
    "util": 7626,
    "\u25810mb": 7627,
    "\u25810xd6": 7628,
    "\u2581cocreate": 7629,
    "3c8": 7630,
    "48c": 7631,
    "604": 7632,
    "779": 7633,
    "\u25810xb9": 7634,
    "\u25810x132": 7635,
    "\u25810x40e500": 7636,
    "\u25810x12117b0": 7637,
    "utt": 7638,
    "7a90": 7639,
    "anden": 7640,
    "\u25810xee": 7641,
    "\u25810x42d0": 7642,
    "\u25810x4de9": 7643,
    "\u25810x7e8c": 7644,
    "\u25810x431f68": 7645,
    "\u25810x1211eb4": 7646,
    "\u25810x2d4ddc0": 7647,
    "\u25810x48b0": 7648,
    "\u25810x4c40": 7649,
    "\u2581service": 7650,
    "vb": 7651,
    "36b": 7652,
    "bb5": 7653,
    "0024": 7654,
    "\u25810x100098": 7655,
    "\u2581expanden": 7656,
    "\u25810x1210f88": 7657,
    "\u25810xfeee00b1": 7658,
    "\u2581applicationerror": 7659,
    "\u2581writeprivateprofile": 7660,
    "ak": 7661,
    "e9b": 7662,
    "6cbe": 7663,
    "\u25810xba": 7664,
    "\u25810x1312": 7665,
    "\u2581strcpyw": 7666,
    "\u25810x491300": 7667,
    "\u25810xfeee00af": 7668,
    "782": 7669,
    "ec5": 7670,
    "ece": 7671,
    "\u25810x40a3d5": 7672,
    "\u25810x40a3d6": 7673,
    "\u25810x40a3d7": 7674,
    "\u25810x417d20": 7675,
    "\u25810xfeee00b0": 7676,
    "6b0": 7677,
    "\u25810x8cd8": 7678,
    "88c": 7679,
    "99c": 7680,
    "9eb": 7681,
    "dda": 7682,
    "f9c": 7683,
    "f9d0": 7684,
    "play": 7685,
    "\u25810x90c0": 7686,
    "\u25810x409ab4": 7687,
    "\u25810x409ab5": 7688,
    "555": 7689,
    "\u25810x4de8": 7690,
    "\u25810x9090": 7691,
    "\u2581memchr": 7692,
    "d06": 7693,
    "9228": 7694,
    "\u25810x1210f80": 7695,
    "a14": 7696,
    "a22": 7697,
    "ddc": 7698,
    "fcc": 7699,
    "e054": 7700,
    "\u25810x5375": 7701,
    "\u25810x406698": 7702,
    "7a00": 7703,
    "orary": 7704,
    "\u25810x40b1": 7705,
    "\u25810x41ac": 7706,
    "\u2581default": 7707,
    "\u25810x1211b84": 7708,
    "\u25810x1211ebc": 7709,
    "\u2581setfiletime": 7710,
    "75b": 7711,
    "b81c": 7712,
    "over": 7713,
    "pass": 7714,
    "\u25810xc7": 7715,
    "config": 7716,
    "\u25810x447": 7717,
    "\u25810x45cd": 7718,
    "\u25810x83e6": 7719,
    "\u25810xe9a1": 7720,
    "\u25810x4305f8": 7721,
    "\u25810x7eab78": 7722,
    "\u25810xfeee00b3": 7723,
    "390": 7724,
    "725": 7725,
    "7f5": 7726,
    "d61": 7727,
    "f21": 7728,
    "f32": 7729,
    "auth": 7730,
    "\u25810xfd": 7731,
    "\u25810x1d4": 7732,
    "\u25810x3f4": 7733,
    "\u2581users": 7734,
    "\u25810x40b2": 7735,
    "\u25810x423a": 7736,
    "\u25810x8e50": 7737,
    "\u25810xfeee00b2": 7738,
    "\u25810xfeee00b4": 7739,
    "\u2581waitformultipleob": 7740,
    "48d": 7741,
    "6b8": 7742,
    "wer": 7743,
    "\u2581x0": 7744,
    "\u2581cpp": 7745,
    "\u25810x51a0": 7746,
    "\u2581releasesemaphore": 7747,
    "3a0": 7748,
    "5c5": 7749,
    "76e": 7750,
    "bc1": 7751,
    "\u25817z2": 7752,
    "\u25817z8": 7753,
    "\u25817zc": 7754,
    "\u25817z30": 7755,
    "\u25810x244": 7756,
    "debughook": 7757,
    "\u2581cppdebughook": 7758,
    "fa3": 7759,
    "24ac": 7760,
    "\u25810xe5": 7761,
    "dialog": 7762,
    "\u2581myarg1": 7763,
    "\u25810xc0000": 7764,
    "\u25810xfeee00b5": 7765,
    "\u2581cocreateinstan": 7766,
    "930": 7767,
    "e69": 7768,
    "pkg": 7769,
    "180f": 7770,
    "\u25810x4c1": 7771,
    "\u25810x3f26": 7772,
    "954": 7773,
    "df1": 7774,
    "f25": 7775,
    "ff2": 7776,
    "sch": 7777,
    "7c80": 7778,
    "bcd4": 7779,
    "\u258102a": 7780,
    "\u25810xdd": 7781,
    "\u25810x4a4": 7782,
    "\u25810x830": 7783,
    "\u25810x44d5": 7784,
    "\u25810x1211ad4": 7785,
    "\u25810x1211b34": 7786,
    "\u25810x1211dd8": 7787,
    "su": 7788,
    "105": 7789,
    "793": 7790,
    "anew": 7791,
    "f200": 7792,
    "yourpc": 7793,
    "\u25810x181be8": 7794,
    "\u25810x437038": 7795,
    "\u2581getsystemdefaultuilanguage": 7796,
    "111": 7797,
    "714": 7798,
    "722": 7799,
    "a55": 7800,
    "bf6": 7801,
    "\u2581line": 7802,
    "\u25810x5258": 7803,
    "\u25810x4540b0": 7804,
    "\u25810x1211a38": 7805,
    "6c8": 7806,
    "bf5": 7807,
    "e85": 7808,
    "gen": 7809,
    "ocus": 7810,
    "\u25810xcb": 7811,
    "\u25810x6978": 7812,
    "\u25810x7d40": 7813,
    "ba9": 7814,
    "5648": 7815,
    "d250": 7816,
    "\u2581all": 7817,
    "\u25810x47c": 7818,
    "\u2581enable": 7819,
    "\u2581convert": 7820,
    "\u25810x181c10": 7821,
    "\u25810x4af478": 7822,
    "\u25810x1210e6f": 7823,
    "\u25810x1210e73": 7824,
    "\u25810x1210e74": 7825,
    "\u25810x1210e77": 7826,
    "\u25810x1210e7b": 7827,
    "\u25810x1211d8c": 7828,
    "\u25810xfeee00b7": 7829,
    "b73": 7830,
    "ba8": 7831,
    "d678": 7832,
    "\u25810x8258": 7833,
    "\u2581flatsb": 7834,
    "\u25810x43a4c8": 7835,
    "\u25810x1210f66": 7836,
    "\u25810x1210f6a": 7837,
    "\u2581dialogbox": 7838,
    "\u25810xfeee00b8": 7839,
    "385": 7840,
    "73c": 7841,
    "e9a": 7842,
    "ection": 7843,
    "\u25810x1900": 7844,
    "\u25810x4013": 7845,
    "\u25810x4140": 7846,
    "\u25810x4820": 7847,
    "\u25810x5f3c": 7848,
    "\u25810xfffffffc": 7849,
    "fd6": 7850,
    "drawing": 7851,
    "\u25810x4160": 7852,
    "\u25810x4f60": 7853,
    "\u25810x437800": 7854,
    "363": 7855,
    "37c": 7856,
    "d26": 7857,
    "d46": 7858,
    "tiv": 7859,
    "\u25811c": 7860,
    "9fa2": 7861,
    "cache": 7862,
    "\u25810x4b0": 7863,
    "\u25810x42da": 7864,
    "\u25810x181c38": 7865,
    "\u25810x5f3b5c": 7866,
    "\u25810x5f3c24": 7867,
    "\u25810x5f5f30": 7868,
    "\u25810x5f5f70": 7869,
    "\u25810x5f6114": 7870,
    "\u25810x5f612c": 7871,
    "deleteatom": 7872,
    "\u25810xfeee00b6": 7873,
    "\u25810xfeee00b9": 7874,
    "\u2581getmenuitem": 7875,
    "\u2581globaldeleteatom": 7876,
    "fs": 7877,
    "c49": 7878,
    "\u25810x470": 7879,
    "\u25810x4f0": 7880,
    "\u25810x42ed": 7881,
    "\u25810x40015f": 7882,
    "\u25810x42180f": 7883,
    "\u25810x421810": 7884,
    "\u25810x1211684": 7885,
    "\u25810x1211d88": 7886,
    "116": 7887,
    "505": 7888,
    "ae6": 7889,
    "emo": 7890,
    "wit": 7891,
    "\u2581iob": 7892,
    "\u25810x366": 7893,
    "\u25810x409e": 7894,
    "\u25810x40c6": 7895,
    "\u25810x455438": 7896,
    "\u25810x1211f8c": 7897,
    "20e": 7898,
    "f6c": 7899,
    "\u2581max": 7900,
    "namedp": 7901,
    "\u25810x1fe": 7902,
    "\u25810x416dd3": 7903,
    "\u25810x416dd4": 7904,
    "\u25810x42a0a4": 7905,
    "\u25810xfeee00bb": 7906,
    "7fd": 7907,
    "upd": 7908,
    "727c": 7909,
    "e014": 7910,
    "\u25810x6940": 7911,
    "\u25810x7d27": 7912,
    "282": 7913,
    "9e5": 7914,
    "b64": 7915,
    "f16": 7916,
    "18d5": 7917,
    "lotter": 7918,
    "\u25810x4055": 7919,
    "\u25810x40b6": 7920,
    "\u25810x41b9": 7921,
    "\u25810x45d1": 7922,
    "\u25810x4740": 7923,
    "\u25810x12108": 7924,
    "353": 7925,
    "a7d": 7926,
    "bda": 7927,
    "f82": 7928,
    "3030": 7929,
    "\u2581cho": 7930,
    "\u2581full": 7931,
    "\u25810x288": 7932,
    "\u25810x6ab8": 7933,
    "\u2581createp": 7934,
    "\u25810xfeee00ba": 7935,
    "4c9": 7936,
    "bde": 7937,
    "d3d": 7938,
    "d42": 7939,
    "focus": 7940,
    "\u25810xfb": 7941,
    "\u25810x42a5": 7942,
    "\u25810x4e00": 7943,
    "\u25810x94f0": 7944,
    "\u25810x1211cbc": 7945,
    "\u25810x1211d7c": 7946,
    "1c5": 7947,
    "a89": 7948,
    "d82": 7949,
    "\u25810x435024": 7950,
    "\u25810x4e2de0": 7951,
    "\u2581regcreatekeyexa": 7952,
    "f96": 7953,
    "0081": 7954,
    "ableto": 7955,
    "\u25810xac0": 7956,
    "\u2581licen": 7957,
    "\u25810x8640": 7958,
    "\u25810x435026": 7959,
    "\u25810x435032": 7960,
    "\u25810x1010101": 7961,
    "tokeninformation": 7962,
    "342": 7963,
    "9ee": 7964,
    "f75": 7965,
    "bcb8": 7966,
    "\u25810x4078": 7967,
    "\u25810xfeee00bd": 7968,
    "\u25810xfeee00be": 7969,
    "ik": 7970,
    "80c": 7971,
    "d12": 7972,
    "db3": 7973,
    "3880": 7974,
    "sions": 7975,
    "ssetup": 7976,
    "\u25810x4100": 7977,
    "\u25810xffd6": 7978,
    "\u25810x1211dc4": 7979,
    "cli": 7980,
    "e18": 7981,
    "zip": 7982,
    "9d50": 7983,
    "follow": 7984,
    "updated": 7985,
    "\u25810x41dd": 7986,
    "\u25810x45b1": 7987,
    "following": 7988,
    "\u25810x40300c": 7989,
    "\u25810x41aa80": 7990,
    "583": 7991,
    "678": 7992,
    "b1b": 7993,
    "\u2581os": 7994,
    "001e": 7995,
    "fc2c8": 7996,
    "\u25810x3f5": 7997,
    "\u25810x4016": 7998,
    "\u25810x417c10": 7999,
    "\u25810x41aab0": 8000,
    "\u25810x4fc2c8": 8001,
    "\u25810x1211e94": 8002,
    "\u25810xfeee00bf": 8003,
    "\u2581getthreadtimes": 8004,
    "b6c": 8005,
    "ivq": 8006,
    "30ec": 8007,
    "adc0": 8008,
    "d6d8": 8009,
    "\u25810xf5": 8010,
    "connect": 8011,
    "informati": 8012,
    "\u25810x417be0": 8013,
    "\u25810x4315b0": 8014,
    "\u25810x56bb48": 8015,
    "\u25810xfeee00d7": 8016,
    "7df": 8017,
    "7fc": 8018,
    "914": 8019,
    "e25": 8020,
    "tob": 8021,
    "wil": 8022,
    "\u25810x108": 8023,
    "\u2581fastf": 8024,
    "\u25810x40f4": 8025,
    "\u25810x1210f84": 8026,
    "\u25810x2d4d918": 8027,
    "\u2581thisprogram": 8028,
    "e8f": 8029,
    "faa": 8030,
    "fd5": 8031,
    "20c0": 8032,
    "inthe": 8033,
    "\u25810x418c": 8034,
    "\u25810x5ab0": 8035,
    "\u25810x412670": 8036,
    "\u25810x461500": 8037,
    "\u25810x6a7be8": 8038,
    "\u25810x6b4be8": 8039,
    "\u25810xfeee00c0": 8040,
    "121": 8041,
    "ac5": 8042,
    "af2": 8043,
    "web": 8044,
    "14de": 8045,
    "sthe": 8046,
    "\u2581164": 8047,
    "\u25810x498": 8048,
    "\u2581query": 8049,
    "lientin": 8050,
    "\u25810x419b": 8051,
    "\u25810x8e60": 8052,
    "\u25810x40a5bc": 8053,
    "\u2581fastfail": 8054,
    "\u25810xc0000409": 8055,
    "\u25810xfeee00c1": 8056,
    "\u2581installation": 8057,
    "\u2581charlowerbuff": 8058,
    "1a7": 8059,
    "506": 8060,
    "a79": 8061,
    "b8b": 8062,
    "ba7": 8063,
    "16a0": 8064,
    "1cd8": 8065,
    "\u2581cod": 8066,
    "onthe": 8067,
    "before": 8068,
    "\u25810x4561": 8069,
    "\u25810x2d4db": 8070,
    "downloaded": 8071,
    "2c2": 8072,
    "dc67": 8073,
    "itis": 8074,
    "advis": 8075,
    "eexpi": 8076,
    "remov": 8077,
    "\u2581demo": 8078,
    "\u25810x4450": 8079,
    "\u25810x9820": 8080,
    "\u2581change": 8081,
    "beforeyou": 8082,
    "isalready": 8083,
    "\u25810x1211d4c": 8084,
    "\u25810xfeee00c2": 8085,
    "\u2581gettempfilenamew": 8086,
    "\u2581getvolumeinformationw": 8087,
    "545": 8088,
    "a4d": 8089,
    "artn": 8090,
    "dddc": 8091,
    "f0f9": 8092,
    "grey": 8093,
    "undb": 8094,
    "acode": 8095,
    "codes": 8096,
    "oyour": 8097,
    "\u2581itis": 8098,
    "inting": 8099,
    "stries": 8100,
    "\u25810x510": 8101,
    "\u2581shell": 8102,
    "backups": 8103,
    "edfiles": 8104,
    "groundb": 8105,
    "withthi": 8106,
    "\u25810x40ea": 8107,
    "\u25810x81a0": 8108,
    "\u25810x9070": 8109,
    "\u2581prints": 8110,
    "catalogs": 8111,
    "continue": 8112,
    "swindows": 8113,
    "ofcadwork": 8114,
    "softwares": 8115,
    "\u2581clientin": 8116,
    "abletoquit": 8117,
    "informatik": 8118,
    "sbeforeyou": 8119,
    "\u25810x12119b0": 8120,
    "\u25810x2050000": 8121,
    "\u2581itisadvis": 8122,
    "\u2581startfile": 8123,
    "groundblack": 8124,
    "\u25810xfeee00c3": 8125,
    "clientnumber": 8126,
    "\u2581pleasecheck": 8127,
    "withthissetup": 8128,
    "allyourrunning": 8129,
    "\u2581doyouwanttore": 8130,
    "\u2581globalrealloc": 8131,
    "\u2581dialogswindows": 8132,
    "\u2581backgroundblack": 8133,
    "\u2581openanexploreron": 8134,
    "sbeforeyoucontinue": 8135,
    "\u2581doyoureallywantto": 8136,
    "\u2581gettokeninformation": 8137,
    "\u2581itisadvisabletoquit": 8138,
    "allyourrunningapplication": 8139,
    "sbeforeyoucontinuewiththissetup": 8140,
    "\u2581itisadvisabletoquitallyourrunningapplication": 8141,
    "2c1": 8142,
    "586": 8143,
    "d69": 8144,
    "3f00": 8145,
    "\u25810x464": 8146,
    "\u25810x1211eb0": 8147,
    "a91": 8148,
    "\u25810x49b0": 8149,
    "\u2581lcidto": 8150,
    "filesfrom": 8151,
    "\u25810xfeee00c4": 8152,
    "\u2581lcidtolocalename": 8153,
    "921": 8154,
    "lang": 8155,
    "\u25810x4b00": 8156,
    "available": 8157,
    "\u25810x83e014": 8158,
    "\u25810x1210e2b": 8159,
    "\u25810x1210f28": 8160,
    "732": 8161,
    "ae4": 8162,
    "b66": 8163,
    "d94": 8164,
    "12a0": 8165,
    "70ce": 8166,
    "longw": 8167,
    "\u25810x4194": 8168,
    "\u25810x41d8": 8169,
    "\u25810x47ed": 8170,
    "\u25810x1210dec": 8171,
    "\u25810x12119f4": 8172,
    "\u25810x1211e50": 8173,
    "a064": 8174,
    "\u2581strto": 8175,
    "\u25810x41ce": 8176,
    "\u25810x1210d1b": 8177,
    "vironmentblock": 8178,
    "125": 8179,
    "334": 8180,
    "610": 8181,
    "e3a": 8182,
    "enu": 8183,
    "top": 8184,
    "005c": 8185,
    "5234": 8186,
    "7ce3": 8187,
    "\u25810x40c5": 8188,
    "\u25810x120e694": 8189,
    "\u25810x120e69c": 8190,
    "\u25810x1211a30": 8191,
    "thiscomputer": 8192,
    "nd": 8193,
    "74e": 8194,
    "b1c": 8195,
    "d79": 8196,
    "0054": 8197,
    "f084": 8198,
    "laser": 8199,
    "langid": 8200,
    "\u25810x1002": 8201,
    "\u25810x4a60": 8202,
    "\u25810x57eb": 8203,
    "\u25810xfeee00c6": 8204,
    "3ff": 8205,
    "6eb": 8206,
    "f8b": 8207,
    "4010": 8208,
    "procedure": 8209,
    "\u25810x40f690": 8210,
    "\u25810x1211894": 8211,
    "\u25810xfeee00c7": 8212,
    "oh": 8213,
    "vm": 8214,
    "6a5": 8215,
    "a75": 8216,
    "6088": 8217,
    "dec5b": 8218,
    "\u25810x4ef": 8219,
    "\u25810xa4a0": 8220,
    "\u2581classes": 8221,
    "\u25810xea6": 8222,
    "\u25810x4031": 8223,
    "\u25810x4184": 8224,
    "\u25810x44ed": 8225,
    "\u2581gettext": 8226,
    "\u25810xfeee00c5": 8227,
    "2c8": 8228,
    "602": 8229,
    "apt": 8230,
    "e75": 8231,
    "eff": 8232,
    "98e0": 8233,
    "sand": 8234,
    "olcid": 8235,
    "\u25810x87": 8236,
    "dified": 8237,
    "enamet": 8238,
    "\u25810x4330": 8239,
    "\u25810x4a30": 8240,
    "\u25810x7ea5": 8241,
    "\u25810x121192f": 8242,
    "enametolcid": 8243,
    "\u2581localenametolcid": 8244,
    "dy": 8245,
    "a76": 8246,
    "w32": 8247,
    "\u25810x56ba": 8248,
    "\u25810xffd9": 8249,
    "\u2581readonly": 8250,
    "\u25810x1210e10": 8251,
    "\u25810xfeee00c8": 8252,
    "578": 8253,
    "9f4": 8254,
    "d23": 8255,
    "\u2581inf": 8256,
    "\u2581sfc": 8257,
    "\u25810x4364": 8258,
    "\u25810x7e90": 8259,
    "\u25810x42b778": 8260,
    "\u25810x430a80": 8261,
    "\u25810x12117ec": 8262,
    "\u25810x1211b8c": 8263,
    "\u2581globalfind": 8264,
    "175": 8265,
    "1ec": 8266,
    "bf7": 8267,
    "\u2581dx": 8268,
    "11bc": 8269,
    "7578": 8270,
    "c0e0": 8271,
    "\u25810x4551": 8272,
    "\u25810x4b20": 8273,
    "\u25810x8c000": 8274,
    "\u25810x417d50": 8275,
    "\u25810x46b5d4": 8276,
    "\u25810xfeee00ca": 8277,
    "\u2581isdbcsleadbyteex": 8278,
    "558": 8279,
    "69a": 8280,
    "92c": 8281,
    "ee3": 8282,
    "6925": 8283,
    "bcac": 8284,
    "e4c0": 8285,
    "\u2581e000": 8286,
    "\u25810x7e94": 8287,
    "\u25810x4175f4": 8288,
    "licenceson": 8289,
    "6c4": 8290,
    "bff": 8291,
    "e30": 8292,
    "e78": 8293,
    "40a3": 8294,
    "9a9c": 8295,
    "\u2581ldr": 8296,
    "\u25810x1bc": 8297,
    "\u25810x7e8d": 8298,
    "\u25810x7e95": 8299,
    "80004005": 8300,
    "\u2581replace": 8301,
    "\u2581getscroll": 8302,
    "\u25810xfeedf200": 8303,
    "\u25810xfeee00c9": 8304,
    "\u25810xfeee00cb": 8305,
    "\u2581error0x80004005": 8306,
    "138": 8307,
    "398": 8308,
    "7c4": 8309,
    "bb4": 8310,
    "e3c": 8311,
    "0022": 8312,
    "d4b8": 8313,
    "icli": 8314,
    "\u2581ssp": 8315,
    "\u25810x9c8": 8316,
    "\u25810xef4": 8317,
    "\u25810x40a1": 8318,
    "\u2581sspicli": 8319,
    "\u25810x40a230": 8320,
    "540": 8321,
    "ab6": 8322,
    "git": 8323,
    "\u25810x7aa": 8324,
    "located": 8325,
    "onsolea": 8326,
[...]
