{
    "<pad>": 0,
    "<unk>": 1,
    "<mask>": 2,
    "\u25810": 3,
    "\u25810x": 4,
    "00": 5,
    "er": 6,
    "ne": 7,
    "32": 8,
    "\u2581k": 9,
    "l32": 10,
    "erne": 11,
    "ernel32": 12,
    "\u2581kernel32": 13,
    "\u25810x1": 14,
    "\u25810x0": 15,
    "et": 16,
    "ti": 17,
    "al": 18,
    "ee": 19,
    "ad": 20,
    "get": 21,
    "000": 22,
    "ec": 23,
    "\u25810x7": 24,
    "\u25810x4": 25,
    "in": 26,
    "re": 27,
    "\u25810xf": 28,
    "\u2581get": 29,
    "iti": 30,
    "0000": 31,
    "oc": 32,
    "\u25810x77": 33,
    "one": 34,
    "eee": 35,
    "\u25810xfeee": 36,
    "ter": 37,
    "tr": 38,
    "sec": 39,
    "cal": 40,
    "secti": 41,
    "riti": 42,
    "ritical": 43,
    "riticalsecti": 44,
    "on": 45,
    "ss": 46,
    "le": 47,
    "ue": 48,
    "pr": 49,
    "is": 50,
    "proc": 51,
    "read": 52,
    "\u2581n": 53,
    "ecriticalsecti": 54,
    "ls": 55,
    "val": 56,
    "\u2581none": 57,
    "en": 58,
    "\u25810x1000": 59,
    "value": 60,
    "\u2581is": 61,
    "\u2581in": 62,
    "\u2581getproc": 63,
    "dre": 64,
    "getvalue": 65,
    "lsgetvalue": 66,
    "dress": 67,
    "address": 68,
    "\u2581getprocaddress": 69,
    "readp": 70,
    "bad": 71,
    "\u2581isbad": 72,
    "readptr": 73,
    "\u2581isbadreadptr": 74,
    "\u25810xfeee000": 75,
    "ap": 76,
    "000000": 77,
    "\u25810x12": 78,
    "loc": 79,
    "a0": 80,
    "or": 81,
    "11": 82,
    "iz": 83,
    "aliz": 84,
    "de": 85,
    "itializ": 86,
    "\u2581initializ": 87,
    "\u25810x77000000": 88,
    "\u2581initializecriticalsecti": 89,
    "\u2581s": 90,
    "co": 91,
    "\u25810x46": 92,
    "f0": 93,
    "ff": 94,
    "\u2581t": 95,
    "\u25810x1211": 96,
    "\u25810x2": 97,
    "\u25810xfa0": 98,
    "\u2581f": 99,
    "\u25810xfeee00": 100,
    "\u25810x8": 101,
    "an": 102,
    "ar": 103,
    "he": 104,
    "\u2581en": 105,
    "te": 106,
    "as": 107,
    "heap": 108,
    "us": 109,
    "onex": 110,
    "\u25810xfeee0001": 111,
    "\u2581heap": 112,
    "\u2581tlsgetvalue": 113,
    "ror": 114,
    "\u2581initializecriticalsectionex": 115,
    "las": 116,
    "laster": 117,
    "lasterror": 118,
    "alloc": 119,
    "\u2581c": 120,
    "po": 121,
    "\u25810x770": 122,
    "and": 123,
    "poin": 124,
    "user": 125,
    "dec": 126,
    "pointer": 127,
    "\u2581l": 128,
    "\u2581user": 129,
    "depointer": 130,
    "\u2581user32": 131,
    "\u2581flsgetvalue": 132,
    "48": 133,
    "39": 134,
    "ow": 135,
    "lea": 136,
    "\u2581set": 137,
    "d0": 138,
    "10": 139,
    "\u25810x5": 140,
    "90": 141,
    "\u2581m": 142,
    "\u2581heapalloc": 143,
    "str": 144,
    "\u25810x100": 145,
    "\u2581w": 146,
    "nt": 147,
    "ing": 148,
    "\u25810x771": 149,
    "\u25810x10": 150,
    "ta": 151,
    "\u25810x41": 152,
    "inf": 153,
    "\u25810x24": 154,
    "ex": 155,
    "terc": 156,
    "ecriticalsection": 157,
    "\u25810x42": 158,
    "\u25810x2439": 159,
    "string": 160,
    "leav": 161,
    "\u2581leav": 162,
    "\u2581leavecriticalsection": 163,
    "\u25810x243948": 164,
    "fi": 165,
    "riticalsection": 166,
    "tercriticalsection": 167,
    "\u2581entercriticalsection": 168,
    "har": 169,
    "\u25810x45": 170,
    "\u2581enco": 171,
    "\u2581encodepointer": 172,
    "00000": 173,
    "oad": 174,
    "\u2581getlasterror": 175,
    "\u2581load": 176,
    "mp": 177,
    "e4": 178,
    "\u25810x40": 179,
    "\u2581d": 180,
    "\u25810x46f0": 181,
    "hand": 182,
    "\u2581setlasterror": 183,
    "\u25810x45f0": 184,
    "ac": 185,
    "ent": 186,
    "by": 187,
    "\u25810x46d0": 188,
    "\u25810x3": 189,
    "unt": 190,
    "tu": 191,
    "li": 192,
    "\u2581getc": 193,
    "\u25810x4e4": 194,
    "ffff": 195,
    "\u25810xc": 196,
    "count": 197,
    "40": 198,
    "info": 199,
    "ul": 200,
    "\u2581initializecriticalsection": 201,
    "20": 202,
    "\u25810x43": 203,
    "c0": 204,
    "ess": 205,
    "\u25810x7d": 206,
    "ys": 207,
    "handle": 208,
    "local": 209,
    "ind": 210,
    "let": 211,
    "to": 212,
    "ab": 213,
    "ulti": 214,
    "idec": 215,
    "ultiby": 216,
    "idechar": 217,
    "\u25810x78": 218,
    "mo": 219,
    "ur": 220,
    "ll": 221,
    "78": 222,
    "tion": 223,
    "\u25810x6": 224,
    "\u2581gets": 225,
    "\u25810x400000": 226,
    "tem": 227,
    "30": 228,
    "du": 229,
    "50": 230,
    "ir": 231,
    "indow": 232,
    "rea": 233,
    "dule": 234,
    "module": 235,
    "ed": 236,
    "\u2581dec": 237,
    "\u2581getmodule": 238,
    "f8": 239,
    "ystem": 240,
    "sp": 241,
    "\u2581deco": 242,
    "\u2581decodepointer": 243,
    "file": 244,
    "18": 245,
    "10000": 246,
    "spin": 247,
    "spincount": 248,
    "andspincount": 249,
    "\u2581initializecriticalsectionandspincount": 250,
    "me": 251,
    "70": 252,
    "tom": 253,
    "\u2581crea": 254,
    "op": 255,
    "tet": 256,
    "\u25810x10c": 257,
    "b0": 258,
    "\u2581ms": 259,
    "d8": 260,
    "locale": 261,
    "ment": 262,
    "\u25810x1211f": 263,
    "pinfo": 264,
    "\u2581dll": 265,
    "yp": 266,
    "\u2581loadstring": 267,
    "indows": 268,
    "exw": 269,
    "e0": 270,
    "\u2581windows": 271,
    "nex": 272,
    "\u2581g": 273,
    "38": 274,
    "\u25810xfeee001": 275,
    "rt": 276,
    "\u25810xf00": 277,
    "60": 278,
    "process": 279,
    "id": 280,
    "fr": 281,
    "br": 282,
    "\u25810x9": 283,
    "\u2581multiby": 284,
    "tetow": 285,
    "tetowidechar": 286,
    "\u2581multibytetowidechar": 287,
    "\u2581getcpinfo": 288,
    "cc": 289,
    "vir": 290,
    "ce": 291,
    "ri": 292,
    "ary": 293,
    "80": 294,
    "ion": 295,
    "map": 296,
    "\u25810xc000": 297,
    "\u2581create": 298,
    "brary": 299,
    "\u2581char": 300,
    "th": 301,
    "\u2581charnex": 302,
    "\u25810x70": 303,
    "\u25810xfffff": 304,
    "a5": 305,
    "\u25810xfffffff": 306,
    "lock": 307,
    "\u25810xff": 308,
    "rent": 309,
    "\u2581getlocale": 310,
    "\u2581getst": 311,
    "urrent": 312,
    "98": 313,
    "64": 314,
    "28": 315,
    "\u2581system": 316,
    "26": 317,
    "bc": 318,
    "lo": 319,
    "\u2581system32": 320,
    "d10000": 321,
    "\u25810x77d10000": 322,
    "34": 323,
    "vc": 324,
    "\u2581ini": 325,
    "c4": 326,
    "free": 327,
    "tw": 328,
    "ype": 329,
    "\u2581msvc": 330,
    "ge": 331,
    "\u25810x7e": 332,
    "\u2581lc": 333,
    "\u2581msvcrt": 334,
    "\u2581lcmap": 335,
    "\u2581lcmapstring": 336,
    "def": 337,
    "\u25810x1211c": 338,
    "hi": 339,
    "filet": 340,
    "56": 341,
    "\u2581inter": 342,
    "comp": 343,
    "sta": 344,
    "\u2581ap": 345,
    "\u2581interlock": 346,
    "infow": 347,
    "\u2581interlocked": 348,
    "\u25810x90": 349,
    "rement": 350,
    "ble": 351,
    "age": 352,
    "tus": 353,
    "ans": 354,
    "a8": 355,
    "\u25810x88": 356,
    "\u2581getcurrent": 357,
    "status": 358,
    "trans": 359,
    "thread": 360,
    "58": 361,
    "un": 362,
    "rs": 363,
    "ect": 364,
    "library": 365,
    "ol": 366,
    "que": 367,
    "\u2581loadstringw": 368,
    "\u2581getcpinfoexw": 369,
    "lient": 370,
    "\u25810x243948c": 371,
    "table": 372,
    "action": 373,
    "b8": 374,
    "queue": 375,
    "complet": 376,
    "queued": 377,
    "ionstatus": 378,
    "queuedcomplet": 379,
    "queuedcompletionstatus": 380,
    "\u2581ddec": 381,
    "\u2581getqueuedcompletionstatus": 382,
    "transaction": 383,
    "\u2581ddeclient": 384,
    "\u2581ddeclienttransaction": 385,
    "tatom": 386,
    "\u2581initatom": 387,
    "\u25810x2439480": 388,
    "\u25810x2439484": 389,
    "\u25810x2439488": 390,
    "\u2581initatomtable": 391,
    "\u25810x4690": 392,
    "ey": 393,
    "ers": 394,
    "\u2581heapfree": 395,
    "68": 396,
    "handlew": 397,
    "69": 398,
    "\u2581ex": 399,
    "\u2581getmodulehandlew": 400,
    "emp": 401,
    "ic": 402,
    "\u2581p": 403,
    "c8": 404,
    "ame": 405,
    "14": 406,
    "a4": 407,
    "abc": 408,
    "1000": 409,
    "vw": 410,
    "it": 411,
    "\u2581temp": 412,
    "var": 413,
    "lm": 414,
    "xy": 415,
    "xyz": 416,
    "qrs": 417,
    "tuvw": 418,
    "tuvwxyz": 419,
    "qrstuvwxyz": 420,
    "\u2581abc": 421,
    "ghi": 422,
    "klm": 423,
    "nop": 424,
    "defghi": 425,
    "nopqrstuvwxyz": 426,
    "\u2581abcdefghi": 427,
    "klmnopqrstuvwxyz": 428,
    "\u2581loadlibrary": 429,
    "\u25810x12117": 430,
    "\u25810x40a5": 431,
    "ck": 432,
    "\u25810x1210": 433,
    "\u25810x12119": 434,
    "\u25810x80": 435,
    "\u2581getti": 436,
    "ultibyte": 437,
    "\u2581widechar": 438,
    "tomultibyte": 439,
    "\u2581widechartomultibyte": 440,
    "open": 441,
    "3000": 442,
    "rite": 443,
    "virtu": 444,
    "virtual": 445,
    "7c": 446,
    "12": 447,
    "fe": 448,
    "ch": 449,
    "\u25811": 450,
    "\u25810x3f": 451,
    "\u2581re": 452,
    "mm": 453,
    "\u25810x79": 454,
    "a000": 455,
    "\u2581getfilet": 456,
    "ckcount": 457,
    "\u2581gettickcount": 458,
    "\u2581getfiletype": 459,
    "d4": 460,
    "cmp": 461,
    "name": 462,
    "\u25810x47": 463,
    "5000": 464,
    "so": 465,
    "key": 466,
    "\u2581charnextw": 467,
    "\u2581co": 468,
    "qu": 469,
    "sset": 470,
    "\u25810xfeee002": 471,
    "\u25810x526": 472,
    "i32": 473,
    "lsset": 474,
    "lssetvalue": 475,
    "b000": 476,
    "dhandle": 477,
    "fc": 478,
    "\u2581getlocaleinfow": 479,
    "los": 480,
    "em": 481,
    "2000": 482,
    "\u2581virtual": 483,
    "orm": 484,
    "\u2581getstdhandle": 485,
    "7000": 486,
    "\u25810xfeee0004": 487,
    "f000": 488,
    "\u25810x20": 489,
    "lsalloc": 490,
    "5c": 491,
    "inc": 492,
    "\u25810x70cc": 493,
    "\u2581interlockedinc": 494,
    "\u2581interlockedincrement": 495,
    "d000": 496,
    "\u25810xcd": 497,
    "\u2581read": 498,
    "\u25810x7d90": 499,
    "da": 500,
    "\u25810x200": 501,
    "be": 502,
    "vers": 503,
    "\u2581loadstringa": 504,
    "6000": 505,
    "\u25810x78000000": 506,
    "\u25810x1211d": 507,
    "74": 508,
    "sw": 509,
    "9000": 510,
    "\u25810x409": 511,
    "ad0": 512,
    "\u25810x44": 513,
    "\u25810xffffffff": 514,
    "\u25810x18": 515,
    "viron": 516,
    "\u25810x4610": 517,
    "\u25810x4c4": 518,
    "vironment": 519,
    "\u25810xfeee004": 520,
    "\u2581getsystem": 521,
    "54": 522,
    "\u25810xa": 523,
    "\u2581clos": 524,
    "e8": 525,
    "filename": 526,
    "\u2581reg": 527,
    "dc": 528,
    "91": 529,
    "\u2581charnexta": 530,
    "\u2581mem": 531,
    "\u2581getlocaleinfo": 532,
    "b4": 533,
    "quer": 534,
    "\u25810x7b": 535,
    "\u25810xfeee007": 536,
    "\u25810xfeee0002": 537,
    "\u25810x5f8": 538,
    "\u25810x5f800000": 539,
    "ool": 540,
    "dir": 541,
    "\u2581flssetvalue": 542,
    "\u25810x104": 543,
    "\u2581getmodulehand": 544,
    "\u2581open": 545,
    "\u25810x41de": 546,
    "\u2581lcmapstringex": 547,
    "\u2581se": 548,
    "\u2581lcmapstringw": 549,
    "ector": 550,
    "\u25810xf001": 551,
    "\u2581getmodulehandlea": 552,
    "\u2581win": 553,
    "3c": 554,
    "e000": 555,
    "\u2581memcmp": 556,
    "24": 557,
    "\u25810xfeee0000": 558,
    "\u25810xfeee008": 559,
    "\u2581flsalloc": 560,
    "f4": 561,
    "\u2581a": 562,
    "director": 563,
    "artu": 564,
    "e6": 565,
    "2c": 566,
    "\u25810x41f0": 567,
    "\u25810x41f040": 568,
    "dd": 569,
    "\u2581getlocaleinfoa": 570,
    "\u2581local": 571,
    "sle": 572,
    "9c": 573,
    "\u25810x7de": 574,
    "dbc": 575,
    "eco": 576,
    "\u25810x54": 577,
    "\u2581l1": 578,
    "\u2581getstartu": 579,
    "\u2581getmodulefilename": 580,
    "stringsw": 581,
    "\u25810xfeee006": 582,
    "\u2581getcurrentthread": 583,
    "\u25810x800": 584,
    "\u2581api": 585,
    "\u25810xfeee0003": 586,
    "\u25810x78c": 587,
    "byte": 588,
    "slead": 589,
    "\u2581isdbc": 590,
    "\u2581isdbcslead": 591,
    "mmand": 592,
    "\u25810x78c00000": 593,
    "\u2581var": 594,
    "\u2581isdbcsleadbyte": 595,
    "line": 596,
    "94": 597,
    "mmandline": 598,
    "\u25810xfeee005": 599,
    "\u2581getco": 600,
    "\u2581getcurrentthreadid": 601,
    "\u2581getcommandline": 602,
    "vironmentstringsw": 603,
    "\u2581h": 604,
    "res": 605,
    "\u25810x8ad0": 606,
    "arch": 607,
    "71": 608,
    "\u25810x7c": 609,
    "readpool": 610,
    "3d": 611,
    "\u25810x1211e": 612,
    "ute": 613,
    "able": 614,
    "ve": 615,
    "\u25810x77e": 616,
    "\u25810x77e10000": 617,
    "\u2581ad": 618,
    "\u25810xf003": 619,
    "eex": 620,
    "\u2581close": 621,
    "\u25810x7ec": 622,
    "\u25810xf002": 623,
    "\u2581core": 624,
    "filew": 625,
    "valid": 626,
    "\u2581apis": 627,
    "\u2581write": 628,
    "api32": 629,
    "\u25810xfeee0005": 630,
    "3b": 631,
    "\u2581adv": 632,
    "\u2581advapi32": 633,
    "\u2581fr": 634,
    "form": 635,
    "dll": 636,
    "\u25810x8a": 637,
    "processor": 638,
    "ation": 639,
    "789": 640,
    "\u2581search": 641,
    "time": 642,
    "\u2581loadlibraryexw": 643,
    "of": 644,
    "window": 645,
    "1c": 646,
    "\u25810x7a": 647,
    "3456": 648,
    "\u2581012": 649,
    "3456789": 650,
    "\u25810123456789": 651,
    "are": 652,
    "36": 653,
    "35": 654,
    "\u25810x76": 655,
    "\u25810x120": 656,
    "b9": 657,
    "e5": 658,
    "es": 659,
    "\u2581closehandle": 660,
    "e2": 661,
    "\u2581li": 662,
    "\u25810x12115": 663,
    "\u2581ls": 664,
    "\u25810x73": 665,
    "vi": 666,
    "\u25810x7700": 667,
    "\u25810x102": 668,
    "directory": 669,
    "75": 670,
    "\u2581getvers": 671,
    "cep": 672,
    "il": 673,
    "\u25810x8810": 674,
    "\u25810x7708": 675,
    "\u25810x7718": 676,
    "\u25810x7711": 677,
    "\u2581library": 678,
    "a2": 679,
    "sour": 680,
    "db": 681,
    "a9": 682,
    "\u25812": 683,
    "\u25810x8c": 684,
    "\u25810x4600": 685,
    "\u25810x400": 686,
    "\u2581getprocess": 687,
    "4c": 688,
    "\u2581sl": 689,
    "eep": 690,
    "\u2581de": 691,
    "\u25810x75": 692,
    "\u2581sleep": 693,
    "\u2581fi": 694,
    "ab0": 695,
    "um": 696,
    "type": 697,
    "b7": 698,
    "pres": 699,
    "present": 700,
    "\u2581lstr": 701,
    "a1": 702,
    "atu": 703,
    "write": 704,
    "66": 705,
    "\u25810x7710": 706,
    "\u2581x": 707,
    "\u2581getprocessheap": 708,
    "vari": 709,
    "tin": 710,
    "\u25810x14": 711,
    "\u2581loadlibrarya": 712,
    "ception": 713,
    "og": 714,
    "\u2581interlockeddec": 715,
    "\u2581interlockeddecrement": 716,
    "\u2581virtualalloc": 717,
    "\u25810x1c": 718,
    "\u25810x220": 719,
    "\u25810x7000": 720,
    "\u2581getstring": 721,
    "390": 722,
    "\u2581localalloc": 723,
    "\u25810x71": 724,
    "\u2581getstringtype": 725,
    "ature": 726,
    "feature": 727,
    "\u2581isprocessor": 728,
    "featurepresent": 729,
    "\u2581isprocessorfeaturepresent": 730,
    "\u25810x72": 731,
    "\u2581b": 732,
    "a6": 733,
    "\u2581geten": 734,
    "ction": 735,
    "\u25810x7d91": 736,
    "\u25810x7714": 737,
    "\u25810x7704": 738,
    "\u2581getcurrentprocess": 739,
    "\u25810x9000": 740,
    "\u25810x4c42": 741,
    "f1": 742,
    "ime": 743,
    "\u25810x48": 744,
    "\u2581quer": 745,
    "\u2581getstringtypew": 746,
    "filea": 747,
    "ist": 748,
    "yper": 749,
    "forman": 750,
    "yperforman": 751,
    "\u2581queryperforman": 752,
    "\u2581hkey": 753,
    "\u25810x74": 754,
    "oftw": 755,
    "dex": 756,
    "essage": 757,
    "oftware": 758,
    "31": 759,
    "filetime": 760,
    "\u2581software": 761,
    "\u2581getsystemtime": 762,
    "unter": 763,
    "ceco": 764,
    "cecounter": 765,
    "\u2581queryperformancecounter": 766,
    "\u2581sh": 767,
    "source": 768,
    "eric": 769,
    "6c": 770,
    "\u25810xfeee0006": 771,
    "ra": 772,
    "ond": 773,
    "\u25810x7717": 774,
    "\u25810x7707": 775,
    "\u25810x7709": 776,
    "\u25810x7719": 777,
    "int": 778,
    "\u25810x8000": 779,
    "\u2581page": 780,
    "f9": 781,
    "37": 782,
    "pinfow": 783,
    "\u2581getstartupinfow": 784,
    "asfiletime": 785,
    "f5": 786,
    "ting": 787,
    "ut": 788,
    "\u2581gen": 789,
    "\u2581be": 790,
    "3e": 791,
    "\u25810x4378": 792,
    "a7": 793,
    "gin": 794,
    "b5": 795,
    "\u2581begin": 796,
    "\u2581readwrite": 797,
    "\u2581generic": 798,
    "fil": 799,
    "\u2581pf": 800,
    "temp": 801,
    "up": 802,
    "\u2581gd": 803,
    "ition": 804,
    "rive": 805,
    "ondition": 806,
    "\u25810x41dd": 807,
    "\u25810x42c": 808,
    "ait": 809,
    "\u25810x7e70": 810,
    "\u25810x770c": 811,
    "\u25810x7706": 812,
    "\u25810x7716": 813,
    "\u25810x771b": 814,
    "\u25810x7702": 815,
    "\u25810x770b": 816,
    "\u25810x7705": 817,
    "\u25810x770d": 818,
    "\u25810x7712": 819,
    "\u25810x7715": 820,
    "\u25810x437": 821,
    "icon": 822,
    "\u2581getsystemtimeasfiletime": 823,
    "\u2581current": 824,
    "\u2581getac": 825,
    "\u2581go": 826,
    "tdll": 827,
    "\u25810x1211c98": 828,
    "list": 829,
    "\u2581goog": 830,
    "\u2581google": 831,
    "dexception": 832,
    "filter": 833,
    "bd": 834,
    "unhandle": 835,
    "dexceptionfilter": 836,
    "unhandledexceptionfilter": 837,
    "\u2581getacp": 838,
    "b2": 839,
    "la": 840,
    "bo": 841,
    "\u25810x42d": 842,
    "\u25810xfff": 843,
    "hreadpool": 844,
    "\u2581gdi32": 845,
    "\u25810xfeee009": 846,
    "hel": 847,
    "tim": 848,
    "stru": 849,
    "om": 850,
    "15": 851,
    "va": 852,
    "struction": 853,
    "\u25810x5265c": 854,
    "3f": 855,
    "\u25810xfeee0007": 856,
    "message": 857,
    "\u2581getcurrentprocessid": 858,
    "eexw": 859,
    "af": 860,
    "\u25810x4c": 861,
    "\u2581getmodulefilenamew": 862,
    "\u25810x82": 863,
    "\u25810x7703": 864,
    "\u25810x770e": 865,
    "\u25810x770f": 866,
    "\u25810x7713": 867,
    "timer": 868,
    "\u25810x4093": 869,
    "19": 870,
    "\u2581ac": 871,
    "\u2581setunhandledexceptionfilter": 872,
    "\u2581getcommandlinea": 873,
    "code": 874,
    "\u25810x8d": 875,
    "directoryw": 876,
    "88": 877,
    "vail": 878,
    "vailable": 879,
    "\u2581exe": 880,
    "29": 881,
    "\u2581createfilew": 882,
    "\u2581regis": 883,
    "\u25810x169": 884,
    "\u2581available": 885,
    "\u25810x7f": 886,
    "\u25810x47b0": 887,
    "\u2581ws": 888,
    "27": 889,
    "locales": 890,
    "8c": 891,
    "eeen": 892,
    "\u2581freeen": 893,
    "lob": 894,
    "\u2581glob": 895,
    "\u2581gettemp": 896,
    "\u2581instruction": 897,
    "i64": 898,
    "\u2581instructions": 899,
    "\u2581xmm": 900,
    "\u2581xmmi64": 901,
    "55": 902,
    "\u2581writefile": 903,
    "\u2581getmodulefilenamea": 904,
    "\u25810x416": 905,
    "\u25810x420": 906,
    "\u2581o": 907,
    "aa": 908,
    "67": 909,
    "ser": 910,
    "\u2581getenvironmentstringsw": 911,
    "\u25810x7810": 912,
    "\u2581freeenvironmentstringsw": 913,
    "bf": 914,
    "\u25810x7de0": 915,
    "inform": 916,
    "\u25810x7701": 917,
    "\u25810x770a": 918,
    "\u25810x771a": 919,
    "\u2581isvalid": 920,
    "\u2581delet": 921,
    "yn": 922,
    "\u2581createt": 923,
    "information": 924,
    "ot": 925,
    "ecute": 926,
    "ate": 927,
    "\u25810x4e": 928,
    "\u2581drive": 929,
    "\u25810x12116": 930,
    "\u2581find": 931,
    "ock": 932,
    "exa": 933,
    "b1": 934,
    "condition": 935,
    "\u25810xfffffff6": 936,
    "\u25810x1210f": 937,
    "\u25810xfffffff5": 938,
    "\u25810xfffffff4": 939,
    "\u2581getcommandlinew": 940,
    "ionex": 941,
    "b3": 942,
    "\u2581getversionex": 943,
    "onso": 944,
    "query": 945,
    "b6": 946,
    "508": 947,
    "d6": 948,
    "ies": 949,
    "at": 950,
    "from": 951,
    "defa": 952,
    "defaul": 953,
    "\u25810x50": 954,
    "\u25810x7ec0": 955,
    "\u25810x4b": 956,
    "\u25810x49": 957,
    "onsole": 958,
    "25": 959,
    "\u2581crt": 960,
    "\u25810x30": 961,
    "\u25810x19": 962,
    "\u2581regopen": 963,
    "\u2581regopenkey": 964,
    "print": 965,
    "\u25810x7890": 966,
    "a40": 967,
    "d5": 968,
    "\u25810x1211b": 969,
    "79": 970,
    "804": 971,
    "4000": 972,
    "cess": 973,
    "646": 974,
    "\u2581shel": 975,
    "\u25810x430": 976,
    "printf": 977,
    "76": 978,
    "\u25810x69": 979,
    "ob": 980,
    "\u25810x4078": 981,
    "threadex": 982,
    "\u2581beginthreadex": 983,
    "\u25810x4ab0": 984,
    "\u25810x1210e": 985,
    "\u2581locales": 986,
    "\u2581virtualquery": 987,
    "\u25810x407840": 988,
    "f6": 989,
    "handl": 990,
    "crea": 991,
    "variable": 992,
    "\u2581getstartupinfo": 993,
    "\u2581getstartupinfoa": 994,
    "\u25810x7c000000": 995,
    "\u25810x1211dc0": 996,
    "ber": 997,
    "\u25810x41de20": 998,
    "vice": 999,
    "lus": 1000,
    "ack": 1001,
    "\u25810x41ddd8": 1002,
    "ae": 1003,
    "\u25810xe": 1004,
    "lor": 1005,
    "\u2581setfile": 1006,
    "threadpool": 1007,
    "\u25810x1211e0": 1008,
    "fd": 1009,
    "\u25810x435": 1010,
    "urs": 1011,
    "\u25810x4670": 1012,
    "\u2581access": 1013,
    "\u25810x5266": 1014,
    "st": 1015,
    "\u25810x2a": 1016,
    "codep": 1017,
    "ile": 1018,
    "33": 1019,
    "olf": 1020,
    "\u2581invalid": 1021,
    "\u25810x1804": 1022,
    "\u25810x12116d8": 1023,
    "d2": 1024,
    "color": 1025,
    "\u25810xa4": 1026,
    "\u25810x1211918": 1027,
    "lass": 1028,
    "ity": 1029,
    "codepage": 1030,
    "\u2581isvalidcodepage": 1031,
    "\u25810x4d": 1032,
    "308": 1033,
    "end": 1034,
    "\u25810xd": 1035,
    "99": 1036,
    "\u25810x1211c18": 1037,
    "len": 1038,
    "create": 1039,
    "\u2581tmp": 1040,
    "wait": 1041,
    "22": 1042,
    "16": 1043,
    "44": 1044,
    "\u2581global": 1045,
    "\u2581getconsole": 1046,
    "\u2581syn": 1047,
    "ib": 1048,
    "f7": 1049,
    "\u2581execute": 1050,
    "\u2581synch": 1051,
    "\u2581golf": 1052,
    "\u25810x11": 1053,
    "95": 1054,
    "\u2581getsys": 1055,
    "\u25810x56": 1056,
    "messagea": 1057,
    "ursor": 1058,
    "\u25810x4fe": 1059,
    "bers": 1060,
    "\u2581free": 1061,
    "\u25810xb": 1062,
    "\u2581process": 1063,
    "version": 1064,
    "\u25810x69000000": 1065,
    "\u25811646": 1066,
    "\u25810x7ee": 1067,
    "cs": 1068,
    "\u25810x5265c14": 1069,
    "\u25810x3f30": 1070,
    "\u25810x4c42c0": 1071,
    "\u2581r": 1072,
    "d7": 1073,
    "rw": 1074,
    "error": 1075,
    "\u2581al": 1076,
    "106": 1077,
    "17": 1078,
    "b00": 1079,
    "e7": 1080,
    "ard": 1081,
    "84": 1082,
    "\u2581lstrlen": 1083,
    "908": 1084,
    "ant": 1085,
    "set": 1086,
    "\u25810x8af0": 1087,
    "8000": 1088,
    "\u25810x4238": 1089,
    "board": 1090,
    "\u2581getuser": 1091,
    "\u25810x8a40": 1092,
    "\u2581setfilepointer": 1093,
    "\u2581getversion": 1094,
    "resource": 1095,
    "num": 1096,
    "\u2581heapcreate": 1097,
    "secur": 1098,
    "security": 1099,
    "cursor": 1100,
    "\u25810x1211518": 1101,
    "\u25810x12114": 1102,
    "\u25810x1211f38": 1103,
    "processlist": 1104,
    "\u2581getconsoleprocesslist": 1105,
    "top": 1106,
    "\u25810x423d": 1107,
    "\u25810x1211e04": 1108,
    "\u25810x1211748": 1109,
    "2e": 1110,
    "\u2581loadicon": 1111,
    "ton": 1112,
    "\u2581loadcursor": 1113,
    "\u2581tlssetvalue": 1114,
    "section": 1115,
    "ro": 1116,
    "db10": 1117,
    "gu": 1118,
    "\u25810x7e71": 1119,
    "\u25810xffc": 1120,
    "1e": 1121,
    "\u2581delete": 1122,
    "db10106": 1123,
    "\u25810x1db10106": 1124,
    "3a": 1125,
    "00c": 1126,
    "\u25810x436": 1127,
    "\u2581crtdll": 1128,
    "service": 1129,
    "\u2581shell32": 1130,
    "f2": 1131,
    "directories": 1132,
    "\u2581gettempw": 1133,
    "780": 1134,
    "\u25810x42e5": 1135,
    "ba": 1136,
    "\u2581setdefaul": 1137,
    "\u2581getthread": 1138,
    "\u2581setdefaultdll": 1139,
    "\u2581setdefaultdlldirectories": 1140,
    "date": 1141,
    "isting": 1142,
    "met": 1143,
    "sc": 1144,
    "\u2581tlsalloc": 1145,
    "\u25810x41e2": 1146,
    "\u2581fibers": 1147,
    "lsfree": 1148,
    "\u2581key": 1149,
    "\u2581creates": 1150,
    "\u2581existing": 1151,
    "\u25810x8811": 1152,
    "\u25810xfeee0": 1153,
    "\u2581process32": 1154,
    "\u25810x7d0": 1155,
    "\u25810x5265": 1156,
    "\u25810x771c": 1157,
    "fa": 1158,
    "568": 1159,
    "9d": 1160,
    "rwlock": 1161,
    "\u25810x7910": 1162,
    "\u2581mac": 1163,
    "vic": 1164,
    "hine": 1165,
    "\u2581machine": 1166,
    "\u25810x13": 1167,
    "97": 1168,
    "c000": 1169,
    "\u25810x41e218": 1170,
    "ical": 1171,
    "08": 1172,
    "\u25810x79f0": 1173,
    "\u2581regopenkeyexw": 1174,
    "\u25810x418": 1175,
    "\u25810xfeee0008": 1176,
    "bu": 1177,
    "\u2581closet": 1178,
    "\u2581closethreadpool": 1179,
    "\u2581createthreadpool": 1180,
    "\u25810x34": 1181,
    "\u25810x32": 1182,
    "ork": 1183,
    "vicec": 1184,
    "cp": 1185,
    "\u25810x1211958": 1186,
    "f10000": 1187,
    "7d": 1188,
    "\u2581map": 1189,
    "\u25810x40934": 1190,
    "7e": 1191,
    "\u25810x77f10000": 1192,
    "\u2581ntdll": 1193,
    "\u25810x3000": 1194,
    "\u25810x53b": 1195,
    "all": 1196,
    "ecount": 1197,
    "\u2581flsfree": 1198,
    "\u25810xfeee0009": 1199,
    "realloc": 1200,
    "\u25810x1f": 1201,
    "\u25810xfeee000a": 1202,
    "1a": 1203,
    "\u25810xfeee000b": 1204,
    "\u25810x7ed": 1205,
    "\u25810xfeee000c": 1206,
    "\u25810x80c0": 1207,
    "handlecount": 1208,
    "\u2581sethandlecount": 1209,
    "\u2581getsyscolor": 1210,
    "\u25810x7f00": 1211,
    "\u25810xfeee000d": 1212,
    "f3": 1213,
    "\u25810xfeee000e": 1214,
    "\u25810xfeee0014": 1215,
    "\u25810xfeee000f": 1216,
    "1d": 1217,
    "\u2581file": 1218,
    "fb": 1219,
    "aps": 1220,
    "\u25810x1211c7c": 1221,
    "9e": 1222,
    "\u2581exit": 1223,
    "\u25810xfeee0010": 1224,
    "hread": 1225,
    "\u2581registerc": 1226,
    "\u25810x1211908": 1227,
    "\u25810xfeee0015": 1228,
    "leas": 1229,
    "\u25810xfeee0013": 1230,
    "\u25810xfeee0012": 1231,
    "\u25810xfeee0016": 1232,
    "\u25810xfeee0011": 1233,
    "day": 1234,
    "call": 1235,
    "\u25810x678": 1236,
    "\u2581bor": 1237,
    "\u25810x94": 1238,
    "loa": 1239,
    "vie": 1240,
    "loating": 1241,
    "\u25810x1211718": 1242,
    "directorya": 1243,
    "\u25810x12114b8": 1244,
    "\u2581rt": 1245,
    "sa": 1246,
    "erw": 1247,
    "96": 1248,
    "\u2581rtl": 1249,
    "\u25810x84": 1250,
    "\u25810x7de1": 1251,
    "\u2581lstrcmp": 1252,
    "trib": 1253,
    "tribute": 1254,
    "\u2581borl": 1255,
    "lic": 1256,
    "firs": 1257,
    "21": 1258,
    "\u25810x120e6": 1259,
    "raw": 1260,
    "\u2581createdirectoryw": 1261,
    "fromstr": 1262,
    "back": 1263,
    "\u2581readfile": 1264,
    "lip": 1265,
    "\u2581golfinfo": 1266,
    "ttribute": 1267,
    "\u25810x8b": 1268,
    "\u2581borland": 1269,
    "\u2581freelibrary": 1270,
    "\u25810xfeee0017": 1271,
    "for": 1272,
    "\u25810xfeee0018": 1273,
    "try": 1274,
    "\u2581str": 1275,
    "d1": 1276,
    "fileattribute": 1277,
    "\u25810x4a": 1278,
    "ord": 1279,
    "\u25810xfeee0019": 1280,
    "mode": 1281,
    "tex": 1282,
    "ee0": 1283,
    "lipboard": 1284,
    "\u25817": 1285,
    "\u25810x8f": 1286,
    "callback": 1287,
    "\u25810x64": 1288,
    "view": 1289,
    "ive": 1290,
    "\u25810x4750": 1291,
    "\u25810x41bc": 1292,
    "\u2581setthreadpool": 1293,
    "ask": 1294,
    "term": 1295,
    "\u2581pr": 1296,
    "\u25810x43b7": 1297,
    "\u25810x1211738": 1298,
    "clus": 1299,
    "\u25810x4305": 1300,
    "clusive": 1301,
    "rwlockex": 1302,
    "rwlockexclusive": 1303,
    "\u25810x41de50": 1304,
    "\u2581heaprealloc": 1305,
    "\u25810x58": 1306,
    "\u25810x50000": 1307,
    "\u25810x7ec1": 1308,
    "log": 1309,
    "\u25810x7850": 1310,
    "e1": 1311,
    "2020": 1312,
    "\u2581releas": 1313,
    "\u25810xfeee001c": 1314,
    "52": 1315,
    "\u25810x42d4": 1316,
    "initializ": 1317,
    "ver": 1318,
    "lose": 1319,
    "\u2581getthreadlocale": 1320,
    "77": 1321,
    "\u25810x7930": 1322,
    "\u2581registerclass": 1323,
    "\u25810x83": 1324,
    "\u25810x4350": 1325,
    "\u25810x1211dfc": 1326,
    "iv": 1327,
    "2f8": 1328,
    "edc": 1329,
    "\u2581fin": 1330,
    "close": 1331,
    "\u25810x428": 1332,
    "\u25810xfeee001a": 1333,
    "\u2581findre": 1334,
    "\u2581i": 1335,
    "number": 1336,
    "\u2581mic": 1337,
    "e9": 1338,
    "\u25810x4feb": 1339,
    "394": 1340,
    "\u25810x411": 1341,
    "bb": 1342,
    "net": 1343,
    "\u2581app": 1344,
    "\u25810x2c": 1345,
    "a3": 1346,
    "mem": 1347,
    "sof": 1348,
    "metri": 1349,
    "metrics": 1350,
    "ero": 1351,
    "utex": 1352,
    "mask": 1353,
    "\u2581getsystemmetrics": 1354,
    "dr": 1355,
    "keyw": 1356,
    "\u25810x89": 1357,
    "51": 1358,
    "\u25810xfeee001b": 1359,
    "\u25810x6781": 1360,
    "\u25810x198": 1361,
    "men": 1362,
    "soft": 1363,
    "\u25810x700c": 1364,
    "\u2581wsprintf": 1365,
    "ub": 1366,
    "rosoft": 1367,
    "qui": 1368,
    "\u2581wait": 1369,
    "\u25810x92": 1370,
    "\u2581floating": 1371,
    "\u25810x414": 1372,
    "\u25810x28": 1373,
    "\u25810x19a": 1374,
    "c1": 1375,
    "9f": 1376,
    "wa": 1377,
    "\u2581getversionexw": 1378,
    "\u25810x704c": 1379,
    "work": 1380,
    "\u25810x708c": 1381,
    "\u2581microsoft": 1382,
    "\u25810x8cc0": 1383,
    "\u2581mapvirtual": 1384,
    "ways": 1385,
    "esource": 1386,
    "\u2581mapvirtualkeyw": 1387,
    "\u2581getfile": 1388,
    "72": 1389,
    "\u25810x1e": 1390,
    "\u2581initializes": 1391,
    "\u2581always": 1392,
    "rip": 1393,
    "scrip": 1394,
    "\u25810x4e50": 1395,
    "180": 1396,
    "\u25810xf0019": 1397,
    "c6": 1398,
    "1f": 1399,
    "l66": 1400,
    "first": 1401,
    "\u25810x4f": 1402,
    "\u2581ole": 1403,
    "45": 1404,
    "\u25810x7ab0": 1405,
    "script": 1406,
    "api": 1407,
    "d9": 1408,
    "ename": 1409,
    "\u25810xfeee001d": 1410,
    "\u25810x417": 1411,
    "descript": 1412,
    "\u25810x8260": 1413,
    "\u25810x410": 1414,
    "securitydescript": 1415,
    "dater": 1416,
    "\u25810xfeee0071": 1417,
    "\u2581createfilea": 1418,
    "\u25810x1211758": 1419,
    "menu": 1420,
    "\u2581sprintf": 1421,
    "\u25810x12112f8": 1422,
    "\u2581waitfor": 1423,
    "next": 1424,
    "eb": 1425,
    "\u2581getversionexa": 1426,
    "\u2581getenvironment": 1427,
    "\u25810xa3": 1428,
    "\u25810x7f8": 1429,
    "l6660": 1430,
    "\u25810x42c4": 1431,
    "\u25810x1211f64": 1432,
    "\u25810x105": 1433,
    "\u2581lstrcmpi": 1434,
    "dateresource": 1435,
    "df": 1436,
    "ffile": 1437,
    "\u25810x99": 1438,
    "\u2581vers": 1439,
    "a256": 1440,
    "\u2581verset": 1441,
    "conditionmask": 1442,
    "\u2581versetconditionmask": 1443,
    "\u25810x1211cf8": 1444,
    "\u25810x7e8": 1445,
    "ho": 1446,
    "\u25810x1211528": 1447,
    "\u2581exitprocess": 1448,
    "\u2581sha256": 1449,
    "ink": 1450,
    "\u2581wi": 1451,
    "quires": 1452,
    "iled": 1453,
    "ke": 1454,
    "tun": 1455,
    "\u2581currentversion": 1456,
    "quiresrwlockexclusive": 1457,
    "d3": 1458,
    "pa": 1459,
    "logical": 1460,
    "\u2581getlogical": 1461,
    "low": 1462,
    "480": 1463,
    "\u25810x12119c0": 1464,
    "\u2581creat": 1465,
    "2a": 1466,
    "\u25810xa0": 1467,
    "drl6660": 1468,
    "\u2581lstrcmpiw": 1469,
    "\u2581wa": 1470,
    "\u25810xfeee007e": 1471,
    "\u25810x4c4308": 1472,
    "\u25810xcc": 1473,
    "windowexa": 1474,
    "\u25810x169b": 1475,
    "ockob": 1476,
    "\u2581getstockob": 1477,
    "variab": 1478,
    "1b": 1479,
    "\u25810x1211a": 1480,
    "\u2581lstrlenw": 1481,
    "c08": 1482,
    "localename": 1483,
    "offile": 1484,
    "\u25810x7ad0": 1485,
    "\u25810x6781d8": 1486,
    "\u25810x1211780": 1487,
    "\u25810xfeee001e": 1488,
    "\u25810x41de08": 1489,
    "emap": 1490,
    "\u25810x4000": 1491,
    "\u25810x4bd0": 1492,
    "\u2581getdc": 1493,
    "\u25810x429": 1494,
    "onne": 1495,
    "\u2581vari": 1496,
    "\u2581comp": 1497,
    "\u25810x1211728": 1498,
    "65": 1499,
    "ision": 1500,
    "\u25810x17": 1501,
    "atex": 1502,
    "formatex": 1503,
    "\u25810x53": 1504,
    "\u2581gut": 1505,
    "\u2581gum": 1506,
    "drl6660drl6660": 1507,
    "conditionvariable": 1508,
    "\u25810x78a0": 1509,
    "angu": 1510,
    "\u2581createsemap": 1511,
    "anguage": 1512,
    "\u2581compare": 1513,
    "c7": 1514,
    "\u25810x42a1": 1515,
    "fileattributesw": 1516,
    "memor": 1517,
    "ilanguage": 1518,
    "\u25810xfeee001f": 1519,
    "\u25818": 1520,
    "flow": 1521,
    "\u2581comparestring": 1522,
    "lec": 1523,
    "\u25810x53ba40": 1524,
    "\u25810xfeee0020": 1525,
    "\u25810x364": 1526,
    "\u2581nt": 1527,
    "\u2581virtualfree": 1528,
    "61": 1529,
    "\u2581varb": 1530,
    "namea": 1531,
    "\u2581wsprintfw": 1532,
    "ef": 1533,
    "\u25810x38": 1534,
    "3d8": 1535,
    "\u2581king": 1536,
    "lush": 1537,
    "\u25810x7a80": 1538,
    "59": 1539,
    "lw": 1540,
    "6f": 1541,
    "\u25810x4630": 1542,
    "\u2581getde": 1543,
    "\u2581ole32": 1544,
    "paint": 1545,
    "2d": 1546,
    "\u2581st": 1547,
    "\u25810x1211c90": 1548,
    "een": 1549,
    "\u2581up": 1550,
    "\u25810x7830": 1551,
    "\u2581globalalloc": 1552,
    "buff": 1553,
    "\u25810x42a190": 1554,
    "\u25810x2e": 1555,
    "ts": 1556,
    "300": 1557,
    "\u2581loadicona": 1558,
    "\u25810x1211f7c": 1559,
    "\u25810x7540": 1560,
    "\u2581loadcursora": 1561,
    "trac": 1562,
    "\u25810x4c46": 1563,
    "d04": 1564,
    "vicecaps": 1565,
    "\u2581getdevicecaps": 1566,
    "und": 1567,
    "lwapi": 1568,
    "\u2581shlwapi": 1569,
    "topen": 1570,
    "\u25810x1211f20": 1571,
    "\u2581init": 1572,
    "servicew": 1573,
    "utexa": 1574,
    "\u2581register": 1575,
    "\u2581deletefilew": 1576,
    "informationby": 1577,
    "\u2581flush": 1578,
    "\u25810x1b": 1579,
    "\u2581fa": 1580,
    "kar": 1581,
    "karton": 1582,
    "\u25810x7aa0": 1583,
    "\u2581getsystemdirectoryw": 1584,
    "trl": 1585,
    "\u25810x97": 1586,
    "memory": 1587,
    "\u25810x7f800": 1588,
    "\u2581kingkarton": 1589,
    "not": 1590,
    "ocket": 1591,
    "\u25810x60": 1592,
    "put": 1593,
    "\u25810x23": 1594,
    "\u25810x1211cc0": 1595,
    "head": 1596,
    "\u25810x3394": 1597,
    "\u25810x569": 1598,
    "ea": 1599,
    "\u25810x1211fd8": 1600,
    "buffers": 1601,
    "\u25810x439": 1602,
    "\u2581loadiconw": 1603,
    "\u25810x43b": 1604,
    "mapview": 1605,
    "\u25810x1211fd0": 1606,
    "\u2581loadcursorw": 1607,
    "listhead": 1608,
    "\u2581initializeslisthead": 1609,
    "clipboard": 1610,
    "\u25810x42e5b0": 1611,
    "\u25810x88a0": 1612,
    "0000000": 1613,
    "\u25810x8d00": 1614,
    "\u25810x2000": 1615,
    "a04": 1616,
    "\u25810x67": 1617,
    "\u2581wnet": 1618,
    "\u25810xa000": 1619,
    "\u2581th": 1620,
    "\u25810x1211fcc": 1621,
    "\u2581extrac": 1622,
    "\u2581setmenu": 1623,
    "cb": 1624,
    "5d": 1625,
    "de9": 1626,
    "c04": 1627,
    "\u25810x4790": 1628,
    "\u2581lstrlena": 1629,
    "\u25810x78c0": 1630,
    "\u25810x214": 1631,
    "57": 1632,
    "\u25810xfeee00f1": 1633,
    "\u25810x9010": 1634,
    "\u25810x51": 1635,
    "\u25810x4d70": 1636,
    "92": 1637,
    "\u25810x1210f35": 1638,
    "old": 1639,
    "\u25810x44f8": 1640,
    "\u25810xd0": 1641,
    "allock": 1642,
    "\u25810x22": 1643,
    "\u2581failed": 1644,
    "dateresourcea": 1645,
    "\u25810x7bd0": 1646,
    "c2": 1647,
    "\u2581ntopen": 1648,
    "\u2581regopenkeyexa": 1649,
    "\u25810x1211f8": 1650,
    "\u2581ntopensection": 1651,
    "\u25810x4336": 1652,
    "\u2581loc": 1653,
    "\u25810x7990": 1654,
    "\u2581localiz": 1655,
    "\u2581localization": 1656,
    "\u25810x16": 1657,
    "\u25810x1a": 1658,
    "\u25810x7150": 1659,
    "\u25810x21": 1660,
    "zero": 1661,
    "\u25810x73f0": 1662,
    "\u25810x72a0": 1663,
    "ca": 1664,
    "\u25810x42d8": 1665,
    "oy": 1666,
    "\u258120": 1667,
    "\u25810x1211948": 1668,
    "\u25810x7690": 1669,
    "\u25810x1211568": 1670,
    "prot": 1671,
    "\u25810x77e0": 1672,
    "art": 1673,
    "fo": 1674,
    "\u25810x7d10": 1675,
    "eek": 1676,
    "\u2581findfirst": 1677,
    "\u25810x42b0": 1678,
    "\u2581setmenuinfo": 1679,
    "\u2581code": 1680,
    "\u25810x42c508": 1681,
    "tries": 1682,
    "\u2581globallock": 1683,
    "\u2581initterm": 1684,
    "f04": 1685,
    "point": 1686,
    "\u2581getd": 1687,
    "\u2581lstrcp": 1688,
    "\u2581try": 1689,
    "\u25810x1211fc8": 1690,
    "link": 1691,
    "\u25810x9c": 1692,
    "\u25810x4169": 1693,
    "gear": 1694,
    "\u2581codegear": 1695,
    "\u25810x1211fc0": 1696,
    "\u25810x43780": 1697,
    "py": 1698,
    "\u25814": 1699,
    "protect": 1700,
    "\u25810x15": 1701,
    "\u25810x7d50": 1702,
    "\u25810x436390": 1703,
    "\u2581tryac": 1704,
    "\u2581tryacquiresrwlockexclusive": 1705,
    "isp": 1706,
    "e40": 1707,
    "fold": 1708,
    "\u2581virtualprotect": 1709,
    "\u25810x4c46d0": 1710,
    "\u2581getm": 1711,
    "7f": 1712,
    "220": 1713,
    "\u25810x42c4d8": 1714,
    "\u2581createwindowexa": 1715,
    "\u2581findclose": 1716,
    "\u25810xfeee0027": 1717,
    "268": 1718,
    "\u25810x1f4": 1719,
    "div": 1720,
    "\u25817z": 1721,
    "\u25810x437b": 1722,
    "\u25810xfeee0026": 1723,
    "lex": 1724,
    "\u25810x1211ee0": 1725,
    "\u25816": 1726,
    "\u25810x1211bc0": 1727,
    "\u2581variant": 1728,
    "\u25810xfeee0021": 1729,
    "2f": 1730,
    "alet": 1731,
    "ush": 1732,
    "\u25810xfeee0022": 1733,
    "ackage": 1734,
    "ay": 1735,
    "ym": 1736,
    "gd": 1737,
    "ontr": 1738,
    "\u25810xfeee0023": 1739,
    "\u2581wake": 1740,
    "\u25810xfeee0024": 1741,
    "\u2581wakeall": 1742,
    "\u2581wakeallconditionvariable": 1743,
    "708": 1744,
    "wh": 1745,
    "\u25810xfeee0025": 1746,
    "ag": 1747,
    "64000": 1748,
    "linkw": 1749,
    "atch": 1750,
    "package": 1751,
    "lp": 1752,
    "packageid": 1753,
    "\u2581getcurrentpackageid": 1754,
    "\u25810x188": 1755,
    "\u25810xfeee008b": 1756,
    "\u25810xfde9": 1757,
    "tes": 1758,
    "\u25810x12119ac": 1759,
    "brush": 1760,
    "110": 1761,
    "\u25810x3c": 1762,
    "\u25810x40a5d8": 1763,
    "320": 1764,
    "\u25810x40a5ce": 1765,
    "\u25810x40a5d0": 1766,
    "\u25810x40a5d2": 1767,
    "\u25810x40a5d4": 1768,
    "\u25810x40a5d6": 1769,
    "\u25810x40a5da": 1770,
    "23": 1771,
    "ryp": 1772,
    "\u25810x68": 1773,
    "eration": 1774,
    "ec0": 1775,
    "\u2581shellex": 1776,
    "\u2581copy": 1777,
    "\u2581comparestringex": 1778,
    "default": 1779,
    "\u2581getlocaleinfoex": 1780,
    "\u25810x41db": 1781,
    "ock32": 1782,
    "\u2581wsock32": 1783,
    "\u2581releasedc": 1784,
    "\u25810x42d508": 1785,
    "econdition": 1786,
    "ec8": 1787,
    "econditionvariable": 1788,
    "\u25810x25": 1789,
    "urn": 1790,
    "verflow": 1791,
    "help": 1792,
    "sourc": 1793,
    "\u2581append": 1794,
    "ati": 1795,
    "ispatch": 1796,
    "\u2581strn": 1797,
    "ymbo": 1798,
    "strfrom": 1799,
    "ymbolic": 1800,
    "\u2581varbstrfrom": 1801,
    "\u2581lread": 1802,
    "\u2581start": 1803,
    "ymboliclinkw": 1804,
    "\u2581createsymboliclinkw": 1805,
    "\u25810x434": 1806,
    "\u25810x4305b0": 1807,
    "\u25810x12118": 1808,
    "ct": 1809,
    "\u25810x21000": 1810,
    "\u2581appendw": 1811,
    "7b": 1812,
    "\u25810xfeee005f": 1813,
    "\u2581draw": 1814,
    "\u2581gettempfilename": 1815,
    "hor": 1816,
    "ed8": 1817,
    "\u25810x8e": 1818,
    "\u25810x1f400": 1819,
    "520": 1820,
    "ret": 1821,
    "\u2581createa": 1822,
    "inal": 1823,
    "eck": 1824,
    "\u25810x3f34": 1825,
    "ordinal": 1826,
    "\u25810x1211f2c": 1827,
    "\u2581ordinal": 1828,
    "\u2581findresourc": 1829,
    "ace": 1830,
    "\u25810x42d4d8": 1831,
    "\u2581findresourceexw": 1832,
    "\u25810x435390": 1833,
    "\u2581send": 1834,
    "004": 1835,
    "\u25810xa429": 1836,
    "6d": 1837,
    "when": 1838,
    "\u25810x79d0": 1839,
    "return": 1840,
    "processwrite": 1841,
    "processornumber": 1842,
    "\u2581flushprocesswrite": 1843,
    "\u2581closethreadpoolwait": 1844,
    "\u2581flushprocesswritebuffers": 1845,
    "\u2581getcurrentprocessornumber": 1846,
    "horeexw": 1847,
    "returns": 1848,
    "callbacks": 1849,
    "whencallback": 1850,
    "timercallbacks": 1851,
    "\u2581createprocess": 1852,
    "\u2581setthreadpoolwait": 1853,
    "\u2581waitforthreadpool": 1854,
    "whencallbackreturns": 1855,
    "\u2581createsemaphoreexw": 1856,
    "\u2581setthreadpooltimer": 1857,
    "\u2581closethreadpooltimer": 1858,
    "\u2581createthreadpoolwait": 1859,
    "\u2581createthreadpooltimer": 1860,
    "\u2581freelibrarywhencallbackreturns": 1861,
    "\u2581waitforthreadpooltimercallbacks": 1862,
    "\u2581strncmp": 1863,
    "\u25810x98": 1864,
    "\u25810x52": 1865,
    "\u25810x1211e14": 1866,
    "\u25810x1211fd4": 1867,
    "\u25810x4239": 1868,
    "drive": 1869,
    "\u25810x1211dcc": 1870,
    "\u2581gettempfilenamew": 1871,
    "servicec": 1872,
    "\u2581e": 1873,
    "sti": 1874,
    "\u25810x121194c": 1875,
    "d0a": 1876,
    "\u25810x12117a4": 1877,
    "\u25810x4c32": 1878,
    "\u25810x121157c": 1879,
    "369": 1880,
    "\u2581fon": 1881,
    "\u2581fonts": 1882,
    "\u25810x101": 1883,
    "588": 1884,
    "\u2581hgd": 1885,
    "\u2581error": 1886,
    "\u2581hgdraw": 1887,
    "stitu": 1888,
    "ubstitu": 1889,
    "ubstitutes": 1890,
    "\u2581fontsubstitutes": 1891,
    "d80": 1892,
    "\u2581no": 1893,
    "2b": 1894,
    "\u2581peek": 1895,
    "\u2581cryp": 1896,
    "heck": 1897,
    "\u2581shget": 1898,
    "338": 1899,
    "\u25810x7b40": 1900,
    "variablew": 1901,
    "xt": 1902,
    "de0": 1903,
    "\u25810x3f75": 1904,
    "\u25810x1211f00": 1905,
    "\u25810x460": 1906,
    "stroy": 1907,
    "5e": 1908,
    "\u25810x2f": 1909,
    "\u25810x42e": 1910,
    "\u25810x1075": 1911,
    "servicectrl": 1912,
    "688": 1913,
    "\u25810x3e": 1914,
    "\u25810xfeee0028": 1915,
    "\u25810x4feba8": 1916,
    "\u25810xa9": 1917,
    "messagew": 1918,
    "\u2581createm": 1919,
    "\u25810xc00": 1920,
    "tered": 1921,
    "\u25810x438": 1922,
    "sup": 1923,
    "yo": 1924,
    "\u25810x7090": 1925,
    "380": 1926,
    "\u2581mon": 1927,
    "\u25810x8230": 1928,
    "\u25810x4371": 1929,
    "\u25810x107": 1930,
    "770": 1931,
    "\u25810x4100": 1932,
    "untime": 1933,
    "13": 1934,
    "\u2581setup": 1935,
    "\u2581with": 1936,
    "\u25810x1211e2c": 1937,
    "ast": 1938,
    "sn": 1939,
    "\u2581deletecriticalsection": 1940,
    "6e": 1941,
    "c5": 1942,
    "\u2581getfileattributesw": 1943,
    "\u2581peekmessagea": 1944,
    "\u25810x29": 1945,
    "\u25810x5f5": 1946,
    "\u25810x7ae0": 1947,
    "62": 1948,
    "\u25810x423": 1949,
    "\u2581altered": 1950,
    "\u25810x59": 1951,
    "\u25810x46b0": 1952,
    "ecomp": 1953,
    "\u2581getlogicaldrive": 1954,
    "\u25810x5a": 1955,
    "\u2581setthread": 1956,
    "\u25810x422": 1957,
    "\u2581golfset": 1958,
    "system": 1959,
    "\u25810x96": 1960,
    "\u25810x7300": 1961,
    "chan": 1962,
    "\u25810x7390": 1963,
    "9a": 1964,
    "\u25810x6b": 1965,
    "b69": 1966,
    "\u2581getuserdefault": 1967,
    "\u25810x419c": 1968,
    "host": 1969,
    "\u2581enum": 1970,
    "\u2581createdirectorya": 1971,
    "\u25810x1211d04": 1972,
    "\u25810x44f9": 1973,
    "\u25810xb8": 1974,
    "\u25810x7900": 1975,
    "atible": 1976,
    "\u2581windowsnt": 1977,
    "hot": 1978,
    "\u2581lstrcpyn": 1979,
    "\u25810xfeee0040": 1980,
    "\u2581createmutexa": 1981,
    "\u25810xfeee0072": 1982,
    "6e6": 1983,
    "ecompatible": 1984,
    "\u2581createcompatible": 1985,
    "208": 1986,
    "\u25810xfeee0029": 1987,
    "\u25810x1211a04": 1988,
    "669": 1989,
    "378": 1990,
    "bug": 1991,
    "\u2581process32next": 1992,
    "\u2581getenvironmentvariablew": 1993,
    "ab8": 1994,
    "5d0": 1995,
    "\u25810x7f0": 1996,
    "\u25810x1211c04": 1997,
    "\u25810x4967": 1998,
    "408": 1999,
    "39000": 2000,
    "2e6": 2001,
    "\u25810x78d0": 2002,
    "\u2581findresource": 2003,
    "lphi": 2004,
    "\u2581delphi": 2005,
    "\u2581findfirstfilew": 2006,
    "\u25810x1d": 2007,
    "\u25810x169bf": 2008,
    "ain": 2009,
    "\u25810x6d": 2010,
    "e6c": 2011,
    "\u25810x569b00": 2012,
    "\u25810x437880": 2013,
    "iate": 2014,
    "\u25810x7270": 2015,
    "bit": 2016,
    "\u25810x7db0": 2017,
    "help32": 2018,
    "\u25810x7060": 2019,
    "oolhelp32": 2020,
    "snaps": 2021,
    "oolhelp32snaps": 2022,
    "\u2581createtoolhelp32snaps": 2023,
    "\u25810xfeee002a": 2024,
    "\u2581createtoolhelp32snapshot": 2025,
    "\u25810x42b": 2026,
    "fer": 2027,
    "ssoc": 2028,
    "\u25810x71b0": 2029,
    "ac000": 2030,
    "188": 2031,
    "\u25810x571": 2032,
    "\u25810xfeee005d": 2033,
    "\u25810x75d0": 2034,
    "\u25810x7870": 2035,
    "\u2581un": 2036,
    "3c000": 2037,
    "debug": 2038,
    "ini": 2039,
    "\u2581coinitializ": 2040,
    "own": 2041,
    "tok": 2042,
    "ac6": 2043,
    "\u25810x9a": 2044,
    "\u25810x7030": 2045,
    "\u25810x7d95": 2046,
    "onnection": 2047,
    "\u25810x7b80": 2048,
    "\u2581gettime": 2049,
    "\u25810x8920": 2050,
    "\u25810x7d94": 2051,
    "\u25810x1211efc": 2052,
    "isk": 2053,
    "ecta": 2054,
    "\u2581update": 2055,
    "acl": 2056,
    "token": 2057,
    "securitydescriptor": 2058,
    "refer": 2059,
    "\u25810x53000": 2060,
    "\u2581initialize": 2061,
    "7a": 2062,
    "\u25810x416b": 2063,
    "\u2581oc": 2064,
    "termin": 2065,
    "lect": 2066,
    "\u25810x66": 2067,
    "\u25810x1211dd4": 2068,
    "5f": 2069,
    "\u2581getusernamea": 2070,
    "\u25810x7b10": 2071,
    "a5000": 2072,
    "\u2581hton": 2073,
    "\u25810x39": 2074,
    "\u25810x94c0": 2075,
    "\u25810x79c0": 2076,
    "\u25810x71e0": 2077,
    "69000": 2078,
    "cy": 2079,
    "cel": 2080,
    "ordacl": 2081,
    "securitydescriptordacl": 2082,
    "\u25810x7750": 2083,
    "ssociate": 2084,
    "\u2581initializesecuritydescriptor": 2085,
    "ad000": 2086,
    "\u25810x72d0": 2087,
    "54000": 2088,
    "\u25810x7240": 2089,
    "2w": 2090,
    "\u2581termin": 2091,
    "\u25810x7210": 2092,
    "onnection2w": 2093,
    "\u25810x7120": 2094,
    "\u25810x74e0": 2095,
    "\u25810x7a50": 2096,
    "\u25810x70c0": 2097,
    "\u25810x7180": 2098,
    "\u25810x7480": 2099,
    "\u25810x8090": 2100,
    "\u25810x1211f28": 2101,
    "\u25810x75a0": 2102,
    "\u25810x7600": 2103,
    "\u25810x70f0": 2104,
    "\u25810x7cf0": 2105,
    "\u25810x7360": 2106,
    "\u2581setsecuritydescriptordacl": 2107,
    "\u25810x7330": 2108,
    "\u25810x7a20": 2109,
    "\u25810xfeee0046": 2110,
    "5b": 2111,
    "\u25810x86": 2112,
    "\u25810x76c0": 2113,
    "118": 2114,
    "\u2581createw": 2115,
    "\u25810x7510": 2116,
    "\u25810x7570": 2117,
    "\u25810x7660": 2118,
    "\u25810x7720": 2119,
    "\u25810xa3a7": 2120,
    "icode": 2121,
    "\u25810x41d": 2122,
    "\u25810x73c0": 2123,
    "\u25810x7ba0": 2124,
    "\u25810x7450": 2125,
    "\u25810x7840": 2126,
    "\u25810x76f0": 2127,
    "\u25810x74b0": 2128,
    "\u25810x7420": 2129,
    "26000": 2130,
    "lecs": 2131,
    "variablecs": 2132,
    "\u2581sleepcondition": 2133,
    "\u2581sleepconditionvariablecs": 2134,
    "bc000": 2135,
    "b8000": 2136,
    "\u25810x7630": 2137,
    "\u25810x77b0": 2138,
    "\u2581lock": 2139,
    "32000": 2140,
    "34000": 2141,
    "ab000": 2142,
    "be000": 2143,
    "24000": 2144,
    "dicon": 2145,
    "\u25810x7960": 2146,
    "\u2581extracta": 2147,
    "ssociatedicon": 2148,
    "\u2581extractassociatedicon": 2149,
    "\u25810x5265c28": 2150,
    "securityinfo": 2151,
    "e3": 2152,
    "73": 2153,
    "9c000": 2154,
    "\u25810x7780": 2155,
    "48000": 2156,
    "a8000": 2157,
    "7c000": 2158,
    "\u25810x7b70": 2159,
    "38000": 2160,
    "icodestring": 2161,
    "28000": 2162,
    "56000": 2163,
    "74000": 2164,
    "mapviewof": 2165,
    "mapviewofsection": 2166,
    "5c000": 2167,
    "a4000": 2168,
    "6c000": 2169,
    "b4000": 2170,
    "initun": 2171,
    "\u2581rtlinitun": 2172,
    "\u2581rtlinitunicodestring": 2173,
    "\u2581beginup": 2174,
    "98000": 2175,
    "78000": 2176,
    "\u25810x408": 2177,
    "2c000": 2178,
    "\u258132": 2179,
    "c4000": 2180,
    "58000": 2181,
    "68000": 2182,
    "94000": 2183,
    "\u25810xe0": 2184,
    "4c000": 2185,
    "\u2581select": 2186,
    "\u25810xfeee002c": 2187,
    "\u25810xfeee007c": 2188,
    "\u25810x7be0": 2189,
    "\u258110": 2190,
    "\u25810d0a": 2191,
    "2e6669": 2192,
    "3696e6": 2193,
    "3696e6b69": 2194,
    "3696e6b692e6669": 2195,
    "\u25810x120e": 2196,
    "ccc": 2197,
    "\u25810x42b9": 2198,
    "\u25810x121193c": 2199,
    "class": 2200,
    "valu": 2201,
    "\u2581txt": 2202,
    "nal": 2203,
    "input": 2204,
    "53": 2205,
    "\u25810xfeee002b": 2206,
    "redu": 2207,
    "referredu": 2208,
    "referreduilanguage": 2209,
    "\u2581show": 2210,
    "threadp": 2211,
    "threadpreferreduilanguage": 2212,
    "\u25810xfeee002d": 2213,
    "threadpreferreduilanguages": 2214,
    "\u25810x3f2000": 2215,
    "\u25810xfeee002f": 2216,
    "ysical": 2217,
    "\u25810x78f0": 2218,
    "\u2581ph": 2219,
    "\u25810x36": 2220,
    "\u25810xfeee002e": 2221,
    "\u2581physical": 2222,
    "\u25810xfeee0074": 2223,
    "12000": 2224,
    "ray": 2225,
    "e44": 2226,
    "\u2581getsysteminfo": 2227,
    "9b": 2228,
    "\u25810x1211fac": 2229,
    "\u2581po": 2230,
    "errormode": 2231,
    "\u25810xfeee006b": 2232,
    "\u2581seterrormode": 2233,
    "\u2581getdate": 2234,
    "\u25810x9030": 2235,
    "\u25810xfeee006d": 2236,
    "\u2581er": 2237,
    "\u25810x410090": 2238,
    "\u2581createthread": 2239,
    "\u25810x40a": 2240,
    "\u25810xfeee01": 2241,
    "\u25810x48f8": 2242,
    "\u25810xfeee0045": 2243,
    "\u2581loadresource": 2244,
    "\u25810x1211508": 2245,
    "\u25810x7bf0": 2246,
    "\u2581of": 2247,
    "\u25810x7b90": 2248,
    "ug": 2249,
    "\u25810xfeee0030": 2250,
    "arg": 2251,
    "\u25810x1211cdc": 2252,
    "\u25810x42a9": 2253,
    "uto": 2254,
    "\u25810xfeee0031": 2255,
    "c9": 2256,
    "\u2581getmessagea": 2257,
    "\u25813": 2258,
    "e08": 2259,
    "\u25810xfeee009a": 2260,
    "cpy": 2261,
    "\u2581malloc": 2262,
    "\u25810x1211f30": 2263,
    "\u25810x47c0": 2264,
    "\u2581registry": 2265,
    "\u25810xa2": 2266,
    "\u25810xfeee0044": 2267,
    "808": 2268,
    "array": 2269,
    "\u25810x1211928": 2270,
    "pos": 2271,
    "\u2581registerclassexa": 2272,
    "\u2581enumsystem": 2273,
    "\u258120220": 2274,
    "\u25812022030": 2275,
    "\u25810xfeee005e": 2276,
    "\u2581ofresource": 2277,
    "008": 2278,
    "\u25810x12117f8": 2279,
    "nextw": 2280,
    "ac0": 2281,
    "\u2581lockresource": 2282,
    "\u25810x1211f04": 2283,
    "3c0": 2284,
    "ternal": 2285,
    "\u25810x80000000": 2286,
    "\u25810x1211578": 2287,
    "\u25810x42a9a0": 2288,
    "\u25810xfeee0043": 2289,
    "if": 2290,
    "\u25810xfeee0047": 2291,
    "\u25810x1211308": 2292,
    "\u25810xfeee0032": 2293,
    "\u25810xfeee0033": 2294,
    "\u25810x6c": 2295,
    "\u25810x44f8e0": 2296,
    "\u25810xfeee0035": 2297,
    "\u25810x41bc20": 2298,
    "\u25810xfeee0034": 2299,
    "\u25810x567": 2300,
    "\u25810xfeee0048": 2301,
    "\u25810x5f500000": 2302,
    "folderw": 2303,
    "typ": 2304,
    "\u2581rec": 2305,
    "\u25810xfeee0036": 2306,
    "\u25810xfeee003b": 2307,
    "\u25810xfeee0037": 2308,
    "\u2581point": 2309,
    "rata": 2310,
    "\u2581prec": 2311,
    "\u2581errata": 2312,
    "\u2581precision": 2313,
    "\u2581nov": 2314,
    "\u2581findresourcew": 2315,
    "\u2581sep": 2316,
    "\u25810x4fec": 2317,
    "\u25810x33": 2318,
    "\u25810xfeee0049": 2319,
    "ows": 2320,
    "\u2581process32nextw": 2321,
    "\u25810x42a": 2322,
    "\u25810xfeee0038": 2323,
    "\u25810xfeee0039": 2324,
    "\u25810x424": 2325,
    "ed4": 2326,
    "variant": 2327,
    "\u25810xfeee0041": 2328,
    "\u25810x5f": 2329,
    "\u25810xfeee003f": 2330,
    "\u25810xfeee0042": 2331,
    "\u2581gettickcount64": 2332,
    "\u2581enumsystemlocales": 2333,
    "\u25810xd000": 2334,
    "\u25810xfeee0062": 2335,
    "\u25810xfeee003d": 2336,
    "\u25810xa1": 2337,
    "\u25810xfeee003a": 2338,
    "\u2581com": 2339,
    "\u25810xfeee003e": 2340,
    "allocate": 2341,
    "\u2581q": 2342,
    "utof": 2343,
    "\u2581apr": 2344,
    "\u2581aug": 2345,
    "ember": 2346,
    "\u25810xfeee003c": 2347,
    "\u2581getuserdefaultlocalename": 2348,
    "\u2581showwindow": 2349,
    "\u2581sun": 2350,
    "cad": 2351,
    "\u2581isvalidlocalename": 2352,
    "\u2581enumsystemlocalesex": 2353,
    "\u2581getdateformatex": 2354,
    "\u2581gettimeformatex": 2355,
    "\u2581getmain": 2356,
    "\u25810x42dac6": 2357,
    "a58": 2358,
    "\u25810x2d": 2359,
    "\u2581may": 2360,
    "uary": 2361,
    "be8": 2362,
    "sday": 2363,
    "\u2581tue": 2364,
    "\u2581wed": 2365,
    "fe8": 2366,
    "\u25810x7cd0": 2367,
    "\u25810x52660": 2368,
    "\u25810xfeee0053": 2369,
    "\u25810xfeee0060": 2370,
    "teen": 2371,
    "\u2581initializeconditionvariable": 2372,
    "aletteen": 2373,
    "aletteentries": 2374,
    "leob": 2375,
    "\u25810xfeee004a": 2376,
    "\u25810xfeee005c": 2377,
    "\u25810xfeee0065": 2378,
    "\u25810xfeee0066": 2379,
    "\u25810xfeee0067": 2380,
    "\u25810xfeee0061": 2381,
    "\u25810xfeee004d": 2382,
    "\u25810xfeee005a": 2383,
    "\u25810x31": 2384,
    "\u25810xfeee004b": 2385,
    "\u25810xfeee004c": 2386,
    "\u25810xfeee005b": 2387,
    "\u25810x1211f34": 2388,
    "\u25810xfeee0073": 2389,
    "\u25810x412": 2390,
    "text": 2391,
    "\u25810x42a40": 2392,
    "\u25810xfeee0063": 2393,
    "\u25810xfeee0050": 2394,
    "\u25810xfeee0055": 2395,
    "\u25810xfeee004e": 2396,
    "cc8": 2397,
    "\u25810xfeee0054": 2398,
    "\u25810xfeee004f": 2399,
    "\u25810xfeee0068": 2400,
    "\u25810xfeee0051": 2401,
    "\u25810xfeee0052": 2402,
    "\u25810xfeee0056": 2403,
    "\u25810xfeee0057": 2404,
    "\u25810xfeee0058": 2405,
    "orsa": 2406,
    "\u2581contr": 2407,
    "\u2581updatewindow": 2408,
    "\u25810xfeee0059": 2409,
    "388": 2410,
    "\u25810x655": 2411,
    "keyboard": 2412,
    "suped": 2413,
    "\u2581end": 2414,
    "typec": 2415,
    "\u2581getsystemp": 2416,
    "\u2581getsystempaletteentries": 2417,
    "\u2581floatingpoin": 2418,
    "toperation": 2419,
    "\u2581loadlibraryw": 2420,
    "byzero": 2421,
    "isionbyzero": 2422,
    "\u25810x4340": 2423,
    "\u25810xfeee0064": 2424,
    "\u25810xfeee0075": 2425,
    "windowproc": 2426,
    "\u25810xfeee0070": 2427,
    "\u25810xfeee0081": 2428,
    "\u2581olea": 2429,
    "\u2581crypt": 2430,
    "\u25810x3bc": 2431,
    "variablea": 2432,
    "\u2581varr": 2433,
    "4fromstr": 2434,
    "\u2581deletefilea": 2435,
    "\u25810xfeee006c": 2436,
    "\u2581getkeyboard": 2437,
    "\u25810xa8": 2438,
    "fearray": 2439,
    "\u25810x65500000": 2440,
    "\u25810x423b": 2441,
    "\u25810x41b9": 2442,
    "\u25810x1211fc4": 2443,
    "\u2581recv": 2444,
    "\u2581findnext": 2445,
    "sing": 2446,
    "\u25810xfeee006f": 2447,
    "63": 2448,
    "\u25810x7df0": 2449,
    "\u2581beginpaint": 2450,
    "\u25810x420c": 2451,
    "\u25810xfeee006e": 2452,
    "\u25810x1211ef0": 2453,
    "\u25810xfeee006a": 2454,
    "\u2581registerwindow": 2455,
    "\u2581endpaint": 2456,
    "\u2581getsystemdirectorya": 2457,
    "\u25810xffff": 2458,
    "\u2581getlogicalprocessor": 2459,
    "cd": 2460,
    "\u2581getlogicalprocessorinformation": 2461,
    "\u25810xfeee0069": 2462,
    "\u25810x3f34c0": 2463,
    "stack": 2464,
    "\u25810x527": 2465,
    "\u25810x37": 2466,
    "guar": 2467,
    "antee": 2468,
    "guarantee": 2469,
    "stackguarantee": 2470,
    "\u2581setthreadstackguarantee": 2471,
    "\u2581getfileinformationby": 2472,
    "orsafearray": 2473,
    "\u25810x7af0": 2474,
    "data": 2475,
    "\u25810x404": 2476,
    "\u25810x10000": 2477,
    "\u25810x107568": 2478,
    "ong": 2479,
    "b04": 2480,
    "\u25810x42b9a0": 2481,
    "\u2581def": 2482,
    "\u25810x3f3000": 2483,
    "\u25810x40a58": 2484,
    "\u25810x7ee0": 2485,
    "\u25810x4c42d8": 2486,
    "\u25810x4c42f0": 2487,
    "114": 2488,
    "\u25810x27": 2489,
    "\u25810x8f20": 2490,
    "\u25810x43b390": 2491,
    "\u25810x5265d": 2492,
    "singleob": 2493,
    "ce8": 2494,
    "valueexw": 2495,
    "\u2581defwindowproc": 2496,
    "\u25810x40a9": 2497,
    "stringsa": 2498,
    "closekey": 2499,
    "\u2581regclosekey": 2500,
    "\u25810x40933d": 2501,
    "\u25810x40933e": 2502,
    "\u25810x40933f": 2503,
    "\u25810x409340": 2504,
    "\u25810x409341": 2505,
    "\u25810x409342": 2506,
    "\u25810x409343": 2507,
    "\u2581getfileinformationbyhandl": 2508,
    "\u2581waitforsingleob": 2509,
    "\u25810x52661": 2510,
    "6a": 2511,
    "mage": 2512,
    "\u2581bat": 2513,
    "\u2581shellexecute": 2514,
    "\u25810x8a80": 2515,
    "328": 2516,
    "load": 2517,
    "reg": 2518,
    "\u25810x52662": 2519,
    "\u25810xfeee0089": 2520,
    "\u25810x1211bfc": 2521,
    "\u2581trans": 2522,
    "e04": 2523,
    "windows": 2524,
    "\u25810x4208": 2525,
    "\u25810xfeee008a": 2526,
    "\u2581san": 2527,
    "\u25810x2b": 2528,
    "\u25810x1211f88": 2529,
    "002": 2530,
    "localtime": 2531,
    "\u25810x42e0": 2532,
    "vol": 2533,
    "\u25810x7d98": 2534,
    "\u2581setfileinformationby": 2535,
    "\u25810x7d99": 2536,
    "\u2581createexw": 2537,
    "6b": 2538,
    "uter": 2539,
    "\u2581exed": 2540,
    "\u25810x35": 2541,
    "\u2581exedows": 2542,
    "\u25810x1211dc8": 2543,
    "fdr": 2544,
    "\u2581sanfdr": 2545,
    "\u25810x1211f4c": 2546,
    "f8000": 2547,
    "computer": 2548,
    "\u25810xfeee0078": 2549,
    "\u25810xfeee0077": 2550,
    "\u2581gettempa": 2551,
    "\u25810xfeee0079": 2552,
    "\u25810xfeee0076": 2553,
    "108": 2554,
    "d08": 2555,
    "\u25810x8280": 2556,
    "\u25810xfeee007a": 2557,
    "ume": 2558,
    "spec": 2559,
    "\u25810x1211cfc": 2560,
    "\u25810x8814": 2561,
    "\u25810x5b": 2562,
    "volume": 2563,
    "\u25810x433648": 2564,
    "5a": 2565,
    "\u2581destroy": 2566,
    "10c": 2567,
    "\u25810x7da0": 2568,
    "erat": 2569,
    "\u25810xfeee007f": 2570,
    "\u2581getlocaltime": 2571,
    "e4000": 2572,
    "\u25810x80c4": 2573,
    "bitmap": 2574,
    "rag": 2575,
    "\u2581registerclassexw": 2576,
    "drl6660drl6660drl6660drl6660": 2577,
    "\u25810x7d9c": 2578,
    "280": 2579,
    "\u25810x7d9d": 2580,
    "\u25810x7de4": 2581,
    "\u2581regset": 2582,
    "\u25810x12117e8": 2583,
    "\u25810x7da1": 2584,
    "\u25810x7de5": 2585,
    "140": 2586,
    "\u2581getsyscolorbrush": 2587,
    "\u25810x9020": 2588,
    "\u2581globalfree": 2589,
    "\u25810x12117fc": 2590,
    "\u2581ws2": 2591,
    "93": 2592,
    "\u25810x42bd": 2593,
    "\u2581post": 2594,
    "rect": 2595,
    "\u25810x7db4": 2596,
    "\u25810x42fc": 2597,
    "\u25810x7da4": 2598,
    "quit": 2599,
    "\u25810x4800": 2600,
    "\u25810x7db5": 2601,
    "\u25810x8a60": 2602,
    "\u25810x410770": 2603,
    "ok": 2604,
    "\u25810x8815": 2605,
    "\u25810x1211768": 2606,
    "\u25810x7da5": 2607,
    "\u25810x43b8": 2608,
    "volumeinformation": 2609,
    "656": 2610,
    "\u2581getvolumeinformation": 2611,
    "\u2581seten": 2612,
    "\u2581setwindow": 2613,
    "texta": 2614,
    "\u25810x4620": 2615,
    "ify": 2616,
    "\u25810xfeee0080": 2617,
    "\u25810x4330": 2618,
    "\u25810x7e80": 2619,
    "\u25810x7da8": 2620,
    "3f8": 2621,
    "\u25810x527ed8": 2622,
    "b08": 2623,
    "down": 2624,
    "\u25810x1211e08": 2625,
    "\u25810x1211f48": 2626,
    "erator": 2627,
    "\u25810x7da9": 2628,
    "\u2581ver": 2629,
    "ial": 2630,
    "\u25810xfeee007d": 2631,
    "\u25810xfeee0095": 2632,
    "368": 2633,
    "\u25810x41f": 2634,
    "\u25810x4bc": 2635,
    "mapp": 2636,
    "\u25810x423e": 2637,
    "\u2581runtime": 2638,
    "fileattributesa": 2639,
    "\u2581registerwindowmessagew": 2640,
    "\u25810x7e74": 2641,
    "onnect": 2642,
    "\u25810xfeee008e": 2643,
    "state": 2644,
    "mapping": 2645,
    "\u25810x7e75": 2646,
    "filemapping": 2647,
    "\u25810x7e78": 2648,
    "\u25810x7e79": 2649,
    "\u25810x7e7c": 2650,
    "\u25810x60000": 2651,
    "\u25810x7e7d": 2652,
    "\u2581transla": 2653,
    "\u25810x26": 2654,
    "\u2581getenvironmentvariablea": 2655,
    "\u25810x8cf0": 2656,
    "\u25810x1211f3c": 2657,
    "\u25810x40a2": 2658,
    "setinformation": 2659,
    "\u25810x42a0": 2660,
    "\u25810x7e81": 2661,
    "\u25810xfeee0082": 2662,
    "\u25810x57": 2663,
    "\u25810x7dac": 2664,
    "\u25810x7dad": 2665,
    "\u25810x42d8c6": 2666,
    "versioninfow": 2667,
    "box": 2668,
    "ut32": 2669,
    "\u25810x418a": 2670,
    "\u2581oleaut32": 2671,
    "nexec": 2672,
    "\u25810x61": 2673,
    "files": 2674,
    "\u2581heapsetinformation": 2675,
    "\u25810xfeee008c": 2676,
    "ow64": 2677,
    "\u25810x8d80": 2678,
    "\u2581verify": 2679,
    "\u25810x2d4": 2680,
    "\u25810x7db1": 2681,
    "\u25810x7e84": 2682,
    "\u25810x7e85": 2683,
    "\u25810x4255": 2684,
    "\u25810xa7": 2685,
    "\u2581dispatch": 2686,
    "\u25810x8410": 2687,
    "long": 2688,
    "anag": 2689,
    "\u25810xfeee007b": 2690,
    "ysta": 2691,
    "\u25810xfeee008d": 2692,
    "\u25810x4340c8": 2693,
    "\u2581winexec": 2694,
    "\u25810x8330": 2695,
    "\u25810xfeee0084": 2696,
    "570": 2697,
    "ram": 2698,
    "\u25810x9b": 2699,
    "20202020": 2700,
    "\u2581createfilemapping": 2701,
    "\u2581verifyversioninfow": 2702,
    "c3": 2703,
    "ust": 2704,
    "\u25810x8340": 2705,
    "\u2581coinitializeex": 2706,
    "\u2581wcs": 2707,
    "namew": 2708,
    "\u25810x42c0": 2709,
    "\u2581connect": 2710,
    "\u25810x4e5": 2711,
    "\u25810x9d": 2712,
    "\u25810x3e6c": 2713,
    "\u25810x4710": 2714,
    "178": 2715,
    "cf": 2716,
    "\u25810xa5": 2717,
    "\u25810x3d": 2718,
    "ontin": 2719,
    "\u25810x7db9": 2720,
    "\u25810x7db8": 2721,
    "\u2581tr": 2722,
    "\u25810xfeee0087": 2723,
    "\u25810x571b00": 2724,
    "a10": 2725,
    "sid": 2726,
    "ogram": 2727,
    "\u25810xfeee0088": 2728,
    "\u2581drag": 2729,
    "tou": 2730,
    "\u25810x1211e40": 2731,
    "enum": 2732,
    "a44": 2733,
    "\u25810x7dbc": 2734,
    "bc8": 2735,
    "\u25810x7dbd": 2736,
    "\u25810x41f3": 2737,
    "\u258116463": 2738,
    "\u2581translatem": 2739,
    "\u2581postquit": 2740,
    "\u2581postquitmessage": 2741,
    "\u25810x8d10": 2742,
    "900": 2743,
    "\u25810x431f": 2744,
    "f08": 2745,
    "fac": 2746,
    "\u25810xfeee0083": 2747,
    "\u25810x4298": 2748,
    "\u25810xfeee0085": 2749,
    "\u25810xfeee0086": 2750,
    "\u25810x4169c0": 2751,
    "\u25810x4169c1": 2752,
    "\u25810x120e6d4": 2753,
    "\u25810x3f3": 2754,
    "wow64": 2755,
    "\u25810x3a": 2756,
    "\u25810x4015": 2757,
    "\u25810x432": 2758,
    "\u2581translatemessage": 2759,
    "\u25810x6a6": 2760,
    "\u25810x4227": 2761,
    "\u2581out": 2762,
    "\u25810x1211ccc": 2763,
    "\u2581createfilemappinga": 2764,
    "\u25810x3f31": 2765,
    "\u25810x1211ec8": 2766,
    "se": 2767,
    "\u25810x55": 2768,
    "\u25810x41d8": 2769,
    "\u2581check": 2770,
    "\u25810x9230": 2771,
    "endoffile": 2772,
    "\u25810x4960": 2773,
    "\u25810x5265e": 2774,
    "\u25810xfeee008f": 2775,
    "your": 2776,
    "\u25810x3b": 2777,
    "\u25810xfeee0090": 2778,
    "\u25810x46a0": 2779,
    "\u25810x3f75f": 2780,
    "\u25810x40a5dc": 2781,
    "ad4": 2782,
    "\u25810x40a5cc": 2783,
    "e68": 2784,
    "\u25810x120e6d0": 2785,
    "726": 2786,
    "change": 2787,
    "\u2581image": 2788,
    "\u25810x1210d": 2789,
    "\u25810x45fc": 2790,
    "\u25810x41de80": 2791,
    "\u2581regsetvalueexw": 2792,
    "\u2581createprocessa": 2793,
    "ee8": 2794,
    "a08": 2795,
    "\u2581getcurrentdirectoryw": 2796,
    "\u25810x7dc0": 2797,
    "atet": 2798,
    "manag": 2799,
    "pro": 2800,
    "\u2581device": 2801,
    "rand": 2802,
    "\u2581680": 2803,
    "\u2581op": 2804,
    "\u25810x40b3": 2805,
    "350": 2806,
    "\u25810xfeee0092": 2807,
    "dec8": 2808,
    "\u25810x42ce": 2809,
    "ty": 2810,
    "servicehandle": 2811,
    "\u2581closeservicehandle": 2812,
    "\u25810x9240": 2813,
    "398": 2814,
    "\u25810x42c588": 2815,
    "\u25810x41678": 2816,
    "\u25810x1211fdc": 2817,
    "\u25810x4428": 2818,
    "\u25810x4094": 2819,
    "e88": 2820,
    "\u2581deleteob": 2821,
    "pe": 2822,
    "\u25810x169b9": 2823,
    "\u25810x41d6": 2824,
    "artup": 2825,
    "round": 2826,
    "00a": 2827,
    "unlock": 2828,
    "\u25810x3f30b0": 2829,
    "\u25810x480": 2830,
    "ull": 2831,
    "\u25810x3f30e0": 2832,
    "\u25810x3f3030": 2833,
    "\u25810x7dc1": 2834,
    "\u25810x4093e": 2835,
    "\u25810x3f3110": 2836,
    "\u25810x3f3140": 2837,
    "\u25810x81": 2838,
    "\u25810x48f898": 2839,
    "\u25810x9460": 2840,
    "\u2581allocate": 2841,
    "\u2581cb": 2842,
    "\u25810xfeee0094": 2843,
    "\u2581defwindowproca": 2844,
    "\u2581mapview": 2845,
    "\u25810x1211bd0": 2846,
    "46": 2847,
    "yarg": 2848,
    "\u25810x4c32c0": 2849,
    "\u2581registerclassa": 2850,
    "988": 2851,
    "788": 2852,
    "\u25810xf0": 2853,
    "\u2581globalunlock": 2854,
    "\u25810xfeee0091": 2855,
    "\u25810x4054": 2856,
    "\u25810x5d": 2857,
    "\u25810x1211c14": 2858,
    "\u2581mapviewoffile": 2859,
    "\u2581dispatchmessagea": 2860,
    "bl": 2861,
    "\u25810x7b00": 2862,
    "\u25810x405d": 2863,
    "\u2581res": 2864,
    "\u25810x41d7": 2865,
    "\u25810x42a7": 2866,
    "\u25810x801000": 2867,
    "\u25810x43d": 2868,
    "\u25810x800000": 2869,
    "\u25810xfeee0093": 2870,
    "bk": 2871,
    "7c3": 2872,
    "new": 2873,
    "\u2581findwindow": 2874,
    "\u25810x120fb": 2875,
    "\u25810x4330c8": 2876,
    "a0000": 2877,
    "f828": 2878,
    "a88": 2879,
    "\u25810x41dda8": 2880,
    "\u25810xfeee0098": 2881,
    "\u25810x41ddc0": 2882,
    "\u25810x41db74": 2883,
    "\u25810x41db9c": 2884,
    "\u25810x41ddf0": 2885,
    "\u25810x405d54": 2886,
    "tob": 2887,
    "\u25810x41de38": 2888,
    "\u25810x41de68": 2889,
    "\u2581copyfilea": 2890,
    "\u25810x41de98": 2891,
    "\u25810xfeee0099": 2892,
    "\u25810x41deb0": 2893,
    "\u2581setfileattributesa": 2894,
    "\u25810x41dec8": 2895,
    "\u25810xfeee0097": 2896,
    "foreg": 2897,
    "foreground": 2898,
    "foregroundwindow": 2899,
    "di": 2900,
    "ethread": 2901,
    "cept": 2902,
    "\u25810xfeee0096": 2903,
    "\u25810x80e0": 2904,
    "\u25810x40a2d5": 2905,
    "\u25810x58de": 2906,
    "\u2581u": 2907,
    "\u2581the": 2908,
    "\u25810xfeee009b": 2909,
    "a18": 2910,
    "\u25810x84b0": 2911,
    "\u25810xa6": 2912,
    "\u25810xfeee009c": 2913,
    "104": 2914,
    "\u2581type": 2915,
    "\u25810x8310": 2916,
    "\u25810x4e80": 2917,
    "\u2581z": 2918,
    "\u2581imagelist": 2919,
    "\u2581sys": 2920,
    "riv": 2921,
    "\u2581shgetfolderw": 2922,
    "2ac": 2923,
    "\u2581iswow64": 2924,
    "\u2581iswow64process": 2925,
    "blt": 2926,
    "\u2581selec": 2927,
    "\u25810x4170": 2928,
    "\u25810x12110": 2929,
    "e61": 2930,
    "\u25810x423818": 2931,
    "\u25810x152": 2932,
    "ivi": 2933,
    "42": 2934,
    "400": 2935,
    "der": 2936,
    "servicectrlhandl": 2937,
    "\u2581registerservicectrlhandl": 2938,
    "\u2581getcomputer": 2939,
    "freesp": 2940,
    "\u25810x438c": 2941,
    "\u2581getdisk": 2942,
    "\u2581getdiskfreesp": 2943,
    "\u25810x46e0": 2944,
    "\u25810x416ed": 2945,
    "once": 2946,
    "ceff": 2947,
    "\u25810x44f928": 2948,
    "3a8": 2949,
    "\u25810x4189": 2950,
    "b48": 2951,
    "\u25810x1211af0": 2952,
    "bkcolor": 2953,
    "\u2581accept": 2954,
    "\u25810x120e69": 2955,
    "\u25815": 2956,
    "\u25810x41d838": 2957,
    "\u2581tex": 2958,
    "\u2581selectob": 2959,
    "\u2581textou": 2960,
    "scmanag": 2961,
    "\u2581openscmanag": 2962,
    "\u25810x8026": 2963,
    "\u25810x1076": 2964,
    "\u25810x41f828": 2965,
    "\u25810x8d2": 2966,
    "\u25810x41d6d0": 2967,
    "\u25810x41d740": 2968,
    "\u25810x41d708": 2969,
    "\u2581ra": 2970,
    "\u2581setfileattributesw": 2971,
    "ff8": 2972,
    "\u25810x5265f": 2973,
    "\u25810x405461": 2974,
    "ger": 2975,
    "\u25810x525": 2976,
    "eexception": 2977,
    "do": 2978,
    "\u2581rais": 2979,
    "\u2581raiseexception": 2980,
    "\u25810x41b910": 2981,
    "\u2581wsast": 2982,
    "\u2581wsastartup": 2983,
    "\u2581process32first": 2984,
    "\u25810x1211938": 2985,
    "\u25810x1211f10": 2986,
    "ivile": 2987,
    "dispatch": 2988,
    "\u2581startservicectrl": 2989,
    "\u2581startservicectrldispatch": 2990,
    "\u25810xb4": 2991,
    "a17": 2992,
    "\u25810x42ca": 2993,
    "\u2581getthreadpreferreduilanguages": 2994,
    "\u25810x1e5": 2995,
    "\u25810x40f6": 2996,
    "\u25810x7dc8": 2997,
    "\u2581setservice": 2998,
    "49": 2999,
    "\u2581setservicestatus": 3000,
    "\u25810xab": 3001,
    "\u25810x12113": 3002,
    "\u25810x11cc": 3003,
    "\u25810x4317": 3004,
    "\u2581getdiskfreespac": 3005,
    "\u25810x41b": 3006,
    "\u2581createprocessw": 3007,
    "e4c": 3008,
    "\u25810x43b3": 3009,
    "\u2581sendmessagea": 3010,
    "ystate": 3011,
    "488": 3012,
    "\u25810xb0": 3013,
    "\u2581getlogicaldrivestringsa": 3014,
    "\u25810x20000": 3015,
    "\u25810x4270": 3016,
    "\u2581drawtexta": 3017,
    "\u25810x70b8": 3018,
    "\u25810x40152c": 3019,
    "\u25810x85": 3020,
    "\u25810x1525000": 3021,
    "\u25810x3f22": 3022,
    "\u25810x58c0": 3023,
    "\u2581setbkcolor": 3024,
    "can": 3025,
    "\u2581findnextfilew": 3026,
    "lid": 3027,
    "ofc": 3028,
    "\u25810x97a0": 3029,
    "\u2581initializesrwlock": 3030,
    "\u2581getforegroundwindow": 3031,
    "terect": 3032,
    "\u25810x11cc4c": 3033,
    "vchost": 3034,
    "\u2581deletedc": 3035,
    "\u2581program": 3036,
    "\u25810x70b86f": 3037,
    "its": 3038,
    "\u25810x4229": 3039,
    "\u25810x43d390": 3040,
    "\u2581svchost": 3041,
    "\u25810x519": 3042,
    "\u2581mo": 3043,
    "f0000": 3044,
    "\u2581resum": 3045,
    "\u2581resumethread": 3046,
    "\u25810x7de8": 3047,
    "\u25810x120f8": 3048,
    "\u25810x42cd": 3049,
    "emutex": 3050,
    "\u2581releasemutex": 3051,
    "\u2581exitthread": 3052,
    "full": 3053,
    "\u25810x4febf0": 3054,
    "9c1": 3055,
    "socket": 3056,
    "\u2581closesocket": 3057,
    "\u25810x7de9": 3058,
    "\u25810x3f4000": 3059,
    "ang": 3060,
    "\u25810x6f": 3061,
    "b4e8": 3062,
    "d8000": 3063,
    "\u25810x42d3d8": 3064,
    "\u258174": 3065,
    "ac4": 3066,
    "esid": 3067,
    "\u25810x91": 3068,
    "initializesid": 3069,
    "\u2581acquiresrwlockexclusive": 3070,
    "textcolor": 3071,
    "363": 3072,
    "\u2581bit": 3073,
    "aterect": 3074,
    "\u25810x411b": 3075,
    "\u2581unmapview": 3076,
    "\u2581unmapviewoffile": 3077,
    "\u2581setwindowpos": 3078,
    "\u2581getcomputernamea": 3079,
    "\u25810x437a": 3080,
    "\u2581mpr": 3081,
    "\u25810x7d00": 3082,
    "atethread": 3083,
    "\u2581createcompatibledc": 3084,
    "dup": 3085,
    "\u2581message": 3086,
    "\u2581bitblt": 3087,
    "\u25810x42d390": 3088,
    "\u2581settextcolor": 3089,
    "\u2581to": 3090,
    "\u2581failedto": 3091,
    "\u2581terminatethread": 3092,
    "\u25810x1f000": 3093,
    "adm": 3094,
    "\u2581he": 3095,
    "\u2581textouta": 3096,
    "\u25810x7f10": 3097,
    "ya": 3098,
    "bar": 3099,
    "330": 3100,
    "\u2581allocateand": 3101,
    "\u2581allocateandinitializesid": 3102,
    "viol": 3103,
    "\u2581net": 3104,
    "\u2581createcompatiblebitmap": 3105,
    "\u2581srand": 3106,
    "usp": 3107,
    "\u25810x51000": 3108,
    "violation": 3109,
    "\u2581messagebox": 3110,
    "\u2581control": 3111,
    "\u2581openscmanagerw": 3112,
    "\u2581getke": 3113,
    "\u2581getkeystate": 3114,
    "0x": 3115,
    "\u2581error0x": 3116,
    "\u2581geticon": 3117,
    "\u2581copyfilew": 3118,
    "\u2581startservicectrldispatcherw": 3119,
    "\u2581openservicew": 3120,
    "afc": 3121,
    "\u2581work": 3122,
    "dib": 3123,
    "eed": 3124,
    "\u2581createf": 3125,
    "\u2581startservicew": 3126,
    "d4000": 3127,
    "inki": 3128,
    "longa": 3129,
    "\u25810x5c": 3130,
    "\u2581createservicew": 3131,
    "\u25810x99e0": 3132,
    "\u2581hels": 3133,
    "\u2581getdib": 3134,
    "\u2581helsinki": 3135,
    "\u25810x437ad": 3136,
    "\u25810x437c4": 3137,
    "\u25810x4371e6": 3138,
    "\u25810x4371e7": 3139,
    "\u25810x1211f18": 3140,
    "\u2581findwindowa": 3141,
    "\u25810x52000": 3142,
    "cc000": 3143,
    "tic": 3144,
    "enthread": 3145,
    "am": 3146,
    "\u2581openm": 3147,
    "\u25810x43b7b9": 3148,
    "\u25810x43b7c3": 3149,
    "\u2581openthread": 3150,
    "ene": 3151,
    "wi": 3152,
    "querys": 3153,
    "\u2581freesid": 3154,
    "ontindir": 3155,
    "\u2581createfontindir": 3156,
    "izn": 3157,
    "\u2581susp": 3158,
    "iznadm": 3159,
    "\u2581triznadm": 3160,
    "\u25810x2ac": 3161,
    "addc": 3162,
    "\u2581suspend": 3163,
    "\u2581suspendthread": 3164,
    "\u2581getdibits": 3165,
    "\u25810x67000000": 3166,
    "\u2581htons": 3167,
    "\u25810x4308": 3168,
    "\u25810x120ff": 3169,
    "f80": 3170,
    "\u25810x1211f98": 3171,
    "\u2581socket": 3172,
    "\u25810x42e5f8": 3173,
    "\u2581getob": 3174,
    "ed000": 3175,
    "\u25810x20019": 3176,
    "\u2581settimer": 3177,
    "solid": 3178,
    "add": 3179,
    "\u2581createdib": 3180,
    "\u25810x4315": 3181,
    "a81": 3182,
    "\u25810x567a40": 3183,
    "utdown": 3184,
    "querysystem": 3185,
    "\u2581createfontindirecta": 3186,
    "querysysteminformation": 3187,
    "\u25810x4028": 3188,
    "solidbrush": 3189,
    "\u2581createsolidbrush": 3190,
    "\u25810x53b4e8": 3191,
    "\u2581getusernamew": 3192,
    "\u2581createsemapho": 3193,
    "68c": 3194,
    "\u2581remo": 3195,
    "\u2581openmutexa": 3196,
    "\u2581invalidaterect": 3197,
    "\u2581fill": 3198,
    "\u25810x79a0": 3199,
    "\u2581getnumber": 3200,
    "hip": 3201,
    "\u25810x7dec": 3202,
    "members": 3203,
    "\u2581getlogicaldrivestringsw": 3204,
    "membership": 3205,
    "\u2581gethost": 3206,
    "\u2581checktoken": 3207,
    "\u2581checktokenmembership": 3208,
    "\u25810x7a10": 3209,
    "\u2581bind": 3210,
    "ofconsole": 3211,
    "\u2581getnumberofconsole": 3212,
    "41": 3213,
    "\u2581wne": 3214,
    "enenum": 3215,
    "\u25810x7c70": 3216,
    "\u2581wnetop": 3217,
    "\u2581wnetopenenum": 3218,
    "c8000": 3219,
    "\u25810x1211b04": 3220,
    "\u2581wnetopenenumw": 3221,
    "app": 3222,
    "11000": 3223,
    "\u2581destroyicon": 3224,
    "76f7": 3225,
    "\u25810x46b3": 3226,
    "\u25810x4319": 3227,
    "byname": 3228,
    "\u25810x6b9": 3229,
    "\u2581gethostbyname": 3230,
    "\u25810x188e": 3231,
    "\u2581getkeyboardstate": 3232,
    "288": 3233,
    "\u2581releases": 3234,
    "\u25810x181b": 3235,
    "\u25810xff8": 3236,
    "any": 3237,
    "\u2581wnetaddc": 3238,
    "losec": 3239,
    "resourcew": 3240,
    "\u2581wnetaddconnection2w": 3241,
    "\u2581wnetenum": 3242,
    "\u2581wnetenumresourcew": 3243,
    "ce000": 3244,
    "debugger": 3245,
    "\u25810x417d": 3246,
    "\u25810x41c8": 3247,
    "\u2581fillrect": 3248,
    "\u25810x4168": 3249,
    "debuggerpresent": 3250,
    "\u25810x4141": 3251,
    "\u25810x1211e28": 3252,
    "\u25810xad": 3253,
    "\u25810x7b000": 3254,
    "\u2581createdibsection": 3255,
    "\u25810x7f03": 3256,
    "\u2581ntquerysysteminformation": 3257,
    "cancel": 3258,
    "\u2581msvcr": 3259,
    "cancelc": 3260,
    "uilanguage": 3261,
    "\u2581wnetcancelc": 3262,
    "\u2581wnetcancelconnection2w": 3263,
    "\u2581ch": 3264,
    "\u25810x7ded": 3265,
    "\u25810x4275": 3266,
    "dc000": 3267,
    "26b2": 3268,
    "fc000": 3269,
    "ab4": 3270,
    "\u2581emp": 3271,
    "de000": 3272,
    "\u2581setclass": 3273,
    "\u2581geticoninfo": 3274,
    "\u2581setclipboard": 3275,
    "\u2581openclipboard": 3276,
    "ec000": 3277,
    "\u2581closec": 3278,
    "\u25810x1f0001": 3279,
    "\u2581closeclipboard": 3280,
    "14000": 3281,
    "\u25810xac": 3282,
    "\u2581drawicon": 3283,
    "\u2581mul": 3284,
    "\u25810x4bb0": 3285,
    "\u2581muldiv": 3286,
    "\u2581setclipboarddata": 3287,
    "\u2581empty": 3288,
    "ecut": 3289,
    "\u2581shellexecut": 3290,
    "\u2581emptyclipboard": 3291,
    "b88": 3292,
    "18000": 3293,
    "\u2581getsecurityinfo": 3294,
    "\u25810x47a0": 3295,
    "inac": 3296,
    "ff000": 3297,
    "triesinac": 3298,
    "\u2581setclasslonga": 3299,
    "\u2581setentriesinac": 3300,
    "\u2581list": 3301,
    "f4000": 3302,
    "\u25810x431998": 3303,
    "\u2581extractic": 3304,
    "e8000": 3305,
    "\u2581accessviolation": 3306,
    "ee000": 3307,
    "\u2581shellexecuteexw": 3308,
    "\u2581wc": 3309,
    "todo": 3310,
    "fe000": 3311,
    "\u2581extractassociatedicona": 3312,
    "\u2581extractassociatediconw": 3313,
    "\u2581ntun": 3314,
    "\u2581ntunmapviewofsection": 3315,
    "\u2581shutdown": 3316,
    "\u2581isdebuggerpresent": 3317,
    "geo": 3318,
    "\u25810x421": 3319,
    "\u2581rtlzero": 3320,
    "\u2581rtlzeromemory": 3321,
    "1c000": 3322,
    "\u2581registerservicectrlhandlerw": 3323,
    "dateresourcew": 3324,
    "\u2581findwindowexa": 3325,
    "\u2581endup": 3326,
    "\u2581updateresourcea": 3327,
    "\u2581endupdateresourcea": 3328,
    "\u2581beginupdateresourcea": 3329,
    "geoid": 3330,
    "\u2581getusergeoid": 3331,
    "\u2581setentriesinacla": 3332,
    "\u2581gb": 3333,
    "\u25810x4730": 3334,
    "47": 3335,
    "oct": 3336,
    "\u25810x28c": 3337,
    "\u2581htonl": 3338,
    "\u2581beginupdateresourcew": 3339,
    "ntstatus": 3340,
    "serror": 3341,
    "todoserror": 3342,
    "\u2581rtlntstatus": 3343,
    "\u2581rtlntstatustodoserror": 3344,
    "\u2581v": 3345,
    "inputs": 3346,
    "\u2581getnumberofconsoleinputs": 3347,
    "\u2581ntmapviewofsection": 3348,
    "octls": 3349,
    "\u2581ioctls": 3350,
    "\u2581ioctlsocket": 3351,
    "\u2581extracticonex": 3352,
    "\u2581extracticonexw": 3353,
    "\u2581setsecurityinfo": 3354,
    "97a6": 3355,
    "aff": 3356,
    "\u2581listen": 3357,
    "\u25810x3410c": 3358,
    "no": 3359,
    "\u25810xca0000": 3360,
    "\u25810x77001000": 3361,
    "\u25810x77002000": 3362,
    "\u25810x77003000": 3363,
    "\u25810x77004000": 3364,
    "\u25810x77005000": 3365,
    "\u25810x77006000": 3366,
    "\u25810x77007000": 3367,
    "\u25810x77008000": 3368,
    "\u25810x77009000": 3369,
    "\u25810x7700a000": 3370,
    "\u25810x7700b000": 3371,
    "\u25810x7700c000": 3372,
    "\u25810x7700d000": 3373,
    "\u25810x7700e000": 3374,
    "\u25810x7700f000": 3375,
    "\u25810x77010000": 3376,
    "\u25810x77011000": 3377,
    "\u25810x77012000": 3378,
    "\u25810x77013000": 3379,
    "\u25810x77014000": 3380,
    "\u25810x77015000": 3381,
    "\u25810x77016000": 3382,
    "\u25810x77017000": 3383,
    "\u25810x77018000": 3384,
    "\u25810x77019000": 3385,
    "\u25810x7701a000": 3386,
    "\u25810x7701b000": 3387,
    "\u25810x7701c000": 3388,
    "\u25810x7701d000": 3389,
    "\u25810x7701e000": 3390,
    "\u25810x7701f000": 3391,
    "\u25810x77020000": 3392,
    "\u25810x77021000": 3393,
    "\u25810x77022000": 3394,
    "\u25810x77023000": 3395,
    "\u25810x77024000": 3396,
    "\u25810x77025000": 3397,
    "\u25810x77026000": 3398,
    "\u25810x77027000": 3399,
    "\u25810x77028000": 3400,
    "\u25810x77029000": 3401,
    "\u25810x7702a000": 3402,
    "\u25810x7702b000": 3403,
    "\u25810x7702c000": 3404,
    "\u25810x7702d000": 3405,
    "\u25810x7702e000": 3406,
    "\u25810x7702f000": 3407,
    "\u25810x77030000": 3408,
    "\u25810x77031000": 3409,
    "\u25810x77032000": 3410,
    "\u25810x77033000": 3411,
    "\u25810x77034000": 3412,
    "\u25810x77035000": 3413,
    "\u25810x77036000": 3414,
    "\u25810x77037000": 3415,
    "\u25810x77038000": 3416,
    "\u25810x77039000": 3417,
    "\u25810x7703a000": 3418,
    "\u25810x7703b000": 3419,
    "\u25810x7703c000": 3420,
    "\u25810x7703d000": 3421,
    "\u25810x7703e000": 3422,
    "\u25810x7703f000": 3423,
    "\u25810x77040000": 3424,
    "\u25810x77041000": 3425,
    "\u25810x77042000": 3426,
    "\u25810x77043000": 3427,
    "\u25810x77044000": 3428,
    "\u25810x77045000": 3429,
    "\u25810x77046000": 3430,
    "\u25810x77047000": 3431,
    "\u25810x77048000": 3432,
    "\u25810x77049000": 3433,
    "\u25810x7704a000": 3434,
    "\u25810x7704b000": 3435,
    "\u25810x7704c000": 3436,
    "\u25810x7704d000": 3437,
    "\u25810x7704e000": 3438,
    "\u25810x7704f000": 3439,
    "\u25810x77050000": 3440,
    "\u25810x77051000": 3441,
    "\u25810x77052000": 3442,
    "\u25810x77053000": 3443,
    "\u25810x77054000": 3444,
    "\u25810x77055000": 3445,
    "\u25810x77056000": 3446,
    "\u25810x77057000": 3447,
    "\u25810x77058000": 3448,
    "\u25810x77059000": 3449,
    "\u25810x7705a000": 3450,
    "\u25810x7705b000": 3451,
    "\u25810x7705c000": 3452,
    "\u25810x7705d000": 3453,
    "\u25810x7705e000": 3454,
    "\u25810x7705f000": 3455,
    "\u25810x77060000": 3456,
    "\u25810x77061000": 3457,
    "\u25810x77062000": 3458,
    "\u25810x77063000": 3459,
    "\u25810x77064000": 3460,
    "\u25810x77065000": 3461,
    "\u25810x77066000": 3462,
    "\u25810x77067000": 3463,
    "\u25810x77068000": 3464,
    "\u25810x77069000": 3465,
    "\u25810x7706a000": 3466,
    "\u25810x7706b000": 3467,
    "\u25810x7706c000": 3468,
    "\u25810x7706d000": 3469,
    "\u25810x7706e000": 3470,
    "\u25810x7706f000": 3471,
    "\u25810x77070000": 3472,
    "\u25810x77071000": 3473,
    "\u25810x77072000": 3474,
    "\u25810x77073000": 3475,
    "\u25810x77074000": 3476,
    "\u25810x77075000": 3477,
    "\u25810x77076000": 3478,
    "\u25810x77077000": 3479,
    "\u25810x77078000": 3480,
    "\u25810x77079000": 3481,
    "\u25810x7707a000": 3482,
    "\u25810x7707b000": 3483,
    "\u25810x7707c000": 3484,
    "\u25810x7707d000": 3485,
    "\u25810x7707e000": 3486,
    "\u25810x7707f000": 3487,
    "\u25810x77080000": 3488,
    "\u25810x77081000": 3489,
    "\u25810x77082000": 3490,
    "\u25810x77083000": 3491,
    "\u25810x77084000": 3492,
    "\u25810x77085000": 3493,
    "\u25810x77086000": 3494,
    "\u25810x77087000": 3495,
    "\u25810x77088000": 3496,
    "\u25810x77089000": 3497,
    "\u25810x7708a000": 3498,
    "\u25810x7708b000": 3499,
    "\u25810x7708c000": 3500,
    "\u25810x7708d000": 3501,
    "\u25810x7708e000": 3502,
    "\u25810x7708f000": 3503,
    "\u25810x77090000": 3504,
    "\u25810x77091000": 3505,
    "\u25810x77092000": 3506,
    "\u25810x77093000": 3507,
    "\u25810x77094000": 3508,
    "\u25810x77095000": 3509,
    "\u25810x77096000": 3510,
    "\u25810x77097000": 3511,
    "\u25810x77098000": 3512,
    "\u25810x77099000": 3513,
    "\u25810x7709a000": 3514,
    "\u25810x7709b000": 3515,
    "\u25810x7709c000": 3516,
    "\u25810x7709d000": 3517,
    "\u25810x7709e000": 3518,
    "\u25810x7709f000": 3519,
    "\u25810x770a0000": 3520,
    "\u25810x770a1000": 3521,
    "\u25810x770a2000": 3522,
    "\u25810x770a3000": 3523,
    "\u25810x770a4000": 3524,
    "\u25810x770a5000": 3525,
    "\u25810x770a6000": 3526,
    "\u25810x770a7000": 3527,
    "\u25810x770a8000": 3528,
    "\u25810x770a9000": 3529,
    "\u25810x770aa000": 3530,
    "\u25810x770ab000": 3531,
    "\u25810x770ac000": 3532,
    "\u25810x770ad000": 3533,
    "\u25810x770ae000": 3534,
    "\u25810x770af000": 3535,
    "\u25810x770b0000": 3536,
    "\u25810x770b1000": 3537,
    "\u25810x770b2000": 3538,
    "\u25810x770b3000": 3539,
    "\u25810x770b4000": 3540,
    "\u25810x770b5000": 3541,
    "\u25810x770b6000": 3542,
    "\u25810x770b7000": 3543,
    "\u25810x770b8000": 3544,
    "\u25810x770b9000": 3545,
    "\u25810x770ba000": 3546,
    "\u25810x770bb000": 3547,
    "\u25810x770bc000": 3548,
    "\u25810x770bd000": 3549,
    "\u25810x770be000": 3550,
    "\u25810x770bf000": 3551,
    "\u25810x770c0000": 3552,
    "\u25810x770c1000": 3553,
    "\u25810x770c2000": 3554,
    "\u25810x770c3000": 3555,
    "\u25810x770c4000": 3556,
    "\u25810x770c5000": 3557,
    "\u25810x770c6000": 3558,
    "\u25810x770c7000": 3559,
    "\u25810x770c8000": 3560,
    "\u25810x770c9000": 3561,
    "\u25810x770ca000": 3562,
    "\u25810x770cb000": 3563,
    "\u25810x770cc000": 3564,
    "\u25810x770cd000": 3565,
    "\u25810x770ce000": 3566,
    "\u25810x770cf000": 3567,
    "\u25810x770d0000": 3568,
    "\u25810x770d1000": 3569,
    "\u25810x770d2000": 3570,
    "\u25810x770d3000": 3571,
    "\u25810x770d4000": 3572,
    "\u25810x770d5000": 3573,
    "\u25810x770d6000": 3574,
    "\u25810x770d7000": 3575,
    "\u25810x770d8000": 3576,
    "\u25810x770d9000": 3577,
    "\u25810x770da000": 3578,
    "\u25810x770db000": 3579,
    "\u25810x770dc000": 3580,
    "\u25810x770dd000": 3581,
    "\u25810x770de000": 3582,
    "\u25810x770df000": 3583,
    "\u25810x770e0000": 3584,
    "\u25810x770e1000": 3585,
    "\u25810x770e2000": 3586,
    "\u25810x770e3000": 3587,
    "\u25810x770e4000": 3588,
    "\u25810x770e5000": 3589,
    "\u25810x770e6000": 3590,
    "\u25810x770e7000": 3591,
    "\u25810x770e8000": 3592,
    "\u25810x770e9000": 3593,
    "\u25810x770ea000": 3594,
    "\u25810x770eb000": 3595,
    "\u25810x770ec000": 3596,
    "\u25810x770ed000": 3597,
    "\u25810x770ee000": 3598,
    "\u25810x770ef000": 3599,
    "\u25810x770f0000": 3600,
    "\u25810x770f1000": 3601,
    "\u25810x770f2000": 3602,
    "\u25810x770f3000": 3603,
    "\u25810x770f4000": 3604,
    "\u25810x770f5000": 3605,
    "\u25810x770f6000": 3606,
    "\u25810x770f7000": 3607,
    "\u25810x770f8000": 3608,
    "\u25810x770f9000": 3609,
    "\u25810x770fa000": 3610,
    "\u25810x770fb000": 3611,
    "\u25810x770fc000": 3612,
    "\u25810x770fd000": 3613,
    "\u25810x770fe000": 3614,
    "\u25810x770ff000": 3615,
    "\u25810x77100000": 3616,
    "\u25810x77101000": 3617,
    "\u25810x77102000": 3618,
    "\u25810x77103000": 3619,
    "\u25810x77104000": 3620,
    "\u25810x77105000": 3621,
    "\u25810x77106000": 3622,
    "\u25810x77107000": 3623,
    "\u25810x77108000": 3624,
    "\u25810x77109000": 3625,
    "\u25810x7710a000": 3626,
    "\u25810x7710b000": 3627,
    "\u25810x7710c000": 3628,
    "\u25810x7710d000": 3629,
    "\u25810x7710e000": 3630,
    "\u25810x7710f000": 3631,
    "\u25810x77110000": 3632,
    "\u25810x77111000": 3633,
    "\u25810x77112000": 3634,
    "\u25810x77113000": 3635,
    "\u25810x77114000": 3636,
    "\u25810x77115000": 3637,
    "\u25810x77116000": 3638,
    "\u25810x77117000": 3639,
    "\u25810x77118000": 3640,
    "\u25810x77119000": 3641,
    "\u25810x7711a000": 3642,
    "\u25810x7711b000": 3643,
    "\u25810x7711c000": 3644,
    "\u25810x7711d000": 3645,
    "\u25810x7711e000": 3646,
    "\u25810x7711f000": 3647,
    "\u25810x77120000": 3648,
    "\u25810x77121000": 3649,
    "\u25810x77122000": 3650,
    "\u25810x77123000": 3651,
    "\u25810x77124000": 3652,
    "\u25810x77125000": 3653,
    "\u25810x77126000": 3654,
    "\u25810x77127000": 3655,
    "\u25810x77128000": 3656,
    "\u25810x77129000": 3657,
    "\u25810x7712a000": 3658,
    "\u25810x7712b000": 3659,
    "\u25810x7712c000": 3660,
    "\u25810x7712d000": 3661,
    "\u25810x7712e000": 3662,
    "\u25810x7712f000": 3663,
    "\u25810x77130000": 3664,
    "\u25810x77131000": 3665,
    "\u25810x77132000": 3666,
    "\u25810x77133000": 3667,
    "\u25810x77134000": 3668,
    "\u25810x77135000": 3669,
    "\u25810x77136000": 3670,
    "\u25810x77137000": 3671,
    "\u25810x77138000": 3672,
    "\u25810x77139000": 3673,
    "\u25810x7713a000": 3674,
    "\u25810x7713b000": 3675,
    "\u25810x7713c000": 3676,
    "\u25810x7713d000": 3677,
    "\u25810x7713e000": 3678,
    "\u25810x7713f000": 3679,
    "\u25810x77140000": 3680,
    "\u25810x77141000": 3681,
    "\u25810x77142000": 3682,
    "\u25810x77143000": 3683,
    "\u25810x77144000": 3684,
    "\u25810x77145000": 3685,
    "\u25810x77146000": 3686,
    "\u25810x77147000": 3687,
    "\u25810x77148000": 3688,
    "\u25810x77149000": 3689,
    "\u25810x7714a000": 3690,
    "\u25810x7714b000": 3691,
    "\u25810x7714c000": 3692,
    "\u25810x7714d000": 3693,
    "\u25810x7714e000": 3694,
    "\u25810x7714f000": 3695,
    "\u25810x77150000": 3696,
    "\u25810x77151000": 3697,
    "\u25810x77152000": 3698,
    "\u25810x77153000": 3699,
    "\u25810x77154000": 3700,
    "\u25810x77155000": 3701,
    "\u25810x77156000": 3702,
    "\u25810x77157000": 3703,
    "\u25810x77158000": 3704,
    "\u25810x77159000": 3705,
    "\u25810x7715a000": 3706,
    "\u25810x7715b000": 3707,
    "\u25810x7715c000": 3708,
    "\u25810x7715d000": 3709,
    "\u25810x7715e000": 3710,
    "\u25810x7715f000": 3711,
    "\u25810x77160000": 3712,
    "\u25810x77161000": 3713,
    "\u25810x77162000": 3714,
    "\u25810x77163000": 3715,
    "\u25810x77164000": 3716,
    "\u25810x77165000": 3717,
    "\u25810x77166000": 3718,
    "\u25810x77167000": 3719,
    "\u25810x77168000": 3720,
    "\u25810x77169000": 3721,
    "\u25810x7716a000": 3722,
    "\u25810x7716b000": 3723,
    "\u25810x7716c000": 3724,
    "\u25810x7716d000": 3725,
    "\u25810x7716e000": 3726,
    "\u25810x7716f000": 3727,
    "\u25810x77170000": 3728,
    "\u25810x77171000": 3729,
    "\u25810x77172000": 3730,
    "\u25810x77173000": 3731,
    "\u25810x77174000": 3732,
    "\u25810x77175000": 3733,
    "\u25810x77176000": 3734,
    "\u25810x77177000": 3735,
    "\u25810x77178000": 3736,
    "\u25810x77179000": 3737,
    "\u25810x7717a000": 3738,
    "\u25810x7717b000": 3739,
    "\u25810x7717c000": 3740,
    "\u25810x7717d000": 3741,
    "\u25810x7717e000": 3742,
    "\u25810x7717f000": 3743,
    "\u25810x77180000": 3744,
    "\u25810x77181000": 3745,
    "\u25810x77182000": 3746,
    "\u25810x77183000": 3747,
    "\u25810x77184000": 3748,
    "\u25810x77185000": 3749,
    "\u25810x77186000": 3750,
    "\u25810x77187000": 3751,
    "\u25810x77188000": 3752,
    "\u25810x77189000": 3753,
    "\u25810x7718a000": 3754,
    "\u25810x7718b000": 3755,
    "\u25810x7718c000": 3756,
    "\u25810x7718d000": 3757,
    "\u25810x7718e000": 3758,
    "\u25810x7718f000": 3759,
    "\u25810x77190000": 3760,
    "\u25810x77191000": 3761,
    "\u25810x77192000": 3762,
    "\u25810x77193000": 3763,
    "\u25810x77194000": 3764,
    "\u25810x77195000": 3765,
    "\u25810x77196000": 3766,
    "\u25810x77197000": 3767,
    "\u25810x77198000": 3768,
    "\u25810x77199000": 3769,
    "\u25810x7719a000": 3770,
    "\u25810x7719b000": 3771,
    "\u25810x7719c000": 3772,
    "\u25810x7719d000": 3773,
    "\u25810x7719e000": 3774,
    "\u25810x7719f000": 3775,
    "\u25810x771a0000": 3776,
    "\u25810x771a1000": 3777,
    "\u25810x771a2000": 3778,
    "\u25810x771a3000": 3779,
    "\u25810x771a4000": 3780,
    "\u25810x771a5000": 3781,
    "\u25810x771a6000": 3782,
    "\u25810x771a7000": 3783,
    "\u25810x771a8000": 3784,
    "\u25810x771a9000": 3785,
    "\u25810x771aa000": 3786,
    "\u25810x771ab000": 3787,
    "\u25810x771ac000": 3788,
    "\u25810x771ad000": 3789,
    "\u25810x771ae000": 3790,
    "\u25810x771af000": 3791,
    "\u25810x771b0000": 3792,
    "\u25810x771b1000": 3793,
    "\u25810x771b2000": 3794,
    "\u25810x771b3000": 3795,
    "\u25810x771b4000": 3796,
    "\u25810x771b5000": 3797,
    "\u25810x771b6000": 3798,
    "\u25810x771b7000": 3799,
    "\u25810x771b8000": 3800,
    "\u25810x771b9000": 3801,
    "\u25810x771ba000": 3802,
    "\u25810x771bb000": 3803,
    "\u25810x771bc000": 3804,
    "\u25810x771bd000": 3805,
    "\u25810x771be000": 3806,
    "\u25810x771bf000": 3807,
    "\u25810x771c0000": 3808,
    "\u25810x771c1000": 3809,
    "\u25810x771c2000": 3810,
    "\u25810x771c3000": 3811,
    "\u25810x771c4000": 3812,
    "\u2581physicalmemory": 3813,
    "ecc": 3814,
    "\u25810x1e00000": 3815,
    "\u25810x1e50000": 3816,
    "\u25810x771c5000": 3817,
    "\u25810x771c6000": 3818,
    "\u2581getthreaduilanguage": 3819,
    "slen": 3820,
    "\u2581wcslen": 3821,
    "\u2581getpe": 3822,
    "646d7": 3823,
    "ername": 3824,
    "\u2581getpeername": 3825,
    "\u25810xb0000": 3826,
    "656c7": 3827,
    "\u25810xc0": 3828,
    "\u258174726": 3829,
    "\u2581776f7": 3830,
    "26b2e68": 3831,
    "97a6e61": 3832,
    "26b2e68656c7": 3833,
    "97a6e61646d7": 3834,
    "\u25817472697a6e61646d7": 3835,
    "\u2581776f726b2e68656c7": 3836,
    "\u25817472697a6e61646d73696e6b692e6669": 3837,
    "\u2581776f726b2e68656c73696e6b692e6669": 3838,
    "\u2581wsprintfa": 3839,
    "584": 3840,
    "\u25810x42c5": 3841,
    "\u25810x2ac45": 3842,
    "\u2581createp": 3843,
    "\u25810x40287e": 3844,
    "stringa": 3845,
    "\u25810xa42a": 3846,
    "numberis": 3847,
    "\u2581shellexecutew": 3848,
    "\u25810x40935": 3849,
    "\u2581inst": 3850,
    "\u25810x169b7": 3851,
    "\u25810x1211cec": 3852,
    "\u2581sat": 3853,
    "\u25810x43540": 3854,
    "aaaa": 3855,
    "\u25810x4548": 3856,
    "\u25810x7ef0": 3857,
    "\u25810x90f0": 3858,
    "\u25810x41bcb0": 3859,
    "\u25810x41bce0": 3860,
    "\u25810x8830": 3861,
    "94c": 3862,
    "\u25810x42e8": 3863,
    "ateprocess": 3864,
    "\u25810x7230": 3865,
    "\u2581unhandledexceptionfilter": 3866,
    "\u2581new": 3867,
    "\u25810x9f": 3868,
    "\u25810x70a8": 3869,
    "\u25810x7df1": 3870,
    "gen": 3871,
    "\u25810x1211e34": 3872,
    "\u2581mar": 3873,
    "\u25810x4156": 3874,
    "\u25810x4237": 3875,
    "\u2581fe": 3876,
    "\u25810x7070": 3877,
    "\u2581getmess": 3878,
    "folder": 3879,
    "internal": 3880,
    "\u2581exception": 3881,
    "de8": 3882,
    "\u25810x406": 3883,
    "\u25810x448": 3884,
    "\u25810x8c60": 3885,
    "initialize": 3886,
    "\u25810x491": 3887,
    "errornumberis": 3888,
    "\u2581programinternal": 3889,
    "\u2581programinternalerrornumberis": 3890,
    "\u25810x419d": 3891,
    "\u25810x7cc0": 3892,
    "instruction": 3893,
    "\u25810x56b": 3894,
    "\u25810xa429c8": 3895,
    "alette": 3896,
    "\u25810x3f3060": 3897,
    "\u25810x3f3010": 3898,
    "\u2581terminateprocess": 3899,
    "\u2581sn": 3900,
    "rew": 3901,
    "ip": 3902,
    "\u25810x42e2": 3903,
    "\u25810x210": 3904,
    "\u25810x7c40": 3905,
    "firstw": 3906,
    "\u25810x12119f0": 3907,
    "504": 3908,
    "\u2581getwindows": 3909,
    "f0c": 3910,
    "\u25810x42c520": 3911,
    "\u25810x417b": 3912,
    "\u25810x438b": 3913,
    "\u25810x4238a8": 3914,
    "\u25810x4238d8": 3915,
    "\u25810x63": 3916,
    "driv": 3917,
    "echeck": 3918,
    "\u25810x71c0": 3919,
    "\u25810x8250": 3920,
    "544": 3921,
    "\u25810xaa": 3922,
    "\u25810x95": 3923,
    "\u25810x4b80": 3924,
    "\u25810x7d20": 3925,
    "e20": 3926,
    "\u25810x8420": 3927,
    "\u2581physicaldriv": 3928,
    "dff": 3929,
    "ceex": 3930,
    "f74": 3931,
    "c8c": 3932,
    "\u2581physicaldrive0": 3933,
    "ee4": 3934,
    "\u25810x416c": 3935,
    "gi": 3936,
    "558": 3937,
    "\u2581lstrcpynw": 3938,
    "tra": 3939,
    "\u25810x1211f74": 3940,
    "360": 3941,
    "\u25810x1211e44": 3942,
    "\u25810xaf": 3943,
    "forma": 3944,
    "\u2581outof": 3945,
    "ctl32": 3946,
    "d1ff": 3947,
    "\u2581comctl32": 3948,
    "\u25810x416a17": 3949,
    "\u25810x416a18": 3950,
    "ecall": 3951,
    "\u2581releasesrwlockexclusive": 3952,
    "a84": 3953,
    "\u25810x1210f8": 3954,
    "\u2581fmode": 3955,
    "\u25810x7460": 3956,
    "\u25810x1210e8": 3957,
    "failed": 3958,
    "found": 3959,
    "640": 3960,
    "\u25810xffe1": 3961,
    "\u25810x1212000": 3962,
    "\u2581process32firstw": 3963,
    "\u25810xe00": 3964,
    "\u2581wcscpy": 3965,
    "\u2581getwindow": 3966,
    "\u25810x4393f8": 3967,
    "de4": 3968,
    "\u25810x74d0": 3969,
    "\u25810xa42": 3970,
    "\u25810x1009": 3971,
    "\u25810x42da": 3972,
    "\u25810xffe0": 3973,
    "\u25810x419f": 3974,
    "\u25810xffe4": 3975,
    "\u2581feb": 3976,
    "gument": 3977,
    "ec4": 3978,
    "\u25810x70e0": 3979,
    "\u25810xfffe": 3980,
    "2acb2": 3981,
    "\u2581b2acb2": 3982,
    "inst": 3983,
    "\u25810x5e": 3984,
    "\u25810x7038": 3985,
    "\u25810x71f8": 3986,
    "argument": 3987,
    "onversion": 3988,
    "\u25810x7cb0": 3989,
    "\u2581snap": 3990,
    "\u25810x72d8": 3991,
    "ccess": 3992,
    "une": 3993,
    "32cs": 3994,
    "\u2581th32cs": 3995,
    "ied": 3996,
    "varian": 3997,
    "\u25810x1005": 3998,
    "\u25810x43b880": 3999,
    "\u25810x41a5": 4000,
    "\u25810x65": 4001,
    "\u25810x7620": 4002,
    "\u2581septem": 4003,
    "\u2581sta": 4004,
    "ise": 4005,
    "\u25810x7498": 4006,
    "e2b": 4007,
    "sser": 4008,
    "creating": 4009,
    "\u25810x4ec0": 4010,
    "ged": 4011,
    "\u25810x7310": 4012,
    "\u25810x7b60": 4013,
    "operation": 4014,
    "\u2581febr": 4015,
    "\u25810x7380": 4016,
    "\u25810xffba": 4017,
    "\u25810xffb7": 4018,
    "\u25810xffbb": 4019,
    "\u2581oct": 4020,
    "\u25810x7118": 4021,
    "\u25810xffb8": 4022,
    "tober": 4023,
    "\u2581april": 4024,
    "\u2581august": 4025,
    "\u2581november": 4026,
    "\u2581september": 4027,
    "\u2581div": 4028,
    "\u25810xffbe": 4029,
    "\u25810xffbd": 4030,
    "\u25810xffb9": 4031,
    "\u25810xffbc": 4032,
    "\u25810x7188": 4033,
    "\u25810x75b0": 4034,
    "\u25810xfffd": 4035,
    "ffd1ff": 4036,
    "\u25810x4615": 4037,
    "\u25810x7770": 4038,
    "\u25810xfffc": 4039,
    "\u2581comm": 4040,
    "\u25810xffbf": 4041,
    "\u2581createsemaphorew": 4042,
    "bound": 4043,
    "\u25810x1211c80": 4044,
    "\u25810x7428": 4045,
    "\u25810x75e8": 4046,
    "d88": 4047,
    "\u25810x42e2f0": 4048,
    "\u2581outofmemory": 4049,
    "\u25810x7268": 4050,
    "\u25810x7a48": 4051,
    "\u2581form": 4052,
    "\u25810x7348": 4053,
    "\u25810x8b50": 4054,
    "00e": 4055,
    "\u25810x1210900": 4056,
    "\u25810x73b8": 4057,
    "\u25810x7b98": 4058,
    "\u25810x140": 4059,
    "\u25810x79d8": 4060,
    "\u25810x7508": 4061,
    "\u25810xffa0": 4062,
    "exception": 4063,
    "anuary": 4064,
    "\u2581march": 4065,
    "\u25810xffb6": 4066,
    "\u2581february": 4067,
    "uly": 4068,
    "\u25810x7578": 4069,
    "\u25810xffa2": 4070,
    "\u2581december": 4071,
    "\u25810x4ee0": 4072,
    "\u2581october": 4073,
    "\u2581thu": 4074,
    "nesday": 4075,
    "\u2581monday": 4076,
    "\u2581sunday": 4077,
    "\u2581tuesday": 4078,
    "\u2581wednesday": 4079,
    "ursday": 4080,
    "\u25810x7658": 4081,
    "\u25810xffa1": 4082,
    "\u25810x435088": 4083,
    "\u2581thursday": 4084,
    "index": 4085,
    "\u25810x7888": 4086,
    "\u25810xffa3": 4087,
    "\u2581fri": 4088,
    "\u25810x76c8": 4089,
    "atur": 4090,
    "iday": 4091,
    "\u2581satur": 4092,
    "\u2581friday": 4093,
    "\u2581saturday": 4094,
    "eextra": 4095,
    "\u25810x7818": 4096,
    "\u25810x78f8": 4097,
    "ins": 4098,
    "\u25810x7738": 4099,
    "\u25810xffa4": 4100,
    "\u25810x77a8": 4101,
    "\u2581interfac": 4102,
    "afecall": 4103,
    "\u25810x7ce8": 4104,
    "the": 4105,
    "\u2581chi": 4106,
    "adwork": 4107,
    "\u25810x7e0": 4108,
    "\u25810x7968": 4109,
    "\u25810x7ab8": 4110,
    "\u25810x7c08": 4111,
    "\u25810xffa7": 4112,
    "\u25810x46b4": 4113,
    "\u25810x7b28": 4114,
    "3c8": 4115,
    "6e8": 4116,
    "a41": 4117,
    "\u25810x164": 4118,
    "\u25810x7d58": 4119,
    "\u25810xffa6": 4120,
    "edex": 4121,
    "\u25810xffa5": 4122,
    "den": 4123,
    "\u25810x7c78": 4124,
    "edexchange": 4125,
    "\u25810x5265c3c": 4126,
    "\u2581interfacen": 4127,
    "\u2581interlockedexchange": 4128,
    "\u25810xfffb": 4129,
    "\u2581initon": 4130,
    "\u25810x120fa": 4131,
    "ceexecute": 4132,
    "ceexecuteonce": 4133,
    "\u2581initonceexecuteonce": 4134,
    "mit": 4135,
    "\u2581asser": 4136,
    "\u2581createpalette": 4137,
    "\u2581inte": 4138,
    "\u25810xffb5": 4139,
    "\u25810xffa8": 4140,
    "prec": 4141,
    "\u2581stack": 4142,
    "\u2581external": 4143,
    "\u25810xffa9": 4144,
    "\u2581privile": 4145,
    "\u2581assertion": 4146,
    "\u25810xffcd": 4147,
    "mod": 4148,
    "sub": 4149,
    "insafecall": 4150,
    "\u2581exceptioninsafecall": 4151,
    "changet": 4152,
    "\u2581variantchanget": 4153,
    "calls": 4154,
    "\u25810xffaa": 4155,
    "\u2581disk": 4156,
    "\u25810xffe6": 4157,
    "\u25810x1211ef8": 4158,
    "denied": 4159,
    "\u25810x58c01c": 4160,
    "\u2581assertionfailed": 4161,
    "bounds": 4162,
    "precise": 4163,
    "preciseasfiletime": 4164,
    "\u2581getsystemtimepreciseasfiletime": 4165,
    "\u2581privileged": 4166,
    "\u2581chit": 4167,
    "indexo": 4168,
    "otsuped": 4169,
    "notsuped": 4170,
    "typecast": 4171,
    "classtypecast": 4172,
    "\u2581externalexception": 4173,
    "\u2581interfacenotsuped": 4174,
    "\u2581rang": 4175,
    "tunder": 4176,
    "\u25810xffb4": 4177,
    "overflow": 4178,
    "indexoutof": 4179,
    "tunderflow": 4180,
    "\u2581rangecheck": 4181,
    "callsnotsuped": 4182,
    "\u2581errorcreating": 4183,
    "\u2581floatingpoint": 4184,
    "indexoutofbounds": 4185,
    "\u2581errorcreatingvariant": 4186,
    "\u2581invalidclasstypecast": 4187,
    "\u2581variantcallsnotsuped": 4188,
    "\u2581floatingpointunderflow": 4189,
    "\u2581getfileinformationbyhandleex": 4190,
    "varianttypec": 4191,
    "\u2581invalidvarian": 4192,
    "\u2581stackoverflow": 4193,
    "pointeroperation": 4194,
    "\u2581invalidvarianttypec": 4195,
    "\u2581privilegedinstruction": 4196,
    "\u2581invalidvariantoperation": 4197,
    "\u2581invalidvarianttypeconversion": 4198,
    "bool": 4199,
    "\u2581integ": 4200,
    "leaccess": 4201,
    "toverflow": 4202,
    "\u25810x1211f6c": 4203,
    "divisionbyzero": 4204,
    "\u2581floatingpointoverflow": 4205,
    "\u2581floatingpointdivisionbyzero": 4206,
    "3f0": 4207,
    "floating": 4208,
    "\u2581integero": 4209,
    "floatingpoin": 4210,
    "\u2581divisionbyzero": 4211,
    "\u2581integeroverflow": 4212,
    "\u2581rangecheckerror": 4213,
    "\u2581invalidfloatingpoin": 4214,
    "\u2581invalidpointeroperation": 4215,
    "\u2581invalidfloatingpointoperation": 4216,
    "bey": 4217,
    "omany": 4218,
    "beyond": 4219,
    "numeric": 4220,
    "\u2581toomany": 4221,
    "openfiles": 4222,
    "\u2581diskfull": 4223,
    "\u2581readbeyond": 4224,
    "numericinput": 4225,
    "\u2581invalidfilename": 4226,
    "\u2581toomanyopenfiles": 4227,
    "\u2581invalidnumericinput": 4228,
    "\u2581readbeyondendoffile": 4229,
    "\u25810x6b9c08": 4230,
    "\u2581fileaccess": 4231,
    "\u2581varbstrfrombool": 4232,
    "\u2581fileaccessdenied": 4233,
    "\u25810xfffa": 4234,
    "\u25810xcf0000": 4235,
    "\u25810x4090": 4236,
    "c88": 4237,
    "\u25810x8820": 4238,
    "\u25810xffce": 4239,
    "\u25810x51af": 4240,
    "ernet": 4241,
    "ypeex": 4242,
    "\u2581variantchangetypeex": 4243,
    "\u25810x1211f78": 4244,
    "neg": 4245,
    "\u25810x41e": 4246,
    "ageextra": 4247,
    "ageextrainfo": 4248,
    "\u2581getmessageextrainfo": 4249,
    "srw": 4250,
    "\u25810xffe5": 4251,
    "conditionvariablesrw": 4252,
    "\u2581sleepconditionvariablesrw": 4253,
    "\u25810xffcf": 4254,
    "\u2581varadd": 4255,
    "\u2581varneg": 4256,
    "\u2581varnot": 4257,
    "\u2581varsub": 4258,
    "mul": 4259,
    "xor": 4260,
    "9e00": 4261,
    "idiv": 4262,
    "\u2581varcy": 4263,
    "\u2581varor": 4264,
    "\u2581varr8": 4265,
    "\u2581varand": 4266,
    "\u2581varcmp": 4267,
    "\u2581vardiv": 4268,
    "\u2581varmod": 4269,
    "\u2581varmul": 4270,
    "\u2581varxor": 4271,
    "\u2581varbool": 4272,
    "\u2581vardate": 4273,
    "\u2581varidiv": 4274,
    "\u2581varcyfromstr": 4275,
    "\u2581vari4fromstr": 4276,
    "\u2581varr4fromstr": 4277,
    "\u2581varr8fromstr": 4278,
    "\u2581varbstrfromcy": 4279,
    "\u2581varboolfromstr": 4280,
    "\u2581vardatefromstr": 4281,
    "\u2581varbstrfromdate": 4282,
    "windowexw": 4283,
    "\u2581createwindowexw": 4284,
    "\u25810x1211ed4": 4285,
    "eexa": 4286,
    "wind": 4287,
    "b44": 4288,
    "cadwork": 4289,
    "ms": 4290,
    "\u25810x100300": 4291,
    "006": 4292,
    "\u25810x42d520": 4293,
    "\u25810x4317e0": 4294,
    "\u2581snapprocess": 4295,
    "\u25810x4c4178": 4296,
    "\u2581rtlun": 4297,
    "\u2581rtlunwind": 4298,
    "accel": 4299,
    "\u25819": 4300,
    "\u25810x169bc": 4301,
    "\u25810xffb0": 4302,
    "\u25810xfff9": 4303,
    "\u25810x41a0": 4304,
    "\u25810x40a5a0": 4305,
    "a5c": 4306,
    "fff0": 4307,
    "\u25810x8d20": 4308,
    "\u25810xffb3": 4309,
    "\u25810x1211e1c": 4310,
    "ffcb": 4311,
    "\u25810xffb2": 4312,
    "\u25810x169be04": 4313,
    "\u2581wak": 4314,
    "\u25810x566": 4315,
    "\u25810x8c30": 4316,
    "\u2581wakeconditionvariable": 4317,
    "\u2581sub": 4318,
    "\u25810xffb1": 4319,
    "\u25810x71a0": 4320,
    "\u25810x8bd0": 4321,
    "\u2581invalidargument": 4322,
    "\u2581variantorsafearray": 4323,
    "\u2581errorcreatingvariantorsafearray": 4324,
    "\u2581variantorsafearrayindexoutofbounds": 4325,
    "\u2581submit": 4326,
    "\u2581setfileinformationbyhandle": 4327,
    "aac": 4328,
    "\u25810x4390": 4329,
    "threadpoolwork": 4330,
    "\u2581closethreadpoolwork": 4331,
    "\u2581createthreadpoolwork": 4332,
    "\u2581submitthreadpoolwork": 4333,
    "d3c": 4334,
    "7d8": 4335,
    "ash": 4336,
    "\u25810x7ec4": 4337,
    "\u25810x496760": 4338,
    "318": 4339,
    "\u25810x7ed0": 4340,
    "\u25810x3e8": 4341,
    "\u25810x7ec5": 4342,
    "destroy": 4343,
    "\u25810x8001": 4344,
    "\u25810x13fff0": 4345,
    "\u25810x1211690": 4346,
    "\u2581messageboxa": 4347,
    "\u25810x8c10": 4348,
    "\u25810x40c": 4349,
    "\u2581output": 4350,
    "\u25810x52666": 4351,
    "\u25810x4284": 4352,
    "\u25810x46b5": 4353,
    "\u2581outputdebug": 4354,
    "\u25810x100000": 4355,
    "\u25810x40a59e": 4356,
    "\u25810x40a5a2": 4357,
    "\u25810x40a5a4": 4358,
    "\u25810x40a5a6": 4359,
    "\u25810x40a5a8": 4360,
    "\u25810x40a5aa": 4361,
    "\u25810x85d0": 4362,
    "\u25810x40933c": 4363,
    "\u25810x4390c8": 4364,
    "\u25810x4400": 4365,
    "ssp": 4366,
    "\u25810x8be0": 4367,
    "\u25810xfff8": 4368,
    "\u25810x8f50": 4369,
    "\u2581setthreadpreferreduilanguages": 4370,
    "\u25810x4f5": 4371,
    "\u2581vc": 4372,
    "\u25810x40a3": 4373,
    "\u25810x8c40": 4374,
    "\u25810x12110d8": 4375,
    "b190": 4376,
    "344": 4377,
    "\u25810x1211338": 4378,
    "\u25810x4418": 4379,
    "\u2581move": 4380,
    "\u25810x118": 4381,
    "\u25810x409344": 4382,
    "f88": 4383,
    "\u25810x8c70": 4384,
    "3e8": 4385,
    "\u25810x419d50": 4386,
    "\u25810x4237d8": 4387,
    "\u25810x8c00": 4388,
    "\u25810x42b020": 4389,
    "\u25810x3f34e0": 4390,
    "\u25810x409020": 4391,
    "\u25810x419e00": 4392,
    "bas": 4393,
    "\u25810x419f40": 4394,
    "\u25810x42a070": 4395,
    "\u25810x42b024": 4396,
    "\u25810x42b028": 4397,
    "ervice": 4398,
    "\u25810x7e88": 4399,
    "\u25810x4c3": 4400,
    "\u25810x508": 4401,
    "runtime": 4402,
    "\u25810x7ec8": 4403,
    "\u25810x7e89": 4404,
    "\u25810x1211f24": 4405,
    "abd": 4406,
    "\u25810x4305f8": 4407,
    "\u25810x7ec9": 4408,
    "\u25810x40e": 4409,
    "56f": 4410,
    "cef": 4411,
    "\u25810x43d3": 4412,
    "\u25810x4528": 4413,
    "\u25810xfff7": 4414,
    "\u2581int": 4415,
    "\u25810x423d18": 4416,
    "\u25810x1211c50": 4417,
    "\u2581kk": 4418,
    "\u2581em": 4419,
    "204": 4420,
    "special": 4421,
    "\u2581shgetspecial": 4422,
    "904": 4423,
    "202": 4424,
    "\u25810x8aa0": 4425,
    "\u2581openprocess": 4426,
    "608": 4427,
    "\u25810x20a": 4428,
    "\u25810x7f02": 4429,
    "ac8": 4430,
    "\u25810x7edc": 4431,
    "\u25810x7ecc": 4432,
    "\u25810x8d60": 4433,
    "\u25810x7ecd": 4434,
    "afcdff": 4435,
    "afcdffceff": 4436,
    "\u2581b2acb2afcdffceff": 4437,
    "runtime140": 4438,
    "\u2581vcruntime140": 4439,
    "7e0": 4440,
    "\u25810x43b6": 4441,
    "\u2581getclass": 4442,
    "\u25810x42b190": 4443,
    "\u25810x42eace": 4444,
    "\u25810x8c90": 4445,
    "\u25810x41568c": 4446,
    "\u25810xfff6": 4447,
    "\u25810x7ed1": 4448,
    "74c": 4449,
    "\u25810x41e1": 4450,
    "\u25810x202": 4451,
    "\u25810x8ab0": 4452,
    "irector": 4453,
    "b7b": 4454,
    "infoa": 4455,
    "\u25810x14000": 4456,
    "5c8": 4457,
    "\u25810x8d90": 4458,
    "358": 4459,
    "lication": 4460,
    "c7ffd1ff": 4461,
    "c7ffd1ffca": 4462,
    "\u25810x7ed4": 4463,
    "ffcbff": 4464,
    "c7ffd1ffcaffcbff": 4465,
    "\u2581b2acb2afcdffceffc7ffd1ffcaffcbff": 4466,
    "207": 4467,
    "\u25810x7ed5": 4468,
    "\u25810x7ed8": 4469,
    "sk": 4470,
    "\u25810x420f": 4471,
    "\u25810x7ed9": 4472,
    "\u25810x4ad4": 4473,
    "\u25810x4363d8": 4474,
    "324": 4475,
    "740": 4476,
    "\u25810x7edd": 4477,
    "\u25810x56bb00": 4478,
    "\u25810x1211d14": 4479,
    "accelerator": 4480,
    "\u258111": 4481,
    "\u2581sysinfo": 4482,
    "\u25810x423da8": 4483,
    "\u25810x423dd8": 4484,
    "\u25810x8d50": 4485,
    "\u25810x11000": 4486,
    "\u25810x52664": 4487,
    "\u25810x169b958": 4488,
    "\u2581setfileinformationbyhandlew": 4489,
    "228": 4490,
    "\u2581getfileinformationbyhandleexw": 4491,
    "\u2581string": 4492,
    "\u25810x8ba0": 4493,
    "\u25810x7ee4": 4494,
    "msg": 4495,
    "with": 4496,
    "\u25810x7ee5": 4497,
    "\u25810x8d30": 4498,
    "\u25810x423df8": 4499,
    "barcad": 4500,
    "barcadero": 4501,
    "\u2581embarcadero": 4502,
    "oem": 4503,
    "\u25810xffab": 4504,
    "\u25810x8fc0": 4505,
    "\u2581lstrcmpa": 4506,
    "\u25810x4228": 4507,
    "\u25810x169b780": 4508,
    "access": 4509,
    "a80": 4510,
    "ctrl": 4511,
    "\u25810x5638": 4512,
    "\u25810x7ee1": 4513,
    "\u25810x419": 4514,
    "\u25810x1211a00": 4515,
    "001": 4516,
    "\u25810x1211c08": 4517,
    "\u25810x51a": 4518,
    "\u25810xffac": 4519,
    "\u25810x8cd0": 4520,
    "\u25810x8ca0": 4521,
    "\u25810x53000000": 4522,
    "\u25810x4299": 4523,
    "b84": 4524,
    "listmsg": 4525,
    "\u2581commctrl": 4526,
    "\u2581draglistmsg": 4527,
    "\u25810x8bb0": 4528,
    "\u25810x80c410": 4529,
    "eec": 4530,
    "a90000": 4531,
    "\u25810x1211a14": 4532,
    "\u25810xfeee010": 4533,
    "\u2581hd": 4534,
    "\u2581coinitialize": 4535,
    "\u2581cd": 4536,
    "\u25814d5": 4537,
    "684": 4538,
    "cc4": 4539,
    "\u2581lstrcpyna": 4540,
    "184": 4541,
    "\u25810x714": 4542,
    "\u25810x43640": 4543,
    "unction": 4544,
    "f84": 4545,
    "\u25810x2012": 4546,
    "\u25810x3f24": 4547,
    "\u25810xffc5": 4548,
    "384": 4549,
    "d44": 4550,
    "oemcp": 4551,
    "\u2581getoemcp": 4552,
    "\u25810x8ce0": 4553,
    "\u25810x3410c60": 4554,
    "d1c": 4555,
    "ffff0000": 4556,
    "bcf": 4557,
    "\u25810xffd3": 4558,
    "\u25810x42e0f0": 4559,
    "\u25810x82c0": 4560,
    "484": 4561,
    "b40": 4562,
    "\u25810x1211fb8": 4563,
    "f62": 4564,
    "\u2581getdiskfreespaceexw": 4565,
    "dregen": 4566,
    "\u2581hddregen": 4567,
    "\u2581hddregenerator": 4568,
    "\u25810xffc6": 4569,
    "search": 4570,
    "pri": 4571,
    "000000ffff0000": 4572,
    "searchmode": 4573,
    "\u2581setsearchmode": 4574,
    "\u25810xfff5": 4575,
    "\u25810x4318": 4576,
    "\u25810x40b8": 4577,
    "\u25810x416b50": 4578,
    "\u25810xb5": 4579,
    "\u25810x678208": 4580,
    "\u25810x3f20": 4581,
    "\u25810x4a20": 4582,
    "240": 4583,
    "\u25810x41cb": 4584,
    "4000000ffff0000": 4585,
    "e10": 4586,
    "\u25810x418970": 4587,
    "\u25810x4338": 4588,
    "licen": 4589,
    "sspace": 4590,
    "\u2581isspace": 4591,
    "\u25810x42b40": 4592,
    "\u25810x4398": 4593,
    "\u25810x30000": 4594,
    "\u25810x58de20": 4595,
    "\u2581getwindowsdirectorya": 4596,
    "\u25810x1211f40": 4597,
    "\u2581run": 4598,
    "\u25810x343b": 4599,
    "\u25810x4394": 4600,
    "\u25810x4245": 4601,
    "\u25810x431d": 4602,
    "\u25810x7e90": 4603,
    "500000": 4604,
    "a900003": 4605,
    "\u25814d5a900003": 4606,
    "\u25814d5a9000030000000": 4607,
    "\u25814d5a90000300000004000000ffff0000": 4608,
    "\u2581memset": 4609,
    "ad8": 4610,
    "\u25810xb000": 4611,
    "\u2581rand": 4612,
    "\u25810x7340": 4613,
    "\u2581setprocess": 4614,
    "\u25810x437808": 4615,
    "\u2581comparestringw": 4616,
    "\u25810xfeed": 4617,
    "\u25810xffcc": 4618,
    "36c": 4619,
    "\u25810x41c": 4620,
    "\u25810xfc": 4621,
    "\u25810x42af": 4622,
    "a70": 4623,
    "\u25810xffad": 4624,
    "tec": 4625,
    "\u25810x1210f4": 4626,
    "dep": 4627,
    "\u25810x52665": 4628,
    "afdi": 4629,
    "\u2581wsafdi": 4630,
    "\u25810x40a3d": 4631,
    "\u2581wsafdisset": 4632,
    "bc0": 4633,
    "\u25810x4295": 4634,
    "\u25810x4c3308": 4635,
    "\u25810x7d40": 4636,
    "\u2581flushfile": 4637,
    "\u2581flushfilebuffers": 4638,
    "528": 4639,
    "\u25810x88e0": 4640,
    "327": 4641,
    "\u25810x417c": 4642,
    "\u25810x120e6d8": 4643,
    "lipboardforma": 4644,
    "\u2581registerclipboardforma": 4645,
    "\u25810x4224": 4646,
    "\u25810x42fb": 4647,
    "\u25810x9e": 4648,
    "\u25810xa9b0": 4649,
    "b5c": 4650,
    "\u2581localfree": 4651,
    "yarg1": 4652,
    "\u25810x4353d8": 4653,
    "ae3": 4654,
    "\u25810x40ee": 4655,
    "xit": 4656,
    "744": 4657,
    "90c": 4658,
    "aa4": 4659,
    "ned": 4660,
    "b20": 4661,
    "\u25810x8818": 4662,
    "\u25810x46b5d4": 4663,
    "\u25810xffd0": 4664,
    "a28": 4665,
    "c44": 4666,
    "\u25810x7df4": 4667,
    "\u25810x8819": 4668,
    "\u25810x181c": 4669,
    "98c": 4670,
    "\u25810x95d0": 4671,
    "56c": 4672,
    "\u25810x881c": 4673,
    "\u25810x7df5": 4674,
    "licy": 4675,
    "gine": 4676,
    "\u25810x4196": 4677,
    "validate": 4678,
    "\u25810x1211e30": 4679,
    "\u2581heapvalidate": 4680,
    "b60": 4681,
    "policy": 4682,
    "threads": 4683,
    "\u25810x881d": 4684,
    "\u25810x8821": 4685,
    "\u25810x41c4": 4686,
    "984": 4687,
    "\u25810xffc4": 4688,
    "\u2581ob": 4689,
    "\u2581are": 4690,
    "bb8": 4691,
    "\u25810x42d408": 4692,
    "\u25810x1211f70": 4693,
    "\u2581processthreads": 4694,
    "\u25810x4df0": 4695,
    "\u25810xa39": 4696,
    "\u25810x1211f5c": 4697,
    "\u25810x431e": 4698,
    "\u25810x1b2": 4699,
    "deppolicy": 4700,
    "\u25810x100b": 4701,
    "\u25810x41a": 4702,
    "\u25810xffae": 4703,
    "ffc": 4704,
    "\u25810x110": 4705,
    "\u25810x4fec20": 4706,
    "124": 4707,
    "704": 4708,
    "\u25810x42ae": 4709,
    "\u25810x51c": 4710,
    "\u25810xffaf": 4711,
    "\u25810x120fd": 4712,
    "\u25810x42f": 4713,
    "\u25810x41678c": 4714,
    "\u25810x41678d": 4715,
    "301": 4716,
    "b63": 4717,
    "\u25810x3f5000": 4718,
    "\u25810x426": 4719,
    "\u25810x8430": 4720,
    "\u25810x8650": 4721,
    "ff4": 4722,
    "\u25810x1211e00": 4723,
    "\u2581setprocessdeppolicy": 4724,
    "902": 4725,
    "302": 4726,
    "\u2581outputdebugstringa": 4727,
    "\u25810xffc2": 4728,
    "\u25810xff90": 4729,
    "\u25810x1210e0": 4730,
    "304": 4731,
    "\u2581programinternalerrornumberis6": 4732,
    "profile": 4733,
    "\u2581864000": 4734,
    "\u25810x3f3080": 4735,
    "b0c8": 4736,
    "\u25810x420e": 4737,
    "\u25810x7c10": 4738,
    "\u2581getkeyboardtype": 4739,
    "\u25810x9cc0": 4740,
    "acceleratorsw": 4741,
    "\u2581loadacceleratorsw": 4742,
    "vis": 4743,
    "bc4": 4744,
    "\u25810x3f3040": 4745,
    "\u258186400040": 4746,
    "\u25810x48f894": 4747,
    "\u25810xa42a10": 4748,
    "\u25810x12117f4": 4749,
    "c4c": 4750,
    "f20": 4751,
    "\u258103": 4752,
    "\u25810x1211f30h": 4753,
    "\u25810x107598": 4754,
    "\u25810x40f9": 4755,
    "\u25810x8660": 4756,
    "348": 4757,
    "a4c": 4758,
    "888": 4759,
    "\u25810x524": 4760,
    "768": 4761,
    "\u2581setst": 4762,
    "\u25810x4225": 4763,
    "\u25810x103": 4764,
    "\u25810x42e6": 4765,
    "\u25810x1211f84": 4766,
    "\u2581corexit": 4767,
    "\u25810x107658": 4768,
    "\u2581corexitprocess": 4769,
    "362": 4770,
    "\u25810x429570": 4771,
    "\u2581setstdhandle": 4772,
    "\u25810x42956f": 4773,
    "ols": 4774,
    "\u25810xffd2": 4775,
    "\u25810x500": 4776,
    "d4c": 4777,
    "\u25810x109": 4778,
    "\u25810xffe3": 4779,
    "\u2581loadlibraryexa": 4780,
    "784": 4781,
    "550": 4782,
    "\u25810x20009": 4783,
    "144": 4784,
    "olfp": 4785,
    "\u2581controlfp": 4786,
    "fied": 4787,
    "a0f": 4788,
    "\u25810x488": 4789,
    "\u2581shellexecutea": 4790,
    "\u25810x107538": 4791,
    "\u25810x1211f80": 4792,
    "3d0": 4793,
    "apis": 4794,
    "dc0": 4795,
    "\u25810xffec": 4796,
    "\u2581commode": 4797,
    "\u25810x1211df4": 4798,
    "\u25810xffef": 4799,
    "\u25810x41d114": 4800,
    "\u25810x563868": 4801,
    "\u25810x120f8c2": 4802,
    "b30": 4803,
    "\u25810x190": 4804,
    "\u2581memcpy": 4805,
    "\u25810x1211dd0": 4806,
    "26c": 4807,
    "\u2581heapdestroy": 4808,
    "ansi": 4809,
    "itor": 4810,
    "326": 4811,
    "a6c": 4812,
    "\u25810x40f937": 4813,
    "b24": 4814,
    "12c": 4815,
    "\u25810xffc3": 4816,
    "\u2581wri": 4817,
    "\u25810x437806": 4818,
    "\u25810x43780a": 4819,
    "\u25810x43780c": 4820,
    "\u25810x43780e": 4821,
    "\u25810x437810": 4822,
    "\u25810x437812": 4823,
    "\u25810x437814": 4824,
    "\u25810x437816": 4825,
    "\u25810x437818": 4826,
    "\u25810x43781a": 4827,
    "\u25810x43781c": 4828,
    "\u25810x43781e": 4829,
    "361": 4830,
    "apisansi": 4831,
    "\u2581arefile": 4832,
    "\u2581arefileapisansi": 4833,
    "\u25810x413": 4834,
    "\u25810x59c1": 4835,
    "\u2581writec": 4836,
    "win": 4837,
    "\u25810x59bf": 4838,
    "drl6660drl6660drl6660drl6660drl6660drl6660drl6660drl6660": 4839,
    "ae8": 4840,
    "cid": 4841,
    "\u25810x4f62": 4842,
    "ou": 4843,
    "\u25810x27dc": 4844,
    "\u25810x1210e6": 4845,
    "\u2581regquery": 4846,
    "ved": 4847,
    "\u25810x42eb": 4848,
    "contr": 4849,
    "b8c": 4850,
    "hash": 4851,
    "\u25810x416ed1": 4852,
    "\u25810x416ed2": 4853,
    "\u25810x107688": 4854,
    "\u25810x52667": 4855,
    "\u25810x598": 4856,
    "\u25810x120e694": 4857,
    "\u25810x120e69c": 4858,
    "\u2581msc": 4859,
    "160": 4860,
    "\u25810x7ee00": 4861,
    "\u25810x1210c": 4862,
    "\u25810x454840": 4863,
    "\u2581shgetspecialfolderw": 4864,
    "meto": 4865,
    "imeto": 4866,
    "yarg2": 4867,
    "260": 4868,
    "\u25810x1210e4": 4869,
    "\u25810x1210ec": 4870,
    "edi": 4871,
    "\u25810x99d0": 4872,
    "e2e": 4873,
    "556": 4874,
    "ialog": 4875,
    "\u25810xfeee0108": 4876,
    "\u25810x4300": 4877,
    "\u25810x1210f0": 4878,
    "\u25810x97b0": 4879,
    "d98": 4880,
    "\u25810x4332": 4881,
    "\u258117": 4882,
    "afile": 4883,
    "\u25810x437390": 4884,
    "\u25810x120fb48": 4885,
    "644": 4886,
    "928": 4887,
    "\u25810x4378c8": 4888,
    "\u25810xffe7": 4889,
    "f8c": 4890,
    "\u2581sq": 4891,
    "100": 4892,
    "\u25810x4010": 4893,
    "want": 4894,
    "\u25810x6e": 4895,
    "\u25810x44280": 4896,
    "\u25810xff91": 4897,
    "6d7": 4898,
    "\u25810xae": 4899,
    "\u25810x4c51": 4900,
    "310": 4901,
    "\u2581setc": 4902,
    "ons": 4903,
    "\u25810x42be": 4904,
    "\u25810x40b": 4905,
    "\u25810x169b5": 4906,
    "function": 4907,
    "40c": 4908,
    "licence": 4909,
    "\u25810x8a41": 4910,
    "d84": 4911,
    "\u2581y": 4912,
    "\u2581coun": 4913,
    "36f": 4914,
    "tac": 4915,
    "\u25810x43b0c8": 4916,
    "\u25810x44d4": 4917,
    "bits": 4918,
    "\u25810x7ee9": 4919,
    "eengine": 4920,
    "\u2581getcursor": 4921,
    "initializeengine": 4922,
    "\u2581failedtoinitializeengine": 4923,
    "\u25810x3f6000": 4924,
    "delet": 4925,
    "\u2581findfirstfilea": 4926,
    "\u25810xffe2": 4927,
    "\u25810x429e": 4928,
    "\u25810x509": 4929,
    "speci": 4930,
    "00210": 4931,
    "\u25810x56b8": 4932,
    "\u25810x12118f8": 4933,
    "39c": 4934,
    "3d1": 4935,
    "7f0": 4936,
    "1e8": 4937,
    "918": 4938,
    "leasec": 4939,
    "\u25810x7ee8": 4940,
    "218": 4941,
    "\u2581movefilea": 4942,
    "\u25810xbc": 4943,
    "\u25810x51c4": 4944,
    "718": 4945,
    "\u25810x431d00": 4946,
    "asnot": 4947,
    "\u25810x422e": 4948,
    "316": 4949,
    "\u25810x41688": 4950,
    "\u25810x3f7000": 4951,
    "\u25810x407": 4952,
    "f70": 4953,
    "\u25810xa41e": 4954,
    "ld": 4955,
    "569": 4956,
    "\u25810x4187": 4957,
    "91c": 4958,
    "c0c": 4959,
    "\u25810x4140": 4960,
    "b4c": 4961,
    "\u2581as": 4962,
    "\u25810x3fb000": 4963,
    "284": 4964,
    "controls": 4965,
    "\u25810x3f8000": 4966,
    "700": 4967,
    "f48": 4968,
    "\u25810x539": 4969,
    "\u2581internet": 4970,
    "\u25810x1211d08": 4971,
    "f4c": 4972,
    "\u25810x438be8": 4973,
    "\u25810x438c18": 4974,
    "\u25810x120f9": 4975,
    "\u25810x423d38": 4976,
    "\u25810x4c4230": 4977,
    "\u25810x4c4260": 4978,
    "\u25810x4c42a8": 4979,
    "\u25810x42a730": 4980,
    "\u25810x42a731": 4981,
    "\u25810x4c4248": 4982,
    "\u25810x4c4278": 4983,
    "\u25810x4c4290": 4984,
    "\u25810x4c4320": 4985,
    "\u25810x4c4338": 4986,
    "\u25810x4c4350": 4987,
    "\u25810x4c4368": 4988,
    "120": 4989,
    "\u25810x8824": 4990,
    "\u25810x1075c8": 4991,
    "9f8": 4992,
    "\u25810x130": 4993,
    "2c8": 4994,
    "32c": 4995,
    "\u25810x4155": 4996,
    "\u25810x3f9000": 4997,
    "\u25810x3fa000": 4998,
    "fa8": 4999,
    "\u25810x442": 5000,
    "\u2581cs": 5001,
    "409": 5002,
    "\u25810x8828": 5003,
    "\u25810x8825": 5004,
    "\u25810x120f7": 5005,
    "\u25810x40a584": 5006,
    "\u25810x77b000": 5007,
    "\u25810x40a582": 5008,
    "\u25810x40a586": 5009,
    "\u25810x40a588": 5010,
    "\u25810x40a58a": 5011,
    "\u25810x40f": 5012,
    "\u25810x3f25": 5013,
    "\u2581install": 5014,
    "\u25810x40a580": 5015,
    "\u25810x429a81": 5016,
    "\u25810x43ff": 5017,
    "66c": 5018,
    "\u25810x40a57e": 5019,
    "3e0": 5020,
    "758": 5021,
    "\u25810x41624": 5022,
    "owned": 5023,
    "\u25810x4614": 5024,
    "\u25810x1075f8": 5025,
    "\u25810x107628": 5026,
    "oree": 5027,
    "ream": 5028,
    "\u2581mscoree": 5029,
    "\u25810x188e00": 5030,
    "\u25810x437ae4": 5031,
    "\u25810x437207": 5032,
    "\u25810x437208": 5033,
    "\u25810x437ad2": 5034,
    "\u25810x437ad3": 5035,
    "\u25810x437ae3": 5036,
    "\u25810x437b63": 5037,
    "\u25810x437b64": 5038,
    "\u25810x437b7b": 5039,
    "\u25810x437b7c": 5040,
    "\u25810x437bbd": 5041,
    "\u25810x437bbe": 5042,
    "\u25810x437bce": 5043,
    "\u25810x437bcf": 5044,
    "\u25810x437c42": 5045,
    "\u25810x437c43": 5046,
    "53f": 5047,
    "\u25810x1210e5": 5048,
    "404": 5049,
    "\u25810x41c0": 5050,
    "\u2581monitor": 5051,
    "\u25810x4c5158": 5052,
    "\u25810x429e2b": 5053,
    "\u25810x429e2c": 5054,
    "\u25810x434d1c": 5055,
    "\u25810x43b7a9": 5056,
    "\u25810x43b7aa": 5057,
    "\u25810x43b7b8": 5058,
    "\u25810x422ebe": 5059,
    "\u25810x43b7b3": 5060,
    "\u25810x43b7b4": 5061,
    "\u25810x43b7ba": 5062,
    "\u25810x43b7c4": 5063,
    "\u25810x882c": 5064,
    "80c": 5065,
    "\u25810x1210ed": 5066,
    "\u2581couninitialize": 5067,
    "\u25810x1210f5": 5068,
    "\u25810x433618": 5069,
    "\u25810x8829": 5070,
    "bf0": 5071,
    "econ": 5072,
    "\u2581service": 5073,
    "metafile": 5074,
    "\u25810x1210f9": 5075,
    "f1b": 5076,
    "\u25810x882d": 5077,
    "\u25810x8834": 5078,
    "\u25810x7e3000": 5079,
    "fc8": 5080,
    "\u25810x8831": 5081,
    "\u25810x3f75f60": 5082,
    "f21": 5083,
    "ly": 5084,
    "you": 5085,
    "notin": 5086,
    "\u25810x8835": 5087,
    "\u25810x7e4000": 5088,
    "\u25810x181": 5089,
    "\u25810x48400": 5090,
    "\u25810x42ce10": 5091,
    "\u25810x4315b0": 5092,
    "itialized": 5093,
    "notinitialized": 5094,
    "9c2": 5095,
    "\u25810xfff4": 5096,
    "11c": 5097,
    "798": 5098,
    "\u25810xc4": 5099,
    "ectlock": 5100,
    "notowned": 5101,
    "supfunction": 5102,
    "ectlocknotowned": 5103,
    "\u2581monitorsupfunction": 5104,
    "\u2581monitorsupfunctionnotinitialized": 5105,
    "\u25810x4967a8": 5106,
    "e84": 5107,
    "b18": 5108,
    "d68": 5109,
    "370": 5110,
    "\u25810x1211968": 5111,
    "\u25810x42fc38": 5112,
    "\u25810x46c0": 5113,
    "specified": 5114,
    "asnotfound": 5115,
    "\u2581thespecified": 5116,
    "filewasnotfound": 5117,
    "\u2581thespecifiedfilewasnotfound": 5118,
    "\u25810x401": 5119,
    "application": 5120,
    "svc": 5121,
    "\u2581tlsfree": 5122,
    "inity": 5123,
    "\u25810x4470": 5124,
    "\u25810x4554": 5125,
    "\u2581localrealloc": 5126,
    "aa5": 5127,
    "vate": 5128,
    "\u25810xfeee00f4": 5129,
    "541": 5130,
    "f40": 5131,
    "a09": 5132,
    "affinity": 5133,
    "affinitymask": 5134,
    "\u25810x1211e24": 5135,
    "\u25810x1211f90": 5136,
    "item": 5137,
    "54c": 5138,
    "\u25810x3f21": 5139,
    "\u25810x188d3c": 5140,
    "\u25810x423b20": 5141,
    "\u25810x431": 5142,
    "\u2581lstrcpya": 5143,
    "\u25810x423b1f": 5144,
    "\u25810x3f75f30": 5145,
    "\u2581registerclipboardformata": 5146,
    "\u25810x235": 5147,
    "\u25810x42fbf0": 5148,
    "\u25810x10e9": 5149,
    "\u25810x44f910": 5150,
    "ownload": 5151,
    "\u25810xffc1": 5152,
    "myarg2": 5153,
    "\u25810x412f": 5154,
    "\u25810xffdd": 5155,
    "\u25810x4306": 5156,
    "f44": 5157,
    "\u25810x41d1": 5158,
    "\u25810x423868": 5159,
    "\u25810x423898": 5160,
    "\u25810x430880": 5161,
    "ass": 5162,
    "\u25810x419c20": 5163,
    "580": 5164,
    "\u25810x40a5ac": 5165,
    "\u25810x62": 5166,
    "\u25810x41bd": 5167,
    "yarg1myarg2": 5168,
    "\u25810x8900": 5169,
    "34c": 5170,
    "\u25810x120f": 5171,
    "\u25810x4e30": 5172,
    "bad8": 5173,
    "\u25810x4700": 5174,
    "555": 5175,
    "\u2581lcmapstringa": 5176,
    "onsolew": 5177,
    "\u25810x1211e18": 5178,
    "1d0": 5179,
    "\u25810x4de": 5180,
    "382": 5181,
    "db0": 5182,
    "bcc": 5183,
    "\u2581getprocessaffinitymask": 5184,
    "\u2581removed": 5185,
    "\u25810x1211f44": 5186,
    "\u25810x7e5000": 5187,
    "\u25810x7eab": 5188,
    "\u25810x169b7a4": 5189,
    "textw": 5190,
    "340": 5191,
    "\u25810x4290": 5192,
    "278": 5193,
    "\u25810x4df": 5194,
    "a54": 5195,
    "\u25810x169b57c": 5196,
    "\u25810x4254": 5197,
    "\u2581sa": 5198,
    "\u25810x169b94c": 5199,
    "d0c": 5200,
    "\u25810x343b570": 5201,
    "\u2581removedirector": 5202,
    "38c": 5203,
    "e28": 5204,
    "\u25810x486d": 5205,
    "a8a8": 5206,
    "2b0": 5207,
    "\u25810x4febd8": 5208,
    "\u25810x47e0": 5209,
    "a48": 5210,
    "acc": 5211,
    "stream": 5212,
    "\u25810x43f0": 5213,
    "\u25810x41c856": 5214,
    "\u25810x41c857": 5215,
    "264": 5216,
    "\u25810x4244": 5217,
    "fb0": 5218,
    "d40": 5219,
    "\u25810x437820": 5220,
    "b14": 5221,
    "f30": 5222,
    "\u25810x7bc": 5223,
    "\u25810x42d3c0": 5224,
    "\u25810x1210ee": 5225,
    "\u25810x1211f1c": 5226,
    "\u25810x4130": 5227,
    "b78": 5228,
    "\u25810x431f38": 5229,
    "\u25810x2100210": 5230,
    "\u2581cq": 5231,
    "\u25810x58000": 5232,
    "3c4": 5233,
    "\u2581getstringtypea": 5234,
    "\u25810x428a": 5235,
    "\u2581noaccess": 5236,
    "\u25810x188e24": 5237,
    "d18": 5238,
    "\u2581format": 5239,
    "os": 5240,
    "init": 5241,
    "\u25810x42c1": 5242,
    "d00": 5243,
    "\u25810x401000": 5244,
    "3b0": 5245,
    "\u2581164634": 5246,
    "\u2581asw": 5247,
    "b10": 5248,
    "\u25810x4084": 5249,
    "\u25810x4289": 5250,
    "\u25810x4fe2": 5251,
    "\u25810x12106": 5252,
    "fec": 5253,
    "990": 5254,
    "\u25810x431ef0": 5255,
    "b90": 5256,
    "f28": 5257,
    "\u25810x8930": 5258,
    "d8c": 5259,
    "\u25810x99a0": 5260,
    "bd0": 5261,
    "\u25810x5004": 5262,
    "6d7363": 5263,
    "\u25810xe06d7363": 5264,
    "a45": 5265,
    "\u25810x1211d00": 5266,
    "210": 5267,
    "look": 5268,
    "\u25810x10e9bc": 5269,
    "\u25810xa429f8": 5270,
    "678": 5271,
    "\u2581outlook": 5272,
    "\u25810x405": 5273,
    "fd0": 5274,
    "\u25810xbd": 5275,
    "ontext": 5276,
    "onfi": 5277,
    "c84": 5278,
    "f68": 5279,
    "b008": 5280,
    "defaultu": 5281,
    "defaultuilanguage": 5282,
    "\u25810x42b3": 5283,
    "vironmentstringsa": 5284,
    "\u25810x1210e2": 5285,
    "\u25810x4fe6e8": 5286,
    "\u2581setenvironment": 5287,
    "metafilebits": 5288,
    "par": 5289,
    "\u25810x40ab": 5290,
    "944": 5291,
    "\u25810x421d": 5292,
    "18c": 5293,
    "\u2581164630": 5294,
    "\u25810x423dc8": 5295,
    "\u2581setendoffile": 5296,
    "\u25810x41681a": 5297,
    "\u25810x1211de4": 5298,
    "\u25810x3f26": 5299,
    "\u25810x41681b": 5300,
    "\u25810x1211ad0": 5301,
    "\u25810x88b0": 5302,
    "tp": 5303,
    "\u25810x42bf": 5304,
    "\u2581remove": 5305,
    "3b8": 5306,
    "\u2581findnextfilea": 5307,
    "116": 5308,
    "b68": 5309,
    "\u25810x8ec0": 5310,
    "\u25810x120e68c": 5311,
    "aa0": 5312,
    "\u25810x45f1": 5313,
    "\u25810x4efd": 5314,
    "\u2581getmenu": 5315,
    "\u25810x1211808": 5316,
    "quir": 5317,
    "tacquir": 5318,
    "tacquirecon": 5319,
    "\u2581cryptacquirecon": 5320,
    "\u25810x87": 5321,
    "\u25810x41a6": 5322,
    "2dc": 5323,
    "ff0": 5324,
    "884": 5325,
    "oyou": 5326,
    "\u25810x56bad8": 5327,
    "60c": 5328,
    "\u2581lstrca": 5329,
    "948": 5330,
    "5ec": 5331,
    "\u25810x41af": 5332,
    "\u2581cadwork": 5333,
    "lcid": 5334,
    "e8c": 5335,
    "core": 5336,
    "794": 5337,
    "red": 5338,
    "\u25810x4cb0": 5339,
    "tokeninformation": 5340,
    "604": 5341,
    "4005": 5342,
    "50c": 5343,
    "f18": 5344,
    "\u25810x484": 5345,
    "\u25810x42e5c8": 5346,
    "\u25810x42e5e0": 5347,
    "70c": 5348,
    "\u25810x40b3de": 5349,
    "\u25810x46b3d0": 5350,
    "\u25810x7bc00000": 5351,
    "\u2581gdip": 5352,
    "\u25810x418a00": 5353,
    "\u25810x418a30": 5354,
    "ph": 5355,
    "\u25810x5398": 5356,
    "\u2581gettokeninformation": 5357,
    "wantto": 5358,
    "720": 5359,
    "d28": 5360,
    "\u25810x49c8": 5361,
    "a38": 5362,
    "\u25810x1211e20": 5363,
    "\u25810x4395c8": 5364,
    "private": 5365,
    "\u25810x53b640": 5366,
    "\u25810x53b7d8": 5367,
    "\u25810x53ba10": 5368,
    "d50": 5369,
    "f46": 5370,
    "5c0": 5371,
    "\u2581setdll": 5372,
    "\u25810x42e598": 5373,
    "b0c": 5374,
    "7a8": 5375,
    "\u2581getcursorpos": 5376,
    "\u25810xa3a8": 5377,
    "comm": 5378,
    "privateprofile": 5379,
    "b50": 5380,
    "fe0": 5381,
    "\u25810x1253f": 5382,
    "\u25810x4aa0": 5383,
    "\u25810x7d51": 5384,
    "9c0": 5385,
    "\u25810x6a": 5386,
    "738": 5387,
    "958": 5388,
    "reate": 5389,
    "\u25810x42daa2": 5390,
    "\u25810x42daab": 5391,
    "\u25810x42dab4": 5392,
    "\u25810x42dabd": 5393,
    "f1e": 5394,
    "3a4": 5395,
    "ority": 5396,
    "\u25810x1253f1c": 5397,
    "olec": 5398,
    "onsolec": 5399,
    "\u25810x3f27": 5400,
    "dd4": 5401,
    "\u25810x9a90": 5402,
    "fd8": 5403,
    "298": 5404,
    "\u25810x5219": 5405,
    "\u25810x42bd38": 5406,
    "f16": 5407,
    "716": 5408,
    "69c": 5409,
    "\u25810x5658": 5410,
    "strings": 5411,
    "\u25810x40b3dd": 5412,
    "winmetafilebits": 5413,
    "\u25810x43b3d8": 5414,
    "\u25810x3f23": 5415,
    "aad": 5416,
    "b70": 5417,
    "\u2581getenvironmentstrings": 5418,
    "\u25810x42b36f": 5419,
    "\u25810x42b370": 5420,
    "d30": 5421,
    "f00": 5422,
    "468": 5423,
    "\u25810x3f2": 5424,
    "\u25810x4307e0": 5425,
    "ba8": 5426,
    "f17": 5427,
    "\u2581setcurrent": 5428,
    "bd4": 5429,
    "\u25810xffc7": 5430,
    "248": 5431,
    "381": 5432,
    "290": 5433,
    "\u25810x47f0": 5434,
    "dc1": 5435,
    "\u2581164636": 5436,
    "\u25810x644": 5437,
    "\u25810x4d50": 5438,
    "\u25810x1211ef4": 5439,
    "\u25810x419a": 5440,
    "\u2581version": 5441,
    "3b5": 5442,
    "\u25810x4096": 5443,
    "reque": 5444,
    "\u25810x60c6": 5445,
    "base": 5446,
    "\u25810x97c0": 5447,
    "300b": 5448,
    "fed": 5449,
    "\u25810x9210": 5450,
    "\u25810x44d4b8": 5451,
    "download": 5452,
    "\u25810x4ec": 5453,
    "2e2": 5454,
    "\u25810x45f2": 5455,
    "\u2581lstrcmpw": 5456,
    "\u2581getwinmetafilebits": 5457,
    "\u25810xc8": 5458,
    "\u25810x408c8": 5459,
    "fc4": 5460,
    "\u25810x1211d2c": 5461,
    "\u25810x413f": 5462,
    "b28": 5463,
    "\u25810x1074": 5464,
    "pi": 5465,
    "a00": 5466,
    "\u25810x41cc": 5467,
    "\u25810x9810": 5468,
    "\u25810x2825": 5469,
    "f58": 5470,
    "\u25810x4088": 5471,
    "\u25810x415": 5472,
    "190": 5473,
    "edit": 5474,
    "\u2581pro": 5475,
    "\u25810x4cf": 5476,
    "\u25810x41a8a8": 5477,
    "\u25810x41bc98": 5478,
    "\u25810x41bcc8": 5479,
    "\u25810x4a7": 5480,
    "stringw": 5481,
    "1cc": 5482,
    "inter": 5483,
    "\u25810x42f3": 5484,
    "\u25810x82f0": 5485,
    "\u2581services": 5486,
    "aaaaaaaa": 5487,
    "\u2581qt": 5488,
    "\u2581sm": 5489,
    "600": 5490,
    "\u25810x53e4": 5491,
    "a0e": 5492,
    "ae0": 5493,
    "onfig": 5494,
    "\u25810x54000": 5495,
    "\u25810x12119d0": 5496,
    "\u25810x12115bc": 5497,
    "306": 5498,
    "f1a": 5499,
    "\u25810x8ef0": 5500,
    "\u25810x12115d0": 5501,
    "5e8": 5502,
    "\u25810x42aa58": 5503,
    "\u2581dragob": 5504,
    "\u25810x1211f97": 5505,
    "\u25810x79b0": 5506,
    "\u2581dw": 5507,
    "\u2581download": 5508,
    "prop": 5509,
    "fromstream": 5510,
    "\u25810x50850": 5511,
    "\u2581setdlldirectoryw": 5512,
    "\u25810x40a59c": 5513,
    "\u2581164638": 5514,
    "\u2581shfolder": 5515,
    "\u25810x40d8": 5516,
    "b58": 5517,
    "f78": 5518,
    "\u2581setfilepointerex": 5519,
    "\u25810x120faa8": 5520,
    "\u25810x42b8": 5521,
    "\u25810xffde": 5522,
    "created": 5523,
    "\u25810x45f4": 5524,
    "a69": 5525,
    "\u25810x408478": 5526,
    "out": 5527,
    "\u2581log": 5528,
    "\u25810x4179": 5529,
    "hook": 5530,
    "\u25810xa16": 5531,
    "\u258124": 5532,
    "\u25810x41f7": 5533,
    "\u25810x7e00": 5534,
    "\u25810x88f0": 5535,
    "\u25810x120e690": 5536,
    "\u25810x120e698": 5537,
    "\u2581164632": 5538,
    "\u25810x437804": 5539,
    "\u25810x417b50": 5540,
    "\u25810x42c4f0": 5541,
    "\u2581202203040": 5542,
    "3a0": 5543,
    "\u2581wts": 5544,
    "quired": 5545,
    "\u25810x4dd": 5546,
    "\u25810x4a40": 5547,
    "\u2581fil": 5548,
    "\u25810x422798": 5549,
    "\u25810x423890": 5550,
    "\u25810x4238c0": 5551,
    "a9c": 5552,
    "f51": 5553,
    "\u25810x160": 5554,
    "\u25810x1211900": 5555,
    "\u25810x42ae20": 5556,
    "545": 5557,
    "\u2581removedirectorya": 5558,
    "\u25810x4a80": 5559,
    "200": 5560,
    "9d8": 5561,
    "\u25810x4310": 5562,
    "\u25810x566a40": 5563,
    "e48": 5564,
    "\u25810x439880": 5565,
    "\u25810x1211ecc": 5566,
    "dcc": 5567,
    "315": 5568,
    "\u25810x1211ee8": 5569,
    "ef0": 5570,
    "\u2581getsystemtimes": 5571,
    "\u25810x7ff": 5572,
    "af4": 5573,
    "ession": 5574,
    "\u25810x8ed0": 5575,
    "\u25810x41c044": 5576,
    "\u25810x169bf64": 5577,
    "\u2581oleload": 5578,
    "\u2581oleloadfromstream": 5579,
    "321": 5580,
    "logon": 5581,
    "\u25810xa42980": 5582,
    "101": 5583,
    "978": 5584,
    "2a0": 5585,
    "\u25810x5c000": 5586,
    "\u25810x3200a": 5587,
    "31c": 5588,
    "\u25810x4990": 5589,
    "2c5": 5590,
    "reen": 5591,
    "14c": 5592,
    "d6c": 5593,
    "\u2581dat": 5594,
    "694": 5595,
    "param": 5596,
    "\u25810x1211f54": 5597,
    "\u25810x120e6cc": 5598,
    "\u25810x4280": 5599,
    "e58": 5600,
    "\u25810x42f318": 5601,
    "560": 5602,
    "fc0": 5603,
    "\u25810x3b7": 5604,
    "\u25810x9630": 5605,
    "71c": 5606,
    "\u2581writeconsolew": 5607,
    "\u25810x181b70": 5608,
    "\u2581getclassinfoa": 5609,
    "\u2581setthreadlocale": 5610,
    "6d8": 5611,
    "9e0": 5612,
    "atal": 5613,
    "lower": 5614,
    "\u25810x438bd0": 5615,
    "\u25810x6781c0": 5616,
    "\u25810x6781f0": 5617,
    "onexit": 5618,
    "\u25810x422c": 5619,
    "\u25810x4614d0": 5620,
    "e80": 5621,
    "\u25810x1400": 5622,
    "\u25810x4828": 5623,
    "\u25810x4912": 5624,
    "a98": 5625,
    "\u2581filet": 5626,
    "\u25810x80be": 5627,
    "\u25810x56b868": 5628,
    "\u2581filetimeto": 5629,
    "compar": 5630,
    "\u2581getconsolemode": 5631,
    "\u258112": 5632,
    "compareex": 5633,
    "compareexchange": 5634,
    "\u2581interlockedcompareexchange": 5635,
    "\u2581formal": 5636,
    "\u25810x41300b": 5637,
    "\u2581oleinitialize": 5638,
    "3d4": 5639,
    "960": 5640,
    "d5c": 5641,
    "\u258128": 5642,
    "\u25810xe8": 5643,
    "\u2581regedit": 5644,
    "\u25810x423e08": 5645,
    "f60": 5646,
    "\u25812022": 5647,
    "\u25810x412e": 5648,
    "\u25810xa42a40": 5649,
    "\u25810x1210e78": 5650,
    "\u25810x1210e7c": 5651,
    "ba0": 5652,
    "dl": 5653,
    "\u25810xcb000": 5654,
    "\u25810x8190": 5655,
    "\u25810x1211db8": 5656,
    "3da": 5657,
    "\u25810x420a0f": 5658,
    "\u25810x420a10": 5659,
    "\u25810x433660": 5660,
    "565": 5661,
    "a50": 5662,
    "\u25810x416be0": 5663,
    "334": 5664,
    "\u25810xf8": 5665,
    "\u25810x416c10": 5666,
    "\u25810x169bf74": 5667,
    "985": 5668,
    "938": 5669,
    "\u2581pleas": 5670,
    "3bc": 5671,
    "ntsvc": 5672,
    "\u25810x4f60": 5673,
    "ah": 5674,
    "\u2581tw": 5675,
    "\u25810x2002": 5676,
    "\u25810x41b0": 5677,
    "64c": 5678,
    "\u2581lsass": 5679,
    "\u25810x45fe": 5680,
    "\u25810x425590": 5681,
    "\u25810xfeee011": 5682,
    "f50": 5683,
    "amet": 5684,
    "78c": 5685,
    "\u25810x45f6": 5686,
    "379": 5687,
    "\u25810x490": 5688,
    "bb4": 5689,
    "\u2581msvcr90": 5690,
    "rss": 5691,
    "\u2581smss": 5692,
    "\u2581csrss": 5693,
    "\u2581wininit": 5694,
    "\u2581winlogon": 5695,
    "\u2581getuserdefaultlcid": 5696,
    "7e7": 5697,
    "\u2581getcurrentdirectorya": 5698,
    "a8c": 5699,
    "\u25810x4160": 5700,
    "\u2581getdiskfreespaceexa": 5701,
    "748": 5702,
    "\u25810x45f5": 5703,
    "\u2581strcmp": 5704,
    "750": 5705,
    "erv": 5706,
    "\u25810x45f8": 5707,
    "\u2581openprocesstoken": 5708,
    "d60": 5709,
    "\u25810x169bc5c": 5710,
    "\u2581systemprocess": 5711,
    "\u25810x45f3": 5712,
    "\u25810x45f7": 5713,
    "\u25810x45fa": 5714,
    "\u25810x4c24": 5715,
    "ef8": 5716,
    "10428": 5717,
    "\u25810xffcb": 5718,
    "\u25810x1211e54": 5719,
    "\u2581getconsolec": 5720,
    "130": 5721,
    "1e4": 5722,
    "\u25810x80c": 5723,
    "\u25810x5000": 5724,
    "a99": 5725,
    "b80": 5726,
    "lsid": 5727,
    "1c0": 5728,
    "af0": 5729,
    "\u2581required": 5730,
    "\u25810xc94": 5731,
    "\u2581tw10428": 5732,
    "d20": 5733,
    "d70": 5734,
    "\u25810x45f9": 5735,
    "\u2581getconsolecp": 5736,
    "\u25810x42a6": 5737,
    "\u258126": 5738,
    "e50": 5739,
    "\u25810x8f70": 5740,
    "install": 5741,
    "\u25810x40ac": 5742,
    "heme": 5743,
    "\u2581uxt": 5744,
    "\u25810x4200": 5745,
    "releasec": 5746,
    "\u2581uxtheme": 5747,
    "releasecontext": 5748,
    "af8": 5749,
    "558f": 5750,
    "728": 5751,
    "b98": 5752,
    "6e0": 5753,
    "\u25810x427f": 5754,
    "\u25810x42d4f0": 5755,
    "3f7": 5756,
    "\u25810x42c5d0": 5757,
    "\u25810x63000000": 5758,
    "a20": 5759,
    "\u25810x42558f": 5760,
    "\u2581yo": 5761,
    "\u2581cryptreleasecontext": 5762,
    "\u25810x150": 5763,
    "\u25810x5617": 5764,
    "\u25810x1860": 5765,
    "\u25810x45fd": 5766,
    "\u2581findresourcea": 5767,
    "1b8": 5768,
    "\u25810x4fc": 5769,
    "244": 5770,
    "\u25810xdd": 5771,
    "\u25810x4601": 5772,
    "\u25810x208": 5773,
    "\u25810x9af0": 5774,
    "505": 5775,
    "fad": 5776,
    "\u25810x44000": 5777,
    "\u25810x71000000": 5778,
    "\u25810x9d10": 5779,
    "\u25810x44180": 5780,
    "158": 5781,
    "\u25810x45ff": 5782,
    "33a": 5783,
    "\u25810xa4a0": 5784,
    "\u25810x42be20": 5785,
    "mb": 5786,
    "317": 5787,
    "70e": 5788,
    "valueexa": 5789,
    "\u25810x42efe8": 5790,
    "\u25810x4c42d0": 5791,
    "\u2581e000": 5792,
    "\u25810x4c4468": 5793,
    "\u25810x4c46a0": 5794,
    "80004005": 5795,
    "\u2581error0x80004005": 5796,
    "\u25810x46b": 5797,
    "fdd": 5798,
    "\u25810x4134": 5799,
    "354": 5800,
    "bd8": 5801,
    "\u25810x40e7": 5802,
    "a90": 5803,
    "env": 5804,
    "\u25810x2439f74": 5805,
    "\u2581doyou": 5806,
    "su": 5807,
    "647": 5808,
    "d38": 5809,
    "\u25810xfff3": 5810,
    "\u25810xa3a768": 5811,
    "198": 5812,
    "\u25810x4940": 5813,
    "\u25810xfff2": 5814,
    "48c": 5815,
    "9f0": 5816,
    "\u25810x8de0": 5817,
    "715": 5818,
    "\u25810x4efd98": 5819,
    "\u25810x402": 5820,
    "\u2581clsid": 5821,
    "\u25810x9ad0": 5822,
    "345": 5823,
    "delete": 5824,
    "3ac": 5825,
    "690": 5826,
    "\u25810x8f40": 5827,
    "\u25810x9a70": 5828,
    "\u25810x440": 5829,
    "seek": 5830,
    "\u25810x40a0": 5831,
    "\u25810x41ab": 5832,
    "bf8": 5833,
    "d48": 5834,
    "\u2581con": 5835,
    "\u25810x42d8a2": 5836,
    "\u25810x42d8ab": 5837,
    "\u25810x42d8b4": 5838,
    "\u25810x42d8bd": 5839,
    "df8": 5840,
    "eto": 5841,
    "f90": 5842,
    "\u25810x22e": 5843,
    "\u25810x4184": 5844,
    "\u25810x42ba58": 5845,
    "\u25810xfeee012": 5846,
    "\u2581pi": 5847,
    "\u25810x3f2210": 5848,
    "\u2581defwindowprocw": 5849,
    "\u25810x4126": 5850,
    "374": 5851,
    "pool": 5852,
    "\u25810x9c30": 5853,
    "\u2581clsidfrom": 5854,
    "\u25810xa3a7b0": 5855,
    "\u2581exp": 5856,
    "\u25810x51b": 5857,
    "\u25810x40b4": 5858,
    "605": 5859,
    "a7c": 5860,
    "\u25810x521": 5861,
    "\u25810x9640": 5862,
    "regis": 5863,
    "\u25810x4232": 5864,
    "\u25810x1211c00": 5865,
    "\u2581nto": 5866,
    "\u2581profile": 5867,
    "730": 5868,
    "a64": 5869,
    "910": 5870,
    "974": 5871,
    "994": 5872,
    "\u25810x11db": 5873,
    "\u25810x120fb30": 5874,
    "\u25810x500000": 5875,
    "2020202020202020": 5876,
    "\u2581filen": 5877,
    "printer": 5878,
    "a0c": 5879,
    "e0c": 5880,
    "lag": 5881,
    "\u2581mso": 5882,
    "sktop": 5883,
    "ce1": 5884,
    "\u25810x4240": 5885,
    "ded": 5886,
    "fb8": 5887,
    "dc8": 5888,
    "\u25810x68000": 5889,
    "\u25810xd8": 5890,
    "\u25810xa210": 5891,
    "710": 5892,
    "common": 5893,
    "this": 5894,
    "ontrol": 5895,
    "270": 5896,
    "3e4": 5897,
    "7c8": 5898,
    "a86": 5899,
    "d10": 5900,
    "ters": 5901,
    "\u25810x4650": 5902,
    "\u25810x46b400": 5903,
    "950": 5904,
    "\u25810x70000": 5905,
    "3a5": 5906,
    "778": 5907,
    "bfc": 5908,
    "\u258118": 5909,
    "\u2581164635": 5910,
    "3378": 5911,
    "\u25810x43a4": 5912,
    "\u25810x80c458": 5913,
    "d2c": 5914,
    "\u2581initcommon": 5915,
    "\u2581initcommoncontrols": 5916,
    "a78": 5917,
    "fa4": 5918,
    "\u25810x4199": 5919,
    "1b4": 5920,
    "fd4": 5921,
    "\u25810x9850": 5922,
    "\u25810x42759f": 5923,
    "\u25810x4275a0": 5924,
    "9c24": 5925,
    "inet": 5926,
    "\u25810x3020": 5927,
    "\u25810x169bf94": 5928,
    "adc": 5929,
    "d7c": 5930,
    "\u25810x423d90": 5931,
    "\u25810x423dc0": 5932,
    "396": 5933,
    "update": 5934,
    "emyarg1myarg2": 5935,
    "\u2581exemyarg1myarg2": 5936,
    "c01": 5937,
    "\u2581qt5": 5938,
    "\u25810x50e10": 5939,
    "ab9": 5940,
    "otfound": 5941,
    "\u25810x5218": 5942,
    "538": 5943,
    "dc9": 5944,
    "e4f": 5945,
    "ocreate": 5946,
    "\u25810x9730": 5947,
    "\u25810x42bdc8": 5948,
    "\u25810x42bdf8": 5949,
    "\u25810x4305c8": 5950,
    "\u25810x4305e0": 5951,
    "7e8": 5952,
    "\u25810x60c690": 5953,
    "\u2581filenotfound": 5954,
    "\u258114": 5955,
    "\u25810x431828": 5956,
    "148": 5957,
    "3f2": 5958,
    "aae": 5959,
    "\u25810xbe": 5960,
    "325": 5961,
    "\u25810x41ebf": 5962,
    "35c": 5963,
    "\u25810x4030": 5964,
    "\u25810x9c80": 5965,
    "20c": 5966,
    "\u2581wininet": 5967,
    "\u25810x1211d30": 5968,
    "506": 5969,
    "bec": 5970,
    "\u2581freeenvironmentstringsa": 5971,
    "7d0": 5972,
    "\u25810x464": 5973,
    "9c6": 5974,
    "ncy": 5975,
    "\u25810x411555": 5976,
    "\u25810x411556": 5977,
    "\u25810x1211f50": 5978,
    "\u25810x42b964": 5979,
    "314": 5980,
    "749": 5981,
    "\u2581sc": 5982,
    "\u25810x42ebc0": 5983,
    "1a4": 5984,
    "\u25810x430598": 5985,
    "\u2581getuserdefaultuilanguage": 5986,
    "requency": 5987,
    "3b6": 5988,
    "\u25810xffd4": 5989,
    "\u25810x433860": 5990,
    "366": 5991,
    "7978": 5992,
    "\u2581security": 5993,
    "\u25810x4233": 5994,
    "\u25810x120fe": 5995,
    "7a0": 5996,
    "\u25810x534": 5997,
    "\u25810x4c97": 5998,
    "\u25810x99c0": 5999,
    "cefrequency": 6000,
    "\u2581getvolumeinformationa": 6001,
    "\u2581queryperformancefrequency": 6002,
    "311": 6003,
    "\u25810x4177": 6004,
    "only": 6005,
    "\u2581ps": 6006,
    "\u25810x435000": 6007,
    "ig": 6008,
    "lpapi": 6009,
    "37c": 6010,
    "a02": 6011,
    "a87": 6012,
    "mapi": 6013,
    "9c8": 6014,
    "d90": 6015,
    "\u2581dl": 6016,
    "150": 6017,
    "toc": 6018,
    "2c4": 6019,
    "\u25810x1808": 6020,
    "\u25810x423326": 6021,
    "\u25810x423327": 6022,
    "\u25810x1211ce0": 6023,
    "\u25810x9600": 6024,
    "397": 6025,
    "f7c": 6026,
    "\u25810x427": 6027,
    "d24": 6028,
    "\u25810x5f6": 6029,
    "bc5": 6030,
    "netw": 6031,
    "3d6": 6032,
    "aa8": 6033,
    "d78": 6034,
    "\u25810x42990": 6035,
    "chr": 6036,
    "ible": 6037,
    "\u25810x468": 6038,
    "9c5": 6039,
    "\u2581qt5core": 6040,
    "\u2581202203031": 6041,
    "e00": 6042,
    "\u25810x4139": 6043,
    "f98": 6044,
    "eb8": 6045,
    "\u25810xffd1": 6046,
    "346": 6047,
    "\u2581xh": 6048,
    "ctype": 6049,
    "9b4": 6050,
    "294": 6051,
    "\u25810xffc8": 6052,
    "\u2581dialog": 6053,
    "\u2581dwmapi": 6054,
    "\u25810xb3": 6055,
    "312": 6056,
    "33c": 6057,
    "71f": 6058,
    "7b8": 6059,
    "\u2581cryptbase": 6060,
    "\u25810x409c": 6061,
    "network": 6062,
    "\u25810x4606": 6063,
    "pre": 6064,
    "\u25810x454": 6065,
    "\u25810x434280": 6066,
    "\u25810x4363c0": 6067,
    "acd": 6068,
    "lorer": 6069,
    "\u25810x433378": 6070,
    "\u25810x434268": 6071,
    "\u25810x1211b74": 6072,
    "rom": 6073,
    "\u25810x423baf": 6074,
    "\u25810x423bb0": 6075,
    "\u2581ma": 6076,
    "\u25810x40b7": 6077,
    "\u25810xa6b0": 6078,
    "\u25810x41cbd0": 6079,
    "ils": 6080,
    "\u25810x40d": 6081,
    "566": 6082,
    "2c6": 6083,
    "305": 6084,
    "\u25810x4127": 6085,
    "9bc": 6086,
    "\u2581iph": 6087,
    "\u2581iphlpapi": 6088,
    "a24": 6089,
    "\u25810x42b6": 6090,
    "351": 6091,
    "a65": 6092,
    "\u2581userenv": 6093,
    "rn": 6094,
    "bff": 6095,
    "\u2581getmodulehandl": 6096,
    "\u25810x4316": 6097,
    "641": 6098,
    "\u2581stor": 6099,
    "\u2581storage": 6100,
    "\u25810x4079": 6101,
    "\u25810x4cf0": 6102,
    "\u2581connector": 6103,
    "\u25810xf000": 6104,
    "\u25810x599": 6105,
    "\u25810x616": 6106,
    "\u2581psapi": 6107,
    "\u25810x423de0": 6108,
    "db8": 6109,
    "\u25810xff86": 6110,
    "\u25810x41a044": 6111,
    "\u2581regqueryvalueexw": 6112,
    "rnl": 6113,
    "star": 6114,
    "\u25810x1211b50": 6115,
    "f1d": 6116,
    "\u25810x4feaac": 6117,
    "f38": 6118,
    "a68": 6119,
    "ab5": 6120,
    "edia": 6121,
    "extex": 6122,
    "atalog": 6123,
    "534": 6124,
    "\u25810x560": 6125,
    "skrnl": 6126,
    "\u2581ntoskrnl": 6127,
    "2f5": 6128,
    "dd6": 6129,
    "\u2581qae": 6130,
    "\u25810xfeee014": 6131,
    "\u25810x4364": 6132,
    "romedia": 6133,
    "\u25810x40a3e": 6134,
    "\u25810x4d7978": 6135,
    "392": 6136,
    "\u25810xa260": 6137,
    "50000": 6138,
    "\u2581getprivateprofile": 6139,
    "\u25810x4093e8": 6140,
    "lien": 6141,
    "\u25810x9a60": 6142,
    "\u25810x1211b54": 6143,
    "dbe": 6144,
    "\u25810x4093e5": 6145,
    "\u25810x4093e6": 6146,
    "\u25810x4093e7": 6147,
    "375": 6148,
    "bb0": 6149,
    "\u25810x40000": 6150,
    "7b0": 6151,
    "ioc": 6152,
    "\u25810x8490": 6153,
    "ed1": 6154,
    "\u2581tow": 6155,
    "\u25810x41e1d8": 6156,
    "\u25810x4ddb24": 6157,
    "\u25810x940000": 6158,
    "1740": 6159,
    "\u25810x500410": 6160,
    "eta": 6161,
    "lay": 6162,
    "\u2581lp": 6163,
    "texit": 6164,
    "\u2581atexit": 6165,
    "internet": 6166,
    "\u25810x422470": 6167,
    "\u25812d": 6168,
    "will": 6169,
    "\u2581reset": 6170,
    "\u25810xb2": 6171,
    "\u25810xff69": 6172,
    "a32": 6173,
    "\u25810x4076": 6174,
    "a60": 6175,
    "a74": 6176,
    "\u25810x41b8": 6177,
    "\u25810x56bb": 6178,
    "\u2581getmodulehandleexw": 6179,
    "15c": 6180,
    "6c5": 6181,
    "\u2581micromedia": 6182,
    "3cc": 6183,
    "66e": 6184,
    "9d0": 6185,
    "tag": 6186,
    "\u25810x188e4c": 6187,
    "\u25810x422788": 6188,
    "\u25810x1211370": 6189,
    "be0": 6190,
    "e100": 6191,
    "406": 6192,
    "atalogs": 6193,
    "\u25810x4259": 6194,
    "\u25810x414138": 6195,
    "\u25810x414168": 6196,
    "22c": 6197,
    "b2c": 6198,
    "\u2581dup": 6199,
    "2e8": 6200,
    "bc6": 6201,
    "\u25810xb1": 6202,
    "\u25810xb7": 6203,
    "\u2581runonce": 6204,
    "\u25810x131": 6205,
    "\u25810x1bf9": 6206,
    "\u25810x42aa": 6207,
    "\u25810xffca": 6208,
    "\u25810x461518": 6209,
    "eexist": 6210,
    "\u25810x40f1": 6211,
    "\u2581fileexist": 6212,
    "sd": 6213,
    "3d2": 6214,
    "\u25810x43d3d8": 6215,
    "\u25810x7920": 6216,
    "fa2": 6217,
    "\u25810x1a0": 6218,
    "\u25810xa010": 6219,
    "5a0": 6220,
    "dd7": 6221,
    "adap": 6222,
    "\u25810x518": 6223,
    "\u25810x10e": 6224,
    "adapters": 6225,
    "\u25810x423d78": 6226,
    "\u25810x423e38": 6227,
    "\u2581commandline": 6228,
    "da8": 6229,
    "\u25810x42f1": 6230,
    "ac2": 6231,
    "b7c": 6232,
    "uth": 6233,
    "\u25810x94f0": 6234,
    "\u25810x74000": 6235,
    "ce6": 6236,
    "\u2581cl": 6237,
    "argvw": 6238,
    "toargvw": 6239,
    "\u2581getadapters": 6240,
    "\u2581commandlinetoargvw": 6241,
    "3ad": 6242,
    "aba": 6243,
    "005": 6244,
    "f24": 6245,
    "\u25810x599b5c": 6246,
    "\u25810x599c24": 6247,
    "\u25810x59bf3c": 6248,
    "\u25810x59bf7c": 6249,
    "\u25810x59c120": 6250,
    "\u25810x59c138": 6251,
    "\u25810x8000000": 6252,
    "69e": 6253,
    "\u2581ag": 6254,
    "\u25810x5f3b": 6255,
    "ffffc": 6256,
    "ware": 6257,
    "\u2581task": 6258,
    "\u25810x450": 6259,
    "\u25810x1211d44": 6260,
    "\u2581164637": 6261,
    "\u25810x4ffffc": 6262,
    "\u2581aaa": 6263,
    "510": 6264,
    "628": 6265,
    "\u2581shgetfile": 6266,
    "a9b": 6267,
    "\u2581duplic": 6268,
    "\u25810x42fc68": 6269,
    "df5": 6270,
    "\u2581ns": 6271,
    "\u25810x5937": 6272,
    "\u25810xa9a0": 6273,
    "\u25810x1211e80": 6274,
    "\u2581isvalidlocale": 6275,
    "9c4": 6276,
    "\u25810xffed": 6277,
    "\u25810x429818": 6278,
    "\u25810x5617a8": 6279,
    "970": 6280,
    "\u25810x45fb": 6281,
    "\u2581164639": 6282,
    "\u25810x4093e9": 6283,
    "\u25810x4093ea": 6284,
    "\u25810x4093eb": 6285,
    "\u25810x4086": 6286,
    "qa": 6287,
    "\u25810x417b1": 6288,
    "\u25810x4170d4": 6289,
    "\u25810x4170d5": 6290,
    "lu": 6291,
    "998": 6292,
    "\u25810x42c0a4": 6293,
    "7c5": 6294,
    "vip": 6295,
    "\u25810x7dc4": 6296,
    "\u25810x16000": 6297,
    "mi": 6298,
    "1a0": 6299,
    "\u2581prvip": 6300,
    "\u25810x455": 6301,
    "3ec": 6302,
    "\u2581mys": 6303,
    "\u2581strlen": 6304,
    "\u2581taskbar": 6305,
    "\u25810x1211ebc": 6306,
    "\u25810xa420": 6307,
    "\u25810x134": 6308,
    "2d0": 6309,
    "30c": 6310,
    "era": 6311,
    "b94": 6312,
    "\u25810x4b5": 6313,
    "\u25810x7dd9": 6314,
    "\u25810xffc9": 6315,
    "\u25810x4c33": 6316,
    "\u25810x423d68": 6317,
    "\u25810x438378": 6318,
    "\u25810x598740": 6319,
    "940": 6320,
    "\u25810x7dc5": 6321,
    "\u25810x423e28": 6322,
    "\u25810x4219": 6323,
    "\u25810x7dd0": 6324,
    "916": 6325,
    "bc9": 6326,
    "\u258108": 6327,
    "privile": 6328,
    "\u25810x4c10": 6329,
    "\u25810x409aa4": 6330,
    "\u25810x4c32d8": 6331,
    "\u25810x4c32f0": 6332,
    "iocontrol": 6333,
    "\u25810x409aa5": 6334,
    "\u25810x4350c8": 6335,
    "\u2581charpre": 6336,
    "\u25810x1211fbc": 6337,
    "\u25810x5199": 6338,
    "\u2581formatmessagea": 6339,
    "f69": 6340,
    "fae": 6341,
    "led": 6342,
    "\u2581ea": 6343,
    "\u25810x41aa": 6344,
    "im": 6345,
    "a5b": 6346,
    "\u25810x40935d": 6347,
    "\u25810x40935e": 6348,
    "\u25810x40935f": 6349,
    "\u25810x409360": 6350,
    "\u25810x409361": 6351,
    "\u25810x409362": 6352,
    "\u25810x409363": 6353,
    "\u2581deviceiocontrol": 6354,
    "3a20": 6355,
    "\u25810x4ac": 6356,
    "pass": 6357,
    "238": 6358,
    "\u2581nsis": 6359,
    "\u25810x419ce0": 6360,
    "\u2581nsiserror": 6361,
    "932": 6362,
    "\u2581fre": 6363,
    "\u25810x40a7": 6364,
    "\u25810x44c2": 6365,
    "e69": 6366,
    "etype": 6367,
    "instan": 6368,
    "\u25810x432378": 6369,
    "\u25810x1210e80": 6370,
    "202e": 6371,
    "\u25810x9940": 6372,
    "\u25810xfeee009d": 6373,
    "58c": 6374,
    "\u25810x414c": 6375,
    "\u25810x42ea": 6376,
    "\u25810x4353c0": 6377,
    "f85": 6378,
    "\u25810x53e498": 6379,
    "\u2581wm": 6380,
    "\u25810x41cc54": 6381,
    "\u25810x120f8a6": 6382,
    "61c": 6383,
    "a34": 6384,
    "seekto": 6385,
    "\u25810x433268": 6386,
    "\u25810x433280": 6387,
    "\u25810x3200a48": 6388,
    "\u2581failedtoseekto": 6389,
    "\u25810x569b48": 6390,
    "7ce": 6391,
    "ed0": 6392,
    "qld": 6393,
    "\u25810x1211ed8": 6394,
    "a94": 6395,
    "\u2581af": 6396,
    "starto": 6397,
    "\u2581mysqld": 6398,
    "\u2581agntsvc": 6399,
    "startoffile": 6400,
    "\u2581failedtoseektostartoffile": 6401,
    "\u25810x4c0": 6402,
    "\u25810x169bf28": 6403,
    "\u25810x2200": 6404,
    "645": 6405,
    "68b": 6406,
    "\u25810x180": 6407,
    "\u25810x2e7": 6408,
    "ab6": 6409,
    "\u2581oleacc": 6410,
    "inmodule": 6411,
    "\u25810x430828": 6412,
    "376": 6413,
    "\u2581failedtoinitializeenginesection": 6414,
    "da9": 6415,
    "a526": 6416,
    "\u25810x144": 6417,
    "\u25810x4217": 6418,
    "\u25810x524a40": 6419,
    "\u2581getmessagew": 6420,
    "withtag": 6421,
    "\u25810x411bc0": 6422,
    "\u25810x4208e0": 6423,
    "poolwithtag": 6424,
    "\u2581exallocate": 6425,
    "\u2581exallocatepoolwithtag": 6426,
    "1b0": 6427,
    "\u25810x170": 6428,
    "\u25810x7df9": 6429,
    "ef4": 6430,
    "mar": 6431,
    "\u2581my": 6432,
    "eb4": 6433,
    "2d8": 6434,
    "\u25810xb6": 6435,
    "\u25810x7df8": 6436,
    "\u2581failedtoinitializeenginestate": 6437,
    "a76": 6438,
    "\u25810x169ba04": 6439,
    "2e0": 6440,
    "\u25810x8838": 6441,
    "fox": 6442,
    "\u2581ndr": 6443,
    "\u25810x2010": 6444,
    "\u2581ndrd": 6445,
    "\u25810x424470": 6446,
    "dfd": 6447,
    "\u2581db": 6448,
    "181": 6449,
    "\u25810x9290": 6450,
    "224": 6451,
    "\u25810x4335": 6452,
    "\u25810x47ee": 6453,
    "\u25810x8839": 6454,
    "\u25810x169bc04": 6455,
    "\u25810x169bd04": 6456,
    "a06": 6457,
    "bd7": 6458,
    "\u25810xd4": 6459,
    "\u25810x431f68": 6460,
    "3b4": 6461,
    "a85": 6462,
    "\u25810x4324": 6463,
    "\u25810x4604": 6464,
    "790": 6465,
    "a30": 6466,
    "f96": 6467,
    "aec": 6468,
    "\u25810x41688a": 6469,
    "\u25810x41688b": 6470,
    "\u25810x4208df": 6471,
    "\u2581cocreate": 6472,
    "920": 6473,
    "\u25810xa427": 6474,
    "privilege": 6475,
    "335": 6476,
    "3de": 6477,
    "exit": 6478,
    "\u25810x1210e84": 6479,
    "d58": 6480,
    "\u25810x419cb0": 6481,
    "\u2581duplicate": 6482,
    "bf4": 6483,
    "\u2581getdriv": 6484,
    "\u25810xa429b0": 6485,
    "\u25810x4540": 6486,
    "\u25810x52668": 6487,
    "\u2581getdrivetype": 6488,
    "117": 6489,
    "\u25810x7dc9": 6490,
    "\u25810x3f2420": 6491,
    "f3c": 6492,
    "3ff": 6493,
    "\u25810x1211e38": 6494,
    "fdc": 6495,
    "546": 6496,
    "bbc": 6497,
    "\u25810x7ddd": 6498,
    "1c4": 6499,
    "dd8": 6500,
    "\u25810xffe8": 6501,
    "\u25810x522": 6502,
    "\u25810x4175": 6503,
    "\u25810x4718": 6504,
    "\u2581lstrcata": 6505,
    "\u25810x2200220": 6506,
    "\u2581destroywindow": 6507,
    "00f": 6508,
    "\u2581command": 6509,
    "\u25810x41d2": 6510,
    "128": 6511,
    "d05": 6512,
    "\u2581initcommoncontrolsex": 6513,
    "a0d": 6514,
    "af6": 6515,
    "20224": 6516,
    "utton": 6517,
    "\u25810x40a58c": 6518,
    "\u25810x200020": 6519,
    "570656": 6520,
    "64656c": 6521,
    "\u25813a526": 6522,
    "1740d0a": 6523,
    "2022433a": 6524,
    "\u25813a526570656": 6525,
    "1740d0a64656c": 6526,
    "1740d0a64656c2022433a": 6527,
    "\u25813a5265706561740d0a64656c2022433a": 6528,
    "\u25810x7f4": 6529,
    "\u25810x40a57c": 6530,
    "680": 6531,
    "org": 6532,
    "\u25810x7ac0": 6533,
    "atom": 6534,
    "20202e": 6535,
    "\u2581duplicatehandle": 6536,
    "170": 6537,
    "bdc": 6538,
    "88a8": 6539,
    "\u2581cocreateinstan": 6540,
    "7a7": 6541,
    "\u25810x1211b08": 6542,
    "\u25810x1211fa0": 6543,
    "332": 6544,
    "\u25810x43f6": 6545,
    "a9a": 6546,
    "\u25810x169b9c0": 6547,
    "2ec": 6548,
    "385": 6549,
    "b74": 6550,
    "dac": 6551,
    "f35": 6552,
    "ready": 6553,
    "eresource": 6554,
    "\u2581can": 6555,
    "\u25810x4258": 6556,
    "\u25810x39569": 6557,
    "a49": 6558,
    "screen": 6559,
    "\u25810x42b4": 6560,
    "\u25810x41cba4": 6561,
    "ad5": 6562,
    "33c4": 6563,
    "\u25810x7dcc": 6564,
    "\u25810xa3a790": 6565,
    "\u25810x1211f68": 6566,
    "296": 6567,
    "ere": 6568,
    "\u25810xa41": 6569,
    "\u25810x4354": 6570,
    "\u2581cp": 6571,
    "orgex": 6572,
    "\u2581setenvironmentvariablea": 6573,
    "\u25810x44b7": 6574,
    "\u25810x7dd4": 6575,
    "\u25810x64000": 6576,
    "\u25810x12117ec": 6577,
    "\u25810x1211bf4": 6578,
    "\u25810x1211dbc": 6579,
    "\u2581freeresource": 6580,
    "\u2581setcurrentdirectorya": 6581,
    "\u25810x41d0": 6582,
    "\u25810x1210cf0": 6583,
    "\u258135": 6584,
    "\u25810xfeee015": 6585,
    "\u25810xfeee00f3": 6586,
    "3f6": 6587,
    "\u25810x7dd8": 6588,
    "b3c": 6589,
    "\u2581ab": 6590,
    "roll": 6591,
    "\u25810x7e4": 6592,
    "\u25810x1211cf4": 6593,
    "\u25810xfeee00f2": 6594,
    "f9e": 6595,
    "\u25810x7dd1": 6596,
    "3e1": 6597,
    "\u25810xdc": 6598,
    "\u25810x7dcd": 6599,
    "\u25810x7e30": 6600,
    "\u25810x416b2": 6601,
    "\u25810x416c0": 6602,
    "\u25810x416242": 6603,
    "\u25810x416243": 6604,
    "\u25810x42a0a0": 6605,
    "\u25810x13b": 6606,
    "\u25810x7ddc": 6607,
    "cc5": 6608,
    "fa0": 6609,
    "\u2581mta": 6610,
    "ba9": 6611,
    "115": 6612,
    "df0": 6613,
    "f10": 6614,
    "75c8": 6615,
    "\u2581isctype": 6616,
    "\u25810x58de50": 6617,
    "a89": 6618,
    "\u25810x7dd5": 6619,
    "exist": 6620,
    "ontinue": 6621,
    "\u25810x1211438": 6622,
    "\u25810x1211cb8": 6623,
    "be4": 6624,
    "\u25810x1211e4c": 6625,
    "709": 6626,
    "d34": 6627,
    "\u25810x7eec": 6628,
    "230": 6629,
    "\u25810x426f": 6630,
    "\u25810x120e6dc": 6631,
    "move": 6632,
    "\u2581back": 6633,
    "\u25810x422778": 6634,
    "\u25810x48ec": 6635,
    "\u25810x4298a8": 6636,
    "\u25810x4298d8": 6637,
    "\u25810x4f6200": 6638,
    "\u2581messageboxw": 6639,
    "\u2581youm": 6640,
    "\u2581opena": 6641,
    "\u25810x43f": 6642,
    "ystatus": 6643,
    "memorystatus": 6644,
    "\u2581globalmemorystatus": 6645,
    "\u258104": 6646,
    "times": 6647,
    "\u25810x427f70": 6648,
    "\u25810x7eed": 6649,
    "\u25810xa3a0": 6650,
    "a56": 6651,
    "priority": 6652,
    "\u25810x600": 6653,
    "\u25810x4607": 6654,
    "\u25810xff92": 6655,
    "134": 6656,
    "365": 6657,
    "\u25810x169bf04": 6658,
    "f71": 6659,
    "ook": 6660,
    "\u25810x41ba": 6661,
    "\u25810x75500000": 6662,
    "212": 6663,
    "007": 6664,
    "3e5": 6665,
    "\u25810x4d5": 6666,
    "\u2581regcreate": 6667,
    "ba4": 6668,
    "\u25810x6b9c": 6669,
    "\u25810x169bf2c": 6670,
    "aab": 6671,
    "bed": 6672,
    "\u25810x4608": 6673,
    "\u25810x4190": 6674,
    "\u25810x8554": 6675,
    "e2e2": 6676,
    "\u25810x3010": 6677,
    "250": 6678,
    "9b0": 6679,
    "\u25810xe4": 6680,
    "\u25810x43b4": 6681,
    "\u25810x40d9": 6682,
    "\u2581cryptacquirecontexta": 6683,
    "339": 6684,
    "\u25813d": 6685,
    "output": 6686,
    "\u25810x6ba": 6687,
    "2b8": 6688,
    "a39": 6689,
    "fcc": 6690,
    "pl": 6691,
    "\u25810x4011": 6692,
    "9e4": 6693,
    "\u25810x4020": 6694,
    "3a2": 6695,
    "5b0": 6696,
    "7f4": 6697,
    "9e8": 6698,
    "\u25810xe9": 6699,
    "\u25810x41ac": 6700,
    "\u25810x7f8003": 6701,
    "\u25810x7f8004": 6702,
    "\u25810x7f8005": 6703,
    "\u25810x7f8006": 6704,
    "\u25810x7f8007": 6705,
    "\u25810x7f8008": 6706,
    "\u25810x7f8009": 6707,
    "\u25810x7f800a": 6708,
    "\u25810x7f800b": 6709,
    "\u25810x7f800c": 6710,
    "\u25810x7f800d": 6711,
    "unch": 6712,
    "\u25810x413b": 6713,
    "3f4": 6714,
    "\u258134": 6715,
    "\u25810x4605": 6716,
    "\u25810x4176": 6717,
    "\u25810x5266c": 6718,
    "\u25810x7f800e": 6719,
    "\u2581getconsolewindow": 6720,
    "319": 6721,
    "754": 6722,
    "\u25810x502dc": 6723,
    "\u25810x52669": 6724,
    "\u25810x169bec8": 6725,
    "desktop": 6726,
    "\u2581globalf": 6727,
    "\u2581oa": 6728,
    "outputcp": 6729,
    "\u25810x40619": 6730,
    "\u25810x40eeca": 6731,
    "\u25810x40eecb": 6732,
    "\u25810x7f800f": 6733,
    "3d28": 6734,
    "119": 6735,
    "16c": 6736,
    "66e0": 6737,
    "\u25810xffdf": 6738,
    "\u25810x1211584": 6739,
    "enter": 6740,
    "\u2581openw": 6741,
    "\u2581towlower": 6742,
    "\u2581getconsoleoutputcp": 6743,
    "bc7": 6744,
    "longw": 6745,
    "670": 6746,
    "\u25810x40ef1b": 6747,
    "7dc": 6748,
    "e74": 6749,
    "\u25810x4dc": 6750,
    "\u25810x740": 6751,
    "235": 6752,
    "ache": 6753,
    "alse": 6754,
    "\u25810xa710": 6755,
    "\u25810x2357b": 6756,
    "\u25810x4378b0": 6757,
    "a3c": 6758,
    "bf1": 6759,
    "dfc": 6760,
    "fa6": 6761,
    "\u25810x4c30": 6762,
    "\u25810x40ef1a": 6763,
    "image": 6764,
    "2fc": 6765,
    "336": 6766,
    "\u25810xbf": 6767,
    "\u25810x1b0": 6768,
    "\u25810x4b7": 6769,
    "\u25810x40c8": 6770,
    "\u25810x4251": 6771,
    "che": 6772,
    "d32": 6773,
    "\u2581your": 6774,
    "ee2": 6775,
    "\u25810xb9": 6776,
    "\u25810x4218": 6777,
    "919": 6778,
    "\u25810x6940": 6779,
    "\u25810x1211888": 6780,
    "\u2581regcreatekey": 6781,
    "7c0": 6782,
    "\u2581qa": 6783,
    "\u25810x58c034": 6784,
    "instal": 6785,
    "161": 6786,
    "97c": 6787,
    "\u25810x4066": 6788,
    "24c": 6789,
    "\u25810x5b5": 6790,
    "\u2581environ": 6791,
    "\u25810xfffffffe": 6792,
    "e14": 6793,
    "ea0": 6794,
    "\u25810x88d0": 6795,
    "irectory": 6796,
    "\u25810x40e5": 6797,
    "\u25810x42390": 6798,
    "\u25810x491288": 6799,
    "\u25810x1211f0c": 6800,
    "da0": 6801,
    "f2c": 6802,
    "db4": 6803,
    "\u2581ri": 6804,
    "\u25810x4602": 6805,
    "\u25810x4760": 6806,
    "\u25810x5627": 6807,
    "\u25810xa41f": 6808,
    "364": 6809,
    "5f8": 6810,
    "\u25810x4c27": 6811,
    "applet": 6812,
    "\u25810x7ce0": 6813,
    "\u25810xa0e6": 6814,
    "rap": 6815,
    "\u2581interne": 6816,
    "\u25810x500010": 6817,
    "\u25810x3f29": 6818,
    "\u25810x43b8c8": 6819,
    "\u25810x1906000": 6820,
    "2a4": 6821,
    "a7d": 6822,
    "main": 6823,
    "\u25810xec": 6824,
    "\u25810x478": 6825,
    "\u25810x40b0": 6826,
    "\u25810x458": 6827,
    "\u25810xffe9": 6828,
    "\u25810x2d4df": 6829,
    "\u25810x48ec3c": 6830,
    "\u25810x80be54": 6831,
    "666": 6832,
    "b38": 6833,
    "\u25810x3fd00": 6834,
    "\u25810x414f20": 6835,
    "2c0": 6836,
    "\u2581lib": 6837,
    "\u25810x6970": 6838,
    "\u25810x640000": 6839,
    "745": 6840,
    "f19": 6841,
    "f5c": 6842,
    "\u25810x40f6a8": 6843,
    "\u2581failedtoopen": 6844,
    "\u2581failedtoopenapplication": 6845,
    "\u25810x42ec": 6846,
    "\u2581failedtoopenapplicationlog": 6847,
    "ects": 6848,
    "\u25810x414f21": 6849,
    "3ed": 6850,
    "ning": 6851,
    "\u25810x2100": 6852,
    "\u25810x411b90": 6853,
    "\u25810x565868": 6854,
    "\u2581getwindowsdirectoryw": 6855,
    "ad6": 6856,
    "96c": 6857,
    "\u25810x2804": 6858,
    "2f0": 6859,
    "7c7": 6860,
    "e38": 6861,
    "pop": 6862,
    "been": 6863,
    "\u25810x10a": 6864,
    "\u25810x56c": 6865,
    "\u25810x598758": 6866,
    "d55": 6867,
    "plorer": 6868,
    "\u25810x4212": 6869,
    "b12": 6870,
    "b39": 6871,
    "\u2581prop": 6872,
    "\u25810x1210e30": 6873,
    "9f2": 6874,
    "7170": 6875,
    "\u25810x6b6": 6876,
    "658": 6877,
    "f54": 6878,
    "sion": 6879,
    "\u2581riche": 6880,
    "\u25810x4040": 6881,
    "145": 6882,
    "741": 6883,
    "\u25810x417da0": 6884,
    "\u25810x1211790": 6885,
    "yd": 6886,
    "2d4": 6887,
    "\u2581pb": 6888,
    "\u25810xffd8": 6889,
    "\u25810x420f2": 6890,
    "\u25810x42b0a0": 6891,
    "540": 6892,
    "fc6": 6893,
    "d26": 6894,
    "\u25810x40e9": 6895,
    "\u25810x41e9": 6896,
    "\u25810x4187e": 6897,
    "\u25810x417d9f": 6898,
    "f37": 6899,
    "place": 6900,
    "\u2581164631": 6901,
    "\u2581arg": 6902,
    "\u25810x42a4": 6903,
    "\u25810x9110": 6904,
    "79c": 6905,
    "\u25810x504": 6906,
    "\u25810x46b3b8": 6907,
    "bf6": 6908,
    "run": 6909,
    "\u25810x2d4d9": 6910,
    "\u25810x4366e0": 6911,
    "\u25810x438b58": 6912,
    "\u25810x438c00": 6913,
    "606": 6914,
    "df4": 6915,
    "\u25810xe6": 6916,
    "\u2581onexit": 6917,
    "676": 6918,
    "712": 6919,
    "dd0": 6920,
    "\u25810x4e5c": 6921,
    "\u25810x4f53c8": 6922,
    "696": 6923,
    "button": 6924,
    "enamew": 6925,
    "\u25810x4b4": 6926,
    "\u25810x181b48": 6927,
    "2cc": 6928,
    "33b": 6929,
    "bac": 6930,
    "\u25810x1211f14": 6931,
    "\u25810x1211cac": 6932,
    "e2c": 6933,
    "17f4": 6934,
    "ee9": 6935,
    "f95": 6936,
    "ttp": 6937,
    "e4b8": 6938,
    "b0000": 6939,
    "1d4": 6940,
    "3dc": 6941,
    "\u25810x7c000": 6942,
    "3fc": 6943,
    "ae00": 6944,
    "\u25810x4b40": 6945,
    "\u25810x9520": 6946,
    "\u25810x420818": 6947,
    "186": 6948,
    "\u25810x509e4": 6949,
    "\u2581registerwindowmessagea": 6950,
    "ae2": 6951,
    "f15": 6952,
    "356": 6953,
    "\u25810x4106": 6954,
    "\u25810x4af4": 6955,
    "e49": 6956,
    "\u25810xde": 6957,
    "\u25810x1211c4c": 6958,
    "\u25810x1211e0c": 6959,
    "\u2581regdelete": 6960,
    "245": 6961,
    "698": 6962,
    "e90": 6963,
    "185": 6964,
    "3be": 6965,
    "586": 6966,
    "7cc": 6967,
    "9cc": 6968,
    "\u2581logme": 6969,
    "nexplorer": 6970,
    "\u25810x486d18": 6971,
    "6c4": 6972,
    "911": 6973,
    "f05": 6974,
    "\u25810x2b4": 6975,
    "\u25810x181b98": 6976,
    "\u2581application": 6977,
    "746": 6978,
    "b42": 6979,
    "zone": 6980,
    "\u25810xdb": 6981,
    "\u25810x4d0": 6982,
    "\u25810x4ebf": 6983,
    "\u25810xa020": 6984,
    "eb6": 6985,
    "\u25810x3f28": 6986,
    "\u2581setupapi": 6987,
    "d14": 6988,
    "\u2581ro": 6989,
    "trect": 6990,
    "yw": 6991,
    "\u25810x40a6": 6992,
    "5b8": 6993,
    "7f8": 6994,
    "980": 6995,
    "9a8": 6996,
    "760": 6997,
    "b6c": 6998,
    "idto": 6999,
    "river": 7000,
    "\u25810xd2": 7001,
    "\u25810x42fc20": 7002,
    "1ac": 7003,
    "28c": 7004,
    "765": 7005,
    "77c": 7006,
    "902e0": 7007,
    "\u25810x4012": 7008,
    "\u25810x41d4": 7009,
    "\u25810x42b7": 7010,
    "\u25810xffea": 7011,
    "\u25810x423db0": 7012,
    "486": 7013,
    "a61": 7014,
    "\u2581el": 7015,
    "anden": 7016,
    "program": 7017,
    "\u25810x4902e0": 7018,
    "\u25810x4a50": 7019,
    "\u25810x496790": 7020,
    "\u25810x8e90": 7021,
    "\u2581expanden": 7022,
    "zoneinformation": 7023,
    "\u2581getfileattributesa": 7024,
    "686": 7025,
    "775": 7026,
    "\u25810x5052": 7027,
    "\u25810x423df0": 7028,
    "\u25810x7eaba8": 7029,
    "\u25810xdf": 7030,
    "\u25810x8a90": 7031,
    "\u2581gettimezoneinformation": 7032,
    "0068": 7033,
    "\u25810x423e20": 7034,
    "hd": 7035,
    "146": 7036,
    "2a8": 7037,
    "handler": 7038,
    "sys": 7039,
    "\u25810x78e": 7040,
    "\u25810xffeb": 7041,
    "\u25810x140000000": 7042,
    "\u25810x4255ef": 7043,
    "\u25810x4255f0": 7044,
    "\u25810x567678": 7045,
    "\u2581la": 7046,
    "\u25810x56ba": 7047,
    "\u2581systemtim": 7048,
    "1f8": 7049,
    "\u25810x4137": 7050,
    "\u25810x42e0a4": 7051,
    "\u25810x120ff7c": 7052,
    "\u25810x1210ec0": 7053,
    "b75": 7054,
    "f5e": 7055,
    "\u25810xfeedf000": 7056,
    "234": 7057,
    "fic": 7058,
    "30000": 7059,
    "d94": 7060,
    "\u2581call": 7061,
    "\u25810x435018": 7062,
    "\u2581print": 7063,
    "\u25810x1733c4": 7064,
    "\u25810x419c54": 7065,
    "\u25810x435002": 7066,
    "\u25810x435004": 7067,
    "\u25810x435006": 7068,
    "\u25810x435008": 7069,
    "\u25810x43500a": 7070,
    "\u25810x43500c": 7071,
    "\u25810x43500e": 7072,
    "\u25810x435010": 7073,
    "295": 7074,
    "beb": 7075,
    "55c8": 7076,
    "\u25810xf4": 7077,
    "\u25810x419c53": 7078,
    "\u25810x435014": 7079,
    "\u25810x425": 7080,
    "\u25810x8e50": 7081,
    "\u25810x435016": 7082,
    "\u2581iswindow": 7083,
    "f64": 7084,
    "tive": 7085,
    "\u25810x444": 7086,
    "\u25810x407b": 7087,
    "\u25810xffdc": 7088,
    "905": 7089,
    "ame32": 7090,
    "\u2581mame32": 7091,
    "\u25810x42398": 7092,
    "\u2581apphelp": 7093,
    "\u2581freeware": 7094,
    "29c": 7095,
    "bcat": 7096,
    "dd5": 7097,
    "\u25810x8cb0": 7098,
    "\u2581propsys": 7099,
    "\u25810x1211ba8": 7100,
    "ce9": 7101,
    "ed2": 7102,
    "bcatq": 7103,
    "\u25810x44f": 7104,
    "\u2581clbcatq": 7105,
    "\u25810xfeedf0": 7106,
    "777": 7107,
    "word": 7108,
    "70000": 7109,
    "valuea": 7110,
    "\u25810x535": 7111,
    "cue": 7112,
    "rescue": 7113,
    "\u25810x508d0": 7114,
    "da4": 7115,
    "e64": 7116,
    "\u25810x509a8": 7117,
    "\u25810x42d498": 7118,
    "386": 7119,
    "a1c": 7120,
    "a3b": 7121,
    "\u2581fast": 7122,
    "profil": 7123,
    "\u25810x115": 7124,
    "\u25810x415c": 7125,
    "inrescue": 7126,
    "\u25810x417c10": 7127,
    "\u25810xc417f4": 7128,
    "\u2581logmeinrescue": 7129,
    "\u25810x180c": 7130,
    "\u25810xa3a7d8": 7131,
    "274": 7132,
    "e05": 7133,
    "wer": 7134,
    "\u25810x422750": 7135,
    "\u25810x423850": 7136,
    "\u25810x423880": 7137,
    "\u2581logmeinrescueapplet": 7138,
    "ad50": 7139,
    "\u25810x435012": 7140,
    "17c": 7141,
    "b34": 7142,
    "\u25810x474": 7143,
    "\u25810x4b8": 7144,
    "\u25810x181c88": 7145,
    "\u25810x700": 7146,
    "\u25810x417be0": 7147,
    "ei": 7148,
    "\u25810x1b5": 7149,
    "\u25810x181c60": 7150,
    "\u25810xfeee009e": 7151,
    "ea8": 7152,
    "datom": 7153,
    "\u2581getmodulebas": 7154,
    "337": 7155,
    "\u25810x9050": 7156,
    "fb4": 7157,
    "\u25810x7730": 7158,
    "\u25810x7e20": 7159,
    "\u25810x1211eac": 7160,
    "547": 7161,
    "3d7": 7162,
    "695": 7163,
    "e70": 7164,
    "\u25810x9c50": 7165,
    "\u2581getmodulebasenamew": 7166,
    "00d": 7167,
    "225": 7168,
    "355": 7169,
    "964": 7170,
    "a7b": 7171,
    "\u25810x40d5": 7172,
    "a14": 7173,
    "\u25810x12000": 7174,
    "d01": 7175,
    "ange": 7176,
    "\u25810x1211a44": 7177,
    "\u25810xfeee00f0": 7178,
    "\u25810x431f20": 7179,
    "a46": 7180,
    "b26": 7181,
    "\u25810xfeee00a0": 7182,
    "226": 7183,
    "764": 7184,
    "7675": 7185,
    "\u25810x41a9": 7186,
    "\u25810x1211e88": 7187,
    "\u25810x3020302": 7188,
    "\u25810xfeee00f5": 7189,
    "\u2581cocreateinstance": 7190,
    "buf": 7191,
    "7bc": 7192,
    "\u2581endd": 7193,
    "00000000": 7194,
    "\u2581getthreadtimes": 7195,
    "548": 7196,
    "3008": 7197,
    "bae": 7198,
    "d99": 7199,
    "f06": 7200,
    "\u2581line": 7201,
    "onsolea": 7202,
    "\u2581lstrcmpia": 7203,
    "\u2581regsetvalueexa": 7204,
    "bb9": 7205,
    "\u25810xcccc": 7206,
    "\u2581enable": 7207,
    "121": 7208,
    "d74": 7209,
    "f34": 7210,
    "\u25810x7100": 7211,
    "\u25810x9ab0": 7212,
    "\u25810x42ce08": 7213,
    "9b8": 7214,
    "db9": 7215,
    "valuew": 7216,
    "\u25810x366": 7217,
    "\u25810x46a1": 7218,
    "\u25810x169b8": 7219,
    "\u2581cryptdestroy": 7220,
    "395": 7221,
    "\u25810xe2": 7222,
    "\u25810xa3a": 7223,
    "723": 7224,
    "b46": 7225,
    "b9c": 7226,
    "ave": 7227,
    "\u25810x9b30": 7228,
    "processmemory": 7229,
    "mt": 7230,
    "ce5": 7231,
    "\u258103t": 7232,
    "6b0": 7233,
    "e94": 7234,
    "\u2581ol": 7235,
    "\u25810x408c8d": 7236,
    "\u25810x408c8e": 7237,
    "\u25810x4254ef": 7238,
    "\u25810x4254f0": 7239,
    "3b7": 7240,
    "\u2581aa": 7241,
    "\u2581cm": 7242,
    "\u25810x8a44": 7243,
    "f39": 7244,
    "\u25810x677": 7245,
    "\u25810x4438": 7246,
    "erun": 7247,
    "\u25810x7fc": 7248,
    "\u2581cryptget": 7249,
    "\u2581regopenkeya": 7250,
    "232": 7251,
    "711": 7252,
    "b66": 7253,
    "roup": 7254,
    "\u25810x40f4": 7255,
    "2ad": 7256,
    "3f3": 7257,
    "\u25810x4ed": 7258,
    "\u25810x1211ec0": 7259,
    "\u25810x3f75e88": 7260,
    "\u25810xfeee019": 7261,
    "955": 7262,
    "propw": 7263,
    "\u25810x77000": 7264,
    "\u25810x43501a": 7265,
    "\u2581writeconsolea": 7266,
    "\u25810x99f0": 7267,
    "\u25810x120e6a0": 7268,
    "168": 7269,
    "b16": 7270,
    "efc": 7271,
    "sgd": 7272,
    "\u25810x4095": 7273,
    "fe4": 7274,
    "154": 7275,
    "\u25810x120f3": 7276,
    "sions": 7277,
    "\u25810x4f4": 7278,
    "\u25810x7c90": 7279,
    "\u258150": 7280,
    "\u2581hi": 7281,
    "53a0": 7282,
    "aac0": 7283,
    "33e": 7284,
    "914": 7285,
    "a95": 7286,
    "eac": 7287,
    "\u25810xda": 7288,
    "\u25810x4220": 7289,
    "\u2581launch": 7290,
    "3ae": 7291,
    "796": 7292,
    "a31": 7293,
    "b91": 7294,
    "\u25810x4356": 7295,
    "2b5": 7296,
    "3bf": 7297,
    "3c6": 7298,
    "\u25810xa050": 7299,
    "0048": 7300,
    "\u25810x112": 7301,
    "\u25810x154": 7302,
    "\u25810x41f9": 7303,
    "\u25810x47d0": 7304,
    "\u2581cryptacquirecontextw": 7305,
    "gn": 7306,
    "b64": 7307,
    "\u25810x5b2": 7308,
    "\u25810x40af": 7309,
    "lientrect": 7310,
    "\u25810x4c9778": 7311,
    "\u2581getmenuitem": 7312,
    "\u2581getclientrect": 7313,
    "a37": 7314,
    "\u25810x434388": 7315,
    "7ec": 7316,
    "\u25810xed": 7317,
    "\u25810x563a20": 7318,
    "\u25810x1210550": 7319,
    "\u2581internetopen": 7320,
    "ted": 7321,
    "fami": 7322,
    "blead": 7323,
    "\u2581ismb": 7324,
    "famili": 7325,
    "\u25810x40c5": 7326,
    "\u2581regenum": 7327,
    "\u25810x435228": 7328,
    "\u25810x435240": 7329,
    "\u25810x1211ddc": 7330,
    "\u2581ismbblead": 7331,
    "ill": 7332,
    "fn": 7333,
    "685": 7334,
    "\u2581vf": 7335,
    "006c": 7336,
    "config": 7337,
    "\u25810x42eab0": 7338,
    "\u25810xa3a7e0": 7339,
    "543": 7340,
    "9ac": 7341,
    "e55": 7342,
    "f75": 7343,
    "fa5": 7344,
    "uti": 7345,
    "\u2581getdrivetypea": 7346,
    "a33": 7347,
    "0074": 7348,
    "\u25810x2840": 7349,
    "72c": 7350,
    "dad": 7351,
    "\u2581xz": 7352,
    "icmp": 7353,
    "\u25810x71a1": 7354,
    "\u25810x9890": 7355,
    "\u25810x43501c": 7356,
    "\u25810x43501e": 7357,
    "\u25810x435020": 7358,
    "\u25810x435022": 7359,
    "\u25810x435028": 7360,
    "\u25810x43502a": 7361,
    "\u25810x43502c": 7362,
    "\u25810x43502e": 7363,
    "\u25810x435030": 7364,
    "1c8": 7365,
    "7de": 7366,
    "\u25810x6f6": 7367,
    "\u2581mso97": 7368,
    "\u25810x1b1": 7369,
    "\u25810x4a8": 7370,
    "\u25810x41d1e0": 7371,
    "\u25810x46b388": 7372,
    "bauth": 7373,
    "\u25810x40f5": 7374,
    "25c": 7375,
    "2de": 7376,
    "5a8": 7377,
    "ba1": 7378,
    "20000": 7379,
    "\u25810x572": 7380,
    "\u25810x4128": 7381,
    "\u25810x429920": 7382,
    "\u25810x513d28": 7383,
    "\u25810x1211f94": 7384,
    "1d5": 7385,
    "\u25810x636": 7386,
    "\u25810x169be": 7387,
    "controlset": 7388,
    "imetofiletime": 7389,
    "\u2581currentcontrolset": 7390,
    "\u2581setenvironmentvariablew": 7391,
    "e60": 7392,
    "\u25810x423c": 7393,
    "\u25810x422530": 7394,
    "\u25810x423e10": 7395,
    "795": 7396,
    "a96": 7397,
    "f1c": 7398,
    "fd9": 7399,
    "row": 7400,
    "ocus": 7401,
    "\u25810xa950": 7402,
    "\u2581cryptgen": 7403,
    "\u2581appdata": 7404,
    "\u25810x1211800": 7405,
    "\u25810xfeee009f": 7406,
    "fe9": 7407,
    "icen": 7408,
    "\u25810x47a": 7409,
    "\u25810x422a": 7410,
    "\u25810x4375c8": 7411,
    "\u25810x1210e70": 7412,
    "\u2581getwindowdc": 7413,
    "1b5": 7414,
    "0060": 7415,
    "option": 7416,
    "\u25810x4aac": 7417,
    "\u25810x44c250": 7418,
    "\u25810x1210e34": 7419,
    "\u25810x1211c60": 7420,
    "\u25810x80c488": 7421,
    "805": 7422,
    "df9": 7423,
    "nam": 7424,
    "\u25810x1211edc": 7425,
    "\u25810x5265c50": 7426,
    "\u25810x8a45": 7427,
    "\u25810xa9d0": 7428,
    "\u25810x422500": 7429,
    "\u25810x4338a8": 7430,
    "138": 7431,
    "eab": 7432,
    "\u2581zip": 7433,
    "\u25810x40a5b0": 7434,
    "\u25810x40a5b4": 7435,
    "\u25810x40a5b8": 7436,
    "165": 7437,
    "focus": 7438,
    "running": 7439,
    "\u25810x42c020": 7440,
    "orn": 7441,
    "ally": 7442,
    "random": 7443,
    "\u25810x4c50": 7444,
    "\u25810x42c024": 7445,
    "\u25810x42c028": 7446,
    "\u2581doyouwantto": 7447,
    "009": 7448,
    "88c": 7449,
    "false": 7450,
    "\u25810x40a4": 7451,
    "\u25810x411c": 7452,
    "\u2581please": 7453,
    "214": 7454,
    "\u25810x5188": 7455,
    "filespec": 7456,
    "\u25810x40a5ae": 7457,
    "\u25810x40a5b2": 7458,
    "\u25810x40a5b6": 7459,
    "\u25810x40a5ba": 7460,
    "926": 7461,
    "b56": 7462,
    "\u2581cal": 7463,
    "\u25810x350": 7464,
    "\u25810x5ab": 7465,
    "\u25810x8860": 7466,
    "\u25810x42d420": 7467,
    "\u25810x120e688": 7468,
    "\u2581removefilespec": 7469,
    "\u2581shgetspecialfolder": 7470,
    "au": 7471,
    "23d": 7472,
    "96d": 7473,
    "6564": 7474,
    "true": 7475,
    "thash": 7476,
    "allyour": 7477,
    "onexist": 7478,
    "zeroorn": 7479,
    "\u2581instal": 7480,
    "\u2581istrue": 7481,
    "\u2581isexist": 7482,
    "\u2581isfalse": 7483,
    "\u25810x4355c8": 7484,
    "\u2581iszeroorn": 7485,
    "\u2581openanexplorer": 7486,
    "\u2581iszeroornonexist": 7487,
    "\u25810x406c": 7488,
    "per": 7489,
    "thashdata": 7490,
    "\u25810x41af40": 7491,
    "createhash": 7492,
    "codeptr": 7493,
    "\u25810x2280": 7494,
    "\u25810x7f80": 7495,
    "\u25810x4189e8": 7496,
    "frominternet": 7497,
    "\u2581isbadcodeptr": 7498,
    "pc": 7499,
    "691": 7500,
    "b33": 7501,
    "bd5": 7502,
    "\u25810x4177b0": 7503,
    "\u25810x41ae00": 7504,
    "f45": 7505,
    "f6c": 7506,
    "e5e5": 7507,
    "\u25810xd5": 7508,
    "\u25810x108": 7509,
    "\u25810x73a0": 7510,
    "\u25810x40a020": 7511,
    "\u25810x4111d0": 7512,
    "\u25810x41ad50": 7513,
    "\u25810x42b070": 7514,
    "\u25810x42eaa6": 7515,
    "\u25810x42eaba": 7516,
    "\u25810x42eac4": 7517,
    "\u2581removefilespecw": 7518,
    "a75": 7519,
    "e06": 7520,
    "\u25810x6f00": 7521,
    "\u25810x80ba": 7522,
    "\u25810x418a18": 7523,
    "\u2581cryptgenrandom": 7524,
    "e78": 7525,
    "ower": 7526,
    "\u25810x120fd64": 7527,
    "f94": 7528,
    "\u2581bo": 7529,
    "\u25810xff87": 7530,
    "\u25810x409c2c": 7531,
    "\u25810x439458": 7532,
    "3e2": 7533,
    "dee": 7534,
    "\u25810x4370": 7535,
    "\u25810x120e100": 7536,
    "\u2581crypthashdata": 7537,
    "\u2581cryptcreatehash": 7538,
    "\u2581mfn": 7539,
    "ongle": 7540,
    "\u2581elvis": 7541,
    "\u25810x3810": 7542,
    "\u2581gender": 7543,
    "familiar": 7544,
    "\u25810x169bd": 7545,
    "\u25810x1211c94": 7546,
    "\u2581formality": 7547,
    "\u25810x76500000": 7548,
    "\u2581formalfamiliar": 7549,
    "27c": 7550,
    "\u25810xffd5": 7551,
    "7c4": 7552,
    "\u2581ar": 7553,
    "\u25810x4491": 7554,
    "\u25810x4f5320": 7555,
    "1dd": 7556,
    "bat": 7557,
    "ual": 7558,
    "abc0": 7559,
    "\u25810x46f": 7560,
    "\u2581memmove": 7561,
    "\u2581cryptdestroyhash": 7562,
    "f99": 7563,
    "luss": 7564,
    "\u25810x51a0": 7565,
    "fa1": 7566,
    "\u25810x447": 7567,
    "\u25810x2840284": 7568,
    "\u2581globalmemorystatusex": 7569,
    "a43": 7570,
    "a71": 7571,
    "e09": 7572,
    "\u25810x85c0": 7573,
    "\u258144": 7574,
    "\u25810x1fa": 7575,
    "\u25810x7f5": 7576,
    "\u25810x41ff": 7577,
    "menuitem": 7578,
    "hashparam": 7579,
    "uld": 7580,
    "7c58": 7581,
    "\u2581164633": 7582,
    "1b1": 7583,
    "371": 7584,
    "d35": 7585,
    "\u25810x6b4": 7586,
    "\u25810x1faf": 7587,
    "\u25810x8c20": 7588,
    "\u25810x4912d0": 7589,
    "747": 7590,
    "\u2581a7": 7591,
    "\u2581sqls": 7592,
    "\u25810x4195": 7593,
    "\u25810x431a": 7594,
    "\u25810x42a670": 7595,
    "a72": 7596,
    "bir": 7597,
    "ervr": 7598,
    "prov": 7599,
    "\u2581getexit": 7600,
    "\u2581getfull": 7601,
    "\u2581cryptgethashparam": 7602,
    "705": 7603,
    "visible": 7604,
    "\u25810x4a5c": 7605,
    "\u2581thebat": 7606,
    "\u2581sqlservr": 7607,
    "\u2581mydesktop": 7608,
    "etofiletime": 7609,
    "\u2581systemtimetofiletime": 7610,
    "735": 7611,
    "c43": 7612,
    "e9c": 7613,
    "f14": 7614,
    "\u25810x8a70": 7615,
    "\u25810x1001": 7616,
    "\u25810x6b00": 7617,
    "\u25810xa980": 7618,
    "afe": 7619,
    "dio": 7620,
    "\u258130": 7621,
    "\u25810xc2": 7622,
    "\u25810xa030": 7623,
    "ceb": 7624,
    "\u2581164629": 7625,
    "582": 7626,
    "\u2581ext": 7627,
    "\u25810x8770": 7628,
    "\u25810x89e0": 7629,
    "\u2581strcpy": 7630,
    "\u25810x6d006c": 7631,
    "\u25810x169b7f4": 7632,
    "a55": 7633,
    "a66": 7634,
    "d19": 7635,
    "\u25810x57c": 7636,
    "\u25810x970": 7637,
    "\u25810x9028": 7638,
    "\u25810x6f006e": 7639,
    "\u25810xa290": 7640,
    "\u25810x43b3c0": 7641,
    "\u25810x455480": 7642,
    "\u25810xfffff8": 7643,
    "\u2581dialogbox": 7644,
    "1f0": 7645,
    "aa1": 7646,
    "eb0": 7647,
    "3d3d": 7648,
    "\u2581for": 7649,
    "202020": 7650,
    "\u25810x439268": 7651,
    "\u25810x439280": 7652,
    "\u25810x710070": 7653,
    "\u25810x770076": 7654,
    "\u25810x790078": 7655,
    "\u25810x169bca4": 7656,
    "bb7": 7657,
    "\u25810x59c": 7658,
    "\u25810x9d30": 7659,
    "\u25810x690068": 7660,
    "\u25810x6b006a": 7661,
    "\u25810x714d98": 7662,
    "\u25810x730072": 7663,
    "\u25810x750074": 7664,
    "\u25810x7b007a": 7665,
    "\u25810x7d007c": 7666,
    "\u25810x7f007e": 7667,
    "\u25810xfeee00a1": 7668,
    "e98": 7669,
    "syd": 7670,
    "\u25810xbcf2": 7671,
    "windowshook": 7672,
    "219": 7673,
    "b47": 7674,
    "\u25810x455468": 7675,
    "\u25810x1211ec4": 7676,
    "\u25810xba": 7677,
    "\u25810xae20": 7678,
    "\u25810x419970": 7679,
    "\u25810x4bc298": 7680,
    "\u2581getsid": 7681,
    "\u25810x77b008": 7682,
    "\u25810x9f9000": 7683,
    "\u2581lstrcatw": 7684,
    "\u25810x3f75f7c": 7685,
    "\u25810xfeee00a2": 7686,
    "2f6": 7687,
    "d54": 7688,
    "\u25810x238": 7689,
    "\u25810x420fe8": 7690,
    "ba7": 7691,
    "\u25810x40ad": 7692,
    "d75": 7693,
    "fee": 7694,
    "fa10": 7695,
    "\u2581this": 7696,
    "\u25810xa3a2": 7697,
    "ae6": 7698,
    "b71": 7699,
    "aramet": 7700,
    "\u258116462": 7701,
    "\u25810x4014": 7702,
    "\u25810x41a9f0": 7703,
    "\u25810x4f6230": 7704,
    "\u2581stdio": 7705,
    "ba6": 7706,
    "\u2581std": 7707,
    "\u25810x584": 7708,
    "\u2581calloc": 7709,
    "\u2581winmain": 7710,
    "164": 7711,
    "7d6": 7712,
    "e1c": 7713,
    "52e8": 7714,
    "fileex": 7715,
    "\u25810x4529": 7716,
    "\u25810x42559f": 7717,
    "\u25810x4255a0": 7718,
    "\u25810x1211db4": 7719,
    "\u25810x3010301": 7720,
    "9a0": 7721,
    "27d5": 7722,
    "300c": 7723,
    "coll": 7724,
    "\u25810x53d": 7725,
    "\u25810xee": 7726,
    "\u2581shgetfileinfow": 7727,
    "aa2": 7728,
    "f47": 7729,
    "3ce": 7730,
    "\u2581mb": 7731,
    "\u25810x570": 7732,
    "\u25810x40b5": 7733,
    "\u25810x4a84": 7734,
    "e5c": 7735,
    "grap": 7736,
    "\u25810x9cf0": 7737,
    "\u25810x1210d90": 7738,
    "\u25810x1211788": 7739,
    "\u25810x77000723": 7740,
    "vec": 7741,
    "\u25810xffc0": 7742,
    "\u25810x3f75f84": 7743,
    "\u25810x4060": 7744,
    "installed": 7745,
    "\u25810xfeee00a3": 7746,
    "d81": 7747,
    "\u25810x3f75f8c": 7748,
    "\u25810x6c000": 7749,
    "\u25810x78eb08": 7750,
    "prog": 7751,
    "\u25810xfeee00a4": 7752,
    "\u25810xfeee00a5": 7753,
    "20e": 7754,
    "2e5": 7755,
    "756": 7756,
    "ae4": 7757,
    "22c0": 7758,
    "\u2581mei": 7759,
    "pass2": 7760,
    "\u2581getdl": 7761,
    "\u25810x4154": 7762,
    "\u25810x4603": 7763,
    "\u2581meipass2": 7764,
    "\u25810x169b834": 7765,
    "1ff": 7766,
    "648": 7767,
    "start": 7768,
    "\u25810x4055": 7769,
    "\u25810x92e0": 7770,
    "ataddress": 7771,
    "1c6": 7772,
    "eb5": 7773,
    "graphi": 7774,
    "qstring": 7775,
    "\u2581shgetspecialfoldera": 7776,
    "\u2581accessviolationataddress": 7777,
    "589": 7778,
    "bd6": 7779,
    "e75": 7780,
    "\u25810x41be": 7781,
    "\u25810x4226": 7782,
    "\u25810x8960": 7783,
    "\u25810x120ee": 7784,
    "112": 7785,
    "3d5": 7786,
    "7d4": 7787,
    "gis": 7788,
    "\u25810x40a92e": 7789,
    "\u25810x40a930": 7790,
    "\u25810x40a932": 7791,
    "\u25810x40a934": 7792,
    "\u25810x40a936": 7793,
    "\u25810x40a938": 7794,
    "\u25810x40a93a": 7795,
    "\u25810x40b888": 7796,
    "\u25810x4208a8": 7797,
    "\u25810x4208d8": 7798,
    "\u25810x571b48": 7799,
    "\u25810x1211e90": 7800,
    "15f": 7801,
    "5b2": 7802,
    "e24": 7803,
    "\u25810x1e0": 7804,
    "\u25810x4229c1": 7805,
    "\u25810x1211b38": 7806,
    "\u25810xfeee00a6": 7807,
    "3f5": 7808,
    "fail": 7809,
    "\u25810xf1": 7810,
    "767574": 7811,
    "\u25810x537": 7812,
    "\u25810x6ce": 7813,
    "\u25810x422790": 7814,
    "\u25810x77767574": 7815,
    "5bc": 7816,
    "db1": 7817,
    "f720": 7818,
    "7a7978": 7819,
    "\u25810x412d": 7820,
    "\u25810x4420": 7821,
    "\u25810x4bcc": 7822,
    "\u25810xd27d5": 7823,
    "\u25810x410acd": 7824,
    "\u25810x410ace": 7825,
    "\u25810x41e208": 7826,
    "\u25810x7b7a7978": 7827,
    "263": 7828,
    "\u25810x7fe": 7829,
    "session": 7830,
    "\u2581fastfail": 7831,
    "\u25810xffee": 7832,
    "\u25810x424530": 7833,
    "5b4": 7834,
    "7a4": 7835,
    "subauth": 7836,
    "\u25810x424500": 7837,
    "subauthority": 7838,
    "\u2581getsidsubauthority": 7839,
    "6f8": 7840,
    "9da": 7841,
    "progid": 7842,
    "\u25810x1810": 7843,
    "\u25810x4315f8": 7844,
    "\u25810x452868": 7845,
    "\u2581clsidfromprogid": 7846,
    "\u2581clsidfromstring": 7847,
    "734": 7848,
    "76c": 7849,
    "\u25810x4b0": 7850,
    "\u25810x42b778": 7851,
    "\u25810x1211f08": 7852,
    "635": 7853,
    "b32": 7854,
    "bce": 7855,
    "e31": 7856,
    "fde": 7857,
    "26160": 7858,
    "\u25810x41b9f0": 7859,
    "\u25810x429260": 7860,
    "\u25810x1211e68": 7861,
    "\u2581outputdebugstringw": 7862,
    "sto": 7863,
    "0064": 7864,
    "\u25810x6700": 7865,
    "ectex": 7866,
    "addatom": 7867,
    "\u25810xb4ec": 7868,
    "\u25810x1211684": 7869,
    "\u25810x1211c3c": 7870,
    "\u2581globaladdatom": 7871,
    "bb2": 7872,
    "dc4": 7873,
    "\u25810x7372": 7874,
    "\u25810x428000": 7875,
    "\u25810x12117e0": 7876,
    "\u25810x42cdf8": 7877,
    "\u25810x4bc328": 7878,
    "\u25810x4bc358": 7879,
    "\u25810x63626160": 7880,
    "\u25810x73727170": 7881,
    "\u2581fileexistsa": 7882,
    "sl": 7883,
    "2b7": 7884,
    "3da80": 7885,
    "provid": 7886,
    "\u25810x1010": 7887,
    "\u25810x40c7": 7888,
    "\u25810x4328": 7889,
    "\u25810x6766": 7890,
    "\u25810x1211e64": 7891,
    "618": 7892,
    "630": 7893,
    "930": 7894,
    "fb5": 7895,
    "lash": 7896,
    "\u25810x42d480": 7897,
    "closehandle": 7898,
    "6c8": 7899,
    "e34": 7900,
    "\u2581afx": 7901,
    "\u25810x67666564": 7902,
    "7d2": 7903,
    "f3e": 7904,
    "ture": 7905,
    "\u25810x9070": 7906,
    "\u25810x42d468": 7907,
    "\u25810x461548": 7908,
    "\u25810xfeee00a7": 7909,
    "77e": 7910,
    "3cf8": 7911,
    "a6968": 7912,
    "\u25810x4770": 7913,
    "\u25810x90c0": 7914,
    "\u25810x42d438": 7915,
    "\u25810xfeee00a8": 7916,
    "d15": 7917,
    "\u2581argc": 7918,
    "\u25810x4a1": 7919,
    "\u2581olerun": 7920,
    "\u25810x32000": 7921,
    "vieworgex": 7922,
    "\u25810x42d450": 7923,
    "\u25810x1210bd7": 7924,
    "\u25810x12116c0": 7925,
    "\u25810x6b6a6968": 7926,
    "14c8": 7927,
    "\u25810x1211c28": 7928,
    "a59": 7929,
    "b54": 7930,
    "bb5": 7931,
    "e6d6c": 7932,
    "\u25810x510": 7933,
    "\u25810x40df": 7934,
    "hg": 7935,
    "945": 7936,
    "a25": 7937,
    "\u25810x8ee0": 7938,
    "\u25810x1211da0": 7939,
    "\u25810xfeee00a9": 7940,
    "3f9": 7941,
    "f32": 7942,
    "\u25810x2b2": 7943,
    "\u25810x7f9": 7944,
    "gw": 7945,
    "1d8": 7946,
    "\u25810x44ea": 7947,
    "\u25810x433630": 7948,
    "\u25810x6f6e6d6c": 7949,
    "a3f": 7950,
    "7e7d7c": 7951,
    "\u25810x698": 7952,
    "\u25810x4034": 7953,
    "\u25810x40b9": 7954,
    "\u25810x4222": 7955,
    "\u25810x435408": 7956,
    "\u2581charprevw": 7957,
    "\u25810x7f7e7d7c": 7958,
    "\u25810x6300": 7959,
    "\u25810x7e50": 7960,
    "\u25810x44f850": 7961,
    "\u25810xfeee00aa": 7962,
    "\u25810xfeee00ae": 7963,
    "\u2581formatmessagew": 7964,
    "ddc": 7965,
    "ptr": 7966,
    "\u2581uh": 7967,
    "\u25810x423a": 7968,
    "\u25810x8ae0": 7969,
    "\u2581change": 7970,
    "\u25810x40a540": 7971,
    "\u25810x1211180": 7972,
    "\u25810xfeee00ac": 7973,
    "\u25810xfeee00bc": 7974,
    "ort": 7975,
    "\u25810x6a7": 7976,
    "\u25810x4261": 7977,
    "\u25810x4780": 7978,
    "\u25810x9980": 7979,
    "\u25810x4155a0": 7980,
    "\u25810xfeee00ab": 7981,
    "\u25810x42168c": 7982,
    "\u25810x44f868": 7983,
    "\u25810xfeee00ad": 7984,
    "\u2581om": 7985,
    "\u25810x8f10": 7986,
    "\u25810x42168b": 7987,
    "\u25810x430fec": 7988,
    "\u25810x44f8c8": 7989,
    "927": 7990,
    "935": 7991,
    "\u2581unlock": 7992,
    "\u25810x44f880": 7993,
    "\u25810x44f898": 7994,
    "\u25810x44f8b0": 7995,
    "\u25810x1211bf0": 7996,
    "\u25810x1211ca4": 7997,
    "\u25810xfeee017": 7998,
    "0050": 7999,
    "\u25810x40a544": 8000,
    "\u25810x430db0": 8001,
    "\u25810x44f8f8": 8002,
    "\u25810x44f940": 8003,
    "\u25810x44f958": 8004,
    "\u25810x44f970": 8005,
    "\u25810x44f988": 8006,
    "70f": 8007,
    "\u25810x8e70": 8008,
    "\u25810x40a53a": 8009,
    "\u25810x40a53c": 8010,
    "\u25810x40a53e": 8011,
    "\u25810x40a542": 8012,
    "\u25810x1211c44": 8013,
    "\u2581getsidsubauthoritycount": 8014,
    "265": 8015,
    "2c1": 8016,
    "b45": 8017,
    "ebd": 8018,
    "\u25810x40a546": 8019,
    "\u25810x41e93e": 8020,
    "\u25810x41ebfa": 8021,
    "\u25810x41ebfb": 8022,
    "3b2": 8023,
    "cod": 8024,
    "\u25810xc9": 8025,
    "\u25810x41c6": 8026,
    "\u2581winapp": 8027,
    "389": 8028,
    "6f0": 8029,
    "b1c": 8030,
    "b37": 8031,
    "e30": 8032,
    "\u25810xd6": 8033,
    "\u25810x47b1": 8034,
    "774": 8035,
    "7f9": 8036,
    "\u25810x630062": 8037,
    "\u25810x650064": 8038,
    "\u25810x670066": 8039,
    "d12": 8040,
    "tore": 8041,
    "\u25810x5619": 8042,
    "\u25810xff50": 8043,
    "\u25810x418210": 8044,
    "\u25810x610060": 8045,
    "\u25810x7ee000": 8046,
    "7fc": 8047,
    "bca": 8048,
    "ee98": 8049,
    "rypto": 8050,
    "\u25810x512": 8051,
    "graphic": 8052,
    "\u25810xf003f": 8053,
    "\u25810x422964": 8054,
    "\u25810x7f8002": 8055,
    "\u25810xfeee018": 8056,
    "e18": 8057,
    "dbef0": 8058,
    "\u25810x1814": 8059,
    "\u25810x4649": 8060,
    "\u25810x4093e4": 8061,
    "\u25810x44e4b8": 8062,
    "\u25810x11dbed4": 8063,
    "\u25810x11dbef0": 8064,
    "\u25810x11dbf48": 8065,
    "\u25810x1211c5c": 8066,
    "\u2581isvalidsid": 8067,
    "\u2581loadbitmap": 8068,
    "3dd": 8069,
    "5400": 8070,
    "\u25810x824": 8071,
    "\u25810x4235": 8072,
    "\u25810xa3a6": 8073,
    "dp": 8074,
    "2d6": 8075,
    "9a4": 8076,
    "b15": 8077,
    "ea4": 8078,
    "f27": 8079,
    "\u25810x4444": 8080,
    "\u25810x7f8010": 8081,
    "\u2581getsystemdefault": 8082,
    "2be": 8083,
    "7b5": 8084,
    "e81": 8085,
    "69d": 8086,
    "bde": 8087,
    "\u25810x40f660": 8088,
    "\u25810x4228e1": 8089,
    "\u25810x431068": 8090,
    "apture": 8091,
    "\u25810x4210": 8092,
    "fff": 8093,
    "\u25810x240": 8094,
    "\u25810x422980": 8095,
    "systemtime": 8096,
    "\u25810xfeee00af": 8097,
    "915": 8098,
    "bab": 8099,
    "\u2581ff": 8100,
    "erv1": 8101,
    "hell": 8102,
    "\u2581group": 8103,
    "\u25810x42ce24": 8104,
    "\u25810x436408": 8105,
    "providerv1": 8106,
    "\u25810x5265c64": 8107,
    "\u2581localfilet": 8108,
    "ryptographic": 8109,
    "ryptographicproviderv1": 8110,
    "\u2581localfiletimetofiletime": 8111,
    "5c5": 8112,
    "secor": 8113,
    "textou": 8114,
    "\u25810x426d": 8115,
    "\u2581omsecor": 8116,
    "\u25810x423cf0": 8117,
    "132": 8118,
    "\u25810x604": 8119,
    "\u25810xa424": 8120,
    "\u25810x42286e": 8121,
    "\u25810x42286f": 8122,
    "\u25810x4228e2": 8123,
    "\u25810x422963": 8124,
    "\u25810x42297f": 8125,
    "\u25810x4229c2": 8126,
    "\u25810x4229fa": 8127,
    "\u25810x4229fb": 8128,
    "\u25810x422a0d": 8129,
    "\u25810x422a0e": 8130,
    "\u25810x42329e": 8131,
    "\u25810x42329f": 8132,
    "\u25810x4233fc": 8133,
    "\u25810x423cef": 8134,
    "\u25810xfeee00b0": 8135,
    "\u25810xfeee00b1": 8136,
    "21c": 8137,
    "\u2581ie": 8138,
    "3e3d": 8139,
    "ualfox": 8140,
    "\u25810x515": 8141,
    "\u25810x684": 8142,
    "\u25810x42db": 8143,
    "\u25810x4720": 8144,
    "\u25810x7dc2": 8145,
    "\u2581movefilew": 8146,
    "f55": 8147,
    "\u2581437": 8148,
    "marta": 8149,
    "\u2581ntmarta": 8150,
    "\u258120220304": 8151,
    "266": 8152,
    "2e7": 8153,
    "ookup": 8154,
    "\u25810x2d4dd": 8155,
    "\u2581pleasec": 8156,
    "\u25810x42cdfc": 8157,
    "003": 8158,
    "3b1": 8159,
    "67f": 8160,
    "eatom": 8161,
    "\u25810x4033": 8162,
    "\u25810x4a75": 8163,
    "\u25810x416bc8": 8164,
    "\u25810x428030": 8165,
    "\u25810x4fecb0": 8166,
    "\u25810x60fa10": 8167,
    "deleteatom": 8168,
    "\u25810x1211d3c": 8169,
    "\u2581globaldeleteatom": 8170,
    "\u2581setcurrentdirectoryw": 8171,
    "e667": 8172,
    "\u25810x1824": 8173,
    "\u25810x7e51": 8174,
    "\u25810x120f6": 8175,
    "\u25810x429903": 8176,
    "\u25810x4922c0": 8177,
    "\u25810x4feb14": 8178,
    "\u25810x4feb78": 8179,
    "\u25810x4feb90": 8180,
    "\u2581getsystemwindows": 8181,
    "9fc": 8182,
    "hide": 8183,
    "\u25810x40e0": 8184,
    "\u2581lookup": 8185,
    "\u25810x429902": 8186,
    "\u25810x42990c": 8187,
    "\u25810x42990d": 8188,
    "\u25810x429921": 8189,
    "\u25810x42d360": 8190,
    "\u25810x42d378": 8191,
    "\u25810x4febc0": 8192,
    "\u25810x4fec08": 8193,
    "\u25810x4fec38": 8194,
    "\u25810x4fec50": 8195,
    "\u25810x4fec68": 8196,
    "\u2581internetclosehandle": 8197,
    "\u2581oem": 8198,
    "\u25810x44c": 8199,
    "already": 8200,
    "\u25810x4314": 8201,
    "\u2581myarg1": 8202,
    "\u25810x42992a": 8203,
    "\u25810x42992b": 8204,
    "\u25810x42d3f0": 8205,
    "\u25810x4fec80": 8206,
    "\u25810x4fec98": 8207,
    "3a1": 8208,
    "really": 8209,
    "avebeen": 8210,
    "\u25810x416bf8": 8211,
    "\u25810x42d3a8": 8212,
    "\u25810x431e28": 8213,
    "\u25810x4acbc0": 8214,
    "\u25810x1211d50": 8215,
    "\u2581openanexploreron": 8216,
    "ebc": 8217,
    "tem32": 8218,
    "\u25810x27d": 8219,
    "\u25810x44e9": 8220,
    "\u25810x5220": 8221,
    "\u2581stem32": 8222,
    "\u25810x1211f58": 8223,
    "\u25810xfeee00b3": 8224,
    "\u2581getsystemwindowsdirectoryw": 8225,
    "714": 8226,
    "e11": 8227,
    "5655": 8228,
    "\u25810x41d5": 8229,
    "\u2581network": 8230,
    "\u25810xfeee00b2": 8231,
    "\u25810xfeee00b4": 8232,
    "ds": 8233,
    "ahk": 8234,
    "our": 8235,
    "ilser": 8236,
    "sgdwh": 8237,
    "\u2581boahk": 8238,
    "sgdwhsyd": 8239,
    "\u2581boahkilser": 8240,
    "\u2581gdsgdwhsyd": 8241,
    "\u25810x43b5": 8242,
    "\u25810x4814": 8243,
    "\u25810x1211fe4": 8244,
    "\u2581dispatchmessagew": 8245,
    "\u2581vie": 8246,
    "\u25810x4640": 8247,
    "\u25810xb4eb": 8248,
    "\u25810xddf1": 8249,
    "\u25810xfeee00b5": 8250,
    "3a6": 8251,
    "e35": 8252,
    "\u25810x40b1": 8253,
    "\u25810x8028": 8254,
    "addresses": 8255,
    "\u25810x412850": 8256,
    "254": 8257,
    "\u2581class": 8258,
    "\u25810x431a50": 8259,
    "d61": 8260,
    "69c0": 8261,
    "trace": 8262,
    "\u25810x1818": 8263,
    "\u2581getadaptersaddresses": 8264,
    "\u2581registerclipboardformatw": 8265,
    "7b9": 8266,
    "3130": 8267,
    "\u2581evie": 8268,
[...]
