{
    "<pad>": 0,
    "<unk>": 1,
    "<mask>": 2,
    "\u25810": 3,
    "\u25810x": 4,
    "00": 5,
    "er": 6,
    "ne": 7,
    "32": 8,
    "\u2581k": 9,
    "l32": 10,
    "erne": 11,
    "ernel32": 12,
    "\u2581kernel32": 13,
    "\u25810x0": 14,
    "\u25810x1": 15,
    "et": 16,
    "ad": 17,
    "get": 18,
    "ee": 19,
    "al": 20,
    "ti": 21,
    "000": 22,
    "\u25810x4": 23,
    "\u25810x7": 24,
    "re": 25,
    "\u2581get": 26,
    "ec": 27,
    "in": 28,
    "\u25810xf": 29,
    "0000": 30,
    "oc": 31,
    "\u25810x77": 32,
    "iti": 33,
    "eee": 34,
    "\u25810xfeee": 35,
    "st": 36,
    "ss": 37,
    "pr": 38,
    "on": 39,
    "proc": 40,
    "one": 41,
    "le": 42,
    "\u2581getproc": 43,
    "add": 44,
    "ress": 45,
    "address": 46,
    "\u2581getprocaddress": 47,
    "sec": 48,
    "cal": 49,
    "en": 50,
    "secti": 51,
    "riti": 52,
    "ritical": 53,
    "riticalsecti": 54,
    "ue": 55,
    "read": 56,
    "is": 57,
    "tr": 58,
    "\u25810x1000": 59,
    "\u2581is": 60,
    "000000": 61,
    "\u2581n": 62,
    "ter": 63,
    "\u25810x12": 64,
    "\u25810x2": 65,
    "\u2581none": 66,
    "readp": 67,
    "loc": 68,
    "\u2581in": 69,
    "bad": 70,
    "\u25810x77000000": 71,
    "\u2581isbad": 72,
    "us": 73,
    "readptr": 74,
    "\u2581isbadreadptr": 75,
    "11": 76,
    "val": 77,
    "ecriticalsecti": 78,
    "ap": 79,
    "\u25810xfeee00": 80,
    "ls": 81,
    "co": 82,
    "de": 83,
    "value": 84,
    "or": 85,
    "getvalue": 86,
    "lsgetvalue": 87,
    "ff": 88,
    "\u25810xfeee000": 89,
    "\u2581s": 90,
    "\u25810x1211": 91,
    "ar": 92,
    "\u25810x46": 93,
    "an": 94,
    "user": 95,
    "\u2581user": 96,
    "48": 97,
    "\u2581user32": 98,
    "43": 99,
    "a0": 100,
    "he": 101,
    "f0": 102,
    "\u25810x8": 103,
    "iz": 104,
    "aliz": 105,
    "\u2581en": 106,
    "\u2581f": 107,
    "itializ": 108,
    "\u2581c": 109,
    "at": 110,
    "\u2581initializ": 111,
    "948": 112,
    "heap": 113,
    "\u2581initializecriticalsecti": 114,
    "\u25810x243": 115,
    "\u25810x243948": 116,
    "la": 117,
    "\u2581heap": 118,
    "dec": 119,
    "err": 120,
    "po": 121,
    "error": 122,
    "poin": 123,
    "alloc": 124,
    "\u2581t": 125,
    "last": 126,
    "\u2581l": 127,
    "lasterror": 128,
    "pointer": 129,
    "\u25810xfa0": 130,
    "depointer": 131,
    "str": 132,
    "and": 133,
    "\u25810x770": 134,
    "\u2581m": 135,
    "inf": 136,
    "10": 137,
    "\u25810x5": 138,
    "ow": 139,
    "d0": 140,
    "90": 141,
    "\u25810xfeee0001": 142,
    "\u2581tlsgetvalue": 143,
    "ex": 144,
    "\u2581set": 145,
    "ing": 146,
    "onex": 147,
    "har": 148,
    "lea": 149,
    "00000": 150,
    "\u25810x100": 151,
    "\u25810x40": 152,
    "string": 153,
    "em": 154,
    "nt": 155,
    "\u2581heapalloc": 156,
    "\u2581initializecriticalsectionex": 157,
    "\u2581flsgetvalue": 158,
    "\u2581w": 159,
    "ac": 160,
    "ent": 161,
    "li": 162,
    "\u2581d": 163,
    "it": 164,
    "oad": 165,
    "ab": 166,
    "\u25810x10": 167,
    "\u2581load": 168,
    "\u25810x42": 169,
    "fi": 170,
    "\u25810x771": 171,
    "info": 172,
    "\u2581enco": 173,
    "\u2581encodepointer": 174,
    "\u2581getc": 175,
    "\u25810x46d0": 176,
    "ecriticalsection": 177,
    "\u25810x3": 178,
    "\u25810x41": 179,
    "leav": 180,
    "\u2581leav": 181,
    "\u2581leavecriticalsection": 182,
    "\u2581enter": 183,
    "criticalsecti": 184,
    "criticalsection": 185,
    "\u2581entercriticalsection": 186,
    "local": 187,
    "\u25810x45": 188,
    "mp": 189,
    "\u25810xc": 190,
    "rt": 191,
    "\u2581getlasterror": 192,
    "e4": 193,
    "by": 194,
    "let": 195,
    "tion": 196,
    "\u2581setlasterror": 197,
    "om": 198,
    "hand": 199,
    "byt": 200,
    "ed": 201,
    "ess": 202,
    "\u25810x43": 203,
    "ffff": 204,
    "unt": 205,
    "40": 206,
    "\u25810x400000": 207,
    "count": 208,
    "xt": 209,
    "ind": 210,
    "\u2581initializecriticalsection": 211,
    "next": 212,
    "ul": 213,
    "f8": 214,
    "\u25810x45f0": 215,
    "vi": 216,
    "\u25810x4e4": 217,
    "10000": 218,
    "locale": 219,
    "\u2581char": 220,
    "pinfo": 221,
    "\u2581charnext": 222,
    "ur": 223,
    "\u25810x78": 224,
    "\u25810x6": 225,
    "exw": 226,
    "mo": 227,
    "\u2581loadstring": 228,
    "ll": 229,
    "ion": 230,
    "c0": 231,
    "\u2581getcpinfo": 232,
    "\u2581dec": 233,
    "indow": 234,
    "20": 235,
    "a5": 236,
    "ulti": 237,
    "\u25810xfeee001": 238,
    "idec": 239,
    "ultibyt": 240,
    "idechar": 241,
    "du": 242,
    "\u2581deco": 243,
    "\u2581decodepointer": 244,
    "70": 245,
    "handle": 246,
    "yst": 247,
    "ystem": 248,
    "30": 249,
    "file": 250,
    "dule": 251,
    "\u25810x46f0": 252,
    "module": 253,
    "ment": 254,
    "78": 255,
    "\u2581getmodule": 256,
    "50": 257,
    "sp": 258,
    "op": 259,
    "reat": 260,
    "\u2581ms": 261,
    "\u25810xc000": 262,
    "able": 263,
    "comp": 264,
    "me": 265,
    "spin": 266,
    "spincount": 267,
    "andspincount": 268,
    "\u2581initializecriticalsectionandspincount": 269,
    "\u25810x7e": 270,
    "\u2581getlocale": 271,
    "\u25810xff": 272,
    "stat": 273,
    "\u2581init": 274,
    "ans": 275,
    "\u2581creat": 276,
    "b0": 277,
    "\u25810x1211f": 278,
    "\u25810x7d": 279,
    "trans": 280,
    "process": 281,
    "\u2581dll": 282,
    "status": 283,
    "fr": 284,
    "bc": 285,
    "atom": 286,
    "lient": 287,
    "\u2581getcpinfoexw": 288,
    "\u25810x243948c": 289,
    "que": 290,
    "action": 291,
    "table": 292,
    "queue": 293,
    "letion": 294,
    "dcomp": 295,
    "queuedcomp": 296,
    "letionstatus": 297,
    "queuedcompletionstatus": 298,
    "\u2581ddec": 299,
    "\u2581getqueuedcompletionstatus": 300,
    "transaction": 301,
    "\u2581ddeclient": 302,
    "\u2581ddeclienttransaction": 303,
    "atomtable": 304,
    "\u25810x2439480": 305,
    "\u25810x2439484": 306,
    "\u25810x2439488": 307,
    "\u2581initatomtable": 308,
    "e0": 309,
    "18": 310,
    "98": 311,
    "vc": 312,
    "id": 313,
    "indows": 314,
    "28": 315,
    "yp": 316,
    "lock": 317,
    "\u2581msvc": 318,
    "\u2581windows": 319,
    "\u2581msvcrt": 320,
    "d10000": 321,
    "\u25810x77d10000": 322,
    "\u25810x10c": 323,
    "ce": 324,
    "d8": 325,
    "93": 326,
    "60": 327,
    "\u25810x1211c": 328,
    "\u25810x40a5": 329,
    "rent": 330,
    "urrent": 331,
    "ge": 332,
    "\u25810xf00": 333,
    "c4": 334,
    "br": 335,
    "\u2581inter": 336,
    "\u25810xfffff": 337,
    "\u25810x4690": 338,
    "free": 339,
    "ary": 340,
    "\u25810xfffffff": 341,
    "\u2581interlock": 342,
    "\u25810x1210": 343,
    "\u2581interlocked": 344,
    "\u2581charnextw": 345,
    "\u2581multibyt": 346,
    "etow": 347,
    "etowidechar": 348,
    "\u2581multibytetowidechar": 349,
    "ey": 350,
    "rement": 351,
    "brary": 352,
    "26": 353,
    "age": 354,
    "38": 355,
    "\u25810x88": 356,
    "\u2581getst": 357,
    "lo": 358,
    "th": 359,
    "58": 360,
    "infow": 361,
    "ual": 362,
    "virt": 363,
    "\u2581system": 364,
    "virtual": 365,
    "\u2581loadstringw": 366,
    "map": 367,
    "\u2581system32": 368,
    "un": 369,
    "\u25810x9": 370,
    "cmp": 371,
    "a8": 372,
    "64": 373,
    "cc": 374,
    "b8": 375,
    "\u2581create": 376,
    "68": 377,
    "\u25810x90": 378,
    "hi": 379,
    "\u2581p": 380,
    "ype": 381,
    "\u2581getcurrent": 382,
    "key": 383,
    "library": 384,
    "def": 385,
    "var": 386,
    "ol": 387,
    "\u2581virtual": 388,
    "34": 389,
    "ut": 390,
    "d4": 391,
    "\u2581charnexta": 392,
    "\u2581mem": 393,
    "7c": 394,
    "\u2581loadstringa": 395,
    "\u2581lc": 396,
    "\u2581re": 397,
    "\u2581lcmap": 398,
    "\u2581lcmapstring": 399,
    "di": 400,
    "filet": 401,
    "\u2581g": 402,
    "14": 403,
    "open": 404,
    "\u2581heapfree": 405,
    "\u2581memcmp": 406,
    "ame": 407,
    "\u25810x41f0": 408,
    "qu": 409,
    "\u25810x41f040": 410,
    "rst": 411,
    "\u2581getlocaleinfow": 412,
    "\u2581getlocaleinfo": 413,
    "ers": 414,
    "\u25810xfeee002": 415,
    "56": 416,
    "\u25810x44": 417,
    "\u2581loadlibrary": 418,
    "thread": 419,
    "1000": 420,
    "api": 421,
    "\u25810x4093": 422,
    "94": 423,
    "\u2581getti": 424,
    "rit": 425,
    "12": 426,
    "\u25810x70": 427,
    "inc": 428,
    "rite": 429,
    "\u25810x5f8": 430,
    "\u25810x5f800000": 431,
    "increment": 432,
    "\u2581interlockedincrement": 433,
    "c8": 434,
    "so": 435,
    "handlew": 436,
    "\u25810x78000000": 437,
    "69": 438,
    "orm": 439,
    "\u2581getlocaleinfoa": 440,
    "e8": 441,
    "system": 442,
    "\u2581getmodulehandlew": 443,
    "\u25810x7ec": 444,
    "\u25810x3f": 445,
    "ck": 446,
    "sle": 447,
    "wa": 448,
    "\u2581ex": 449,
    "tom": 450,
    "ultibyte": 451,
    "\u2581widechar": 452,
    "tomultibyte": 453,
    "\u2581widechartomultibyte": 454,
    "dbc": 455,
    "vw": 456,
    "ckcount": 457,
    "\u2581gettickcount": 458,
    "a4": 459,
    "ct": 460,
    "\u25810x12117": 461,
    "abc": 462,
    "name": 463,
    "\u25810x47": 464,
    "lm": 465,
    "ic": 466,
    "mm": 467,
    "xy": 468,
    "xyz": 469,
    "ghi": 470,
    "klm": 471,
    "nop": 472,
    "\u2581abc": 473,
    "uvw": 474,
    "qrst": 475,
    "uvwxyz": 476,
    "nopqrst": 477,
    "defghi": 478,
    "nopqrstuvwxyz": 479,
    "\u2581abcdefghi": 480,
    "klmnopqrstuvwxyz": 481,
    "quer": 482,
    "\u25810xfeee005": 483,
    "\u25810xfeee004": 484,
    "a000": 485,
    "adbyt": 486,
    "dbcsle": 487,
    "\u2581isdbcsle": 488,
    "\u2581isdbcsleadbyt": 489,
    "\u25810xfeee008": 490,
    "\u2581isdbcsleadbyte": 491,
    "\u25810x18": 492,
    "\u25810xffffffff": 493,
    "\u2581reg": 494,
    "5000": 495,
    "\u25810x20": 496,
    "ool": 497,
    "\u25810x526": 498,
    "71": 499,
    "74": 500,
    "\u2581read": 501,
    "art": 502,
    "3000": 503,
    "\u2581getsystem": 504,
    "b000": 505,
    "ch": 506,
    "up": 507,
    "\u25810xfeee003": 508,
    "\u2581var": 509,
    "emp": 510,
    "\u2581getfilet": 511,
    "dc": 512,
    "\u2581getfiletype": 513,
    "2000": 514,
    "rect": 515,
    "66": 516,
    "es": 517,
    "e5": 518,
    "dhandle": 519,
    "2c": 520,
    "7000": 521,
    "of": 522,
    "9000": 523,
    "f000": 524,
    "\u25810x79": 525,
    "f4": 526,
    "\u2581getstdhandle": 527,
    "7b": 528,
    "ron": 529,
    "\u25810x1211d": 530,
    "\u25810x200": 531,
    "\u25810x7de": 532,
    "los": 533,
    "75": 534,
    "9c": 535,
    "viron": 536,
    "vers": 537,
    "\u25810x1211e": 538,
    "d000": 539,
    "vironment": 540,
    "\u2581getmodulehand": 541,
    "\u25810x12119": 542,
    "\u25810x4c4": 543,
    "da": 544,
    "sset": 545,
    "\u2581getmodulehandlea": 546,
    "\u25810x400": 547,
    "\u25810xcd": 548,
    "fc": 549,
    "e6": 550,
    "\u2581h": 551,
    "\u2581local": 552,
    "5c": 553,
    "\u2581co": 554,
    "e000": 555,
    "\u25810xfeee006": 556,
    "\u25810x78c": 557,
    "\u25810x4c": 558,
    "\u25810x78c00000": 559,
    "b4": 560,
    "e10000": 561,
    "\u25810x77e10000": 562,
    "\u25810xfeee0004": 563,
    "lsset": 564,
    "lssetvalue": 565,
    "\u2581fls": 566,
    "rector": 567,
    "readpool": 568,
    "91": 569,
    "\u25810x4c42": 570,
    "filename": 571,
    "\u2581open": 572,
    "\u25810xf001": 573,
    "\u2581a": 574,
    "ect": 575,
    "fe": 576,
    "valid": 577,
    "strings": 578,
    "24": 579,
    "\u2581fr": 580,
    "\u2581b": 581,
    "\u2581ap": 582,
    "\u25810x54": 583,
    "6000": 584,
    "1c": 585,
    "\u2581getmodulefilename": 586,
    "\u25810x4610": 587,
    "\u2581lcmapstringex": 588,
    "eco": 589,
    "\u25811": 590,
    "form": 591,
    "\u25810x800": 592,
    "f3": 593,
    "\u25810xfeee0002": 594,
    "\u25810xa": 595,
    "\u2581temp": 596,
    "\u25810x104": 597,
    "\u25810x1c": 598,
    "\u2581getcurrentthread": 599,
    "\u2581ad": 600,
    "comm": 601,
    "\u2581getstart": 602,
    "window": 603,
    "ab0": 604,
    "\u25810xfeee0000": 605,
    "line": 606,
    "54": 607,
    "\u2581se": 608,
    "api32": 609,
    "andline": 610,
    "\u2581adv": 611,
    "\u2581advapi32": 612,
    "\u2581getcurrentthreadid": 613,
    "write": 614,
    "vironmentstrings": 615,
    "\u2581getcomm": 616,
    "\u2581getcommandline": 617,
    "iv": 618,
    "\u25810x80": 619,
    "\u25810x7c": 620,
    "eex": 621,
    "\u25810x7d90": 622,
    "\u2581clos": 623,
    "eth": 624,
    "res": 625,
    "\u25810x7e70": 626,
    "\u25810x48": 627,
    "\u2581loadlibrarya": 628,
    "\u2581virtualalloc": 629,
    "ation": 630,
    "decrement": 631,
    "\u2581interlockeddecrement": 632,
    "7a": 633,
    "\u2581lcmapstringw": 634,
    "ware": 635,
    "\u2581apis": 636,
    "\u2581flssetvalue": 637,
    "rectory": 638,
    "3c": 639,
    "oft": 640,
    "\u25810xfeee0003": 641,
    "\u2581hkey": 642,
    "oftware": 643,
    "vironmentstringsw": 644,
    "\u2581software": 645,
    "processor": 646,
    "\u2581flsalloc": 647,
    "\u25810x8c": 648,
    "\u25810x8810": 649,
    "96": 650,
    "\u2581de": 651,
    "db": 652,
    "time": 653,
    "f1": 654,
    "\u2581getvers": 655,
    "as": 656,
    "f5": 657,
    "essage": 658,
    "\u25810xf003": 659,
    "query": 660,
    "\u25810xf002": 661,
    "dll": 662,
    "\u2581page": 663,
    "ad0": 664,
    "\u25810xfeee0005": 665,
    "6c": 666,
    "cep": 667,
    "\u25810xfeee007": 668,
    "789": 669,
    "80": 670,
    "\u2581lstr": 671,
    "\u2581readwrite": 672,
    "aa": 673,
    "15": 674,
    "\u25810xfff": 675,
    "um": 676,
    "arch": 677,
    "filew": 678,
    "ate": 679,
    "b9": 680,
    "list": 681,
    "dr": 682,
    "\u25810x7ec0": 683,
    "1234": 684,
    "a9": 685,
    "56789": 686,
    "\u258101234": 687,
    "\u25810123456789": 688,
    "\u2581current": 689,
    "\u2581find": 690,
    "\u25810x1211c98": 691,
    "\u25810x7700": 692,
    "onso": 693,
    "tin": 694,
    "exa": 695,
    "a2": 696,
    "\u25810x4378": 697,
    "locales": 698,
    "ob": 699,
    "f6": 700,
    "\u2581x": 701,
    "\u25810x42c": 702,
    "int": 703,
    "onsole": 704,
    "\u2581getprocess": 705,
    "vari": 706,
    "\u25810x14": 707,
    "08": 708,
    "\u25810x1210e": 709,
    "a6": 710,
    "ai": 711,
    "ception": 712,
    "\u2581virtualquery": 713,
    "\u25810x7708": 714,
    "\u25810x7711": 715,
    "\u25810x7718": 716,
    "tim": 717,
    "\u2581geten": 718,
    "ack": 719,
    "\u2581gdi": 720,
    "ive": 721,
    "a1": 722,
    "508": 723,
    "\u2581localalloc": 724,
    "\u2581write": 725,
    "\u25810x120": 726,
    "\u2581getcurrentprocess": 727,
    "ot": 728,
    "bo": 729,
    "f9": 730,
    "message": 731,
    "\u2581win": 732,
    "timer": 733,
    "yper": 734,
    "d2": 735,
    "forman": 736,
    "\u2581quer": 737,
    "yperforman": 738,
    "\u2581queryperforman": 739,
    "pres": 740,
    "present": 741,
    "\u2581getprocessheap": 742,
    "ction": 743,
    "\u25810x70cc": 744,
    "\u25810x7710": 745,
    "b2": 746,
    "\u2581gdi32": 747,
    "ethreadpool": 748,
    "\u2581search": 749,
    "type": 750,
    "d5": 751,
    "76": 752,
    "unter": 753,
    "d6": 754,
    "36": 755,
    "\u25810xfeee0006": 756,
    "19": 757,
    "ceco": 758,
    "cecounter": 759,
    "\u2581queryperformancecounter": 760,
    "\u2581loadlibraryexw": 761,
    "\u25810x56": 762,
    "ure": 763,
    "from": 764,
    "\u25812": 765,
    "\u25810x8000": 766,
    "dex": 767,
    "\u25810x1211c18": 768,
    "\u25810x7b": 769,
    "\u25810x12115": 770,
    "\u2581nt": 771,
    "\u2581sl": 772,
    "a3": 773,
    "ime": 774,
    "\u2581ws": 775,
    "\u2581l1": 776,
    "44": 777,
    "eep": 778,
    "ble": 779,
    "eb": 780,
    "\u2581sleep": 781,
    "directory": 782,
    "4c": 783,
    "\u25810x430": 784,
    "\u2581getstring": 785,
    "\u25810x4ab0": 786,
    "\u2581getstringtype": 787,
    "\u25810x7000": 788,
    "b5": 789,
    "\u2581fi": 790,
    "icon": 791,
    "filetime": 792,
    "79": 793,
    "\u2581api": 794,
    "ature": 795,
    "feature": 796,
    "\u2581isprocessor": 797,
    "featurepresent": 798,
    "\u2581isprocessorfeaturepresent": 799,
    "\u2581locales": 800,
    "ecut": 801,
    "\u25810x420": 802,
    "\u25810x7ee": 803,
    "\u2581getconsole": 804,
    "\u25810x9000": 805,
    "\u25810x7890": 806,
    "\u2581getsystemtime": 807,
    "ting": 808,
    "88": 809,
    "\u25810x4c42c0": 810,
    "\u2581regopen": 811,
    "\u2581regopenkey": 812,
    "dd": 813,
    "\u25810x102": 814,
    "ock": 815,
    "\u2581getstringtypew": 816,
    "\u25810x73": 817,
    "\u25810x7717": 818,
    "\u25810x7707": 819,
    "\u25810x770b": 820,
    "\u25810x771b": 821,
    "\u25810x43b": 822,
    "\u25810x4670": 823,
    "fil": 824,
    "\u25810x7de0": 825,
    "\u25810xfeee009": 826,
    "\u2581li": 827,
    "lob": 828,
    "inform": 829,
    "upinfow": 830,
    "\u2581getstartupinfow": 831,
    "f2": 832,
    "\u2581glob": 833,
    "73": 834,
    "sour": 835,
    "\u25810xfeee0007": 836,
    "asfiletime": 837,
    "\u25810x8ad0": 838,
    "information": 839,
    "hel": 840,
    "\u2581sh": 841,
    "16": 842,
    "processlist": 843,
    "\u2581getconsoleprocesslist": 844,
    "55": 845,
    "\u2581getac": 846,
    "b3": 847,
    "\u2581o": 848,
    "\u25810x7f": 849,
    "\u2581dr": 850,
    "ant": 851,
    "\u2581getmodulefilenamew": 852,
    "\u2581getacp": 853,
    "source": 854,
    "e2": 855,
    "\u25810x7704": 856,
    "\u25810x770c": 857,
    "\u25810x7702": 858,
    "\u25810x7714": 859,
    "\u25810x7703": 860,
    "\u25810x7705": 861,
    "\u25810x7709": 862,
    "\u25810x770d": 863,
    "\u25810x770f": 864,
    "\u25810x7712": 865,
    "\u25810x7713": 866,
    "\u25810x7715": 867,
    "\u25810x7719": 868,
    "72": 869,
    "ecute": 870,
    "\u2581getcommandlinea": 871,
    "\u25810x69": 872,
    "dexception": 873,
    "eexw": 874,
    "filter": 875,
    "unhandle": 876,
    "dexceptionfilter": 877,
    "unhandledexceptionfilter": 878,
    "\u2581delet": 879,
    "\u2581core": 880,
    "\u2581getsystemtimeasfiletime": 881,
    "len": 882,
    "\u25810x42e5": 883,
    "af": 884,
    "\u2581pf": 885,
    "\u2581invalid": 886,
    "\u2581regi": 887,
    "\u2581setfile": 888,
    "py": 889,
    "\u2581getmodulefilenamea": 890,
    "bd": 891,
    "filea": 892,
    "7e": 893,
    "b1": 894,
    "stru": 895,
    "\u25810x71": 896,
    "gu": 897,
    "code": 898,
    "print": 899,
    "\u2581isvalid": 900,
    "struction": 901,
    "\u25810xfeee0": 902,
    "bf": 903,
    "7d": 904,
    "\u25810x7e71": 905,
    "35": 906,
    "ervi": 907,
    "be": 908,
    "\u25810x7706": 909,
    "\u25810x7716": 910,
    "threadpool": 911,
    "b6": 912,
    "\u2581getcurrentprocessid": 913,
    "ber": 914,
    "messagea": 915,
    "\u25810x5266": 916,
    "printf": 917,
    "con": 918,
    "\u2581ac": 919,
    "wait": 920,
    "ult": 921,
    "lus": 922,
    "\u2581close": 923,
    "\u25810x76": 924,
    "f10000": 925,
    "\u2581free": 926,
    "a40": 927,
    "\u25810xe": 928,
    "39": 929,
    "\u2581library": 930,
    "eeen": 931,
    "\u2581freeen": 932,
    "\u2581closehandle": 933,
    "defa": 934,
    "\u25810x77f10000": 935,
    "default": 936,
    "ionex": 937,
    "\u2581getversionex": 938,
    "\u25810xd": 939,
    "\u25810x7d91": 940,
    "\u25810x1211e0": 941,
    "tri": 942,
    "\u2581setunhandledexceptionfilter": 943,
    "\u2581lstrlen": 944,
    "\u25810x7ed": 945,
    "vai": 946,
    "vaila": 947,
    "vailable": 948,
    "\u25810x220": 949,
    "\u25810x4c43": 950,
    "to": 951,
    "\u2581available": 952,
    "3d": 953,
    "\u25810x7701": 954,
    "\u25810x770a": 955,
    "\u25810x770e": 956,
    "utes": 957,
    "\u25810x771a": 958,
    "\u2581getenvironmentstringsw": 959,
    "\u25810x50": 960,
    "\u2581freeenvironmentstringsw": 961,
    "\u25810x4600": 962,
    "sc": 963,
    "\u25810x75": 964,
    "\u25810x19": 965,
    "\u2581instruction": 966,
    "\u25810x30": 967,
    "\u25810x7e8": 968,
    "i64": 969,
    "upinfo": 970,
    "\u2581getstartupinfo": 971,
    "\u2581instructions": 972,
    "\u2581getstartupinfoa": 973,
    "\u2581xmm": 974,
    "\u2581xmmi64": 975,
    "bb": 976,
    "25": 977,
    "\u2581crt": 978,
    "\u2581map": 979,
    "d1": 980,
    "ity": 981,
    "\u25810xffc": 982,
    "\u25810x69000000": 983,
    "\u2581getcommandlinew": 984,
    "\u2581global": 985,
    "\u2581execute": 986,
    "95": 987,
    "\u2581creates": 988,
    "\u25810x74": 989,
    "e1": 990,
    "8c": 991,
    "\u2581getuser": 992,
    "\u25810x13": 993,
    "\u25810x7910": 994,
    "ys": 995,
    "eric": 996,
    "num": 997,
    "\u2581getthread": 998,
    "handl": 999,
    "\u25810xfffffff6": 1000,
    "\u25810x1210f": 1001,
    "\u25810xfffffff5": 1002,
    "\u25810xfffffff4": 1003,
    "\u25810x4305": 1004,
    "\u2581regist": 1005,
    "\u2581wa": 1006,
    "\u2581key": 1007,
    "\u25810x72": 1008,
    "\u25810x4d": 1009,
    "\u25810x5265c": 1010,
    "bu": 1011,
    "\u25810x12116": 1012,
    "date": 1013,
    "\u25810x7ec1": 1014,
    "\u25810x7a": 1015,
    "ae": 1016,
    "\u2581r": 1017,
    "\u2581writefile": 1018,
    "\u25810x4b": 1019,
    "\u2581getfile": 1020,
    "cess": 1021,
    "92": 1022,
    "a7": 1023,
    "\u25810x7c000000": 1024,
    "hine": 1025,
    "\u2581mac": 1026,
    "\u2581machine": 1027,
    "\u25810x33": 1028,
    "boar": 1029,
    "e7": 1030,
    "\u2581shel": 1031,
    "00c": 1032,
    "\u25810x2a": 1033,
    "106": 1034,
    "directoryw": 1035,
    "urs": 1036,
    "\u2581bor": 1037,
    "\u25810x49": 1038,
    "31": 1039,
    "version": 1040,
    "22": 1041,
    "\u25810x418": 1042,
    "\u2581getversion": 1043,
    "\u2581regopenkeyexw": 1044,
    "fd": 1045,
    "\u25810x437": 1046,
    "lass": 1047,
    "\u2581gen": 1048,
    "keyw": 1049,
    "ating": 1050,
    "\u25810x8811": 1051,
    "edi": 1052,
    "urity": 1053,
    "\u25810xfeee0008": 1054,
    "ervice": 1055,
    "ro": 1056,
    "variable": 1057,
    "codep": 1058,
    "\u2581borl": 1059,
    "\u2581generic": 1060,
    "security": 1061,
    "day": 1062,
    "\u25810x4e": 1063,
    "b7": 1064,
    "\u2581str": 1065,
    "1e": 1066,
    "2e": 1067,
    "\u25810xfeee0009": 1068,
    "\u2581borland": 1069,
    "\u2581process": 1070,
    "gi": 1071,
    "\u25810xfeee000a": 1072,
    "\u25810x8d": 1073,
    "\u25810xfeee000b": 1074,
    "l66": 1075,
    "1a": 1076,
    "3e": 1077,
    "\u25810xfeee000c": 1078,
    "\u2581createfilew": 1079,
    "reate": 1080,
    "\u25810xfeee000d": 1081,
    "\u25810xfeee000e": 1082,
    "\u25810x1211b": 1083,
    "db10": 1084,
    "\u25810xfeee000f": 1085,
    "\u2581mapvirtual": 1086,
    "\u25810x1211e04": 1087,
    "\u2581process32": 1088,
    "\u2581mapvirtualkeyw": 1089,
    "first": 1090,
    "lic": 1091,
    "\u25810xfeee0014": 1092,
    "\u25810x429": 1093,
    "\u25810xfeee0010": 1094,
    "codepage": 1095,
    "\u2581access": 1096,
    "\u25810xfeee0015": 1097,
    "\u25810xfeee0013": 1098,
    "\u25810xfeee0012": 1099,
    "\u25810xfeee0016": 1100,
    "\u25810xfeee0011": 1101,
    "\u2581isvalidcodepage": 1102,
    "3f": 1103,
    "db10106": 1104,
    "\u25810x1db10106": 1105,
    "l6660": 1106,
    "\u25810x42d4": 1107,
    "\u25810x1211f38": 1108,
    "\u25810x42c4": 1109,
    "men": 1110,
    "\u25810x7f8": 1111,
    "\u2581freelibrary": 1112,
    "fromstr": 1113,
    "\u2581al": 1114,
    "end": 1115,
    "\u25810x416": 1116,
    "\u2581register": 1117,
    "call": 1118,
    "\u2581closethreadpool": 1119,
    "\u2581createthreadpool": 1120,
    "\u2581i": 1121,
    "for": 1122,
    "a80": 1123,
    "9f": 1124,
    "\u25810x1211c7c": 1125,
    "menu": 1126,
    "format": 1127,
    "ition": 1128,
    "dition": 1129,
    "\u25810x1211dc0": 1130,
    "\u25810xb": 1131,
    "f7": 1132,
    "drl6660": 1133,
    "board": 1134,
    "create": 1135,
    "42": 1136,
    "il": 1137,
    "\u25817": 1138,
    "\u2581exit": 1139,
    "back": 1140,
    "8000": 1141,
    "\u25810x3000": 1142,
    "4000": 1143,
    "lor": 1144,
    "\u25810xfeee0017": 1145,
    "\u25810x4c4308": 1146,
    "\u25810xfeee0018": 1147,
    "\u2581getthreadlocale": 1148,
    "\u25810xfeee0019": 1149,
    "ay": 1150,
    "e9": 1151,
    "ip": 1152,
    "net": 1153,
    "b00": 1154,
    "\u25810x32": 1155,
    "ursor": 1156,
    "\u25810x50000": 1157,
    "ename": 1158,
    "\u25810x4750": 1159,
    "\u2581drive": 1160,
    "lose": 1161,
    "ork": 1162,
    "\u25810x8b": 1163,
    "callback": 1164,
    "\u25810x42d": 1165,
    "cec": 1166,
    "\u2581setthreadpool": 1167,
    "\u25810x1211958": 1168,
    "27": 1169,
    "close": 1170,
    "rw": 1171,
    "loating": 1172,
    "\u2581gett": 1173,
    "leas": 1174,
    "section": 1175,
    "17": 1176,
    "\u2581delete": 1177,
    "9d": 1178,
    "drl6660drl6660": 1179,
    "ag": 1180,
    "\u25810x4350": 1181,
    "trib": 1182,
    "attrib": 1183,
    "1d": 1184,
    "\u25810x169": 1185,
    "vie": 1186,
    "\u2581createdi": 1187,
    "all": 1188,
    "\u25810x12116d8": 1189,
    "mode": 1190,
    "fa": 1191,
    "ov": 1192,
    "\u25810xfeee001a": 1193,
    "cursor": 1194,
    "number": 1195,
    "attributes": 1196,
    "97": 1197,
    "\u25810xf0019": 1198,
    "class": 1199,
    "color": 1200,
    "\u2581gettemp": 1201,
    "resource": 1202,
    "aps": 1203,
    "\u25810x7de1": 1204,
    "c000": 1205,
    "33": 1206,
    "\u25810x1211758": 1207,
    "\u2581loadicon": 1208,
    "fb": 1209,
    "\u25810x1211918": 1210,
    "908": 1211,
    "met": 1212,
    "lip": 1213,
    "\u25810x437b": 1214,
    "\u25810x5265c14": 1215,
    "\u2581setfilepointer": 1216,
    "\u25810x89": 1217,
    "c6": 1218,
    "\u2581crtdll": 1219,
    "\u25810xfeee001c": 1220,
    "set": 1221,
    "localename": 1222,
    "\u25810xfeee001b": 1223,
    "\u25810x11": 1224,
    "\u25810x1211c90": 1225,
    "\u25810x82": 1226,
    "\u2581loadcursor": 1227,
    "\u2581flsfree": 1228,
    "\u2581tls": 1229,
    "41": 1230,
    "\u2581heapcreate": 1231,
    "9e": 1232,
    "term": 1233,
    "\u25810x47b0": 1234,
    "rwlock": 1235,
    "\u2581wsprintf": 1236,
    "formatex": 1237,
    "\u2581wait": 1238,
    "\u25810x105": 1239,
    "\u25810x120e6": 1240,
    "eg": 1241,
    "\u25810x422": 1242,
    "\u25810x4000": 1243,
    "ies": 1244,
    "ft": 1245,
    "\u2581rt": 1246,
    "\u25810x7f800": 1247,
    "\u25810x771c": 1248,
    "point": 1249,
    "\u2581rtl": 1250,
    "\u25810x2c": 1251,
    "view": 1252,
    "\u25810x4a": 1253,
    "\u25810x435": 1254,
    "\u25810x3394": 1255,
    "edc": 1256,
    "\u25810x8a": 1257,
    "b80": 1258,
    "gical": 1259,
    "logical": 1260,
    "ith": 1261,
    "\u2581getlogical": 1262,
    "low": 1263,
    "\u25810x569": 1264,
    "\u25810x42e5b0": 1265,
    "und": 1266,
    "soft": 1267,
    "cpy": 1268,
    "erw": 1269,
    "\u2581ntdll": 1270,
    "ethread": 1271,
    "\u2581waitfor": 1272,
    "\u25810x3f30": 1273,
    "99": 1274,
    "\u25810x5265": 1275,
    "work": 1276,
    "ba": 1277,
    "d3": 1278,
    "are": 1279,
    "\u25810x44f8": 1280,
    "\u2581setmenu": 1281,
    "04": 1282,
    "\u2581st": 1283,
    "\u2581releas": 1284,
    "51": 1285,
    "scr": 1286,
    "\u25810x4336": 1287,
    "off": 1288,
    "77": 1289,
    "1f": 1290,
    "\u25810x7f00": 1291,
    "ext": 1292,
    "45": 1293,
    "aw": 1294,
    "esource": 1295,
    "icro": 1296,
    "icrosoft": 1297,
    "ecount": 1298,
    "rectories": 1299,
    "\u2581tlssetvalue": 1300,
    "\u25810x1e": 1301,
    "angu": 1302,
    "scrip": 1303,
    "ile": 1304,
    "anguage": 1305,
    "ub": 1306,
    "\u25810x12114": 1307,
    "script": 1308,
    "\u2581tlsalloc": 1309,
    "1b": 1310,
    "\u25810x410": 1311,
    "ef": 1312,
    "\u2581floating": 1313,
    "\u2581setmenuinfo": 1314,
    "directories": 1315,
    "realloc": 1316,
    "\u25810x42c508": 1317,
    "clus": 1318,
    "put": 1319,
    "\u2581readfile": 1320,
    "\u2581shell32": 1321,
    "clusive": 1322,
    "rwlockex": 1323,
    "rwlockexclusive": 1324,
    "offile": 1325,
    "d9": 1326,
    "\u2581vari": 1327,
    "ilanguage": 1328,
    "handlecount": 1329,
    "\u2581microsoft": 1330,
    "descript": 1331,
    "descriptor": 1332,
    "\u2581setdefault": 1333,
    "securitydescriptor": 1334,
    "\u2581sethandlecount": 1335,
    "dlldirectories": 1336,
    "\u2581setdefaultdlldirectories": 1337,
    "\u2581wnet": 1338,
    "dater": 1339,
    "\u25810x700c": 1340,
    "\u2581exitprocess": 1341,
    "condition": 1342,
    "\u2581lstrlena": 1343,
    "84": 1344,
    "\u2581comp": 1345,
    "\u2581tr": 1346,
    "yo": 1347,
    "\u2581getsystemdirectoryw": 1348,
    "\u25810x42c4d8": 1349,
    "\u25810x704c": 1350,
    "\u25810x708c": 1351,
    "dateresource": 1352,
    "c08": 1353,
    "\u2581createdirectory": 1354,
    "e3": 1355,
    "eek": 1356,
    "\u25810x1075": 1357,
    "qui": 1358,
    "\u25817z": 1359,
    "led": 1360,
    "\u25810x1211cf8": 1361,
    "df": 1362,
    "erf": 1363,
    "erflow": 1364,
    "yn": 1365,
    "780": 1366,
    "\u2581compare": 1367,
    "\u2581virtualfree": 1368,
    "ink": 1369,
    "bers": 1370,
    "\u2581varb": 1371,
    "\u25810x43b7b": 1372,
    "\u2581lstrlenw": 1373,
    "ockob": 1374,
    "\u2581getstockob": 1375,
    "\u2581currentversion": 1376,
    "\u25810x99": 1377,
    "\u25810x41bc": 1378,
    "\u25810x7ab0": 1379,
    "\u2581comparestring": 1380,
    "\u25810x1f4": 1381,
    "\u25810xfeee001d": 1382,
    "\u2581getenvironment": 1383,
    "\u25810x411": 1384,
    "lush": 1385,
    "\u25810x40a5ce": 1386,
    "\u25810x40a5d0": 1387,
    "\u25810x40a5d2": 1388,
    "\u25810x40a5d4": 1389,
    "\u25810x40a5d6": 1390,
    "\u25810x40a5d8": 1391,
    "\u25810x40a5da": 1392,
    "\u2581process32next": 1393,
    "21": 1394,
    "\u2581registerclass": 1395,
    "\u2581getversionexw": 1396,
    "\u25810x97": 1397,
    "not": 1398,
    "\u25810x42d508": 1399,
    "aph": 1400,
    "ynch": 1401,
    "\u2581createfilea": 1402,
    "\u2581strn": 1403,
    "\u25810x4305b0": 1404,
    "buff": 1405,
    "\u2581lread": 1406,
    "\u2581heaprealloc": 1407,
    "\u25810x21000": 1408,
    "\u25810x1211948": 1409,
    "directorya": 1410,
    "\u25810x1211728": 1411,
    "\u25810x7930": 1412,
    "\u2581synch": 1413,
    "lipboard": 1414,
    "\u25810x1f400": 1415,
    "sub": 1416,
    "\u2581beg": 1417,
    "service": 1418,
    "emaph": 1419,
    "quires": 1420,
    "308": 1421,
    "initializ": 1422,
    "quiresrwlockexclusive": 1423,
    "\u25810xfeee001e": 1424,
    "29": 1425,
    "een": 1426,
    "lect": 1427,
    "\u2581findfirst": 1428,
    "\u2581flush": 1429,
    "\u2581ole": 1430,
    "ailed": 1431,
    "\u2581strncmp": 1432,
    "\u25810x42d4d8": 1433,
    "isting": 1434,
    "\u25810x409": 1435,
    "\u2581regopenkeyexa": 1436,
    "\u2581begin": 1437,
    "og": 1438,
    "\u2581wsprintfw": 1439,
    "\u25810x42c5": 1440,
    "\u2581con": 1441,
    "pa": 1442,
    "text": 1443,
    "\u25810xfeee001f": 1444,
    "\u25810xfeee0020": 1445,
    "bit": 1446,
    "\u25810x2000": 1447,
    "\u25810x1211f64": 1448,
    "ata": 1449,
    "\u25810x43780": 1450,
    "mem": 1451,
    "\u25810x1211e14": 1452,
    "\u25810xa0": 1453,
    "ea": 1454,
    "\u25810x7810": 1455,
    "buffers": 1456,
    "\u2581getdc": 1457,
    "\u25810x3f75": 1458,
    "\u2581existing": 1459,
    "23": 1460,
    "\u2581peek": 1461,
    "\u2581ch": 1462,
    "\u2581createsemaph": 1463,
    "\u2581select": 1464,
    "\u25810x51": 1465,
    "\u2581findclose": 1466,
    "\u25810x1211738": 1467,
    "280": 1468,
    "windowexa": 1469,
    "\u25810x2e": 1470,
    "\u25810x7830": 1471,
    "\u25810x1211908": 1472,
    "\u25810xfeee0071": 1473,
    "\u2581th": 1474,
    "\u25810x38": 1475,
    "\u25810x28": 1476,
    "\u25810x12114b8": 1477,
    "prot": 1478,
    "\u25810x4371": 1479,
    "\u25810x1211a": 1480,
    "\u25810x1211528": 1481,
    "\u2581up": 1482,
    "\u25810x423": 1483,
    "ed8": 1484,
    "\u25810x8a40": 1485,
    "\u2581lstrcpy": 1486,
    "olf": 1487,
    "\u2581with": 1488,
    "7f": 1489,
    "\u2581peekmessagea": 1490,
    "\u25810x1211e2c": 1491,
    "\u2581code": 1492,
    "\u2581wc": 1493,
    "\u2581getuserdefault": 1494,
    "\u25810x678": 1495,
    "\u25810x1211718": 1496,
    "\u2581getversionexa": 1497,
    "trac": 1498,
    "ero": 1499,
    "\u25810xfeee008b": 1500,
    "967": 1501,
    "ee0": 1502,
    "tered": 1503,
    "\u2581altered": 1504,
    "\u25810x198": 1505,
    "protect": 1506,
    "c2": 1507,
    "\u25810x1211fcc": 1508,
    "emut": 1509,
    "63": 1510,
    "ision": 1511,
    "attributesw": 1512,
    "gear": 1513,
    "\u2581codegear": 1514,
    "\u2581virtualprotect": 1515,
    "13": 1516,
    "\u2581sprintf": 1517,
    "ory": 1518,
    "\u25810x44f9": 1519,
    "\u25810x19a": 1520,
    "ocket": 1521,
    "variab": 1522,
    "\u2581loadcursora": 1523,
    "53": 1524,
    "938": 1525,
    "\u25810x1211dcc": 1526,
    "oper": 1527,
    "am": 1528,
    "div": 1529,
    "\u25810x4967": 1530,
    "fo": 1531,
    "ett": 1532,
    "ors": 1533,
    "pal": 1534,
    "palett": 1535,
    "\u25810x569b00": 1536,
    "\u25810x60": 1537,
    "52": 1538,
    "\u25810x1210f3": 1539,
    "\u25810x1a": 1540,
    "\u25810x1f": 1541,
    "\u2581variant": 1542,
    "\u2581file": 1543,
    "6d": 1544,
    "\u2581gettempw": 1545,
    "\u25810x46b0": 1546,
    "informationby": 1547,
    "\u25810x5f5": 1548,
    "300": 1549,
    "namea": 1550,
    "paint": 1551,
    "ember": 1552,
    "\u2581extrac": 1553,
    "\u25810x17": 1554,
    "\u2581getm": 1555,
    "variant": 1556,
    "\u25810x1211f8": 1557,
    "180": 1558,
    "oct": 1559,
    "\u2581loadicona": 1560,
    "\u25810xfeee005f": 1561,
    "5f": 1562,
    "\u25810x16": 1563,
    "\u25810x42d8": 1564,
    "2d": 1565,
    "\u25810x7b80": 1566,
    "operation": 1567,
    "link": 1568,
    "dateresourcea": 1569,
    "\u25810x419c": 1570,
    "\u25810xcc": 1571,
    "ace": 1572,
    "\u2581setthread": 1573,
    "ics": 1574,
    "metr": 1575,
    "metrics": 1576,
    "\u25810x4630": 1577,
    "\u25813": 1578,
    "strfrom": 1579,
    "\u2581varbstrfrom": 1580,
    "\u2581globalalloc": 1581,
    "\u25810x67": 1582,
    "\u25810x1211fd4": 1583,
    "86": 1584,
    "\u2581getsystemmetrics": 1585,
    "\u25810x12118": 1586,
    "\u25810x40a3": 1587,
    "lp": 1588,
    "\u25810x22": 1589,
    "\u25810x8920": 1590,
    "ke": 1591,
    "ont": 1592,
    "\u25810x41f3": 1593,
    "isp": 1594,
    "ym": 1595,
    "hen": 1596,
    "\u25810xfeee01": 1597,
    "pack": 1598,
    "\u2581fibers": 1599,
    "\u25810x101": 1600,
    "\u2581ini": 1601,
    "\u25810x79f0": 1602,
    "588": 1603,
    "help": 1604,
    "\u25810x34": 1605,
    "\u2581try": 1606,
    "\u25810x42b9": 1607,
    "\u25810x1211518": 1608,
    "ock32": 1609,
    "\u2581wsock32": 1610,
    "d04": 1611,
    "\u25810x420c": 1612,
    "sys": 1613,
    "\u25810x64": 1614,
    "bug": 1615,
    "tries": 1616,
    "\u25810xa000": 1617,
    "\u25810x42e": 1618,
    "package": 1619,
    "\u25810x53": 1620,
    "\u2581enum": 1621,
    "\u2581comparestringex": 1622,
    "packageid": 1623,
    "\u2581getlocaleinfoex": 1624,
    "\u2581getcurrentpackageid": 1625,
    "\u25810x84": 1626,
    "\u25810x460": 1627,
    "\u25810x7850": 1628,
    "\u2581copy": 1629,
    "\u25810x6781": 1630,
    "\u2581tryac": 1631,
    "\u2581tryacquiresrwlockexclusive": 1632,
    "devi": 1633,
    "59": 1634,
    "linkw": 1635,
    "100": 1636,
    "eck": 1637,
    "\u2581gettime": 1638,
    "\u2581golf": 1639,
    "ns": 1640,
    "46": 1641,
    "\u25810x3c": 1642,
    "trl": 1643,
    "\u25810xb8": 1644,
    "\u25810x8f": 1645,
    "debug": 1646,
    "atch": 1647,
    "\u2581pr": 1648,
    "oy": 1649,
    "\u25810x15": 1650,
    "ati": 1651,
    "\u25810x1211dd4": 1652,
    "5500000": 1653,
    "stroy": 1654,
    "ret": 1655,
    "320": 1656,
    "ymbo": 1657,
    "ymbolic": 1658,
    "ymboliclinkw": 1659,
    "\u2581createsymboliclinkw": 1660,
    "\u25810x9030": 1661,
    "e80": 1662,
    "400": 1663,
    "when": 1664,
    "\u2581getdevi": 1665,
    "cecaps": 1666,
    "\u2581getdevicecaps": 1667,
    "de9": 1668,
    "mapview": 1669,
    "\u2581start": 1670,
    "\u25810x42a9": 1671,
    "62": 1672,
    "retur": 1673,
    "\u25810x7ad0": 1674,
    "\u25810x42a9a0": 1675,
    "econ": 1676,
    "processwrite": 1677,
    "processornumber": 1678,
    "\u2581flushprocesswrite": 1679,
    "\u2581flushprocesswritebuffers": 1680,
    "\u2581getcurrentprocessornumber": 1681,
    "oreexw": 1682,
    "returns": 1683,
    "callbacks": 1684,
    "whencallback": 1685,
    "timercallbacks": 1686,
    "\u2581setthreadpoolwait": 1687,
    "\u2581waitforthreadpool": 1688,
    "whencallbackreturns": 1689,
    "\u2581createsemaphoreexw": 1690,
    "\u2581setthreadpooltimer": 1691,
    "\u2581closethreadpoolwait": 1692,
    "\u2581closethreadpooltimer": 1693,
    "\u2581createthreadpoolwait": 1694,
    "\u2581createthreadpooltimer": 1695,
    "\u2581freelibrarywhencallbackreturns": 1696,
    "\u2581waitforthreadpooltimercallbacks": 1697,
    "dac": 1698,
    "\u25810x48f8": 1699,
    "\u25810x44f8e0": 1700,
    "480": 1701,
    "37": 1702,
    "\u2581createprocess": 1703,
    "\u25810x12117f8": 1704,
    "allock": 1705,
    "0000000": 1706,
    "\u2581findfirstfilew": 1707,
    "5e": 1708,
    "\u2581mon": 1709,
    "old": 1710,
    "9b": 1711,
    "ispatch": 1712,
    "\u2581lstrcpyn": 1713,
    "\u2581draw": 1714,
    "sti": 1715,
    "\u25810x437a": 1716,
    "lphi": 1717,
    "\u2581delphi": 1718,
    "cad": 1719,
    "\u2581font": 1720,
    "770": 1721,
    "c04": 1722,
    "\u25810x4c32": 1723,
    "ryp": 1724,
    "stit": 1725,
    "\u25810xfeee0027": 1726,
    "fer": 1727,
    "substit": 1728,
    "substitutes": 1729,
    "\u2581fontsubstitutes": 1730,
    "\u2581app": 1731,
    "clipboard": 1732,
    "\u25810xfeee0040": 1733,
    "\u2581getdate": 1734,
    "94c": 1735,
    "lex": 1736,
    "input": 1737,
    "\u25810xfeee0021": 1738,
    "\u25810xfeee0026": 1739,
    "\u2581deletecriticalsection": 1740,
    "\u25810x7aa0": 1741,
    "\u25810x5f500000": 1742,
    "\u2581createa": 1743,
    "a04": 1744,
    "\u25810xfeee0022": 1745,
    "a256": 1746,
    "drive": 1747,
    "\u2581send": 1748,
    "ass": 1749,
    "\u25810x42a40": 1750,
    "\u25810x25": 1751,
    "syscolor": 1752,
    "\u2581getsyscolor": 1753,
    "own": 1754,
    "refer": 1755,
    "\u2581failed": 1756,
    "\u2581cryp": 1757,
    "\u25810x1211f28": 1758,
    "\u2581sha256": 1759,
    "220": 1760,
    "\u25810xfeee0023": 1761,
    "\u25810xfeee0024": 1762,
    "\u25810x8cc0": 1763,
    "\u25810xfeee0025": 1764,
    "\u25810x79d0": 1765,
    "\u25810x94": 1766,
    "variablew": 1767,
    "\u2581getsysteminfo": 1768,
    "\u25810x83": 1769,
    "2a": 1770,
    "chan": 1771,
    "\u25810x12119c0": 1772,
    "3a": 1773,
    "\u2581initterm": 1774,
    "\u2581enumsystem": 1775,
    "6e6": 1776,
    "\u2581enumsystemlocales": 1777,
    "\u2581releasedc": 1778,
    "\u2581globallock": 1779,
    "\u25810x417": 1780,
    "sn": 1781,
    "\u25810x3e": 1782,
    "65": 1783,
    "\u2581ole32": 1784,
    "\u2581createwindowexa": 1785,
    "ast": 1786,
    "\u2581shellex": 1787,
    "f00": 1788,
    "\u25810x1211508": 1789,
    "\u2581malloc": 1790,
    "\u25810x24": 1791,
    "\u258120": 1792,
    "hot": 1793,
    "\u25810x42a1": 1794,
    "\u25810x4239": 1795,
    "\u25810xfeee0028": 1796,
    "\u25810x65500000": 1797,
    "\u2581exe": 1798,
    "\u25810x1211780": 1799,
    "\u25810x4c42d8": 1800,
    "\u25810x4c42f0": 1801,
    "\u2581createt": 1802,
    "\u25810x7ee0": 1803,
    "\u25810x42b9a0": 1804,
    "c5": 1805,
    "ilanguages": 1806,
    "\u25810xfeee00f1": 1807,
    "redu": 1808,
    "cy": 1809,
    "referredu": 1810,
    "referreduilanguages": 1811,
    "threadp": 1812,
    "threadpreferreduilanguages": 1813,
    "\u25810x1211f7c": 1814,
    "\u2581getuserdefaultlocalename": 1815,
    "\u25810x1211928": 1816,
    "\u25810x1210f35": 1817,
    "\u25810x188": 1818,
    "\u2581getdateformatex": 1819,
    "\u2581isvalidlocalename": 1820,
    "\u2581enumsystemlocalesex": 1821,
    "\u2581gettimeformatex": 1822,
    "\u25810x68": 1823,
    "900": 1824,
    "ated": 1825,
    "\u25810x40933d": 1826,
    "\u25810x40933e": 1827,
    "\u25810x40933f": 1828,
    "\u25810x409340": 1829,
    "\u25810x409341": 1830,
    "\u25810x409342": 1831,
    "\u25810x409343": 1832,
    "d7": 1833,
    "ervicec": 1834,
    "\u25810xfeee007c": 1835,
    "\u25810x6781d8": 1836,
    "\u25810x1211fd8": 1837,
    "208": 1838,
    "arr": 1839,
    "\u25810xfeee0046": 1840,
    "\u25810x98": 1841,
    "\u2581ntopen": 1842,
    "\u2581ntopensection": 1843,
    "\u25810x169bf": 1844,
    "\u25810x1211f2c": 1845,
    "ervicectrl": 1846,
    "\u2581un": 1847,
    "\u25810x1211748": 1848,
    "\u25810x4e5": 1849,
    "termin": 1850,
    "\u25810x1211f34": 1851,
    "3b": 1852,
    "\u2581closes": 1853,
    "apshot": 1854,
    "help32": 1855,
    "oolhelp32": 1856,
    "snapshot": 1857,
    "oolhelp32snapshot": 1858,
    "\u2581createtoolhelp32snapshot": 1859,
    "\u2581out": 1860,
    "\u25810x1211fd0": 1861,
    "fold": 1862,
    "ho": 1863,
    "61": 1864,
    "arg": 1865,
    "\u2581error": 1866,
    "\u25810xfde9": 1867,
    "isk": 1868,
    "zero": 1869,
    "\u2581termin": 1870,
    "\u25810xfeee0029": 1871,
    "ton": 1872,
    "\u25810x3bc": 1873,
    "ecomp": 1874,
    "\u25810x78f0": 1875,
    "\u25810xfeee0072": 1876,
    "\u25810x433648": 1877,
    "drl6660drl6660drl6660drl6660": 1878,
    "drivestrings": 1879,
    "\u2581getlogicaldrivestrings": 1880,
    "\u25810x8a80": 1881,
    "stry": 1882,
    "\u25810x1211cc0": 1883,
    "\u25810x40a": 1884,
    "\u2581getlogicalprocessor": 1885,
    "5b": 1886,
    "stack": 1887,
    "servicew": 1888,
    "\u2581getlogicalprocessorinformation": 1889,
    "guar": 1890,
    "conne": 1891,
    "antee": 1892,
    "guarantee": 1893,
    "stackguarantee": 1894,
    "\u2581setthreadstackguarantee": 1895,
    "110": 1896,
    "\u2581crypt": 1897,
    "\u25810xfeee002c": 1898,
    "atible": 1899,
    "\u25810x4428": 1900,
    "\u25810x1211dc8": 1901,
    "\u25810xfeee009a": 1902,
    "\u2581getenvironmentvariablew": 1903,
    "a50": 1904,
    "ecompatible": 1905,
    "\u2581createcompatible": 1906,
    "4d": 1907,
    "memory": 1908,
    "\u2581windowsnt": 1909,
    "\u25810x42a190": 1910,
    "\u25810x42b0": 1911,
    "\u25810xfeee002a": 1912,
    "\u2581process32first": 1913,
    "\u25810x1b": 1914,
    "afe": 1915,
    "e44": 1916,
    "\u25810xfeee002b": 1917,
    "ain": 1918,
    "\u25810x7df0": 1919,
    "\u25810x527": 1920,
    "conditionvariable": 1921,
    "\u25810x8af0": 1922,
    "oci": 1923,
    "\u25810xfeee002d": 1924,
    "\u25810xfeee002f": 1925,
    "d80": 1926,
    "\u25810x4bc": 1927,
    "\u25810x6b": 1928,
    "\u2581initializes": 1929,
    "load": 1930,
    "\u25810x412": 1931,
    "\u25810x43500": 1932,
    "\u25810x527ed8": 1933,
    "\u2581loadlibraryw": 1934,
    "array": 1935,
    "\u25810xfeee002e": 1936,
    "\u2581createw": 1937,
    "\u25810x1211768": 1938,
    "\u2581e": 1939,
    "640": 1940,
    "\u25810x1211f30": 1941,
    "c1": 1942,
    "\u25810x29": 1943,
    "mage": 1944,
    "\u25810xfeee0045": 1945,
    "\u25810x2f": 1946,
    "\u2581createmut": 1947,
    "sup": 1948,
    "\u2581sat": 1949,
    "\u2581setup": 1950,
    "\u2581initialize": 1951,
    "\u25810xfeee0030": 1952,
    "\u2581createdirectorya": 1953,
    "\u2581nov": 1954,
    "\u2581sep": 1955,
    "\u25810x214": 1956,
    "\u2581hton": 1957,
    "associ": 1958,
    "\u25810xfeee0031": 1959,
    "\u2581extract": 1960,
    "\u2581au": 1961,
    "\u25810xfeee010": 1962,
    "\u25810x1211d04": 1963,
    "\u25810x23": 1964,
    "\u25810xfeee0044": 1965,
    "dacl": 1966,
    "securitydescriptordacl": 1967,
    "2w": 1968,
    "\u2581oct": 1969,
    "connection": 1970,
    "\u2581initializesecuritydescriptor": 1971,
    "5d": 1972,
    "\u2581apr": 1973,
    "windows": 1974,
    "connection2w": 1975,
    "a58": 1976,
    "ways": 1977,
    "\u2581always": 1978,
    "\u2581olea": 1979,
    "\u2581sun": 1980,
    "kart": 1981,
    "\u2581may": 1982,
    "karton": 1983,
    "\u2581setsecuritydescriptordacl": 1984,
    "uary": 1985,
    "eentries": 1986,
    "paletteentries": 1987,
    "sday": 1988,
    "\u2581tue": 1989,
    "\u2581wed": 1990,
    "\u25810x7cd0": 1991,
    "\u25810x53000": 1992,
    "\u258132": 1993,
    "\u2581com": 1994,
    "\u25810xffff": 1995,
    "ord": 1996,
    "188": 1997,
    "\u2581king": 1998,
    "12000": 1999,
    "\u25810x1211c04": 2000,
    "\u25818": 2001,
    "\u25810x4f": 2002,
    "atedicon": 2003,
    "associatedicon": 2004,
    "\u2581extractassociatedicon": 2005,
    "\u25810xfeee0043": 2006,
    "\u25810x7e80": 2007,
    "leob": 2008,
    "\u2581kingkarton": 2009,
    "\u25810xfeee0047": 2010,
    "\u2581getfileattributesw": 2011,
    "cb": 2012,
    "spec": 2013,
    "\u2581createmutexa": 2014,
    "\u25810x36": 2015,
    "b04": 2016,
    "\u25810x1211a04": 2017,
    "suped": 2018,
    "\u25810x1211cdc": 2019,
    "variablea": 2020,
    "\u25810x42b": 2021,
    "\u2581beginup": 2022,
    "\u25810xfeee0048": 2023,
    "\u2581deletefilew": 2024,
    "64000": 2025,
    "\u25810xfeee0033": 2026,
    "\u25810xfeee0032": 2027,
    "\u25810xfeee0035": 2028,
    "\u25810xfeee005d": 2029,
    "\u2581getsystempaletteentries": 2030,
    "\u25810xfeee0034": 2031,
    "\u25810xfeee003b": 2032,
    "\u25810x7e74": 2033,
    "\u25810x7e75": 2034,
    "\u25810x408": 2035,
    "\u25810xfeee0036": 2036,
    "\u25810xfeee0037": 2037,
    "\u2581createthread": 2038,
    "valu": 2039,
    "\u25810xfeee0049": 2040,
    "\u25810xa1": 2041,
    "\u25810x7e78": 2042,
    "\u25810x7e79": 2043,
    "\u25810x5a": 2044,
    "\u2581floatingpoint": 2045,
    "overflow": 2046,
    "\u2581invalidvariant": 2047,
    "byzero": 2048,
    "isionbyzero": 2049,
    "\u25810x7e7c": 2050,
    "ec0": 2051,
    "c3": 2052,
    "\u25810x7e7d": 2053,
    "\u25810x42e0": 2054,
    "bits": 2055,
    "\u25810xfeee0038": 2056,
    "\u25810xfeee0062": 2057,
    "\u25810xfeee0039": 2058,
    "\u25810xfeee0041": 2059,
    "\u25810xfeee003f": 2060,
    "\u25810xfeee0074": 2061,
    "\u2581golfinfo": 2062,
    "\u25810xfeee0042": 2063,
    "\u25810x1804": 2064,
    "\u25810x7e81": 2065,
    "\u2581varr": 2066,
    "4fromstr": 2067,
    "afearray": 2068,
    "\u25810xfeee003a": 2069,
    "\u25810xfeee003d": 2070,
    "\u25810xfeee003e": 2071,
    "cel": 2072,
    "\u25810xfeee003c": 2073,
    "\u2581registry": 2074,
    "\u2581show": 2075,
    "\u2581update": 2076,
    "cd": 2077,
    "\u25810x7e85": 2078,
    "\u25810x7e84": 2079,
    "\u2581findnext": 2080,
    "\u25810x42fc": 2081,
    "your": 2082,
    "\u25810x8e": 2083,
    "\u2581loadiconw": 2084,
    "sing": 2085,
    "untime": 2086,
    "\u25810xfeee0065": 2087,
    "c9": 2088,
    "210": 2089,
    "\u25810xfeee0066": 2090,
    "\u25810xfeee0053": 2091,
    "\u25810xfeee0067": 2092,
    "\u25810x40a5dc": 2093,
    "\u25810x40a5cc": 2094,
    "\u25810x1d": 2095,
    "\u25810xfeee005e": 2096,
    "\u25810xfeee0060": 2097,
    "\u25810x3f75f": 2098,
    "\u25810xfeee004a": 2099,
    "580": 2100,
    "\u25810xfeee0061": 2101,
    "se": 2102,
    "\u25810x85": 2103,
    "keyboard": 2104,
    "\u2581createdirectoryw": 2105,
    "\u2581contr": 2106,
    "\u25810xfeee005c": 2107,
    "\u25810x4710": 2108,
    "\u25810xfeee0063": 2109,
    "\u25810xfeee005a": 2110,
    "\u25810xfeee004d": 2111,
    "\u25810x4015": 2112,
    "f04": 2113,
    "2b": 2114,
    "\u25810xfeee004b": 2115,
    "\u25810xfeee005b": 2116,
    "\u25810xfeee004c": 2117,
    "\u25810xe0": 2118,
    "orsafearray": 2119,
    "\u25810xfeee0068": 2120,
    "\u25810x3f2000": 2121,
    "\u25810x1210d": 2122,
    "\u25810xfeee0050": 2123,
    "\u25810xfeee0055": 2124,
    "\u25810xfeee004e": 2125,
    "\u25810xfeee0054": 2126,
    "\u25810xfeee004f": 2127,
    "\u25810xfeee0051": 2128,
    "\u25810xfeee0052": 2129,
    "\u25810x5b": 2130,
    "\u25810xfeee0057": 2131,
    "\u25810xfeee0056": 2132,
    "\u25810xfeee0058": 2133,
    "resourcew": 2134,
    "\u25810xfeee0059": 2135,
    "\u25810x42c0": 2136,
    "430": 2137,
    "\u25810x42c588": 2138,
    "a00": 2139,
    "mov": 2140,
    "\u2581getkeyboard": 2141,
    "inal": 2142,
    "\u25810xfeee0064": 2143,
    "d08": 2144,
    "\u25810x364": 2145,
    "7c3": 2146,
    "\u25814": 2147,
    "\u2581deletefilea": 2148,
    "\u25810x88a0": 2149,
    "\u2581getusernamea": 2150,
    "\u25810x2d4": 2151,
    "\u2581lstrcmp": 2152,
    "ow64": 2153,
    "rec": 2154,
    "ush": 2155,
    "6e": 2156,
    "d0a": 2157,
    "\u2581rec": 2158,
    "\u25810x1211ef0": 2159,
    "nex": 2160,
    "messagew": 2161,
    "ab8": 2162,
    "\u25810xfeee0075": 2163,
    "\u25810xfeee0073": 2164,
    "singleob": 2165,
    "brush": 2166,
    "\u25810x1211f20": 2167,
    "118": 2168,
    "\u2581getmessagea": 2169,
    "\u25810x10000": 2170,
    "\u25810x4800": 2171,
    "\u25810x42d5": 2172,
    "\u25810xfeee006b": 2173,
    "files": 2174,
    "console": 2175,
    "\u25810x410770": 2176,
    "c7": 2177,
    "\u2581end": 2178,
    "\u2581waitforsingleob": 2179,
    "\u25810xfeee0070": 2180,
    "\u25810xfeee0069": 2181,
    "\u25810xfeee006f": 2182,
    "\u2581process32nextw": 2183,
    "de0": 2184,
    "wow64": 2185,
    "uilanguage": 2186,
    "ask": 2187,
    "\u25810xfeee006a": 2188,
    "\u25810x57": 2189,
    "688": 2190,
    "\u2581image": 2191,
    "nal": 2192,
    "\u2581po": 2193,
    "\u25810xfeee006e": 2194,
    "ken": 2195,
    "\u25810xfeee006c": 2196,
    "\u25810x2d": 2197,
    "\u25810xfeee008a": 2198,
    "9a": 2199,
    "initialize": 2200,
    "\u2581shget": 2201,
    "\u25810x48f898": 2202,
    "ordinal": 2203,
    "\u25810xfeee006d": 2204,
    "vol": 2205,
    "init": 2206,
    "\u2581recv": 2207,
    "\u25810x4790": 2208,
    "\u25810x1211308": 2209,
    "\u2581q": 2210,
    "\u25810x1211578": 2211,
    "\u2581ordinal": 2212,
    "\u25810x1211bc0": 2213,
    "\u25810x1211e08": 2214,
    "ong": 2215,
    "\u25810x4d70": 2216,
    "\u25810x52": 2217,
    "speci": 2218,
    "errormode": 2219,
    "\u2581seterrormode": 2220,
    "\u25810x58": 2221,
    "\u25810x80000000": 2222,
    "\u25810x567a": 2223,
    "\u25810x44f928": 2224,
    "\u2581registerclassexa": 2225,
    "\u2581getsystemdirectorya": 2226,
    "ac000": 2227,
    "\u25810xa9": 2228,
    "\u25810x7ee00": 2229,
    "\u2581getmain": 2230,
    "380": 2231,
    "ume": 2232,
    "\u2581imagelist": 2233,
    "\u25810x4bd0": 2234,
    "\u25810x86": 2235,
    "\u25810x6a6": 2236,
    "volume": 2237,
    "\u25810x37": 2238,
    "b69": 2239,
    "\u25810x1211ee0": 2240,
    "\u2581globalfree": 2241,
    "\u25810xfeee0078": 2242,
    "\u25810xfeee0077": 2243,
    "\u25810xfeee0079": 2244,
    "\u25810xfeee0076": 2245,
    "\u25810x525": 2246,
    "reg": 2247,
    "\u2581setc": 2248,
    "\u25810xfeee007a": 2249,
    "\u25810x1211fc8": 2250,
    "\u2581iswow64": 2251,
    "\u2581iswow64process": 2252,
    "67": 2253,
    "lat": 2254,
    "\u25810x7d10": 2255,
    "2f": 2256,
    "windowproc": 2257,
    "yarg": 2258,
    "ut32": 2259,
    "\u2581oleaut32": 2260,
    "\u2581showwindow": 2261,
    "\u2581wake": 2262,
    "\u2581wakeall": 2263,
    "\u2581wakeallconditionvariable": 2264,
    "\u2581trans": 2265,
    "\u25810x107568": 2266,
    "\u25810x1211f48": 2267,
    "host": 2268,
    "\u25810x1211f00": 2269,
    "head": 2270,
    "down": 2271,
    "\u25810x40152c": 2272,
    "\u25810x1211938": 2273,
    "57": 2274,
    "\u2581loadcursorw": 2275,
    "cf": 2276,
    "\u25810x12119ac": 2277,
    "volumeinformation": 2278,
    "\u2581getvolumeinformation": 2279,
    "ec8": 2280,
    "\u25810x7f0": 2281,
    "\u25810x1211fc4": 2282,
    "pos": 2283,
    "937": 2284,
    "\u25810x7540": 2285,
    "\u25810x4e50": 2286,
    "\u25810x40f6": 2287,
    "69000": 2288,
    "93c": 2289,
    "\u2581txt": 2290,
    "\u2581updatewindow": 2291,
    "\u2581getenvironmentvariablea": 2292,
    "\u25810x121194c": 2293,
    "os": 2294,
    "\u2581destroy": 2295,
    "\u2581getfileinformationby": 2296,
    "\u2581def": 2297,
    "a5000": 2298,
    "ac0": 2299,
    "ad000": 2300,
    "\u25810xfeee0095": 2301,
    "ternal": 2302,
    "54000": 2303,
    "allocate": 2304,
    "114": 2305,
    "\u25810x7db0": 2306,
    "1998": 2307,
    "\u25810x431f": 2308,
    "closekey": 2309,
    "\u2581regclosekey": 2310,
    "listhead": 2311,
    "\u2581initializeslisthead": 2312,
    "ca": 2313,
    "lation": 2314,
    "2f8": 2315,
    "3c000": 2316,
    "\u25810x40a58": 2317,
    "attributesa": 2318,
    "mapp": 2319,
    "\u25810x8230": 2320,
    "valueexw": 2321,
    "uni": 2322,
    "\u25810xfeee008e": 2323,
    "\u25810x21": 2324,
    "268": 2325,
    "\u25810x12117a4": 2326,
    "\u25810x121157c": 2327,
    "43000": 2328,
    "mapping": 2329,
    "filemapping": 2330,
    "quit": 2331,
    "26000": 2332,
    "uter": 2333,
    "bc000": 2334,
    "b8000": 2335,
    "\u2581defwindowproc": 2336,
    "e40": 2337,
    "32000": 2338,
    "ab000": 2339,
    "draw": 2340,
    "ust": 2341,
    "unicode": 2342,
    "980": 2343,
    "34000": 2344,
    "24000": 2345,
    "\u25810x2b": 2346,
    "securityinfo": 2347,
    "9c000": 2348,
    "\u2581gettickcount64": 2349,
    "\u25810x7de4": 2350,
    "\u25810x437ad": 2351,
    "computer": 2352,
    "\u25810x7de5": 2353,
    "\u25810x437bc": 2354,
    "\u25810x4371e6": 2355,
    "\u25810x4371e7": 2356,
    "7c000": 2357,
    "a8000": 2358,
    "6c000": 2359,
    "ull": 2360,
    "28000": 2361,
    "\u25810x43b7": 2362,
    "56000": 2363,
    "\u25810x43b7a": 2364,
    "74000": 2365,
    "\u25810x43b7b9": 2366,
    "5a": 2367,
    "93000": 2368,
    "\u25810x43b7c3": 2369,
    "48000": 2370,
    "numberof": 2371,
    "38000": 2372,
    "5c000": 2373,
    "32c": 2374,
    "bitmap": 2375,
    "6f": 2376,
    "\u25810xfeee0081": 2377,
    "44000": 2378,
    "b4000": 2379,
    "mapviewof": 2380,
    "mapviewofsection": 2381,
    "98000": 2382,
    "a4000": 2383,
    "box": 2384,
    "\u2581rtlinit": 2385,
    "\u2581wi": 2386,
    "unicodestring": 2387,
    "78000": 2388,
    "438": 2389,
    "2c000": 2390,
    "\u2581beginpaint": 2391,
    "c4000": 2392,
    "58000": 2393,
    "66000": 2394,
    "6669": 2395,
    "\u2581rtlinitunicodestring": 2396,
    "econdition": 2397,
    "b08": 2398,
    "68000": 2399,
    "7369": 2400,
    "econditionvariable": 2401,
    "94000": 2402,
    "4c000": 2403,
    "\u25810x35": 2404,
    "\u25810x42e5f8": 2405,
    "\u2581endpaint": 2406,
    "\u25810x43540": 2407,
    "\u2581setwindow": 2408,
    "\u2581getfileinformationbyhandl": 2409,
    "\u25810x1211f88": 2410,
    "\u25810xfeee007f": 2411,
    "\u25810x56bb": 2412,
    "\u2581gettempa": 2413,
    "\u25810x97a0": 2414,
    "\u25810x567a40": 2415,
    "\u25810x6b9": 2416,
    "\u25810x39": 2417,
    "\u25810d0a": 2418,
    "b692e": 2419,
    "73696e6": 2420,
    "b692e6669": 2421,
    "73696e6b692e6669": 2422,
    "\u25810x417b": 2423,
    "\u25810x4315": 2424,
    "anag": 2425,
    "\u25810xfeee0084": 2426,
    "\u258120220": 2427,
    "\u25810x6d": 2428,
    "\u25812022030": 2429,
    "\u25810xfeee008d": 2430,
    "\u25810x67000000": 2431,
    "\u25810x42a": 2432,
    "\u2581getnumberof": 2433,
    "\u2581getnumberofconsole": 2434,
    "\u2581createfilemapping": 2435,
    "\u25810xfeee008c": 2436,
    "\u25810x1211b04": 2437,
    "6a": 2438,
    "state": 2439,
    "texta": 2440,
    "140": 2441,
    "\u25810x31": 2442,
    "localtime": 2443,
    "\u2581dispatch": 2444,
    "f08": 2445,
    "\u258110": 2446,
    "\u25810x7bd0": 2447,
    "\u25810x1210f8": 2448,
    "\u2581setfileinformationby": 2449,
    "\u2581createexw": 2450,
    "namew": 2451,
    "out": 2452,
    "endoffile": 2453,
    "\u2581regset": 2454,
    "token": 2455,
    "\u25810x42d8c6": 2456,
    "\u2581getd": 2457,
    "\u25810x4317": 2458,
    "\u2581post": 2459,
    "\u25810x51a": 2460,
    "\u25810x417d": 2461,
    "\u25810xfeee007b": 2462,
    "mask": 2463,
    "\u25810x431998": 2464,
    "\u25810xfeee007d": 2465,
    "\u2581seten": 2466,
    "\u25810xfeee007e": 2467,
    "\u25810x519": 2468,
    "ger": 2469,
    "\u25810x99e0": 2470,
    "\u2581loc": 2471,
    "\u2581gb": 2472,
    "\u25810x92": 2473,
    "\u25810xfeee0080": 2474,
    "inputs": 2475,
    "\u2581getnumberofconsoleinputs": 2476,
    "enum": 2477,
    "\u2581localiz": 2478,
    "\u2581localization": 2479,
    "\u25810xfeee0087": 2480,
    "708": 2481,
    "long": 2482,
    "f8000": 2483,
    "\u2581ws2": 2484,
    "ivi": 2485,
    "\u2581translat": 2486,
    "388": 2487,
    "\u25810xfeee0088": 2488,
    "\u25810x3f3000": 2489,
    "\u2581getlocaltime": 2490,
    "lw": 2491,
    "\u25810x9c": 2492,
    "\u2581translatem": 2493,
    "slen": 2494,
    "fac": 2495,
    "\u2581wcslen": 2496,
    "\u2581createfilemappinga": 2497,
    "\u2581getthreadpreferreduilanguages": 2498,
    "988": 2499,
    "\u25810x3d": 2500,
    "\u25810xfeee0083": 2501,
    "328": 2502,
    "\u25810x1211cec": 2503,
    "\u25810xfeee0082": 2504,
    "ee8": 2505,
    "\u25810xfeee0085": 2506,
    "\u25810xfeee0086": 2507,
    "\u25810x181b": 2508,
    "\u25810xfeee0089": 2509,
    "lec": 2510,
    "9c1": 2511,
    "\u25810x4393": 2512,
    "\u25810x8814": 2513,
    "change": 2514,
    "\u2581translatemessage": 2515,
    "\u2581createprocessa": 2516,
    "\u25810x3a": 2517,
    "\u25810x9020": 2518,
    "aaaa": 2519,
    "e4000": 2520,
    "\u25810xfeee008f": 2521,
    "\u2581remov": 2522,
    "\u25810xfeee0090": 2523,
    "ysi": 2524,
    "68c": 2525,
    "\u2581shellexecute": 2526,
    "\u2581check": 2527,
    "\u25810x4620": 2528,
    "ed4": 2529,
    "\u25810x95": 2530,
    "pro": 2531,
    "\u25810x4170": 2532,
    "\u25810x7a80": 2533,
    "\u25810x42a0": 2534,
    "\u2581v": 2535,
    "6b": 2536,
    "ivile": 2537,
    "hysi": 2538,
    "\u25810x7150": 2539,
    "tout": 2540,
    "\u25810x41de": 2541,
    "extout": 2542,
    "stringa": 2543,
    "\u25810x63": 2544,
    "bc8": 2545,
    "\u25810x73f0": 2546,
    "\u25810x72a0": 2547,
    "\u2581physi": 2548,
    "\u2581physical": 2549,
    "\u2581int": 2550,
    "\u25810x4094": 2551,
    "\u2581to": 2552,
    "\u25810x414": 2553,
    "\u25810x42c520": 2554,
    "\u2581err": 2555,
    "\u25810x1211dfc": 2556,
    "\u25810x7690": 2557,
    "56c": 2558,
    "full": 2559,
    "\u25810x78c0": 2560,
    "\u25810x1211f3c": 2561,
    "\u25810x491": 2562,
    "\u25810x8815": 2563,
    "\u25810x77e0": 2564,
    "\u2581hg": 2565,
    "\u2581hgdraw": 2566,
    "lwapi": 2567,
    "\u25810x60000": 2568,
    "\u2581shlwapi": 2569,
    "\u25810xd0": 2570,
    "fe8": 2571,
    "\u25810x40f": 2572,
    "726": 2573,
    "ty": 2574,
    "\u25810x3b": 2575,
    "\u25810x7d95": 2576,
    "unlock": 2577,
    "\u25810x7c70": 2578,
    "cadwork": 2579,
    "ows": 2580,
    "eed": 2581,
    "f0000": 2582,
    "manag": 2583,
    "folder": 2584,
    "\u25810x4c32c0": 2585,
    "\u2581wcsc": 2586,
    "\u25810x7d94": 2587,
    "\u2581wcscpy": 2588,
    "\u25810x4393f8": 2589,
    "\u25810x55": 2590,
    "47": 2591,
    "\u25810x1210e8": 2592,
    "\u2581findwindow": 2593,
    "bar": 2594,
    "\u25810x1211f4c": 2595,
    "\u25810x90f0": 2596,
    "tra": 2597,
    "\u2581setfileattributesa": 2598,
    "\u25810x1211fdc": 2599,
    "a81": 2600,
    "\u2581dispatchmessagea": 2601,
    "\u2581getcurrentdirectoryw": 2602,
    "ist": 2603,
    "\u2581control": 2604,
    "\u2581mapview": 2605,
    "\u2581globalunlock": 2606,
    "\u2581z": 2607,
    "\u25810x1211c14": 2608,
    "\u25810x8cf0": 2609,
    "\u25810x41a5": 2610,
    "4e": 2611,
    "\u2581getwindows": 2612,
    "\u25810xfeee0094": 2613,
    "e08": 2614,
    "\u2581getmess": 2615,
    "\u25810x41bc20": 2616,
    "\u2581copyfilea": 2617,
    "\u2581mapviewoffile": 2618,
    "bk": 2619,
    "ctl32": 2620,
    "\u2581comctl32": 2621,
    "\u25810xfeee0091": 2622,
    "\u25810x46e0": 2623,
    "ang": 2624,
    "\u25810x52660": 2625,
    "ff8": 2626,
    "\u25810x1211fc0": 2627,
    "nexec": 2628,
    "\u2581winexec": 2629,
    "\u25810x59": 2630,
    "\u2581postquit": 2631,
    "\u25810x1211f04": 2632,
    "\u2581postquitmessage": 2633,
    "driv": 2634,
    "\u25810x1211c80": 2635,
    "bl": 2636,
    "\u25810xfeee0098": 2637,
    "\u25810x1210900": 2638,
    "sid": 2639,
    "\u25810xfeee0092": 2640,
    "ce8": 2641,
    "\u25810x1211e28": 2642,
    "vio": 2643,
    "\u25810xfeee0099": 2644,
    "heck": 2645,
    "\u2581regsetvalueexw": 2646,
    "a88": 2647,
    "round": 2648,
    "\u25810xfeee0097": 2649,
    "\u25810xfeee0093": 2650,
    "inst": 2651,
    "debugger": 2652,
    "debuggerpresent": 2653,
    "erat": 2654,
    "\u25810xfeee0096": 2655,
    "\u25810xfeee009b": 2656,
    "ater": 2657,
    "\u25810xfeee009c": 2658,
    "\u2581deleteob": 2659,
    "ore": 2660,
    "ontin": 2661,
    "\u2581defwindowproca": 2662,
    "blt": 2663,
    "\u25810x4308": 2664,
    "\u25810x7de8": 2665,
    "\u25810x12113": 2666,
    "\u2581inst": 2667,
    "\u25810x6b9c08": 2668,
    "\u25810x448": 2669,
    "\u25810xa5": 2670,
    "\u2581isdebuggerpresent": 2671,
    "eextra": 2672,
    "\u25810x4238": 2673,
    "\u25810x7de9": 2674,
    "7c8": 2675,
    "\u2581point": 2676,
    "a08": 2677,
    "\u2581prec": 2678,
    "\u2581errata": 2679,
    "\u2581precision": 2680,
    "\u25810x47c0": 2681,
    "\u25810x432": 2682,
    "cept": 2683,
    "freesp": 2684,
    "\u2581getdisk": 2685,
    "\u2581getdiskfreesp": 2686,
    "new": 2687,
    "\u25810x4418": 2688,
    "\u25810x7d00": 2689,
    "\u25810x78a0": 2690,
    "\u25810x42ce": 2691,
    "\u2581bat": 2692,
    "\u2581op": 2693,
    "any": 2694,
    "violation": 2695,
    "\u25810x42d520": 2696,
    "foreg": 2697,
    "foreground": 2698,
    "\u25810x40a5a0": 2699,
    "foregroundwindow": 2700,
    "bkcolor": 2701,
    "anf": 2702,
    "\u25810x5d": 2703,
    "\u25810x7dec": 2704,
    "\u25810x7ded": 2705,
    "\u25810x1212000": 2706,
    "\u25810x7cc0": 2707,
    "\u25810xa7": 2708,
    "49": 2709,
    "\u2581textout": 2710,
    "cc8": 2711,
    "ageextra": 2712,
    "ageextrainfo": 2713,
    "\u2581getmessageextrainfo": 2714,
    "aff": 2715,
    "\u2581drag": 2716,
    "\u25810x1211e44": 2717,
    "680": 2718,
    "\u25810x566": 2719,
    "lecs": 2720,
    "with": 2721,
    "anfdr": 2722,
    "\u2581sanfdr": 2723,
    "variablecs": 2724,
    "\u2581sleepcondition": 2725,
    "\u2581sleepconditionvariablecs": 2726,
    "\u2581mul": 2727,
    "\u2581muldiv": 2728,
    "288": 2729,
    "\u25810x5265d": 2730,
    "e88": 2731,
    "\u2581registers": 2732,
    "\u2581u": 2733,
    "\u25810x496760": 2734,
    "\u25810xa4": 2735,
    "\u25810xff8": 2736,
    "\u2581getthreaduilanguage": 2737,
    "\u2581message": 2738,
    "\u2581getlogicaldrivestringsa": 2739,
    "\u2581selectob": 2740,
    "ram": 2741,
    "\u25810x12119f0": 2742,
    "\u2581setfileattributesw": 2743,
    "\u2581accept": 2744,
    "\u2581res": 2745,
    "\u25810x20019": 2746,
    "app": 2747,
    "\u25810x52662": 2748,
    "a0000": 2749,
    "\u25810x120fa": 2750,
    "\u25810x40a59e": 2751,
    "\u25810x40a5a2": 2752,
    "\u25810x40a5a4": 2753,
    "\u25810x40a5a6": 2754,
    "\u25810x40a5a8": 2755,
    "\u25810x40a5aa": 2756,
    "ash": 2757,
    "\u25810x20000": 2758,
    "adwork": 2759,
    "\u25810x40933c": 2760,
    "\u25810x7ed0": 2761,
    "\u2581messagebox": 2762,
    "ervicectrlhandl": 2763,
    "\u2581registerservicectrlhandl": 2764,
    "\u25810x45fc": 2765,
    "\u25810x4400": 2766,
    "408": 2767,
    "\u2581findnextfilew": 2768,
    "\u25810x6c": 2769,
    "\u25810xc00": 2770,
    "\u25810x4317e0": 2771,
    "4f": 2772,
    "f62": 2773,
    "\u25810x409344": 2774,
    "lid": 2775,
    "\u2581resum": 2776,
    "\u2581resumethread": 2777,
    "\u2581getdiskfreespac": 2778,
    "ateprocess": 2779,
    "\u25810x7ec4": 2780,
    "\u25810x7ec5": 2781,
    "\u25810x8d80": 2782,
    "\u2581createprocessw": 2783,
    "\u25810x26": 2784,
    "ystate": 2785,
    "\u25810x120f8": 2786,
    "artup": 2787,
    "\u25810x40a9": 2788,
    "\u2581wsprintfa": 2789,
    "las": 2790,
    "\u25810x4305f8": 2791,
    "\u25810x1211e1c": 2792,
    "ssp": 2793,
    "\u25810x7be0": 2794,
    "\u2581unhandledexceptionfilter": 2795,
    "\u25810x1211efc": 2796,
    "\u2581setbkcolor": 2797,
    "ervicehandle": 2798,
    "\u2581closeservicehandle": 2799,
    "emutex": 2800,
    "\u25810x1211f6c": 2801,
    "\u2581sendmessagea": 2802,
    "\u2581releasemutex": 2803,
    "\u25810x7df1": 2804,
    "hread": 2805,
    "scmanag": 2806,
    "\u2581openscmanag": 2807,
    "e4c": 2808,
    "servicestatus": 2809,
    "c80": 2810,
    "\u2581mpr": 2811,
    "\u2581exitthread": 2812,
    "can": 2813,
    "alog": 2814,
    "\u25810x4528": 2815,
    "\u25810x7ec8": 2816,
    "\u25810x4730": 2817,
    "\u25810x7ec9": 2818,
    "\u2581output": 2819,
    "\u2581outputdebug": 2820,
    "4b": 2821,
    "\u2581unmapview": 2822,
    "\u2581unmapviewoffile": 2823,
    "\u25810x1076": 2824,
    "\u2581deletedc": 2825,
    "\u25810x7090": 2826,
    "ogram": 2827,
    "\u2581accessviolation": 2828,
    "\u2581textouta": 2829,
    "\u2581lstrcpynw": 2830,
    "ais": 2831,
    "atethread": 2832,
    "\u2581registerwindow": 2833,
    "\u25810x43640": 2834,
    "\u25810x2100": 2835,
    "\u2581runtime": 2836,
    "\u2581closesocket": 2837,
    "\u25810x43b6": 2838,
    "\u25810x91": 2839,
    "\u25810xa8": 2840,
    "\u2581terminatethread": 2841,
    "\u2581terminateprocess": 2842,
    "special": 2843,
    "\u25810x7edc": 2844,
    "\u2581shgetspecial": 2845,
    "\u2581msvcr": 2846,
    "\u2581getforegroundwindow": 2847,
    "dup": 2848,
    "f80": 2849,
    "\u2581allocate": 2850,
    "cp": 2851,
    "\u2581getdi": 2852,
    "\u25810x7ecc": 2853,
    "\u25810x7ecd": 2854,
    "\u25810x8d00": 2855,
    "\u2581type": 2856,
    "aterect": 2857,
    "\u25810x41e1": 2858,
    "\u2581openscmanagerw": 2859,
    "usp": 2860,
    "esid": 2861,
    "andinitializ": 2862,
    "andinitializesid": 2863,
    "\u2581allocateandinitializesid": 2864,
    "\u25810x52666": 2865,
    "\u2581settext": 2866,
    "palette": 2867,
    "\u25810x1211f10": 2868,
    "\u25810x61": 2869,
    "\u2581bit": 2870,
    "\u25810x96": 2871,
    "\u25810x7ed1": 2872,
    "\u2581openservicew": 2873,
    "\u2581createservice": 2874,
    "\u2581conne": 2875,
    "\u2581setwindowpos": 2876,
    "direct": 2877,
    "\u2581starts": 2878,
    "dispatch": 2879,
    "\u2581startservicectrl": 2880,
    "\u2581startservicectrldispatch": 2881,
    "\u2581geticon": 2882,
    "\u2581setservicestatus": 2883,
    "\u25810x8c70": 2884,
    "\u25810x121193c": 2885,
    "\u2581startservicew": 2886,
    "\u2581drawtexta": 2887,
    "\u2581settextcolor": 2888,
    "\u2581createcompatibledc": 2889,
    "\u2581startservicectrldispatcherw": 2890,
    "instruction": 2891,
    "\u2581createservicew": 2892,
    "\u25810x416b": 2893,
    "\u2581registerclassa": 2894,
    "\u2581ass": 2895,
    "\u2581bitblt": 2896,
    "740": 2897,
    "\u25810x8c60": 2898,
    "\u2581fe": 2899,
    "you": 2900,
    "\u25810x7ed4": 2901,
    "\u25810x7ed5": 2902,
    "\u25810x56bb00": 2903,
    "\u25810x7ed8": 2904,
    "\u25810x7ed9": 2905,
    "\u2581copyfilew": 2906,
    "\u2581findwindowa": 2907,
    "ope": 2908,
    "\u25810x5f": 2909,
    "\u25810x417a": 2910,
    "\u2581createcompatiblebitmap": 2911,
    "opene": 2912,
    "\u25810xa2": 2913,
    "enthread": 2914,
    "\u2581createf": 2915,
    "echeck": 2916,
    "\u25810x7edd": 2917,
    "\u2581exception": 2918,
    "\u2581openthread": 2919,
    "\u2581mar": 2920,
    "longa": 2921,
    "\u25810x8aa0": 2922,
    "\u2581em": 2923,
    "\u25810x188e": 2924,
    "e68": 2925,
    "typ": 2926,
    "destroy": 2927,
    "\u2581getke": 2928,
    "\u2581getkeystate": 2929,
    "\u25810x7d50": 2930,
    "\u2581susp": 2931,
    "\u2581rais": 2932,
    "\u2581raiseex": 2933,
    "\u2581raiseexception": 2934,
    "\u2581htons": 2935,
    "\u25810x7e89": 2936,
    "\u25810x48400": 2937,
    "\u25810x52661": 2938,
    "\u2581suspend": 2939,
    "\u2581suspendthread": 2940,
    "\u25810x7e88": 2941,
    "\u2581freesid": 2942,
    "\u2581socket": 2943,
    "\u2581comm": 2944,
    "\u25810x1211d14": 2945,
    "\u25810x7ee4": 2946,
    "\u2581getdibits": 2947,
    "\u25810x8001": 2948,
    "\u25810x8c90": 2949,
    "\u25810x65": 2950,
    "\u25810x7ee5": 2951,
    "\u25810x5638": 2952,
    "b190": 2953,
    "\u2581wsast": 2954,
    "\u2581wsastartup": 2955,
    "\u2581getob": 2956,
    "\u2581cb": 2957,
    "\u2581outof": 2958,
    "\u25810x80c0": 2959,
    "vice": 2960,
    "solid": 2961,
    "\u25810xa3": 2962,
    "\u25810x4228": 2963,
    "\u2581settimer": 2964,
    "\u2581initializeconditionvariable": 2965,
    "\u25810x7ee1": 2966,
    "\u25810x8ab0": 2967,
    "ontindirect": 2968,
    "\u2581createfontindirect": 2969,
    "\u2581connect": 2970,
    "cre": 2971,
    "\u25810x41a0": 2972,
    "\u25810x51000": 2973,
    "7e0": 2974,
    "solidbrush": 2975,
    "\u2581createsolidbrush": 2976,
    "\u2581lock": 2977,
    "b48": 2978,
    "\u25810x40b8": 2979,
    "failed": 2980,
    "\u25810x7300": 2981,
    "008": 2982,
    "\u2581getusernamew": 2983,
    "287e": 2984,
    "\u25810xffe1": 2985,
    "\u2581kk": 2986,
    "utdown": 2987,
    "\u25810x1211e34": 2988,
    "\u2581feb": 2989,
    "ins": 2990,
    "\u2581invalidaterect": 2991,
    "gument": 2992,
    "\u25810x2ac": 2993,
    "found": 2994,
    "\u2581fill": 2995,
    "\u25810xffe0": 2996,
    "\u25810x1211a00": 2997,
    "empty": 2998,
    "\u25810x8c30": 2999,
    "\u25810xffe4": 3000,
    "\u2581device": 3001,
    "e2c": 3002,
    "\u25810xfffe": 3003,
    "c8c": 3004,
    "\u25810x7900": 3005,
    "\u2581getlogicaldrivestringsw": 3006,
    "\u25810x40e": 3007,
    "\u25810x47a0": 3008,
    "\u25810x8d20": 3009,
    "argument": 3010,
    "\u2581gethost": 3011,
    "\u25810x1009": 3012,
    "\u25810x8bd0": 3013,
    "\u2581bind": 3014,
    "\u25810x508": 3015,
    "openenum": 3016,
    "\u2581wnetopenenum": 3017,
    "une": 3018,
    "\u25810x41f": 3019,
    "\u2581wnetopenenumw": 3020,
    "\u25810x415": 3021,
    "ied": 3022,
    "\u25810x42b190": 3023,
    "\u25810x42eace": 3024,
    "ddata": 3025,
    "lipboar": 3026,
    "lipboarddata": 3027,
    "\u2581destroyicon": 3028,
    "\u2581sept": 3029,
    "a44": 3030,
    "\u25810x8ba0": 3031,
    "\u25810x1211a14": 3032,
    "\u2581createfontindirecta": 3033,
    "c42": 3034,
    "ecta": 3035,
    "byname": 3036,
    "\u25810x8c10": 3037,
    "ccess": 3038,
    "de8": 3039,
    "\u2581gethostbyname": 3040,
    "\u25810x1005": 3041,
    "creating": 3042,
    "\u25810x41d": 3043,
    "\u25810x52000": 3044,
    "hip": 3045,
    "\u25810x9010": 3046,
    "members": 3047,
    "\u2581wnetadd": 3048,
    "\u2581getcomputer": 3049,
    "\u2581wnetaddconnection2w": 3050,
    "afec": 3051,
    "\u2581wnetenum": 3052,
    "\u2581wnetenumresourcew": 3053,
    "\u2581febr": 3054,
    "membership": 3055,
    "\u2581checktoken": 3056,
    "\u2581checktokenmembership": 3057,
    "\u25810xffba": 3058,
    "\u25810xffbb": 3059,
    "\u25810xffbe": 3060,
    "\u25810xffbd": 3061,
    "ged": 3062,
    "ober": 3063,
    "\u25810xffbc": 3064,
    "gust": 3065,
    "\u2581aug": 3066,
    "\u2581april": 3067,
    "\u25810xffb7": 3068,
    "\u2581august": 3069,
    "\u2581fillrect": 3070,
    "\u2581november": 3071,
    "\u2581september": 3072,
    "\u25810xffb8": 3073,
    "\u25810xfffd": 3074,
    "\u2581createdib": 3075,
    "\u25810xffb9": 3076,
    "losec": 3077,
    "\u2581getp": 3078,
    "\u25810xffbf": 3079,
    "\u2581createdibsection": 3080,
    "cor": 3081,
    "cancel": 3082,
    "\u2581div": 3083,
    "bound": 3084,
    "\u25810x81": 3085,
    "\u25810xfffc": 3086,
    "\u2581wnetcancel": 3087,
    "\u2581wnetcancelconnection2w": 3088,
    "barcad": 3089,
    "barcadero": 3090,
    "\u2581embarcadero": 3091,
    "\u2581outofmemory": 3092,
    "\u2581setfileinformationbyhandlew": 3093,
    "\u2581getfileinformationbyhandleexw": 3094,
    "eexa": 3095,
    "wind": 3096,
    "\u25810x1e5": 3097,
    "licen": 3098,
    "\u2581exed": 3099,
    "\u25810x8ca0": 3100,
    "\u25810x42b40": 3101,
    "\u25810xffa0": 3102,
    "\u2581setclass": 3103,
    "anuary": 3104,
    "\u2581march": 3105,
    "\u25810xffb6": 3106,
    "\u2581february": 3107,
    "uly": 3108,
    "\u2581december": 3109,
    "\u2581geticoninfo": 3110,
    "\u25815": 3111,
    "\u25810x8cd0": 3112,
    "\u2581exedows": 3113,
    "\u2581october": 3114,
    "\u2581thu": 3115,
    "nesday": 3116,
    "\u2581monday": 3117,
    "\u2581sunday": 3118,
    "\u2581tuesday": 3119,
    "\u2581wednesday": 3120,
    "\u25810xffa1": 3121,
    "\u25810xffa2": 3122,
    "a10": 3123,
    "infoa": 3124,
    "ursday": 3125,
    "\u2581thursday": 3126,
    "\u2581fri": 3127,
    "index": 3128,
    "\u25810x8bb0": 3129,
    "\u2581drawicon": 3130,
    "\u2581getkeyboardstate": 3131,
    "ond": 3132,
    "iday": 3133,
    "urday": 3134,
    "\u2581friday": 3135,
    "\u2581saturday": 3136,
    "\u25810x8be0": 3137,
    "\u2581openclipboard": 3138,
    "\u2581setclipboarddata": 3139,
    "\u25810x8c40": 3140,
    "\u25810xffa3": 3141,
    "\u2581empty": 3142,
    "\u2581closec": 3143,
    "\u2581closeclipboard": 3144,
    "tic": 3145,
    "\u2581emptyclipboard": 3146,
    "unwind": 3147,
    "\u25810x7bf0": 3148,
    "\u2581rtlunwind": 3149,
    "\u2581shellexecut": 3150,
    "\u2581sn": 3151,
    "\u25810xffa4": 3152,
    "exception": 3153,
    "eer": 3154,
    "\u25810x52663": 3155,
    "\u2581lstrcmpa": 3156,
    "\u2581createpalette": 3157,
    "emory": 3158,
    "\u25810xfffb": 3159,
    "\u2581getwindow": 3160,
    "sspace": 3161,
    "\u25810x8c00": 3162,
    "\u25810x1210ec": 3163,
    "afecall": 3164,
    "\u25810x4394": 3165,
    "\u25810x7b90": 3166,
    "\u2581isspace": 3167,
    "\u2581setclasslonga": 3168,
    "788": 3169,
    "f3c": 3170,
    "\u25810xffa7": 3171,
    "zer": 3172,
    "\u25810xffa5": 3173,
    "\u25810xffa6": 3174,
    "geo": 3175,
    "den": 3176,
    "\u25810xffb5": 3177,
    "\u2581extractassociatedicona": 3178,
    "\u2581extractassociatediconw": 3179,
    "ebe": 3180,
    "facen": 3181,
    "\u25810xffcd": 3182,
    "\u2581interfacen": 3183,
    "\u2581shellexecuteexw": 3184,
    "\u2581list": 3185,
    "970": 3186,
    "\u2581getwindowsdirectorya": 3187,
    "\u2581shutdown": 3188,
    "zerom": 3189,
    "\u2581asser": 3190,
    "\u2581rtlzerom": 3191,
    "\u2581rtlzeromemory": 3192,
    "\u2581findwindowexa": 3193,
    "\u2581stack": 3194,
    "\u2581external": 3195,
    "dateresourcew": 3196,
    "\u25810x51c": 3197,
    "\u2581registerservicectrlhandlerw": 3198,
    "\u2581endup": 3199,
    "\u25810xffa8": 3200,
    "\u2581privile": 3201,
    "\u2581updateresourcea": 3202,
    "\u2581endupdateresourcea": 3203,
    "\u2581beginupdateresourcea": 3204,
    "geoid": 3205,
    "\u25810x41a": 3206,
    "\u2581getusergeoid": 3207,
    "\u25810xffa9": 3208,
    "\u2581assertion": 3209,
    "e2b": 3210,
    "eger": 3211,
    "\u2581integer": 3212,
    "\u2581htonl": 3213,
    "\u2581beginupdateresourcew": 3214,
    "styp": 3215,
    "\u25810x1210e0": 3216,
    "changet": 3217,
    "\u2581variantchanget": 3218,
    "\u25810xfffa": 3219,
    "108": 3220,
    "octls": 3221,
    "ticonex": 3222,
    "\u2581ioctls": 3223,
    "insafecall": 3224,
    "\u2581ioctlsocket": 3225,
    "\u2581extracticonex": 3226,
    "\u2581exceptioninsafecall": 3227,
    "\u2581extracticonexw": 3228,
    "\u25810x100000": 3229,
    "\u2581disk": 3230,
    "once": 3231,
    "calls": 3232,
    "\u25810xffb4": 3233,
    "\u2581listen": 3234,
    "\u25810xffaa": 3235,
    "\u25810x1e00000": 3236,
    "\u25810x1e50000": 3237,
    "ecast": 3238,
    "underflow": 3239,
    "denied": 3240,
    "\u25810xffe6": 3241,
    "\u25810x8280": 3242,
    "verflow": 3243,
    "\u2581assertionfailed": 3244,
    "de4": 3245,
    "mod": 3246,
    "bounds": 3247,
    "\u25810x8820": 3248,
    "\u2581privileged": 3249,
    "clas": 3250,
    "\u2581chit": 3251,
    "\u2581rang": 3252,
    "otsuped": 3253,
    "classtyp": 3254,
    "indexout": 3255,
    "notsuped": 3256,
    "\u2581rangecheck": 3257,
    "classtypecast": 3258,
    "\u2581externalexception": 3259,
    "\u2581interfacenotsuped": 3260,
    "ofbounds": 3261,
    "callsnotsuped": 3262,
    "\u2581errorcreating": 3263,
    "indexoutofbounds": 3264,
    "pointeroperation": 3265,
    "\u2581errorcreatingvariant": 3266,
    "\u2581invalidclasstypecast": 3267,
    "\u2581variantcallsnotsuped": 3268,
    "\u2581floatingpointunderflow": 3269,
    "pointo": 3270,
    "typecon": 3271,
    "leaccess": 3272,
    "pointoverflow": 3273,
    "divisionbyzero": 3274,
    "typeconversion": 3275,
    "\u2581stackoverflow": 3276,
    "\u2581floatingpointoverflow": 3277,
    "\u2581privilegedinstruction": 3278,
    "\u2581invalidvariantoperation": 3279,
    "\u2581floatingpointdivisionbyzero": 3280,
    "\u2581invalidvarianttypeconversion": 3281,
    "eername": 3282,
    "floating": 3283,
    "\u2581getpeername": 3284,
    "floatingpoint": 3285,
    "\u2581divisionbyzero": 3286,
    "\u2581integeroverflow": 3287,
    "\u2581rangecheckerror": 3288,
    "\u2581invalidfloatingpoint": 3289,
    "\u2581invalidpointeroperation": 3290,
    "\u2581invalidfloatingpointoperation": 3291,
    "bey": 3292,
    "omany": 3293,
    "beyond": 3294,
    "numeric": 3295,
    "\u25810xb0000": 3296,
    "\u2581toomany": 3297,
    "openfiles": 3298,
    "\u2581diskfull": 3299,
    "\u2581readbeyond": 3300,
    "numericinput": 3301,
    "\u2581invalidfilename": 3302,
    "\u2581toomanyopenfiles": 3303,
    "\u2581invalidnumericinput": 3304,
    "\u2581readbeyondendoffile": 3305,
    "\u2581the": 3306,
    "\u25810xffce": 3307,
    "\u2581fileaccess": 3308,
    "\u2581fileaccessdenied": 3309,
    "\u2581lstrcpyna": 3310,
    "584": 3311,
    "bool": 3312,
    "\u2581varbstrfrombool": 3313,
    "\u25810xa6": 3314,
    "\u25810x2ac45": 3315,
    "\u25810x7b000": 3316,
    "ypeex": 3317,
    "\u2581variantchangetypeex": 3318,
    "neg": 3319,
    "\u25810x40287e": 3320,
    "\u2581fmode": 3321,
    "\u25810x202": 3322,
    "\u25810x88e0": 3323,
    "\u25810x8d60": 3324,
    "\u25810xffcf": 3325,
    "\u25810x100300": 3326,
    "mul": 3327,
    "xor": 3328,
    "idiv": 3329,
    "\u2581varcy": 3330,
    "\u2581varor": 3331,
    "\u2581varr8": 3332,
    "\u2581varadd": 3333,
    "\u2581varand": 3334,
    "\u2581varcmp": 3335,
    "\u2581vardiv": 3336,
    "\u2581varmod": 3337,
    "\u2581varmul": 3338,
    "\u2581varneg": 3339,
    "\u2581varnot": 3340,
    "\u2581varsub": 3341,
    "\u2581varxor": 3342,
    "\u2581varbool": 3343,
    "\u2581vardate": 3344,
    "\u2581varidiv": 3345,
    "\u2581varcyfromstr": 3346,
    "\u2581vari4fromstr": 3347,
    "\u2581varr4fromstr": 3348,
    "\u2581varr8fromstr": 3349,
    "\u2581varbstrfromcy": 3350,
    "\u2581varboolfromstr": 3351,
    "\u2581vardatefromstr": 3352,
    "\u2581varbstrfromdate": 3353,
    "c88": 3354,
    "\u25810x3e8": 3355,
    "\u25810xffe5": 3356,
    "e6c": 3357,
    "731": 3358,
    "207": 3359,
    "\u25810x80e0": 3360,
    "98c": 3361,
    "\u25810x12110": 3362,
    "no": 3363,
    "656c": 3364,
    "\u25810x4615": 3365,
    "\u258111": 3366,
    "\u25816": 3367,
    "\u25810xffb0": 3368,
    "\u25810x42332": 3369,
    "97a": 3370,
    "\u25810xfff9": 3371,
    "\u25810x5c": 3372,
    "d88": 3373,
    "\u2581process32firstw": 3374,
    "\u25810xffb3": 3375,
    "f0c": 3376,
    "bas": 3377,
    "fff0": 3378,
    "\u25810xffb2": 3379,
    "\u25810x42990": 3380,
    "e54": 3381,
    "\u25810xffb1": 3382,
    "\u2581snap": 3383,
    "\u25810x12112f8": 3384,
    "32cs": 3385,
    "\u2581th32cs": 3386,
    "\u2581sr": 3387,
    "\u25810x1211ed4": 3388,
    "folderw": 3389,
    "validate": 3390,
    "\u2581heapvalidate": 3391,
    "\u25810x84b0": 3392,
    "\u2581invalidargument": 3393,
    "\u25810x4df0": 3394,
    "\u2581variantorsafearray": 3395,
    "\u2581errorcreatingvariantorsafearray": 3396,
    "\u2581variantorsafearrayindexoutofbounds": 3397,
    "\u25810x8310": 3398,
    "\u25810x13fff0": 3399,
    "\u25810x7270": 3400,
    "\u25810xfff8": 3401,
    "\u25810x8819": 3402,
    "\u25810x8818": 3403,
    "\u25810x4300": 3404,
    "\u2581setthreadpreferreduilanguages": 3405,
    "d8000": 3406,
    "b5c": 3407,
    "\u25810x52664": 3408,
    "\u25810x52665": 3409,
    "\u25810x881c": 3410,
    "\u25810x881d": 3411,
    "b88": 3412,
    "dos": 3413,
    "\u25810x8821": 3414,
    "\u25810xfff7": 3415,
    "\u25810x8d50": 3416,
    "\u25810x11000": 3417,
    "a730": 3418,
    "\u25810x78d0": 3419,
    "\u25810x8d30": 3420,
    "\u25810x1210f4": 3421,
    "\u25810x419": 3422,
    "\u2581getclass": 3423,
    "\u2581getcomputernamea": 3424,
    "\u2581mov": 3425,
    "\u2581outputdebugstringa": 3426,
    "\u25810x1f000": 3427,
    "cef": 3428,
    "d3c": 3429,
    "\u2581di": 3430,
    "\u2581failedto": 3431,
    "164": 3432,
    "\u2581rand": 3433,
    "004": 3434,
    "\u25810x7060": 3435,
    "ok": 3436,
    "\u25810x42e6": 3437,
    "f88": 3438,
    "\u2581loadresource": 3439,
    "\u25810x1211c08": 3440,
    "\u2581of": 3441,
    "\u25810x7870": 3442,
    "\u2581ntquery": 3443,
    "\u2581he": 3444,
    "\u25810x71b0": 3445,
    "0x": 3446,
    "\u25810x42fb": 3447,
    "\u2581error0x": 3448,
    "\u25810x9b": 3449,
    "74c": 3450,
    "\u25810x7dc8": 3451,
    "\u25810x3f3": 3452,
    "488": 3453,
    "\u25810xfeed": 3454,
    "\u25810x9a": 3455,
    "\u2581localfree": 3456,
    "drl6660drl6660drl6660drl6660drl6660drl6660drl6660drl6660": 3457,
    "\u2581srand": 3458,
    "\u25810x1211f78": 3459,
    "\u25810xfff6": 3460,
    "\u25810x563868": 3461,
    "adm": 3462,
    "edex": 3463,
    "\u25810x93": 3464,
    "\u25810x3f31": 3465,
    "edexchange": 3466,
    "\u2581interlockedexchange": 3467,
    "oem": 3468,
    "\u2581registerclassexw": 3469,
    "a84": 3470,
    "\u25810x1211e30": 3471,
    "\u25810x53000000": 3472,
    "\u2581tmp": 3473,
    "\u25810x437808": 3474,
    "\u25810x48f894": 3475,
    "\u25810x40f937": 3476,
    "search": 3477,
    "\u25810x437806": 3478,
    "\u25810x43780a": 3479,
    "\u25810x43780c": 3480,
    "\u25810x43780e": 3481,
    "\u25810x437810": 3482,
    "\u25810x437812": 3483,
    "\u25810x437814": 3484,
    "\u25810x437816": 3485,
    "\u25810x437818": 3486,
    "\u25810x43781a": 3487,
    "\u25810x43781c": 3488,
    "\u25810x43781e": 3489,
    "\u2581snapprocess": 3490,
    "\u2581work": 3491,
    "searchmode": 3492,
    "\u2581setsearchmode": 3493,
    "\u25810x4318": 3494,
    "b60": 3495,
    "\u2581move": 3496,
    "inki": 3497,
    "setinformation": 3498,
    "\u25810x1211f74": 3499,
    "a48": 3500,
    "yarg1": 3501,
    "a41": 3502,
    "cc000": 3503,
    "\u2581hels": 3504,
    "\u25810x4f62": 3505,
    "\u2581helsinki": 3506,
    "\u2581messageboxa": 3507,
    "odos": 3508,
    "\u25810x40c": 3509,
    "\u25810x3f22": 3510,
    "ve": 3511,
    "\u25810x4c3": 3512,
    "\u25810xcf0000": 3513,
    "\u25810x169b": 3514,
    "\u25810x5265e": 3515,
    "lete": 3516,
    "\u25810x20a": 3517,
    "\u25810x5265f": 3518,
    "\u25810x431": 3519,
    "\u25810x46b3": 3520,
    "\u2581shellexecutew": 3521,
    "hash": 3522,
    "\u25810xaa": 3523,
    "lication": 3524,
    "\u2581setprocess": 3525,
    "\u25810xad": 3526,
    "mut": 3527,
    "d4000": 3528,
    "\u25810xab": 3529,
    "\u25810xffd3": 3530,
    "\u25810x5e": 3531,
    "\u25810x409a": 3532,
    "\u25810x4a20": 3533,
    "\u25810x120e6d4": 3534,
    "ly": 3535,
    "\u2581heapsetinformation": 3536,
    "\u2581new": 3537,
    "izn": 3538,
    "iznadm": 3539,
    "\u25810xffc6": 3540,
    "\u2581triznadm": 3541,
    "\u25810x1210e5": 3542,
    "\u25810x7390": 3543,
    "\u2581openmut": 3544,
    "dep": 3545,
    "ecc": 3546,
    "\u25810x3f4000": 3547,
    "\u25810x7b10": 3548,
    "\u25810xfeee0108": 3549,
    "\u2581shgetspecialfolderw": 3550,
    "ac8": 3551,
    "\u25810x1210ee": 3552,
    "\u25810x1210f0": 3553,
    "\u25810x210": 3554,
    "\u2581getoem": 3555,
    "\u2581findresourcew": 3556,
    "\u2581getoemcp": 3557,
    "afile": 3558,
    "\u25810x405": 3559,
    "\u25810x41e": 3560,
    "ed000": 3561,
    "\u25810x46a0": 3562,
    "\u25810x598": 3563,
    "\u25810x7b40": 3564,
    "\u25810x1211f18": 3565,
    "69c": 3566,
    "systeminformation": 3567,
    "\u2581ofresource": 3568,
    "\u25810x44280": 3569,
    "want": 3570,
    "\u258174": 3571,
    "\u25810x79c0": 3572,
    "win": 3573,
    "\u25810x4c51": 3574,
    "\u2581registerwindowmessagew": 3575,
    "b44": 3576,
    "\u2581net": 3577,
    "profile": 3578,
    "\u25810x7030": 3579,
    "\u25810x8830": 3580,
    "exit": 3581,
    "\u25810x1210e6": 3582,
    "\u25810x51af": 3583,
    "\u25810x1211ec8": 3584,
    "\u25810x75d0": 3585,
    "\u25810x714": 3586,
    "608": 3587,
    "ols": 3588,
    "\u2581loadlibraryexa": 3589,
    "\u25810x40b": 3590,
    "edirectory": 3591,
    "licence": 3592,
    "\u25810x1211f40": 3593,
    "\u25810xfff5": 3594,
    "\u2581program": 3595,
    "\u25810xffc5": 3596,
    "\u25810x8090": 3597,
    "\u25810x5265c28": 3598,
    "\u25810xac": 3599,
    "\u25810x1211dd0": 3600,
    "xit": 3601,
    "\u25810x431e": 3602,
    "licy": 3603,
    "11000": 3604,
    "c8000": 3605,
    "\u2581golfset": 3606,
    "policy": 3607,
    "\u25810x44d4": 3608,
    "\u25810xb000": 3609,
    "\u25810x71a0": 3610,
    "\u2581openmutexa": 3611,
    "\u25810x7ee9": 3612,
    "\u2581lockresource": 3613,
    "\u2581flushfile": 3614,
    "\u2581flushfilebuffers": 3615,
    "\u25810x42eb": 3616,
    "\u25810x7a50": 3617,
    "\u25810xffab": 3618,
    "\u25810x404": 3619,
    "\u25810x71e0": 3620,
    "\u25810x8260": 3621,
    "\u25810x7a10": 3622,
    "\u2581comparestringw": 3623,
    "\u25810x7750": 3624,
    "ce000": 3625,
    "\u25810x4e80": 3626,
    "deppolicy": 3627,
    "the": 3628,
    "\u25810x490": 3629,
    "\u25810x74e0": 3630,
    "\u25810x7cf0": 3631,
    "\u25810x3f30b0": 3632,
    "\u25810x181c": 3633,
    "\u25810x3f30e0": 3634,
    "\u2581setprocessdeppolicy": 3635,
    "\u25810x3f3030": 3636,
    "\u2581createwindow": 3637,
    "a0f": 3638,
    "\u25810xbc": 3639,
    "\u25810xffac": 3640,
    "\u25810x3f3110": 3641,
    "\u25810x3f3140": 3642,
    "\u2581ntquerysysteminformation": 3643,
    "\u2581createwindowexw": 3644,
    "\u25810x7f03": 3645,
    "\u2581acquiresrwlockexclusive": 3646,
    "\u25810x437c": 3647,
    "accel": 3648,
    "yarg2": 3649,
    "\u25810x7ae0": 3650,
    "\u2581getkeyboardtype": 3651,
    "\u25810x1b2": 3652,
    "\u25810x7210": 3653,
    "\u25810xffcc": 3654,
    "ac4": 3655,
    "dc000": 3656,
    "\u25810x72d0": 3657,
    "e8000": 3658,
    "contr": 3659,
    "de000": 3660,
    "fc000": 3661,
    "\u25810x7600": 3662,
    "14000": 3663,
    "\u25810x1f0001": 3664,
    "\u25810x7240": 3665,
    "\u25810x7ee8": 3666,
    "ec000": 3667,
    "\u25810x7a20": 3668,
    "ffc": 3669,
    "26b2": 3670,
    "\u25810x4c4230": 3671,
    "\u25810x42a730": 3672,
    "\u25810x42a731": 3673,
    "\u25810x4c4248": 3674,
    "\u25810x4c4260": 3675,
    "\u25810x4c4278": 3676,
    "\u25810x4c4290": 3677,
    "\u25810x4c42a8": 3678,
    "\u25810x4c4320": 3679,
    "\u25810x4c4338": 3680,
    "\u25810x4c4350": 3681,
    "\u25810x4c4368": 3682,
    "18000": 3683,
    "\u25810x75a0": 3684,
    "\u25810x120e6d8": 3685,
    "\u25810xffd0": 3686,
    "\u2581getsecurityinfo": 3687,
    "\u25810x7340": 3688,
    "\u25810x7660": 3689,
    "\u25810x40a582": 3690,
    "\u25810x40a584": 3691,
    "\u25810x40a586": 3692,
    "\u25810x40a588": 3693,
    "160": 3694,
    "ff000": 3695,
    "\u25810x40a58a": 3696,
    "\u25810x40a580": 3697,
    "\u25810x7180": 3698,
    "inac": 3699,
    "f4000": 3700,
    "\u25810x7330": 3701,
    "\u25810x7720": 3702,
    "triesinac": 3703,
    "\u25810x40a57e": 3704,
    "\u25810x429a81": 3705,
    "\u2581setentriesinac": 3706,
    "\u25810x434d": 3707,
    "\u25810x7480": 3708,
    "\u25810x7570": 3709,
    "e6000": 3710,
    "ee000": 3711,
    "\u25810x40a93": 3712,
    "264": 3713,
    "\u25810x7ba0": 3714,
    "\u2581no": 3715,
    "\u25810x97b0": 3716,
    "ac6": 3717,
    "\u25810x70c0": 3718,
    "\u25810x7120": 3719,
    "700": 3720,
    "\u25810x76f0": 3721,
    "\u25810x437ae4": 3722,
    "b8c": 3723,
    "\u25810x437207": 3724,
    "\u25810x437208": 3725,
    "\u25810x437ad2": 3726,
    "\u25810x437ad3": 3727,
    "\u25810x437ae3": 3728,
    "\u25810x437b63": 3729,
    "\u25810x437b64": 3730,
    "\u25810x437b7b": 3731,
    "\u25810x437b7c": 3732,
    "\u25810x437bbd": 3733,
    "\u25810x437bbe": 3734,
    "\u25810x437bce": 3735,
    "\u25810x437bcf": 3736,
    "\u25810x437c42": 3737,
    "\u25810x437c43": 3738,
    "\u25810x76c0": 3739,
    "\u25810x1210e4": 3740,
    "\u2581heapdestroy": 3741,
    "1c000": 3742,
    "\u25810x74b0": 3743,
    "\u25810x7510": 3744,
    "\u25810x4c5158": 3745,
    "\u25810x7360": 3746,
    "\u25810x429e2b": 3747,
    "\u25810x429e2c": 3748,
    "\u25810x434d1c": 3749,
    "\u25810x43b7a9": 3750,
    "\u25810x43b7aa": 3751,
    "\u25810x43b7b8": 3752,
    "\u25810x422ebe": 3753,
    "\u25810x43b7b3": 3754,
    "\u25810x43b7b4": 3755,
    "\u25810x43b7ba": 3756,
    "\u25810x43b7c4": 3757,
    "unmapviewofsection": 3758,
    "\u25810x77b0": 3759,
    "accelerat": 3760,
    "\u258117": 3761,
    "\u25810x99d0": 3762,
    "\u25810x3f5000": 3763,
    "ream": 3764,
    "\u25810x7840": 3765,
    "\u25810x7960": 3766,
    "\u25810x7af0": 3767,
    "\u25810x1210ed": 3768,
    "\u25810x1210f2": 3769,
    "\u25810x1210f5": 3770,
    "\u25810x433618": 3771,
    "\u2581ntunmapviewofsection": 3772,
    "\u25810x7420": 3773,
    "\u2581setentriesinacla": 3774,
    "\u2581createsemaphore": 3775,
    "\u25810x7990": 3776,
    "metafile": 3777,
    "504": 3778,
    "\u25810x70f0": 3779,
    "\u25810x7450": 3780,
    "\u2581ntmapviewofsection": 3781,
    "\u25810x73c0": 3782,
    "statust": 3783,
    "\u2581setsecurityinfo": 3784,
    "data": 3785,
    "\u25810x421": 3786,
    "\u2581rtlnt": 3787,
    "odoserror": 3788,
    "\u2581rtlntstatust": 3789,
    "\u2581rtlntstatustodoserror": 3790,
    "76f7": 3791,
    "\u2581run": 3792,
    "\u25810x4169": 3793,
    "\u25810x431d": 3794,
    "e10": 3795,
    "\u25810x7630": 3796,
    "\u25810x41c0": 3797,
    "\u25810xca0000": 3798,
    "\u25810x3f75f60": 3799,
    "\u25810x77001000": 3800,
    "\u25810x77002000": 3801,
    "\u25810x77003000": 3802,
    "\u25810x77004000": 3803,
    "\u25810x77005000": 3804,
    "\u25810x77006000": 3805,
    "\u25810x77007000": 3806,
    "\u25810x77008000": 3807,
    "\u25810x77009000": 3808,
    "\u25810x7700a000": 3809,
    "\u25810x7700b000": 3810,
    "\u25810x7700c000": 3811,
    "\u25810x7700d000": 3812,
    "\u25810x7700e000": 3813,
    "\u25810x7700f000": 3814,
    "\u25810x77010000": 3815,
    "\u25810x77011000": 3816,
    "\u25810x77012000": 3817,
    "\u25810x77013000": 3818,
    "\u25810x77014000": 3819,
    "\u25810x77015000": 3820,
    "\u25810x77016000": 3821,
    "\u25810x77017000": 3822,
    "\u25810x77018000": 3823,
    "\u25810x77019000": 3824,
    "\u25810x7701a000": 3825,
    "\u25810x7701b000": 3826,
    "\u25810x7701c000": 3827,
    "\u25810x7701d000": 3828,
    "\u25810x7701e000": 3829,
    "\u25810x7701f000": 3830,
    "\u25810x77020000": 3831,
    "\u25810x77021000": 3832,
    "\u25810x77022000": 3833,
    "\u25810x77023000": 3834,
    "\u25810x77024000": 3835,
    "\u25810x77025000": 3836,
    "\u25810x77026000": 3837,
    "\u25810x77027000": 3838,
    "\u25810x77028000": 3839,
    "\u25810x77029000": 3840,
    "\u25810x7702a000": 3841,
    "\u25810x7702b000": 3842,
    "\u25810x7702c000": 3843,
    "\u25810x7702d000": 3844,
    "\u25810x7702e000": 3845,
    "\u25810x7702f000": 3846,
    "\u25810x77030000": 3847,
    "\u25810x77031000": 3848,
    "\u25810x77032000": 3849,
    "\u25810x77033000": 3850,
    "\u25810x77034000": 3851,
    "\u25810x77035000": 3852,
    "\u25810x77036000": 3853,
    "\u25810x77037000": 3854,
    "\u25810x77038000": 3855,
    "\u25810x77039000": 3856,
    "\u25810x7703a000": 3857,
    "\u25810x7703b000": 3858,
    "\u25810x7703c000": 3859,
    "\u25810x7703d000": 3860,
    "\u25810x7703e000": 3861,
    "\u25810x7703f000": 3862,
    "\u25810x77040000": 3863,
    "\u25810x77041000": 3864,
    "\u25810x77042000": 3865,
    "\u25810x77043000": 3866,
    "\u25810x77044000": 3867,
    "\u25810x77045000": 3868,
    "\u25810x77046000": 3869,
    "\u25810x77047000": 3870,
    "\u25810x77048000": 3871,
    "\u25810x77049000": 3872,
    "\u25810x7704a000": 3873,
    "\u25810x7704b000": 3874,
    "\u25810x7704c000": 3875,
    "\u25810x7704d000": 3876,
    "\u25810x7704e000": 3877,
    "\u25810x7704f000": 3878,
    "\u25810x77050000": 3879,
    "\u25810x77051000": 3880,
    "\u25810x77052000": 3881,
    "\u25810x77053000": 3882,
    "\u25810x77054000": 3883,
    "\u25810x77055000": 3884,
    "\u25810x77056000": 3885,
    "\u25810x77057000": 3886,
    "\u25810x77058000": 3887,
    "\u25810x77059000": 3888,
    "\u25810x7705a000": 3889,
    "\u25810x7705b000": 3890,
    "\u25810x7705c000": 3891,
    "\u25810x7705d000": 3892,
    "\u25810x7705e000": 3893,
    "\u25810x7705f000": 3894,
    "\u25810x77060000": 3895,
    "\u25810x77061000": 3896,
    "\u25810x77062000": 3897,
    "\u25810x77063000": 3898,
    "\u25810x77064000": 3899,
    "\u25810x77065000": 3900,
    "\u25810x77066000": 3901,
    "\u25810x77067000": 3902,
    "\u25810x77068000": 3903,
    "\u25810x77069000": 3904,
    "\u25810x7706a000": 3905,
    "\u25810x7706b000": 3906,
    "\u25810x7706c000": 3907,
    "\u25810x7706d000": 3908,
    "\u25810x7706e000": 3909,
    "\u25810x7706f000": 3910,
    "\u25810x77070000": 3911,
    "\u25810x77071000": 3912,
    "\u25810x77072000": 3913,
    "\u25810x77073000": 3914,
    "\u25810x77074000": 3915,
    "\u25810x77075000": 3916,
    "\u25810x77076000": 3917,
    "\u25810x77077000": 3918,
    "\u25810x77078000": 3919,
    "\u25810x77079000": 3920,
    "\u25810x7707a000": 3921,
    "\u25810x7707b000": 3922,
    "\u25810x7707c000": 3923,
    "\u25810x7707d000": 3924,
    "\u25810x7707e000": 3925,
    "\u25810x7707f000": 3926,
    "\u25810x77080000": 3927,
    "\u25810x77081000": 3928,
    "\u25810x77082000": 3929,
    "\u25810x77083000": 3930,
    "\u25810x77084000": 3931,
    "\u25810x77085000": 3932,
    "\u25810x77086000": 3933,
    "\u25810x77087000": 3934,
    "\u25810x77088000": 3935,
    "\u25810x77089000": 3936,
    "\u25810x7708a000": 3937,
    "\u25810x7708b000": 3938,
    "\u25810x7708c000": 3939,
    "\u25810x7708d000": 3940,
    "\u25810x7708e000": 3941,
    "\u25810x7708f000": 3942,
    "\u25810x77090000": 3943,
    "\u25810x77091000": 3944,
    "\u25810x77092000": 3945,
    "\u25810x77093000": 3946,
    "\u25810x77094000": 3947,
    "\u25810x77095000": 3948,
    "\u25810x77096000": 3949,
    "\u25810x77097000": 3950,
    "\u25810x77098000": 3951,
    "\u25810x77099000": 3952,
    "\u25810x7709a000": 3953,
    "\u25810x7709b000": 3954,
    "\u25810x7709c000": 3955,
    "\u25810x7709d000": 3956,
    "\u25810x7709e000": 3957,
    "\u25810x7709f000": 3958,
    "\u25810x770a0000": 3959,
    "\u25810x770a1000": 3960,
    "\u25810x770a2000": 3961,
    "\u25810x770a3000": 3962,
    "\u25810x770a4000": 3963,
    "\u25810x770a5000": 3964,
    "\u25810x770a6000": 3965,
    "\u25810x770a7000": 3966,
    "\u25810x770a8000": 3967,
    "\u25810x770a9000": 3968,
    "\u25810x770aa000": 3969,
    "\u25810x770ab000": 3970,
    "\u25810x770ac000": 3971,
    "\u25810x770ad000": 3972,
    "\u25810x770ae000": 3973,
    "\u25810x770af000": 3974,
    "\u25810x770b0000": 3975,
    "\u25810x770b1000": 3976,
    "\u25810x770b2000": 3977,
    "\u25810x770b3000": 3978,
    "\u25810x770b4000": 3979,
    "\u25810x770b5000": 3980,
    "\u25810x770b6000": 3981,
    "\u25810x770b7000": 3982,
    "\u25810x770b8000": 3983,
    "\u25810x770b9000": 3984,
    "\u25810x770ba000": 3985,
    "\u25810x770bb000": 3986,
    "\u25810x770bc000": 3987,
    "\u25810x770bd000": 3988,
    "\u25810x770be000": 3989,
    "\u25810x770bf000": 3990,
    "\u25810x770c0000": 3991,
    "\u25810x770c1000": 3992,
    "\u25810x770c2000": 3993,
    "\u25810x770c3000": 3994,
    "\u25810x770c4000": 3995,
    "\u25810x770c5000": 3996,
    "\u25810x770c6000": 3997,
    "\u25810x770c7000": 3998,
    "\u25810x770c8000": 3999,
    "\u25810x770c9000": 4000,
    "\u25810x770ca000": 4001,
    "\u25810x770cb000": 4002,
    "\u25810x770cc000": 4003,
    "\u25810x770cd000": 4004,
    "\u25810x770ce000": 4005,
    "\u25810x770cf000": 4006,
    "\u25810x770d0000": 4007,
    "\u25810x770d1000": 4008,
    "\u25810x770d2000": 4009,
    "\u25810x770d3000": 4010,
    "\u25810x770d4000": 4011,
    "\u25810x770d5000": 4012,
    "\u25810x770d6000": 4013,
    "\u25810x770d7000": 4014,
    "\u25810x770d8000": 4015,
    "\u25810x770d9000": 4016,
    "\u25810x770da000": 4017,
    "\u25810x770db000": 4018,
    "\u25810x770dc000": 4019,
    "\u25810x770dd000": 4020,
    "\u25810x770de000": 4021,
    "\u25810x770df000": 4022,
    "\u25810x770e0000": 4023,
    "\u25810x770e1000": 4024,
    "\u25810x770e2000": 4025,
    "\u25810x770e3000": 4026,
    "\u25810x770e4000": 4027,
    "\u25810x770e5000": 4028,
    "\u25810x770e6000": 4029,
    "\u25810x770e7000": 4030,
    "\u25810x770e8000": 4031,
    "\u25810x770e9000": 4032,
    "\u25810x770ea000": 4033,
    "\u25810x770eb000": 4034,
    "\u25810x770ec000": 4035,
    "\u25810x770ed000": 4036,
    "\u25810x770ee000": 4037,
    "\u25810x770ef000": 4038,
    "\u25810x770f0000": 4039,
    "\u25810x770f1000": 4040,
    "\u25810x770f2000": 4041,
    "\u25810x770f3000": 4042,
    "\u25810x770f4000": 4043,
    "\u25810x770f5000": 4044,
    "\u25810x770f6000": 4045,
    "\u25810x770f7000": 4046,
    "\u25810x770f8000": 4047,
    "\u25810x770f9000": 4048,
    "\u25810x770fa000": 4049,
    "\u25810x770fb000": 4050,
    "\u25810x770fc000": 4051,
    "\u25810x770fd000": 4052,
    "\u25810x770fe000": 4053,
    "\u25810x770ff000": 4054,
    "\u25810x77100000": 4055,
    "\u25810x77101000": 4056,
    "\u25810x77102000": 4057,
    "\u25810x77103000": 4058,
    "\u25810x77104000": 4059,
    "\u25810x77105000": 4060,
    "\u25810x77106000": 4061,
    "\u25810x77107000": 4062,
    "\u25810x77108000": 4063,
    "\u25810x77109000": 4064,
    "\u25810x7710a000": 4065,
    "\u25810x7710b000": 4066,
    "\u25810x7710c000": 4067,
    "\u25810x7710d000": 4068,
    "\u25810x7710e000": 4069,
    "\u25810x7710f000": 4070,
    "\u25810x77110000": 4071,
    "\u25810x77111000": 4072,
    "\u25810x77112000": 4073,
    "\u25810x77113000": 4074,
    "\u25810x77114000": 4075,
    "\u25810x77115000": 4076,
    "\u25810x77116000": 4077,
    "\u25810x77117000": 4078,
    "\u25810x77118000": 4079,
    "\u25810x77119000": 4080,
    "\u25810x7711a000": 4081,
    "\u25810x7711b000": 4082,
    "\u25810x7711c000": 4083,
    "\u25810x7711d000": 4084,
    "\u25810x7711e000": 4085,
    "\u25810x7711f000": 4086,
    "\u25810x77120000": 4087,
    "\u25810x77121000": 4088,
    "\u25810x77122000": 4089,
    "\u25810x77123000": 4090,
    "\u25810x77124000": 4091,
    "\u25810x77125000": 4092,
    "\u25810x77126000": 4093,
    "\u25810x77127000": 4094,
    "\u25810x77128000": 4095,
    "\u25810x77129000": 4096,
    "\u25810x7712a000": 4097,
    "\u25810x7712b000": 4098,
    "\u25810x7712c000": 4099,
    "\u25810x7712d000": 4100,
    "\u25810x7712e000": 4101,
    "\u25810x7712f000": 4102,
    "\u25810x77130000": 4103,
    "\u25810x77131000": 4104,
    "\u25810x77132000": 4105,
    "\u25810x77133000": 4106,
    "\u25810x77134000": 4107,
    "\u25810x77135000": 4108,
    "\u25810x77136000": 4109,
    "\u25810x77137000": 4110,
    "\u25810x77138000": 4111,
    "\u25810x77139000": 4112,
    "\u25810x7713a000": 4113,
    "\u25810x7713b000": 4114,
    "\u25810x7713c000": 4115,
    "\u25810x7713d000": 4116,
    "\u25810x7713e000": 4117,
    "\u25810x7713f000": 4118,
    "\u25810x77140000": 4119,
    "\u25810x77141000": 4120,
    "\u25810x77142000": 4121,
    "\u25810x77143000": 4122,
    "\u25810x77144000": 4123,
    "\u25810x77145000": 4124,
    "\u25810x77146000": 4125,
    "\u25810x77147000": 4126,
    "\u25810x77148000": 4127,
    "\u25810x77149000": 4128,
    "\u25810x7714a000": 4129,
    "\u25810x7714b000": 4130,
    "\u25810x7714c000": 4131,
    "\u25810x7714d000": 4132,
    "\u25810x7714e000": 4133,
    "\u25810x7714f000": 4134,
    "\u25810x77150000": 4135,
    "\u25810x77151000": 4136,
    "\u25810x77152000": 4137,
    "\u25810x77153000": 4138,
    "\u25810x77154000": 4139,
    "\u25810x77155000": 4140,
    "\u25810x77156000": 4141,
    "\u25810x77157000": 4142,
    "\u25810x77158000": 4143,
    "\u25810x77159000": 4144,
    "\u25810x7715a000": 4145,
    "\u25810x7715b000": 4146,
    "\u25810x7715c000": 4147,
    "\u25810x7715d000": 4148,
    "\u25810x7715e000": 4149,
    "\u25810x7715f000": 4150,
    "\u25810x77160000": 4151,
    "\u25810x77161000": 4152,
    "\u25810x77162000": 4153,
    "\u25810x77163000": 4154,
    "\u25810x77164000": 4155,
    "\u25810x77165000": 4156,
    "\u25810x77166000": 4157,
    "\u25810x77167000": 4158,
    "\u25810x77168000": 4159,
    "\u25810x77169000": 4160,
    "\u25810x7716a000": 4161,
    "\u25810x7716b000": 4162,
    "\u25810x7716c000": 4163,
    "\u25810x7716d000": 4164,
    "\u25810x7716e000": 4165,
    "\u25810x7716f000": 4166,
    "\u25810x77170000": 4167,
    "\u25810x77171000": 4168,
    "\u25810x77172000": 4169,
    "\u25810x77173000": 4170,
    "\u25810x77174000": 4171,
    "\u25810x77175000": 4172,
    "\u25810x77176000": 4173,
    "\u25810x77177000": 4174,
    "\u25810x77178000": 4175,
    "\u25810x77179000": 4176,
    "\u25810x7717a000": 4177,
    "\u25810x7717b000": 4178,
    "\u25810x7717c000": 4179,
    "\u25810x7717d000": 4180,
    "\u25810x7717e000": 4181,
    "\u25810x7717f000": 4182,
    "\u25810x77180000": 4183,
    "\u25810x77181000": 4184,
    "\u25810x77182000": 4185,
    "\u25810x77183000": 4186,
    "\u25810x77184000": 4187,
    "\u25810x77185000": 4188,
    "\u25810x77186000": 4189,
    "\u25810x77187000": 4190,
    "\u25810x77188000": 4191,
    "\u25810x77189000": 4192,
    "\u25810x7718a000": 4193,
    "\u25810x7718b000": 4194,
    "\u25810x7718c000": 4195,
    "\u25810x7718d000": 4196,
    "\u25810x7718e000": 4197,
    "\u25810x7718f000": 4198,
    "\u25810x77190000": 4199,
    "\u25810x77191000": 4200,
    "\u25810x77192000": 4201,
    "\u2581physicalmemory": 4202,
    "\u25810x77193000": 4203,
    "\u25810x77194000": 4204,
    "\u25810x77195000": 4205,
    "\u25810x77196000": 4206,
    "\u25810x77197000": 4207,
    "\u25810x77198000": 4208,
    "\u25810x77199000": 4209,
    "\u25810x7719a000": 4210,
    "\u25810x7719b000": 4211,
    "\u25810x7719c000": 4212,
    "\u25810x418a": 4213,
    "\u25810x7719d000": 4214,
    "\u25810x7719e000": 4215,
    "\u25810x7719f000": 4216,
    "\u25810x771a0000": 4217,
    "\u25810x771a1000": 4218,
    "\u25810x771a2000": 4219,
    "\u25810x771a3000": 4220,
    "\u25810x771a4000": 4221,
    "\u25810x771a5000": 4222,
    "\u25810x771a6000": 4223,
    "\u25810x771a7000": 4224,
    "\u25810x771a8000": 4225,
    "\u25810x771a9000": 4226,
    "\u25810x771aa000": 4227,
    "\u25810x771ab000": 4228,
    "\u25810x771ac000": 4229,
    "\u25810x771ad000": 4230,
    "\u25810x771ae000": 4231,
    "\u25810x771af000": 4232,
    "\u25810x771b0000": 4233,
    "\u25810x771b1000": 4234,
    "\u25810x771b2000": 4235,
    "\u25810x771b3000": 4236,
    "\u25810x771b4000": 4237,
    "\u25810x771b5000": 4238,
    "\u25810x771b6000": 4239,
    "\u25810x771b7000": 4240,
    "\u25810x771b8000": 4241,
    "\u25810x771b9000": 4242,
    "\u25810x771ba000": 4243,
    "\u25810x771bb000": 4244,
    "\u25810x771bc000": 4245,
    "\u25810x771bd000": 4246,
    "\u25810x771be000": 4247,
    "\u25810x771bf000": 4248,
    "\u25810x771c0000": 4249,
    "\u25810x771c1000": 4250,
    "\u25810x771c2000": 4251,
    "\u25810x771c3000": 4252,
    "\u25810x771c4000": 4253,
    "\u25810x771c5000": 4254,
    "\u25810x771c6000": 4255,
    "\u25810x8824": 4256,
    "\u25810x4315b0": 4257,
    "\u25810x6f": 4258,
    "758": 4259,
    "\u25810x8825": 4260,
    "\u25810x8828": 4261,
    "\u25810x7780": 4262,
    "\u25810x4967a8": 4263,
    "\u25810x7b70": 4264,
    "\u25810x1211f70": 4265,
    "97a6e6": 4266,
    "1646d": 4267,
    "\u258174726": 4268,
    "97a6e61646d": 4269,
    "\u25817472697a6e61646d": 4270,
    "\u25817472697a6e61646d73696e6b692e6669": 4271,
    "\u2581776f7": 4272,
    "26b2e68": 4273,
    "26b2e68656c": 4274,
    "\u2581776f726b2e68656c": 4275,
    "\u2581776f726b2e68656c73696e6b692e6669": 4276,
    "c8d": 4277,
    "\u25810x40b3": 4278,
    "\u25810x7d98": 4279,
    "\u2581corexit": 4280,
    "\u2581corexitprocess": 4281,
    "\u25810x4de": 4282,
    "\u25810x1210f6": 4283,
    "\u2581vc": 4284,
    "\u25810x7d99": 4285,
    "\u25810x882c": 4286,
    "\u25810x8834": 4287,
    "\u25810x8829": 4288,
    "\u25810xf0": 4289,
    "\u25810x882d": 4290,
    "808": 4291,
    "\u25810xc0": 4292,
    "ernet": 4293,
    "unction": 4294,
    "\u25810x8831": 4295,
    "\u25810x7df4": 4296,
    "\u25810x8835": 4297,
    "cid": 4298,
    "\u25810x1211968": 4299,
    "par": 4300,
    "a5c": 4301,
    "\u25810x79a0": 4302,
    "d4c": 4303,
    "\u25810x7df5": 4304,
    "\u25810x12118f8": 4305,
    "\u2581findfirstfilea": 4306,
    "\u25810x3f75f30": 4307,
    "sa": 4308,
    "afdi": 4309,
    "\u2581setst": 4310,
    "\u2581wsafdi": 4311,
    "\u2581wsafdisset": 4312,
    "\u25810x44f910": 4313,
    "f8c": 4314,
    "\u25810x66": 4315,
    "\u25810x94c0": 4316,
    "\u2581setstdhandle": 4317,
    "301": 4318,
    "\u25810x9d": 4319,
    "access": 4320,
    "\u25810x7da0": 4321,
    "\u25810x480": 4322,
    "\u2581string": 4323,
    "\u25810xffd2": 4324,
    "\u25810x42900": 4325,
    "\u25810x120e": 4326,
    "\u25810x42e0f0": 4327,
    "ownload": 4328,
    "\u25810x7ef0": 4329,
    "\u25810x1211bd0": 4330,
    "\u25810x509": 4331,
    "\u25810x430880": 4332,
    "ff0": 4333,
    "be8": 4334,
    "\u25810x120e6d0": 4335,
    "\u25810x40a5ac": 4336,
    "\u25810x235": 4337,
    "\u25810xffad": 4338,
    "\u25810x4960": 4339,
    "\u25810x419c20": 4340,
    "\u2581vers": 4341,
    "\u25810x7d9c": 4342,
    "imet": 4343,
    "item": 4344,
    "\u25810x7d9d": 4345,
    "\u25810xffef": 4346,
    "\u25810x140": 4347,
    "\u2581are": 4348,
    "ccc": 4349,
    "controls": 4350,
    "\u25810x4e30": 4351,
    "\u2581ls": 4352,
    "\u2581releases": 4353,
    "\u25810x40ef1": 4354,
    "\u25810x7eab": 4355,
    "bad8": 4356,
    "\u25810x4306": 4357,
    "40c": 4358,
    "\u25810x51c4": 4359,
    "\u25810x7da1": 4360,
    "ts": 4361,
    "484": 4362,
    "runtime": 4363,
    "\u25810x2439f": 4364,
    "\u25810x4c3308": 4365,
    "\u25810x419d": 4366,
    "\u2581verset": 4367,
    "conditionmask": 4368,
    "\u2581versetconditionmask": 4369,
    "409": 4370,
    "\u25810x4096": 4371,
    "inity": 4372,
    "stream": 4373,
    "\u2581ob": 4374,
    "runtime140": 4375,
    "\u2581vcruntime140": 4376,
    "\u25810x42992": 4377,
    "f4c": 4378,
    "myarg2": 4379,
    "affinity": 4380,
    "affinitymask": 4381,
    "302": 4382,
    "ill": 4383,
    "\u25810x4f5": 4384,
    "\u25810xffc4": 4385,
    "a4c": 4386,
    "\u25810x1210f1": 4387,
    "\u25810x41d1": 4388,
    "\u25810x42f": 4389,
    "\u25810x7230": 4390,
    "\u25810x42ae": 4391,
    "\u25810x43f0": 4392,
    "\u25810x42fc38": 4393,
    "yarg1myarg2": 4394,
    "fb0": 4395,
    "a70": 4396,
    "\u25810x2100210": 4397,
    "\u25810x7da4": 4398,
    "\u25810x4196": 4399,
    "\u25810x42ef": 4400,
    "\u25810x41bcb0": 4401,
    "\u25810x41bce0": 4402,
    "\u25810x1211e24": 4403,
    "\u25810x4290": 4404,
    "\u2581memcpy": 4405,
    "\u25810x420e": 4406,
    "920": 4407,
    "ec4": 4408,
    "\u25810xffe3": 4409,
    "\u25810x100b": 4410,
    "242": 4411,
    "\u2581regquery": 4412,
    "\u25810x1211f84": 4413,
    "fied": 4414,
    "\u25810xffe2": 4415,
    "\u25810x406": 4416,
    "ad4": 4417,
    "d44": 4418,
    "\u25810x42fbf0": 4419,
    "\u25810xb0": 4420,
    "\u25810x4700": 4421,
    "\u25810x4201": 4422,
    "\u25810x7da5": 4423,
    "\u25810x70a8": 4424,
    "\u25810xffe7": 4425,
    "d68": 4426,
    "\u25810xffec": 4427,
    "\u25810x419f": 4428,
    "\u2581getprocessaffinitymask": 4429,
    "\u25810x1211ccc": 4430,
    "184": 4431,
    "\u25810x428": 4432,
    "\u25810xffae": 4433,
    "\u2581removedirectory": 4434,
    "\u2581at": 4435,
    "\u25810x4233": 4436,
    "768": 4437,
    "\u25810xffc2": 4438,
    "metafilebits": 4439,
    "5c0": 4440,
    "\u25810x8930": 4441,
    "ab4": 4442,
    "\u25810x1211d08": 4443,
    "\u25810x1211ef8": 4444,
    "\u2581do": 4445,
    "\u25810x7f10": 4446,
    "\u25810x40ab": 4447,
    "\u25810xffaf": 4448,
    "\u25810x7c40": 4449,
    "if": 4450,
    "delete": 4451,
    "120": 4452,
    "904": 4453,
    "984": 4454,
    "\u25810x4efd": 4455,
    "278": 4456,
    "\u25810x110": 4457,
    "\u25810x56bad8": 4458,
    "bf0": 4459,
    "\u25810xff90": 4460,
    "\u25810x41a6": 4461,
    "\u25810x41d114": 4462,
    "\u25810x120f8c2": 4463,
    "coree": 4464,
    "\u2581mscoree": 4465,
    "\u2581cadwork": 4466,
    "\u25810x1211f80": 4467,
    "\u25810x20009": 4468,
    "\u25810x7db4": 4469,
    "\u25810x3f6000": 4470,
    "\u2581form": 4471,
    "\u25810x7db5": 4472,
    "\u2581setenvironment": 4473,
    "ad8": 4474,
    "\u25810x42e5c8": 4475,
    "\u25810x42e5e0": 4476,
    "\u25810xaf": 4477,
    "\u25819": 4478,
    "\u25810x417c": 4479,
    "\u25810x58000": 4480,
    "\u2581getsyscolorbrush": 4481,
    "\u25810x1211de4": 4482,
    "\u2581memset": 4483,
    "\u25810x42ce10": 4484,
    "wantto": 4485,
    "\u2581coinitialize": 4486,
    "\u25810x3f7000": 4487,
    "\u25810x3fb000": 4488,
    "\u25810x71c0": 4489,
    "f84": 4490,
    "\u25810x3f8000": 4491,
    "ansi": 4492,
    "\u25810x46b5": 4493,
    "748": 4494,
    "9c2": 4495,
    "\u25810x7da8": 4496,
    "\u25810x4cb0": 4497,
    "\u25810x59c1": 4498,
    "\u25810x502": 4499,
    "\u25810x3f20": 4500,
    "apis": 4501,
    "\u25810x49c8": 4502,
    "\u25810xff91": 4503,
    "382": 4504,
    "\u25810x7d20": 4505,
    "\u25810x42e598": 4506,
    "556": 4507,
    "340": 4508,
    "apisansi": 4509,
    "\u2581arefile": 4510,
    "\u2581arefileapisansi": 4511,
    "\u25810x3fa000": 4512,
    "439": 4513,
    "\u25810x3f9000": 4514,
    "\u25810x1211690": 4515,
    "numberis": 4516,
    "\u2581install": 4517,
    "qa": 4518,
    "\u25810x1211f24": 4519,
    "358": 4520,
    "\u25810x46b4": 4521,
    "\u25810x7070": 4522,
    "\u25810x7da9": 4523,
    "\u25810xfeee011": 4524,
    "26c": 4525,
    "718": 4526,
    "winmetafilebits": 4527,
    "\u25810x41b": 4528,
    "alogs": 4529,
    "\u2581format": 4530,
    "\u25810x4470": 4531,
    "\u25810x4010": 4532,
    "\u25810x413": 4533,
    "363": 4534,
    "dc0": 4535,
    "ee4": 4536,
    "\u25810xffc3": 4537,
    "\u25810x1210f9": 4538,
    "e8c": 4539,
    "\u25810x416c": 4540,
    "3c4": 4541,
    "\u25810x1211f1c": 4542,
    "imeto": 4543,
    "\u25810x41af": 4544,
    "snot": 4545,
    "\u25810x7e3000": 4546,
    "\u25810x7e4000": 4547,
    "\u25810x45f1": 4548,
    "\u25810x7460": 4549,
    "\u25810x74d0": 4550,
    "\u25810x1211e20": 4551,
    "\u25810x42bf": 4552,
    "accelerators": 4553,
    "\u2581loadaccelerators": 4554,
    "\u25810x4112": 4555,
    "\u25810x60c6": 4556,
    "\u25810x1210c": 4557,
    "\u2581noaccess": 4558,
    "\u25810xfff4": 4559,
    "\u25810x44d4b8": 4560,
    "\u25810x107": 4561,
    "\u2581getenvironmentstrings": 4562,
    "\u2581findnextfilea": 4563,
    "204": 4564,
    "\u2581getwinmetafilebits": 4565,
    "\u25810x4d50": 4566,
    "f70": 4567,
    "\u25810x47f0": 4568,
    "434": 4569,
    "66c": 4570,
    "edit": 4571,
    "\u2581getmenu": 4572,
    "b4c": 4573,
    "\u25810x7e0": 4574,
    "\u25810x4130": 4575,
    "541": 4576,
    "544": 4577,
    "\u25810x7620": 4578,
    "bd0": 4579,
    "gine": 4580,
    "function": 4581,
    "284": 4582,
    "\u25810x7cb0": 4583,
    "ceex": 4584,
    "500000": 4585,
    "\u2581setcurrent": 4586,
    "\u25810x70e0": 4587,
    "\u25810x7498": 4588,
    "\u2581wts": 4589,
    "b30": 4590,
    "\u25810x72d8": 4591,
    "\u25810xe00": 4592,
    "\u25810x6e": 4593,
    "\u25810x5658": 4594,
    "\u25810x7b60": 4595,
    "\u25810x4088": 4596,
    "\u25810x2200": 4597,
    "\u2581getdiskfreespaceexw": 4598,
    "2e0": 4599,
    "internal": 4600,
    "\u25810x3f3060": 4601,
    "1d0": 4602,
    "\u2581lcmapstringa": 4603,
    "\u25810x431d00": 4604,
    "\u25810x30000": 4605,
    "download": 4606,
    "\u25810x3f3010": 4607,
    "f30": 4608,
    "124": 4609,
    "\u2581lstrcpya": 4610,
    "e84": 4611,
    "\u25810xae": 4612,
    "\u25810x7038": 4613,
    "sw": 4614,
    "\u2581gdip": 4615,
    "aaaaaaaa": 4616,
    "errornumberis": 4617,
    "\u2581programinternal": 4618,
    "\u2581programinternalerrornumberis": 4619,
    "\u25810x6a": 4620,
    "\u25810x41b9": 4621,
    "\u25810x7310": 4622,
    "\u25810x7380": 4623,
    "\u2581dragob": 4624,
    "\u25810x1211f97": 4625,
    "\u25810x75b0": 4626,
    "\u25810x7770": 4627,
    "\u2581download": 4628,
    "12c": 4629,
    "mit": 4630,
    "\u2581writ": 4631,
    "435": 4632,
    "\u25810x7a48": 4633,
    "f50": 4634,
    "\u25810x7118": 4635,
    "\u25810x7b98": 4636,
    "\u2581writec": 4637,
    "\u25810x107538": 4638,
    "\u25810x40a59c": 4639,
    "\u2581shfolder": 4640,
    "\u25810x47e0": 4641,
    "1cc": 4642,
    "344": 4643,
    "\u25810x71f8": 4644,
    "\u25810x7188": 4645,
    "fromstream": 4646,
    "\u25810x7268": 4647,
    "\u25810x7578": 4648,
    "\u25810x120faa8": 4649,
    "ae8": 4650,
    "\u25810x7428": 4651,
    "\u25810x7348": 4652,
    "\u25810x7888": 4653,
    "\u25810x97c0": 4654,
    "\u25810x76c8": 4655,
    "\u25810x437820": 4656,
    "d18": 4657,
    "\u25810x73b8": 4658,
    "\u25810xffdd": 4659,
    "\u25810x7738": 4660,
    "\u25810x7ce8": 4661,
    "\u25810x78f8": 4662,
    "\u25810x437804": 4663,
    "\u25810x7e5000": 4664,
    "884": 4665,
    "ivate": 4666,
    "\u25810x7508": 4667,
    "\u25810x75e8": 4668,
    "\u25810x7dac": 4669,
    "\u25810x7dad": 4670,
    "\u25810x42c4f0": 4671,
    "ef0": 4672,
    "\u25810x4554": 4673,
    "\u25810x7658": 4674,
    "798": 4675,
    "\u25810x7818": 4676,
    "\u25810x7968": 4677,
    "\u25810x7ab8": 4678,
    "wasnot": 4679,
    "\u25810x82c0": 4680,
    "\u25810x77a8": 4681,
    "\u25810x79d8": 4682,
    "f35": 4683,
    "70c": 4684,
    "ned": 4685,
    "itors": 4686,
    "\u25810x45f2": 4687,
    "\u25810x7c08": 4688,
    "\u25810x107598": 4689,
    "\u25810x42ae20": 4690,
    "\u25810x7b28": 4691,
    "\u2581tlsfree": 4692,
    "704": 4693,
    "\u25810x7c78": 4694,
    "\u25810x7d58": 4695,
    "\u2581version": 4696,
    "\u2581physicaldriv": 4697,
    "555": 4698,
    "a90000": 4699,
    "\u2581y": 4700,
    "\u25810x7ff": 4701,
    "\u25810x4614": 4702,
    "\u25810x566a40": 4703,
    "private": 4704,
    "afc": 4705,
    "9e00": 4706,
    "owned": 4707,
    "\u25810x107658": 4708,
    "248": 4709,
    "\u2581physicaldrive0": 4710,
    "privateprofile": 4711,
    "\u2581getstringtypea": 4712,
    "\u25810x4090": 4713,
    "\u25810x41c044": 4714,
    "\u25810x42aa58": 4715,
    "964": 4716,
    "\u2581oleload": 4717,
    "application": 4718,
    "\u2581oleloadfromstream": 4719,
    "\u25810x431f38": 4720,
    "\u2581fil": 4721,
    "lcid": 4722,
    "\u25810x407": 4723,
    "be20": 4724,
    "330": 4725,
    "d98": 4726,
    "f20": 4727,
    "sto": 4728,
    "ession": 4729,
    "\u25810x1211f44": 4730,
    "vis": 4731,
    "\u25810x54000": 4732,
    "684": 4733,
    "\u25810x10e9": 4734,
    "b14": 4735,
    "\u25810x7db1": 4736,
    "fc2": 4737,
    "\u25810x107688": 4738,
    "\u25810x431ef0": 4739,
    "e5c": 4740,
    "f78": 4741,
    "\u2581releasesrwlockexclusive": 4742,
    "d28": 4743,
    "\u2581log": 4744,
    "\u25810x4828": 4745,
    "\u25810x4bb0": 4746,
    "\u25810x455": 4747,
    "\u25810x169bf64": 4748,
    "\u25814d5": 4749,
    "leasec": 4750,
    "\u25810x4912": 4751,
    "f58": 4752,
    "\u25810x4990": 4753,
    "notin": 4754,
    "\u258103": 4755,
    "243": 4756,
    "\u25810xa9b0": 4757,
    "locknot": 4758,
    "\u25810xffc1": 4759,
    "\u2581regedit": 4760,
    "notinitializ": 4761,
    "\u2581oleinitialize": 4762,
    "b84": 4763,
    "vchost": 4764,
    "itorsup": 4765,
    "ectlocknot": 4766,
    "\u2581monitorsup": 4767,
    "notinitialized": 4768,
    "ectlocknotowned": 4769,
    "\u2581monitorsupfunction": 4770,
    "\u2581monitorsupfunctionnotinitialized": 4771,
    "b78": 4772,
    "af4": 4773,
    "\u2581svchost": 4774,
    "\u2581initializesrwlock": 4775,
    "720": 4776,
    "\u2581dw": 4777,
    "\u2581sa": 4778,
    "888": 4779,
    "\u25810x50850": 4780,
    "olfp": 4781,
    "\u2581controlfp": 4782,
    "\u2581removedirectorya": 4783,
    "\u25810xcb000": 4784,
    "\u25810xffc7": 4785,
    "\u25810x433660": 4786,
    "vironmentstringsa": 4787,
    "\u25810xfc": 4788,
    "\u25810x169bf74": 4789,
    "f318": 4790,
    "\u25810x434": 4791,
    "d84": 4792,
    "base": 4793,
    "specified": 4794,
    "\u2581createsemaphorew": 4795,
    "acd": 4796,
    "filewasnot": 4797,
    "\u2581thespecified": 4798,
    "filewasnotfound": 4799,
    "\u2581thespecifiedfilewasnotfound": 4800,
    "990": 4801,
    "3c0": 4802,
    "eto": 4803,
    "\u2581remove": 4804,
    "\u25810x1211db8": 4805,
    "b18": 4806,
    "\u25810x1075c8": 4807,
    "\u25810x1075f8": 4808,
    "\u25810x107628": 4809,
    "\u25810x12117f4": 4810,
    "ffff0000": 4811,
    "\u2581commode": 4812,
    "\u25810x188e00": 4813,
    "\u25810x41eb": 4814,
    "437": 4815,
    "\u2581coun": 4816,
    "\u25810x1211808": 4817,
    "958": 4818,
    "d6c": 4819,
    "hook": 4820,
    "\u25810x4076": 4821,
    "\u25810x1211e18": 4822,
    "\u25810x3b7": 4823,
    "\u25810x4086": 4824,
    "\u25810x644": 4825,
    "\u25810x188d3c": 4826,
    "will": 4827,
    "\u25810x3f24": 4828,
    "\u25810x418970": 4829,
    "\u25810x4084": 4830,
    "000000ffff0000": 4831,
    "\u2581setdll": 4832,
    "4000000ffff0000": 4833,
    "\u2581movefilea": 4834,
    "\u25810x42cd": 4835,
    "738": 4836,
    "\u25810x41c": 4837,
    "\u2581getcurrentdirectorya": 4838,
    "\u2581loadacceleratorsw": 4839,
    "\u25810x46b5d4": 4840,
    "\u2581openprocess": 4841,
    "7a8": 4842,
    "\u25810xbd": 4843,
    "\u25810x88b0": 4844,
    "91c": 4845,
    "fa8": 4846,
    "\u25810x85d0": 4847,
    "\u2581strcmp": 4848,
    "\u25810x120fd": 4849,
    "\u25810x42c5d0": 4850,
    "inter": 4851,
    "\u25810x62": 4852,
    "\u2581shellexecutea": 4853,
    "\u25810x181": 4854,
    "\u25810x45f4": 4855,
    "\u25810x63000000": 4856,
    "3a8": 4857,
    "\u2581initon": 4858,
    "a900003": 4859,
    "ceexecute": 4860,
    "\u25814d5a900003": 4861,
    "ceexecuteonce": 4862,
    "\u25814d5a9000030000000": 4863,
    "\u2581initonceexecuteonce": 4864,
    "\u25814d5a90000300000004000000ffff0000": 4865,
    "730": 4866,
    "778": 4867,
    "\u25810x40ac": 4868,
    "a45": 4869,
    "ae0": 4870,
    "\u25810x41dd": 4871,
    "\u25810x43400": 4872,
    "\u25810x42d4f0": 4873,
    "\u25810x188e24": 4874,
    "34c": 4875,
    "a38": 4876,
    "instal": 4877,
    "d50": 4878,
    "lsid": 4879,
    "\u25810x5c000": 4880,
    "fc8": 4881,
    "\u25810x4126": 4882,
    "\u25810x44000": 4883,
    "\u25810x42dac6": 4884,
    "\u25810x42efe8": 4885,
    "001": 4886,
    "\u2581pleas": 4887,
    "985": 4888,
    "stringw": 4889,
    "\u25810x401000": 4890,
    "f85": 4891,
    "\u25810x8f70": 4892,
    "9c0": 4893,
    "d8c": 4894,
    "2ac": 4895,
    "\u2581setthreadlocale": 4896,
    "ver": 4897,
    "\u25810x2439f74": 4898,
    "\u25810x42be20": 4899,
    "\u2581setfilepointerex": 4900,
    "50c": 4901,
    "\u25810x80c4": 4902,
    "\u25810x42f318": 4903,
    "e04": 4904,
    "\u25810x4efd98": 4905,
    "dat": 4906,
    "\u2581clsid": 4907,
    "\u2581yo": 4908,
    "\u25810xb3": 4909,
    "env": 4910,
    "\u25810x7dc0": 4911,
    "ise": 4912,
    "log": 4913,
    "\u25810x10e9bc": 4914,
    "310": 4915,
    "\u25810x45fe": 4916,
    "f51": 4917,
    "\u2581getfileinformationbyhandleex": 4918,
    "7d0": 4919,
    "prec": 4920,
    "precise": 4921,
    "\u2581clsidfrom": 4922,
    "preciseasfiletime": 4923,
    "\u2581getsystemtimepreciseasfiletime": 4924,
    "144": 4925,
    "7f0": 4926,
    "heme": 4927,
    "\u25810x4232": 4928,
    "\u25810x8a41": 4929,
    "b0c": 4930,
    "b10": 4931,
    "mb": 4932,
    "\u2581uxt": 4933,
    "\u2581uxtheme": 4934,
    "43c": 4935,
    "\u25810x22e": 4936,
    "\u2581getclassinfoa": 4937,
    "\u25810x42ba58": 4938,
    "\u2581sc": 4939,
    "\u25810x45f3": 4940,
    "9c6": 4941,
    "\u25810x45f5": 4942,
    "\u25810x4df00": 4943,
    "ceff": 4944,
    "\u25810x420f2": 4945,
    "9d0": 4946,
    "\u25810x9e": 4947,
    "\u25810x402": 4948,
    "\u25810x45f8": 4949,
    "\u25810x8650": 4950,
    "b90": 4951,
    "\u25810xfeee012": 4952,
    "eec": 4953,
    "\u25810x51b": 4954,
    "\u25810xffde": 4955,
    "\u25810x45f6": 4956,
    "dc1": 4957,
    "f65": 4958,
    "fe0": 4959,
    "\u25810x7db9": 4960,
    "370": 4961,
    "\u25810x45f7": 4962,
    "\u25810x45f9": 4963,
    "\u25810x45fa": 4964,
    "srw": 4965,
    "conditionvariablesrw": 4966,
    "\u2581sleepconditionvariablesrw": 4967,
    "a90": 4968,
    "\u25810x440": 4969,
    "\u25810x7db8": 4970,
    "\u25810x419d50": 4971,
    "606": 4972,
    "528": 4973,
    "\u25810x42b020": 4974,
    "\u25810x409020": 4975,
    "\u25810x419e00": 4976,
    "\u25810x169bf94": 4977,
    "f90": 4978,
    "\u25810x8660": 4979,
    "\u25810x419f40": 4980,
    "\u25810x42a070": 4981,
    "\u25810x42b024": 4982,
    "\u25810x42b028": 4983,
    "\u2581couninitialize": 4984,
    "936": 4985,
    "b46": 4986,
    "f74": 4987,
    "regi": 4988,
    "param": 4989,
    "emyarg1myarg2": 4990,
    "\u2581setdlldirectoryw": 4991,
    "\u25810x4601": 4992,
    "\u2581setendoffile": 4993,
    "\u2581exemyarg1myarg2": 4994,
    "\u25810x488": 4995,
    "\u2581filet": 4996,
    "\u25810x40b4": 4997,
    "\u25810x45fd": 4998,
    "\u25810x422a0": 4999,
    "clipboardformat": 5000,
    "7b8": 5001,
    "\u25810x45ff": 5002,
    "728": 5003,
    "\u25810x4305c8": 5004,
    "\u25810x4305e0": 5005,
    "\u25810x8a60": 5006,
    "\u25810x60c690": 5007,
    "381": 5008,
    "\u25810x401": 5009,
    "7ea": 5010,
    "96c": 5011,
    "d0c": 5012,
    "263": 5013,
    "\u25810x3020": 5014,
    "\u25810x8900": 5015,
    "\u25810x40a0": 5016,
    "928": 5017,
    "\u25810x403": 5018,
    "b40": 5019,
    "d40": 5020,
    "\u25810x42b964": 5021,
    "pre": 5022,
    "lower": 5023,
    "\u25810x7dbc": 5024,
    "aa0": 5025,
    "\u25810xd2": 5026,
    "reated": 5027,
    "\u25810x42ebc0": 5028,
    "common": 5029,
    "\u25810x8430": 5030,
    "\u25810x430598": 5031,
    "10c": 5032,
    "\u25810x4298": 5033,
    "\u25810x4307e0": 5034,
    "\u2581getuserdefaultlcid": 5035,
    "bc5": 5036,
    "54c": 5037,
    "c44": 5038,
    "\u25810x5199": 5039,
    "\u25810x7dbd": 5040,
    "\u25810x120e690": 5041,
    "\u25810x120e698": 5042,
    "\u25810x1211d30": 5043,
    "\u2581initcommon": 5044,
    "\u2581initcommoncontrols": 5045,
    "\u25810x7e00": 5046,
    "\u2581freeenvironmentstringsa": 5047,
    "\u25810x4c97": 5048,
    "c01": 5049,
    "\u2581getdiskfreespaceexa": 5050,
    "\u2581aaa": 5051,
    "\u2581registerclipboardformat": 5052,
    "f40": 5053,
    "start": 5054,
    "68b": 5055,
    "\u25810x435000": 5056,
    "b70": 5057,
    "b98": 5058,
    "\u25810x41568c": 5059,
    "fd0": 5060,
    "onexit": 5061,
    "\u25810x8420": 5062,
    "78c": 5063,
    "db0": 5064,
    "\u25810x4cf": 5065,
    "ctype": 5066,
    "ons": 5067,
    "\u25810x438": 5068,
    "f34": 5069,
    "\u25810x4179": 5070,
    "\u25810x7dc1": 5071,
    "\u25810x4229f": 5072,
    "\u25810x423326": 5073,
    "\u25810x423327": 5074,
    "9e8": 5075,
    "pool": 5076,
    "7b4": 5077,
    "918": 5078,
    "\u25810x46b": 5079,
    "ig": 5080,
    "e58": 5081,
    "iserror": 5082,
    "f46": 5083,
    "93e": 5084,
    "eengine": 5085,
    "7ac": 5086,
    "initializeengine": 5087,
    "\u2581failedtoinitializeengine": 5088,
    "a02": 5089,
    "\u2581wak": 5090,
    "\u2581wakeconditionvariable": 5091,
    "olec": 5092,
    "\u25810x417b50": 5093,
    "\u2581getvolumeinformationa": 5094,
    "ocreate": 5095,
    "\u2581sub": 5096,
    "d48": 5097,
    "318": 5098,
    "3c8": 5099,
    "\u258112": 5100,
    "\u25810x41b0": 5101,
    "\u25810x41c4": 5102,
    "\u25810x1211f54": 5103,
    "5b0": 5104,
    "\u258128": 5105,
    "\u25810xc8": 5106,
    "\u2581submit": 5107,
    "\u25810x12110d8": 5108,
    "pi": 5109,
    "d83": 5110,
    "threadpoolwork": 5111,
    "\u2581closethreadpoolwork": 5112,
    "\u2581createthreadpoolwork": 5113,
    "\u2581submitthreadpoolwork": 5114,
    "\u2581setfileinformationbyhandle": 5115,
    "116": 5116,
    "\u25810x1211338": 5117,
    "\u25810x3f2": 5118,
    "\u2581mso": 5119,
    "toc": 5120,
    "\u25810x4030": 5121,
    "228": 5122,
    "950": 5123,
    "aa6": 5124,
    "\u2581userenv": 5125,
    "963": 5126,
    "565": 5127,
    "\u25810x4606": 5128,
    "60c": 5129,
    "f38": 5130,
    "\u25810x4079": 5131,
    "ded": 5132,
    "\u25810x4258": 5133,
    "\u25810xfff3": 5134,
    "\u25810x181b70": 5135,
    "\u25810x408478": 5136,
    "\u25810x41a044": 5137,
    "only": 5138,
    "\u25810x88f0": 5139,
    "dl": 5140,
    "a69": 5141,
    "\u25810x1211ee8": 5142,
    "\u25810xffcb": 5143,
    "resourcea": 5144,
    "994": 5145,
    "areex": 5146,
    "compareex": 5147,
    "compareexchange": 5148,
    "\u2581interlockedcompareexchange": 5149,
    "9e0": 5150,
    "4005": 5151,
    "core": 5152,
    "\u25810x4cf0": 5153,
    "\u25810x82f0": 5154,
    "5e8": 5155,
    "5a0": 5156,
    "mapi": 5157,
    "\u25810xc94": 5158,
    "901": 5159,
    "\u25810x103": 5160,
    "\u25810x4093e8": 5161,
    "934": 5162,
    "\u25810x44180": 5163,
    "\u25810x1211bfc": 5164,
    "\u25810x4093e5": 5165,
    "\u25810x4093e6": 5166,
    "\u25810x4093e7": 5167,
    "794": 5168,
    "internet": 5169,
    "\u2581findresourcea": 5170,
    "\u25810x164": 5171,
    "\u25810x41e1d8": 5172,
    "\u25810x4340": 5173,
    "\u25810xd000": 5174,
    "90c": 5175,
    "bc0": 5176,
    "\u25810x420a0f": 5177,
    "\u25810x420a10": 5178,
    "17a8": 5179,
    "a20": 5180,
    "\u2581dwmapi": 5181,
    "rn": 5182,
    "7e8": 5183,
    "plor": 5184,
    "\u25810x4ec": 5185,
    "\u2581cryptbase": 5186,
    "298": 5187,
    "aab": 5188,
    "\u25812d": 5189,
    "plorer": 5190,
    "atalogs": 5191,
    "\u25810xfeee014": 5192,
    "rnl": 5193,
    "\u25810x412e": 5194,
    "9d8": 5195,
    "enerat": 5196,
    "\u2581hdd": 5197,
    "\u25810x616": 5198,
    "\u2581hddreg": 5199,
    "enerator": 5200,
    "\u2581hddregenerator": 5201,
    "7dc": 5202,
    "\u25810x130": 5203,
    "f18": 5204,
    "\u25810x41b8": 5205,
    "646": 5206,
    "\u25810xb4": 5207,
    "\u25810x678208": 5208,
    "b23": 5209,
    "bb8": 5210,
    "lay": 5211,
    "osk": 5212,
    "oskrnl": 5213,
    "\u2581filen": 5214,
    "\u2581ntoskrnl": 5215,
    "a78": 5216,
    "50000": 5217,
    "printer": 5218,
    "\u25810x41cc": 5219,
    "c8e": 5220,
    "6c5": 5221,
    "a99": 5222,
    "321": 5223,
    "\u25810xfeee00f4": 5224,
    "\u25810x500": 5225,
    "\u2581runonce": 5226,
    "av": 5227,
    "\u25810xf8": 5228,
    "\u25810x71000000": 5229,
    "7cc": 5230,
    "\u258118": 5231,
    "b58": 5232,
    "otfound": 5233,
    "\u25810x1210e78": 5234,
    "\u25810x1210e7c": 5235,
    "101": 5236,
    "fec": 5237,
    "\u25810x1860": 5238,
    "\u25810x1211ce0": 5239,
    "11c": 5240,
    "acc": 5241,
    "eexist": 5242,
    "\u25810xffca": 5243,
    "\u2581fileexist": 5244,
    "\u25810x27": 5245,
    "\u25810x1211ecc": 5246,
    "\u2581filenotfound": 5247,
    "dff": 5248,
    "\u25810x1211cfc": 5249,
    "\u25810x5617a8": 5250,
    "e28": 5251,
    "amet": 5252,
    "\u25810x5937": 5253,
    "\u25810x4093e9": 5254,
    "\u25810x4093ea": 5255,
    "\u25810x4093eb": 5256,
    "\u25810x4170d4": 5257,
    "\u25810x4170d5": 5258,
    "\u2581shgetfile": 5259,
    "\u2581dup": 5260,
    "\u25810x42c0a4": 5261,
    "db5": 5262,
    "2a0": 5263,
    "605": 5264,
    "f16": 5265,
    "\u25810x47a00": 5266,
    "70e": 5267,
    "604": 5268,
    "\u25810x534": 5269,
    "ail": 5270,
    "\u25810x4184": 5271,
    "1e8": 5272,
    "\u25810x120e6cc": 5273,
    "436": 5274,
    "\u2581atexit": 5275,
    "\u25810x1211e54": 5276,
    "tp": 5277,
    "940": 5278,
    "9c5": 5279,
    "\u25810xffc8": 5280,
    "\u25810x598740": 5281,
    "bd4": 5282,
    "dd4": 5283,
    "\u25810x7d0": 5284,
    "178": 5285,
    "\u2581lstrc": 5286,
    "\u2581ns": 5287,
    "\u25810x4614d0": 5288,
    "a64": 5289,
    "ba0": 5290,
    "c4c": 5291,
    "\u25810x431828": 5292,
    "3e8": 5293,
    "\u2581cl": 5294,
    "\u25810x40935d": 5295,
    "\u25810x40935e": 5296,
    "\u25810x40935f": 5297,
    "\u25810x409360": 5298,
    "\u25810x409361": 5299,
    "\u25810x409362": 5300,
    "\u25810x409363": 5301,
    "d20": 5302,
    "\u25810x95d0": 5303,
    "\u2581charpre": 5304,
    "youwantto": 5305,
    "570": 5306,
    "e00": 5307,
    "\u25810x4208": 5308,
    "\u2581duplic": 5309,
    "bcc": 5310,
    "70000": 5311,
    "\u25810x4139": 5312,
    "\u25810x4177": 5313,
    "\u25810x41e2": 5314,
    "ms": 5315,
    "\u25810x99a0": 5316,
    "\u2581nsiserror": 5317,
    "\u25810x560": 5318,
    "\u25810x409aa4": 5319,
    "\u2581lstrcmpi": 5320,
    "600": 5321,
    "\u25810x409aa5": 5322,
    "7a0": 5323,
    "\u258124": 5324,
    "7c5": 5325,
    "erif": 5326,
    "\u25810x518": 5327,
    "\u2581lstrcmpw": 5328,
    "af0": 5329,
    "b0000": 5330,
    "644": 5331,
    "\u25810x41bd": 5332,
    "\u25810x4c10": 5333,
    "\u25810x419ce0": 5334,
    "240": 5335,
    "7ec": 5336,
    "quen": 5337,
    "\u25810x569b48": 5338,
    "d00": 5339,
    "\u25810x468": 5340,
    "\u2581isvalidlocale": 5341,
    "fad": 5342,
    "\u2581mt": 5343,
    "\u25810x41f7": 5344,
    "304": 5345,
    "tag": 5346,
    "\u2581pi": 5347,
    "\u25810x43a4": 5348,
    "790": 5349,
    "324": 5350,
    "38c": 5351,
    "\u25810x4240": 5352,
    "\u25810x9210": 5353,
    "withtag": 5354,
    "\u25810x50e10": 5355,
    "poolwithtag": 5356,
    "\u2581exallocate": 5357,
    "\u2581getprivateprofile": 5358,
    "\u2581exallocatepoolwithtag": 5359,
    "15f": 5360,
    "1c0": 5361,
    "\u25810xffc9": 5362,
    "\u2581writeconsole": 5363,
    "\u25810x1211e80": 5364,
    "130": 5365,
    "\u258126": 5366,
    "\u25810x4a7": 5367,
    "c0c": 5368,
    "\u2581ndr": 5369,
    "\u2581msvcr90": 5370,
    "\u25810x4ec0": 5371,
    "\u25810x3f3080": 5372,
    "368": 5373,
    "a8c": 5374,
    "d5c": 5375,
    "\u2581ndrd": 5376,
    "\u25810x169bc": 5377,
    "71c": 5378,
    "\u2581sys": 5379,
    "\u25810x45fb": 5380,
    "5bc": 5381,
    "75c": 5382,
    "\u25810x47ee": 5383,
    "\u2581864000": 5384,
    "69e": 5385,
    "\u25810x70000": 5386,
    "\u2581go": 5387,
    "\u2581strlen": 5388,
    "\u2581tow": 5389,
    "\u25810x42fc68": 5390,
    "\u2581writeconsolew": 5391,
    "9f0": 5392,
    "\u2581getmodulehandl": 5393,
    "au": 5394,
    "\u2581qt": 5395,
    "\u25810x3f3040": 5396,
    "\u2581getconsolemode": 5397,
    "1e4": 5398,
    "\u25810x4335": 5399,
    "quency": 5400,
    "requency": 5401,
    "\u258186400040": 5402,
    "\u2581filetimeto": 5403,
    "\u2581programinternalerrornumberis6": 5404,
    "7bc": 5405,
    "\u2581formatmessagea": 5406,
    "\u2581getuserdefaultuilanguage": 5407,
    "64c": 5408,
    "\u25810x1211f30h": 5409,
    "chr": 5410,
    "cefrequency": 5411,
    "\u2581queryperformancefrequency": 5412,
    "\u25810x419cb0": 5413,
    "\u25810x1211fbc": 5414,
    "a54": 5415,
    "\u25810x1211f50": 5416,
    "f39": 5417,
    "etype": 5418,
    "\u25810x4540": 5419,
    "9a8": 5420,
    "\u25810x40a58c": 5421,
    "\u25810x2200220": 5422,
    "\u25810x169b7": 5423,
    "\u25810x12117e8": 5424,
    "9bc": 5425,
    "\u25810x42f1": 5426,
    "\u25810x40a57c": 5427,
    "158": 5428,
    "750": 5429,
    "\u25810xbe": 5430,
    "\u25810x12117fc": 5431,
    "d30": 5432,
    "ph": 5433,
    "eb8": 5434,
    "\u25810x4ee0": 5435,
    "\u25810x8838": 5436,
    "784": 5437,
    "\u25810x7a2": 5438,
    "\u25810x5676": 5439,
    "\u25810x8839": 5440,
    "instan": 5441,
    "\u25810x424": 5442,
    "\u2581can": 5443,
    "f17": 5444,
    "\u2581wcs": 5445,
    "104": 5446,
    "e0c": 5447,
    "ority": 5448,
    "bec": 5449,
    "\u25810x4155": 5450,
    "\u25810xffd4": 5451,
    "723": 5452,
    "a30": 5453,
    "a60": 5454,
    "privile": 5455,
    "\u2581append": 5456,
    "valueexa": 5457,
    "\u25810x1211b08": 5458,
    "\u2581duplicate": 5459,
    "b28": 5460,
    "\u2581getmodulehandleexw": 5461,
    "\u25810x3f23": 5462,
    "\u25810x1210cf0": 5463,
    "b50": 5464,
    "d2c": 5465,
    "\u25810x416bc": 5466,
    "3b8": 5467,
    "onsolec": 5468,
    "\u2581getconsolec": 5469,
    "ab5": 5470,
    "f28": 5471,
    "fc0": 5472,
    "ethe": 5473,
    "resour": 5474,
    "b68": 5475,
    "\u25810x1808": 5476,
    "\u2581goog": 5477,
    "\u25810x416c0": 5478,
    "\u25810x416242": 5479,
    "\u25810x416243": 5480,
    "\u25810x42a0a0": 5481,
    "df8": 5482,
    "fc4": 5483,
    "\u2581google": 5484,
    "\u25810x64000": 5485,
    "\u2581mta": 5486,
    "200": 5487,
    "360": 5488,
    "exist": 5489,
    "\u2581getdriv": 5490,
    "\u2581isctype": 5491,
    "ready": 5492,
    "\u25810x68000": 5493,
    "\u2581getconsolecp": 5494,
    "974": 5495,
    "\u2581instal": 5496,
    "\u2581lstrcata": 5497,
    "\u2581wm": 5498,
    "\u25810xfff2": 5499,
    "\u25810x200020": 5500,
    "\u2581getdrivetype": 5501,
    "\u258114": 5502,
    "\u25810x42b4": 5503,
    "\u25810x43f6": 5504,
    "\u2581cocreate": 5505,
    "\u2581duplicatehandle": 5506,
    "\u2581initcommoncontrolsex": 5507,
    "\u25810x4f6200": 5508,
    "b20": 5509,
    "\u25810x87": 5510,
    "\u25810x8f50": 5511,
    "\u25810x411555": 5512,
    "\u25810x411556": 5513,
    "bc4": 5514,
    "a6c": 5515,
    "\u2581youm": 5516,
    "218": 5517,
    "fa2": 5518,
    "\u2581oleacc": 5519,
    "384": 5520,
    "dd3": 5521,
    "\u2581reset": 5522,
    "\u2581setcurrentdirectorya": 5523,
    "7d8": 5524,
    "\u25810x5f6": 5525,
    "\u25810x7b00": 5526,
    "\u25810x2357b": 5527,
    "\u2581setenvironmentvariablea": 5528,
    "\u25810x1211438": 5529,
    "\u25810x1211ed8": 5530,
    "\u25810x1211fb8": 5531,
    "\u25810xfeee009d": 5532,
    "cc6": 5533,
    "\u25810x8f20": 5534,
    "\u25810x7eec": 5535,
    "\u25810x7f02": 5536,
    "7e9": 5537,
    "roll": 5538,
    "\u25810xbb": 5539,
    "316": 5540,
    "932": 5541,
    "d10": 5542,
    "ible": 5543,
    "\u25810x46b3d0": 5544,
    "\u2581security": 5545,
    "\u25810x7eed": 5546,
    "\u25810x42d8a2": 5547,
    "\u25810x42d8ab": 5548,
    "\u25810x42d8b4": 5549,
    "\u25810x42d8bd": 5550,
    "privilege": 5551,
    "\u2581cocreateinstan": 5552,
    "20c": 5553,
    "\u2581back": 5554,
    "\u25810x41d2": 5555,
    "9c8": 5556,
    "d05": 5557,
    "\u25810x134": 5558,
    "\u25810x4604": 5559,
    "66e": 5560,
    "744": 5561,
    "\u25810x208": 5562,
    "\u25810x4c0": 5563,
    "\u25810x7f4": 5564,
    "2b0": 5565,
    "9b8": 5566,
    "\u25810x180": 5567,
    "\u25810x7f8003": 5568,
    "\u25810x7f8004": 5569,
    "\u25810x7f8005": 5570,
    "\u25810x7f8006": 5571,
    "\u25810x7f8007": 5572,
    "\u25810x7f8008": 5573,
    "\u25810x7f8009": 5574,
    "\u25810x7f800a": 5575,
    "\u25810x7f800b": 5576,
    "\u25810x7f800c": 5577,
    "\u25810x7f800d": 5578,
    "754": 5579,
    "7d5": 5580,
    "\u25810x4650": 5581,
    "7ce": 5582,
    "fdd": 5583,
    "\u25810x1211dbc": 5584,
    "\u25810x414c": 5585,
    "\u25810x7f800e": 5586,
    "fd4": 5587,
    "\u25810x4095": 5588,
    "bbc": 5589,
    "\u2581af": 5590,
    "\u25810x3010": 5591,
    "\u25810x7f800f": 5592,
    "\u25810x1211ef4": 5593,
    "716": 5594,
    "a83": 5595,
    "af8": 5596,
    "\u25810x502dc": 5597,
    "versioninfow": 5598,
    "\u25810x52668": 5599,
    "im": 5600,
    "a0c": 5601,
    "fd8": 5602,
    "f3e": 5603,
    "\u25810x44b7": 5604,
    "\u25810x1211584": 5605,
    "1b0": 5606,
    "77c": 5607,
    "f98": 5608,
    "\u25810x40ef1b": 5609,
    "a32": 5610,
    "\u2581opena": 5611,
    "\u258134": 5612,
    "\u25810x522": 5613,
    "\u25810x4605": 5614,
    "\u25810x4607": 5615,
    "\u25810x40ef1a": 5616,
    "bed": 5617,
    "laun": 5618,
    "aba": 5619,
    "148": 5620,
    "1b4": 5621,
    "ort": 5622,
    "\u2581mo": 5623,
    "\u2581print": 5624,
    "\u2581appendw": 5625,
    "\u2581your": 5626,
    "\u25810x46c0": 5627,
    "d58": 5628,
    "\u25810x1211f5c": 5629,
    "d90": 5630,
    "0048": 5631,
    "launch": 5632,
    "\u25810x4186": 5633,
    "\u25810x486d": 5634,
    "\u25810x4200": 5635,
    "\u25810x1211888": 5636,
    "303": 5637,
    "d38": 5638,
    "db8": 5639,
    "\u25810x4608": 5640,
    "\u25810xffdf": 5641,
    "\u25810x1211b74": 5642,
    "14c": 5643,
    "\u25810x491288": 5644,
    "erify": 5645,
    "\u2581verify": 5646,
    "18c": 5647,
    "trol": 5648,
    "\u25810x4d5": 5649,
    "\u25810x16000": 5650,
    "1a0": 5651,
    "\u25810x600": 5652,
    "\u25810x4227": 5653,
    "this": 5654,
    "\u2581gettempfilename": 5655,
    "\u2581getsystemtimes": 5656,
    "199": 5657,
    "58c": 5658,
    "ht": 5659,
    "pri": 5660,
    "e74": 5661,
    "\u25810x120f": 5662,
    "\u25810x6970": 5663,
    "7de": 5664,
    "run": 5665,
    "priority": 5666,
    "\u25810x418a00": 5667,
    "\u25810x418a30": 5668,
    "\u25810x1211b50": 5669,
    "24c": 5670,
    "\u2581oa": 5671,
    "9c24": 5672,
    "applet": 5673,
    "\u25810x450": 5674,
    "\u25810x4330": 5675,
    "\u2581getsystemdefault": 5676,
    "\u25810x4160": 5677,
    "\u2581environ": 5678,
    "\u25810x565868": 5679,
    "\u25810xff86": 5680,
    "698": 5681,
    "install": 5682,
    "\u25810x8554": 5683,
    "\u25810xffed": 5684,
    "\u25810x42e2": 5685,
    "\u25810x598758": 5686,
    "\u25810xfeee015": 5687,
    "seek": 5688,
    "15c": 5689,
    "a98": 5690,
    "378": 5691,
    "\u2581regcreate": 5692,
    "quire": 5693,
    "\u25810xffd1": 5694,
    "\u25810x1210e30": 5695,
    "\u25810x1211790": 5696,
    "7b0": 5697,
    "960": 5698,
    "\u25810x3f21": 5699,
    "\u25810x40e5": 5700,
    "\u25810x7dc4": 5701,
    "\u25810x40f6a8": 5702,
    "e48": 5703,
    "f3f": 5704,
    "bf7c": 5705,
    "ning": 5706,
    "\u25810x4c30": 5707,
    "566": 5708,
    "fb8": 5709,
    "aa8": 5710,
    "1a4": 5711,
    "\u25810x4175": 5712,
    "\u25810x1211b54": 5713,
    "d60": 5714,
    "fc6": 5715,
    "\u25810x7dc5": 5716,
    "3d28": 5717,
    "198": 5718,
    "944": 5719,
    "ec9": 5720,
    "\u25810x75500000": 5721,
    "\u25810x417da0": 5722,
    "\u25810x940000": 5723,
    "560": 5724,
    "scroll": 5725,
    "\u25810x7f2": 5726,
    "\u25810x42b0a0": 5727,
    "bc6": 5728,
    "\u25810x417d9f": 5729,
    "72c": 5730,
    "a28": 5731,
    "\u2581regcreatekey": 5732,
    "1b8": 5733,
    "\u25810x7dd0": 5734,
    "\u25810x599": 5735,
    "\u25810x8490": 5736,
    "711": 5737,
    "d1c": 5738,
    "resourc": 5739,
    "\u25810xff69": 5740,
    "\u25810x120ff": 5741,
    "\u25810x1211d44": 5742,
    "eab": 5743,
    "\u2581qa": 5744,
    "\u25810x1210e80": 5745,
    "aad": 5746,
    "ff4": 5747,
    "\u25810xb1": 5748,
    "\u25810x4041": 5749,
    "\u25810x8fc0": 5750,
    "\u25810x188e4c": 5751,
    "\u2581commandline": 5752,
    "e05": 5753,
    "ects": 5754,
    "\u25810x59b": 5755,
    "\u2581202203040": 5756,
    "\u25810x4020": 5757,
    "\u25810x4602": 5758,
    "22c": 5759,
    "7170": 5760,
    "argvw": 5761,
    "\u25810x28c": 5762,
    "toargvw": 5763,
    "\u2581commandlinetoargvw": 5764,
    "\u25810x461518": 5765,
    "b34": 5766,
    "\u25810x4140": 5767,
    "\u25810x4316": 5768,
    "\u25810x4324": 5769,
    "\u25810x4169c0": 5770,
    "\u25810x4169c1": 5771,
    "d24": 5772,
    "\u25810x4310": 5773,
    "nexplorer": 5774,
    "\u2581lib": 5775,
    "\u25810x8250": 5776,
    "\u25810xf000": 5777,
    "\u25810x42a00": 5778,
    "\u25810x56c": 5779,
    "\u25810x7dd9": 5780,
    "a68": 5781,
    "\u25812022": 5782,
    "\u25810x2d4df": 5783,
    "a85": 5784,
    "\u25810x10a": 5785,
    "\u25810x3f25": 5786,
    "\u25810x4af4": 5787,
    "a74": 5788,
    "\u25810x3f26": 5789,
    "\u25810x1211f0c": 5790,
    "b33": 5791,
    "\u25810x431f68": 5792,
    "\u2581setupapi": 5793,
    "150": 5794,
    "3e0": 5795,
    "aa4": 5796,
    "\u2581logme": 5797,
    "\u25810xffe8": 5798,
    "e4b8": 5799,
    "\u25810x4e5c": 5800,
    "\u25810x4902e0": 5801,
    "3a5": 5802,
    "\u25810x7bc": 5803,
    "\u25810x496790": 5804,
    "71f": 5805,
    "\u258135": 5806,
    "youre": 5807,
    "\u25810xb6": 5808,
    "ld": 5809,
    "fa4": 5810,
    "\u25810x6b6": 5811,
    "\u25810x7eaba8": 5812,
    "ontrol": 5813,
    "9260": 5814,
    "d1ff": 5815,
    "\u25810x599b5c": 5816,
    "\u25810x599c24": 5817,
    "\u25810x59bf3c": 5818,
    "\u25810x59bf7c": 5819,
    "\u25810x59c120": 5820,
    "\u25810x59c138": 5821,
    "\u25810xfeee018": 5822,
    "\u2581getmessagew": 5823,
    "374": 5824,
    "\u25810x44c2": 5825,
    "\u25810x567678": 5826,
    "a8a8": 5827,
    "\u25810x4760": 5828,
    "ax": 5829,
    "7b6": 5830,
    "ccf": 5831,
    "d0000": 5832,
    "\u25810x42e0a4": 5833,
    "\u2581verifyversioninfow": 5834,
    "msg": 5835,
    "textw": 5836,
    "\u25810x1210ec0": 5837,
    "\u2581add": 5838,
    "\u25810x435018": 5839,
    "\u25810x40d8": 5840,
    "\u25810x419c54": 5841,
    "\u25810x435002": 5842,
    "\u25810x435004": 5843,
    "\u25810x435006": 5844,
    "\u25810x435008": 5845,
    "\u25810x43500a": 5846,
    "\u25810x43500c": 5847,
    "\u25810x43500e": 5848,
    "\u25810x435010": 5849,
    "ef4": 5850,
    "\u25810x173": 5851,
    "\u25810x40a2": 5852,
    "\u25810x419c53": 5853,
    "\u25810x435014": 5854,
    "a63": 5855,
    "dc8": 5856,
    "\u25810x435016": 5857,
    "128": 5858,
    "2c8": 5859,
    "bb0": 5860,
    "\u25810x8b50": 5861,
    "a18": 5862,
    "fdc": 5863,
    "ame32": 5864,
    "\u2581prop": 5865,
    "\u2581mame32": 5866,
    "\u25810x42398": 5867,
    "\u25810x74000": 5868,
    "\u2581freeware": 5869,
    "9a0": 5870,
    "\u2581apphelp": 5871,
    "\u2581defwindowprocw": 5872,
    "998": 5873,
    "ad5": 5874,
    "bcat": 5875,
    "proces": 5876,
    "\u25810x478": 5877,
    "\u25810x4b40": 5878,
    "\u2581propsys": 5879,
    "bcatq": 5880,
    "extex": 5881,
    "\u2581clbcatq": 5882,
    "\u25810xfeee016": 5883,
    "vip": 5884,
    "9c4": 5885,
    "dd7": 5886,
    "f7c": 5887,
    "\u2581prvip": 5888,
    "\u25810x1210e84": 5889,
    "390": 5890,
    "9c3": 5891,
    "bd8": 5892,
    "30000": 5893,
    "\u25810x42d498": 5894,
    "df0": 5895,
    "\u25810x509e4": 5896,
    "f86": 5897,
    "2acb2": 5898,
    "\u25810x7ddd": 5899,
    "b2c": 5900,
    "gex": 5901,
    "\u2581b2acb2": 5902,
    "\u25810x435012": 5903,
    "348": 5904,
    "df5": 5905,
    "f60": 5906,
    "our": 5907,
    "\u2581qt5": 5908,
    "\u25810x7dc9": 5909,
    "a24": 5910,
    "\u25810x2e7": 5911,
    "ba8": 5912,
    "bd7": 5913,
    "\u25810x3f27": 5914,
    "a31": 5915,
    "a34": 5916,
    "e81": 5917,
    "\u25810x5f3": 5918,
    "aec": 5919,
    "\u25810x8410": 5920,
    "404": 5921,
    "cue": 5922,
    "rescue": 5923,
    "\u25810xa4a0": 5924,
    "\u2581towlower": 5925,
    "a3c8": 5926,
    "ctrl": 5927,
    "zone": 5928,
    "\u25810x9cc0": 5929,
    "a1c": 5930,
    "program": 5931,
    "\u25810x9810": 5932,
    "inrescue": 5933,
    "\u2581logmeinrescue": 5934,
    "406": 5935,
    "\u25810x1211fa0": 5936,
    "765": 5937,
    "\u25810x1211ad0": 5938,
    "\u2581logmeinrescueapplet": 5939,
    "fbc": 5940,
    "9b0": 5941,
    "fed": 5942,
    "3a20": 5943,
    "\u25810x5265c3c": 5944,
    "\u2581regqueryvalueexw": 5945,
    "9fc": 5946,
    "profil": 5947,
    "\u25810x4fc": 5948,
    "\u25810x4c33": 5949,
    "\u25810x41ddd8": 5950,
    "\u2581ric": 5951,
    "\u25810x41de20": 5952,
    "f44": 5953,
    "\u25810xa010": 5954,
    "\u2581riche": 5955,
    "\u25810x4011": 5956,
    "\u2581regdelete": 5957,
    "\u25810x7bc00000": 5958,
    "\u2581cocreateinstance": 5959,
    "111": 5960,
    "a5b": 5961,
    "260": 5962,
    "adc": 5963,
    "move": 5964,
    "\u25810x3020302": 5965,
    "zoneinformation": 5966,
    "117": 5967,
    "\u25810xe8": 5968,
    "9d1": 5969,
    "ed0": 5970,
    "\u25810x5266c": 5971,
    "\u25810x4c32d8": 5972,
    "\u25810x4c32f0": 5973,
    "\u2581gettimezoneinformation": 5974,
    "da0": 5975,
    "\u25810x44f": 5976,
    "9e4": 5977,
    "des": 5978,
    "\u25810x144": 5979,
    "\u25810x535": 5980,
    "6b6": 5981,
    "\u25810x42ce08": 5982,
    "9f8": 5983,
    "f48": 5984,
    "7675": 5985,
    "2c4": 5986,
    "a7b": 5987,
    "ioc": 5988,
    "ffd1ff": 5989,
    "\u25810x2012": 5990,
    "\u25810x42fc20": 5991,
    "\u25810xcccc": 5992,
    "\u25810xd3": 5993,
    "\u25810x567": 5994,
    "listmsg": 5995,
    "\u2581commctrl": 5996,
    "\u2581getcursor": 5997,
    "\u2581draglistmsg": 5998,
    "\u25810x41a9": 5999,
    "buf": 6000,
    "\u25810x40a6": 6001,
    "\u25810x7dcc": 6002,
    "\u25810x408c8d": 6003,
    "\u25810x408c8e": 6004,
    "fic": 6005,
    "\u2581ol": 6006,
    "ae00": 6007,
    "\u25810x44c": 6008,
    "931": 6009,
    "erun": 6010,
    "\u25810x1211cb8": 6011,
    "433": 6012,
    "\u25810x7e4": 6013,
    "a73": 6014,
    "\u25810xd8": 6015,
    "745": 6016,
    "\u25810x7100": 6017,
    "\u25810x7dcd": 6018,
    "\u25810x3f75e88": 6019,
    "c84": 6020,
    "ee2": 6021,
    "\u25810x7dd4": 6022,
    "\u25810x43501a": 6023,
    "ae2": 6024,
    "per": 6025,
    "\u25810x41cc54": 6026,
    "\u25810x120f8a6": 6027,
    "orgex": 6028,
    "gn": 6029,
    "709": 6030,
    "pla": 6031,
    "\u25810x7dd8": 6032,
    "\u25810x181b48": 6033,
    "\u2581cryptget": 6034,
    "\u25810xfeedf000": 6035,
    "1c6": 6036,
    "ffcb": 6037,
    "\u2581e000": 6038,
    "\u25810x413d": 6039,
    "\u25810x508d0": 6040,
    "\u25810x423818": 6041,
    "317": 6042,
    "\u25810x40d": 6043,
    "\u25810x7f5": 6044,
    "\u25810x41ab": 6045,
    "\u25810x7dd1": 6046,
    "\u25810x7dd5": 6047,
    "\u25810x7ddc": 6048,
    "80004005": 6049,
    "\u25810x509a8": 6050,
    "\u25810x41a8a8": 6051,
    "\u25810x41bc98": 6052,
    "\u25810x41bcc8": 6053,
    "\u2581error0x80004005": 6054,
    "\u2581getwindowsdirectoryw": 6055,
    "201": 6056,
    "545": 6057,
    "\u25810x424f": 6058,
    "\u25810x8330": 6059,
    "\u25810xff92": 6060,
    "\u25810x77000": 6061,
    "acquire": 6062,
    "\u2581internet": 6063,
    "acquirecon": 6064,
    "\u2581lstrcmpia": 6065,
    "\u2581cryptacquirecon": 6066,
    "bf4": 6067,
    "\u2581qt5core": 6068,
    "350": 6069,
    "7a6": 6070,
    "prop": 6071,
    "valuea": 6072,
    "\u25810x4188": 6073,
    "\u2581registerwindowmessagea": 6074,
    "a49": 6075,
    "beb": 6076,
    "ce1": 6077,
    "ere": 6078,
    "\u25810x8cb0": 6079,
    "\u25810x4c9778": 6080,
    "\u258108": 6081,
    "\u25810x6b9c": 6082,
    "\u2581cryptdestroy": 6083,
    "update": 6084,
    "created": 6085,
    "\u25810x7c90": 6086,
    "\u25810x563a20": 6087,
    "300b": 6088,
    "blead": 6089,
    "\u2581ismb": 6090,
    "\u2581ismbblead": 6091,
    "aac": 6092,
    "\u25810x4012": 6093,
    "bf1": 6094,
    "ster": 6095,
    "\u2581fre": 6096,
    "\u25810x4106": 6097,
    "\u25810xa210": 6098,
    "\u25810xffe9": 6099,
    "\u2581messageboxw": 6100,
    "2c0": 6101,
    "a06": 6102,
    "bf8": 6103,
    "\u25810x4356": 6104,
    "\u25810x6940": 6105,
    "\u2581launch": 6106,
    "\u25810x181b98": 6107,
    "586": 6108,
    "\u2581cp": 6109,
    "\u25810x71a1": 6110,
    "\u25810x43501c": 6111,
    "\u25810x43501e": 6112,
    "\u25810x435020": 6113,
    "\u25810x435022": 6114,
    "\u25810x435028": 6115,
    "\u25810x43502a": 6116,
    "\u25810x43502c": 6117,
    "\u25810x43502e": 6118,
    "\u25810x435030": 6119,
    "d85": 6120,
    "\u25810x7f1": 6121,
    "\u2581mso97": 6122,
    "354": 6123,
    "e0000": 6124,
    "\u25810x1211e38": 6125,
    "741": 6126,
    "911": 6127,
    "9b4": 6128,
    "20000": 6129,
    "atoma": 6130,
    "\u25810x2b4": 6131,
    "b3c": 6132,
    "\u25810xbf": 6133,
    "\u25810x3e6c": 6134,
    "\u25810x513d28": 6135,
    "9cc": 6136,
    "bd6": 6137,
    "leasecon": 6138,
    "\u25810x1211a44": 6139,
    "bb4": 6140,
    "\u25810x42da": 6141,
    "\u25810x7500": 6142,
    "645": 6143,
    "d78": 6144,
    "\u25810xffd8": 6145,
    "mt": 6146,
    "orn": 6147,
    "\u25810x44c250": 6148,
    "releasecon": 6149,
    "releasecontext": 6150,
    "f10": 6151,
    "\u25810x4d0": 6152,
    "\u25810x407b": 6153,
    "\u25810x8ce0": 6154,
    "205": 6155,
    "\u258130": 6156,
    "\u25810x4b4": 6157,
    "\u25810xe9": 6158,
    "\u25810x40e9": 6159,
    "inmodule": 6160,
    "647": 6161,
    "6d7": 6162,
    "006c": 6163,
    "enamew": 6164,
    "\u25810x1211eac": 6165,
    "processmemory": 6166,
    "\u2581zip": 6167,
    "alse": 6168,
    "valuew": 6169,
    "\u25810x4b8": 6170,
    "\u25810x8de0": 6171,
    "\u25810x40a5b0": 6172,
    "\u25810x40a5b8": 6173,
    "\u2581getdrivetypea": 6174,
    "123": 6175,
    "\u2581doyouwantto": 6176,
    "485": 6177,
    "766": 6178,
    "\u2581vf": 6179,
    "ad50": 6180,
    "false": 6181,
    "running": 6182,
    "\u2581cryptreleasecontext": 6183,
    "\u2581setenvironmentvariablew": 6184,
    "1c4": 6185,
    "dd0": 6186,
    "\u25810x40a5b4": 6187,
    "\u25810xfeedf0": 6188,
    "7f8": 6189,
    "dd8": 6190,
    "\u2581ps": 6191,
    "\u25810x40a5ae": 6192,
    "\u25810x40a5b2": 6193,
    "\u25810x40a5b6": 6194,
    "\u25810x40a5ba": 6195,
    "strue": 6196,
    "\u25810x4220": 6197,
    "b22": 6198,
    "bac": 6199,
    "bff": 6200,
    "f71": 6201,
    "idto": 6202,
    "allyour": 6203,
    "onexist": 6204,
    "zeroorn": 6205,
    "\u2581istrue": 6206,
    "\u2581isexist": 6207,
    "\u2581isfalse": 6208,
    "\u2581iszeroorn": 6209,
    "\u2581openanexplorer": 6210,
    "\u2581iszeroornonexist": 6211,
    "wc": 6212,
    "\u25810x5b5": 6213,
    "\u25810x40b7": 6214,
    "\u25810x7e30": 6215,
    "\u25810x9730": 6216,
    "\u2581globalf": 6217,
    "mi": 6218,
    "\u25810x41d1e0": 6219,
    "\u25810x1210e34": 6220,
    "a46": 6221,
    "dcc": 6222,
    "times": 6223,
    "\u25810xdc": 6224,
    "frominternet": 6225,
    "322": 6226,
    "image": 6227,
    "thash": 6228,
    "handler": 6229,
    "\u25810x3f2210": 6230,
    "codeptr": 6231,
    "\u25810x409c": 6232,
    "\u25810x4111d0": 6233,
    "createhash": 6234,
    "\u2581isbadcodeptr": 6235,
    "af3": 6236,
    "thashdata": 6237,
    "1f0": 6238,
    "\u25810xb2": 6239,
    "\u25810x109": 6240,
    "\u25810x636": 6241,
    "cod": 6242,
    "\u25810x439458": 6243,
    "pip": 6244,
    "0068": 6245,
    "\u25810x2840": 6246,
    "\u2581command": 6247,
    "\u25810x181c88": 6248,
    "186": 6249,
    "386": 6250,
    "5ac": 6251,
    "75e": 6252,
    "ongle": 6253,
    "ecadwork": 6254,
    "\u25810x76500000": 6255,
    "f68": 6256,
    "\u25810x181c60": 6257,
    "\u2581shgetspecialfolder": 6258,
    "334": 6259,
    "d06": 6260,
    "sion": 6261,
    "\u25810x40d9": 6262,
    "\u25810x4f5320": 6263,
    "\u2581cryptcreatehash": 6264,
    "190": 6265,
    "f45": 6266,
    "acti": 6267,
    "em32": 6268,
    "\u2581crypthashdata": 6269,
    "uti": 6270,
    "\u25810x6f00": 6271,
    "7978": 6272,
    "\u25810x41db": 6273,
    "\u25810x4370": 6274,
    "\u25810x4aa0": 6275,
    "\u25810x94f0": 6276,
    "\u2581regenum": 6277,
    "\u25810xfffffffe": 6278,
    "\u25810x7f80": 6279,
    "\u25810x1211c94": 6280,
    "\u25810x8e90": 6281,
    "\u2581cryptdestroyhash": 6282,
    "\u25810x51a0": 6283,
    "\u25810x46b400": 6284,
    "\u25810x1211e40": 6285,
    "\u25810x2840284": 6286,
    "9b6": 6287,
    "\u25810x4912d0": 6288,
    "685": 6289,
    "bd2": 6290,
    "\u25810x413f": 6291,
    "\u25810x8340": 6292,
    "\u25810x1211edc": 6293,
    "696": 6294,
    "ower": 6295,
    "\u25810x1b5": 6296,
    "\u25810xffdc": 6297,
    "00000000": 6298,
    "\u25810x1211e4c": 6299,
    "\u2581lo": 6300,
    "\u2581psapi": 6301,
    "\u25810x3820": 6302,
    "hashparam": 6303,
    "\u25810x120e694": 6304,
    "\u25810x120e69c": 6305,
    "\u2581cryptgethashparam": 6306,
    "\u2581getfileattributesa": 6307,
    "244": 6308,
    "97f": 6309,
    "b7c": 6310,
    "b94": 6311,
    "910": 6312,
    "\u25810x4b80": 6313,
    "\u25810x12106": 6314,
    "ed2": 6315,
    "50c0": 6316,
    "b64": 6317,
    "\u25810x7f9": 6318,
    "\u25810x3810": 6319,
    "\u25810x7f7e": 6320,
    "\u2581onexit": 6321,
    "iocontrol": 6322,
    "\u25810x120e6a0": 6323,
    "3ac": 6324,
    "d81": 6325,
    "\u258136": 6326,
    "\u25810x42a4": 6327,
    "3db": 6328,
    "7ad": 6329,
    "\u25810x40a7": 6330,
    "16c": 6331,
    "7540": 6332,
    "\u25810x2280": 6333,
    "a65": 6334,
    "a94": 6335,
    "\u25810x6d006c": 6336,
    "\u2581cryptacquirecontexta": 6337,
    "\u25810x406c": 6338,
    "\u25810x7df9": 6339,
    "\u25810xbcf2": 6340,
    "\u2581deviceiocontrol": 6341,
    "\u25810xfeee009e": 6342,
    "\u25810x115": 6343,
    "\u25810x6f006e": 6344,
    "\u25810x710070": 6345,
    "\u25810x770076": 6346,
    "\u25810x790078": 6347,
    "b006a": 6348,
    "\u25810x458": 6349,
    "\u25810x4176": 6350,
    "\u25810x53e4": 6351,
    "\u25810x7df8": 6352,
    "\u2581strcpy": 6353,
    "\u25810x42eab0": 6354,
    "\u25810x690068": 6355,
    "\u25810x6b006a": 6356,
    "\u25810x730072": 6357,
    "\u25810x750074": 6358,
    "\u25810x7b007a": 6359,
    "\u25810x7d007c": 6360,
    "\u25810x7f007e": 6361,
    "\u25810x3f75f7c": 6362,
    "\u2581destroywindow": 6363,
    "e69": 6364,
    "pop": 6365,
    "\u25810x40f5": 6366,
    "\u25810x2d4d9": 6367,
    "\u25810x420fe8": 6368,
    "f02": 6369,
    "f5c": 6370,
    "pc": 6371,
    "\u2581me": 6372,
    "\u25810x6ce": 6373,
    "e09": 6374,
    "4bb8": 6375,
    "\u25810xde": 6376,
    "\u25810x9028": 6377,
    "\u25810x41a9f0": 6378,
    "\u25810x4f6230": 6379,
    "fox": 6380,
    "\u25810x455480": 6381,
    "962": 6382,
    "icen": 6383,
    "90000": 6384,
    "\u25810x3f28": 6385,
    "a43": 6386,
    "\u25810x6f6": 6387,
    "\u25810x1211f68": 6388,
    "e94": 6389,
    "\u25810xfeee00a0": 6390,
    "\u2581getmodulebas": 6391,
    "710": 6392,
    "b6c": 6393,
    "7c58": 6394,
    "coll": 6395,
    "\u2581for": 6396,
    "\u25810x484": 6397,
    "processto": 6398,
    "\u25810x3010301": 6399,
    "90e": 6400,
    "uld": 6401,
    "\u25810x4195": 6402,
    "\u25810x42ab": 6403,
    "eresource": 6404,
    "\u25810x42e2f0": 6405,
    "\u2581getmodulebasenamew": 6406,
    "3cf0": 6407,
    "output": 6408,
    "\u25810x455468": 6409,
    "\u25810x1210d90": 6410,
    "\u25810x77000723": 6411,
    "345": 6412,
    "3f0": 6413,
    "\u2581ab": 6414,
    "\u25810x3f75f84": 6415,
    "\u2581202203031": 6416,
    "fore": 6417,
    "\u25810x4040": 6418,
    "\u25810xffea": 6419,
    "\u25810x42c020": 6420,
    "30c": 6421,
    "725": 6422,
    "\u25810x4ed": 6423,
    "\u25810x2d4d": 6424,
    "\u2581getfull": 6425,
    "\u25810x42c024": 6426,
    "\u25810x42c028": 6427,
    "\u25810x3f75f8c": 6428,
    "\u2581systemtim": 6429,
    "processtoken": 6430,
    "\u2581application": 6431,
    "\u2581shgetfileinfow": 6432,
    "\u2581openprocesstoken": 6433,
    "\u25810x180c": 6434,
    "\u25810x6c000": 6435,
    "2d4": 6436,
    "prog": 6437,
    "\u25810x42ec": 6438,
    "\u2581please": 6439,
    "\u25810xc4": 6440,
    "\u25810x350": 6441,
    "installed": 6442,
    "\u2581freeresource": 6443,
    "\u25810xf1": 6444,
    "912": 6445,
    "\u25810x47d0": 6446,
    "\u25810x120ee": 6447,
    "d70": 6448,
    "\u25810x4e300": 6449,
    "\u2581shgetspecialfoldera": 6450,
    "\u25810xd3d": 6451,
    "\u25810x8d90": 6452,
    "\u25810x40a92e": 6453,
    "\u25810x40a930": 6454,
    "\u25810x40a932": 6455,
    "\u25810x40a934": 6456,
    "\u25810x40a936": 6457,
    "\u25810x40a938": 6458,
    "\u25810x40a93a": 6459,
    "\u25810x40b888": 6460,
    "\u25810x41af40": 6461,
    "695": 6462,
    "7c6": 6463,
    "ass2": 6464,
    "\u2581meip": 6465,
    "\u25810x4229c1": 6466,
    "\u2581meipass2": 6467,
    "945": 6468,
    "b12": 6469,
    "bfc": 6470,
    "6564": 6471,
    "6d7363": 6472,
    "\u25810x4420": 6473,
    "\u25810x41ae00": 6474,
    "\u25810x1211f94": 6475,
    "\u25810xe06d7363": 6476,
    "9ce": 6477,
    "\u2581mb": 6478,
    "\u25810x40a020": 6479,
    "\u25810x41ad50": 6480,
    "\u25810x42b070": 6481,
    "\u25810x42eaa6": 6482,
    "\u25810x42eaba": 6483,
    "\u25810x42eac4": 6484,
    "\u25810x1211568": 6485,
    "\u25810x1211788": 6486,
    "946": 6487,
    "\u2581cq": 6488,
    "\u2581getexit": 6489,
    "\u25810x410acd": 6490,
    "\u25810x410ace": 6491,
    "\u25810x41e208": 6492,
    "905": 6493,
    "\u25810xdb": 6494,
    "767574": 6495,
    "\u25810x7b7a": 6496,
    "filespec": 6497,
    "\u25810x77767574": 6498,
    "sh": 6499,
    "270": 6500,
    "7d7c": 6501,
    "\u2581removefilespec": 6502,
    "a9c": 6503,
    "f95": 6504,
    "fig": 6505,
    "nam": 6506,
    "\u2581appdata": 6507,
    "\u25810x7b7a7978": 6508,
    "235": 6509,
    "666": 6510,
    "e55": 6511,
    "progid": 6512,
    "\u25810x40e7": 6513,
    "\u25810x4315f8": 6514,
    "\u25810x452868": 6515,
    "\u2581clsidfromprogid": 6516,
    "\u25810xb7": 6517,
    "afcdff": 6518,
    "afcdffceff": 6519,
    "\u25810x1211f14": 6520,
    "\u2581clsidfromstring": 6521,
    "\u2581b2acb2afcdffceff": 6522,
    "\u25810x429260": 6523,
    "\u25810xd4": 6524,
    "\u25810xe6": 6525,
    "\u25810x700": 6526,
    "\u25810x4bcc": 6527,
    "\u2581removefilespecw": 6528,
    "161": 6529,
    "b96": 6530,
    "\u25810x3f29": 6531,
    "e50": 6532,
    "\u25810x417c10": 6533,
    "19e": 6534,
    "d34": 6535,
    "\u25810x417be0": 6536,
    "eac": 6537,
    "pipe": 6538,
    "26160": 6539,
    "\u25810x7fc": 6540,
    "\u2581findresourc": 6541,
    "dc2": 6542,
    "longw": 6543,
    "\u25810x160": 6544,
    "\u25810x5188": 6545,
    "\u25810x7372": 6546,
    "\u25810x1211e0c": 6547,
    "1b5": 6548,
    "1c2": 6549,
    "376": 6550,
    "f72": 6551,
    "\u25810x413b": 6552,
    "\u25810x63626160": 6553,
    "\u25810x73727170": 6554,
    "656": 6555,
    "\u25810x6766": 6556,
    "\u25810x1211ec0": 6557,
    "ce5": 6558,
    "e06": 6559,
    "\u25810x504": 6560,
    "\u2581fileexistsa": 6561,
    "79b": 6562,
    "7f4": 6563,
    "d01": 6564,
    "\u25810x4603": 6565,
    "\u2581olerun": 6566,
    "\u25810x431f20": 6567,
    "\u25810x1210bd7": 6568,
    "\u25810x67666564": 6569,
    "145": 6570,
    "\u25810x41aa": 6571,
    "691": 6572,
    "fde": 6573,
    "\u2581aa": 6574,
    "f4e4": 6575,
    "a6968": 6576,
    "\u2581qae": 6577,
    "\u25810x9940": 6578,
    "\u25810x52669": 6579,
    "\u25810x6b6a6968": 6580,
    "3a0": 6581,
    "3de": 6582,
    "da8": 6583,
    "\u25810x4154": 6584,
    "\u25810x4548": 6585,
    "\u25810x12000": 6586,
    "\u25810x429920": 6587,
    "69d": 6588,
    "e03": 6589,
    "\u25810x433630": 6590,
    "\u25810x12116c0": 6591,
    "\u2581registerclipboardformata": 6592,
    "781": 6593,
    "b7b": 6594,
    "\u25810x120f9": 6595,
    "\u25810x1211f98": 6596,
    "\u2581cal": 6597,
    "e6d6c": 6598,
    "\u25810xa6b0": 6599,
    "\u25810x44f850": 6600,
    "\u25810xb9": 6601,
    "\u25810x112": 6602,
    "\u25810x40a540": 6603,
    "\u25810x4bc298": 6604,
    "\u2581charprevw": 6605,
    "\u25810x6f6e6d6c": 6606,
    "df4": 6607,
    "ups": 6608,
    "0064": 6609,
    "\u25810x1733c4": 6610,
    "\u25810x7f7e7d7c": 6611,
    "431": 6612,
    "727": 6613,
    "\u2581ts": 6614,
    "\u25810x44e": 6615,
    "\u2581cannot": 6616,
    "\u25810x44f868": 6617,
    "\u25810x1211d2c": 6618,
    "53a0": 6619,
    "\u2581fast": 6620,
    "\u2581this": 6621,
    "\u25810x7f3": 6622,
    "\u25810x414d": 6623,
    "\u25810x430fec": 6624,
    "\u25810x44f8c8": 6625,
    "\u2581iswindow": 6626,
    "\u25810x1211e64": 6627,
    "\u25810x1211e90": 6628,
    "\u25810xec": 6629,
    "\u25810x40af": 6630,
    "\u25810x6300": 6631,
    "\u25810x44f880": 6632,
    "\u25810x44f898": 6633,
    "\u25810x44f8b0": 6634,
    "\u25810x1210e70": 6635,
    "\u25810x430db0": 6636,
    "\u25810x44f8f8": 6637,
    "\u25810x44f940": 6638,
    "\u25810x44f958": 6639,
    "\u25810x44f970": 6640,
    "\u25810x44f988": 6641,
    "225": 6642,
    "7d6": 6643,
    "0066": 6644,
    "\u2581stri": 6645,
    "c7ffd1ff": 6646,
    "\u25810x40a53a": 6647,
    "\u25810x40a53c": 6648,
    "\u25810x40a53e": 6649,
    "\u25810x40a542": 6650,
    "\u25810x40a544": 6651,
    "\u25810x42168c": 6652,
    "c7ffd1ffca": 6653,
    "356": 6654,
    "f3a": 6655,
    "ffcbff": 6656,
    "\u25810x366": 6657,
    "outputcp": 6658,
    "\u25810x40a546": 6659,
    "\u25810x41e93e": 6660,
    "\u25810x41ebfa": 6661,
    "\u25810x41ebfb": 6662,
    "\u25810x42168b": 6663,
    "\u25810xfeee009f": 6664,
    "c7ffd1ffcaffcbff": 6665,
    "\u2581b2acb2afcdffceffc7ffd1ffcaffcbff": 6666,
    "1ac": 6667,
    "\u25810x4ab": 6668,
    "\u25810x1faf": 6669,
    "224": 6670,
    "2ec": 6671,
    "\u25810x6100": 6672,
    "\u2581localrealloc": 6673,
    "be0": 6674,
    "fa0": 6675,
    "\u25810x4014": 6676,
    "\u25810x47b1": 6677,
    "\u25810xfeee00f3": 6678,
    "b74": 6679,
    "\u2581getconsoleoutputcp": 6680,
    "1eb": 6681,
    "9da": 6682,
    "b75": 6683,
    "bab": 6684,
    "\u2581call": 6685,
    "\u25810x40c5": 6686,
    "\u25810x7ee000": 6687,
    "\u25810xfeee00f2": 6688,
    "1d4": 6689,
    "c03": 6690,
    "ce6": 6691,
    "\u25810x443": 6692,
    "\u25810x7e50": 6693,
    "\u25810x7f8002": 6694,
    "\u2581ext": 6695,
    "\u25810x4093e4": 6696,
    "\u25810x430828": 6697,
    "\u25810x44e4b8": 6698,
    "\u25810x80c410": 6699,
    "2e8": 6700,
    "3ff": 6701,
    "b008": 6702,
    "etime": 6703,
    "\u25810x4a8": 6704,
    "\u25810x4033": 6705,
    "\u25810x4ad4": 6706,
    "\u25810x630062": 6707,
    "\u25810x650064": 6708,
    "\u25810x670066": 6709,
    "\u25810x6781c0": 6710,
    "\u25810x6781f0": 6711,
    "b38": 6712,
    "f14": 6713,
    "\u25810x610060": 6714,
    "\u25810x7f8010": 6715,
    "48c": 6716,
    "d32": 6717,
    "arta": 6718,
    "\u25810xb5": 6719,
    "\u25810x59c": 6720,
    "\u25810x43f00": 6721,
    "\u25810x4228e1": 6722,
    "initializeex": 6723,
    "\u2581coinitializeex": 6724,
    "294": 6725,
    "\u2581om": 6726,
    "seekto": 6727,
    "\u25810x7f6": 6728,
    "\u2581failedtoseekto": 6729,
    "sb": 6730,
    "\u25810xc2": 6731,
    "\u25810x40a4": 6732,
    "\u25810x120e6dc": 6733,
    "540": 6734,
    "79c": 6735,
    "f79": 6736,
    "\u25810x41300b": 6737,
    "\u25810x422980": 6738,
    "f49": 6739,
    "fcc": 6740,
    "secor": 6741,
    "\u25810x6b4": 6742,
    "\u25810x4034": 6743,
    "\u2581omsecor": 6744,
    "\u25810x423cf0": 6745,
    "\u25810x12115bc": 6746,
    "\u25810x1211ddc": 6747,
    "startoffile": 6748,
    "\u2581findresourceexw": 6749,
    "\u2581failedtoseektostartoffile": 6750,
    "da4": 6751,
    "session": 6752,
    "\u25810x42286e": 6753,
    "\u25810x42286f": 6754,
    "\u25810x4228e2": 6755,
    "\u25810x422963": 6756,
    "\u25810x422964": 6757,
    "\u25810x42297f": 6758,
    "\u25810x4229c2": 6759,
    "\u25810x4229fa": 6760,
    "\u25810x4229fb": 6761,
    "\u25810x422a0d": 6762,
    "\u25810x422a0e": 6763,
    "\u25810x42329e": 6764,
    "\u25810x42329f": 6765,
    "\u25810x4233fc": 6766,
    "\u25810x423cef": 6767,
    "7ee": 6768,
    "906": 6769,
    "bdc": 6770,
    "fb4": 6771,
    "ualfox": 6772,
    "\u25810x9290": 6773,
    "52e8": 6774,
    "ache": 6775,
    "\u2581ntm": 6776,
    "\u25810x415c": 6777,
    "\u2581ntmarta": 6778,
    "70f": 6779,
    "804": 6780,
    "desk": 6781,
    "2b8": 6782,
    "ally": 6783,
    "\u25810x40ad": 6784,
    "\u25810x1211180": 6785,
    "\u25810x12115d0": 6786,
    "312": 6787,
    "f15": 6788,
    "\u2581ie": 6789,
    "\u2581437": 6790,
    "\u25810x1e0": 6791,
    "\u25810x42a6": 6792,
    "\u25810x7e51": 6793,
    "\u25810xa260": 6794,
    "\u25810x40f660": 6795,
    "\u25810x429903": 6796,
    "\u25810x4bc328": 6797,
    "\u25810x4bc358": 6798,
    "\u2581failedtoinitializeenginesection": 6799,
    "641": 6800,
    "d14": 6801,
    "\u25810x9110": 6802,
    "\u25810x169bd": 6803,
    "\u25810x429902": 6804,
    "\u25810x42990c": 6805,
    "\u25810x42990d": 6806,
    "\u25810x429921": 6807,
    "b91": 6808,
    "\u2581ro": 6809,
    "ee98": 6810,
    "\u2581oem": 6811,
    "already": 6812,
    "\u2581pleasec": 6813,
    "\u25810x42992a": 6814,
    "\u25810x42992b": 6815,
    "\u25810x12119d0": 6816,
    "a9a": 6817,
    "aveb": 6818,
    "avebeen": 6819,
    "\u25810xffeb": 6820,
    "youreally": 6821,
    "\u25810x431e28": 6822,
    "\u2581getwindowdc": 6823,
    "\u2581failedtoinitializeenginestate": 6824,
    "\u25810x41cb": 6825,
    "\u2581stem32": 6826,
    "\u25810x7c000": 6827,
    "\u25810x1211d50": 6828,
    "3b0": 6829,
    "7c1": 6830,
    "ad2": 6831,
    "e70": 6832,
    "\u25810x9630": 6833,
    "\u25810xa9a0": 6834,
    "\u2581calloc": 6835,
    "\u25810xd27d5": 6836,
    "controlset": 6837,
    "\u2581currentcontrolset": 6838,
    "\u2581dat": 6839,
    "\u2581movefilew": 6840,
    "2c5": 6841,
    "314": 6842,
    "b93": 6843,
    "network": 6844,
    "713": 6845,
    "68c8": 6846,
    "\u25810x1fa": 6847,
    "670": 6848,
    "1740": 6849,
    "\u2581vie": 6850,
    "\u25810x41ac": 6851,
    "\u25810x4210": 6852,
    "\u25810x431a50": 6853,
    "lg": 6854,
    "dfd": 6855,
    "\u25810x238": 6856,
    "\u25810xa020": 6857,
    "96e": 6858,
    "f6c": 6859,
    "0050": 6860,
    "ea20": 6861,
    "\u25810x9a60": 6862,
    "\u2581youmust": 6863,
    "\u25810x714d98": 6864,
    "\u2581registerclipboardformatw": 6865,
    "773": 6866,
    "f7a8": 6867,
    "\u2581evie": 6868,
    "\u25810x4060": 6869,
    "\u25810x4180": 6870,
    "\u25810x4238a8": 6871,
    "\u25810x4238d8": 6872,
    "\u2581psc": 6873,
    "c2f": 6874,
    "d51": 6875,
    "\u25817z6": 6876,
    "\u25817z72": 6877,
    "1d8": 6878,
    "vert": 6879,
    "lpapi": 6880,
    "\u25810xe2": 6881,
    "\u2581mail": 6882,
    "\u25810x9640": 6883,
    "\u25810x6ba3c8": 6884,
    "a3c": 6885,
    "\u2581cli": 6886,
    "\u2581lmi": 6887,
    "486": 6888,
    "older": 6889,
    "\u25810x2b2": 6890,
    "\u25810x131a": 6891,
    "\u25810x8028": 6892,
    "\u25810x169bc9c": 6893,
    "3b6": 6894,
    "ert": 6895,
    "325": 6896,
    "\u25810x40b9": 6897,
    "\u25810x1211d3c": 6898,
    "66d": 6899,
    "ails": 6900,
    "\u25810x169b9": 6901,
    "\u25810x169be": 6902,
    "\u25810x42c5a0": 6903,
    "\u25810x42c5b8": 6904,
    "\u25810x439440": 6905,
    "9a6": 6906,
    "\u25810x413972": 6907,
    "systemtime": 6908,
    "\u25810xfeee00a1": 6909,
    "imetofiletime": 6910,
    "\u2581setcurrentdirectoryw": 6911,
    "eta": 6912,
    "\u25810x7ce0": 6913,
    "\u2581unlock": 6914,
    "\u25810x42abc0": 6915,
    "274": 6916,
    "2c6": 6917,
    "398": 6918,
    "der": 6919,
    "\u25810xe4": 6920,
    "\u25810x4491": 6921,
    "\u25810xfeee00a2": 6922,
    "\u2581enable": 6923,
    "d72": 6924,
    "ef8": 6925,
    "\u25810x42c570": 6926,
    "\u2581outputdebugstringw": 6927,
    "3f8": 6928,
    "f76": 6929,
    "\u2581tsl": 6930,
    "\u25810xffc0": 6931,
    "\u25810x40935c": 6932,
    "\u25810x4093ec": 6933,
    "b42": 6934,
    "f91": 6935,
    "\u2581exp": 6936,
    "\u25810x43a": 6937,
    "\u25810x411218": 6938,
    "\u25810x154": 6939,
    "\u25810x9230": 6940,
    "760": 6941,
    "\u25810xc9": 6942,
    "kg": 6943,
    "126": 6944,
    "774": 6945,
    "935": 6946,
    "c85": 6947,
    "3cf8": 6948,
    "\u25810x1211ec4": 6949,
    "663": 6950,
    "d0f": 6951,
    "\u25810x4770": 6952,
    "\u2581getmenuitem": 6953,
    "919": 6954,
    "\u2581884": 6955,
    "\u25810x10e": 6956,
    "\u25810x1211e98": 6957,
    "767": 6958,
    "915": 6959,
    "\u25810x118": 6960,
    "\u25810x4966": 6961,
    "\u25810x131aac0": 6962,
    "\u25810x40b5": 6963,
    "\u25810xffd5": 6964,
    "\u2581gdiplus": 6965,
    "\u25810x3f2420": 6966,
    "777": 6967,
    "77e": 6968,
    "b71": 6969,
    "f03": 6970,
    "\u25810x515": 6971,
    "\u25810x1210f64": 6972,
    "686": 6973,
    "drl66": 6974,
    "\u25810x4444": 6975,
    "\u2581tsldrl66": 6976,
    "\u2581createsemaphorea": 6977,
    "006": 6978,
    "bf3": 6979,
    "\u2581afx": 6980,
    "\u25810x572": 6981,
    "\u25810x4218": 6982,
    "\u25810xfeee00a3": 6983,
    "b45": 6984,
    "\u25810x4df": 6985,
    "\u2581memmove": 6986,
    "\u2581session": 6987,
    "\u25810xfeee00a5": 6988,
    "2a8": 6989,
    "a96": 6990,
    "b7e": 6991,
    "df1": 6992,
    "\u25810x824": 6993,
    "\u25810x4066": 6994,
    "\u25810x4235": 6995,
    "\u25810x42e658": 6996,
    "\u25810xfeee00a4": 6997,
    "proced": 6998,
    "\u25810x1010": 6999,
    "\u25810x5040": 7000,
    "77b": 7001,
    "e14": 7002,
    "ec3": 7003,
    "ce9": 7004,
    "fc5": 7005,
    "\u258150": 7006,
    "okup": 7007,
    "option": 7008,
    "\u25810x45d1": 7009,
    "\u25810x42e0a8": 7010,
    "\u25810x42e520": 7011,
    "\u2581findwindoww": 7012,
    "735": 7013,
    "ea8": 7014,
    "\u25810x4529": 7015,
    "\u25810x412e39": 7016,
    "\u25810x413f64": 7017,
    "\u25810x413f65": 7018,
    "\u25810x42c990": 7019,
    "\u25810x42ca48": 7020,
    "\u25810x42e538": 7021,
    "\u25810x42e550": 7022,
    "\u25810x42e568": 7023,
    "\u25810x42e580": 7024,
    "\u25810x42e610": 7025,
    "\u25810x42e628": 7026,
    "\u25810x42e640": 7027,
    "\u25810x1211e88": 7028,
    "d7b": 7029,
    "\u25810xba": 7030,
    "\u25810xed": 7031,
    "\u25810x474": 7032,
    "\u25810xff87": 7033,
    "\u2581lookup": 7034,
    "\u25810xfeee00a6": 7035,
    "33c": 7036,
    "register": 7037,
    "7a5": 7038,
    "son": 7039,
    "\u2581iph": 7040,
    "\u25810x4012db": 7041,
    "\u25810x42cd78": 7042,
    "\u25810x42ce38": 7043,
    "\u2581iphlpapi": 7044,
    "\u2581gettempfilenamew": 7045,
    "ae1": 7046,
    "\u25810xeb": 7047,
    "tochar": 7048,
    "\u25810x41c6": 7049,
    "\u25810x42b7": 7050,
    "\u25810x44e9": 7051,
    "\u2581oemtochar": 7052,
    "170": 7053,
    "3f4": 7054,
    "\u25810x482854": 7055,
    "\u25810x482870": 7056,
    "238": 7057,
    "74e": 7058,
    "bd5": 7059,
    "dlg": 7060,
    "\u25810x40c4": 7061,
    "\u25810x7e20": 7062,
    "\u25810x40300": 7063,
    "etofiletime": 7064,
    "\u2581systemtimetofiletime": 7065,
    "da9": 7066,
    "\u25810x4e39": 7067,
    "\u25810x42e090": 7068,
    "28c": 7069,
    "3ad": 7070,
    "main": 7071,
    "60000": 7072,
    "\u25810xd5": 7073,
    "\u25811646": 7074,
    "\u25810x7a40": 7075,
    "\u25810x42e0d8": 7076,
    "\u25810x492": 7077,
    "\u25810x604": 7078,
    "\u25810x2d4dd": 7079,
    "7a4": 7080,
    "formatw": 7081,
    "\u25810x420c30": 7082,
    "3f2": 7083,
    "743": 7084,
    "f5e": 7085,
    "\u25810x420c00": 7086,
    "\u25810x42e0c0": 7087,
    "d61": 7088,
    "\u25810x232": 7089,
    "\u25810x698": 7090,
    "\u2581dialog": 7091,
    "\u25810x413dd6": 7092,
    "\u25810x413dd7": 7093,
    "\u25810x4170f5": 7094,
    "\u25810x4170f6": 7095,
    "\u25810x4179b4": 7096,
    "\u25810x4179b5": 7097,
    "\u25810x4179c5": 7098,
    "\u25810x4179c6": 7099,
    "\u25810x417a43": 7100,
    "\u25810x417a44": 7101,
    "\u25810x417a5b": 7102,
    "\u25810x417a5c": 7103,
    "\u25810x417a9b": 7104,
    "\u25810x417a9c": 7105,
    "\u25810x417aac": 7106,
    "\u25810x417aad": 7107,
    "\u25810x417b1e": 7108,
    "\u25810x417b1f": 7109,
    "\u25810x420c2f": 7110,
    "\u25810x1211fe4": 7111,
    "6e0": 7112,
    "\u25810x420bf0": 7113,
    "\u25810x420bf1": 7114,
    "\u25810x420c01": 7115,
    "\u25810x420c10": 7116,
    "\u25810x420c11": 7117,
    "\u25810x420c1b": 7118,
    "\u25810x420c1c": 7119,
    "\u25810x420c25": 7120,
    "\u25810x420c26": 7121,
    "\u25810x420c39": 7122,
    "\u25810x420c3a": 7123,
    "\u25810x420c43": 7124,
    "\u25810x420c44": 7125,
    "\u25810x420c50": 7126,
    "\u25810x420c51": 7127,
    "\u25810x42f194": 7128,
    "2fc": 7129,
    "955": 7130,
    "\u25810x40c7": 7131,
    "\u25810x10005c": 7132,
    "\u25810x1211e8c": 7133,
    "gs": 7134,
    "\u2581cqa": 7135,
    "\u2581scqa": 7136,
    "\u2581pscqa": 7137,
    "\u25810x3b7fb": 7138,
    "\u25810x1211e00": 7139,
    "2e2": 7140,
    "aler": 7141,
    "ablet": 7142,
    "\u2581fput": 7143,
    "\u25810x4522": 7144,
    "\u25810xa030": 7145,
    "\u2581filetimetosystemtime": 7146,
    "\u25810x6e6": 7147,
    "\u25810x100fdd": 7148,
    "\u25810x120e688": 7149,
    "\u25810x12119a0": 7150,
    "\u25810xfeee00a7": 7151,
    "558": 7152,
    "d35": 7153,
    "dee": 7154,
    "\u25810xfeee00a8": 7155,
    "6c4": 7156,
    "b26": 7157,
    "f24": 7158,
    "\u25810x9050": 7159,
    "\u25810x9070": 7160,
    "25c": 7161,
    "a12": 7162,
    "\u25810x4a80": 7163,
    "\u25810xfe": 7164,
    "\u25810x8e50": 7165,
    "\u25810xfeee00bc": 7166,
    "\u2581oemtochara": 7167,
    "7e6": 7168,
    "f43": 7169,
    "a00000": 7170,
    "\u25810x1b1": 7171,
    "\u25810xfeee00a9": 7172,
    "7fc": 7173,
    "c45": 7174,
    "f05": 7175,
    "\u25810xc6": 7176,
    "\u25810x411c": 7177,
    "\u25810x442806": 7178,
    "\u2581formatmessagew": 7179,
    "0012": 7180,
    "\u25810x409364": 7181,
    "7f9": 7182,
    "aa1": 7183,
    "\u25810x4bb": 7184,
    "\u2581openw": 7185,
    "\u25810x1810": 7186,
    "\u25810x442808": 7187,
    "712": 7188,
    "785": 7189,
    "dialog": 7190,
    "\u2581module": 7191,
    "\u25810x44280a": 7192,
    "\u25810x44280c": 7193,
    "\u25810x44280e": 7194,
    "\u25810x442810": 7195,
    "\u25810x442812": 7196,
    "\u25810x442814": 7197,
    "\u25810x442816": 7198,
    "\u25810x442818": 7199,
    "\u25810x44281a": 7200,
    "\u25810x44281c": 7201,
    "\u25810x44281e": 7202,
    "\u2581dllonexit": 7203,
    "\u2581globaladd": 7204,
    "\u25810xfeee00aa": 7205,
    "\u25810xfeee00ae": 7206,
    "181": 7207,
    "dad": 7208,
    "e90": 7209,
    "3130": 7210,
    "\u25810x4a40": 7211,
    "\u25810xfeee00ac": 7212,
    "sd": 7213,
    "554": 7214,
    "cc5": 7215,
    "ceb": 7216,
    "fa6": 7217,
    "\u25810xffee": 7218,
    "\u25810x409c2c": 7219,
    "a4c4": 7220,
    "atomw": 7221,
    "\u25810x41f6": 7222,
    "\u2581wtsapi32": 7223,
    "\u25810xfeee00ab": 7224,
    "\u25810xfeee00ad": 7225,
    "7d4": 7226,
    "\u25810xef": 7227,
    "\u25810x4146": 7228,
    "311": 7229,
    "3f3": 7230,
    "dfc": 7231,
    "\u2581tol": 7232,
    "\u2581lmir": 7233,
    "\u2581tolower": 7234,
    "\u25810x412565": 7235,
    "\u25810x41e218": 7236,
    "\u2581dl": 7237,
    "\u2581164": 7238,
    "\u25810xe1": 7239,
    "\u2581meta": 7240,
    "fileex": 7241,
    "l6660d": 7242,
    "\u25810x510": 7243,
    "\u25810x412566": 7244,
    "\u2581getprivateprofilestringa": 7245,
    "\u2581files": 7246,
    "\u25810x40938": 7247,
    "\u25810xfeee00f0": 7248,
    "\u2581userprofil": 7249,
    "290": 7250,
    "menuitem": 7251,
    "\u2581getthreadtimes": 7252,
    "705": 7253,
    "\u25810x10b": 7254,
    "\u25810x7730": 7255,
    "\u25810x42dfe8": 7256,
    "\u25810x454bb8": 7257,
    "\u25810x1211fb0": 7258,
    "6d4": 7259,
    "fa3": 7260,
    "5410": 7261,
    "69c0": 7262,
    "ange": 7263,
    "\u2581task": 7264,
    "visible": 7265,
    "\u25810x4528b0": 7266,
    "\u25810x483cf8": 7267,
    "e60": 7268,
    "ea0": 7269,
    "\u25810x40e4": 7270,
    "\u2581module32": 7271,
    "\u2581dialogbox": 7272,
    "\u25810xfeee00f5": 7273,
    "\u2581regqueryvalueexa": 7274,
    "306": 7275,
    "7b5": 7276,
    "9ec": 7277,
    "\u25810x4178": 7278,
    "\u25810x5258": 7279,
    "\u25810x90c0": 7280,
    "\u25810x437116": 7281,
    "\u25810x437117": 7282,
    "305": 7283,
    "2022": 7284,
    "\u25810x42c6": 7285,
    "\u25810xd27d571f": 7286,
    "\u2581writeprocessmemory": 7287,
    "\u2581myarg1myarg2": 7288,
    "\u2581comparestringa": 7289,
    "692": 7290,
    "\u25810x573c": 7291,
    "\u25810x43b6e9": 7292,
    "aa5": 7293,
    "\u2581xh": 7294,
    "\u25810x3001": 7295,
    "\u25810x4780": 7296,
    "\u25810xffda": 7297,
    "\u25810x43b6f3": 7298,
    "\u25810x1010101": 7299,
    "drl6660drl6660drl6660drl6660drl6660": 7300,
    "226": 7301,
    "2d0": 7302,
    "a1e": 7303,
    "be4": 7304,
    "ters": 7305,
    "\u25810x42db": 7306,
    "\u25810x4908": 7307,
    "\u25810xfeee00af": 7308,
    "35c": 7309,
    "772": 7310,
    "99b9": 7311,
    "llow": 7312,
    "\u25810x4c40": 7313,
    "\u25810x1211e58": 7314,
    "1c8": 7315,
    "2e1": 7316,
    "338": 7317,
    "9dc": 7318,
    "\u25810x7fe": 7319,
    "\u25810x567a88": 7320,
    "\u25810xfeee00b1": 7321,
    "a25": 7322,
    "fc1": 7323,
    "a526": 7324,
    "ocus": 7325,
    "\u25810x120fd64": 7326,
    "\u25810xfeee00b0": 7327,
    "a7c": 7328,
    "xfr": 7329,
    "copy": 7330,
    "indi": 7331,
    "ba4": 7332,
    "lot": 7333,
    "\u25810x10000000": 7334,
    "6e8": 7335,
    "a71": 7336,
    "adap": 7337,
    "block": 7338,
    "\u25810x12117c8": 7339,
    "\u25810x2000000": 7340,
    "\u25810x6ce0000": 7341,
    "73e": 7342,
    "a66": 7343,
    "1cd8": 7344,
    "adapters": 7345,
    "aaaaaaaaaaaaaaaa": 7346,
    "391": 7347,
    "b54": 7348,
    "gro": 7349,
    "try": 7350,
    "\u25810x2f2": 7351,
    "\u25810x4ef": 7352,
    "\u2581updat": 7353,
    "now": 7354,
    "quot": 7355,
    "\u25810xe3": 7356,
    "\u25810x88c0": 7357,
    "\u25810xffdb": 7358,
    "\u25810x1211a4c": 7359,
    "\u25810x1211b38": 7360,
    "\u25810xfeee010b": 7361,
    "96d": 7362,
    "\u25810xf4": 7363,
    "\u25810x1211684": 7364,
    "581": 7365,
    "d91": 7366,
    "ede": 7367,
    "\u25810x40b1": 7368,
    "\u25810xfeee00b3": 7369,
    "\u2581getadapters": 7370,
    "f47": 7371,
    "\u25810x4300a8": 7372,
    "\u25810x1211878": 7373,
    "\u25810xfeee00b2": 7374,
    "\u25810xfeee00b4": 7375,
    "driver": 7376,
    "\u25810x41e1c0": 7377,
    "\u25810x41f310": 7378,
    "2cc": 7379,
    "7ff": 7380,
    "fe4": 7381,
    "433a": 7382,
    "4444": 7383,
    "lity": 7384,
    "\u2581line": 7385,
    "\u25810x150": 7386,
    "\u25810x5b2": 7387,
    "\u2581taskbar": 7388,
    "\u25810x416264": 7389,
    "\u25810xd3da80": 7390,
    "\u2581taskbarcreated": 7391,
    "245": 7392,
    "36b": 7393,
    "3ae": 7394,
    "fc2c8": 7395,
    "focus": 7396,
    "\u25810x7a4": 7397,
    "\u25810x41d0": 7398,
    "\u25810x491994": 7399,
    "\u25810x4fc2c8": 7400,
    "\u25810x1211f58": 7401,
    "windowshook": 7402,
    "\u25810xfeee00b5": 7403,
    "506": 7404,
    "a14": 7405,
    "ab6": 7406,
    "ptr": 7407,
    "\u25810x120ce": 7408,
    "\u2581metaquot": 7409,
    "cc3": 7410,
    "dio": 7411,
    "fe5": 7412,
    "\u25810x42c580": 7413,
    "\u25810x120faac": 7414,
    "db4": 7415,
    "\u25810x4156": 7416,
    "\u25810x412541": 7417,
    "\u25810x4130d4": 7418,
    "\u25810x4130d5": 7419,
    "\u25810x416b50": 7420,
    "\u25810x42c448": 7421,
    "\u25810x42c460": 7422,
    "\u25810x42c478": 7423,
    "\u25810x42c490": 7424,
    "\u25810x42c4a8": 7425,
    "\u25810x42c4c0": 7426,
    "\u25810x42c538": 7427,
    "\u25810x42c550": 7428,
    "\u25810x42c568": 7429,
    "5c5": 7430,
    "entin": 7431,
    "\u25810x1814": 7432,
    "deleteatom": 7433,
    "\u25810x1211d60": 7434,
    "\u2581globaldeleteatom": 7435,
    "d45": 7436,
    "d56": 7437,
    "fdb": 7438,
    "e7ec": 7439,
    "medi": 7440,
    "\u2581fastf": 7441,
    "510": 7442,
    "bf6": 7443,
    "propw": 7444,
    "\u25810x561": 7445,
    "\u25810x9170": 7446,
    "\u25810xfeee00b7": 7447,
    "releas": 7448,
    "\u25810x41de00": 7449,
    "\u25810xfeee00b8": 7450,
    "eb4": 7451,
    "place": 7452,
    "\u2581from": 7453,
    "\u25810x3f3e": 7454,
    "\u25810x4033e6": 7455,
    "\u25810x4093a5": 7456,
    "\u25810x4093a6": 7457,
    "\u25810x4093a7": 7458,
    "\u25810x4093a8": 7459,
    "\u25810x4093a9": 7460,
    "\u25810x4093aa": 7461,
    "\u25810x4093ab": 7462,
    "\u25810x416bc9": 7463,
    "\u25810x41e190": 7464,
    "xf": 7465,
    "a0e": 7466,
    "det": 7467,
    "1514": 7468,
    "d0a64": 7469,
    "570656": 7470,
    "\u25813a526": 7471,
    "2022433a": 7472,
    "1740d0a64": 7473,
    "ataddress": 7474,
    "\u25810x1210e6f": 7475,
    "\u25810x1210e73": 7476,
    "\u25810x1210e74": 7477,
    "\u25810x1210e77": 7478,
    "\u25810x1210e7b": 7479,
    "656c2022433a": 7480,
    "\u25813a526570656": 7481,
    "1740d0a64656c2022433a": 7482,
    "\u25813a5265706561740d0a64656c2022433a": 7483,
    "ba1": 7484,
    "2838": 7485,
    "edcc": 7486,
    "lack": 7487,
    "\u25810x1f1": 7488,
    "emaphore": 7489,
    "\u25810x41f300": 7490,
    "\u2581fastfail": 7491,
    "\u25810x1210f66": 7492,
    "\u25810x1210f6a": 7493,
    "\u25810xfeee00b6": 7494,
    "\u25810xfeee00b9": 7495,
    "\u2581accessviolationataddress": 7496,
    "2ed": 7497,
    "af6": 7498,
    "pdf": 7499,
    "6808": 7500,
    "\u2581ftp": 7501,
    "andar": 7502,
    "\u25810x416c8c": 7503,
    "\u25810x41f301": 7504,
    "\u2581msvcr100": 7505,
    "9a4": 7506,
    "dc3": 7507,
    "3d3c": 7508,
    "othe": 7509,
    "contin": 7510,
    "\u25810x40b6": 7511,
    "\u2581getdlg": 7512,
    "\u25810x40799b": 7513,
    "\u25810x40799c": 7514,
    "\u25810x412ad5": 7515,
    "\u25810x412f39": 7516,
    "\u25810x412f3a": 7517,
    "\u25810x416263": 7518,
    "\u25810x416b22": 7519,
    "\u25810x416b23": 7520,
    "\u25810x416b33": 7521,
    "\u25810x416b34": 7522,
    "\u25810x416bb1": 7523,
    "\u25810x416bb2": 7524,
    "\u25810x416bca": 7525,
    "\u25810x416c09": 7526,
    "\u25810x416c0a": 7527,
    "\u25810x416c1a": 7528,
    "\u25810x416c1b": 7529,
    "\u25810x416c8d": 7530,
    "\u25810x41f311": 7531,
    "\u25810x41f320": 7532,
    "\u25810x41f321": 7533,
    "\u25810x41f396": 7534,
    "\u25810x41f397": 7535,
    "\u25810x41f3a0": 7536,
    "\u25810x41f3a1": 7537,
    "\u25810x41f3aa": 7538,
    "\u25810x41f3ab": 7539,
    "\u25810x41f3b4": 7540,
    "\u25810x41f3b5": 7541,
    "\u25810x41f3be": 7542,
    "\u25810x41f3bf": 7543,
    "\u25810x41f3d0": 7544,
    "\u25810x41f3d1": 7545,
    "\u25810x42bfb0": 7546,
    "\u25810x42bfc8": 7547,
    "\u25810x42bfe0": 7548,
    "\u25810x42bff8": 7549,
    "715": 7550,
    "763": 7551,
    "7e3": 7552,
    "\u2581ff": 7553,
    "\u2581ur": 7554,
    "5655": 7555,
    "\u25811da": 7556,
    "before": 7557,
    "\u25810x1104": 7558,
    "\u2581riched20": 7559,
    "\u25810xfeee019": 7560,
    "\u25810xfeee00bb": 7561,
    "hell": 7562,
    "onsolea": 7563,
    "\u25810x461548": 7564,
    "af1": 7565,
    "fe3": 7566,
    "thi": 7567,
    "wares": 7568,
    "\u25810x4740": 7569,
    "\u2581directory": 7570,
    "yourcomputer": 7571,
    "5c6": 7572,
    "764": 7573,
    "rey": 7574,
    "\u258103t": 7575,
    "eyour": 7576,
    "dealer": 7577,
    "\u25811days": 7578,
    "ontinue": 7579,
    "\u25810x4048": 7580,
    "\u25810x45d0": 7581,
    "catalogs": 7582,
    "havebeen": 7583,
    "\u2581dialogs": 7584,
    "allcadwork": 7585,
    "\u2581intermedi": 7586,
    "\u25810xfeee00ba": 7587,
    "\u2581doyoureally": 7588,
    "282": 7589,
    "b3a3": 7590,
    "virtu": 7591,
    "\u2581virtu": 7592,
    "\u25810x51c3": 7593,
    "\u25810x80000": 7594,
    "\u2581virtuallock": 7595,
    "ae6": 7596,
    "3534": 7597,
    "\u25810x1824": 7598,
    "\u25810x28fd0": 7599,
    "\u25810x46b3b8": 7600,
    "d65": 7601,
    "client": 7602,
    "\u25810x40b0": 7603,
    "\u25810x4720": 7604,
    "\u25810x565848": 7605,
    "d1b": 7606,
    "a5958": 7607,
    "sions": 7608,
    "326": 7609,
    "916": 7610,
    "latsb": 7611,
    "\u25810x5ab": 7612,
    "\u2581stdio": 7613,
    "\u25810xff50": 7614,
    "\u25810xfeee00bd": 7615,
    "775": 7616,
    "a26": 7617,
    "b445": 7618,
    "\u25810x40b840": 7619,
    "\u25810x697070": 7620,
    "\u25810xfeee00be": 7621,
    "a2c": 7622,
    "c06": 7623,
    "d46": 7624,
    "ebc": 7625,
    "f83": 7626,
    "\u25810x452": 7627,
    "\u25810x4521": 7628,
    "su": 7629,
    "979": 7630,
    "enter": 7631,
    "ultip": 7632,
    "\u25810x4051": 7633,
    "formultip": 7634,
    "\u25810xfeee00bf": 7635,
    "2f2": 7636,
    "ivq": 7637,
    "\u25810x9ab0": 7638,
    "fication": 7639,
    "\u25810x195000": 7640,
    "formultipleob": 7641,
    "d15": 7642,
    "\u25810xda": 7643,
    "isation": 7644,
    "\u25810x2439": 7645,
    "localfiletime": 7646,
    "\u2581filetimetolocalfiletime": 7647,
    "a93": 7648,
    "b56": 7649,
    "f42": 7650,
    "a1c0": 7651,
    "\u25810xcb008": 7652,
    "\u25810x4540e0": 7653,
    "\u25810x1211984": 7654,
    "\u25810xfeee00d7": 7655,
    "168": 7656,
    "7c2": 7657,
    "e38": 7658,
    "\u25810x429c": 7659,
    "\u25810x4640": 7660,
    "\u25810x42a403": 7661,
    "\u25810x42a404": 7662,
    "\u25810x42a405": 7663,
    "\u25810x42a406": 7664,
    "\u25810x42a407": 7665,
    "\u25810x42a408": 7666,
    "\u25810x42a409": 7667,
    "\u25810x42a40a": 7668,
    "\u25810x42a40b": 7669,
    "\u25810x42a40c": 7670,
    "\u25810x42a40d": 7671,
    "\u25810x42a40e": 7672,
    "\u25810x42a40f": 7673,
    "\u25810xfeee00c0": 7674,
    "\u25810xfeee00c1": 7675,
    "234": 7676,
    "e5d5c": 7677,
    "\u25810x798": 7678,
    "\u25810x1818": 7679,
    "\u25810x5b5a5958": 7680,
    "\u25810x5f5e5d5c": 7681,
    "\u2581writeconsolea": 7682,
    "194": 7683,
    "922": 7684,
    "apt": 7685,
    "f93": 7686,
    "2524": 7687,
    "cons": 7688,
    "\u25810x8e60": 7689,
    "\u25810x40a40": 7690,
    "\u25810x1211f60": 7691,
    "\u25810x54500000": 7692,
    "405": 7693,
    "7f7": 7694,
    "9c9": 7695,
    "abd": 7696,
    "ee6": 7697,
    "f36": 7698,
    "\u25810xc3": 7699,
    "\u25810x4043": 7700,
    "\u25810x40c6": 7701,
    "\u25810x5000": 7702,
    "lientrect": 7703,
    "vieworgex": 7704,
    "\u25810xfeee00c2": 7705,
    "\u2581failedtoopen": 7706,
    "\u2581getclientrect": 7707,
    "\u2581failedtoopenapplication": 7708,
    "20c0": 7709,
    "reen": 7710,
    "\u25810x4108": 7711,
    "ofaddress": 7712,
    "\u25810x1211ea8": 7713,
    "\u25810xfeee00c3": 7714,
    "\u2581isbadwrite": 7715,
    "\u2581globalrealloc": 7716,
    "\u2581failedtoopenapplicationlog": 7717,
    "389": 7718,
    "e92": 7719,
    "ec5": 7720,
    "3a08": 7721,
    "\u25810x447": 7722,
    "sessionid": 7723,
    "dc5": 7724,
    "fa1": 7725,
    "\u2581if": 7726,
    "apture": 7727,
    "\u25810x4cb00": 7728,
    "\u25810xfeee00c4": 7729,
    "\u2581localfilet": 7730,
    "\u2581localfiletimetofiletime": 7731,
    "542": 7732,
    "550": 7733,
    "701": 7734,
    "752": 7735,
    "aeb": 7736,
    "b24": 7737,
    "e20": 7738,
    "\u25810x4153a0": 7739,
    "\u2581isbadwriteptr": 7740,
    "\u2581regsetvalueexa": 7741,
    "742": 7742,
    "3ef0": 7743,
    "\u25810x457c": 7744,
    "\u25810x7eac": 7745,
    "\u25810x419638": 7746,
    "\u25810x1211de8": 7747,
    "\u2581getthreadpriority": 7748,
    "2c1": 7749,
    "f7b": 7750,
    "7eb2": 7751,
    "ftime": 7752,
    "\u25810x1828": 7753,
    "\u25810x9850": 7754,
    "\u25810x1211f08": 7755,
    "\u2581globalfind": 7756,
    "\u2581fileexistsw": 7757,
    "\u2581dispatchmessagew": 7758,
    "\u2581registerservicectrlhandler": 7759,
    "445": 7760,
    "\u25810xd6": 7761,
    "\u2581class": 7762,
    "\u25810x40c8": 7763,
    "\u25810x120fe": 7764,
    "\u25810x5265c50": 7765,
    "\u2581lookupprivilege": 7766,
    "has": 7767,
    "visualfox": 7768,
    "\u25810x42e388": 7769,
    "\u25810x431810": 7770,
    "\u25810x44ea20": 7771,
    "\u25810x2d4ddc0": 7772,
    "\u25810xfeee00c6": 7773,
    "7c0": 7774,
    "7f6": 7775,
    "978": 7776,
    "imer": 7777,
    "\u25810x288": 7778,
    "\u25810x8a44": 7779,
    "\u25810x42d4c0": 7780,
    "\u25810x3820382": 7781,
    "\u25810xfeee00c7": 7782,
    "e64": 7783,
    "fb6": 7784,
    "word": 7785,
    "\u2581vfp": 7786,
    "\u25810xa050": 7787,
    "\u25810xa710": 7788,
    "\u25810xfeee00c5": 7789,
    "visualfoxpro": 7790,
    "146": 7791,
    "ba3": 7792,
    "ff40": 7793,
    "correct": 7794,
    "\u25810x4d80": 7795,
    "\u2581msvcr71": 7796,
    "\u25810x181bc0": 7797,
    "\u25810x42d4a8": 7798,
    "\u25810x698b8c": 7799,
    "\u25810x3810381": 7800,
    "\u25810x532": 7801,
    "\u25810x57c": 7802,
    "\u25810xba8": 7803,
    "\u25810x4105": 7804,
    "usttoken": 7805,
    "\u25810x4b4a4": 7806,
    "\u25810x4c50c0": 7807,
    "\u25810x1210f8c": 7808,
    "\u2581getcursorpos": 7809,
    "97c": 7810,
    "b05": 7811,
    "f13": 7812,
    "\u2581xz": 7813,
    "thec": 7814,
    "\u25810x41b1": 7815,
    "\u25810x519dd": 7816,
    "\u25810x42d538": 7817,
    "\u25810x42d550": 7818,
    "privileges": 7819,
    "\u25810xfeee00c8": 7820,
    "usttokenprivileges": 7821,
    "343": 7822,
    "79a": 7823,
    "a03": 7824,
    "ea4": 7825,
    "7a00": 7826,
    "xfrm": 7827,
    "a1918": 7828,
    "\u25810x4a5": 7829,
    "\u2581unget": 7830,
    "f4e4d4c": 7831,
    "\u25810x184c": 7832,
    "\u25810x41d8": 7833,
    "opwindow": 7834,
    "\u25810x43424": 7835,
    "\u25810x41de50": 7836,
    "\u25810x562838": 7837,
    "\u25810x563888": 7838,
    "\u25810x563a08": 7839,
    "\u25810x569b30": 7840,
    "\u25810x4b4a4948": 7841,
    "\u25810x4f4e4d4c": 7842,
    "\u25810xfeee00ca": 7843,
    "va": 7844,
    "1c5": 7845,
    "365": 7846,
    "565554": 7847,
    "\u25810x1838": 7848,
    "\u25810x1844": 7849,
    "\u25810x1848": 7850,
    "\u25810x3332": 7851,
    "\u25810x57565554": 7852,
    "oo": 7853,
    "c89": 7854,
    "\u25810xee": 7855,
    "\u25810x1820": 7856,
    "\u25810x1840": 7857,
    "185": 7858,
    "250": 7859,
    "\u25810x8640": 7860,
    "\u25810x40000": 7861,
    "\u25810x2280228": 7862,
    "\u2581charlower": 7863,
    "\u25810xfeee00c9": 7864,
    "\u25810xfeee00cb": 7865,
    "732": 7866,
    "b73": 7867,
    "64544": 7868,
    "e1d1c": 7869,
    "\u25810x4ac": 7870,
    "\u25810x2726": 7871,
    "\u25810xfff1": 7872,
    "\u25810x42d478": 7873,
    "\u25810x42d490": 7874,
    "\u25810x3f3e3d3c": 7875,
    "\u25810x43424140": 7876,
    "\u25810x47464544": 7877,
    "793": 7878,
    "952": 7879,
    "a86": 7880,
    "a89": 7881,
    "etw": 7882,
    "\u258104": 7883,
    "\u25810x584": 7884,
    "\u25810x1830": 7885,
    "\u25810x3736": 7886,
    "\u25810x2f2e2": 7887,
    "\u25810xc0000": 7888,
    "\u25810x42d460": 7889,
    "installation": 7890,
    "002": 7891,
    "779": 7892,
    "b02": 7893,
    "f82": 7894,
    "gcc": 7895,
    "7161514": 7896,
    "\u25810x8a45": 7897,
    "\u25810x9090": 7898,
    "\u2581libgcc": 7899,
    "\u25810x4140a1": 7900,
    "\u25810x414c34": 7901,
    "\u25810x414c35": 7902,
    "\u25810x42d448": 7903,
    "\u25810x42d568": 7904,
    "\u25810x42d580": 7905,
    "\u25810x17161514": 7906,
    "\u25810x37363534": 7907,
    "nd": 7908,
    "b1c": 7909,
    "22120": 7910,
    "a2928": 7911,
    "b3a3938": 7912,
    "\u25810x1858": 7913,
    "\u25810x1b1a1918": 7914,
    "\u25810x1f1e1d1c": 7915,
    "\u25810x23222120": 7916,
    "\u25810x2f2e2d2c": 7917,
    "\u25810x33323130": 7918,
    "\u25810x3b3a3938": 7919,
    "a05": 7920,
    "b880": 7921,
    "\u25810x4f0": 7922,
    "\u25810x183c": 7923,
    "\u25810x1854": 7924,
    "\u25810x186c": 7925,
    "\u25810x4285c0": 7926,
    "\u25810x27262524": 7927,
    "\u25810x2b2a2928": 7928,
    "134": 7929,
    "\u2581cau": 7930,
    "25150": 7931,
    "gistry": 7932,
    "\u25810x108": 7933,
    "\u25810x182c": 7934,
    "\u25810x1834": 7935,
    "\u25810x7e8c": 7936,
    "\u2581caution": 7937,
    "\u25810x53525150": 7938,
    "2bc": 7939,
    "926": 7940,
    "\u25810xc5": 7941,
    "\u25810x1850": 7942,
    "\u25810x1864": 7943,
    "ik": 7944,
    "7cd": 7945,
    "7f3": 7946,
    "ee9": 7947,
    "f64": 7948,
    "mple": 7949,
    "\u25810x185c": 7950,
    "\u25810x1868": 7951,
    "73c": 7952,
    "bde": 7953,
    "enh": 7954,
    "f25": 7955,
    "bea8": 7956,
    "\u25810x56b": 7957,
    "\u25810x4070": 7958,
    "\u25810x448ad0": 7959,
    "\u25810x714d68": 7960,
    "a76": 7961,
    "dfe": 7962,
    "\u2581sig": 7963,
    "\u25810x4820": 7964,
    "\u25810x4c78": 7965,
    "\u25810x1211708": 7966,
    "862": 7967,
    "b95": 7968,
    "bf5": 7969,
    "f9d0": 7970,
    "keya": 7971,
    "upper": 7972,
    "\u25810x244": 7973,
    "\u25810x1878": 7974,
    "\u25810x40e500": 7975,
    "\u25810xfeee00cc": 7976,
    "e85": 7977,
    "fb5": 7978,
    "popup": 7979,
    "\u2581date": 7980,
    "\u25810x1fe": 7981,
    "\u25810x4e2": 7982,
    "\u25810xfeee00cd": 7983,
    "b06": 7984,
    "roniz": 7985,
    "\u25810x1d000": 7986,
    "\u25810x1211ca4": 7987,
    "94cb": 7988,
    "\u25810x44d": 7989,
    "\u25810x9520": 7990,
    "\u25810x4208e0": 7991,
    "forcadwork": 7992,
    "\u25810xfeee00ce": 7993,
    "a16": 7994,
    "3c54": 7995,
    "ative": 7996,
    "named": 7997,
    "\u25810x1870": 7998,
    "\u25810x1874": 7999,
    "\u2581myarg1": 8000,
    "\u25810x40a3d1": 8001,
    "\u25810x40a3d2": 8002,
    "\u25810x40a3d3": 8003,
    "\u25810x420f34": 8004,
    "\u25810x1211dd8": 8005,
    "\u25810xfeee00cf": 8006,
    "\u2581synchroniz": 8007,
    "746": 8008,
    "a440": 8009,
    "\u2581cpp": 8010,
    "uldnot": 8011,
    "textout": 8012,
    "\u25810x8850": 8013,
    "\u25810x414635": 8014,
    "\u25810x414a99": 8015,
    "\u25810x414a9a": 8016,
    "\u25810x420f16": 8017,
    "\u25810x420f17": 8018,
    "\u25810x420f20": 8019,
    "\u25810x420f21": 8020,
    "\u25810x420f2a": 8021,
    "\u25810x420f2b": 8022,
    "\u25810x420f35": 8023,
    "\u25810x420f3e": 8024,
    "\u25810x420f3f": 8025,
    "\u25810x42cfb0": 8026,
    "\u25810x42cfc8": 8027,
    "\u25810x42cfe0": 8028,
    "\u25810x42cff8": 8029,
    "\u2581charpreva": 8030,
    "ae4": 8031,
    "e59": 8032,
    "\u25810x187c": 8033,
    "debughook": 8034,
    "\u25810x417dc0": 8035,
    "\u25810x417dc1": 8036,
    "\u25810x41867f": 8037,
    "\u25810x418680": 8038,
    "\u25810x418690": 8039,
    "\u25810x418691": 8040,
    "\u25810x41870e": 8041,
    "\u25810x41870f": 8042,
    "\u25810x418726": 8043,
    "\u25810x418727": 8044,
    "\u25810x418766": 8045,
    "\u25810x418767": 8046,
    "\u25810x418777": 8047,
    "\u25810x418778": 8048,
    "\u25810x4187e9": 8049,
    "\u25810x4187ea": 8050,
    "\u25810x420e80": 8051,
    "\u25810x420e81": 8052,
    "\u25810x420e90": 8053,
    "\u25810x420e91": 8054,
    "\u25810x420ea0": 8055,
    "\u25810x420ea1": 8056,
    "\u25810x420f50": 8057,
    "\u25810x420f51": 8058,
    "\u25810x4239a0": 8059,
    "\u25810x42c070": 8060,
    "\u25810x47ee08": 8061,
    "\u25810x1211fb4": 8062,
    "\u2581cppdebughook": 8063,
    "te": 8064,
    "1d5": 8065,
    "e7a": 8066,
    "94a8": 8067,
    "\u25810xdd": 8068,
    "\u25810x190": 8069,
    "\u25810x1312": 8070,
    "\u25810x2050000": 8071,
    "7d2": 8072,
    "d94": 8073,
    "ddc": 8074,
    "fcb": 8075,
    "0024": 8076,
    "5678": 8077,
    "7be8": 8078,
    "7c80": 8079,
    "ecode": 8080,
    "\u25810x4609": 8081,
    "\u25810x4094cb": 8082,
    "\u25810x4094cc": 8083,
    "\u2581regopenkeya": 8084,
    "f1c": 8085,
    "f9c": 8086,
    "\u25810x419c98": 8087,
    "20e": 8088,
    "ba7": 8089,
    "e31": 8090,
    "etween": 8091,
    "\u25810x43c": 8092,
    "\u25810x100098": 8093,
    "\u25810x4188a8": 8094,
    "\u25810x419cc8": 8095,
    "ba5": 8096,
    "ed6": 8097,
    "f69": 8098,
    "ddf8": 8099,
    "\u25810x1e4": 8100,
    "\u25810x4100": 8101,
    "\u25810x3f22a0": 8102,
    "\u25810x4239c0": 8103,
    "\u25810x4239c1": 8104,
    "\u25810x593748": 8105,
    "\u25810xfeee00d6": 8106,
    "266": 8107,
    "681": 8108,
    "7e4": 8109,
    "d12": 8110,
    "3030": 8111,
    "b8a8": 8112,
    "d6d8": 8113,
    "\u25810x48b0": 8114,
    "\u2581lcidto": 8115,
    "\u25810xfeee00d5": 8116,
    "\u2581lcidtolocalename": 8117,
    "\u25810x80b": 8118,
    "\u25810xebad": 8119,
    "\u2581shgetfileinfoa": 8120,
    "de5": 8121,
    "f75": 8122,
    "f96": 8123,
    "\u25810x483d": 8124,
    "\u25810x4f00": 8125,
    "\u2581writeprivateprofile": 8126,
    "\u2581sldrl6660drl6660drl6660drl6660drl6660drl6660drl6660drl6660": 8127,
    "bdb": 8128,
    "14c8": 8129,
    "\u2581signal": 8130,
    "\u25810x1211ba4": 8131,
    "bc1": 8132,
    "\u25810xc7": 8133,
    "\u2581vfp6": 8134,
    "connect": 8135,
    "\u25810x8e40": 8136,
    "\u25810x40015f": 8137,
    "\u25810x430520": 8138,
    "\u25810x430538": 8139,
    "\u25810x430550": 8140,
    "\u25810x430568": 8141,
    "\u25810x430580": 8142,
    "\u25810x430610": 8143,
    "\u25810x430628": 8144,
    "\u25810x430640": 8145,
    "\u25810x430658": 8146,
    "\u25810x1211b58": 8147,
    "\u2581setfiletime": 8148,
    "40d": 8149,
    "a79": 8150,
    "1960": 8151,
    "bd74": 8152,
    "f084": 8153,
    "frame": 8154,
    "\u25810x5718": 8155,
    "\u2581setscroll": 8156,
    "315": 8157,
    "9e5": 8158,
    "e98": 8159,
    "fd2": 8160,
    "\u25810x40a3d4": 8161,
    "\u25810x1211ebc": 8162,
    "3c5": 8163,
    "lang": 8164,
    "anden": 8165,
    "\u25810xe5": 8166,
    "\u2581winht": 8167,
    "\u25810x42d0": 8168,
    "\u25810x43b4": 8169,
    "\u25810x47ed": 8170,
    "\u25810x120f6": 8171,
    "\u2581strcpyw": 8172,
    "\u25810x42ee98": 8173,
    "\u25810x5607a8": 8174,
    "\u25810x1211eb4": 8175,
    "\u2581readconsole": 8176,
    "vb": 8177,
    "546": 8178,
    "ongles": 8179,
    "\u25810x4b0": 8180,
    "\u25810xa290": 8181,
    "\u25810x412670": 8182,
    "\u25810x46b388": 8183,
    "2a9": 8184,
    "7e1": 8185,
    "aae": 8186,
    "ad6": 8187,
    "dbc0": 8188,
    "olcid": 8189,
    "enamet": 8190,
    "\u25810x416097": 8191,
    "\u25810x4184a4": 8192,
    "\u25810x4184a5": 8193,
    "\u25810x42ef50": 8194,
    "\u2581expanden": 8195,
    "\u25810x1211e94": 8196,
    "enametolcid": 8197,
    "\u2581localenametolcid": 8198,
    "\u2581waitformultipleob": 8199,
    "7fd": 8200,
    "f21": 8201,
    "\u25810x132": 8202,
    "\u25810x4300c0": 8203,
    "\u25810xebad74": 8204,
    "\u25810x1153ef0": 8205,
    "\u2581getsystemdefaultuilanguage": 8206,
    "eb6": 8207,
    "util": 8208,
    "langid": 8209,
    "\u25810x1d4": 8210,
    "\u25810x405c": 8211,
    "\u25810x486d18": 8212,
    "\u25810x1211d88": 8213,
    "\u25810x2d4d918": 8214,
    "\u25810x7ba00000": 8215,
    "165": 8216,
    "88c": 8217,
    "c018": 8218,
    "config": 8219,
    "\u25810x409e": 8220,
    "\u2581service": 8221,
    "\u25810x409ab4": 8222,
    "\u25810x409ab5": 8223,
    "\u25810x4208df": 8224,
    "\u25810x423910": 8225,
    "\u25810x423970": 8226,
    "\u25810x430090": 8227,
    "\u25810x7a22f8": 8228,
    "tokeninformation": 8229,
    "48d": 8230,
    "7f2": 8231,
    "e35": 8232,
    "utton": 8233,
    "\u25810x4300d8": 8234,
    "\u25810x4af460": 8235,
    "632": 8236,
    "c49": 8237,
    "\u25811c": 8238,
    "\u25810mb": 8239,
    "cache": 8240,
    "\u25810x226": 8241,
    "\u25810xa950": 8242,
    "\u25810x41a61a": 8243,
    "\u25810x41d210": 8244,
    "\u25810x423900": 8245,
    "\u25810x12117b0": 8246,
    "dda": 8247,
    "fd6": 8248,
    "ff5": 8249,
    "\u25810x4f60": 8250,
    "\u25810x8cd8": 8251,
    "\u25810x9820": 8252,
    "\u25810xfeee00da": 8253,
    "502": 8254,
    "954": 8255,
    "d86": 8256,
    "\u25810x6ed": 8257,
    "\u25810x1900": 8258,
    "\u25810x4de9": 8259,
    "\u25810x419c74": 8260,
    "\u25810x419c75": 8261,
[...]
