{
    "<pad>": 0,
    "<unk>": 1,
    "<mask>": 2,
    "\u25810": 3,
    "\u25810x": 4,
    "00": 5,
    "er": 6,
    "ne": 7,
    "32": 8,
    "l32": 9,
    "\u2581k": 10,
    "erne": 11,
    "ernel32": 12,
    "\u2581kernel32": 13,
    "\u25810x1": 14,
    "\u25810x4": 15,
    "et": 16,
    "\u25810x0": 17,
    "ee": 18,
    "get": 19,
    "al": 20,
    "ti": 21,
    "\u25810xf": 22,
    "\u2581get": 23,
    "in": 24,
    "0000": 25,
    "ec": 26,
    "ad": 27,
    "\u25810x12": 28,
    "oc": 29,
    "\u25810x7": 30,
    "st": 31,
    "re": 32,
    "eee": 33,
    "\u25810xfeee": 34,
    "000": 35,
    "ar": 36,
    "\u2581m": 37,
    "\u2581c": 38,
    "\u25810x121": 39,
    "le": 40,
    "\u25810x40": 41,
    "us": 42,
    "user": 43,
    "\u2581user": 44,
    "iti": 45,
    "\u2581user32": 46,
    "nex": 47,
    "f0": 48,
    "ss": 49,
    "har": 50,
    "pr": 51,
    "val": 52,
    "ls": 53,
    "ue": 54,
    "value": 55,
    "proc": 56,
    "getvalue": 57,
    "lsgetvalue": 58,
    "\u2581s": 59,
    "em": 60,
    "no": 61,
    "next": 62,
    "\u2581char": 63,
    "\u2581charnext": 64,
    "\u2581getproc": 65,
    "dre": 66,
    "or": 67,
    "\u25810xfeee000": 68,
    "\u25810x77": 69,
    "tio": 70,
    "addre": 71,
    "address": 72,
    "\u2581getprocaddress": 73,
    "cr": 74,
    "40": 75,
    "\u2581no": 76,
    "\u2581none": 77,
    "ff": 78,
    "000000": 79,
    "cal": 80,
    "sec": 81,
    "sectio": 82,
    "itical": 83,
    "iticalsectio": 84,
    "loc": 85,
    "\u25810x1211": 86,
    "ter": 87,
    "en": 88,
    "\u25810x77000000": 89,
    "de": 90,
    "\u2581ms": 91,
    "\u2581t": 92,
    "vcr": 93,
    "\u2581msvcr": 94,
    "la": 95,
    "\u2581msvcrt": 96,
    "\u2581f": 97,
    "ap": 98,
    "\u25810x41": 99,
    "a5": 100,
    "\u2581l": 101,
    "err": 102,
    "cm": 103,
    "error": 104,
    "\u25810x46": 105,
    "ecr": 106,
    "ecriticalsectio": 107,
    "last": 108,
    "lasterror": 109,
    "\u25810xfeee0001": 110,
    "\u25810x1210": 111,
    "a0": 112,
    "\u2581tlsgetvalue": 113,
    "cmp": 114,
    "\u25810x40a5": 115,
    "\u2581in": 116,
    "te": 117,
    "an": 118,
    "co": 119,
    "str": 120,
    "\u25810xfeee00": 121,
    "\u2581mem": 122,
    "\u2581memcmp": 123,
    "\u2581w": 124,
    "\u25810x41f0": 125,
    "\u25810x41f040": 126,
    "\u2581charnextw": 127,
    "bc": 128,
    "he": 129,
    "and": 130,
    "\u2581set": 131,
    "93": 132,
    "\u25810x43": 133,
    "\u25810x2": 134,
    "by": 135,
    "ow": 136,
    "\u2581charnexta": 137,
    "alloc": 138,
    "iz": 139,
    "aliz": 140,
    "heap": 141,
    "itializ": 142,
    "\u25810x8": 143,
    "is": 144,
    "\u25810x45": 145,
    "\u2581en": 146,
    "\u25810x5": 147,
    "\u2581initializ": 148,
    "\u2581heap": 149,
    "\u2581initializecriticalsectio": 150,
    "\u2581flsgetvalue": 151,
    "\u2581d": 152,
    "po": 153,
    "90": 154,
    "78": 155,
    "poin": 156,
    "ing": 157,
    "\u2581lo": 158,
    "\u2581load": 159,
    "\u25810x100": 160,
    "10": 161,
    "pointer": 162,
    "string": 163,
    "\u25810x4093": 164,
    "d0": 165,
    "lea": 166,
    "ind": 167,
    "00000": 168,
    "fi": 169,
    "depointer": 170,
    "\u25810xfa0": 171,
    "nt": 172,
    "\u2581is": 173,
    "byte": 174,
    "e4": 175,
    "\u2581getlasterror": 176,
    "f8": 177,
    "66": 178,
    "\u25810x10": 179,
    "50": 180,
    "id": 181,
    "\u2581setlasterror": 182,
    "\u25810x45f0": 183,
    "inf": 184,
    "\u25810xc": 185,
    "60": 186,
    "stem": 187,
    "indow": 188,
    "\u25810x40a5d": 189,
    "ystem": 190,
    "hand": 191,
    "local": 192,
    "sle": 193,
    "\u2581heapalloc": 194,
    "ll": 195,
    "dbc": 196,
    "\u25810x3": 197,
    "mo": 198,
    "slead": 199,
    "\u2581isdbc": 200,
    "\u2581isdbcslead": 201,
    "\u2581isdbcsleadbyte": 202,
    "c0": 203,
    "read": 204,
    "ffff": 205,
    "indows": 206,
    "\u25810x400000": 207,
    "\u25810x42": 208,
    "\u2581windows": 209,
    "\u25810x1210e": 210,
    "info": 211,
    "ce": 212,
    "\u2581initializecriticalsectionex": 213,
    "18": 214,
    "\u2581dll": 215,
    "70": 216,
    "ul": 217,
    "du": 218,
    "\u2581enco": 219,
    "\u2581encodepointer": 220,
    "li": 221,
    "20": 222,
    "ac": 223,
    "ir": 224,
    "30": 225,
    "dule": 226,
    "module": 227,
    "\u2581getmodule": 228,
    "ecriticalsection": 229,
    "ed": 230,
    "locale": 231,
    "b0": 232,
    "f4": 233,
    "leav": 234,
    "\u2581leav": 235,
    "\u2581leavecriticalsection": 236,
    "unt": 237,
    "iticalsection": 238,
    "criticalsection": 239,
    "tercriticalsection": 240,
    "\u2581entercriticalsection": 241,
    "\u2581loadstring": 242,
    "\u25810x4e4": 243,
    "\u2581system": 244,
    "80": 245,
    "\u2581system32": 246,
    "ulti": 247,
    "\u2581initializecriticalsection": 248,
    "ex": 249,
    "idec": 250,
    "idechar": 251,
    "cc": 252,
    "count": 253,
    "infoa": 254,
    "\u25810x4378": 255,
    "14": 256,
    "eco": 257,
    "\u2581loadstringa": 258,
    "\u25810x1210f": 259,
    "file": 260,
    "\u25810x46f0": 261,
    "44": 262,
    "ur": 263,
    "\u25810xff": 264,
    "b8": 265,
    "\u25810xc000": 266,
    "e0": 267,
    "\u2581getmodulehand": 268,
    "\u2581getlocale": 269,
    "28": 270,
    "ent": 271,
    "a8": 272,
    "ree": 273,
    "a4": 274,
    "me": 275,
    "94": 276,
    "38": 277,
    "2c": 278,
    "98": 279,
    "d4": 280,
    "br": 281,
    "sp": 282,
    "ary": 283,
    "d1": 284,
    "\u25810x1000": 285,
    "\u25810x6": 286,
    "\u2581getlocaleinfoa": 287,
    "58": 288,
    "74": 289,
    "12": 290,
    "brary": 291,
    "34": 292,
    "om": 293,
    "e8": 294,
    "ect": 295,
    "yp": 296,
    "d8": 297,
    "tu": 298,
    "\u25810x400": 299,
    "spin": 300,
    "spincount": 301,
    "andspincount": 302,
    "\u2581initializecriticalsectionandspincount": 303,
    "\u2581deco": 304,
    "\u2581decodepointer": 305,
    "\u25810x47": 306,
    "on": 307,
    "\u2581getc": 308,
    "free": 309,
    "th": 310,
    "68": 311,
    "5c": 312,
    "64": 313,
    "ess": 314,
    "\u25810x1211f": 315,
    "\u25810xfffff": 316,
    "\u25810xfffffff": 317,
    "library": 318,
    "\u2581v": 319,
    "ment": 320,
    "b4": 321,
    "\u25810x44": 322,
    "7c": 323,
    "ate": 324,
    "\u25810x4690": 325,
    "1c": 326,
    "na": 327,
    "tet": 328,
    "aa": 329,
    "lo": 330,
    "\u25810xf00": 331,
    "3c": 332,
    "15": 333,
    "\u25810x46d0": 334,
    "rent": 335,
    "urrent": 336,
    "dc": 337,
    "let": 338,
    "9c": 339,
    "fc": 340,
    "6c": 341,
    "\u25810x78": 342,
    "\u2581loadlibrary": 343,
    "\u25810x7d": 344,
    "\u2581getst": 345,
    "bytet": 346,
    "\u2581multi": 347,
    "bytetow": 348,
    "\u2581multibytetow": 349,
    "\u2581multibytetowidechar": 350,
    "\u25810x1211d": 351,
    "ge": 352,
    "dr": 353,
    "24": 354,
    "irect": 355,
    "process": 356,
    "\u2581getmodulehandlea": 357,
    "\u2581a": 358,
    "fa": 359,
    "irector": 360,
    "handle": 361,
    "ype": 362,
    "lock": 363,
    "l66": 364,
    "a3": 365,
    "ch": 366,
    "director": 367,
    "l6660": 368,
    "26": 369,
    "\u25810x10c": 370,
    "rst": 371,
    "\u2581gets": 372,
    "56": 373,
    "54": 374,
    "\u2581lstr": 375,
    "ey": 376,
    "tom": 377,
    "it": 378,
    "\u2581o": 379,
    "drl6660": 380,
    "16": 381,
    "reate": 382,
    "e7": 383,
    "age": 384,
    "\u2581getsystem": 385,
    "\u2581getcurrent": 386,
    "ab": 387,
    "filet": 388,
    "84": 389,
    "ri": 390,
    "\u25810x9": 391,
    "tomulti": 392,
    "\u2581widechar": 393,
    "tomultibyte": 394,
    "\u2581widechartomultibyte": 395,
    "\u25810x12117": 396,
    "\u2581re": 397,
    "\u2581inter": 398,
    "\u2581g": 399,
    "\u25810x4610": 400,
    "\u2581heapfree": 401,
    "hi": 402,
    "e1": 403,
    "drl6660drl6660": 404,
    "emp": 405,
    "f5": 406,
    "\u2581interlock": 407,
    "thread": 408,
    "\u25810x18": 409,
    "d10000": 410,
    "\u25810x77d10000": 411,
    "\u25810x40933": 412,
    "directory": 413,
    "un": 414,
    "tion": 415,
    "cmap": 416,
    "\u2581lcmap": 417,
    "\u2581lcmapstring": 418,
    "\u25810x40934": 419,
    "so": 420,
    "\u2581ap": 421,
    "\u25810x435": 422,
    "f6": 423,
    "\u2581interlocked": 424,
    "key": 425,
    "\u25810x4350": 426,
    "\u25810x104": 427,
    "\u25810x14": 428,
    "db": 429,
    "lew": 430,
    "\u25810x43780": 431,
    "\u2581p": 432,
    "a6": 433,
    "ers": 434,
    "f1": 435,
    "\u25810xffffffff": 436,
    "rement": 437,
    "ut": 438,
    "\u25810xfeee0": 439,
    "a2": 440,
    "1000": 441,
    "11": 442,
    "\u25817": 443,
    "\u2581create": 444,
    "92": 445,
    "88": 446,
    "pen": 447,
    "f7": 448,
    "def": 449,
    "96": 450,
    "eb": 451,
    "\u25810x1211e": 452,
    "\u2581temp": 453,
    "37": 454,
    "a7": 455,
    "se": 456,
    "vw": 457,
    "\u25810xcd": 458,
    "\u2581local": 459,
    "\u2581getmodulehandlew": 460,
    "f2": 461,
    "\u2581find": 462,
    "ea": 463,
    "arch": 464,
    "b2": 465,
    "17": 466,
    "name": 467,
    "\u25817z": 468,
    "irtu": 469,
    "\u2581se": 470,
    "irtual": 471,
    "39": 472,
    "lm": 473,
    "pq": 474,
    "xy": 475,
    "klm": 476,
    "xyz": 477,
    "ghi": 478,
    "rstu": 479,
    "\u2581abc": 480,
    "pqrstu": 481,
    "vwxyz": 482,
    "defghi": 483,
    "nopqrstu": 484,
    "klmnopqrstu": 485,
    "\u2581abcdefghi": 486,
    "klmnopqrstuvwxyz": 487,
    "\u2581reg": 488,
    "19": 489,
    "\u2581virtual": 490,
    "of": 491,
    "1a": 492,
    "55": 493,
    "exw": 494,
    "1e": 495,
    "\u25810x1f4": 496,
    "\u2581lread": 497,
    "35": 498,
    "\u25810x21000": 499,
    "da": 500,
    "\u2581read": 501,
    "\u25810x1f400": 502,
    "\u25810x20": 503,
    "ersi": 504,
    "\u25810x12119": 505,
    "\u25810x7e": 506,
    "mm": 507,
    "\u2581getco": 508,
    "\u2581getfilet": 509,
    "\u2581lcmapstringw": 510,
    "a40": 511,
    "\u2581getfiletype": 512,
    "dhandle": 513,
    "b7": 514,
    "\u2581getti": 515,
    "\u25810x70": 516,
    "\u25810xfeee0004": 517,
    "\u2581search": 518,
    "orm": 519,
    "\u2581getstdhandle": 520,
    "900": 521,
    "8c": 522,
    "\u25810x54": 523,
    "f3": 524,
    "\u2581lstrle": 525,
    "b5": 526,
    "d6": 527,
    "ol": 528,
    "95": 529,
    "\u25810x90": 530,
    "\u25810x5f8": 531,
    "\u25810x5f800000": 532,
    "vir": 533,
    "viron": 534,
    "b6": 535,
    "\u25810x40a5ce": 536,
    "\u25810x40a5d0": 537,
    "\u25810x40a5d2": 538,
    "\u25810x40a5d4": 539,
    "\u25810x40a5d6": 540,
    "\u25810x40a5d8": 541,
    "\u25810x40a5da": 542,
    "e5": 543,
    "13": 544,
    "\u2581x": 545,
    "\u2581ex": 546,
    "versi": 547,
    "df": 548,
    "vironment": 549,
    "ck": 550,
    "i32": 551,
    "py": 552,
    "filename": 553,
    "ckcount": 554,
    "\u2581gettickcount": 555,
    "bu": 556,
    "\u25810x78000000": 557,
    "\u2581var": 558,
    "a9": 559,
    "d5": 560,
    "d7": 561,
    "e6": 562,
    "\u25810x7f8": 563,
    "\u25810x88": 564,
    "directoryw": 565,
    "b3": 566,
    "lose": 567,
    "inc": 568,
    "\u2581loadlibraryexw": 569,
    "\u25810x102": 570,
    "\u2581apis": 571,
    "tup": 572,
    "artup": 573,
    "d3": 574,
    "e2": 575,
    "91": 576,
    "sw": 577,
    "97": 578,
    "ba": 579,
    "\u25810xfeee0000": 580,
    "increment": 581,
    "\u2581interlockedincrement": 582,
    "\u2581getstartup": 583,
    "line": 584,
    "\u25810x7de": 585,
    "int": 586,
    "\u2581getmodulefilename": 587,
    "cpy": 588,
    "andline": 589,
    "\u25810xfeee0002": 590,
    "c4": 591,
    "d2": 592,
    "\u2581getcomm": 593,
    "\u2581getcommandline": 594,
    "pt": 595,
    "\u25810x7f800": 596,
    "\u2581ws": 597,
    "9a": 598,
    "\u25810x8000": 599,
    "\u25810x40a3": 600,
    "76": 601,
    "bad": 602,
    "\u2581sh": 603,
    "lob": 604,
    "\u2581glob": 605,
    "print": 606,
    "lsalloc": 607,
    "\u2581wc": 608,
    "\u25810xfeee002": 609,
    "etvalue": 610,
    "\u2581getversi": 611,
    "\u2581getcurrentthread": 612,
    "lss": 613,
    "lssetvalue": 614,
    "72": 615,
    "36": 616,
    "rite": 617,
    "\u25810x12117f8": 618,
    "put": 619,
    "um": 620,
    "c8": 621,
    "\u25810x80": 622,
    "a1": 623,
    "qu": 624,
    "con": 625,
    "\u25810x42a40": 626,
    "at": 627,
    "\u2581wsprint": 628,
    "\u2581al": 629,
    "filew": 630,
    "\u25810xfeee004": 631,
    "e9": 632,
    "\u2581localalloc": 633,
    "filea": 634,
    "ptr": 635,
    "\u2581isbad": 636,
    "ith": 637,
    "\u2581getcurrentthreadid": 638,
    "f9": 639,
    "wa": 640,
    "\u25810xfeee0003": 641,
    "\u25810x460": 642,
    "vironmentstring": 643,
    "bb": 644,
    "\u25810x200": 645,
    "readptr": 646,
    "\u2581isbadreadptr": 647,
    "\u2581loadlibrarya": 648,
    "tered": 649,
    "\u2581with": 650,
    "\u2581altered": 651,
    "\u2581co": 652,
    "be": 653,
    "infow": 654,
    "ber": 655,
    "\u2581lstrlena": 656,
    "\u25810x800": 657,
    "pre": 658,
    "77": 659,
    "\u2581open": 660,
    "52": 661,
    "\u25810xfeee0005": 662,
    "fe": 663,
    "\u2581getcp": 664,
    "\u2581getcpinfo": 665,
    "\u2581getsystemdirectoryw": 666,
    "\u25810xf003": 667,
    "\u25810x43500": 668,
    "drl6660drl6660drl6660drl6660": 669,
    "789": 670,
    "82": 671,
    "e10000": 672,
    "\u25810x77e10000": 673,
    "quer": 674,
    "\u25810x7000": 675,
    "\u25810xf001": 676,
    "\u25810xf002": 677,
    "\u2581str": 678,
    "ng": 679,
    "vironmentstringsw": 680,
    "dec": 681,
    "sole": 682,
    "\u2581h": 683,
    "b9": 684,
    "valid": 685,
    "dd": 686,
    "b1": 687,
    "\u2581ad": 688,
    "5f": 689,
    "type": 690,
    "eex": 691,
    "\u25810x1211c": 692,
    "\u2581de": 693,
    "86": 694,
    "5e": 695,
    "9e": 696,
    "close": 697,
    "bd": 698,
    "iv": 699,
    "\u25810x526": 700,
    "\u25810x7ee": 701,
    "window": 702,
    "\u25810x79": 703,
    "\u25810xa": 704,
    "es": 705,
    "22": 706,
    "first": 707,
    "time": 708,
    "api32": 709,
    "75": 710,
    "\u2581getstartupinfoa": 711,
    "1234": 712,
    "\u2581getcurrentprocess": 713,
    "\u25810x50": 714,
    "fw": 715,
    "\u25810x48": 716,
    "56789": 717,
    "\u258101234": 718,
    "\u25810123456789": 719,
    "\u2581wsprintfw": 720,
    "\u2581hkey": 721,
    "\u25810xfff": 722,
    "erf": 723,
    "\u2581virtualalloc": 724,
    "1b": 725,
    "dex": 726,
    "\u2581global": 727,
    "mode": 728,
    "sour": 729,
    "bug": 730,
    "\u2581sof": 731,
    "ware": 732,
    "exa": 733,
    "62": 734,
    "tware": 735,
    "\u2581software": 736,
    "\u25810x7a": 737,
    "d9": 738,
    "\u25810x4c": 739,
    "directorya": 740,
    "ption": 741,
    "debug": 742,
    "ation": 743,
    "num": 744,
    "pres": 745,
    "ception": 746,
    "\u2581getmodulefilenamea": 747,
    "\u25810xfeee0006": 748,
    "\u2581findfirst": 749,
    "present": 750,
    "\u2581adv": 751,
    "ime": 752,
    "\u2581advapi32": 753,
    "\u25810x4a": 754,
    "1d": 755,
    "4c": 756,
    "source": 757,
    "\u2581flssetvalue": 758,
    "\u25810x7d90": 759,
    "\u2581getcommandlinea": 760,
    "\u25810x7b": 761,
    "\u25810x7c": 762,
    "27": 763,
    "\u25810x4750": 764,
    "as": 765,
    "152c": 766,
    "69": 767,
    "\u2581flsalloc": 768,
    "\u2581getstring": 769,
    "f00": 770,
    "\u2581findclose": 771,
    "e3": 772,
    "\u25810x120": 773,
    "59": 774,
    "5b": 775,
    "fd": 776,
    "\u2581getstringtype": 777,
    "\u25810xfeee0007": 778,
    "\u2581b": 779,
    "5d": 780,
    "33": 781,
    "c2": 782,
    "\u25810x40152c": 783,
    "filetime": 784,
    "bo": 785,
    "\u2581getstringtypew": 786,
    "\u2581page": 787,
    "\u2581com": 788,
    "number": 789,
    "\u25810x40a5cc": 790,
    "\u25810x40a5dc": 791,
    "dll": 792,
    "48": 793,
    "ile": 794,
    "pro": 795,
    "im": 796,
    "input": 797,
    "63": 798,
    "ic": 799,
    "53": 800,
    "ting": 801,
    "\u25810x40933d": 802,
    "\u25810x40933e": 803,
    "\u25810x40933f": 804,
    "\u25810x409340": 805,
    "\u25810x409341": 806,
    "\u25810x409342": 807,
    "\u25810x409343": 808,
    "write": 809,
    "1f": 810,
    "\u2581gd": 811,
    "console": 812,
    "2a": 813,
    "\u2581r": 814,
    "57": 815,
    "ve": 816,
    "\u2581free": 817,
    "\u25810x19": 818,
    "99": 819,
    "\u25810x4d": 820,
    "list": 821,
    "open": 822,
    "ari": 823,
    "bf": 824,
    "\u2581geten": 825,
    "vari": 826,
    "\u25810x73": 827,
    "b40": 828,
    "\u2581getac": 829,
    "2e": 830,
    "\u2581findfirstfilew": 831,
    "nd": 832,
    "\u25810x12116": 833,
    "\u2581getnumber": 834,
    "locales": 835,
    "\u2581getnumberof": 836,
    "\u2581getnumberofconsole": 837,
    "\u25810x43540": 838,
    "7e": 839,
    "hel": 840,
    "decrement": 841,
    "\u2581interlockeddecrement": 842,
    "\u2581strn": 843,
    "23": 844,
    "\u25810x4094": 845,
    "up": 846,
    "nw": 847,
    "\u2581getacp": 848,
    "fil": 849,
    "\u25810x49": 850,
    "inputs": 851,
    "\u2581getnumberofconsoleinputs": 852,
    "\u25810x4670": 853,
    "\u2581strncmp": 854,
    "\u25810xfeee01": 855,
    "\u25810x4e": 856,
    "\u2581current": 857,
    "faul": 858,
    "3a": 859,
    "\u2581quer": 860,
    "to": 861,
    "defaul": 862,
    "\u25810x7e70": 863,
    "9d": 864,
    "\u2581locales": 865,
    "fb": 866,
    "\u25810x1211dd4": 867,
    "\u2581loadstringw": 868,
    "\u25811": 869,
    "\u2581readwrite": 870,
    "\u2581getsystemtime": 871,
    "\u2581getversion": 872,
    "106": 873,
    "\u25810x1c": 874,
    "\u25810x1210ec": 875,
    "\u25810x52": 876,
    "db10": 877,
    "640": 878,
    "6a": 879,
    "orman": 880,
    "erforman": 881,
    "\u2581queryp": 882,
    "\u2581queryperforman": 883,
    "fr": 884,
    "\u25810x1211dc0": 885,
    "\u2581fr": 886,
    "\u2581win": 887,
    "61": 888,
    "\u25810x24": 889,
    "\u2581getthread": 890,
    "\u2581wcs": 891,
    "default": 892,
    "\u25810x7de0": 893,
    "\u25810x4b": 894,
    "onex": 895,
    "\u25810x5f5": 896,
    "\u25810x1210d": 897,
    "51": 898,
    "\u2581malloc": 899,
    "slen": 900,
    "\u2581wcslen": 901,
    "\u25810x72": 902,
    "dexception": 903,
    "filter": 904,
    "unhandle": 905,
    "dexceptionfilter": 906,
    "unhandledexceptionfilter": 907,
    "ae": 908,
    "cess": 909,
    "\u2581wcscpy": 910,
    "3e": 911,
    "31": 912,
    "\u25810x12115": 913,
    "9f": 914,
    "65": 915,
    "\u25810x60": 916,
    "67": 917,
    "\u25810x1210900": 918,
    "from": 919,
    "af": 920,
    "\u25810x5f500000": 921,
    "\u25810x71": 922,
    "\u25810x1211e0": 923,
    "\u25810xb": 924,
    "\u2581regopen": 925,
    "\u2581getcurrentprocessid": 926,
    "\u2581regopenkey": 927,
    "\u2581init": 928,
    "db10106": 929,
    "\u25810x1db10106": 930,
    "42": 931,
    "780": 932,
    "unter": 933,
    "c7": 934,
    "a00": 935,
    "\u2581getversionex": 936,
    "\u25810x75": 937,
    "\u2581lstrcpy": 938,
    "3f": 939,
    "87": 940,
    "\u2581gdi32": 941,
    "ceco": 942,
    "cecounter": 943,
    "\u2581queryperformancecounter": 944,
    "create": 945,
    "\u25810x12114": 946,
    "ef": 947,
    "\u25810x484": 948,
    "\u2581setfile": 949,
    "180": 950,
    "\u25810x30": 951,
    "hread": 952,
    "fea": 953,
    "\u25810x7ec": 954,
    "\u25810x220": 955,
    "\u2581core": 956,
    "\u2581delet": 957,
    "handl": 958,
    "\u2581cre": 959,
    "api": 960,
    "\u2581lcmapstringex": 961,
    "908": 962,
    "term": 963,
    "asfiletime": 964,
    "\u2581getsystemtimeasfiletime": 965,
    "\u2581li": 966,
    "processor": 967,
    "inform": 968,
    "access": 969,
    "stringa": 970,
    "\u25810x1210f8": 971,
    "3b": 972,
    "\u25810x74": 973,
    "eeen": 974,
    "\u2581freeen": 975,
    "\u2581regi": 976,
    "ture": 977,
    "\u25810x5265c": 978,
    "71": 979,
    "5a": 980,
    "\u2581getprocess": 981,
    "79": 982,
    "tt": 983,
    "\u2581bor": 984,
    "\u25810x48400": 985,
    "\u2581invalid": 986,
    "\u2581setunhandledexceptionfilter": 987,
    "set": 988,
    "\u25810xd": 989,
    "\u25810xfeee008": 990,
    "\u25810xfffffff6": 991,
    "7b": 992,
    "\u2581borla": 993,
    "29": 994,
    "\u2581borland": 995,
    "\u25810x50000": 996,
    "\u25810xffc": 997,
    "\u25810x42b40": 998,
    "\u25810x43640": 999,
    "\u2581setfilepointer": 1000,
    "\u2581l1": 1001,
    "\u25810x1210ee": 1002,
    "\u25810x105": 1003,
    "image": 1004,
    "41": 1005,
    "itprocess": 1006,
    "\u2581getlocaleinfow": 1007,
    "\u2581out": 1008,
    "feature": 1009,
    "\u2581isprocessor": 1010,
    "featurepresent": 1011,
    "\u2581isprocessorfeaturepresent": 1012,
    "804": 1013,
    "\u2581getenvironmentstringsw": 1014,
    "ies": 1015,
    "\u25810xfffffff5": 1016,
    "ra": 1017,
    "\u25810xe": 1018,
    "\u25810x2a": 1019,
    "\u25810xfffffff4": 1020,
    "\u25810x1210e4": 1021,
    "\u25810x1210e0": 1022,
    "\u2581freeenvironmentstringsw": 1023,
    "\u25810x1210f4": 1024,
    "defaultdll": 1025,
    "directories": 1026,
    "\u2581setdefaultdll": 1027,
    "\u2581setdefaultdlldirectories": 1028,
    "variab": 1029,
    "\u25810x1210f0": 1030,
    "3d": 1031,
    "\u2581shel": 1032,
    "\u2581getmodulefilenamew": 1033,
    "arg": 1034,
    "pool": 1035,
    "\u25810x1211f8": 1036,
    "\u2581library": 1037,
    "\u2581getcommandlinew": 1038,
    "ys": 1039,
    "\u2581readfile": 1040,
    "\u2581lstrlenw": 1041,
    "lass": 1042,
    "\u25810x410": 1043,
    "enu": 1044,
    "\u25810x17": 1045,
    "ob": 1046,
    "\u25810x7ee00": 1047,
    "\u25810x434": 1048,
    "pa": 1049,
    "dep": 1050,
    "information": 1051,
    "\u2581write": 1052,
    "\u2581freelibrary": 1053,
    "7f": 1054,
    "\u25810x76": 1055,
    "ila": 1056,
    "ger": 1057,
    "resource": 1058,
    "\u2581close": 1059,
    "7a": 1060,
    "mess": 1061,
    "vi": 1062,
    "45": 1063,
    "tex": 1064,
    "\u25810x7d91": 1065,
    "\u2581getthreadlocale": 1066,
    "\u2581lstrcmp": 1067,
    "\u2581getstartupinfow": 1068,
    "\u25810x7e7": 1069,
    "\u2581ole": 1070,
    "urs": 1071,
    "message": 1072,
    "\u2581globalalloc": 1073,
    "der": 1074,
    "73": 1075,
    "83": 1076,
    "7d": 1077,
    "menu": 1078,
    "\u25810x5266": 1079,
    "\u25810x47b0": 1080,
    "8a": 1081,
    "\u2581fi": 1082,
    "ecount": 1083,
    "\u2581gett": 1084,
    "\u2581gettemp": 1085,
    "6b": 1086,
    "\u2581tlsalloc": 1087,
    "8b": 1088,
    "sa": 1089,
    "ntr": 1090,
    "\u25810x12116d8": 1091,
    "ad0": 1092,
    "\u2581heapcreate": 1093,
    "\u25810x42900": 1094,
    "\u2581getprocessheap": 1095,
    "\u25810x53": 1096,
    "f74": 1097,
    "\u2581output": 1098,
    "\u2581outputdebug": 1099,
    "\u2581virtualfree": 1100,
    "\u2581initterm": 1101,
    "day": 1102,
    "\u2581image": 1103,
    "older": 1104,
    "folder": 1105,
    "\u25810x9000": 1106,
    "\u2581access": 1107,
    "46": 1108,
    "\u2581closehandle": 1109,
    "ct": 1110,
    "handlecount": 1111,
    "ating": 1112,
    "\u25810x7830": 1113,
    "\u2581sethandlecount": 1114,
    "drl6660drl6660drl6660drl6660drl6660drl6660drl6660drl6660": 1115,
    "\u25810x1a": 1116,
    "\u25810x1211918": 1117,
    "bute": 1118,
    "ribute": 1119,
    "\u2581key": 1120,
    "\u2581aa": 1121,
    "ttribute": 1122,
    "fileattribute": 1123,
    "\u2581shell32": 1124,
    "89": 1125,
    "2d": 1126,
    "\u25810x67": 1127,
    "\u2581regist": 1128,
    "c3": 1129,
    "\u25810x13": 1130,
    "\u25810x15": 1131,
    "bc0": 1132,
    "cf": 1133,
    "\u25810x2000": 1134,
    "6e": 1135,
    "\u2581outputdebugstringa": 1136,
    "yarg": 1137,
    "00c": 1138,
    "\u25810x8810": 1139,
    "\u2581imagelist": 1140,
    "ction": 1141,
    "\u2581isvalid": 1142,
    "\u25812": 1143,
    "\u2581tlssetvalue": 1144,
    "\u2581getversionexa": 1145,
    "rive": 1146,
    "\u25810x16": 1147,
    "eric": 1148,
    "\u25810x8f": 1149,
    "\u2581drive": 1150,
    "c6": 1151,
    "\u25810x1e": 1152,
    "f10000": 1153,
    "6f": 1154,
    "184": 1155,
    "\u25810x1211e04": 1156,
    "\u25810x47c0": 1157,
    "\u25810x44d4": 1158,
    "atet": 1159,
    "\u2581pf": 1160,
    "\u2581shget": 1161,
    "\u2581api": 1162,
    "\u25810x28": 1163,
    "ord": 1164,
    "\u25810x5265c14": 1165,
    "\u25810x7810": 1166,
    "2b": 1167,
    "de9": 1168,
    "\u2581e": 1169,
    "\u25810x40933c": 1170,
    "\u25810x40a": 1171,
    "100": 1172,
    "\u2581exitprocess": 1173,
    "\u25810x409344": 1174,
    "ursor": 1175,
    "allock": 1176,
    "ion": 1177,
    "ts": 1178,
    "\u2581register": 1179,
    "lic": 1180,
    "\u25810x437808": 1181,
    "\u25810x437806": 1182,
    "\u25810x43780a": 1183,
    "\u25810x43780c": 1184,
    "\u25810x43780e": 1185,
    "\u25810x437810": 1186,
    "\u25810x437812": 1187,
    "\u25810x437814": 1188,
    "\u25810x437816": 1189,
    "\u25810x437818": 1190,
    "\u25810x43781a": 1191,
    "\u25810x43781c": 1192,
    "\u25810x43781e": 1193,
    "948": 1194,
    "47": 1195,
    "\u2581globallock": 1196,
    "\u25810x82": 1197,
    "25": 1198,
    "94c": 1199,
    "\u2581app": 1200,
    "\u25810x77f10000": 1201,
    "\u2581loadlibraryw": 1202,
    "2000": 1203,
    "stru": 1204,
    "508": 1205,
    "\u25810x12118": 1206,
    "hine": 1207,
    "achine": 1208,
    "chan": 1209,
    "\u2581machine": 1210,
    "c9": 1211,
    "va": 1212,
    "\u25810x7ee0": 1213,
    "tim": 1214,
    "4b": 1215,
    "de0": 1216,
    "loating": 1217,
    "ca": 1218,
    "748": 1219,
    "struction": 1220,
    "\u2581regopenkeyexa": 1221,
    "\u25810x22": 1222,
    "6d": 1223,
    "fromstr": 1224,
    "c04": 1225,
    "inal": 1226,
    "\u25810x10000": 1227,
    "\u2581ord": 1228,
    "\u2581ordinal": 1229,
    "\u25810x3f": 1230,
    "\u25810x2439": 1231,
    "ble": 1232,
    "cb": 1233,
    "\u25810x7de1": 1234,
    "\u25810x70cc": 1235,
    "edc": 1236,
    "ack": 1237,
    "9b": 1238,
    "\u2581gen": 1239,
    "\u25810xfde9": 1240,
    "ant": 1241,
    "2f": 1242,
    "debugger": 1243,
    "debuggerpresent": 1244,
    "query": 1245,
    "\u25810x8c": 1246,
    "ee0": 1247,
    "\u2581lstrcmpa": 1248,
    "21": 1249,
    "\u25810x7e71": 1250,
    "ctl32": 1251,
    "\u2581comctl32": 1252,
    "708": 1253,
    "lus": 1254,
    "\u2581generic": 1255,
    "\u2581cr": 1256,
    "\u2581isdebuggerpresent": 1257,
    "cursor": 1258,
    "\u25810x88a0": 1259,
    "\u2581fin": 1260,
    "mp": 1261,
    "\u25810x420": 1262,
    "\u2581findre": 1263,
    "660": 1264,
    "8f": 1265,
    "\u2581createt": 1266,
    "\u25810x1f": 1267,
    "lsfree": 1268,
    "930": 1269,
    "\u25810x7aa0": 1270,
    "depage": 1271,
    "e44": 1272,
    "d04": 1273,
    "boar": 1274,
    "\u25810x1211b": 1275,
    "\u25810x79d0": 1276,
    "\u25810xfeee0008": 1277,
    "codepage": 1278,
    "\u2581isvalidcodepage": 1279,
    "\u2581sl": 1280,
    "\u25810xf0019": 1281,
    "43": 1282,
    "8d": 1283,
    "5500000": 1284,
    "\u25810x4290": 1285,
    "\u2581findresource": 1286,
    "308": 1287,
    "\u25810x11": 1288,
    "\u25810x1212000": 1289,
    "\u2581localfree": 1290,
    "date": 1291,
    "errormode": 1292,
    "\u2581seterrormode": 1293,
    "\u2581createfilea": 1294,
    "vironmentvariab": 1295,
    "\u2581getfileattribute": 1296,
    "\u2581file": 1297,
    "prot": 1298,
    "\u25810x40f6": 1299,
    "\u25810x1211a": 1300,
    "\u25810x67000000": 1301,
    "\u25810x4418": 1302,
    "85": 1303,
    "\u25810x47a0": 1304,
    "\u2581nt": 1305,
    "\u25810x38": 1306,
    "initializ": 1307,
    "eexw": 1308,
    "\u2581vari": 1309,
    "\u2581delete": 1310,
    "808": 1311,
    "\u2581virtualprot": 1312,
    "\u2581exe": 1313,
    "\u2581exis": 1314,
    "\u2581existing": 1315,
    "change": 1316,
    "\u2581setthread": 1317,
    "008": 1318,
    "\u25810xfeee0009": 1319,
    "low": 1320,
    "\u2581floating": 1321,
    "\u2581n": 1322,
    "\u25810x44d4b8": 1323,
    "aaaa": 1324,
    "\u25810x1211908": 1325,
    "map": 1326,
    "\u25810xfeee000b": 1327,
    "\u25810x1211fd8": 1328,
    "ata": 1329,
    "\u25810xfeee000a": 1330,
    "c5": 1331,
    "hreadpool": 1332,
    "\u2581loadlibraryexa": 1333,
    "timer": 1334,
    "ta": 1335,
    "\u2581virtualprotect": 1336,
    "vaila": 1337,
    "\u25810x1b": 1338,
    "vailable": 1339,
    "\u25810x12114b8": 1340,
    "a84": 1341,
    "\u25810xfeee000c": 1342,
    "\u25810x1211718": 1343,
    "\u25810x1211758": 1344,
    "lor": 1345,
    "\u25810x69": 1346,
    "spec": 1347,
    "\u25810x41c0": 1348,
    "cd": 1349,
    "\u2581getsystemdirectorya": 1350,
    "\u2581wa": 1351,
    "\u25810x1211fd0": 1352,
    "\u2581available": 1353,
    "qa": 1354,
    "per": 1355,
    "\u2581loadcursor": 1356,
    "lw": 1357,
    "met": 1358,
    "\u25810x3f2": 1359,
    "74c": 1360,
    "\u25810x1211958": 1361,
    "priv": 1362,
    "\u2581wsprintfa": 1363,
    "a50": 1364,
    "\u2581writefile": 1365,
    "i64": 1366,
    "\u2581instruction": 1367,
    "ho": 1368,
    "004": 1369,
    "version": 1370,
    "\u2581xmm": 1371,
    "\u2581xmmi64": 1372,
    "\u2581instructions": 1373,
    "\u2581flsfree": 1374,
    "ce0": 1375,
    "\u25810x41c044": 1376,
    "\u25810xfeee000e": 1377,
    "\u2581getcon": 1378,
    "\u25810xfeee000d": 1379,
    "\u25810xfeee0014": 1380,
    "\u25810x7f00": 1381,
    "\u25810xfeee0015": 1382,
    "a256": 1383,
    "\u2581sha256": 1384,
    "\u2581setmenu": 1385,
    "ntrol": 1386,
    "\u25810xfeee0010": 1387,
    "lwapi": 1388,
    "\u2581shlwapi": 1389,
    "ial": 1390,
    "4e": 1391,
    "\u25810x23": 1392,
    "\u2581seten": 1393,
    "dc8": 1394,
    "\u2581relea": 1395,
    "\u25810x29": 1396,
    "330": 1397,
    "\u25810x409": 1398,
    "\u25810x1211f7c": 1399,
    "\u25810xfeee0016": 1400,
    "\u25810x25": 1401,
    "\u25810x1211dcc": 1402,
    "\u25810xfeee0013": 1403,
    "\u25810x4f": 1404,
    "\u25810xfeee000f": 1405,
    "\u25810x43a4": 1406,
    "\u25810xfeee0012": 1407,
    "f80": 1408,
    "\u25810xfeee0011": 1409,
    "cro": 1410,
    "\u25810x4600": 1411,
    "fe8": 1412,
    "\u25810xcc": 1413,
    "ip": 1414,
    "\u25810x409a": 1415,
    "off": 1416,
    "\u25810x46b0": 1417,
    "\u25810x1211dd0": 1418,
    "320": 1419,
    "a04": 1420,
    "aps": 1421,
    "\u2581getfile": 1422,
    "\u25810x5a": 1423,
    "erflow": 1424,
    "\u2581ole32": 1425,
    "\u25810x32": 1426,
    "d08": 1427,
    "\u25810x7e8": 1428,
    "002": 1429,
    "\u25810x7ec0": 1430,
    "\u25814": 1431,
    "\u25810x1804": 1432,
    "\u25810x437820": 1433,
    "\u25810x437804": 1434,
    "ypt": 1435,
    "\u2581setmenuinfo": 1436,
    "\u25810x2439f74": 1437,
    "\u25810x4000": 1438,
    "\u2581registerc": 1439,
    "ccc": 1440,
    "\u25810x2c": 1441,
    "eep": 1442,
    "initialize": 1443,
    "\u25810x1d": 1444,
    "pal": 1445,
    "palet": 1446,
    "ision": 1447,
    "\u25810x8001": 1448,
    "div": 1449,
    "windows": 1450,
    "ock": 1451,
    "a044": 1452,
    "\u25810x40b3": 1453,
    "\u25810x40a5a0": 1454,
    "\u2581gettempa": 1455,
    "offile": 1456,
    "board": 1457,
    "vic": 1458,
    "9c4": 1459,
    "\u2581lstrcpyna": 1460,
    "\u25810x69000000": 1461,
    "\u2581loadcursora": 1462,
    "\u25810x63": 1463,
    "color": 1464,
    "\u25810x1211780": 1465,
    "\u25810x58": 1466,
    "form": 1467,
    "\u25810x2d": 1468,
    "\u25810x4086": 1469,
    "\u25810x12119c0": 1470,
    "not": 1471,
    "938": 1472,
    "\u2581getconsole": 1473,
    "\u2581createfilew": 1474,
    "b00": 1475,
    "\u2581olea": 1476,
    "d4c": 1477,
    "point": 1478,
    "9c0": 1479,
    "\u25810x101": 1480,
    "3c4": 1481,
    "\u25810x4730": 1482,
    "ember": 1483,
    "\u25810x4428": 1484,
    "\u25810x4960": 1485,
    "mem": 1486,
    "ition": 1487,
    "eexa": 1488,
    "\u25810x8a": 1489,
    "668": 1490,
    "lp": 1491,
    "\u2581crypt": 1492,
    "\u2581control": 1493,
    "\u25810x1211f28": 1494,
    "108": 1495,
    "\u25810x40ab": 1496,
    "ay": 1497,
    "\u25810x214": 1498,
    "ity": 1499,
    "\u25810x700c": 1500,
    "8e": 1501,
    "cc4": 1502,
    "\u2581createa": 1503,
    "\u2581sleep": 1504,
    "\u25810x40a59e": 1505,
    "\u25810x40a5a2": 1506,
    "\u25810x40a5a4": 1507,
    "\u25810x40a5a6": 1508,
    "\u25810x40a5a8": 1509,
    "\u25810x40a5aa": 1510,
    "\u2581variant": 1511,
    "\u25810x4615": 1512,
    "\u25810x40b": 1513,
    "\u25810xfeee0017": 1514,
    "eto": 1515,
    "\u2581dra": 1516,
    "ace": 1517,
    "messagea": 1518,
    "\u2581deletecriticalsection": 1519,
    "40c": 1520,
    "\u25810x4790": 1521,
    "\u25810x8f70": 1522,
    "81": 1523,
    "vie": 1524,
    "realloc": 1525,
    "\u2581getkey": 1526,
    "98c": 1527,
    "\u25810x34": 1528,
    "\u25810x4093e8": 1529,
    "\u25810x4093e5": 1530,
    "\u25810x4093e6": 1531,
    "\u25810x4093e7": 1532,
    "ec0": 1533,
    "yn": 1534,
    "34c": 1535,
    "\u25810xfeee0018": 1536,
    "c08": 1537,
    "\u2581getcurrentdirectorya": 1538,
    "\u258117": 1539,
    "104": 1540,
    "\u25810x7850": 1541,
    "\u25810x47a00": 1542,
    "\u25810xd0": 1543,
    "\u2581setc": 1544,
    "\u2581shfolder": 1545,
    "\u2581creat": 1546,
    "\u25810x99": 1547,
    "\u25810x56": 1548,
    "isk": 1549,
    "yarg1": 1550,
    "wait": 1551,
    "\u25810x4710": 1552,
    "ory": 1553,
    "b08": 1554,
    "\u25810x435000": 1555,
    "eed": 1556,
    "\u25810x79f0": 1557,
    "\u2581mo": 1558,
    "f4c": 1559,
    "\u2581getfileattributesw": 1560,
    "\u25810x41a044": 1561,
    "\u25810x704c": 1562,
    "\u25810x1211d30": 1563,
    "\u25810xfeee001a": 1564,
    "904": 1565,
    "\u2581remo": 1566,
    "\u25810x708c": 1567,
    "\u2581th": 1568,
    "\u25810x4340": 1569,
    "\u25810x4093e9": 1570,
    "\u25810x4093ea": 1571,
    "\u25810x4093eb": 1572,
    "\u2581u": 1573,
    "bc8": 1574,
    "peration": 1575,
    "ma": 1576,
    "e8c": 1577,
    "\u25810xfeee0019": 1578,
    "\u2581getde": 1579,
    "ockob": 1580,
    "\u2581getstockob": 1581,
    "memory": 1582,
    "988": 1583,
    "d28": 1584,
    "\u2581regopenkeyexw": 1585,
    "\u2581wait": 1586,
    "ok": 1587,
    "\u25810x1211528": 1588,
    "240": 1589,
    "ric": 1590,
    "yarg2": 1591,
    "\u25810xc00": 1592,
    "env": 1593,
    "e48": 1594,
    "help": 1595,
    "\u2581getd": 1596,
    "204": 1597,
    "\u2581releas": 1598,
    "pare": 1599,
    "box": 1600,
    "\u25810x1211e30": 1601,
    "itionvariab": 1602,
    "ero": 1603,
    "784": 1604,
    "\u2581un": 1605,
    "\u25810x43f0": 1606,
    "\u2581aaa": 1607,
    "\u2581getkeyboard": 1608,
    "\u25810x41f7": 1609,
    "\u2581compare": 1610,
    "lphi": 1611,
    "\u2581delphi": 1612,
    "448": 1613,
    "special": 1614,
    "specialfolder": 1615,
    "\u2581shgetspecialfolder": 1616,
    "1ac": 1617,
    "f88": 1618,
    "40b": 1619,
    "verflow": 1620,
    "\u25810x4088": 1621,
    "\u25810x3c": 1622,
    "504": 1623,
    "\u25810x84": 1624,
    "50c": 1625,
    "\u25810x43400": 1626,
    "\u25810x8e": 1627,
    "for": 1628,
    "all": 1629,
    "\u2581getversionexw": 1630,
    "5a7": 1631,
    "f08": 1632,
    "\u25810x44180": 1633,
    "vironmentvariablea": 1634,
    "edex": 1635,
    "namea": 1636,
    "\u25810x404": 1637,
    "edexchange": 1638,
    "\u2581interlockedexchange": 1639,
    "b14": 1640,
    "\u25810x44c2": 1641,
    "\u25810xfeee001b": 1642,
    "\u2581setcurrent": 1643,
    "\u2581oleinitialize": 1644,
    "520": 1645,
    "essage": 1646,
    "myarg2": 1647,
    "\u2581pro": 1648,
    "messagew": 1649,
    "\u25810x33": 1650,
    "\u25810x4076": 1651,
    "\u2581lstrcpynw": 1652,
    "\u25810x65500000": 1653,
    "ngu": 1654,
    "gi": 1655,
    "3a4": 1656,
    "\u2581getclass": 1657,
    "\u25810x1211f2c": 1658,
    "78c": 1659,
    "cc8": 1660,
    "\u25810x1211f88": 1661,
    "ersion": 1662,
    "\u25810x4630": 1663,
    "\u2581version": 1664,
    "yarg1myarg2": 1665,
    "\u25810xfeee001c": 1666,
    "\u2581shgetspecialfolderw": 1667,
    "ab8": 1668,
    "und": 1669,
    "\u2581type": 1670,
    "base": 1671,
    "\u25810xa0": 1672,
    "nguage": 1673,
    "\u25810x4540": 1674,
    "\u25810x40935d": 1675,
    "\u25810x40935e": 1676,
    "\u25810x40935f": 1677,
    "\u25810x409360": 1678,
    "\u25810x409361": 1679,
    "\u25810x409362": 1680,
    "\u25810x409363": 1681,
    "fo": 1682,
    "500": 1683,
    "700": 1684,
    "ac8": 1685,
    "e4c": 1686,
    "\u25810x8b": 1687,
    "f04": 1688,
    "\u25810xfeee010": 1689,
    "648": 1690,
    "oy": 1691,
    "\u2581i": 1692,
    "\u2581userenv": 1693,
    "\u25810x1211948": 1694,
    "f48": 1695,
    "vicec": 1696,
    "4a": 1697,
    "ost": 1698,
    "vicecaps": 1699,
    "\u2581findresourcea": 1700,
    "\u2581getdevicecaps": 1701,
    "b0c": 1702,
    "709": 1703,
    "b46": 1704,
    "cy": 1705,
    "end": 1706,
    "ilanguage": 1707,
    "d00": 1708,
    "9b4": 1709,
    "stroy": 1710,
    "ffc": 1711,
    "148": 1712,
    "\u2581wts": 1713,
    "\u25810x2e7": 1714,
    "d40": 1715,
    "bstr": 1716,
    "bstrfrom": 1717,
    "\u25810x1211f74": 1718,
    "\u2581varbstrfrom": 1719,
    "chost": 1720,
    "\u2581creates": 1721,
    "2c4": 1722,
    "\u25810x8811": 1723,
    "b2b": 1724,
    "\u2581sv": 1725,
    "\u25810x7090": 1726,
    "\u2581fmode": 1727,
    "il": 1728,
    "340": 1729,
    "\u25810x42a1": 1730,
    "\u2581svchost": 1731,
    "processlist": 1732,
    "\u2581getconsoleprocesslist": 1733,
    "\u25810x121194c": 1734,
    "\u2581getwindows": 1735,
    "a58": 1736,
    "arra": 1737,
    "\u25810x566": 1738,
    "sof": 1739,
    "bd4": 1740,
    "eme": 1741,
    "\u2581getdc": 1742,
    "xth": 1743,
    "60c": 1744,
    "704": 1745,
    "fa2": 1746,
    "\u25810x169": 1747,
    "\u2581registerclass": 1748,
    "788": 1749,
    "\u25810x40a5ac": 1750,
    "ec4": 1751,
    "\u25810x2e": 1752,
    "\u2581uxth": 1753,
    "\u2581uxtheme": 1754,
    "\u25810xfeee001d": 1755,
    "rw": 1756,
    "b48": 1757,
    "\u2581rand": 1758,
    "\u2581deletefilea": 1759,
    "text": 1760,
    "\u25810xfeee012": 1761,
    "\u25810x94": 1762,
    "\u25810x45f1": 1763,
    "\u2581lock": 1764,
    "15c": 1765,
    "ico": 1766,
    "main": 1767,
    "\u25810x45f4": 1768,
    "\u2581getuser": 1769,
    "\u25810x45f2": 1770,
    "\u2581message": 1771,
    "\u2581getkeyboardtype": 1772,
    "\u25810x45f5": 1773,
    "\u25810x42a00": 1774,
    "\u25810x4606": 1775,
    "\u2581z": 1776,
    "array": 1777,
    "\u25810x45f3": 1778,
    "\u2581loadresource": 1779,
    "\u25810x2b": 1780,
    "\u2581process": 1781,
    "608": 1782,
    "740": 1783,
    "soft": 1784,
    "698": 1785,
    "\u25810x45f6": 1786,
    "\u25810x7d10": 1787,
    "ad4": 1788,
    "\u25810x1211f84": 1789,
    "\u25810x45f7": 1790,
    "\u25810x45f8": 1791,
    "ecc": 1792,
    "\u25810x45f9": 1793,
    "\u2581releasedc": 1794,
    "\u25810x45fa": 1795,
    "\u25810x1211cc0": 1796,
    "valu": 1797,
    "f40": 1798,
    "\u2581enum": 1799,
    "b88": 1800,
    "\u2581of": 1801,
    "\u25810x1211dc8": 1802,
    "lush": 1803,
    "\u25810x45fe": 1804,
    "\u25810x4601": 1805,
    "ynch": 1806,
    "\u2581synch": 1807,
    "ug": 1808,
    "buff": 1809,
    "econ": 1810,
    "\u25810x40f": 1811,
    "6c8": 1812,
    "\u25810x405": 1813,
    "\u25810x45ff": 1814,
    "bc5": 1815,
    "profile": 1816,
    "\u2581ofresource": 1817,
    "130": 1818,
    "polic": 1819,
    "1b0": 1820,
    "vice": 1821,
    "0000000": 1822,
    "\u25810x45fd": 1823,
    "\u25810x1211e08": 1824,
    "\u2581setprocess": 1825,
    "f58": 1826,
    "\u2581messagebox": 1827,
    "fp": 1828,
    "280": 1829,
    "e88": 1830,
    "ive": 1831,
    "wm": 1832,
    "icro": 1833,
    "\u25810x37": 1834,
    "d84": 1835,
    "imeto": 1836,
    "\u25810x68": 1837,
    "ee4": 1838,
    "ping": 1839,
    "\u25810x89": 1840,
    "\u25810x4d70": 1841,
    "7c8": 1842,
    "e00": 1843,
    "\u25810x1211f20": 1844,
    "\u25810x57": 1845,
    "bers": 1846,
    "\u25810x3a": 1847,
    "\u2581waitfor": 1848,
    "\u2581nov": 1849,
    "\u25810xfeee001e": 1850,
    "call": 1851,
    "icrosoft": 1852,
    "93c": 1853,
    "search": 1854,
    "\u25810x78c": 1855,
    "filemap": 1856,
    "searchmode": 1857,
    "filemapping": 1858,
    "\u2581setsearchmode": 1859,
    "\u25810x121157c": 1860,
    "mon": 1861,
    "\u2581getsysteminfo": 1862,
    "b44": 1863,
    "\u25810x12117a4": 1864,
    "policy": 1865,
    "\u2581setup": 1866,
    "\u2581getmain": 1867,
    "\u25810xfeee001f": 1868,
    "\u25810x4af4": 1869,
    "\u25810x7f": 1870,
    "ub": 1871,
    "cef": 1872,
    "\u2581mon": 1873,
    "\u25810x46a0": 1874,
    "\u25810x78c00000": 1875,
    "b5c": 1876,
    "\u25810x98": 1877,
    "\u2581gdip": 1878,
    "1a0": 1879,
    "606": 1880,
    "\u2581clo": 1881,
    "\u25810x53000000": 1882,
    "metric": 1883,
    "\u2581setcurrentdirectorya": 1884,
    "e40": 1885,
    "deppolicy": 1886,
    "eent": 1887,
    "\u2581exem": 1888,
    "\u2581exemyarg1myarg2": 1889,
    "a38": 1890,
    "\u25810x41f": 1891,
    "\u25810x7d00": 1892,
    "\u2581setprocessdeppolicy": 1893,
    "\u2581dwm": 1894,
    "300": 1895,
    "\u2581dwmapi": 1896,
    "74d": 1897,
    "\u25810x31": 1898,
    "1f4": 1899,
    "7b8": 1900,
    "\u25810xfeee0020": 1901,
    "\u25810x1211bc0": 1902,
    "\u2581cryptbase": 1903,
    "dc0": 1904,
    "\u25810x21": 1905,
    "9a8": 1906,
    "\u2581aug": 1907,
    "\u25810x42c0": 1908,
    "\u25810x7700": 1909,
    "ull": 1910,
    "\u2581oc": 1911,
    "\u2581apr": 1912,
    "\u25810x1211748": 1913,
    "\u25810x36": 1914,
    "\u25810x42a0": 1915,
    "itionvariable": 1916,
    "\u25810x4620": 1917,
    "605": 1918,
    "9000": 1919,
    "yscolor": 1920,
    "\u2581getsyscolor": 1921,
    "\u2581fibers": 1922,
    "\u2581lstrcpya": 1923,
    "\u2581virtualquery": 1924,
    "124": 1925,
    "vol": 1926,
    "b60": 1927,
    "\u25810x64": 1928,
    "118": 1929,
    "684": 1930,
    "\u2581shgetfile": 1931,
    "26c": 1932,
    "\u2581sun": 1933,
    "384": 1934,
    "\u25810x3e": 1935,
    "2f8": 1936,
    "\u25810x97": 1937,
    "\u25810xfeee014": 1938,
    "cond": 1939,
    "\u25810x2f": 1940,
    "d58": 1941,
    "\u25810x80c0": 1942,
    "70c": 1943,
    "\u25810x1211728": 1944,
    "\u25810x4607": 1945,
    "278": 1946,
    "\u25810xaa": 1947,
    "\u2581charpre": 1948,
    "f44": 1949,
    "6e0": 1950,
    "\u2581ns": 1951,
    "stry": 1952,
    "\u25810x1211f78": 1953,
    "\u2581microsoft": 1954,
    "7dc": 1955,
    "9c8": 1956,
    "iserror": 1957,
    "218": 1958,
    "srw": 1959,
    "\u2581dec": 1960,
    "\u2581sat": 1961,
    "uary": 1962,
    "\u25810x55": 1963,
    "\u2581may": 1964,
    "\u2581nsiserror": 1965,
    "varian": 1966,
    "ink": 1967,
    "ries": 1968,
    "\u25810x63000000": 1969,
    "sday": 1970,
    "\u2581tue": 1971,
    "\u2581wed": 1972,
    "6500000": 1973,
    "\u25810x4800": 1974,
    "\u2581closet": 1975,
    "\u2581closethreadpool": 1976,
    "\u2581createthreadpool": 1977,
    "\u2581createfilemapping": 1978,
    "\u25810x1211ee0": 1979,
    "3c0": 1980,
    "full": 1981,
    "tl": 1982,
    "98d": 1983,
    "\u2581getclassinfoa": 1984,
    "584": 1985,
    "10c": 1986,
    "647": 1987,
    "932": 1988,
    "\u25810x1210ec0": 1989,
    "ae0": 1990,
    "bc7": 1991,
    "ecu": 1992,
    "teent": 1993,
    "metrics": 1994,
    "teentries": 1995,
    "\u25810x100000": 1996,
    "paletteentries": 1997,
    "\u2581getsystemmetrics": 1998,
    "ame": 1999,
    "f02": 2000,
    "ac5": 2001,
    "e80": 2002,
    "\u25810x4400": 2003,
    "system": 2004,
    "\u25810x1211efc": 2005,
    "privile": 2006,
    "38c": 2007,
    "ed8": 2008,
    "\u25810x12119ac": 2009,
    "cqa": 2010,
    "\u25810x39": 2011,
    "\u25810x1211ccc": 2012,
    "volu": 2013,
    "945": 2014,
    "ecute": 2015,
    "\u25810xffff": 2016,
    "d3c": 2017,
    "\u2581gettime": 2018,
    "720": 2019,
    "ken": 2020,
    "volume": 2021,
    "\u2581gettempw": 2022,
    "view": 2023,
    "\u25810xa000": 2024,
    "1c0": 2025,
    "eb8": 2026,
    "\u2581error": 2027,
    "\u25810xfeee0021": 2028,
    "uped": 2029,
    "\u25810x435002": 2030,
    "\u25810x435004": 2031,
    "\u25810x435006": 2032,
    "\u25810x435008": 2033,
    "\u25810x43500a": 2034,
    "\u25810x43500c": 2035,
    "\u25810x43500e": 2036,
    "\u25810x435010": 2037,
    "\u25810x435014": 2038,
    "\u25810x435018": 2039,
    "\u25810x435016": 2040,
    "368": 2041,
    "9cc": 2042,
    "\u25810xb0": 2043,
    "freesp": 2044,
    "\u2581getdisk": 2045,
    "\u25810x44c250": 2046,
    "\u2581getdiskfreesp": 2047,
    "e84": 2048,
    "\u25810x4bd0": 2049,
    "\u25810x1211c04": 2050,
    "private": 2051,
    "icona": 2052,
    "cor": 2053,
    "dc4": 2054,
    "7038": 2055,
    "ef4": 2056,
    "\u25810x35": 2057,
    "e4b8": 2058,
    "leob": 2059,
    "\u25810xfeee0022": 2060,
    "out": 2061,
    "\u25810x7ec1": 2062,
    "privateprofile": 2063,
    "310": 2064,
    "208": 2065,
    "\u25810x1210df": 2066,
    "\u25810x435012": 2067,
    "324": 2068,
    "\u2581controlfp": 2069,
    "\u2581getwindow": 2070,
    "\u2581setenvironmentvariablea": 2071,
    "\u25810x4e30": 2072,
    "44d": 2073,
    "\u2581heaprealloc": 2074,
    "\u25810x30000": 2075,
    "f8c": 2076,
    "\u2581corex": 2077,
    "\u25810x1002": 2078,
    "9d8": 2079,
    "\u2581st": 2080,
    "\u25810x508": 2081,
    "\u25810x1211fcc": 2082,
    "emap": 2083,
    "\u25810x65": 2084,
    "da0": 2085,
    "\u2581regquery": 2086,
    "33c": 2087,
    "\u2581corexitprocess": 2088,
    "5c8": 2089,
    "bit": 2090,
    "fad": 2091,
    "\u25810xfeed": 2092,
    "6c4": 2093,
    "ce9": 2094,
    "icon": 2095,
    "\u25810x19a": 2096,
    "5cc": 2097,
    "\u25810x4614": 2098,
    "ce8": 2099,
    "\u25810x4df0": 2100,
    "\u25810x1211fd4": 2101,
    "e58": 2102,
    "\u2581commode": 2103,
    "\u25810x422": 2104,
    "\u25810x1211308": 2105,
    "210": 2106,
    "a48": 2107,
    "\u25810x8cc0": 2108,
    "fe0": 2109,
    "\u25810x4ab0": 2110,
    "408": 2111,
    "prec": 2112,
    "\u25810x1211578": 2113,
    "934": 2114,
    "\u25810x3b": 2115,
    "\u25810x198": 2116,
    "\u25810x45fc": 2117,
    "\u2581registry": 2118,
    "\u2581loadicona": 2119,
    "ei": 2120,
    "ff4": 2121,
    "utex": 2122,
    "\u25810x76500000": 2123,
    "1cc": 2124,
    "370": 2125,
    "728": 2126,
    "ac4": 2127,
    "9260": 2128,
    "\u25810x43f6": 2129,
    "\u25810x1211d04": 2130,
    "\u2581findresourcew": 2131,
    "ork": 2132,
    "ntro": 2133,
    "zero": 2134,
    "\u2581createfilemappinga": 2135,
    "\u2581tr": 2136,
    "bb4": 2137,
    "2c8": 2138,
    "\u25810x3d": 2139,
    "nots": 2140,
    "rect": 2141,
    "byzero": 2142,
    "pointo": 2143,
    "\u25810xff8": 2144,
    "notsuped": 2145,
    "overflow": 2146,
    "\u25810x43501a": 2147,
    "isionbyzero": 2148,
    "9e4": 2149,
    "delet": 2150,
    "f46": 2151,
    "ust": 2152,
    "\u25810x420fe8": 2153,
    "\u25810xfeee0024": 2154,
    "\u2581invalidvarian": 2155,
    "ps": 2156,
    "\u25818": 2157,
    "\u2581pi": 2158,
    "\u2581rtl": 2159,
    "fearray": 2160,
    "\u2581flush": 2161,
    "\u25810xfeee015": 2162,
    "248": 2163,
    "2e8": 2164,
    "token": 2165,
    "\u25810x4e50": 2166,
    "\u2581process32": 2167,
    "ntrols": 2168,
    "188": 2169,
    "a08": 2170,
    "aff": 2171,
    "382": 2172,
    "clus": 2173,
    "ename": 2174,
    "\u25810x66": 2175,
    "\u25810x45fb": 2176,
    "\u25810xfeee0025": 2177,
    "958": 2178,
    "d50": 2179,
    "\u25810x7cd0": 2180,
    "\u25810x40a5b0": 2181,
    "\u25810x40a5b8": 2182,
    "\u25810xfeee0023": 2183,
    "\u2581lockresource": 2184,
    "528": 2185,
    "7d0": 2186,
    "\u25810x43501c": 2187,
    "\u25810x43501e": 2188,
    "\u25810x435020": 2189,
    "\u25810x435022": 2190,
    "\u25810x435028": 2191,
    "\u25810x43502a": 2192,
    "\u25810x43502c": 2193,
    "\u25810x43502e": 2194,
    "\u25810x435030": 2195,
    "\u25810x85": 2196,
    "ac0": 2197,
    "aaaaaaaa": 2198,
    "\u25810x40a5ae": 2199,
    "\u25810x40a5b2": 2200,
    "\u25810x40a5b4": 2201,
    "\u25810x40a5b6": 2202,
    "\u25810x40a5ba": 2203,
    "\u25810x1211a04": 2204,
    "\u2581getsystempaletteentries": 2205,
    "\u25810x75500000": 2206,
    "com": 2207,
    "\u2581cl": 2208,
    "\u25810xfeee0027": 2209,
    "a8f": 2210,
    "334": 2211,
    "14c": 2212,
    "\u25810x7d94": 2213,
    "\u2581currentversion": 2214,
    "80c": 2215,
    "\u2581ch": 2216,
    "\u25810x7d95": 2217,
    "a4c": 2218,
    "\u25810x9c": 2219,
    "\u25810x40c": 2220,
    "informationby": 2221,
    "a70": 2222,
    "\u2581ntdll": 2223,
    "\u25810x7930": 2224,
    "\u25810x1211438": 2225,
    "3a8": 2226,
    "\u25810xfeee0026": 2227,
    "back": 2228,
    "termin": 2229,
    "288": 2230,
    "502": 2231,
    "7c5": 2232,
    "9ce": 2233,
    "\u2581tmp": 2234,
    "callback": 2235,
    "9dc": 2236,
    "exclus": 2237,
    "srwlock": 2238,
    "exclusive": 2239,
    "srwlockexclusive": 2240,
    "e0c": 2241,
    "lip": 2242,
    "\u2581destroy": 2243,
    "af4": 2244,
    "pooltimer": 2245,
    "801": 2246,
    "coree": 2247,
    "\u25810x2100": 2248,
    "\u25810x4605": 2249,
    "\u2581mscoree": 2250,
    "d24": 2251,
    "\u25810x440": 2252,
    "d68": 2253,
    "que": 2254,
    "sub": 2255,
    "stringw": 2256,
    "\u25810x4604": 2257,
    "160": 2258,
    "\u2581inst": 2259,
    "len": 2260,
    "bool": 2261,
    "\u2581varr": 2262,
    "\u2581filet": 2263,
    "\u25810x8a40": 2264,
    "4fromstr": 2265,
    "\u25810x1211f64": 2266,
    "\u2581filetimeto": 2267,
    "\u2581getvolume": 2268,
    "item": 2269,
    "\u2581setupapi": 2270,
    "\u2581move": 2271,
    "\u25810x407": 2272,
    "974": 2273,
    "\u2581mul": 2274,
    "\u2581muldiv": 2275,
    "\u2581termin": 2276,
    "controls": 2277,
    "\u25816": 2278,
    "5c4": 2279,
    "d48": 2280,
    "\u2581findnext": 2281,
    "\u25810x409aa4": 2282,
    "\u2581initializes": 2283,
    "670": 2284,
    "\u25810x409aa5": 2285,
    "ef0": 2286,
    "\u25810x1211f24": 2287,
    "dfc": 2288,
    "fa8": 2289,
    "9c7": 2290,
    "b10": 2291,
    "\u25810x4096": 2292,
    "\u25810x80000000": 2293,
    "vironmentvariablew": 2294,
    "984": 2295,
    "\u25810x4012": 2296,
    "ask": 2297,
    "\u25810x4093e4": 2298,
    "\u25810xfeee011": 2299,
    "600": 2300,
    "\u2581noaccess": 2301,
    "\u25810x1211c94": 2302,
    "orsa": 2303,
    "ut32": 2304,
    "\u25810x4608": 2305,
    "\u2581oleaut32": 2306,
    "d8c": 2307,
    "\u2581ts": 2308,
    "a90": 2309,
    "\u25810x4d50": 2310,
    "\u25810x7340": 2311,
    "f2c": 2312,
    "\u2581apphelp": 2313,
    "344": 2314,
    "6c00": 2315,
    "\u25810x7de4": 2316,
    "\u25810x7de5": 2317,
    "\u25810x1211f00": 2318,
    "588": 2319,
    "atq": 2320,
    "psys": 2321,
    "bcatq": 2322,
    "\u2581oleacc": 2323,
    "\u2581clbcatq": 2324,
    "\u2581propsys": 2325,
    "\u25810x1211f80": 2326,
    "f28": 2327,
    "\u25810x4356": 2328,
    "\u2581globalfree": 2329,
    "\u2581findfirstfilea": 2330,
    "f92": 2331,
    "common": 2332,
    "\u25810x40a582": 2333,
    "\u25810x40a584": 2334,
    "\u25810x40a586": 2335,
    "\u25810x40a588": 2336,
    "\u25810x40a58a": 2337,
    "\u25810xfeee0028": 2338,
    "ee8": 2339,
    "comp": 2340,
    "\u2581initcommon": 2341,
    "\u2581initcommoncontrols": 2342,
    "3b8": 2343,
    "eck": 2344,
    "\u25810x40a580": 2345,
    "\u25810x5c": 2346,
    "946": 2347,
    "\u25810x450": 2348,
    "\u25810x40a57e": 2349,
    "950": 2350,
    "atex": 2351,
    "\u25810x27": 2352,
    "\u25810x415c": 2353,
    "150": 2354,
    "d45": 2355,
    "ec8": 2356,
    "\u25810x8d": 2357,
    "\u2581createdirectoryw": 2358,
    "namew": 2359,
    "586": 2360,
    "\u25810x4c4": 2361,
    "386": 2362,
    "data": 2363,
    "closekey": 2364,
    "\u2581regclosekey": 2365,
    "140": 2366,
    "307": 2367,
    "\u25810x40a59c": 2368,
    "\u2581setdll": 2369,
    "ag": 2370,
    "9640": 2371,
    "\u2581mei": 2372,
    "\u25810x8260": 2373,
    "284": 2374,
    "\u25810x26": 2375,
    "\u2581setfileattribute": 2376,
    "123": 2377,
    "db4": 2378,
    "pos": 2379,
    "\u25817z6": 2380,
    "\u25817z72": 2381,
    "\u25810x600": 2382,
    "144": 2383,
    "ff8": 2384,
    "\u2581createsemap": 2385,
    "787": 2386,
    "e28": 2387,
    "54c": 2388,
    "\u25810xc8": 2389,
    "388": 2390,
    "ss2": 2391,
    "pass2": 2392,
    "\u25810x429260": 2393,
    "\u2581meipass2": 2394,
    "1e4": 2395,
    "5a0": 2396,
    "acd": 2397,
    "dc1": 2398,
    "\u25810x4602": 2399,
    "2c2": 2400,
    "940": 2401,
    "bc4": 2402,
    "\u2581err": 2403,
    "enum": 2404,
    "buffers": 2405,
    "582": 2406,
    "valueexa": 2407,
    "orsafearray": 2408,
    "664": 2409,
    "\u2581tsl": 2410,
    "\u25810x4093ec": 2411,
    "\u25810x40a540": 2412,
    "\u2581copy": 2413,
    "\u25810x408": 2414,
    "998": 2415,
    "2c0": 2416,
    "a54": 2417,
    "dcc": 2418,
    "hor": 2419,
    "\u2581sys": 2420,
    "\u2581getwindowsdirectorya": 2421,
    "ervice": 2422,
    "\u25810x403": 2423,
    "\u25810x1211c98": 2424,
    "a81": 2425,
    "d83": 2426,
    "\u25810x4095": 2427,
    "\u25810x40a53a": 2428,
    "\u25810x40a53c": 2429,
    "\u25810x40a53e": 2430,
    "\u25810x40a542": 2431,
    "\u25810x40a544": 2432,
    "\u25810x40a546": 2433,
    "\u25810x1211e4c": 2434,
    "\u2581map": 2435,
    "\u25810xa8": 2436,
    "\u25810x7270": 2437,
    "b98": 2438,
    "\u25810x1210f64": 2439,
    "3ad": 2440,
    "bcc": 2441,
    "drl66": 2442,
    "\u25810x40e5": 2443,
    "\u2581tsldrl66": 2444,
    "9c2": 2445,
    "\u25810x1211e14": 2446,
    "\u2581msvcr90": 2447,
    "120": 2448,
    "409": 2449,
    "5ec": 2450,
    "\u25810x1211508": 2451,
    "\u25810x406": 2452,
    "\u25810x4210": 2453,
    "3de": 2454,
    "\u25810x40b7": 2455,
    "509": 2456,
    "66e": 2457,
    "\u25810x7540": 2458,
    "6cd": 2459,
    "985": 2460,
    "\u25810x42a4": 2461,
    "\u25810x4012db": 2462,
    "\u25810x44e4b8": 2463,
    "fc4": 2464,
    "irectory": 2465,
    "edirectory": 2466,
    "\u25810xbc": 2467,
    "\u2581remove": 2468,
    "\u25810xfeee002a": 2469,
    "b2c": 2470,
    "head": 2471,
    "\u2581draw": 2472,
    "\u2581prec": 2473,
    "\u2581point": 2474,
    "\u2581errata": 2475,
    "\u2581precision": 2476,
    "7c3": 2477,
    "ire": 2478,
    "ormat": 2479,
    "\u25810x61": 2480,
    "\u2581registerwindow": 2481,
    "3c8": 2482,
    "2dc": 2483,
    "brus": 2484,
    "\u25810xa7": 2485,
    "\u25810xfeee0029": 2486,
    "\u25810xfeee002d": 2487,
    "d35": 2488,
    "ad9": 2489,
    "782": 2490,
    "emutex": 2491,
    "palette": 2492,
    "\u25810x46c0": 2493,
    "\u2581drag": 2494,
    "\u25810x44280": 2495,
    "\u2581ac": 2496,
    "\u25810xfeee017": 2497,
    "\u2581dup": 2498,
    "\u25810xa3": 2499,
    "\u2581remov": 2500,
    "\u25810x3f2000": 2501,
    "\u25810xfeee002c": 2502,
    "\u2581createthread": 2503,
    "\u2581setdlldirectoryw": 2504,
    "sing": 2505,
    "\u25810x7ab0": 2506,
    "37c": 2507,
    "3d1": 2508,
    "a6c": 2509,
    "\u25810xfeee002f": 2510,
    "\u2581createwindow": 2511,
    "304": 2512,
    "singleob": 2513,
    "\u25810xfeee002b": 2514,
    "\u2581setfilepointerex": 2515,
    "\u2581stem": 2516,
    "\u2581stem32": 2517,
    "\u2581setwindow": 2518,
    "\u25810xfeee002e": 2519,
    "areex": 2520,
    "compareex": 2521,
    "compareexchange": 2522,
    "\u2581interlockedcompareexchange": 2523,
    "274": 2524,
    "d18": 2525,
    "ff0": 2526,
    "\u25810x444": 2527,
    "3cb": 2528,
    "\u25810x40935c": 2529,
    "1d0": 2530,
    "pend": 2531,
    "\u25810xfeee018": 2532,
    "3b5": 2533,
    "\u25810x1211c90": 2534,
    "\u25810x181": 2535,
    "\u25810x42c": 2536,
    "\u25810x1808": 2537,
    "\u25810xb000": 2538,
    "74b": 2539,
    "be8": 2540,
    "\u25810x7300": 2541,
    "\u25810x7be0": 2542,
    "7ec": 2543,
    "quire": 2544,
    "\u25810x4614d0": 2545,
    "fc8": 2546,
    "f18": 2547,
    "f85": 2548,
    "\u25810x350": 2549,
    "\u25810x644": 2550,
    "driv": 2551,
    "link": 2552,
    "\u2581run": 2553,
    "l6660d": 2554,
    "90c": 2555,
    "f05": 2556,
    "\u2581exit": 2557,
    "\u25810x401": 2558,
    "\u25810x40ac": 2559,
    "\u2581messageboxa": 2560,
    "3d4": 2561,
    "718": 2562,
    "ast": 2563,
    "e87": 2564,
    "\u25810x71b0": 2565,
    "446": 2566,
    "b06": 2567,
    "di": 2568,
    "122": 2569,
    "state": 2570,
    "\u25810x140": 2571,
    "170": 2572,
    "3db": 2573,
    "ed4": 2574,
    "\u25810x1211f70": 2575,
    "\u25810xfeee0030": 2576,
    "905": 2577,
    "\u25810x7f8003": 2578,
    "\u25810x7f8004": 2579,
    "\u25810x7f8005": 2580,
    "\u25810x7f8006": 2581,
    "\u25810x7f8007": 2582,
    "\u25810x7f8008": 2583,
    "\u25810x7f8009": 2584,
    "\u25810x7f800a": 2585,
    "\u25810x7f800b": 2586,
    "\u25810x7f800c": 2587,
    "\u25810x7f800d": 2588,
    "\u25810x7f800e": 2589,
    "\u25810x7f800f": 2590,
    "\u2581waitforsingleob": 2591,
    "548": 2592,
    "78f": 2593,
    "fc0": 2594,
    "fc2": 2595,
    "7c58": 2596,
    "114": 2597,
    "9f8": 2598,
    "\u2581code": 2599,
    "viewoffile": 2600,
    "\u25810x1211db8": 2601,
    "1e7": 2602,
    "270": 2603,
    "ab5": 2604,
    "\u2581createprocess": 2605,
    "\u2581duplic": 2606,
    "\u2581deletefilew": 2607,
    "\u2581createdirectorya": 2608,
    "drl6660drl6660drl6660drl6660drl6660": 2609,
    "ession": 2610,
    "\u25810x1211f04": 2611,
    "32c": 2612,
    "688": 2613,
    "d1c": 2614,
    "a4c4": 2615,
    "gear": 2616,
    "\u25810x7ad0": 2617,
    "\u2581codegear": 2618,
    "\u25810xfeee0031": 2619,
    "a10": 2620,
    "\u25810xa1": 2621,
    "\u25810x77002": 2622,
    "242": 2623,
    "f49": 2624,
    "\u25810xa2": 2625,
    "\u25810x7900": 2626,
    "\u25810xfeee016": 2627,
    "erre": 2628,
    "\u2581findwindow": 2629,
    "acc": 2630,
    "\u2581up": 2631,
    "\u25810x46e0": 2632,
    "lg": 2633,
    "901": 2634,
    "\u2581strcpy": 2635,
    "302": 2636,
    "ument": 2637,
    "\u25810xe0": 2638,
    "dateform": 2639,
    "11c": 2640,
    "\u25810x41f6": 2641,
    "\u25810x121193c": 2642,
    "d0c": 2643,
    "mask": 2644,
    "\u25810x7bd0": 2645,
    "\u2581getdiskfreespac": 2646,
    "387": 2647,
    "a88": 2648,
    "\u25810x430": 2649,
    "session": 2650,
    "375": 2651,
    "7bc": 2652,
    "a32": 2653,
    "\u25810xfeee0033": 2654,
    "dac": 2655,
    "\u25810x3f3": 2656,
    "\u25810x12112": 2657,
    "\u25810xfeee0032": 2658,
    "7cc": 2659,
    "\u25810xb8": 2660,
    "9fc": 2661,
    "e6c": 2662,
    "\u25810xa4": 2663,
    "\u25810x10005c": 2664,
    "fb0": 2665,
    "\u2581getdateform": 2666,
    "tiona": 2667,
    "10d": 2668,
    "work": 2669,
    "\u25810x4cb0": 2670,
    "\u2581registerclassa": 2671,
    "\u25810x40f6a8": 2672,
    "rl": 2673,
    "ais": 2674,
    "dc2": 2675,
    "\u25810x4df": 2676,
    "\u25810x409364": 2677,
    "\u25810x4093a5": 2678,
    "\u25810x4093a6": 2679,
    "\u25810x4093a7": 2680,
    "\u25810x4093a8": 2681,
    "\u25810x4093a9": 2682,
    "\u25810x4093aa": 2683,
    "\u25810x4093ab": 2684,
    "\u25810xfeee0034": 2685,
    "\u25810xfeee0035": 2686,
    "\u2581q": 2687,
    "bf0": 2688,
    "9852": 2689,
    "\u25810x4700": 2690,
    "listhead": 2691,
    "localename": 2692,
    "\u25810x12119a0": 2693,
    "\u2581initializeslisthead": 2694,
    "\u2581getprivateprofile": 2695,
    "2f2": 2696,
    "403": 2697,
    "f1b": 2698,
    "\u25810x1211928": 2699,
    "fc3": 2700,
    "gical": 2701,
    "\u25810x1211e40": 2702,
    "logical": 2703,
    "pref": 2704,
    "croll": 2705,
    "\u25810x480": 2706,
    "createkey": 2707,
    "\u2581regcreatekey": 2708,
    "309": 2709,
    "f86": 2710,
    "\u25810x52660": 2711,
    "\u2581getlogical": 2712,
    "3cc": 2713,
    "516": 2714,
    "eab": 2715,
    "\u25810x1211f50": 2716,
    "\u2581unhandledexceptionfilter": 2717,
    "lex": 2718,
    "\u25810x95": 2719,
    "\u25810x5265d": 2720,
    "a02": 2721,
    "ang": 2722,
    "744": 2723,
    "\u258132": 2724,
    "\u25810x40a9": 2725,
    "aa4": 2726,
    "\u2581rais": 2727,
    "delete": 2728,
    "\u25810x421": 2729,
    "\u25810x7ff": 2730,
    "\u2581raiseex": 2731,
    "\u25810x1211e44": 2732,
    "\u25810xfeee0046": 2733,
    "\u2581raiseexception": 2734,
    "\u25810x78a0": 2735,
    "\u25810xfeee0036": 2736,
    "3a5": 2737,
    "d5c": 2738,
    "e10": 2739,
    "f0c": 2740,
    "\u25810x2b4": 2741,
    "am": 2742,
    "fcf": 2743,
    "\u2581fe": 2744,
    "\u2581mar": 2745,
    "\u25810x4041": 2746,
    "\u25810xfeee0045": 2747,
    "d78": 2748,
    "\u25810xfeee0037": 2749,
    "3e8": 2750,
    "64c": 2751,
    "9c3": 2752,
    "bar": 2753,
    "wind": 2754,
    "\u25810xfeee0038": 2755,
    "5410": 2756,
    "\u25810x42a190": 2757,
    "\u25810x42a403": 2758,
    "\u25810x42a404": 2759,
    "\u25810x42a405": 2760,
    "\u25810x42a406": 2761,
    "\u25810x42a407": 2762,
    "\u25810x42a408": 2763,
    "\u25810x42a409": 2764,
    "\u25810x42a40a": 2765,
    "\u25810x42a40b": 2766,
    "\u25810x42a40c": 2767,
    "\u25810x42a40d": 2768,
    "\u25810x42a40e": 2769,
    "\u25810x42a40f": 2770,
    "\u2581getuserdefault": 2771,
    "\u25810xfeee0047": 2772,
    "\u2581crt": 2773,
    "\u25810x42a": 2774,
    "\u2581heapset": 2775,
    "444": 2776,
    "682": 2777,
    "970": 2778,
    "\u25810x1211e58": 2779,
    "toma": 2780,
    "handler": 2781,
    "\u25810x7a80": 2782,
    "\u25810xfeee003d": 2783,
    "\u25810xfeee003e": 2784,
    "68c": 2785,
    "f37": 2786,
    "\u25810x40a40": 2787,
    "\u25810x1211a44": 2788,
    "\u2581heapsetinformation": 2789,
    "\u2581shellex": 2790,
    "localtime": 2791,
    "\u25810x1211dfc": 2792,
    "\u25810xfeee003a": 2793,
    "\u25810xfeee003b": 2794,
    "c018": 2795,
    "ority": 2796,
    "\u25810xfeee004a": 2797,
    "743": 2798,
    "9ee": 2799,
    "e04": 2800,
    "\u25810x120fa": 2801,
    "\u25810xb3": 2802,
    "\u2581show": 2803,
    "\u25810x1211dbc": 2804,
    "bff": 2805,
    "ed0": 2806,
    "mar": 2807,
    "exit": 2808,
    "\u2581duplicate": 2809,
    "\u2581removedirectory": 2810,
    "1c7": 2811,
    "20c0": 2812,
    "\u2581rtlun": 2813,
    "\u25810xfeee0039": 2814,
    "\u25810xfeee0043": 2815,
    "\u25810xfeee0048": 2816,
    "e74": 2817,
    "nal": 2818,
    "brush": 2819,
    "\u25810xa6": 2820,
    "erredu": 2821,
    "\u25810x120ee": 2822,
    "preferredu": 2823,
    "\u2581rtlunwind": 2824,
    "\u25810xfeee003c": 2825,
    "\u25810xfeee0044": 2826,
    "preferreduilanguage": 2827,
    "936": 2828,
    "ool": 2829,
    "\u2581format": 2830,
    "\u25810xfeee0040": 2831,
    "\u25810xfeee0041": 2832,
    "bc6": 2833,
    "\u25810x7150": 2834,
    "\u25810x4540e0": 2835,
    "\u25810xfeee003f": 2836,
    "\u25810xfeee0042": 2837,
    "\u2581initcommoncontrolsex": 2838,
    "3d7": 2839,
    "b61": 2840,
    "pack": 2841,
    "\u25810x1211ef8": 2842,
    "sn": 2843,
    "383": 2844,
    "dd4": 2845,
    "\u25810x4cf0": 2846,
    "\u25810x4e39": 2847,
    "\u25810x43f00": 2848,
    "\u2581duplicatehandle": 2849,
    "ech": 2850,
    "\u25810xfeee013": 2851,
    "\u25810xfeee0049": 2852,
    "\u2581shgetfileinfow": 2853,
    "preferreduilanguages": 2854,
    "a67": 2855,
    "bec": 2856,
    "\u25810xffe1": 2857,
    "ie": 2858,
    "f90": 2859,
    "\u2581ps": 2860,
    "uter": 2861,
    "\u25810xfeee004d": 2862,
    "928": 2863,
    "ans": 2864,
    "b97": 2865,
    "314": 2866,
    "778": 2867,
    "\u25810x4010": 2868,
    "\u25810xfffe": 2869,
    "\u2581terminate": 2870,
    "e64": 2871,
    "\u25810x73f0": 2872,
    "\u25810xfeee004b": 2873,
    "\u25810xfeee004c": 2874,
    "\u25810x93": 2875,
    "\u25810x411b": 2876,
    "\u25810x7d50": 2877,
    "\u2581getcomp": 2878,
    "1a4": 2879,
    "768": 2880,
    "\u2581getcomputer": 2881,
    "\u25810x4bb0": 2882,
    "34b": 2883,
    "de8": 2884,
    "eb0": 2885,
    "ethread": 2886,
    "\u2581terminateprocess": 2887,
    "69c": 2888,
    "files": 2889,
    "\u25810x7eb": 2890,
    "\u25810xffe0": 2891,
    "a45": 2892,
    "scr": 2893,
    "\u25810x1210a": 2894,
    "b84": 2895,
    "fd4": 2896,
    "marta": 2897,
    "\u25810x40b8": 2898,
    "\u25810x502dc": 2899,
    "\u2581ntmarta": 2900,
    "og": 2901,
    "40f": 2902,
    "982": 2903,
    "a37": 2904,
    "one": 2905,
    "iled": 2906,
    "\u25810xffe4": 2907,
    "706": 2908,
    "7e8": 2909,
    "dd7": 2910,
    "e1d4": 2911,
    "\u25810xcf": 2912,
    "lipboar": 2913,
    "\u25810x72a0": 2914,
    "\u2581charprevw": 2915,
    "5c0": 2916,
    "\u25810x5265": 2917,
    "\u25810x1211fc8": 2918,
    "instruction": 2919,
    "95c": 2920,
    "d9c": 2921,
    "\u25810x1b5": 2922,
    "\u25810x4603": 2923,
    "\u2581update": 2924,
    "lipboardf": 2925,
    "\u25810x40a3d1": 2926,
    "\u25810x40a3d2": 2927,
    "\u25810x40a3d3": 2928,
    "\u25810xfeee0055": 2929,
    "os": 2930,
    "a24": 2931,
    "\u2581shellexecute": 2932,
    "quiresrwlockexclusive": 2933,
    "fb4": 2934,
    "\u25810xfeee0050": 2935,
    "\u25810xfeee005e": 2936,
    "f1d": 2937,
    "valuea": 2938,
    "\u25810x414": 2939,
    "\u25810x1211fc4": 2940,
    "1c8": 2941,
    "e1a": 2942,
    "\u25810xfeee004e": 2943,
    "\u2581getfileattributesa": 2944,
    "etype": 2945,
    "\u25810x1009": 2946,
    "lect": 2947,
    "\u2581437": 2948,
    "\u25810x96": 2949,
    "\u25810x110": 2950,
    "\u25810x4196": 2951,
    "\u25810x12117c8": 2952,
    "781": 2953,
    "bd8": 2954,
    "952e8": 2955,
    "\u25810xfeee0054": 2956,
    "6d4": 2957,
    "9e8": 2958,
    "a5c": 2959,
    "hook": 2960,
    "echeck": 2961,
    "\u25810x10b": 2962,
    "\u2581getfull": 2963,
    "\u2581regdelete": 2964,
    "\u25810xfeee004f": 2965,
    "ff40": 2966,
    "\u25810xbe": 2967,
    "\u2581sept": 2968,
    "918": 2969,
    "\u2581sep": 2970,
    "\u25810x411c": 2971,
    "\u25810xffbb": 2972,
    "\u25810xffbd": 2973,
    "\u25810xffbe": 2974,
    "\u25810xfeee0053": 2975,
    "\u2581sldrl6660drl6660drl6660drl6660drl6660drl6660drl6660drl6660": 2976,
    "a87": 2977,
    "cre": 2978,
    "e89": 2979,
    "\u25810xac": 2980,
    "\u25810x4066": 2981,
    "\u25810x7c90": 2982,
    "\u25810xffb8": 2983,
    "\u25810xffb9": 2984,
    "\u25810xffbc": 2985,
    "\u2581append": 2986,
    "\u25810xfeee0052": 2987,
    "d46": 2988,
    "\u2581x0": 2989,
    "\u25810xffba": 2990,
    "\u25810xfeee0064": 2991,
    "\u25813": 2992,
    "\u2581loc": 2993,
    "urity": 2994,
    "\u25810x409e": 2995,
    "\u25810xffb7": 2996,
    "\u25810xfeee0051": 2997,
    "00d": 2998,
    "\u25810x3f4": 2999,
    "\u25810x40a2": 3000,
    "\u25810xfffd": 3001,
    "\u25810x40a3d4": 3002,
    "d47": 3003,
    "\u25810x7060": 3004,
    "\u25810x88c0": 3005,
    "\u25810xffb6": 3006,
    "\u25810x1211e28": 3007,
    "\u25810x1211f18": 3008,
    "\u25810xfeee0056": 3009,
    "\u25810xfeee0057": 3010,
    "\u25810xfeee005c": 3011,
    "fa6": 3012,
    "\u25810x44c": 3013,
    "\u25810xfffc": 3014,
    "\u25810x1210c": 3015,
    "\u2581localiz": 3016,
    "\u2581localization": 3017,
    "201": 3018,
    "7c4": 3019,
    "\u25810x7ed": 3020,
    "doffile": 3021,
    "\u25810xfeee005f": 3022,
    "\u2581setendoffile": 3023,
    "920": 3024,
    "f7c": 3025,
    "af3": 3026,
    "d06": 3027,
    "d43": 3028,
    "db5": 3029,
    "\u25810x6c": 3030,
    "\u25810xffe5": 3031,
    "346": 3032,
    "66c": 3033,
    "7c7": 3034,
    "888": 3035,
    "\u25810xffbf": 3036,
    "\u25810xffe2": 3037,
    "\u25810x5265e": 3038,
    "\u25810xfeee0063": 3039,
    "\u25810xfeee0065": 3040,
    "fd7": 3041,
    "hot": 3042,
    "une": 3043,
    "\u2581feb": 3044,
    "bound": 3045,
    "econd": 3046,
    "\u25810x78d0": 3047,
    "\u25810xffb5": 3048,
    "\u25810x461518": 3049,
    "\u25810x4af460": 3050,
    "\u25810xfeee0058": 3051,
    "a41": 3052,
    "add": 3053,
    "f084": 3054,
    "\u25810x364": 3055,
    "\u25810x7a4": 3056,
    "\u25810xfffb": 3057,
    "\u25810x12110": 3058,
    "\u25810xfeee0059": 3059,
    "\u25810xfeee005a": 3060,
    "\u25810xfeee005b": 3061,
    "145": 3062,
    "60e0": 3063,
    "variant": 3064,
    "\u25810x1005": 3065,
    "\u25810x7a50": 3066,
    "\u25810x1211e2c": 3067,
    "conditionvariable": 3068,
    "d38": 3069,
    "\u2581ie": 3070,
    "face": 3071,
    "tober": 3072,
    "\u2581febr": 3073,
    "\u25810x478": 3074,
    "\u2581april": 3075,
    "\u2581august": 3076,
    "\u2581november": 3077,
    "\u2581september": 3078,
    "\u25810xfeee0068": 3079,
    "406": 3080,
    "7ce": 3081,
    "\u25810x92": 3082,
    "\u2581regenum": 3083,
    "\u25810xfeee0060": 3084,
    "645": 3085,
    "774": 3086,
    "d55": 3087,
    "unlock": 3088,
    "\u25810x604": 3089,
    "\u2581getlocaltime": 3090,
    "d2c": 3091,
    "df8": 3092,
    "\u2581em": 3093,
    "\u2581oct": 3094,
    "\u2581wak": 3095,
    "\u25810x7690": 3096,
    "econditionvariable": 3097,
    "7c1": 3098,
    "285c": 3099,
    "\u25810x86": 3100,
    "\u2581evie": 3101,
    "\u25810x40a3d5": 3102,
    "\u25810x40a3d6": 3103,
    "\u25810x40a3d7": 3104,
    "\u25810xfeee0061": 3105,
    "\u25810xfeee0069": 3106,
    "1de": 3107,
    "8e8": 3108,
    "b7c": 3109,
    "par": 3110,
    "972c": 3111,
    "\u2581vie": 3112,
    "help32": 3113,
    "\u25810xffe6": 3114,
    "oolhelp32": 3115,
    "\u25810xfeee0062": 3116,
    "\u25810xfeee0066": 3117,
    "ae2": 3118,
    "aec": 3119,
    "lec": 3120,
    "2c8c": 3121,
    "3cd8": 3122,
    "meta": 3123,
    "apshot": 3124,
    "\u25810x52662": 3125,
    "\u2581getdriv": 3126,
    "\u25810x10000000": 3127,
    "\u25810xfeee005d": 3128,
    "\u2581getdrivetype": 3129,
    "d1e5": 3130,
    "exitco": 3131,
    "\u2581getexitco": 3132,
    "oolhelp32sn": 3133,
    "\u2581createtoolhelp32sn": 3134,
    "informa": 3135,
    "\u25810x41ce": 3136,
    "1bc": 3137,
    "nam": 3138,
    "\u25810x7b40": 3139,
    "\u25810x406698": 3140,
    "\u2581getdiskfreespaceexa": 3141,
    "105": 3142,
    "5f0": 3143,
    "955": 3144,
    "\u25810xffb4": 3145,
    "\u25810xfeee0067": 3146,
    "\u2581createtoolhelp32snapshot": 3147,
    "20a": 3148,
    "eni": 3149,
    "6cbe": 3150,
    "\u25810x1211e1c": 3151,
    "ialog": 3152,
    "security": 3153,
    "\u25810x1211fbc": 3154,
    "12c": 3155,
    "187": 3156,
    "dd1": 3157,
    "\u2581div": 3158,
    "\u25810x77e0": 3159,
    "\u2581lstrcmpi": 3160,
    "745": 3161,
    "d34": 3162,
    "hore": 3163,
    "\u25817z2": 3164,
    "\u25817z8": 3165,
    "\u25817z30": 3166,
    "bitmap": 3167,
    "\u25810xfffa": 3168,
    "\u2581registerclipboardf": 3169,
    "lt": 3170,
    "31c": 3171,
    "77e": 3172,
    "a0c": 3173,
    "69c0": 3174,
    "stat": 3175,
    "\u25810xab": 3176,
    "110": 3177,
    "c8b": 3178,
    "ebc": 3179,
    "lon": 3180,
    "uly": 3181,
    "\u2581po": 3182,
    "d1b4": 3183,
    "\u2581lstrc": 3184,
    "\u25810x4300": 3185,
    "\u2581getmenu": 3186,
    "\u25810x12116c0": 3187,
    "\u2581process32next": 3188,
    "32a": 3189,
    "dd8": 3190,
    "ged": 3191,
    "index": 3192,
    "anuary": 3193,
    "\u2581march": 3194,
    "\u2581strlen": 3195,
    "\u2581october": 3196,
    "\u2581december": 3197,
    "\u2581february": 3198,
    "ce5": 3199,
    "f17": 3200,
    "ola": 3201,
    "status": 3202,
    "\u25810x437038": 3203,
    "006": 3204,
    "20c": 3205,
    "96c": 3206,
    "daa": 3207,
    "oom": 3208,
    "keyw": 3209,
    "sser": 3210,
    "\u2581thu": 3211,
    "nesday": 3212,
    "\u25810x74e0": 3213,
    "\u2581monday": 3214,
    "\u2581regset": 3215,
    "\u2581sunday": 3216,
    "\u2581appendw": 3217,
    "\u2581tuesday": 3218,
    "\u25810x4540b0": 3219,
    "\u2581wednesday": 3220,
    "943": 3221,
    "een": 3222,
    "long": 3223,
    "failed": 3224,
    "ursday": 3225,
    "\u25810x537": 3226,
    "\u25810x5b2b": 3227,
    "\u25810x7f80": 3228,
    "\u2581thursday": 3229,
    "238": 3230,
    "3c5": 3231,
    "las": 3232,
    "iday": 3233,
    "\u2581fri": 3234,
    "specw": 3235,
    "urday": 3236,
    "\u25810x7750": 3237,
    "\u25810x7910": 3238,
    "\u25810xffa0": 3239,
    "\u2581friday": 3240,
    "\u25810x4af478": 3241,
    "\u2581saturday": 3242,
    "ym": 3243,
    "445": 3244,
    "d60": 3245,
    "pri": 3246,
    "14c8": 3247,
    "\u25810x160": 3248,
    "\u2581outof": 3249,
    "\u25810x8230": 3250,
    "\u25810xffa1": 3251,
    "operation": 3252,
    "\u25810x1211edc": 3253,
    "802": 3254,
    "\u25810x8814": 3255,
    "priority": 3256,
    "\u25810xfeee006b": 3257,
    "\u2581removefile": 3258,
    "\u2581outofmemory": 3259,
    "aad": 3260,
    "\u2581qa": 3261,
    "f062": 3262,
    "\u25810xffa2": 3263,
    "sessionid": 3264,
    "\u2581findnextfilea": 3265,
    "eek": 3266,
    "pla": 3267,
    "\u25810xad": 3268,
    "\u2581removefilespecw": 3269,
    "\u2581getfileinformationby": 3270,
    "ns": 3271,
    "649": 3272,
    "\u2581ws2": 3273,
    "cp": 3274,
    "158": 3275,
    "\u25810x4c10": 3276,
    "\u2581wtsapi32": 3277,
    "02": 3278,
    "\u2581y": 3279,
    "7d8": 3280,
    "98e": 3281,
    "ret": 3282,
    "able": 3283,
    "bc88": 3284,
    "\u25810x2d4": 3285,
    "\u25810xffcd": 3286,
    "\u2581exception": 3287,
    "\u25810xfeee0070": 3288,
    "115": 3289,
    "aa8": 3290,
    "74f7": 3291,
    "\u2581con": 3292,
    "\u25810x1211d50": 3293,
    "\u2581interface": 3294,
    "\u25810xfeee006a": 3295,
    "58a": 3296,
    "bcd4": 3297,
    "\u25810x432": 3298,
    "\u25810x7d27": 3299,
    "\u25810xffa3": 3300,
    "\u25810xffe7": 3301,
    "\u25810x1211f34": 3302,
    "\u25810xfeee0077": 3303,
    "138": 3304,
    "785": 3305,
    "d678": 3306,
    "\u25810x5f": 3307,
    "\u25810x9b": 3308,
    "\u25810x8815": 3309,
    "\u25810x401000": 3310,
    "\u25810xfffffffc": 3311,
    "730": 3312,
    "a0e": 3313,
    "d14": 3314,
    "d26": 3315,
    "35e4": 3316,
    "zone": 3317,
    "\u2581cqa": 3318,
    "linkw": 3319,
    "\u2581scqa": 3320,
    "\u2581pscqa": 3321,
    "\u2581registerwindowmessagew": 3322,
    "910": 3323,
    "fc6": 3324,
    "fcc": 3325,
    "6604": 3326,
    "\u25810x2100210": 3327,
    "\u2581gettimezone": 3328,
    "\u2581gettimezoneinformation": 3329,
    "164": 3330,
    "a1c": 3331,
    "b56": 3332,
    "b81c": 3333,
    "ecall": 3334,
    "\u25810xfeee019": 3335,
    "\u25810xfeee0079": 3336,
    "58b": 3337,
    "805": 3338,
    "9bc": 3339,
    "b9b": 3340,
    "3915": 3341,
    "dfdc": 3342,
    "\u25810xa5": 3343,
    "\u25810x40a0": 3344,
    "\u25810x6ab8": 3345,
    "\u25810x72d0": 3346,
    "\u25810x75d0": 3347,
    "\u2581globalunlock": 3348,
    "\u25810xffcf": 3349,
    "\u25810xfeee006c": 3350,
    "\u2581gettimeform": 3351,
    "6f1": 3352,
    "\u25810xffa4": 3353,
    "\u25810xffb0": 3354,
    "\u25810xffb3": 3355,
    "\u25810xffce": 3356,
    "\u25810x7c000000": 3357,
    "\u25810xfeee006e": 3358,
    "\u2581createmutex": 3359,
    "692": 3360,
    "be7": 3361,
    "ec5": 3362,
    "\u2581inte": 3363,
    "\u2581asser": 3364,
    "afecall": 3365,
    "\u25810x7210": 3366,
    "\u2581lstrcata": 3367,
    "\u25815": 3368,
    "902": 3369,
    "993": 3370,
    "b66": 3371,
    "cad": 3372,
    "hed": 3373,
    "block": 3374,
    "\u25810x181c": 3375,
    "exception": 3376,
    "\u25810x1211ddc": 3377,
    "\u25810xfeee006f": 3378,
    "\u25810xfeee0078": 3379,
    "390": 3380,
    "5d0": 3381,
    "ins": 3382,
    "\u2581exp": 3383,
    "\u25810xffb1": 3384,
    "kg": 3385,
    "604": 3386,
    "f14": 3387,
    "1882": 3388,
    "2020": 3389,
    "2c82": 3390,
    "viola": 3391,
    "ternal": 3392,
    "\u25810x7ae0": 3393,
    "\u25810xffb2": 3394,
    "\u25810x1211ad4": 3395,
    "b8e": 3396,
    "d05": 3397,
    "oem": 3398,
    "load": 3399,
    "\u25810x1d4": 3400,
    "\u25810x7b90": 3401,
    "\u25810x1211c08": 3402,
    "\u25810xfeee006d": 3403,
    "\u25810xfeee007a": 3404,
    "ro": 3405,
    "3f5": 3406,
    "b8c": 3407,
    "\u25810x7030": 3408,
    "\u25810x5265f": 3409,
    "\u25810xfeee0076": 3410,
    "\u25810xfeee007b": 3411,
    "informationa": 3412,
    "1f0": 3413,
    "9de": 3414,
    "e3a": 3415,
    "\u2581stack": 3416,
    "\u2581privile": 3417,
    "\u25810x43a4c8": 3418,
    "\u2581getenvironmentstring": 3419,
    "\u2581getwindowsdirectoryw": 3420,
    "9b6": 3421,
    "9f0": 3422,
    "12b8": 3423,
    "9228": 3424,
    "\u25810x584": 3425,
    "\u25810x7bf0": 3426,
    "18a": 3427,
    "5c9": 3428,
    "906": 3429,
    "edu": 3430,
    "39fa2": 3431,
    "reque": 3432,
    "\u25810x700": 3433,
    "procedu": 3434,
    "\u25810x45b1": 3435,
    "\u2581integer": 3436,
    "\u2581assertion": 3437,
    "\u2581createpalette": 3438,
    "a68": 3439,
    "f000": 3440,
    "fa44": 3441,
    "styp": 3442,
    "found": 3443,
    "\u2581disk": 3444,
    "\u25810xfeee0071": 3445,
    "\u25810xfeee0074": 3446,
    "97c": 3447,
    "dc3": 3448,
    "df9": 3449,
    "24ac": 3450,
    "acti": 3451,
    "bcb8": 3452,
    "\u2581send": 3453,
    "changet": 3454,
    "\u25810x7600": 3455,
    "\u25810xffa5": 3456,
    "\u25810xffe3": 3457,
    "privilege": 3458,
    "\u2581getlocaleinfo": 3459,
    "\u2581variantchanget": 3460,
    "\u25810x42eb": 3461,
    "\u25810x7660": 3462,
    "\u25810x8090": 3463,
    "\u25810xffa6": 3464,
    "\u25810x1210dec": 3465,
    "\u25810xfeee0073": 3466,
    "\u2581accessviola": 3467,
    "\u2581getvolumeinformationa": 3468,
    "\u2581getenvironmentvariablew": 3469,
    "a0b": 3470,
    "18d5": 3471,
    "8c5f": 3472,
    "febc": 3473,
    "calls": 3474,
    "1e8": 3475,
    "3b9": 3476,
    "a94": 3477,
    "cf7": 3478,
    "2ca4": 3479,
    "\u25810xc0": 3480,
    "\u25810x226": 3481,
    "\u25810x7cf0": 3482,
    "\u25810xffa7": 3483,
    "stringex": 3484,
    "\u2581comparestringex": 3485,
    "\u2581getlocaleinfoex": 3486,
    "f39": 3487,
    "\u25810x28c": 3488,
    "\u25810x7240": 3489,
    "\u25810xfeee0072": 3490,
    "3e0": 3491,
    "5f6": 3492,
    "aca": 3493,
    "any": 3494,
    "80d8": 3495,
    "\u25810x62": 3496,
    "\u25810x44d5": 3497,
    "\u25810x1211d8c": 3498,
    "916": 3499,
    "dec5b": 3500,
    "barcad": 3501,
    "\u25810x44d2": 3502,
    "\u25810x47e0": 3503,
    "\u25810x7390": 3504,
    "\u25810xfff9": 3505,
    "barcadero": 3506,
    "insafecall": 3507,
    "\u25810x1211f5c": 3508,
    "\u2581charpreva": 3509,
    "\u25810xfeee0075": 3510,
    "\u25810xfeee007c": 3511,
    "\u2581embarcadero": 3512,
    "\u2581gettempfilename": 3513,
    "\u2581exceptioninsafecall": 3514,
    "28c": 3515,
    "7b7": 3516,
    "deni": 3517,
    "\u25810xffc6": 3518,
    "\u25810x40f660": 3519,
    "\u2581getenvironmentstrings": 3520,
    "152": 3521,
    "sid": 3522,
    "sti": 3523,
    "\u25810x7870": 3524,
    "notfound": 3525,
    "\u2581external": 3526,
    "vironmentblock": 3527,
    "gn": 3528,
    "eb4": 3529,
    "ont": 3530,
    "30ec": 3531,
    "ccess": 3532,
    "\u25810x76f0": 3533,
    "\u25810xffcb": 3534,
    "\u25810xfeee0094": 3535,
    "\u2581shgetfileinfoa": 3536,
    "1af": 3537,
    "352": 3538,
    "962": 3539,
    "ond": 3540,
    "3382": 3541,
    "ecast": 3542,
    "\u25810x40a6": 3543,
    "\u25810x75a0": 3544,
    "\u25810x50850": 3545,
    "\u25810x1211790": 3546,
    "\u25810x1211ec8": 3547,
    "\u2581showwindow": 3548,
    "a65": 3549,
    "b94": 3550,
    "\u25810xf0": 3551,
    "\u25810x5ab0": 3552,
    "\u25810x76c0": 3553,
    "\u25810x7720": 3554,
    "\u25810xffcc": 3555,
    "\u25810x7ee000": 3556,
    "366": 3557,
    "91e": 3558,
    "gra": 3559,
    "53a0": 3560,
    "argument": 3561,
    "\u25810x7f8002": 3562,
    "\u25810x7f8010": 3563,
    "\u25810xfeedf0": 3564,
    "\u2581privileged": 3565,
    "\u2581floatingpoint": 3566,
    "ad8": 3567,
    "b04": 3568,
    "inst": 3569,
    "\u25810x4364": 3570,
    "\u25810x4aa0": 3571,
    "creating": 3572,
    "leaccess": 3573,
    "\u25810x12108": 3574,
    "\u2581movefilew": 3575,
    "pointeroperation": 3576,
    "\u2581assertionfailed": 3577,
    "9f7": 3578,
    "tes": 3579,
    "503c": 3580,
    "clas": 3581,
    "f435": 3582,
    "gram": 3583,
    "outof": 3584,
    "\u2581chit": 3585,
    "\u2581rang": 3586,
    "\u2581toom": 3587,
    "bounds": 3588,
    "anyopen": 3589,
    "\u25810x7b10": 3590,
    "\u25810x7ba0": 3591,
    "classtyp": 3592,
    "floating": 3593,
    "indexoutof": 3594,
    "echeckerror": 3595,
    "anyopenfiles": 3596,
    "callsnotsuped": 3597,
    "classtypecast": 3598,
    "pointoverflow": 3599,
    "divisionbyzero": 3600,
    "floatingpointo": 3601,
    "\u2581errorcreating": 3602,
    "\u2581divisionbyzero": 3603,
    "indexoutofbounds": 3604,
    "\u2581integeroverflow": 3605,
    "\u2581invalidfilename": 3606,
    "\u2581rangecheckerror": 3607,
    "\u2581toomanyopenfiles": 3608,
    "\u2581externalexception": 3609,
    "\u2581interfacenotsuped": 3610,
    "\u2581errorcreatingvariant": 3611,
    "\u2581variantcallsnotsuped": 3612,
    "floatingpointoperation": 3613,
    "\u2581floatingpointoverflow": 3614,
    "\u2581floatingpointdivisionbyzero": 3615,
    "\u2581invalidfloatingpointoperation": 3616,
    "bey": 3617,
    "f75": 3618,
    "54ba": 3619,
    "ttyp": 3620,
    "tund": 3621,
    "\u25810x59": 3622,
    "beyond": 3623,
    "denied": 3624,
    "numeric": 3625,
    "\u25810xffa8": 3626,
    "pointund": 3627,
    "ttypecon": 3628,
    "beyondend": 3629,
    "\u25810x437800": 3630,
    "\u2581diskfull": 3631,
    "toperation": 3632,
    "\u25810x1211e98": 3633,
    "\u2581fileaccess": 3634,
    "numericinput": 3635,
    "pointunderflow": 3636,
    "\u2581readbeyondend": 3637,
    "\u2581stackoverflow": 3638,
    "ttypeconversion": 3639,
    "\u2581fileaccessdenied": 3640,
    "\u2581setfileattributesa": 3641,
    "\u2581invalidnumericinput": 3642,
    "\u2581readbeyondendoffile": 3643,
    "\u2581invalidclasstypecast": 3644,
    "\u2581privilegedinstruction": 3645,
    "\u2581floatingpointunderflow": 3646,
    "\u2581invalidpointeroperation": 3647,
    "\u2581invalidvariantoperation": 3648,
    "\u2581invalidvarianttypeconversion": 3649,
    "15f": 3650,
    "540": 3651,
    "bfc": 3652,
    "d5f7": 3653,
    "conso": 3654,
    "texta": 3655,
    "ormata": 3656,
    "402": 3657,
    "658": 3658,
    "397": 3659,
    "40d": 3660,
    "cc6": 3661,
    "e69": 3662,
    "mod": 3663,
    "\u25810x5b": 3664,
    "\u25810x7a20": 3665,
    "\u25810xffa9": 3666,
    "765": 3667,
    "978": 3668,
    "d0f": 3669,
    "2482": 3670,
    "ac2d": 3671,
    "d6ec": 3672,
    "package": 3673,
    "\u25810x7180": 3674,
    "metafile": 3675,
    "92e": 3676,
    "9a6": 3677,
    "fc5": 3678,
    "\u25810x7aa": 3679,
    "\u25810x181b": 3680,
    "\u25810x407b": 3681,
    "\u25810x71e0": 3682,
    "\u25810x7e00": 3683,
    "\u25810x40b4": 3684,
    "bk": 3685,
    "128": 3686,
    "1c4": 3687,
    "6a3": 3688,
    "14de": 3689,
    "e000": 3690,
    "\u25810x40a5bc": 3691,
    "d10": 3692,
    "\u25810x424": 3693,
    "\u25810x435024": 3694,
    "\u25810x435026": 3695,
    "\u25810x435032": 3696,
    "354": 3697,
    "a30": 3698,
    "blt": 3699,
    "\u2581wm": 3700,
    "\u25810x7990": 3701,
    "\u25810x1211d4c": 3702,
    "\u25810xfeee0081": 3703,
    "2b0": 3704,
    "3880": 3705,
    "59f0": 3706,
    "\u25810x4d5": 3707,
    "\u25810x7570": 3708,
    "packageid": 3709,
    "\u25810xfeee007d": 3710,
    "\u2581getcurrentpackageid": 3711,
    "\u2581registerclipboardformata": 3712,
    "wh": 3713,
    "vis": 3714,
    "c0f0": 3715,
    "\u25810x4a40": 3716,
    "\u25810x77b0": 3717,
    "\u25810x1211d60": 3718,
    "\u25810xfeee007e": 3719,
    "\u2581regqueryvalueexa": 3720,
    "234": 3721,
    "ee2": 3722,
    "37ad": 3723,
    "6684": 3724,
    "ymbo": 3725,
    "\u25810x91": 3726,
    "\u25810x59e": 3727,
    "ymbolic": 3728,
    "\u25810x4770": 3729,
    "\u25810x4a80": 3730,
    "\u25810x1211e50": 3731,
    "\u25810xfeee007f": 3732,
    "\u25810xfeee0082": 3733,
    "30f": 3734,
    "348": 3735,
    "ed24": 3736,
    "f200": 3737,
    "rl6660d": 3738,
    "\u25810x7480": 3739,
    "\u25810x74b0": 3740,
    "\u25810x3f4000": 3741,
    "\u25810x1210e34": 3742,
    "b90": 3743,
    "e92": 3744,
    "f5c": 3745,
    "de37": 3746,
    "\u25810x7510": 3747,
    "\u25810xfeee0086": 3748,
    "ymboliclinkw": 3749,
    "\u2581createsymboliclinkw": 3750,
    "19b": 3751,
    "ow64": 3752,
    "\u25810xffaa": 3753,
    "\u25810xffca": 3754,
    "\u25810xfeee0080": 3755,
    "6c5": 3756,
    "ncy": 3757,
    "da26": 3758,
    "ypeex": 3759,
    "\u25810x7360": 3760,
    "\u25810x7840": 3761,
    "cefreque": 3762,
    "\u25810x1211a30": 3763,
    "cefrequency": 3764,
    "\u2581variantchangetypeex": 3765,
    "\u2581queryperformancefrequency": 3766,
    "404": 3767,
    "eec": 3768,
    "ert": 3769,
    "\u25810x70c0": 3770,
    "\u25810x7330": 3771,
    "\u25810x44000": 3772,
    "\u25810xfeee0083": 3773,
    "\u25810xfeee0087": 3774,
    "102": 3775,
    "1c2": 3776,
    "907": 3777,
    "954": 3778,
    "df5": 3779,
    "e2c": 3780,
    "e70": 3781,
    "50f4": 3782,
    "e8ca": 3783,
    "f8e7": 3784,
    "when": 3785,
    "\u25810x46b": 3786,
    "\u25810x4b80": 3787,
    "\u25810xfff8": 3788,
    "pip": 3789,
    "\u2581be": 3790,
    "\u25810x83": 3791,
    "windowproc": 3792,
    "922": 3793,
    "eb7": 3794,
    "74f9": 3795,
    "a064": 3796,
    "f3ed": 3797,
    "urns": 3798,
    "horeexw": 3799,
    "returns": 3800,
    "\u25810x4195": 3801,
    "\u25810x7450": 3802,
    "\u25810xffc7": 3803,
    "ornumber": 3804,
    "poolwait": 3805,
    "callbacks": 3806,
    "processwrite": 3807,
    "whencallback": 3808,
    "\u2581waitforthread": 3809,
    "pooltimercallbacks": 3810,
    "\u2581flushprocesswrite": 3811,
    "\u2581setthreadpoolwait": 3812,
    "whencallbackreturns": 3813,
    "\u2581createsemaphoreexw": 3814,
    "\u2581setthreadpooltimer": 3815,
    "\u2581closethreadpoolwait": 3816,
    "\u2581closethreadpooltimer": 3817,
    "\u2581createthreadpoolwait": 3818,
    "\u2581createthreadpooltimer": 3819,
    "\u2581flushprocesswritebuffers": 3820,
    "\u2581getcurrentprocessornumber": 3821,
    "\u2581freelibrarywhencallbackreturns": 3822,
    "\u2581waitforthreadpooltimercallbacks": 3823,
    "5df": 3824,
    "b23": 3825,
    "e38": 3826,
    "\u25810x6d": 3827,
    "\u25810xfff7": 3828,
    "\u25810xfeee0084": 3829,
    "\u25810xfeee0085": 3830,
    "258": 3831,
    "328": 3832,
    "931": 3833,
    "gex": 3834,
    "pkg": 3835,
    "\u25810xac0": 3836,
    "\u2581strcmp": 3837,
    "\u2581createwindowexa": 3838,
    "5cb": 3839,
    "6c9": 3840,
    "neg": 3841,
    "1f45": 3842,
    "6088": 3843,
    "\u25810x4e2": 3844,
    "\u25810x4e00": 3845,
    "\u2581module": 3846,
    "\u2581release": 3847,
    "\u25810x1211e24": 3848,
    "\u25810x1211eac": 3849,
    "\u2581tsldrl666": 3850,
    "b87": 3851,
    "mul": 3852,
    "xor": 3853,
    "1cfd": 3854,
    "5234": 3855,
    "idiv": 3856,
    "stitu": 3857,
    "\u25810xa9": 3858,
    "\u2581varcy": 3859,
    "\u2581varor": 3860,
    "\u2581varr8": 3861,
    "\u25810x7120": 3862,
    "\u2581varadd": 3863,
    "\u2581varand": 3864,
    "\u2581varcmp": 3865,
    "\u2581vardiv": 3866,
    "\u2581varmod": 3867,
    "\u2581varmul": 3868,
    "\u2581varneg": 3869,
    "\u2581varnot": 3870,
    "\u2581varsub": 3871,
    "\u2581varxor": 3872,
    "\u2581varbool": 3873,
    "\u2581vardate": 3874,
    "\u2581varidiv": 3875,
    "\u2581varcyfromstr": 3876,
    "\u2581vari4fromstr": 3877,
    "\u2581varr4fromstr": 3878,
    "\u2581varr8fromstr": 3879,
    "\u2581varbstrfromcy": 3880,
    "\u2581varboolfromstr": 3881,
    "\u2581vardatefromstr": 3882,
    "\u2581varbstrfrombool": 3883,
    "\u2581varbstrfromdate": 3884,
    "5f8": 3885,
    "cid": 3886,
    "d88": 3887,
    "\u2581font": 3888,
    "\u25810x4227": 3889,
    "\u25810x73c0": 3890,
    "\u25810x79c0": 3891,
    "stitutes": 3892,
    "\u2581fontsub": 3893,
    "rlhandler": 3894,
    "\u2581module32": 3895,
    "\u2581fontsubstitutes": 3896,
    "6b2": 3897,
    "997": 3898,
    "a86": 3899,
    "b3b": 3900,
    "\u25810x7420": 3901,
    "\u25810x7630": 3902,
    "\u25810xfeee0088": 3903,
    "\u25810xfeee0089": 3904,
    "\u25810xfeee008c": 3905,
    "\u2581enumsystem": 3906,
    "642": 3907,
    "dlg": 3908,
    "45a2": 3909,
    "\u25810x442": 3910,
    "\u2581memset": 3911,
    "\u25810x11000": 3912,
    "\u25810x77000": 3913,
    "\u25810x1211d08": 3914,
    "\u2581getthreadpreferreduilanguages": 3915,
    "a06": 3916,
    "esst": 3917,
    "processt": 3918,
    "\u25810xfeee008a": 3919,
    "\u25810xfeee008b": 3920,
    "36b": 3921,
    "536c": 3922,
    "d000": 3923,
    "fc1b": 3924,
    "a84f1": 3925,
    "\u25810x4175": 3926,
    "\u25810x42a402": 3927,
    "\u25810x42a410": 3928,
    "5bc": 3929,
    "30c4": 3930,
    "deee": 3931,
    "f7f0": 3932,
    "\u25810xfeee008e": 3933,
    "\u2581messageboxw": 3934,
    "3ba": 3935,
    "9d6": 3936,
    "b8bc": 3937,
    "edcc": 3938,
    "affin": 3939,
    "itymask": 3940,
    "\u25810x41f750": 3941,
    "\u25810x1211e8c": 3942,
    "affinitymask": 3943,
    "1a8": 3944,
    "7ea": 3945,
    "5920": 3946,
    "a000": 3947,
    "lead": 3948,
    "\u25810x184": 3949,
    "\u25810x7960": 3950,
    "\u25810x41f6c0": 3951,
    "\u25810x41f780": 3952,
    "126": 3953,
    "2f5": 3954,
    "685": 3955,
    "ere": 3956,
    "64c0": 3957,
    "ceex": 3958,
    "\u25810x205": 3959,
    "\u25810x70f0": 3960,
    "\u25810x7e80": 3961,
    "\u25810x410acd": 3962,
    "\u25810x410ace": 3963,
    "\u25810x46b188": 3964,
    "\u2581filenotfound": 3965,
    "747": 3966,
    "9a4": 3967,
    "db44": 3968,
    "3d1cc": 3969,
    "class": 3970,
    "\u25810x7b70": 3971,
    "validate": 3972,
    "\u2581heapvalidate": 3973,
    "\u2581gettickcount64": 3974,
    "7a8": 3975,
    "c2b": 3976,
    "\u2581comm": 3977,
    "\u25810x4b40": 3978,
    "valueexw": 3979,
    "\u25810x100300": 3980,
    "\u25810x40a58c": 3981,
    "723": 3982,
    "mbb": 3983,
    "bits": 3984,
    "\u2581def": 3985,
    "\u2581ismbb": 3986,
    "\u25810x44c4": 3987,
    "\u25810xffc8": 3988,
    "\u25810xffec": 3989,
    "\u25810x4e2de0": 3990,
    "\u2581ismbblead": 3991,
    "14f": 3992,
    "e794": 3993,
    "ba104": 3994,
    "printf": 3995,
    "\u25810x41d8": 3996,
    "\u25810x40a230": 3997,
    "\u25810x42c0e0": 3998,
    "b3e": 3999,
    "7e68": 4000,
    "8082": 4001,
    "e488": 4002,
    "eedf": 4003,
    "\u25810x40f5": 4004,
    "\u25810x78f0": 4005,
    "\u25810x7de8": 4006,
    "\u25810x7de9": 4007,
    "\u2581runtime": 4008,
    "\u2581getcurrentdirectoryw": 4009,
    "\u2581acquiresrwlockexclusive": 4010,
    "3f0": 4011,
    "sum": 4012,
    "1800": 4013,
    "\u25810xd8": 4014,
    "\u25810xffc5": 4015,
    "\u25810x10021f": 4016,
    "\u25810x40a57c": 4017,
    "\u25810x584d24": 4018,
    "\u25810x1210e30": 4019,
    "\u25810x1211cb8": 4020,
    "\u25810xfeee008d": 4021,
    "\u2581getcomputernamea": 4022,
    "db3": 4023,
    "1de0": 4024,
    "f738": 4025,
    "\u25810x51": 4026,
    "\u2581reset": 4027,
    "\u25810x7780": 4028,
    "a63": 4029,
    "bd0": 4030,
    "bdc": 4031,
    "ea2": 4032,
    "scri": 4033,
    "\u25810x7c000": 4034,
    "uilanguage": 4035,
    "\u2581setthreadlocale": 4036,
    "b3c": 4037,
    "b4c": 4038,
    "20be": 4039,
    "78d7": 4040,
    "b354": 4041,
    "\u25810x9a": 4042,
    "\u25810x412": 4043,
    "\u25810x1211f10": 4044,
    "\u2581openprocess": 4045,
    "\u2581shellexecutew": 4046,
    "a83": 4047,
    "d70": 4048,
    "e9c": 4049,
    "ist": 4050,
    "ac18": 4051,
    "e7e7": 4052,
    "edit": 4053,
    "\u2581regedit": 4054,
    "fx": 4055,
    "a730": 4056,
    "\u25810xde": 4057,
    "\u25819": 4058,
    "a7c": 4059,
    "af6": 4060,
    "d7c": 4061,
    "fb6": 4062,
    "net": 4063,
    "e423": 4064,
    "f8e4": 4065,
    "oken": 4066,
    "\u25810x54a8": 4067,
    "\u25810xffc9": 4068,
    "\u25810x121178c": 4069,
    "\u25810xfeedf200": 4070,
    "5e8": 4071,
    "60577": 4072,
    "\u25810x99a0": 4073,
    "\u25810xffd3": 4074,
    "3c2": 4075,
    "d07": 4076,
    "e9a": 4077,
    "da1c": 4078,
    "f668": 4079,
    "service": 4080,
    "\u25810x4609": 4081,
    "\u25810x7b00": 4082,
    "\u2581getoem": 4083,
    "allocate": 4084,
    "\u25810x421708": 4085,
    "9880": 4086,
    "annot": 4087,
    "\u25810xfeee0097": 4088,
    "376": 4089,
    "919": 4090,
    "e5c": 4091,
    "enh": 4092,
    "\u2581getoemcp": 4093,
    "\u2581getprocessaffinitymask": 4094,
    "\u2581getenvironmentvariablea": 4095,
    "24c": 4096,
    "97b": 4097,
    "af1": 4098,
    "ce7": 4099,
    "8884": 4100,
    "atch": 4101,
    "\u25810x4106": 4102,
    "\u25810x537500": 4103,
    "\u25810xfeee008f": 4104,
    "vironmentstringsa": 4105,
    "786": 4106,
    "bdf0": 4107,
    "ects": 4108,
    "\u2581ext": 4109,
    "fc360": 4110,
    "\u2581variantorsafearray": 4111,
    "\u2581errorcreatingvariantorsafearray": 4112,
    "\u2581variantorsafearrayindexoutofbounds": 4113,
    "f844": 4114,
    "\u25810x6f": 4115,
    "\u25810x419": 4116,
    "\u25810x350b8": 4117,
    "\u25810x409411": 4118,
    "\u25810x409412": 4119,
    "\u25810x409413": 4120,
    "\u25810x409414": 4121,
    "\u25810x409415": 4122,
    "\u25810x409416": 4123,
    "\u25810x409417": 4124,
    "\u25810x40a3e9": 4125,
    "\u25810x40a3ea": 4126,
    "\u25810x40a3eb": 4127,
    "\u25810x40a3ec": 4128,
    "\u25810x40a3ed": 4129,
    "\u25810x40a3ee": 4130,
    "\u25810x40a3ef": 4131,
    "\u25810x1000130": 4132,
    "\u25810x1211784": 4133,
    "\u25810x1211cd0": 4134,
    "\u25810x1211d2c": 4135,
    "\u2581accessviolation": 4136,
    "\u2581invalidargument": 4137,
    "7d1": 4138,
    "b70": 4139,
    "log": 4140,
    "ater": 4141,
    "fbf8": 4142,
    "\u25810x7df0": 4143,
    "\u25810x40a538": 4144,
    "\u25810x1211d7c": 4145,
    "\u25810xfeee0098": 4146,
    "processtoken": 4147,
    "\u2581openprocesstoken": 4148,
    "55e7": 4149,
    "ca54": 4150,
    "\u25810x3c0": 4151,
    "\u25810x42e": 4152,
    "\u25810x43c": 4153,
    "\u25810xffe8": 4154,
    "\u25810x12115c4": 4155,
    "\u25810x1211f44": 4156,
    "\u2581process32first": 4157,
    "964": 4158,
    "2468": 4159,
    "d310": 4160,
    "\u25810x45d3": 4161,
    "\u25810xffd2": 4162,
    "\u25810xfeedf": 4163,
    "\u2581copyfilea": 4164,
    "\u25810xfeee0090": 4165,
    "\u25810xfeee0093": 4166,
    "\u2581getdrivetypea": 4167,
    "ce1": 4168,
    "1580": 4169,
    "b47c": 4170,
    "descri": 4171,
    "\u25810x40a548": 4172,
    "\u25810x435403": 4173,
    "\u25810x435404": 4174,
    "\u25810x435405": 4175,
    "\u25810x435406": 4176,
    "\u25810xfeee0091": 4177,
    "\u25810xfeee0092": 4178,
    "d98": 4179,
    "\u25810xb7": 4180,
    "\u25810x402": 4181,
    "\u25810x1211fc0": 4182,
    "\u25810xfeee0099": 4183,
    "aa3": 4184,
    "d3e0": 4185,
    "ervic": 4186,
    "\u25810x5d": 4187,
    "\u25810x606": 4188,
    "\u25810x1210ed0": 4189,
    "\u2581regcreatekeyexa": 4190,
    "\u2581removedirectorya": 4191,
    "806": 4192,
    "edf": 4193,
    "\u25810x435407": 4194,
    "13f": 4195,
    "44c": 4196,
    "eac": 4197,
    "fed": 4198,
    "\u25810x41c": 4199,
    "\u25810x423": 4200,
    "\u25810x3000": 4201,
    "\u25810x429000": 4202,
    "informationw": 4203,
    "processmemory": 4204,
    "bfba": 4205,
    "fc54": 4206,
    "\u25810xfeee0095": 4207,
    "666": 4208,
    "b26": 4209,
    "6861": 4210,
    "\u2581end": 4211,
    "a9ef0": 4212,
    "\u25810x202": 4213,
    "\u25810x41b8": 4214,
    "\u25810x53e0": 4215,
    "\u2581tlsfree": 4216,
    "\u25810x435408": 4217,
    "\u25810x435409": 4218,
    "\u25810x43540a": 4219,
    "\u25810x43540b": 4220,
    "\u25810x43540c": 4221,
    "\u25810xfeee009a": 4222,
    "64c6": 4223,
    "leex": 4224,
    "\u2581select": 4225,
    "\u25810xfeee0096": 4226,
    "e72": 4227,
    "f07": 4228,
    "\u25810xbf": 4229,
    "\u25810x1210f70": 4230,
    "\u25810x12118f8": 4231,
    "\u25810x1211e90": 4232,
    "\u25810x1211ea0": 4233,
    "\u25810x1211fb8": 4234,
    "\u2581registerclassexa": 4235,
    "\u2581getfileinformationbyhandl": 4236,
    "845a": 4237,
    "ebad": 4238,
    "ec80": 4239,
    "f004": 4240,
    "\u25810x412c": 4241,
    "\u25810x43540d": 4242,
    "\u25810x12117ec": 4243,
    "\u2581findwindoww": 4244,
    "\u2581getvolumeinformationw": 4245,
    "996": 4246,
    "d27": 4247,
    "eall": 4248,
    "\u2581post": 4249,
    "\u25810x188": 4250,
    "leexist": 4251,
    "\u2581wakeall": 4252,
    "\u25810x566f18": 4253,
    "\u2581createexw": 4254,
    "\u2581fileexist": 4255,
    "\u2581createmutexa": 4256,
    "informationbyhandle": 4257,
    "\u2581wakeallconditionvariable": 4258,
    "\u2581setfileinformationbyhandle": 4259,
    "\u2581initializeconditionvariable": 4260,
    "381": 4261,
    "822": 4262,
    "944": 4263,
    "ce6": 4264,
    "f6c": 4265,
    "\u2581beg": 4266,
    "\u25810x4020": 4267,
    "\u25810x1210e10": 4268,
    "\u25810x1211808": 4269,
    "\u2581windowsnt": 4270,
    "\u2581mapviewoffile": 4271,
    "vm": 4272,
    "pop": 4273,
    "a088": 4274,
    "lient": 4275,
    "\u25810x43540e": 4276,
    "\u25810x43540f": 4277,
    "\u25810x12117f4": 4278,
    "\u2581comparestringw": 4279,
    "f84": 4280,
    "3477": 4281,
    "965b": 4282,
    "d3ff": 4283,
    "\u2581the": 4284,
    "\u25810x87": 4285,
    "lication": 4286,
    "\u25810x1211f54": 4287,
    "\u2581updatewindow": 4288,
    "gu": 4289,
    "ba9": 4290,
    "a120": 4291,
    "bce6": 4292,
    "d544": 4293,
    "eb80": 4294,
    "nect": 4295,
    "pipe": 4296,
    "\u25810x990": 4297,
    "\u25810x40c4": 4298,
    "\u25810x47d0": 4299,
    "\u2581lstrcmpia": 4300,
    "b028": 4301,
    "\u25810xaf": 4302,
    "\u25810x40593": 4303,
    "\u25810x1210f50": 4304,
    "88c": 4305,
    "aa6": 4306,
    "lay": 4307,
    "\u25810x7da0": 4308,
    "\u25810x509e4": 4309,
    "\u25810x1211f4c": 4310,
    "localfiletime": 4311,
    "\u2581filetimetolocalfiletime": 4312,
    "301": 4313,
    "\u2581sa": 4314,
    "98c0": 4315,
    "valuew": 4316,
    "\u25810x486": 4317,
    "\u25810x47f0": 4318,
    "\u25810x54a4c4": 4319,
    "\u25810x1210e70": 4320,
    "\u25810x77000723": 4321,
    "\u2581createsemaphore": 4322,
    "f78": 4323,
    "3437": 4324,
    "fc50": 4325,
    "\u2581setenvironmentvariablew": 4326,
    "d0b": 4327,
    "e14": 4328,
    "e93": 4329,
    "f4e4": 4330,
    "\u25810x436": 4331,
    "\u25810x1210e90": 4332,
    "\u25810x1211994": 4333,
    "30c": 4334,
    "a12": 4335,
    "900f": 4336,
    "e2a4": 4337,
    "\u2581createw": 4338,
    "\u25810x43a4b0": 4339,
    "\u25810x1211f1c": 4340,
    "78a2": 4341,
    "b000": 4342,
    "\u25810xb4": 4343,
    "\u25810x121192": 4344,
    "\u25810x121189c": 4345,
    "\u25810xfeee009b": 4346,
    "l6660drl6660drl6660drl6660drl6660drl6660drl6660drl6660drl6660": 4347,
    "322": 4348,
    "3ae": 4349,
    "\u25810xfff6": 4350,
    "\u25810x1210e20": 4351,
    "23d": 4352,
    "361": 4353,
    "3f4": 4354,
    "949": 4355,
    "d80": 4356,
    "9d50": 4357,
    "\u25810x7d98": 4358,
    "\u25810x7d99": 4359,
    "\u25810xfeee009c": 4360,
    "\u2581enumsystemlocales": 4361,
    "fe3": 4362,
    "5000": 4363,
    "\u25810xdc": 4364,
    "datoma": 4365,
    "\u25810x4222": 4366,
    "descript": 4367,
    "\u25810x3f3000": 4368,
    "\u25810x411c10": 4369,
    "\u25810x44d250": 4370,
    "\u25810x1210e40": 4371,
    "\u25810x1210ee0": 4372,
    "181": 4373,
    "7f6": 4374,
    "f15": 4375,
    "scroll": 4376,
    "\u25810x40aa": 4377,
    "\u25810x4a20": 4378,
    "\u25810x70a8": 4379,
    "\u25810x7dec": 4380,
    "\u25810x7ded": 4381,
    "\u25810x1211f30": 4382,
    "\u25810xfeee009d": 4383,
    "securitydescript": 4384,
    "bc40": 4385,
    "ceb4": 4386,
    "d96c": 4387,
    "f606": 4388,
    "\u2581ldr": 4389,
    "d3f00": 4390,
    "\u25810x6b": 4391,
    "\u25810xd3": 4392,
    "\u25810x40d": 4393,
    "\u25810x406c": 4394,
    "\u25810x40b5": 4395,
    "\u25810x40e500": 4396,
    "\u25810x1210eb0": 4397,
    "\u25810x1210ed8": 4398,
    "\u2581flushfile": 4399,
    "\u2581fileexistsw": 4400,
    "\u2581flushfilebuffers": 4401,
    "303": 4402,
    "eab8": 4403,
    "f819": 4404,
    "sourc": 4405,
    "\u25810x22c": 4406,
    "\u25810xffab": 4407,
    "\u25810x120de": 4408,
    "\u25810x1211eb4": 4409,
    "2c1": 4410,
    "517": 4411,
    "keya": 4412,
    "\u25810x3020": 4413,
    "294": 4414,
    "abc": 4415,
    "3c90": 4416,
    "\u25810x4235": 4417,
    "758": 4418,
    "1514": 4419,
    "b820": 4420,
    "lcid": 4421,
    "lorer": 4422,
    "unction": 4423,
    "\u2581lstrcmpw": 4424,
    "\u25810x1211ed4": 4425,
    "\u2581comparestringa": 4426,
    "14d": 4427,
    "ff48": 4428,
    "once": 4429,
    "ce0000": 4430,
    "\u2581resum": 4431,
    "\u25810x421030": 4432,
    "\u25810x1210e2c": 4433,
    "\u25810x1211738": 4434,
    "\u2581resumethread": 4435,
    "\u2581pb": 4436,
    "16a6": 4437,
    "60e4": 4438,
    "6c3c": 4439,
    "9b23": 4440,
    "b429": 4441,
    "cc59": 4442,
    "3b594": 4443,
    "\u25810x132": 4444,
    "destroy": 4445,
    "systemtime": 4446,
    "\u25810x1210f00": 4447,
    "\u25810x1210fc0": 4448,
    "\u25810x6ce0000": 4449,
    "\u25810xfeee01c": 4450,
    "b5b": 4451,
    "bd7": 4452,
    "drag": 4453,
    "\u2581are": 4454,
    "popup": 4455,
    "\u25810x7db0": 4456,
    "\u25810x4e39b4": 4457,
    "\u25810x1210fa0": 4458,
    "c1": 4459,
    "443": 4460,
    "550": 4461,
    "ash": 4462,
    "b74": 4463,
    "b7b": 4464,
    "e01": 4465,
    "ted": 4466,
    "108a": 4467,
    "paint": 4468,
    "\u2581setbk": 4469,
    "\u2581program": 4470,
    "\u2581strcpyw": 4471,
    "\u25810xfeee009e": 4472,
    "615": 4473,
    "9c6": 4474,
    "24c7": 4475,
    "ce11": 4476,
    "dcad": 4477,
    "para": 4478,
    "\u25810x40ca": 4479,
    "\u25810x42e9": 4480,
    "\u2581loadcursorw": 4481,
    "\u2581setfileattributesw": 4482,
    "378": 4483,
    "ded": 4484,
    "e08": 4485,
    "e09": 4486,
    "84d8": 4487,
    "9380": 4488,
    "ated": 4489,
    "\u25810x475": 4490,
    "\u25810x4840": 4491,
    "\u25810x4ad0": 4492,
    "\u25810x120f5": 4493,
    "\u25810xcf0000": 4494,
    "\u2581regsetvalueexa": 4495,
    "40a": 4496,
    "552": 4497,
    "e7c": 4498,
    "d8c8": 4499,
    "f638": 4500,
    "\u25810x40af": 4501,
    "005": 4502,
    "\u2581ss": 4503,
    "5560": 4504,
    "72852": 4505,
    "\u25810x40e4": 4506,
    "\u25810x41c4": 4507,
    "\u25810x4093a4": 4508,
    "\u25810x4093ac": 4509,
    "\u25810x44c280": 4510,
    "\u25810x44d500": 4511,
    "\u25810x566b14": 4512,
    "88a": 4513,
    "d74": 4514,
    "\u25810xffd8": 4515,
    "\u2581iswindow": 4516,
    "\u25810xfeee009f": 4517,
    "154": 4518,
    "88b": 4519,
    "977": 4520,
    "bc97": 4521,
    "ower": 4522,
    "187f4": 4523,
    "\u25810x4680": 4524,
    "\u25810x4780": 4525,
    "\u25810x20019": 4526,
    "\u2581defwindowproc": 4527,
    "\u2581createprocessa": 4528,
    "\u2581getthreaduilanguage": 4529,
    "a7b": 4530,
    "bd1": 4531,
    "ca4": 4532,
    "dc6": 4533,
    "eb6": 4534,
    "fbc": 4535,
    "3030": 4536,
    "3f98": 4537,
    "\u25810xf1": 4538,
    "\u25810x3f5": 4539,
    "\u25810x180c": 4540,
    "\u25810x7af0": 4541,
    "\u25810x1210f30": 4542,
    "162": 4543,
    "a18": 4544,
    "28de": 4545,
    "3c28": 4546,
    "446a": 4547,
    "ac68": 4548,
    "fff0": 4549,
    "a440b": 4550,
    "\u2581unmap": 4551,
    "\u25810x40ea": 4552,
    "\u2581unmapviewoffile": 4553,
    "134": 4554,
    "\u2581dis": 4555,
    "\u2581ric": 4556,
    "e1000": 4557,
    "\u25810xba": 4558,
    "timeto": 4559,
    "\u25810x7d9c": 4560,
    "\u25810x7d9d": 4561,
    "545": 4562,
    "f0b": 4563,
    "f53": 4564,
    "pic": 4565,
    "3f20": 4566,
    "okup": 4567,
    "\u25810x4e3": 4568,
    "\u25810x7e81": 4569,
    "\u2581lookup": 4570,
    "\u25810xfeee00a1": 4571,
    "\u2581getsyscolorbrush": 4572,
    "\u2581writeprivateprofile": 4573,
    "752": 4574,
    "e05": 4575,
    "2409": 4576,
    "ec28": 4577,
    "f55e": 4578,
    "\u25810x6a": 4579,
    "\u25810x4b6": 4580,
    "\u25810x7500": 4581,
    "\u2581riched": 4582,
    "\u2581gdiplus": 4583,
    "\u25810xfeee00a0": 4584,
    "tokeninformation": 4585,
    "547": 4586,
    "9ad": 4587,
    "aa7": 4588,
    "tin": 4589,
    "b374": 4590,
    "b4f9": 4591,
    "\u25810xe3": 4592,
    "\u25810x1e4": 4593,
    "\u25810x7ea": 4594,
    "\u25810x48b0": 4595,
    "\u25810x22002": 4596,
    "\u25810x1211118": 4597,
    "\u25810x1211e20": 4598,
    "\u25810xfeee00a2": 4599,
    "\u2581getprivateprofilestringa": 4600,
    "ddc": 4601,
    "fe5": 4602,
    "a9c0": 4603,
    "dfa0": 4604,
    "fcdd": 4605,
    "\u2581systemtimeto": 4606,
    "1d8": 4607,
    "36c": 4608,
    "8c4": 4609,
    "84ee": 4610,
    "9cf6": 4611,
    "\u25810x4880": 4612,
    "\u25810x461548": 4613,
    "\u2581setfiletime": 4614,
    "1b2": 4615,
    "adm": 4616,
    "de2": 4617,
    "fca": 4618,
    "386c": 4619,
    "5544": 4620,
    "79f3": 4621,
    "idto": 4622,
    "lecs": 4623,
    "onceex": 4624,
    "ecuteonce": 4625,
    "\u25810x12119f0": 4626,
    "\u2581sleepcond": 4627,
    "\u2581initonceex": 4628,
    "\u2581getmessagea": 4629,
    "itionvariablecs": 4630,
    "\u2581initonceexecuteonce": 4631,
    "\u2581sleepconditionvariablecs": 4632,
    "367": 4633,
    "38f": 4634,
    "96e": 4635,
    "7014": 4636,
    "bccc": 4637,
    "f538": 4638,
    "f787": 4639,
    "fore": 4640,
    "34502": 4641,
    "dc1b4": 4642,
    "\u25810x470": 4643,
    "\u25810x44ed": 4644,
    "\u25810x7da1": 4645,
    "\u2581unlock": 4646,
    "procedure": 4647,
    "\u25810x1211894": 4648,
    "\u25810x1211f14": 4649,
    "7f2": 4650,
    "9f3": 4651,
    "506c": 4652,
    "93a8": 4653,
    "patch": 4654,
    "wow64": 4655,
    "\u25810x9f": 4656,
    "\u25810xffac": 4657,
    "\u2581explorer": 4658,
    "\u2581getfullnamea": 4659,
    "\u2581getdiskfreespace": 4660,
    "9a5": 4661,
    "9d7": 4662,
    "9f4": 4663,
    "a80": 4664,
    "ton": 4665,
    "9222": 4666,
    "94a8": 4667,
    "\u25810x47f": 4668,
    "\u25810xffd0": 4669,
    "\u25810x4093d1": 4670,
    "\u25810x4093d2": 4671,
    "\u25810x4093d3": 4672,
    "\u25810x40a3d0": 4673,
    "\u25810x43a480": 4674,
    "\u25810x1211954": 4675,
    "\u2581getlogicalprocessor": 4676,
    "\u2581getuserdefaultlocalename": 4677,
    "ac2": 4678,
    "de4": 4679,
    "fae": 4680,
    "b068": 4681,
    "da34": 4682,
    "eba0": 4683,
    "ffcd": 4684,
    "orgex": 4685,
    "\u25810xae": 4686,
    "\u25810x1075": 4687,
    "\u25810x4368": 4688,
    "\u25810x7230": 4689,
    "\u2581gettokeninformation": 4690,
    "\u2581filetimetosystemtime": 4691,
    "1b5": 4692,
    "282": 4693,
    "847": 4694,
    "a6b4": 4695,
    "b6b0": 4696,
    "e445": 4697,
    "\u25810xe2": 4698,
    "\u25810x42ad": 4699,
    "\u25810x42c070": 4700,
    "\u25810x42c0a8": 4701,
    "17c": 4702,
    "1d1": 4703,
    "287": 4704,
    "79c": 4705,
    "d85": 4706,
    "3c8b": 4707,
    "de7f": 4708,
    "\u25810xf4": 4709,
    "\u25810xbca": 4710,
    "\u25810x4c30": 4711,
    "\u25810xffc4": 4712,
    "\u25810xffeb": 4713,
    "\u25810x200020": 4714,
    "\u25810x1211e38": 4715,
    "9eb": 4716,
    "\u25810xffdf": 4717,
    "\u25810xffed": 4718,
    "\u2581ldrget": 4719,
    "procedureaddress": 4720,
    "\u2581getdateformatex": 4721,
    "\u2581ldrgetprocedureaddress": 4722,
    "00e": 4723,
    "3d9": 4724,
    "3844": 4725,
    "81eb": 4726,
    "\u2581fre": 4727,
    "\u25810x539": 4728,
    "\u25810x4033": 4729,
    "\u25810x71a0": 4730,
    "\u25810xffe9": 4731,
    "\u25810x508d0": 4732,
    "\u25810x13fff0": 4733,
    "\u25810x42ff40": 4734,
    "\u2581gettimeformatex": 4735,
    "\u2581isvalidlocalename": 4736,
    "\u2581enumsystemlocalesex": 4737,
    "\u2581getlogicalprocessorinformation": 4738,
    "6c2": 4739,
    "4ae1": 4740,
    "edec": 4741,
    "ffa0": 4742,
    "picli": 4743,
    "\u25810xbb": 4744,
    "\u25810xe7": 4745,
    "\u25810x3bc": 4746,
    "\u25810x120f8": 4747,
    "\u25810x509a8": 4748,
    "\u2581sspicli": 4749,
    "\u25810xfeee00a3": 4750,
    "imetofiletime": 4751,
    "\u2581getmodulehandl": 4752,
    "624": 4753,
    "96b": 4754,
    "f24": 4755,
    "184d": 4756,
    "\u25810xdf": 4757,
    "\u25810x415": 4758,
    "\u25810x8410": 4759,
    "\u25810x1210ebc": 4760,
    "\u25810xfeee00bc": 4761,
    "8cb": 4762,
    "atw": 4763,
    "e1c": 4764,
    "\u2581wr": 4765,
    "9f93": 4766,
    "c796": 4767,
    "d0d6": 4768,
    "64a30": 4769,
    "\u25810xc4": 4770,
    "\u25810xe4": 4771,
    "\u25810x411": 4772,
    "\u25810x4226": 4773,
    "\u25810x7320": 4774,
    "\u25810x41f738": 4775,
    "\u2581globalad": 4776,
    "aaaaaaaaaaaaaaaa": 4777,
    "52c": 4778,
    "93a": 4779,
    "a36": 4780,
    "ab4": 4781,
    "ual": 4782,
    "7447d": 4783,
    "\u25810xffc0": 4784,
    "\u2581exitthread": 4785,
    "ly": 4786,
    "00a": 4787,
    "2c6": 4788,
    "364": 4789,
    "923": 4790,
    "9ae": 4791,
    "a1a": 4792,
    "e03": 4793,
    "f97": 4794,
    "b870": 4795,
    "d108": 4796,
    "eac8": 4797,
    "92000": 4798,
    "datet": 4799,
    "\u25810xd7": 4800,
    "\u25810xea": 4801,
    "\u25810x40e": 4802,
    "\u2581globalf": 4803,
    "\u25810x1210f60": 4804,
    "\u25810x1211938": 4805,
    "\u25810x1211960": 4806,
    "\u25810xfeee00a4": 4807,
    "\u2581isvalidlocale": 4808,
    "pp": 4809,
    "665": 4810,
    "b01": 4811,
    "bc9": 4812,
    "1f60": 4813,
    "bd64": 4814,
    "e4c0": 4815,
    "fa63": 4816,
    "\u25810x6e": 4817,
    "\u25810xf2": 4818,
    "\u25810x428": 4819,
    "virtual": 4820,
    "\u25810x1210ecc": 4821,
    "\u25810xfeee00a5": 4822,
    "\u2581formatmessagea": 4823,
    "983": 4824,
    "ba4": 4825,
    "e1d": 4826,
    "e35": 4827,
    "f60": 4828,
    "0007": 4829,
    "e100": 4830,
    "f8d0": 4831,
    "\u25810xe8": 4832,
    "\u25810x7da4": 4833,
    "\u25810x4153a0": 4834,
    "\u2581findnextfilew": 4835,
    "137": 4836,
    "172": 4837,
    "3c3": 4838,
    "580": 4839,
    "a95": 4840,
    "ab0": 4841,
    "b22": 4842,
    "c0c": 4843,
    "e42": 4844,
    "f87": 4845,
    "regi": 4846,
    "\u25810x9d": 4847,
    "\u25810xb2": 4848,
    "\u25810xeb": 4849,
    "\u25810xf8": 4850,
    "\u25810x358": 4851,
    "\u25810x6a6": 4852,
    "osdatet": 4853,
    "\u25810x7da5": 4854,
    "\u25810x80e0": 4855,
    "hmetafile": 4856,
    "\u25810x40a3f0": 4857,
    "\u25810x2000000": 4858,
    "\u2581createwindowexw": 4859,
    "554": 4860,
    "bf5": 4861,
    "bf6": 4862,
    "dfa": 4863,
    "5614": 4864,
    "84f2": 4865,
    "aaf6": 4866,
    "b3f0": 4867,
    "b4b8": 4868,
    "cc58": 4869,
    "\u2581sfc": 4870,
    "\u25810x18cc": 4871,
    "\u25810x40b9": 4872,
    "\u25810xffdb": 4873,
    "\u25810xffef": 4874,
    "\u25810xfff5": 4875,
    "\u25810x5026c": 4876,
    "stringlen": 4877,
    "\u25810x419638": 4878,
    "\u2581getconso": 4879,
    "\u2581getsystemdefault": 4880,
    "\u2581gettempfilenamea": 4881,
    "260": 4882,
    "6e8": 4883,
    "71c": 4884,
    "912": 4885,
    "28e6": 4886,
    "6c84": 4887,
    "98e0": 4888,
    "eddc": 4889,
    "pati": 4890,
    "\u25810xfc": 4891,
    "\u25810x500": 4892,
    "\u25810x7e74": 4893,
    "\u25810x7e75": 4894,
    "\u2581getcursor": 4895,
    "\u2581sendmessagea": 4896,
    "\u2581releasesrwlockexclusive": 4897,
    "576": 4898,
    "716": 4899,
    "73e": 4900,
    "df1": 4901,
    "izn": 4902,
    "\u2581os": 4903,
    "51d1": 4904,
    "52e8": 4905,
    "7519": 4906,
    "9108": 4907,
    "iznadm": 4908,
    "\u2581setst": 4909,
    "\u25810x7e78": 4910,
    "\u25810x7e79": 4911,
    "\u2581triznadm": 4912,
    "\u25810x1210e00": 4913,
    "\u25810xfeee00a6": 4914,
    "\u2581setstdhandle": 4915,
    "ba6": 4916,
    "c4c": 4917,
    "10a4": 4918,
    "5118": 4919,
    "bd58": 4920,
    "\u25810x7020": 4921,
    "\u25810x7c91": 4922,
    "\u25810x8280": 4923,
    "\u25810xffd4": 4924,
    "\u25810xfeee00a7": 4925,
    "389": 4926,
    "\u2581dx": 4927,
    "7168": 4928,
    "a7e6": 4929,
    "b082": 4930,
    "c055": 4931,
    "f6fc": 4932,
    "d04df": 4933,
    "\u25810xd2": 4934,
    "\u25810xdb": 4935,
    "\u25810x46b1": 4936,
    "\u25810x7ec4": 4937,
    "\u25810x7ec5": 4938,
    "\u25810xfff4": 4939,
    "ervicect": 4940,
    "deprocess": 4941,
    "\u25810x1210f20": 4942,
    "\u25810x1210f54": 4943,
    "\u25810xfeedf000": 4944,
    "\u2581findwindowa": 4945,
    "\u2581regopenkeya": 4946,
    "\u2581getexitcodeprocess": 4947,
    "325": 4948,
    "6aa": 4949,
    "75a": 4950,
    "c03": 4951,
    "df2": 4952,
    "15e4": 4953,
    "17e8": 4954,
    "4087": 4955,
    "5432": 4956,
    "ec43": 4957,
    "eatom": 4958,
    "\u25810x4122": 4959,
    "\u25810xffad": 4960,
    "\u25810x40f690": 4961,
    "\u25810xfeee00a8": 4962,
    "1b4": 4963,
    "7e7": 4964,
    "341f": 4965,
    "a008": 4966,
    "dddc": 4967,
    "eb28": 4968,
    "named": 4969,
    "\u25810xf3": 4970,
    "\u25810x42b4": 4971,
    "\u25810x7df1": 4972,
    "\u25810xffc1": 4973,
    "\u25810x484003": 4974,
    "\u25810x484004": 4975,
    "\u25810x484005": 4976,
    "\u25810x484006": 4977,
    "\u25810x484007": 4978,
    "\u25810x484008": 4979,
    "\u25810x484009": 4980,
    "\u25810x48400a": 4981,
    "\u25810x48400b": 4982,
    "\u25810x48400c": 4983,
    "\u25810x48400d": 4984,
    "\u25810x48400e": 4985,
    "\u25810x48400f": 4986,
    "\u25810x120faa8": 4987,
    "\u25810x1210e28": 4988,
    "\u25810x12116fc": 4989,
    "\u25810xfeee00a9": 4990,
    "\u2581freeenvironmentstringsa": 4991,
    "555": 4992,
    "5c6": 4993,
    "7cb": 4994,
    "ef8": 4995,
    "1550": 4996,
    "352c": 4997,
    "69bc": 4998,
    "atal": 4999,
    "b027": 5000,
    "e054": 5001,
    "\u25810xd4": 5002,
    "\u25810x3ac": 5003,
    "\u25810xc74": 5004,
    "\u25810x4089": 5005,
    "\u25810x4370": 5006,
    "\u25810x7e7c": 5007,
    "\u25810x7e7d": 5008,
    "\u25810xffc2": 5009,
    "\u25810x1211ed8": 5010,
    "\u25810xfeee00aa": 5011,
    "a85": 5012,
    "d1b": 5013,
    "f70": 5014,
    "23cc": 5015,
    "ca11": 5016,
    "inki": 5017,
    "\u2581rsa": 5018,
    "a844d": 5019,
    "\u25810x81": 5020,
    "\u25810xca": 5021,
    "\u25810xef": 5022,
    "\u2581dxgi": 5023,
    "\u25810x3010": 5024,
    "\u25810x40d7": 5025,
    "\u25810x7da8": 5026,
    "\u25810x7da9": 5027,
    "\u2581rsaenh": 5028,
    "\u2581dxgidebug": 5029,
    "\u25810xfeee00ab": 5030,
    "sk": 5031,
    "w32": 5032,
    "1260": 5033,
    "3414": 5034,
    "505c": 5035,
    "7a50": 5036,
    "b08f": 5037,
    "b477": 5038,
    "ce27": 5039,
    "e5f4": 5040,
    "fa2c": 5041,
    "with": 5042,
    "\u2581writ": 5043,
    "\u25810x164": 5044,
    "\u25810xa6c": 5045,
    "\u25810xffde": 5046,
    "\u2581calloc": 5047,
    "defaultu": 5048,
    "\u25810x42b408": 5049,
    "\u2581writecon": 5050,
    "\u25810x1210e50": 5051,
    "\u25810x1211e0c": 5052,
    "\u25810x1211f40": 5053,
    "\u25810xfeee00ac": 5054,
    "\u25810xfffffffe": 5055,
    "defaultuilanguage": 5056,
    "245": 5057,
    "43c": 5058,
    "556": 5059,
    "9a1": 5060,
    "d77": 5061,
    "e7b": 5062,
    "2439": 5063,
    "37e2": 5064,
    "4c40": 5065,
    "6872": 5066,
    "d58c": 5067,
    "d956": 5068,
    "ddad": 5069,
    "e8f8": 5070,
    "f884": 5071,
    "lang": 5072,
    "f48f6": 5073,
    "\u25810x8330": 5074,
    "\u2581cannot": 5075,
    "\u25810x436408": 5076,
    "\u25810x1210e80": 5077,
    "\u25810x12114bc": 5078,
    "\u25810xfeee00ad": 5079,
    "\u25810xfeee00ae": 5080,
    "\u2581processidto": 5081,
    "\u2581processidtosessionid": 5082,
    "\u2581he": 5083,
    "2c2c": 5084,
    "3518": 5085,
    "50c0": 5086,
    "7280": 5087,
    "a8d8": 5088,
    "ee00": 5089,
    "itor": 5090,
    "beloc": 5091,
    "\u25810x944": 5092,
    "\u25810x40a4": 5093,
    "\u25810x8340": 5094,
    "\u25810xffdc": 5095,
    "\u2581freere": 5096,
    "belocated": 5097,
    "\u25810x1211d10": 5098,
    "\u25810x1211f48": 5099,
    "\u2581freeresource": 5100,
    "3d6": 5101,
    "7e0": 5102,
    "13e8": 5103,
    "2e60": 5104,
    "ac38": 5105,
    "f060": 5106,
    "textw": 5107,
    "\u25810xc2": 5108,
    "\u2581iswow64": 5109,
    "\u25810x3f5000": 5110,
    "\u25810x42b403": 5111,
    "\u25810x42b404": 5112,
    "\u25810x42b405": 5113,
    "\u25810x42b406": 5114,
    "\u25810x42b407": 5115,
    "\u25810x42b409": 5116,
    "\u25810x42b40a": 5117,
    "\u25810x42b40b": 5118,
    "\u25810x42b40c": 5119,
    "\u25810x42b40d": 5120,
    "\u25810x42b40e": 5121,
    "\u25810x42b40f": 5122,
    "\u25810x436403": 5123,
    "\u25810x436404": 5124,
    "\u25810x436405": 5125,
    "\u25810x436406": 5126,
    "\u25810x436407": 5127,
    "\u25810x436409": 5128,
    "\u25810x43640a": 5129,
    "\u25810x43640b": 5130,
    "\u25810x43640c": 5131,
    "\u25810x43640d": 5132,
    "\u25810x43640e": 5133,
    "\u25810x43640f": 5134,
    "\u2581iswow64process": 5135,
    "7de": 5136,
    "bbc": 5137,
    "72e7": 5138,
    "a4de": 5139,
    "\u25810xda": 5140,
    "\u25810x6f00": 5141,
    "\u25810x7dac": 5142,
    "\u25810x7dad": 5143,
    "\u25810xffc3": 5144,
    "542": 5145,
    "797": 5146,
    "924": 5147,
    "b68": 5148,
    "3268": 5149,
    "34cf": 5150,
    "3bd2": 5151,
    "443d": 5152,
    "a8df": 5153,
    "da93": 5154,
    "esid": 5155,
    "imag": 5156,
    "ways": 5157,
    "atoma": 5158,
    "langid": 5159,
    "\u25810x5ab": 5160,
    "\u25810x5ec": 5161,
    "\u25810x6e4": 5162,
    "\u25810xafc": 5163,
    "\u25810x7100": 5164,
    "\u25810x7e88": 5165,
    "\u25810xffea": 5166,
    "\u2581always": 5167,
    "\u25810x40a3d8": 5168,
    "\u2581allocate": 5169,
    "\u25810x1210e27": 5170,
    "\u25810x1210e60": 5171,
    "\u25810x1210f10": 5172,
    "andinitializ": 5173,
    "\u2581globalrealloc": 5174,
    "andinitializesid": 5175,
    "\u2581allocateandinitializesid": 5176,
    "146": 5177,
    "1ce": 5178,
    "bb8": 5179,
    "fd1": 5180,
    "2a90": 5181,
    "2cf9": 5182,
    "2e40": 5183,
    "4215": 5184,
    "90d8": 5185,
    "acdb": 5186,
    "d3a9": 5187,
    "ecom": 5188,
    "ffcc": 5189,
    "\u2581work": 5190,
    "\u25810x8e90": 5191,
    "\u25810x404180": 5192,
    "\u25810x404184": 5193,
    "\u25810x404190": 5194,
    "\u25810x4786e0": 5195,
    "\u25810x1210df0": 5196,
    "\u25810x1210ef0": 5197,
    "\u25810x1210f40": 5198,
    "\u25810x1210f8c": 5199,
    "\u25810x5265c28": 5200,
    "12a": 5201,
    "2ec": 5202,
    "379": 5203,
    "65d": 5204,
    "d67": 5205,
    "dis": 5206,
    "e90": 5207,
    "top": 5208,
    "\u2581rb": 5209,
    "18a7": 5210,
    "2465": 5211,
    "3238": 5212,
    "39cc": 5213,
    "69f8": 5214,
    "77fe": 5215,
    "d01e": 5216,
    "d9c4": 5217,
    "\u25810xbd": 5218,
    "\u25810xec": 5219,
    "\u25810xfa": 5220,
    "\u2581hels": 5221,
    "\u25810x415e": 5222,
    "\u25810x4a60": 5223,
    "\u25810x404178": 5224,
    "\u25810x5b2bd0": 5225,
    "\u2581helsinki": 5226,
    "\u2581setconso": 5227,
    "\u25810x1210e1b": 5228,
    "\u25810x1210f80": 5229,
    "202": 5230,
    "b12": 5231,
    "b7f": 5232,
    "chr": 5233,
    "f96": 5234,
    "ioc": 5235,
    "ver": 5236,
    "1787": 5237,
    "5b5c": 5238,
    "6fb4": 5239,
    "9042": 5240,
    "acd4": 5241,
    "bda0": 5242,
    "c077": 5243,
    "e766": 5244,
    "38c32": 5245,
    "da0a0": 5246,
    "\u25810x41d": 5247,
    "\u25810x466": 5248,
    "\u25810xecc": 5249,
    "atethread": 5250,
    "\u25810x1211dc4": 5251,
    "198": 5252,
    "30a": 5253,
    "bc1": 5254,
    "2860": 5255,
    "32bb": 5256,
    "50ea": 5257,
    "68fe": 5258,
    "709c": 5259,
    "9617": 5260,
    "acd9": 5261,
    "dce4": 5262,
    "f769": 5263,
    "77fe0": 5264,
    "938f3": 5265,
    "ef456": 5266,
    "\u25810xc7": 5267,
    "\u25810x798": 5268,
    "\u25810x43a438": 5269,
    "\u25810x1210e2f": 5270,
    "\u25810x1210ea0": 5271,
    "\u2581getmodulehandleexw": 5272,
    "165": 5273,
    "1c6": 5274,
    "203": 5275,
    "1390": 5276,
    "171f": 5277,
    "349c": 5278,
    "5486": 5279,
    "5610": 5280,
    "5f6c": 5281,
    "70e4": 5282,
    "7675": 5283,
    "9035": 5284,
    "91b8": 5285,
    "95b7": 5286,
    "9ca0": 5287,
    "b71d": 5288,
    "c3b0": 5289,
    "eb44": 5290,
    "fa27": 5291,
    "35b00": 5292,
    "528e9": 5293,
    "74c20": 5294,
    "ea7c7": 5295,
    "fe5b2": 5296,
    "stack": 5297,
    "\u25817z02": 5298,
    "\u25817z9a": 5299,
    "\u25817zda": 5300,
    "\u25817zff": 5301,
    "2c2c67": 5302,
    "2e606e": 5303,
    "34ca04": 5304,
    "6cbea4": 5305,
    "7a503e": 5306,
    "7c5826": 5307,
    "be15e4": 5308,
    "ca11ff": 5309,
    "cf77ea": 5310,
    "\u25810xb04": 5311,
    "\u25817z1de": 5312,
    "\u2581fatal": 5313,
    "38c5920": 5314,
    "d01e2f8": 5315,
    "d956130": 5316,
    "ec46c00": 5317,
    "\u25810xffd9": 5318,
    "\u25817z50ea": 5319,
    "\u25817z6fb4": 5320,
    "35b001ac": 5321,
    "528e9d28": 5322,
    "77fe08e8": 5323,
    "ef456a04": 5324,
    "\u25817z2e766": 5325,
    "\u25817z6da26": 5326,
    "\u25817z74c20": 5327,
    "\u25817zea7c7": 5328,
    "\u25817zfe5b2": 5329,
    "\u25817z02eddc": 5330,
    "\u25817z2c2c67": 5331,
    "\u25817z2e606e": 5332,
    "\u25817z304215": 5333,
    "\u25817z34ca04": 5334,
    "\u25817z72171f": 5335,
    "\u25817z72341f": 5336,
    "\u25817z72b71d": 5337,
    "\u25817z7a503e": 5338,
    "\u25817z7c5826": 5339,
    "\u25817z8938f3": 5340,
    "\u25817zca11ff": 5341,
    "\u25817zcf77ea": 5342,
    "\u25817zda6cbe": 5343,
    "\u25817zffeb28": 5344,
    "\u25810x1211cf0": 5345,
    "\u25810x1211f3c": 5346,
    "\u25817z1deda0a0": 5347,
    "\u25817z2d956130": 5348,
    "\u25817z30be15e4": 5349,
    "\u25817z35b001ac": 5350,
    "\u25817z50ea94a8": 5351,
    "\u25817z528e9d28": 5352,
    "\u25817z638c5920": 5353,
    "\u25817z6ec46c00": 5354,
    "\u25817z6fb469c0": 5355,
    "\u25817z77fe08e8": 5356,
    "\u25817z8d01e2f8": 5357,
    "\u25817z9a6cbea4": 5358,
    "\u25817zef456a04": 5359,
    "\u2581regenumkey": 5360,
    "f34": 5361,
    "fd8": 5362,
    "18a3": 5363,
    "1c64": 5364,
    "5f64": 5365,
    "63d7": 5366,
    "8374": 5367,
    "d264": 5368,
    "dd38": 5369,
    "df40": 5370,
    "guar": 5371,
    "antee": 5372,
    "d006c": 5373,
    "fa000": 5374,
    "\u25810x5e": 5375,
    "\u25810x433": 5376,
    "\u25810x408c": 5377,
    "\u25810x4e80": 5378,
    "\u25810x6900": 5379,
    "\u25810xffae": 5380,
    "guarantee": 5381,
    "\u25810x6d006c": 5382,
    "\u25810x6f006e": 5383,
    "\u25810x710070": 5384,
    "\u25810x770076": 5385,
    "\u25810x790078": 5386,
    "\u25810x1210e24": 5387,
    "rl6660dl6660d": 5388,
    "\u2581coinitialize": 5389,
    "\u2581module32next": 5390,
    "stackguarantee": 5391,
    "\u2581setthreadstackguarantee": 5392,
    "d0d": 5393,
    "ync": 5394,
    "11b8": 5395,
    "35e0": 5396,
    "3f16": 5397,
    "5038": 5398,
    "7622": 5399,
    "8278": 5400,
    "946b": 5401,
    "ad26": 5402,
    "bc48": 5403,
    "dd91": 5404,
    "e0da": 5405,
    "ee8e": 5406,
    "f331": 5407,
    "f430": 5408,
    "1c3a8": 5409,
    "2313f": 5410,
    "68b2b": 5411,
    "91124": 5412,
    "9e860": 5413,
    "async": 5414,
    "b006a": 5415,
    "\u25810xfb": 5416,
    "\u2581peek": 5417,
    "34cf38": 5418,
    "3ad65d": 5419,
    "3d7b5c": 5420,
    "5610f0": 5421,
    "57b4f9": 5422,
    "5a7be8": 5423,
    "73eac8": 5424,
    "74dac5": 5425,
    "7d2465": 5426,
    "931ad0": 5427,
    "9e46d4": 5428,
    "a00814": 5429,
    "dd79dc": 5430,
    "dialog": 5431,
    "e4c038": 5432,
    "f0604c": 5433,
    "f46bc6": 5434,
    "152c3c4": 5435,
    "17872c8": 5436,
    "17e8278": 5437,
    "307f769": 5438,
    "35e4720": 5439,
    "386caa4": 5440,
    "39ccaec": 5441,
    "9f931ac": 5442,
    "d48e5f4": 5443,
    "ee8efa2": 5444,
    "\u25810x40c7": 5445,
    "\u25810x40e9": 5446,
    "\u25810xffd5": 5447,
    "2313fcc8": 5448,
    "32bbbd58": 5449,
    "92283f20": 5450,
    "f4356872": 5451,
    "\u25810xf003f": 5452,
    "40879e860": 5453,
    "\u25810x690068": 5454,
    "\u25810x6b006a": 5455,
    "\u25810x730072": 5456,
    "\u25810x750074": 5457,
    "\u25810x7b007a": 5458,
    "\u25810x7d007c": 5459,
    "\u25810x7d2778": 5460,
    "\u25810x7f007e": 5461,
    "2439f0604c": 5462,
    "307f769a58": 5463,
    "34773d7b5c": 5464,
    "34cf385b5c": 5465,
    "50817e8278": 5466,
    "7c3386caa4": 5467,
    "9c3152c3c4": 5468,
    "a8df931ad0": 5469,
    "acd49e46d4": 5470,
    "b477dd79dc": 5471,
    "c0775a7be8": 5472,
    "d48e5f4ffc": 5473,
    "\u25810x1211cf4": 5474,
    "\u25810x1211fa0": 5475,
    "17872c8bda0": 5476,
    "ec4339ccaec": 5477,
    "ee8efa2db10": 5478,
    "\u25817zffeb289c0": 5479,
    "\u25817zfe5b2e4c038": 5480,
    "\u25817z02eddca00814": 5481,
    "\u25817z638c592068b2b": 5482,
    "\u25817z304215f4356872": 5483,
    "\u25817z35b001ac3ad65d": 5484,
    "\u25817z50ea94a85610f0": 5485,
    "\u25817z528e9d2857b4f9": 5486,
    "\u25817z6ec46c0073eac8": 5487,
    "\u25817z6fb469c074dac5": 5488,
    "\u25817z74c2040879e860": 5489,
    "\u25817z77fe08e87d2465": 5490,
    "\u25817zef456a04f46bc6": 5491,
    "\u25817z30be15e435e4720": 5492,
    "\u25817z9a6cbea49f931ac": 5493,
    "\u25817z1deda0a02313fcc8": 5494,
    "\u25817z2c2c679c3152c3c4": 5495,
    "\u25817z2d95613032bbbd58": 5496,
    "\u25817z2e606e7c3386caa4": 5497,
    "\u25817z2e766ec4339ccaec": 5498,
    "\u25817z34ca042439f0604c": 5499,
    "\u25817z6da2617872c8bda0": 5500,
    "\u25817z72171f34773d7b5c": 5501,
    "\u25817z72341fc0775a7be8": 5502,
    "\u25817z72b71db477dd79dc": 5503,
    "\u25817z7a503e307f769a58": 5504,
    "\u25817z7c582650817e8278": 5505,
    "\u25817z8938f3d48e5f4ffc": 5506,
    "\u25817z8d01e2f892283f20": 5507,
    "\u25817zca11ff34cf385b5c": 5508,
    "\u25817zcf77eaacd49e46d4": 5509,
    "\u25817zda6cbea8df931ad0": 5510,
    "\u25817zea7c7ee8efa2db10": 5511,
    "929": 5512,
    "972": 5513,
    "1350": 5514,
    "1484": 5515,
    "3096": 5516,
    "3870": 5517,
    "4e93": 5518,
    "5040": 5519,
    "5231": 5520,
    "569c": 5521,
    "939c": 5522,
    "93dc": 5523,
    "bcb3": 5524,
    "dfd3": 5525,
    "f5e3": 5526,
    "ace48": 5527,
    "d4c26": 5528,
    "lower": 5529,
    "\u25810x413a": 5530,
    "\u25810xcccc": 5531,
    "asynckey": 5532,
    "\u25810x54000": 5533,
    "\u25810x1210e1c": 5534,
    "\u25810x1210ef4": 5535,
    "\u25810x1210f84": 5536,
    "\u25810xfeee00b1": 5537,
    "\u2581getasynckey": 5538,
    "\u2581getasynckeystate": 5539,
    "a92": 5540,
    "e59": 5541,
    "ows": 5542,
    "12f4": 5543,
    "1b44": 5544,
    "1c92": 5545,
    "1e00": 5546,
    "1e24": 5547,
    "2481": 5548,
    "2498": 5549,
    "2d44": 5550,
    "3cee": 5551,
    "4441": 5552,
    "4476": 5553,
    "44f6": 5554,
    "6dd4": 5555,
    "7711": 5556,
    "9385": 5557,
    "96e4": 5558,
    "9768": 5559,
    "99b4": 5560,
    "12224": 5561,
    "283a5": 5562,
    "307f0": 5563,
    "38c80": 5564,
    "77ef1": 5565,
    "9374c": 5566,
    "974e9": 5567,
    "db558": 5568,
    "e4b97": 5569,
    "e87a0": 5570,
    "ece58": 5571,
    "37e219": 5572,
    "38ad26": 5573,
    "7c63d7": 5574,
    "7c80d8": 5575,
    "7d03d6": 5576,
    "849cf6": 5577,
    "86a4de": 5578,
    "b97708": 5579,
    "d43ffc": 5580,
    "d45eb7": 5581,
    "d9c4a3": 5582,
    "\u25810x474": 5583,
    "\u25810x605": 5584,
    "10824ac": 5585,
    "18a7408": 5586,
    "4c40a37": 5587,
    "b374d0c": 5588,
    "d3a9504": 5589,
    "dd91184": 5590,
    "28791124": 5591,
    "2cf99222": 5592,
    "307f0ebc": 5593,
    "36792000": 5594,
    "38c32728": 5595,
    "3f16bc88": 5596,
    "77ef19dc": 5597,
    "9385ac38": 5598,
    "974e9b5c": 5599,
    "f4c9374c": 5600,
    "505cdb558": 5601,
    "c3b0ace48": 5602,
    "ca4b97708": 5603,
    "\u25810x6ab800": 5604,
    "1c3a8ece58": 5605,
    "d05b374d0c": 5606,
    "e87a012224": 5607,
    "\u25810x1210e2b": 5608,
    "\u25810x1210f94": 5609,
    "\u25810x1211e5c": 5610,
    "\u2581registers": 5611,
    "18a7408a7e6": 5612,
    "51184c40a37": 5613,
    "5486dd91184": 5614,
    "\u25810xfeee00af": 5615,
    "\u25810xfeee00b0": 5616,
    "\u2581writeconso": 5617,
    "38c80d3a9504": 5618,
    "ervicectrlhandler": 5619,
    "\u25817z35b001ac3ad65dd43ffc": 5620,
    "\u25817zffeb289c051184c40a37": 5621,
    "\u25817z1deda0a02313fcc8283a5": 5622,
    "\u25817z77fe08e87d246510824ac": 5623,
    "\u25817zda6cbea8df931ad0e4b97": 5624,
    "\u25817z2d95613032bbbd5837e219": 5625,
    "\u25817z2e606e7c3386caa438ad26": 5626,
    "\u25817z6ec46c0073eac828791124": 5627,
    "\u25817z72171f34773d7b5c7c63d7": 5628,
    "\u25817z72341fc0775a7be87c80d8": 5629,
    "\u25817z72b71db477dd79dc7d03d6": 5630,
    "\u25817z74c2040879e860307f0ebc": 5631,
    "\u25817z7a503e307f769a58849cf6": 5632,
    "\u25817z7c582650817e827886a4de": 5633,
    "\u25817zca11ff34cf385b5cd45eb7": 5634,
    "\u25817zcf77eaacd49e46d4d9c4a3": 5635,
    "\u25817zef456a04f46bc62cf99222": 5636,
    "\u25817zfe5b2e4c03818a7408a7e6": 5637,
    "\u25817z528e9d2857b4f9505cdb558": 5638,
    "\u25817z02eddca0081438c80d3a9504": 5639,
    "\u25817z2c2c679c3152c3c436792000": 5640,
    "\u25817z2e766ec4339ccaec38c32728": 5641,
    "\u25817z304215f43568721c3a8ece58": 5642,
    "\u25817z30be15e435e4720c3b0ace48": 5643,
    "\u25817z34ca042439f0604c3f16bc88": 5644,
    "\u25817z50ea94a85610f0d05b374d0c": 5645,
    "\u25817z638c592068b2b5486dd91184": 5646,
    "\u25817z6da2617872c8bda077ef19dc": 5647,
    "\u25817z6fb469c074dac5e87a012224": 5648,
    "\u25817z8938f3d48e5f4ffc9385ac38": 5649,
    "\u25817z8d01e2f892283f20974e9b5c": 5650,
    "\u25817z9a6cbea49f931acca4b97708": 5651,
    "\u25817zea7c7ee8efa2db10f4c9374c": 5652,
    "\u2581registerservicectrlhandler": 5653,
    "aw": 5654,
    "26d": 5655,
    "315": 5656,
    "66a": 5657,
    "914": 5658,
    "b75": 5659,
    "9308": 5660,
    "9850": 5661,
    "a734": 5662,
    "b52a": 5663,
    "b5cc": 5664,
    "e090": 5665,
    "e51c": 5666,
    "eca2": 5667,
    "f7af": 5668,
    "f9ef": 5669,
    "44820": 5670,
    "6c4be": 5671,
    "\u25810x3f20": 5672,
    "\u25810xffda": 5673,
    "\u25810x40000": 5674,
    "\u25810x1210f5c": 5675,
    "sh": 5676,
    "5c5": 5677,
    "f76": 5678,
    "4178": 5679,
    "6418": 5680,
    "72ff": 5681,
    "74c7": 5682,
    "7b50": 5683,
    "86b0": 5684,
    "9df4": 5685,
    "aba5": 5686,
    "ad0c": 5687,
    "b0c5": 5688,
    "bcc7": 5689,
    "bf20": 5690,
    "c4a0": 5691,
    "c5d8": 5692,
    "deab": 5693,
    "ee9a": 5694,
    "10dee": 5695,
    "201b1": 5696,
    "605da": 5697,
    "647e3": 5698,
    "70ce9": 5699,
    "9489c": 5700,
    "98ac0": 5701,
    "b0490": 5702,
    "d0875": 5703,
    "d60b5": 5704,
    "drive": 5705,
    "\u25810xb6": 5706,
    "\u25810xc3": 5707,
    "18822a": 5708,
    "3b9f7c": 5709,
    "3fb52a": 5710,
    "40312a": 5711,
    "443d18": 5712,
    "7d1576": 5713,
    "98d985": 5714,
    "9c74f7": 5715,
    "a9dfd3": 5716,
    "1260f15": 5717,
    "18a33e8": 5718,
    "7711d9c": 5719,
    "b00dce4": 5720,
    "b48bcb3": 5721,
    "c6201b1": 5722,
    "dd38330": 5723,
    "f5e3d50": 5724,
    "\u25810x4030": 5725,
    "\u25810x4360": 5726,
    "\u25810x4718": 5727,
    "\u25810x7e84": 5728,
    "\u25810x7e85": 5729,
    "\u25810x8f20": 5730,
    "10deeaff": 5731,
    "2481a734": 5732,
    "605da95c": 5733,
    "647e3780": 5734,
    "6c843518": 5735,
    "72ff6dd4": 5736,
    "943d0875": 5737,
    "9489c352": 5738,
    "98ac0888": 5739,
    "f9ef939c": 5740,
    "9042d60b5": 5741,
    "ba1045231": 5742,
    "18822a3268": 5743,
    "98818a33e8": 5744,
    "98d98513e8": 5745,
    "b00dce4300": 5746,
    "deleteatom": 5747,
    "e03dd38330": 5748,
    "14c87711d9c": 5749,
    "e1000f5e3d50": 5750,
    "\u2581getconsolemode": 5751,
    "\u2581globaldeleteatom": 5752,
    "\u25817zda6cbea8df931ad0e4b9770ce9": 5753,
    "\u25817zef456a04f46bc62cf9922268fe": 5754,
    "\u25817z2e766ec4339ccaec38c327283de": 5755,
    "\u25817z6fb469c074dac5e87a0122247f2": 5756,
    "\u25817z35b001ac3ad65dd43ffcba1045231": 5757,
    "\u25817z7c582650817e827886a4deb48bcb3": 5758,
    "\u25817z1deda0a02313fcc8283a59042d60b5": 5759,
    "\u25817z2c2c679c3152c3c4367920003b9f7c": 5760,
    "\u25817z2d95613032bbbd5837e219943d0875": 5761,
    "\u25817z304215f43568721c3a8ece583fb52a": 5762,
    "\u25817z30be15e435e4720c3b0ace4840312a": 5763,
    "\u25817z34ca042439f0604c3f16bc88443d18": 5764,
    "\u25817z528e9d2857b4f9505cdb558c6201b1": 5765,
    "\u25817z6da2617872c8bda077ef19dc7d1576": 5766,
    "\u25817z6ec46c0073eac828791124647e3780": 5767,
    "\u25817z72341fc0775a7be87c80d82481a734": 5768,
    "\u25817z74c2040879e860307f0ebc6c843518": 5769,
    "\u25817z7a503e307f769a58849cf69489c352": 5770,
    "\u25817z8d01e2f892283f20974e9b5c9c74f7": 5771,
    "\u25817z9a6cbea49f931acca4b97708a9dfd3": 5772,
    "\u25817zcf77eaacd49e46d4d9c4a310deeaff": 5773,
    "\u25817z02eddca0081438c80d3a95041260f15": 5774,
    "\u25817z2e606e7c3386caa438ad26e03dd38330": 5775,
    "\u25817z50ea94a85610f0d05b374d0c605da95c": 5776,
    "\u25817z638c592068b2b5486dd9118472ff6dd4": 5777,
    "\u25817z72171f34773d7b5c7c63d798818a33e8": 5778,
    "\u25817z72b71db477dd79dc7d03d618822a3268": 5779,
    "\u25817z77fe08e87d246510824ac14c87711d9c": 5780,
    "\u25817z8938f3d48e5f4ffc9385ac3898ac0888": 5781,
    "\u25817zca11ff34cf385b5cd45eb798d98513e8": 5782,
    "\u25817zea7c7ee8efa2db10f4c9374cf9ef939c": 5783,
    "\u25817zfe5b2e4c03818a7408a7e6b00dce4300": 5784,
    "\u25817zffeb289c051184c40a37e1000f5e3d50": 5785,
    "3e1": 5786,
    "6cf": 5787,
    "f41": 5788,
    "53b0": 5789,
    "6e30": 5790,
    "a5f0": 5791,
    "d1d4": 5792,
    "db68": 5793,
    "e0c0": 5794,
    "fbb0": 5795,
    "tons": 5796,
    "704ce": 5797,
    "patible": 5798,
    "\u2581createen": 5799,
    "\u25810x1210e23": 5800,
    "\u25810x1210e68": 5801,
    "\u2581charlower": 5802,
    "\u2581getfullnamew": 5803,
    "219": 5804,
    "570": 5805,
    "a33": 5806,
    "dbf": 5807,
    "dd3": 5808,
    "eff": 5809,
    "f4f": 5810,
    "\u258150": 5811,
    "35cc": 5812,
    "35dd": 5813,
    "3c54": 5814,
    "42f9": 5815,
    "78a3": 5816,
    "9623": 5817,
    "eb1e": 5818,
    "eea1": 5819,
    "f228": 5820,
    "fe20": 5821,
    "3dedb": 5822,
    "405c0": 5823,
    "55786": 5824,
    "5ca38": 5825,
    "74844": 5826,
    "87508": 5827,
    "8c977": 5828,
    "96375": 5829,
    "d35ce": 5830,
    "e4422": 5831,
    "pleob": 5832,
    "12f49f": 5833,
    "543287": 5834,
    "6604a4": 5835,
    "7486cd": 5836,
    "78430f": 5837,
    "9dd264": 5838,
    "aca19b": 5839,
    "f19768": 5840,
    "35ddd18": 5841,
    "417874d": 5842,
    "58af062": 5843,
    "60e4115": 5844,
    "7280e40": 5845,
    "95b7520": 5846,
    "b87eb80": 5847,
    "dfd35ce": 5848,
    "e48ee9a": 5849,
    "f062fc0": 5850,
    "148499b4": 5851,
    "2c823bd2": 5852,
    "5040c5d8": 5853,
    "658405c0": 5854,
    "77e74844": 5855,
    "7825ca38": 5856,
    "87508ecc": 5857,
    "8c977a00": 5858,
    "98455786": 5859,
    "d8496375": 5860,
    "dethread": 5861,
    "formulti": 5862,
    "\u2581environ": 5863,
    "98378430f": 5864,
    "54328711b8": 5865,
    "58af062fbc": 5866,
    "7486cd90d8": 5867,
    "aca19b5410": 5868,
    "b4835ddd18": 5869,
    "bc895b7520": 5870,
    "dc67280e40": 5871,
    "e48ee9af48": 5872,
    "\u25810x1210e18": 5873,
    "\u25810x1210f98": 5874,
    "b0490f19768": 5875,
    "b87eb803dedb": 5876,
    "98378430fdfdc": 5877,
    "formultipleob": 5878,
    "dfd35cef062fc0": 5879,
    "\u2581getexitcodethread": 5880,
    "\u25817zea7c7ee8efa2db10f4c9374cf9ef939cff": 5881,
    "\u25817z2d95613032bbbd5837e219943d0875e4422": 5882,
    "\u25817z304215f43568721c3a8ece583fb52aa844d": 5883,
    "\u25817z35b001ac3ad65dd43ffcba10452316604a4": 5884,
    "\u25817z6fb469c074dac5e87a0122247f277e74844": 5885,
    "\u25817z2e606e7c3386caa438ad26e03dd3833042f9": 5886,
    "\u25817z72171f34773d7b5c7c63d798818a33e886b0": 5887,
    "\u25817zca11ff34cf385b5cd45eb798d98513e8deab": 5888,
    "\u25817zcf77eaacd49e46d4d9c4a310deeaff60e4115": 5889,
    "\u25817z02eddca0081438c80d3a95041260f15417874d": 5890,
    "\u25817z2c2c679c3152c3c4367920003b9f7c5040c5d8": 5891,
    "\u25817z30be15e435e4720c3b0ace4840312a98455786": 5892,
    "\u25817z34ca042439f0604c3f16bc88443d18d8496375": 5893,
    "\u25817z6da2617872c8bda077ef19dc7d15762c823bd2": 5894,
    "\u25817z8938f3d48e5f4ffc9385ac3898ac08889dd264": 5895,
    "\u25817zef456a04f46bc62cf9922268feb87eb803dedb": 5896,
    "\u25817zfe5b2e4c03818a7408a7e6b00dce430012f49f": 5897,
    "\u25817z1deda0a02313fcc8283a59042d60b554328711b8": 5898,
    "\u25817z2e766ec4339ccaec38c327283de98378430fdfdc": 5899,
    "\u25817z50ea94a85610f0d05b374d0c605da95c658405c0": 5900,
    "\u25817z528e9d2857b4f9505cdb558c6201b1dc67280e40": 5901,
    "\u25817z638c592068b2b5486dd9118472ff6dd47825ca38": 5902,
    "\u25817z6ec46c0073eac828791124647e3780b4835ddd18": 5903,
    "\u25817z72341fc0775a7be87c80d82481a7347486cd90d8": 5904,
    "\u25817z72b71db477dd79dc7d03d618822a326887508ecc": 5905,
    "\u25817z74c2040879e860307f0ebc6c843518bc895b7520": 5906,
    "\u25817z77fe08e87d246510824ac14c87711d9c8c977a00": 5907,
    "\u25817z7a503e307f769a58849cf69489c352e48ee9af48": 5908,
    "\u25817z7c582650817e827886a4deb48bcb3b0490f19768": 5909,
    "\u25817z8d01e2f892283f20974e9b5c9c74f7aca19b5410": 5910,
    "\u25817z9a6cbea49f931acca4b97708a9dfd358af062fbc": 5911,
    "\u25817zda6cbea8df931ad0e4b9770ce9dfd35cef062fc0": 5912,
    "\u25817zffeb289c051184c40a37e1000f5e3d50148499b4": 5913,
    "c4f": 5914,
    "ecd": 5915,
    "1afb": 5916,
    "2090": 5917,
    "26be": 5918,
    "54ca": 5919,
    "6606": 5920,
    "91bd": 5921,
    "a070": 5922,
    "a67c": 5923,
    "adaa": 5924,
    "c0c8": 5925,
    "f344": 5926,
    "\u2581cpp": 5927,
    "37940": 5928,
    "58800": 5929,
    "ad457": 5930,
    "e6ab8": 5931,
    "upper": 5932,
    "\u25810xe6": 5933,
    "\u25810x448": 5934,
    "\u25810x7890": 5935,
    "\u25810x7d20": 5936,
    "debughook": 5937,
    "\u25810x4093d4": 5938,
    "\u25810x435402": 5939,
    "\u25810x1210a84": 5940,
    "\u25810x1210e08": 5941,
    "\u25810x1210f28": 5942,
    "\u25810x1210f68": 5943,
    "\u2581setscroll": 5944,
    "\u2581cppdebughook": 5945,
    "306": 5946,
    "3f9": 5947,
    "ed6": 5948,
    "11a4": 5949,
    "2084": 5950,
    "40e8": 5951,
    "4836": 5952,
    "51ec": 5953,
    "66d7": 5954,
    "7a98": 5955,
    "8c76": 5956,
    "ansi": 5957,
    "b08c": 5958,
    "bea0": 5959,
    "c490": 5960,
    "d0f2": 5961,
    "d1ad": 5962,
    "ebb0": 5963,
    "1b088": 5964,
    "1d198": 5965,
    "43c4c": 5966,
    "6aaa6": 5967,
    "88974": 5968,
    "94100": 5969,
    "dc1d4": 5970,
    "fc4a7": 5971,
    "19aaf6": 5972,
    "1c0905": 5973,
    "3c4e89": 5974,
    "552ec0": 5975,
    "7d4c26": 5976,
    "888439": 5977,
    "8bf3ed": 5978,
    "904c8b": 5979,
    "9617f3": 5980,
    "b42c8c": 5981,
    "b445ec": 5982,
    "bc4e93": 5983,
    "c4a01e": 5984,
    "f42c8c": 5985,
    "f8c164": 5986,
    "\u25810x210": 5987,
    "\u25810x427": 5988,
    "15f0000": 5989,
    "3d1ccc4": 5990,
    "44f6fcf": 5991,
    "8897437": 5992,
    "9087622": 5993,
    "ed24847": 5994,
    "37ad6e30": 5995,
    "448203c0": 5996,
    "64181afb": 5997,
    "6aaa6238": 5998,
    "6c4e6ab8": 5999,
    "8c76eb44": 6000,
    "8e81d198": 6001,
    "91bdd678": 6002,
    "94100bc0": 6003,
    "a6c1b088": 6004,
    "b81cadaa": 6005,
    "bc4e937b8": 6006,
    "\u25810x41b868": 6007,
    "\u25810x434000": 6008,
    "3c4e89d1b4": 6009,
    "904c8bd6ec": 6010,
    "b445ec352c": 6011,
    "b870c4a01e": 6012,
    "eca2f8c164": 6013,
    "\u25810x1210a64": 6014,
    "\u25810x1210a78": 6015,
    "\u25810x1210e48": 6016,
    "\u25810x1210e58": 6017,
    "\u25810x1210f44": 6018,
    "\u25810x1210f88": 6019,
    "\u25810x1210f90": 6020,
    "\u25810x1211d44": 6021,
    "\u25810x1211f6c": 6022,
    "972c44f6fcf": 6023,
    "ddad8897437": 6024,
    "df9448203c0": 6025,
    "15f000043c4c": 6026,
    "704ce3d1ccc4": 6027,
    "ed24847552ec0": 6028,
    "\u2581globaladdatoma": 6029,
    "\u2581systemtimetofiletime": 6030,
    "\u25817z30be15e435e4720c3b0ace4840312a98455786fc4a7": 6031,
    "\u25817z2e766ec4339ccaec38c327283de98378430fdfdc4836": 6032,
    "\u25817zef456a04f46bc62cf9922268feb87eb803dedb1c0905": 6033,
    "\u25817z304215f43568721c3a8ece583fb52aa844db870c4a01e": 6034,
    "\u25817z6da2617872c8bda077ef19dc7d15762c823bd29087622": 6035,
    "\u25817z02eddca0081438c80d3a95041260f15417874db81cadaa": 6036,
    "\u25817z35b001ac3ad65dd43ffcba10452316604a4972c44f6fcf": 6037,
    "\u25817z638c592068b2b5486dd9118472ff6dd47825ca387d4c26": 6038,
    "\u25817z6ec46c0073eac828791124647e3780b4835ddd18888439": 6039,
    "\u25817z6fb469c074dac5e87a0122247f277e74844ddad8897437": 6040,
    "\u25817z72171f34773d7b5c7c63d798818a33e886b0904c8bd6ec": 6041,
    "\u25817z72341fc0775a7be87c80d82481a7347486cd90d88bf3ed": 6042,
    "\u25817z7c582650817e827886a4deb48bcb3b0490f197689617f3": 6043,
    "\u25817z9a6cbea49f931acca4b97708a9dfd358af062fbcb42c8c": 6044,
    "\u25817zcf77eaacd49e46d4d9c4a310deeaff60e4115bc4e937b8": 6045,
    "\u25817zda6cbea8df931ad0e4b9770ce9dfd35cef062fc0f42c8c": 6046,
    "\u25817zea7c7ee8efa2db10f4c9374cf9ef939cff15f000043c4c": 6047,
    "\u25817zfe5b2e4c03818a7408a7e6b00dce430012f49f64181afb": 6048,
    "\u25817zffeb289c051184c40a37e1000f5e3d50148499b419aaf6": 6049,
    "\u25817z2e606e7c3386caa438ad26e03dd3833042f9df9448203c0": 6050,
    "\u25817z1deda0a02313fcc8283a59042d60b554328711b837ad6e30": 6051,
    "\u25817z2c2c679c3152c3c4367920003b9f7c5040c5d8b445ec352c": 6052,
    "\u25817z2d95613032bbbd5837e219943d0875e4422ed24847552ec0": 6053,
    "\u25817z34ca042439f0604c3f16bc88443d18d84963753c4e89d1b4": 6054,
    "\u25817z50ea94a85610f0d05b374d0c605da95c658405c06aaa6238": 6055,
    "\u25817z528e9d2857b4f9505cdb558c6201b1dc67280e406c4e6ab8": 6056,
    "\u25817z72b71db477dd79dc7d03d618822a326887508ecc8c76eb44": 6057,
    "\u25817z74c2040879e860307f0ebc6c843518bc895b75208e81d198": 6058,
    "\u25817z77fe08e87d246510824ac14c87711d9c8c977a0091bdd678": 6059,
    "\u25817z7a503e307f769a58849cf69489c352e48ee9af4894100bc0": 6060,
    "\u25817z8938f3d48e5f4ffc9385ac3898ac08889dd264eca2f8c164": 6061,
    "\u25817z8d01e2f892283f20974e9b5c9c74f7aca19b5410a6c1b088": 6062,
    "\u25817zca11ff34cf385b5cd45eb798d98513e8deab704ce3d1ccc4": 6063,
    "3c1": 6064,
    "990": 6065,
    "b58": 6066,
    "3304": 6067,
    "44a0": 6068,
    "4b12": 6069,
    "5b7c": 6070,
    "68c8": 6071,
    "a5b3": 6072,
    "b2a7": 6073,
    "b5b2": 6074,
    "c4d4": 6075,
    "1d406": 6076,
    "a58b0": 6077,
    "tings": 6078,
    "\u25810xd1": 6079,
    "\u25810x418": 6080,
    "\u25810xfff3": 6081,
    "\u25810x40bd4": 6082,
    "\u25810x41f000": 6083,
    "\u25810x43f6b0": 6084,
    "\u2581dispatch": 6085,
    "\u25810x1210e1f": 6086,
    "\u25810x1210e8c": 6087,
    "\u25810x1210f34": 6088,
    "\u25810xfeee00b4": 6089,
    "\u2581terminatethread": 6090,
    "66d": 6091,
    "b42": 6092,
    "bba": 6093,
    "2950": 6094,
    "2c50": 6095,
    "64b4": 6096,
    "8057": 6097,
    "8798": 6098,
    "888b": 6099,
    "94a0": 6100,
    "9538": 6101,
    "b823": 6102,
    "code": 6103,
    "e084": 6104,
    "ee58": 6105,
    "f384": 6106,
    "f888": 6107,
    "2c1ed": 6108,
    "3cd3c": 6109,
    "44d5c": 6110,
    "4c7b8": 6111,
    "6fd0b": 6112,
    "78096": 6113,
    "905a4": 6114,
    "919d4": 6115,
    "abe80": 6116,
    "daa96": 6117,
    "e2b94": 6118,
    "f088c": 6119,
    "f1df0": 6120,
    "f2840": 6121,
    "\u25810xd5": 6122,
    "\u25810xd9": 6123,
    "3cee5e": 6124,
    "44fa44": 6125,
    "508e9a": 6126,
    "7174c7": 6127,
    "72833c": 6128,
    "93a82e": 6129,
    "962bc8": 6130,
    "e09b3e": 6131,
    "fd4950": 6132,
    "11a49dc": 6133,
    "1d406bc": 6134,
    "952e8c0": 6135,
    "9936684": 6136,
    "c4d4698": 6137,
    "\u25810x79a0": 6138,
    "2c1ed152": 6139,
    "38f952e8": 6140,
    "3c544d5c": 6141,
    "3cd3cabc": 6142,
    "4b1291b8": 6143,
    "53b02e40": 6144,
    "6fd0bec4": 6145,
    "908daa96": 6146,
    "919d47d0": 6147,
    "96e43304": 6148,
    "a81f1df0": 6149,
    "abe80d14": 6150,
    "dc1d4158": 6151,
    "e8f82950": 6152,
    "3844f2840": 6153,
    "44fa44000": 6154,
    "f088c888b": 6155,
    "3021d406bc": 6156,
    "34b952e8c0": 6157,
    "37940e2b94": 6158,
    "3c54962bc8": 6159,
    "3cee5e14c8": 6160,
    "508e9a93dc": 6161,
    "50911a49dc": 6162,
    "b08272833c": 6163,
    "c490fd4950": 6164,
    "e09b3e506c": 6165,
    "\u25810x1210e14": 6166,
    "\u25810x1210e17": 6167,
    "\u25810x1210e4c": 6168,
    "\u25810x1210eb4": 6169,
    "\u2581createcom": 6170,
    "\u25810xfeee00b2": 6171,
    "\u25810xfeee00b3": 6172,
    "3c544d5c98e0": 6173,
    "de3744fa44000": 6174,
    "\u2581createcompatible": 6175,
    "\u25817zea7c7ee8efa2db10f4c9374cf9ef939cff15f000043c4c78096": 6176,
    "\u25817z2d95613032bbbd5837e219943d0875e4422ed24847552ec04c7b8": 6177,
    "\u25817z2e606e7c3386caa438ad26e03dd3833042f9df9448203c0c4d4698": 6178,
    "\u25817z304215f43568721c3a8ece583fb52aa844db870c4a01e3844f2840": 6179,
    "\u25817z528e9d2857b4f9505cdb558c6201b1dc67280e406c4e6ab87174c7": 6180,
    "\u25817z6da2617872c8bda077ef19dc7d15762c823bd29087622f088c888b": 6181,
    "\u25817z6ec46c0073eac828791124647e3780b4835ddd18888439908daa96": 6182,
    "\u25817z74c2040879e860307f0ebc6c843518bc895b75208e81d19893a82e": 6183,
    "\u25817zda6cbea8df931ad0e4b9770ce9dfd35cef062fc0f42c8c38f952e8": 6184,
    "\u25817zef456a04f46bc62cf9922268feb87eb803dedb1c090537940e2b94": 6185,
    "\u25817zfe5b2e4c03818a7408a7e6b00dce430012f49f64181afbdc1d4158": 6186,
    "\u25817zffeb289c051184c40a37e1000f5e3d50148499b419aaf62c1ed152": 6187,
    "\u25817z7a503e307f769a58849cf69489c352e48ee9af4894100bc09936684": 6188,
    "\u25817z02eddca0081438c80d3a95041260f15417874db81cadaa3021d406bc": 6189,
    "\u25817z1deda0a02313fcc8283a59042d60b554328711b837ad6e303cd3cabc": 6190,
    "\u25817z2c2c679c3152c3c4367920003b9f7c5040c5d8b445ec352c4b1291b8": 6191,
    "\u25817z2e766ec4339ccaec38c327283de98378430fdfdc48363c544d5c98e0": 6192,
    "\u25817z30be15e435e4720c3b0ace4840312a98455786fc4a7de3744fa44000": 6193,
    "\u25817z34ca042439f0604c3f16bc88443d18d84963753c4e89d1b453b02e40": 6194,
    "\u25817z35b001ac3ad65dd43ffcba10452316604a4972c44f6fcf3c54962bc8": 6195,
    "\u25817z50ea94a85610f0d05b374d0c605da95c658405c06aaa62386fd0bec4": 6196,
    "\u25817z638c592068b2b5486dd9118472ff6dd47825ca387d4c26b08272833c": 6197,
    "\u25817z6fb469c074dac5e87a0122247f277e74844ddad8897437508e9a93dc": 6198,
    "\u25817z72171f34773d7b5c7c63d798818a33e886b0904c8bd6ecc490fd4950": 6199,
    "\u25817z72341fc0775a7be87c80d82481a7347486cd90d88bf3ed50911a49dc": 6200,
    "\u25817z72b71db477dd79dc7d03d618822a326887508ecc8c76eb44919d47d0": 6201,
    "\u25817z77fe08e87d246510824ac14c87711d9c8c977a0091bdd67896e43304": 6202,
    "\u25817z7c582650817e827886a4deb48bcb3b0490f197689617f3e09b3e506c": 6203,
    "\u25817z8938f3d48e5f4ffc9385ac3898ac08889dd264eca2f8c164a81f1df0": 6204,
    "\u25817z8d01e2f892283f20974e9b5c9c74f7aca19b5410a6c1b088abe80d14": 6205,
    "\u25817z9a6cbea49f931acca4b97708a9dfd358af062fbcb42c8c34b952e8c0": 6206,
    "\u25817zca11ff34cf385b5cd45eb798d98513e8deab704ce3d1ccc4e8f82950": 6207,
    "\u25817zcf77eaacd49e46d4d9c4a310deeaff60e4115bc4e937b83cee5e14c8": 6208,
    "511": 6209,
    "76b": 6210,
    "0060": 6211,
    "1e20": 6212,
    "5c2c": 6213,
    "668b": 6214,
    "8cbf": 6215,
    "a5c8": 6216,
    "a880": 6217,
    "a8a9": 6218,
    "ac4c": 6219,
    "b0e0": 6220,
    "c9e5": 6221,
    "e272": 6222,
    "f8aa": 6223,
    "fc87": 6224,
    "20135": 6225,
    "26fa63": 6226,
    "\u25810x980": 6227,
    "\u25810x9020": 6228,
    "\u25810xffaf": 6229,
    "\u25810xffdd": 6230,
    "\u25810x1210df8": 6231,
    "\u25810x1210e44": 6232,
    "\u25810x1210e84": 6233,
    "\u25810x1210e88": 6234,
    "\u25810x1210eac": 6235,
    "\u25810x1210f08": 6236,
    "\u25810x1210f24": 6237,
    "\u25810x121192f": 6238,
    "\u25810x1211d48": 6239,
    "\u25810x1211fe4": 6240,
    "2d0": 6241,
    "d44": 6242,
    "e97": 6243,
    "3564": 6244,
    "37de": 6245,
    "5640": 6246,
    "6034": 6247,
    "7865": 6248,
    "787c": 6249,
    "86e0": 6250,
    "ac22": 6251,
    "b4c5": 6252,
    "d4d8": 6253,
    "f4d1": 6254,
    "10544": 6255,
    "1a1e7": 6256,
    "1aee8": 6257,
    "58d68": 6258,
    "68226": 6259,
    "70330": 6260,
    "a8fa4": 6261,
    "b10e6": 6262,
    "cc4ec": 6263,
    "e4468": 6264,
    "e9cb0": 6265,
    "ee1e8": 6266,
    "41fa27": 6267,
    "5282f5": 6268,
    "59bc88": 6269,
    "6cf538": 6270,
    "74f71b": 6271,
    "93c0f0": 6272,
    "96c3a4": 6273,
    "9b23e4": 6274,
    "be7945": 6275,
    "ce8ac4": 6276,
    "1aee834": 6277,
    "\u25810xffee": 6278,
    "1c92d0f2": 6279,
    "201351f0": 6280,
    "2a9040e8": 6281,
    "41fa275c": 6282,
    "5038ee58": 6283,
    "54ca9ca0": 6284,
    "58d68ae0": 6285,
    "8798dfdc": 6286,
    "93c0f07c": 6287,
    "9623a5f0": 6288,
    "9640a67c": 6289,
    "9c0a8fa4": 6290,
    "a064ad0c": 6291,
    "ad457a90": 6292,
    "b10e69b4": 6293,
    "b823f7af": 6294,
    "ee1e85f0": 6295,
    "f3847168": 6296,
    "b4c51a1e7": 6297,
    "c9e5cc4ec": 6298,
    "10544e9cb0": 6299,
    "2498ce8ac4": 6300,
    "44769b23e4": 6301,
    "9491aee834": 6302,
    "98526cf538": 6303,
    "\u25810x1210dfb": 6304,
    "\u25810x1210e0b": 6305,
    "\u25810x1210e13": 6306,
    "\u25810x1210f14": 6307,
    "2a9040e8905a4": 6308,
    "\u25817zda6cbea8df931ad0e4b9770ce9dfd35cef062fc0f42c8c38f952e8c4f": 6309,
    "\u25817zfe5b2e4c03818a7408a7e6b00dce430012f49f64181afbdc1d415868226": 6310,
    "e76": 6311,
    "f3f": 6312,
    "fox": 6313,
    "19b7": 6314,
    "28f0": 6315,
    "323e": 6316,
    "5080": 6317,
    "671c": 6318,
    "7140": 6319,
    "727c": 6320,
    "93d6": 6321,
    "a5fc": 6322,
    "ee08": 6323,
    "f4ad": 6324,
    "2c63c": 6325,
    "dd608": 6326,
    "\u25810x9e": 6327,
    "\u25810xe1": 6328,
    "layout": 6329,
    "\u25810x41f030": 6330,
    "\u25810x435410": 6331,
    "freememory": 6332,
    "\u25810x1210df3": 6333,
    "\u25810x1210df4": 6334,
    "\u25810x1210df9": 6335,
    "\u25810x1210e03": 6336,
    "\u25810x1210e0f": 6337,
    "\u25810x1210e2d": 6338,
    "\u25810x1210ee8": 6339,
    "\u25810x1210ef8": 6340,
    "\u25810x1210f0c": 6341,
    "\u25810x1210f18": 6342,
    "\u25810x1210f4c": 6343,
    "\u25810x1210f58": 6344,
    "\u25810x1210fb0": 6345,
    "\u25810x1210fb8": 6346,
    "\u25810xfeee00b5": 6347,
    "memorystatus": 6348,
    "\u2581globalmemorystatus": 6349,
    "ad7": 6350,
    "5793": 6351,
    "6c91": 6352,
    "8990": 6353,
    "8b20": 6354,
    "9c76": 6355,
    "a596": 6356,
    "b095": 6357,
    "b166": 6358,
    "b1e0": 6359,
    "b880": 6360,
    "bcdb": 6361,
    "f230": 6362,
    "ioco": 6363,
    "13af6": 6364,
    "321a0": 6365,
    "555f4": 6366,
    "58291": 6367,
    "647a1": 6368,
    "a02a4": 6369,
    "b634c": 6370,
    "bd744": 6371,
    "e11bc": 6372,
    "20c010": 6373,
    "30ec58": 6374,
    "472084": 6375,
    "5974f9": 6376,
    "59f0f9": 6377,
    "5dfce7": 6378,
    "685ee2": 6379,
    "784d74": 6380,
    "7bc180": 6381,
    "96d544": 6382,
    "98e74d": 6383,
    "9df4e7": 6384,
    "a95234": 6385,
    "ec56c8": 6386,
    "f8aace": 6387,
    "\u25810x607": 6388,
    "\u25810x7dc": 6389,
    "709bea0": 6390,
    "bc97f74": 6391,
    "\u25810x7e89": 6392,
    "\u25810xffd6": 6393,
    "13af6258": 6394,
    "579351ec": 6395,
    "60c39fa2": 6396,
    "647a1d78": 6397,
    "7b508278": 6398,
    "8cbf3c90": 6399,
    "9b4a02a4": 6400,
    "9b670330": 6401,
    "a130ec58": 6402,
    "a38321a0": 6403,
    "a58b09c0": 6404,
    "b26bd744": 6405,
    "e7945640": 6406,
    "f344e2a4": 6407,
    "\u25810x120ec": 6408,
    "\u25810x1327ec": 6409,
    "\u25810x40aca0": 6410,
    "\u25810x980218": 6411,
    "26fa635c2c": 6412,
    "5282f58057": 6413,
    "685ee2e51c": 6414,
    "709bea0124": 6415,
    "c018784d74": 6416,
    "ec56c844a0": 6417,
    "\u25810x1210ded": 6418,
    "\u25810x1210dee": 6419,
    "\u25810x1210def": 6420,
    "\u25810x1210df1": 6421,
    "\u25810x1210df2": 6422,
    "\u25810x1210df5": 6423,
    "\u25810x1210df6": 6424,
    "\u25810x1210df7": 6425,
    "\u25810x1210dfa": 6426,
    "\u25810x1210dfc": 6427,
    "\u25810x1210dfd": 6428,
    "\u25810x1210dfe": 6429,
    "\u25810x1210dff": 6430,
    "\u25810x1210e01": 6431,
    "\u25810x1210e02": 6432,
    "\u25810x1210e04": 6433,
    "\u25810x1210e05": 6434,
    "\u25810x1210e06": 6435,
    "\u25810x1210e07": 6436,
    "\u25810x1210e09": 6437,
    "\u25810x1210e0a": 6438,
    "\u25810x1210e0c": 6439,
    "\u25810x1210e0d": 6440,
    "\u25810x1210e0e": 6441,
    "\u25810x1210e11": 6442,
    "\u25810x1210e12": 6443,
    "\u25810x1210e15": 6444,
    "\u25810x1210e16": 6445,
    "\u25810x1210e19": 6446,
    "\u25810x1210e1a": 6447,
    "\u25810x1210e1d": 6448,
    "\u25810x1210e1e": 6449,
    "\u25810x1210e21": 6450,
    "\u25810x1210e22": 6451,
    "\u25810x1210e25": 6452,
    "\u25810x1210e26": 6453,
    "\u25810x1210e29": 6454,
    "\u25810x1210e2a": 6455,
    "\u25810x1210e2e": 6456,
    "\u25810x1210e31": 6457,
    "\u25810x1210e32": 6458,
    "\u25810x1210e33": 6459,
    "\u25810x1210e35": 6460,
    "\u25810x1210e36": 6461,
    "\u25810x1210e37": 6462,
    "\u25810x1210e38": 6463,
    "\u25810x1210e39": 6464,
    "\u25810x1210e3a": 6465,
    "\u25810x1210e3b": 6466,
    "\u25810x1210e3c": 6467,
    "\u25810x1210e3d": 6468,
    "\u25810x1210e3e": 6469,
    "\u25810x1210e3f": 6470,
    "\u25810x1210e41": 6471,
    "\u25810x1210e42": 6472,
    "\u25810x1210e43": 6473,
    "\u25810x1210e45": 6474,
    "\u25810x1210e46": 6475,
    "\u25810x1210e47": 6476,
    "\u25810x1210e49": 6477,
    "\u25810x1210e4a": 6478,
    "\u25810x1210e4b": 6479,
    "\u25810x1210e4d": 6480,
    "\u25810x1210e4e": 6481,
    "\u25810x1210e4f": 6482,
    "\u25810x1210e51": 6483,
    "\u25810x1210e52": 6484,
    "\u25810x1210e53": 6485,
    "\u25810x1210e54": 6486,
    "\u25810x1210e55": 6487,
    "\u25810x1210e56": 6488,
    "\u25810x1210e57": 6489,
    "\u25810x1210e59": 6490,
    "\u25810x1210e5a": 6491,
    "\u25810x1210e5b": 6492,
    "\u25810x1210e5c": 6493,
    "\u25810x1210e5d": 6494,
    "\u25810x1210e5e": 6495,
    "\u25810x1210e5f": 6496,
    "\u25810x1210e61": 6497,
    "\u25810x1210e62": 6498,
    "\u25810x1210e63": 6499,
    "\u25810x1210e64": 6500,
    "\u25810x1210e65": 6501,
    "\u25810x1210e66": 6502,
    "\u25810x1210e67": 6503,
    "\u25810x1210e69": 6504,
    "\u25810x1210e6a": 6505,
    "\u25810x1210e6b": 6506,
    "\u25810x1210e6c": 6507,
    "\u25810x1210e6d": 6508,
    "\u25810x1210e6e": 6509,
    "\u25810x1210e6f": 6510,
    "\u25810x1210e71": 6511,
    "\u25810x1210e72": 6512,
    "\u25810x1210e73": 6513,
    "\u25810x1210e74": 6514,
    "\u25810x1210e75": 6515,
    "\u25810x1210e76": 6516,
    "\u25810x1210e77": 6517,
    "\u25810x1210e78": 6518,
    "\u25810x1210e79": 6519,
    "\u25810x1210e7a": 6520,
    "\u25810x1210e7b": 6521,
    "\u25810x1210e7c": 6522,
    "\u25810x1210e7d": 6523,
    "\u25810x1210e7e": 6524,
    "\u25810x1210e7f": 6525,
    "\u25810x1210e81": 6526,
    "\u25810x1210e82": 6527,
    "\u25810x1210e83": 6528,
    "\u25810x1210e85": 6529,
    "\u25810x1210e86": 6530,
    "\u25810x1210e87": 6531,
    "\u25810x1210e89": 6532,
    "\u25810x1210e8a": 6533,
    "\u25810x1210e8b": 6534,
    "\u25810x1210e8d": 6535,
    "\u25810x1210e9f": 6536,
    "\u25810x1210ea1": 6537,
    "\u25810x1210ea2": 6538,
    "\u25810x1210ea3": 6539,
    "\u25810x1210ea4": 6540,
    "\u25810x1210ea5": 6541,
    "\u25810x1210ea6": 6542,
    "\u25810x1210ea7": 6543,
    "\u25810x1210ea8": 6544,
    "\u25810x1210ea9": 6545,
    "\u25810x1210eaa": 6546,
    "\u25810x1210eab": 6547,
    "\u25810x1210ead": 6548,
    "\u25810x1210eae": 6549,
    "\u25810x1210eaf": 6550,
    "\u25810x1210eb1": 6551,
    "\u25810x1210eb2": 6552,
    "\u25810x1210eb3": 6553,
    "\u25810x1210eb5": 6554,
    "\u25810x1210eb6": 6555,
    "\u25810x1210eb7": 6556,
    "\u25810x1210eb8": 6557,
    "\u25810x1210eb9": 6558,
    "\u25810x1210eba": 6559,
    "\u25810x1210ebb": 6560,
    "\u25810x1210ebd": 6561,
    "\u25810x1210ebe": 6562,
    "\u25810x1210ebf": 6563,
    "\u25810x1210ec1": 6564,
    "\u25810x1210ec2": 6565,
    "\u25810x1210ec3": 6566,
    "\u25810x1210ec4": 6567,
    "\u25810x1210ec5": 6568,
    "\u25810x1210ec6": 6569,
    "\u25810x1210ec7": 6570,
    "\u25810x1210ec8": 6571,
    "\u25810x1210ec9": 6572,
    "\u25810x1210eca": 6573,
    "\u25810x1210ecb": 6574,
    "\u25810x1210efc": 6575,
    "\u2581mapvirtual": 6576,
    "5038ee58555f4": 6577,
    "7b508278e11bc": 6578,
    "b10e69b4b634c": 6579,
    "b823f7af58291": 6580,
    "e794564039fa2": 6581,
    "41fa275c472084": 6582,
    "54ca9ca059f0f9": 6583,
    "58d68ae05dfce7": 6584,
    "74f71b647a1d78": 6585,
    "93c0f07c98e74d": 6586,
    "be794560c39fa2": 6587,
    "f3847168f8aace": 6588,
    "1c92d0f2bc97f74": 6589,
    "10544e9cb05974f9": 6590,
    "2498ce8ac49df4e7": 6591,
    "26fa635c2c20c010": 6592,
    "44769b23e47bc180": 6593,
    "5282f58057a95234": 6594,
    "59bc88685ee2e51c": 6595,
    "8798dfdc8cbf3c90": 6596,
    "9491aee83496d544": 6597,
    "9623a5f09b4a02a4": 6598,
    "9640a67c9b670330": 6599,
    "96c3a4709bea0124": 6600,
    "9c0a8fa4a130ec58": 6601,
    "a064ad0ca58b09c0": 6602,
    "ad457a90b26bd744": 6603,
    "ee1e85f0f344e2a4": 6604,
    "c9e5cc4eca38321a0": 6605,
    "201351f0c018784d74": 6606,
    "98526cf538579351ec": 6607,
    "b4c51a1e7ec56c844a0": 6608,
    "2a9040e8905a413af6258": 6609,
    "2e2": 6610,
    "696": 6611,
    "90e": 6612,
    "b72": 6613,
    "e32": 6614,
    "ild": 6615,
    "14a7": 6616,
    "1dac": 6617,
    "3000": 6618,
    "9eaa": 6619,
    "def0": 6620,
    "e2a0": 6621,
    "e5f0": 6622,
    "e843": 6623,
    "f709": 6624,
    "move": 6625,
    "94632": 6626,
    "\u25810xb5": 6627,
    "\u25810xd6": 6628,
    "\u25810xed": 6629,
    "\u25810x504": 6630,
    "\u25810x7bc": 6631,
    "context": 6632,
    "\u25810x40d6": 6633,
    "\u25810x40e6": 6634,
    "\u25810x7460": 6635,
    "\u25810x7b80": 6636,
    "\u25810x441806": 6637,
    "\u25810x441808": 6638,
    "\u25810x44180a": 6639,
    "\u25810x44180c": 6640,
    "\u25810x44180e": 6641,
    "\u25810x441810": 6642,
    "\u25810x441812": 6643,
    "\u25810x441814": 6644,
    "\u25810x441816": 6645,
    "\u25810x5b2be8": 6646,
    "\u25810x6ab818": 6647,
    "\u25810x7d2790": 6648,
    "\u25810x1210e8e": 6649,
    "\u25810x1210e8f": 6650,
    "\u25810x1210e91": 6651,
    "\u25810x1210e92": 6652,
    "\u25810x1210e93": 6653,
    "\u25810x1210e94": 6654,
    "\u25810x1210e95": 6655,
    "\u25810x1210e96": 6656,
    "\u25810x1210e97": 6657,
    "\u25810x1210e98": 6658,
    "\u25810x1210e99": 6659,
    "\u25810x1210e9a": 6660,
    "\u25810x1210e9b": 6661,
    "\u25810x1210e9c": 6662,
    "\u25810x1210e9d": 6663,
    "\u25810x1210e9e": 6664,
    "\u25810x1210ecd": 6665,
    "\u25810x1210ece": 6666,
    "\u25810x1210ecf": 6667,
    "\u25810x1210ed1": 6668,
    "\u25810x1210ed2": 6669,
    "\u25810x1210ed3": 6670,
    "\u25810x1210ed4": 6671,
    "\u25810x1210ed5": 6672,
    "\u25810x1210ed6": 6673,
    "\u25810x1210ed7": 6674,
    "\u25810x1210ed9": 6675,
    "\u25810x1210eda": 6676,
    "\u25810x1210edb": 6677,
    "\u25810x1210edc": 6678,
    "\u25810x1210edd": 6679,
    "\u25810x1210ede": 6680,
    "\u25810x1210edf": 6681,
    "\u25810x1210ee1": 6682,
    "\u25810x1210ee2": 6683,
    "\u25810x1210ee3": 6684,
    "\u25810x1210ee4": 6685,
    "\u25810x1210ee5": 6686,
    "\u25810x1210ee6": 6687,
    "\u25810x1210ee7": 6688,
    "\u25810x1210ee9": 6689,
    "\u25810x1210eea": 6690,
    "\u25810x1210eeb": 6691,
    "\u25810x1210eec": 6692,
    "\u25810x1210eed": 6693,
    "\u25810x1210eee": 6694,
    "\u25810x1210eef": 6695,
    "\u25810x1210ef1": 6696,
    "\u25810x1210ef2": 6697,
    "\u25810x1210ef3": 6698,
    "\u25810x1210ef5": 6699,
    "\u25810x1210ef6": 6700,
    "\u25810x1210ef7": 6701,
    "\u25810x1210ef9": 6702,
    "\u25810x1210efa": 6703,
    "\u25810x1210efb": 6704,
    "\u25810x1210efd": 6705,
    "\u25810x1210efe": 6706,
    "\u25810x1210eff": 6707,
    "\u25810x1210f01": 6708,
    "\u25810x1210f02": 6709,
    "\u25810x1210f03": 6710,
    "\u25810x1210f04": 6711,
    "\u25810x1210f05": 6712,
    "\u25810x1210f06": 6713,
    "\u25810x1210f07": 6714,
    "\u25810x1210f09": 6715,
    "\u25810x1210f0a": 6716,
    "\u25810x1210f0b": 6717,
    "\u25810x1210f0d": 6718,
    "\u25810x1210f0e": 6719,
    "\u25810x1210f0f": 6720,
    "\u25810x1210f11": 6721,
    "\u25810x1210f12": 6722,
    "\u25810x1210f13": 6723,
    "\u25810x1210f15": 6724,
    "\u25810x1210f16": 6725,
    "\u25810x1210f17": 6726,
    "\u25810x1210f19": 6727,
    "\u25810x1210f1a": 6728,
    "\u25810x1210f1b": 6729,
    "\u25810x1210f1c": 6730,
    "\u25810x1210f1d": 6731,
    "\u25810x1210f1e": 6732,
    "\u25810x1210f1f": 6733,
    "\u25810x1210f21": 6734,
    "\u25810x1210f22": 6735,
    "\u25810x1210f23": 6736,
    "\u25810x1210f25": 6737,
    "\u25810x1210f26": 6738,
    "\u25810x1210f27": 6739,
    "\u25810x1210f29": 6740,
    "\u25810x1210f2a": 6741,
    "\u25810x1210f2b": 6742,
    "\u25810x1210f2c": 6743,
    "\u25810x1210f2d": 6744,
    "\u25810x1210f2e": 6745,
    "\u25810x1210f2f": 6746,
    "\u25810x1210f31": 6747,
    "\u25810x1210f32": 6748,
    "\u25810x1210f33": 6749,
    "\u25810x1210f35": 6750,
    "\u25810x1210f36": 6751,
    "\u25810x1210f37": 6752,
    "\u25810x1210f38": 6753,
    "\u25810x1210f39": 6754,
    "\u25810x1210f3a": 6755,
    "\u25810x1210f3b": 6756,
    "\u25810x1210f3c": 6757,
    "\u25810x1210f3d": 6758,
    "\u25810x1210f3e": 6759,
    "\u25810x1210f3f": 6760,
    "\u25810x1210f41": 6761,
    "\u25810x1210f42": 6762,
    "\u25810x1210f43": 6763,
    "\u25810x1210f45": 6764,
    "\u25810x1210f46": 6765,
    "\u25810x1210f47": 6766,
    "\u25810x1210f48": 6767,
    "\u25810x1210f49": 6768,
    "\u25810x1210f4a": 6769,
    "\u25810x1210f4b": 6770,
    "\u25810x1210f4d": 6771,
    "\u25810x1210f4e": 6772,
    "\u25810x1210f4f": 6773,
    "\u25810x1210f51": 6774,
    "\u25810x1210f52": 6775,
    "\u25810x1210f53": 6776,
    "\u25810x1210f55": 6777,
    "\u25810x1210f56": 6778,
    "\u25810x1210f57": 6779,
    "\u25810x1210f59": 6780,
    "\u25810x1210f5a": 6781,
    "\u25810x1210f5b": 6782,
    "\u25810x1210f5d": 6783,
    "\u25810x1210f5e": 6784,
    "\u25810x1210f5f": 6785,
    "\u25810x1210f61": 6786,
    "\u25810x1210f62": 6787,
    "\u25810x1210f63": 6788,
    "\u25810x1210f65": 6789,
    "\u25810x1210f66": 6790,
    "\u25810x1210f67": 6791,
    "\u25810x1210f69": 6792,
    "\u25810x1210f6a": 6793,
    "\u25810x1210f6b": 6794,
    "\u25810x1210f6c": 6795,
    "\u25810x1210f6d": 6796,
    "\u25810x1210f6e": 6797,
    "\u25810x1210f6f": 6798,
    "\u25810x1210f71": 6799,
    "\u25810x1210f72": 6800,
    "\u25810x1210f73": 6801,
    "\u25810x1210f74": 6802,
    "\u25810x1210f75": 6803,
    "\u25810x1210f76": 6804,
    "\u25810x1210f77": 6805,
    "\u25810x1210f78": 6806,
    "\u25810x1210f79": 6807,
    "\u25810x1210f7a": 6808,
    "\u25810x1210f7b": 6809,
    "\u25810x1210f7c": 6810,
    "\u25810x1210f7d": 6811,
    "\u25810x1210f7e": 6812,
    "\u25810x1210f7f": 6813,
    "\u25810x1210f81": 6814,
    "\u25810x1210f82": 6815,
    "\u25810x1210f83": 6816,
    "\u25810x1210f85": 6817,
    "\u25810x1210f86": 6818,
    "\u25810x1210f87": 6819,
    "\u25810x1210f89": 6820,
    "\u25810x1210f8a": 6821,
    "\u25810x1210f8b": 6822,
    "\u25810x1210f8d": 6823,
    "\u25810x1210f8e": 6824,
    "\u25810x1210f8f": 6825,
    "\u25810x1210f91": 6826,
    "\u25810x1210f92": 6827,
    "\u25810x1210f93": 6828,
    "\u25810x1210f95": 6829,
    "\u25810x1210f96": 6830,
    "\u25810x1210f97": 6831,
    "\u25810x1210f99": 6832,
    "\u25810x1210f9a": 6833,
    "\u25810xfeee00d7": 6834,
    "1598": 6835,
    "2450": 6836,
    "247d": 6837,
    "48d5": 6838,
    "64e0": 6839,
    "939a": 6840,
    "9a9c": 6841,
    "atom": 6842,
    "b526": 6843,
    "bcac": 6844,
    "d12a": 6845,
    "e960": 6846,
    "ecf7": 6847,
    "ee6a": 6848,
    "104c4": 6849,
    "2cb46": 6850,
    "3445c": 6851,
    "59958": 6852,
    "64094": 6853,
    "645e9": 6854,
    "6e0d8": 6855,
    "74920": 6856,
    "a08d5": 6857,
    "a1105": 6858,
    "a85a7": 6859,
    "activ": 6860,
    "ansla": 6861,
    "b3f6c": 6862,
    "b7923": 6863,
    "d1dac": 6864,
    "f1756": 6865,
    "place": 6866,
    "\u25810xb1": 6867,
    "1b4440": 6868,
    "1d9eaa": 6869,
    "31471c": 6870,
    "5beea1": 6871,
    "5ccfae": 6872,
    "9880e7": 6873,
    "aab166": 6874,
    "e0c0c2": 6875,
    "\u25810x429": 6876,
    "\u25810x61e": 6877,
    "14c8c5f": 6878,
    "1808c5f": 6879,
    "309e0da": 6880,
    "aterect": 6881,
    "b5b2330": 6882,
    "bfba1b0": 6883,
    "d1dac38": 6884,
    "187f43d4": 6885,
    "18d5bf20": 6886,
    "1cfdd12a": 6887,
    "545f1756": 6888,
    "640941e4": 6889,
    "645e9b56": 6890,
    "91e59958": 6891,
    "a0705f6c": 6892,
    "a08d5ff8": 6893,
    "a1105dec": 6894,
    "a6574920": 6895,
    "a8a97e68": 6896,
    "b792340c": 6897,
    "f86b3f6c": 6898,
    "b0c5a85a7": 6899,
    "104c46e0d8": 6900,
    "309e0da9f8": 6901,
    "78a31b4440": 6902,
    "946323445c": 6903,
    "e89bfba1b0": 6904,
    "\u25810x1210d98": 6905,
    "668bb5b2330": 6906,
    "e0c0c2e4468": 6907,
    "f709d1dac38": 6908,
    "7b508278e11bc2cb46": 6909,
    "e794564039fa21808c5f": 6910,
    "98526cf538579351ec5cb": 6911,
    "be794560c39fa214c8c5f": 6912,
    "26fa635c2c20c01031471c": 6913,
    "44769b23e47bc1809880e7": 6914,
    "5038ee58555f4b0c5a85a7": 6915,
    "5282f58057a952345ccfae": 6916,
    "54ca9ca059f0f9545f1756": 6917,
    "74f71b647a1d78187f43d4": 6918,
    "a064ad0ca58b09c0aab166": 6919,
    "f3847168f8aace1cfdd12a": 6920,
    "10544e9cb05974f9645e9b56": 6921,
    "201351f0c018784d741d9eaa": 6922,
    "41fa275c472084104c46e0d8": 6923,
    "58d68ae05dfce7946323445c": 6924,
    "59bc88685ee2e51c640941e4": 6925,
    "8798dfdc8cbf3c9091e59958": 6926,
    "93c0f07c98e74d309e0da9f8": 6927,
    "9623a5f09b4a02a4a0705f6c": 6928,
    "9640a67c9b670330a08d5ff8": 6929,
    "96c3a4709bea0124a1105dec": 6930,
    "9c0a8fa4a130ec58a6574920": 6931,
    "ad457a90b26bd744b792340c": 6932,
    "b10e69b4b634c668bb5b2330": 6933,
    "b823f7af58291e0c0c2e4468": 6934,
    "ee1e85f0f344e2a4f86b3f6c": 6935,
    "b4c51a1e7ec56c844a05beea1": 6936,
    "c9e5cc4eca38321a0a8a97e68": 6937,
    "1c92d0f2bc97f74f709d1dac38": 6938,
    "2498ce8ac49df4e778a31b4440": 6939,
    "9491aee83496d544e89bfba1b0": 6940,
    "2a9040e8905a413af625818d5bf20": 6941,
    "34f": 6942,
    "ada": 6943,
    "baa": 6944,
    "11d8": 6945,
    "2b10": 6946,
    "6e55": 6947,
    "9fad": 6948,
    "a876": 6949,
    "ab7d": 6950,
    "b064": 6951,
    "b8d3": 6952,
    "bc13": 6953,
    "d11c": 6954,
    "d6ff": 6955,
    "dbc0": 6956,
    "f708": 6957,
    "1a11c": 6958,
    "d3db4": 6959,
    "eb640": 6960,
    "\u25810xb9": 6961,
    "\u25810x4c0": 6962,
    "\u25810x5a1": 6963,
    "\u2581wtsget": 6964,
    "econsole": 6965,
    "\u25810x12e00": 6966,
    "\u25810x44c418": 6967,
    "\u25810x461500": 6968,
    "\u25810x1210f9b": 6969,
    "\u25810x1210f9c": 6970,
    "\u25810x1210f9d": 6971,
    "\u25810x1210f9e": 6972,
    "\u25810x1210f9f": 6973,
    "\u25810x1210fa1": 6974,
    "\u25810x1210fa2": 6975,
    "\u25810x1210fa3": 6976,
    "\u25810x1210fa4": 6977,
    "\u25810x1210fa5": 6978,
    "\u25810x1210fa6": 6979,
    "\u25810x1210fa7": 6980,
    "\u25810x1210fa8": 6981,
    "\u25810x1210fa9": 6982,
    "\u25810x1210faa": 6983,
    "\u25810x1210fab": 6984,
    "\u25810x1210fac": 6985,
    "\u25810x1210fad": 6986,
    "\u25810x1210fae": 6987,
    "\u25810x1210faf": 6988,
    "\u25810x1210fb1": 6989,
    "\u25810x1210fb2": 6990,
    "\u25810x1210fb3": 6991,
    "\u25810x1210fb4": 6992,
    "\u25810x1210fb5": 6993,
    "\u25810x1210fb6": 6994,
    "\u25810x1210fb7": 6995,
    "\u25810x1210fb9": 6996,
    "\u25810x1210fba": 6997,
    "\u25810x1210fbb": 6998,
    "\u25810x1210fbc": 6999,
    "\u25810x1210fbd": 7000,
    "\u25810x1210fbe": 7001,
    "\u25810x1210fbf": 7002,
    "\u25810x1211e00": 7003,
    "\u25810x7bc00000": 7004,
    "\u2581wtsgetactiv": 7005,
    "\u2581getcursorpos": 7006,
    "\u2581formatmessagew": 7007,
    "econsolesessionid": 7008,
    "\u2581removedirectoryw": 7009,
    "\u2581wtsgetactiveconsolesessionid": 7010,
    "16c": 7011,
    "205": 7012,
    "512": 7013,
    "9ec": 7014,
    "1790": 7015,
    "2694": 7016,
    "7334": 7017,
    "82ef": 7018,
    "9039": 7019,
    "908c": 7020,
    "938a": 7021,
    "ad80": 7022,
    "adcc": 7023,
    "adcf": 7024,
    "apis": 7025,
    "b1b7": 7026,
    "cb28": 7027,
    "fa38": 7028,
    "fd91": 7029,
    "ster": 7030,
    "1b308": 7031,
    "36ac5": 7032,
    "60e3a": 7033,
    "692f9": 7034,
    "88afd": 7035,
    "a121f": 7036,
    "a3340": 7037,
    "a636b": 7038,
    "cc5a7": 7039,
    "d45fa": 7040,
    "e402f": 7041,
    "e4466": 7042,
    "\u25810xf7": 7043,
    "1dfc1b": 7044,
    "3db2f8": 7045,
    "6a31bc": 7046,
    "970bf6": 7047,
    "9aeb46": 7048,
    "a24409": 7049,
    "bcb890": 7050,
    "1dacb60": 7051,
    "1e00b90": 7052,
    "1f60bd8": 7053,
    "2c50718": 7054,
    "36ac5b0": 7055,
    "66d79b4": 7056,
    "686114f": 7057,
    "connect": 7058,
    "\u25810x7dc0": 7059,
    "\u25810x8ae0": 7060,
    "516d3db4": 7061,
    "692f9ec0": 7062,
    "88afd7c3": 7063,
    "a33406d4": 7064,
    "a596bc48": 7065,
    "a5b3bcd4": 7066,
    "a636bac8": 7067,
    "a841a11c": 7068,
    "ab7da5fc": 7069,
    "adcfdb44": 7070,
    "apisansi": 7071,
    "d45fac04": 7072,
    "usttoken": 7073,
    "\u2581arefile": 7074,
    "\u2581transla": 7075,
    "edccdec5b": 7076,
    "ee00dec5b": 7077,
    "\u25810x441818": 7078,
    "1c643db2f8": 7079,
    "2c63c1b308": 7080,
    "3c22c50718": 7081,
    "d4336ac5b0": 7082,
    "d8366d79b4": 7083,
    "dd60860e3a": 7084,
    "e0846a31bc": 7085,
    "fc61f60bd8": 7086,
    "\u25810x1211d14": 7087,
    "e8431dacb60": 7088,
    "\u2581application": 7089,
    "9aeb461e00b90": 7090,
    "\u2581arefileapisansi": 7091,
    "58d68ae05dfce7946323445c684": 7092,
    "b10e69b4b634c668bb5b2330c08": 7093,
    "f3847168f8aace1cfdd12ae402f": 7094,
    "ee1e85f0f344e2a4f86b3f6cfd91": 7095,
    "7b508278e11bc2cb46e8431dacb60": 7096,
    "e794564039fa21808c5fee00dec5b": 7097,
    "5038ee58555f4b0c5a85a7d45fac04": 7098,
    "8798dfdc8cbf3c9091e59958970bf6": 7099,
    "a064ad0ca58b09c0aab16688afd7c3": 7100,
    "ad457a90b26bd744b792340cbcb890": 7101,
    "be794560c39fa214c8c5fedccdec5b": 7102,
    "9491aee83496d544e89bfba1b0a121f": 7103,
    "1c92d0f2bc97f74f709d1dac38a24409": 7104,
    "26fa635c2c20c01031471cd8366d79b4": 7105,
    "41fa275c472084104c46e0d8516d3db4": 7106,
    "44769b23e47bc1809880e7dd60860e3a": 7107,
    "5282f58057a952345ccfaefc61f60bd8": 7108,
    "54ca9ca059f0f9545f17561c643db2f8": 7109,
    "59bc88685ee2e51c640941e4692f9ec0": 7110,
    "74f71b647a1d78187f43d4e0846a31bc": 7111,
    "93c0f07c98e74d309e0da9f8a33406d4": 7112,
    "9623a5f09b4a02a4a0705f6ca596bc48": 7113,
    "9640a67c9b670330a08d5ff8a5b3bcd4": 7114,
    "96c3a4709bea0124a1105deca636bac8": 7115,
    "9c0a8fa4a130ec58a6574920ab7da5fc": 7116,
    "b4c51a1e7ec56c844a05beea1686114f": 7117,
    "c9e5cc4eca38321a0a8a97e68adcfdb44": 7118,
    "10544e9cb05974f9645e9b562c63c1b308": 7119,
    "201351f0c018784d741d9eaa3c22c50718": 7120,
    "2498ce8ac49df4e778a31b4440a841a11c": 7121,
    "98526cf538579351ec5cb9aeb461e00b90": 7122,
    "b823f7af58291e0c0c2e4468d4336ac5b0": 7123,
    "2a9040e8905a413af625818d5bf201dfc1b": 7124,
    "fy": 7125,
    "hl": 7126,
    "350": 7127,
    "f99": 7128,
    "fd5": 7129,
    "red": 7130,
    "13f4": 7131,
    "1c48": 7132,
    "287e": 7133,
    "3b5b": 7134,
    "3f3c": 7135,
    "54c0": 7136,
    "5e3e": 7137,
    "7054": 7138,
    "749f": 7139,
    "9cd1": 7140,
    "bcb5": 7141,
    "c017": 7142,
    "d6f3": 7143,
    "dc3a": 7144,
    "etch": 7145,
    "\u2581lib": 7146,
    "126a9": 7147,
    "32278": 7148,
    "ac90c": 7149,
    "\u25810xdd": 7150,
    "lass32": 7151,
    "\u25810x208": 7152,
    "\u25810x464": 7153,
    "\u25810x4b4": 7154,
    "\u25810x1810": 7155,
    "\u25810x4533": 7156,
    "\u25810x8ad0": 7157,
    "lewindow": 7158,
    "privileges": 7159,
    "\u25810x1211e60": 7160,
    "\u25810x1211e84": 7161,
    "\u2581destroyen": 7162,
    "usttokenprivileges": 7163,
    "\u2581getuserdefaultlcid": 7164,
    "\u2581createenvironmentblock": 7165,
    "\u2581registerwindowmessagea": 7166,
    "\u2581destroyenvironmentblock": 7167,
    "1f8": 7168,
    "2de": 7169,
    "ana": 7170,
    "d19": 7171,
    "fa5": 7172,
    "faa": 7173,
    "\u2581sn": 7174,
    "107b": 7175,
    "14ab": 7176,
    "1af4": 7177,
    "5be4": 7178,
    "6460": 7179,
    "6663": 7180,
    "747c": 7181,
    "9233": 7182,
    "a19c": 7183,
    "a350": 7184,
    "ad67": 7185,
    "e8eb": 7186,
    "122a0": 7187,
    "1deed": 7188,
    "66880": 7189,
    "68e80": 7190,
    "69640": 7191,
    "89908": 7192,
    "a5ff0": 7193,
    "a63c4": 7194,
    "aabd1": 7195,
    "ab5d1": 7196,
    "b0a40": 7197,
    "d84cc": 7198,
    "\u25810xcb": 7199,
    "0081de": 7200,
    "14a76a": 7201,
    "325324": 7202,
    "34972c": 7203,
    "370128": 7204,
    "3b93d6": 7205,
    "56939a": 7206,
    "802b7f": 7207,
    "9a1386": 7208,
    "b2f638": 7209,
    "d261a0": 7210,
    "27eb640": 7211,
    "6485b7c": 7212,
    "ad67fe0": 7213,
    "cc5a7dc": 7214,
    "d6ffe28": 7215,
    "\u25810x169b": 7216,
    "\u25810x43a2": 7217,
    "\u25810x4974": 7218,
    "\u25810x7e90": 7219,
    "\u25810x8f30": 7220,
    "389122a0": 7221,
    "64b4fe20": 7222,
    "67066880": 7223,
    "671c68c8": 7224,
    "69640fe8": 7225,
    "6e55fbb0": 7226,
    "a85a63c4": 7227,
    "ab5d17b8": 7228,
    "b0a402ec": 7229,
    "b2f63834": 7230,
    "b8d312b8": 7231,
    "bc1312b8": 7232,
    "e8c1deed": 7233,
    "fc232278": 7234,
    "9c4802b7f": 7235,
    "e44663b5b": 7236,
    "\u25810x41f034": 7237,
    "\u25810x41f038": 7238,
    "14a76a6604": 7239,
    "349c325324": 7240,
    "3c8b34972c": 7241,
    "787c0081de": 7242,
    "b064d261a0": 7243,
    "1800cc5a7dc": 7244,
    "e8ca6485b7c": 7245,
    "\u25810xfeee00b7": 7246,
    "\u25810xfeee00b8": 7247,
    "\u2581fatalerror": 7248,
    "9a1386d6ffe28": 7249,
    "\u2581setcurrentdirectoryw": 7250,
    "7b508278e11bc2cb46e8431dacb60370128": 7251,
    "9640a67c9b670330a08d5ff8a5b3bcd4aad": 7252,
    "74f71b647a1d78187f43d4e0846a31bc89908": 7253,
    "9623a5f09b4a02a4a0705f6ca596bc48aabd1": 7254,
    "e794564039fa21808c5fee00dec5bbc1312b8": 7255,
    "ee1e85f0f344e2a4f86b3f6cfd919c4802b7f": 7256,
    "f3847168f8aace1cfdd12ae402f787c0081de": 7257,
    "26fa635c2c20c01031471cd8366d79b43b93d6": 7258,
    "41fa275c472084104c46e0d8516d3db456939a": 7259,
    "a064ad0ca58b09c0aab16688afd7c364b4fe20": 7260,
    "ad457a90b26bd744b792340cbcb890e8c1deed": 7261,
    "b10e69b4b634c668bb5b2330c081800cc5a7dc": 7262,
    "be794560c39fa214c8c5fedccdec5bb8d312b8": 7263,
    "10544e9cb05974f9645e9b562c63c1b30868e80": 7264,
    "5038ee58555f4b0c5a85a7d45fac04b064d261a0": 7265,
    "5282f58057a952345ccfaefc61f60bd8671c68c8": 7266,
    "54ca9ca059f0f9545f17561c643db2f869640fe8": 7267,
    "58d68ae05dfce7946323445c6849a1386d6ffe28": 7268,
    "59bc88685ee2e51c640941e4692f9ec06e55fbb0": 7269,
    "8798dfdc8cbf3c9091e59958970bf6349c325324": 7270,
    "93c0f07c98e74d309e0da9f8a33406d4a85a63c4": 7271,
    "96c3a4709bea0124a1105deca636bac8ab5d17b8": 7272,
    "9c0a8fa4a130ec58a6574920ab7da5fcb0a402ec": 7273,
    "201351f0c018784d741d9eaa3c22c5071827eb640": 7274,
    "2498ce8ac49df4e778a31b4440a841a11cad67fe0": 7275,
    "b4c51a1e7ec56c844a05beea1686114fe44663b5b": 7276,
    "c9e5cc4eca38321a0a8a97e68adcfdb44b2f63834": 7277,
    "1c92d0f2bc97f74f709d1dac38a2440914a76a6604": 7278,
    "44769b23e47bc1809880e7dd60860e3a3c8b34972c": 7279,
    "9491aee83496d544e89bfba1b0a121fe8ca6485b7c": 7280,
    "98526cf538579351ec5cb9aeb461e00b9067066880": 7281,
    "b823f7af58291e0c0c2e4468d4336ac5b0389122a0": 7282,
    "2a9040e8905a413af625818d5bf201dfc1bfc232278": 7283,
    "65b": 7284,
    "798": 7285,
    "dae": 7286,
    "60db": 7287,
    "9498": 7288,
    "a158": 7289,
    "b1ec": 7290,
    "bea4": 7291,
    "2c5cc": 7292,
    "73b0c": 7293,
    "a33a8": 7294,
    "b61b8": 7295,
    "flush": 7296,
    "\u25810xc6": 7297,
    "\u25810xe9": 7298,
    "visual": 7299,
    "\u25810x10f": 7300,
    "\u25810x45c": 7301,
    "\u25810x4224": 7302,
    "\u25810x7c16": 7303,
    "\u25810x4093f1": 7304,
    "\u25810x4093f2": 7305,
    "\u25810x4093f3": 7306,
    "\u25810x409431": 7307,
    "\u25810x409432": 7308,
    "\u25810x409433": 7309,
    "\u25810x409434": 7310,
    "\u25810x409435": 7311,
    "\u25810x409436": 7312,
    "\u25810x409437": 7313,
    "\u25810x40a92e": 7314,
    "\u25810x40a930": 7315,
    "\u25810x40a932": 7316,
    "\u25810x40a934": 7317,
    "\u25810x40a936": 7318,
    "\u25810x40a938": 7319,
    "\u25810x40a93a": 7320,
    "\u25810x42a1d8": 7321,
    "\u25810x44181a": 7322,
    "\u25810x44181c": 7323,
    "\u25810x44181e": 7324,
    "\u25810x7ee001": 7325,
    "\u25810x7ee002": 7326,
    "\u25810x7ee003": 7327,
    "\u25810x7ee004": 7328,
    "\u25810x7ee005": 7329,
    "\u25810x7ee006": 7330,
    "\u25810x7ee007": 7331,
    "\u25810x7ee008": 7332,
    "\u25810x7ee009": 7333,
    "\u25810x7ee00a": 7334,
    "\u25810x7ee00b": 7335,
    "\u25810x7ee00c": 7336,
    "\u25810x7ee00d": 7337,
    "\u25810x7ee00e": 7338,
    "\u25810x7ee00f": 7339,
    "\u25810x7ee010": 7340,
    "\u25810x7ee011": 7341,
    "\u25810x7ee012": 7342,
    "\u25810x7ee013": 7343,
    "\u25810x7ee014": 7344,
    "\u25810x7ee015": 7345,
    "\u25810x7ee016": 7346,
    "\u25810x7ee017": 7347,
    "\u25810x7ee018": 7348,
    "\u25810x7ee019": 7349,
    "\u25810x1211cbc": 7350,
    "\u25810x1211cec": 7351,
    "\u25810x1211dd8": 7352,
    "\u2581charupper": 7353,
    "\u2581getscroll": 7354,
    "\u25810xfeee00b6": 7355,
    "\u25810xfeee00b9": 7356,
    "\u2581heapdestroy": 7357,
    "\u2581releasemutex": 7358,
    "\u2581wtsfreememory": 7359,
    "\u2581registerservicectrlhandlerexa": 7360,
    "13d": 7361,
    "31b": 7362,
    "53d": 7363,
    "aa1": 7364,
    "346d": 7365,
    "3da8": 7366,
    "7137": 7367,
    "9041": 7368,
    "905a": 7369,
    "94dc": 7370,
    "9cac": 7371,
    "9cdd": 7372,
    "a690": 7373,
    "ab6e": 7374,
    "bbed": 7375,
    "d47e": 7376,
    "d63d": 7377,
    "ecd0": 7378,
    "3db77": 7379,
    "4b00d": 7380,
    "7de56": 7381,
    "9f7a8": 7382,
    "a45bb": 7383,
    "a6cec": 7384,
    "ace3a": 7385,
    "e5b10": 7386,
    "e6cfc": 7387,
    "fe376": 7388,
    "\u25810xf9": 7389,
    "\u2581pbvm": 7390,
    "4441b4": 7391,
    "4b0007": 7392,
    "72965b": 7393,
    "737c58": 7394,
    "82d11c": 7395,
    "b08374": 7396,
    "ff86e0": 7397,
    "\u25810x20a": 7398,
    "\u25810x22e": 7399,
    "\u25810x549": 7400,
    "503c278": 7401,
    "d8c7054": 7402,
    "eac8eb6": 7403,
    "346b61b8": 7404,
    "54ba247d": 7405,
    "69f8bea4": 7406,
    "6c42c5cc": 7407,
    "6e8a6cec": 7408,
    "72965b2c": 7409,
    "737c58b4": 7410,
    "905af430": 7411,
    "a158b028": 7412,
    "a8d83915": 7413,
    "ab6eb880": 7414,
    "ac183915": 7415,
    "ac90c308": 7416,
    "ad80c0c8": 7417,
    "b5ca5ff0": 7418,
    "b81c9538": 7419,
    "ec2848d5": 7420,
    "fccace3a": 7421,
    "4b00076c8": 7422,
    "82d11c10c": 7423,
    "93807de56": 7424,
    "938afe376": 7425,
    "cb28e5b10": 7426,
    "a440ba33a8": 7427,
    "a45bb9f7a8": 7428,
    "\u25810x2050000": 7429,
    "\u25810x2200220": 7430,
    "4b00d4441b4": 7431,
    "eac8eb6ebb0": 7432,
    "ff86e0e6cfc": 7433,
    "a19c4b00076c8": 7434,
    "7b508278e11bc2cb46e8431dacb60370128503c278": 7435,
    "98526cf538579351ec5cb9aeb461e00b90670668806c2": 7436,
    "ad457a90b26bd744b792340cbcb890e8c1deedd8c7054": 7437,
    "e794564039fa21808c5fee00dec5bbc1312b8ac183915": 7438,
    "9623a5f09b4a02a4a0705f6ca596bc48aabd1938afe376": 7439,
    "96c3a4709bea0124a1105deca636bac8ab5d17b8b08374": 7440,
    "a064ad0ca58b09c0aab16688afd7c364b4fe2054ba247d": 7441,
    "b10e69b4b634c668bb5b2330c081800cc5a7dcfccace3a": 7442,
    "be794560c39fa214c8c5fedccdec5bb8d312b8a8d83915": 7443,
    "ee1e85f0f344e2a4f86b3f6cfd919c4802b7f93807de56": 7444,
    "b823f7af58291e0c0c2e4468d4336ac5b0389122a03db77": 7445,
    "26fa635c2c20c01031471cd8366d79b43b93d6a440ba33a8": 7446,
    "41fa275c472084104c46e0d8516d3db456939aa45bb9f7a8": 7447,
    "5038ee58555f4b0c5a85a7d45fac04b064d261a069f8bea4": 7448,
    "5282f58057a952345ccfaefc61f60bd8671c68c86c42c5cc": 7449,
    "54ca9ca059f0f9545f17561c643db2f869640fe86e8a6cec": 7450,
    "58d68ae05dfce7946323445c6849a1386d6ffe2872965b2c": 7451,
    "59bc88685ee2e51c640941e4692f9ec06e55fbb0737c58b4": 7452,
    "74f71b647a1d78187f43d4e0846a31bc89908eac8eb6ebb0": 7453,
    "8798dfdc8cbf3c9091e59958970bf6349c325324a158b028": 7454,
    "93c0f07c98e74d309e0da9f8a33406d4a85a63c4ad80c0c8": 7455,
    "9640a67c9b670330a08d5ff8a5b3bcd4aada19c4b00076c8": 7456,
    "9c0a8fa4a130ec58a6574920ab7da5fcb0a402ecb5ca5ff0": 7457,
    "f3847168f8aace1cfdd12ae402f787c0081de4b00d4441b4": 7458,
    "b4c51a1e7ec56c844a05beea1686114fe44663b5b346b61b8": 7459,
    "c9e5cc4eca38321a0a8a97e68adcfdb44b2f63834b81c9538": 7460,
    "10544e9cb05974f9645e9b562c63c1b30868e80ff86e0e6cfc": 7461,
    "1c92d0f2bc97f74f709d1dac38a2440914a76a6604ac90c308": 7462,
    "201351f0c018784d741d9eaa3c22c5071827eb64082d11c10c": 7463,
    "2498ce8ac49df4e778a31b4440a841a11cad67fe0cb28e5b10": 7464,
    "44769b23e47bc1809880e7dd60860e3a3c8b34972c905af430": 7465,
    "9491aee83496d544e89bfba1b0a121fe8ca6485b7cab6eb880": 7466,
    "2a9040e8905a413af625818d5bf201dfc1bfc232278ec2848d5": 7467,
    "ig": 7468,
    "4cf": 7469,
    "7dd": 7470,
    "18cf": 7471,
    "2c4e": 7472,
    "32af": 7473,
    "4674": 7474,
    "5c80": 7475,
    "90cb": 7476,
    "9e00": 7477,
    "a434": 7478,
    "a9be": 7479,
    "acf3": 7480,
    "ccf6": 7481,
    "e4d3": 7482,
    "a67f0": 7483,
    "\u25810xfe": 7484,
    "\u25810x48c0": 7485,
    "\u25810x78c0": 7486,
    "\u25810x7e8c": 7487,
    "\u25810x7e8d": 7488,
    "\u25810x1211898": 7489,
    "\u2581getlogicaldrive": 7490,
    "\u2581regqueryvalueexw": 7491,
    "6c3": 7492,
    "9f5": 7493,
    "bed": 7494,
    "f91": 7495,
    "169c": 7496,
    "3566": 7497,
    "4715": 7498,
    "6a6c": 7499,
    "9ae8": 7500,
    "ac74": 7501,
    "acb5": 7502,
    "bd00": 7503,
    "c740": 7504,
    "ca14": 7505,
    "f037": 7506,
    "mous": 7507,
    "2dddc": 7508,
    "509d3": 7509,
    "922e4": 7510,
    "93dd4": 7511,
    "baf0b": 7512,
    "bb4a4": 7513,
    "c2ba7": 7514,
    "ff497": 7515,
    "\u25810xc5": 7516,
    "387088": 7517,
    "3c0d04": 7518,
    "45e090": 7519,
    "6f1f1b": 7520,
    "77bcb8": 7521,
    "a9d1d4": 7522,
    "b4b828": 7523,
    "bd42f2": 7524,
    "\u25810x232": 7525,
    "\u25810x23c": 7526,
    "\u25810x416": 7527,
    "\u25810x41e": 7528,
    "14de26c": 7529,
    "4715322": 7530,
    "58bf4ad": 7531,
    "93dd48c": 7532,
    "acdd5f7": 7533,
    "b01d5f7": 7534,
    "d6f3308": 7535,
    "\u25810x5374": 7536,
    "\u25810x7e91": 7537,
    "00cff497": 7538,
    "126a9ecc": 7539,
    "32381e24": 7540,
    "3cb509d3": 7541,
    "60e054c0": 7542,
    "716922e4": 7543,
    "7334ca14": 7544,
    "73b0ca04": 7545,
    "77bcb844": 7546,
    "78a2b5cc": 7547,
    "a67f0d40": 7548,
    "b0951598": 7549,
    "b1b72020": 7550,
    "b2a71de0": 7551,
    "b526d3e0": 7552,
    "b7b4b828": 7553,
    "baf0bd08": 7554,
    "adccc2ba7": 7555,
    "fa442dddc": 7556,
    "\u25810x188e04": 7557,
    "3870881550": 7558,
    "3c0d04b354": 7559,
    "58bf4ada70": 7560,
    "bcb5a9d1d4": 7561,
    "f02d6f3308": 7562,
    "\u25810x1211f58": 7563,
    "554414de26c": 7564,
    "cc584715322": 7565,
    "\u25810xfeee00bb": 7566,
    "\u2581defwindowproca": 7567,
    "\u2581lookupprivilege": 7568,
    "e794564039fa21808c5fee00dec5bbc1312b8ac183915b01d5f7": 7569,
    "44769b23e47bc1809880e7dd60860e3a3c8b34972c905af430958": 7570,
    "7b508278e11bc2cb46e8431dacb60370128503c278554414de26c": 7571,
    "be794560c39fa214c8c5fedccdec5bb8d312b8a8d83915acdd5f7": 7572,
    "26fa635c2c20c01031471cd8366d79b43b93d6a440ba33a845e090": 7573,
    "5038ee58555f4b0c5a85a7d45fac04b064d261a069f8bea46f1f1b": 7574,
    "9623a5f09b4a02a4a0705f6ca596bc48aabd1938afe3763cb509d3": 7575,
    "ad457a90b26bd744b792340cbcb890e8c1deedd8c7054adccc2ba7": 7576,
    "b10e69b4b634c668bb5b2330c081800cc5a7dcfccace3a00cff497": 7577,
    "74f71b647a1d78187f43d4e0846a31bc89908eac8eb6ebb093dd48c": 7578,
    "c9e5cc4eca38321a0a8a97e68adcfdb44b2f63834b81c9538bd42f2": 7579,
    "41fa275c472084104c46e0d8516d3db456939aa45bb9f7a860e054c0": 7580,
    "5282f58057a952345ccfaefc61f60bd8671c68c86c42c5cc716922e4": 7581,
    "54ca9ca059f0f9545f17561c643db2f869640fe86e8a6cec73b0ca04": 7582,
    "58d68ae05dfce7946323445c6849a1386d6ffe2872965b2c77bcb844": 7583,
    "59bc88685ee2e51c640941e4692f9ec06e55fbb0737c58b478a2b5cc": 7584,
    "8798dfdc8cbf3c9091e59958970bf6349c325324a158b028a67f0d40": 7585,
    "93c0f07c98e74d309e0da9f8a33406d4a85a63c4ad80c0c8b2a71de0": 7586,
    "9640a67c9b670330a08d5ff8a5b3bcd4aada19c4b00076c8b526d3e0": 7587,
    "96c3a4709bea0124a1105deca636bac8ab5d17b8b08374bcb5a9d1d4": 7588,
    "98526cf538579351ec5cb9aeb461e00b90670668806c2cc584715322": 7589,
    "9c0a8fa4a130ec58a6574920ab7da5fcb0a402ecb5ca5ff0baf0bd08": 7590,
    "a064ad0ca58b09c0aab16688afd7c364b4fe2054ba247d58bf4ada70": 7591,
    "b823f7af58291e0c0c2e4468d4336ac5b0389122a03db77fa442dddc": 7592,
    "ee1e85f0f344e2a4f86b3f6cfd919c4802b7f93807de563c0d04b354": 7593,
    "f3847168f8aace1cfdd12ae402f787c0081de4b00d4441b4126a9ecc": 7594,
    "10544e9cb05974f9645e9b562c63c1b30868e80ff86e0e6cfc7334ca14": 7595,
    "1c92d0f2bc97f74f709d1dac38a2440914a76a6604ac90c308b1b72020": 7596,
    "201351f0c018784d741d9eaa3c22c5071827eb64082d11c10c32381e24": 7597,
    "2498ce8ac49df4e778a31b4440a841a11cad67fe0cb28e5b10b7b4b828": 7598,
    "9491aee83496d544e89bfba1b0a121fe8ca6485b7cab6eb880b0951598": 7599,
    "b4c51a1e7ec56c844a05beea1686114fe44663b5b346b61b83870881550": 7600,
    "2a9040e8905a413af625818d5bf201dfc1bfc232278ec2848d5f02d6f3308": 7601,
    "1e9": 7602,
    "206": 7603,
    "407": 7604,
    "673": 7605,
    "1034": 7606,
    "2500": 7607,
    "3718": 7608,
    "5fa0": 7609,
    "5fac": 7610,
    "7775": 7611,
    "8017": 7612,
    "9590": 7613,
    "b690": 7614,
    "bb00": 7615,
    "bcf3": 7616,
    "be50": 7617,
    "cc40": 7618,
    "ed3c": 7619,
    "ffb2": 7620,
    "\u2581try": 7621,
    "56e1d": 7622,
    "573ba": 7623,
    "e83cc": 7624,
    "queue": 7625,
    "\u25810xce": 7626,
    "\u25810x150": 7627,
    "\u25810x3820": 7628,
    "\u25810x44b3": 7629,
    "\u25810x4ee0": 7630,
    "\u25810x169bc": 7631,
    "\u25810x539138": 7632,
    "\u25810x1211884": 7633,
    "\u25810x1211ef0": 7634,
    "195": 7635,
    "980": 7636,
    "aef": 7637,
    "ba0": 7638,
    "c4b": 7639,
    "\u2581op": 7640,
    "1e98": 7641,
    "3692": 7642,
    "40c3": 7643,
    "5e58": 7644,
    "a415": 7645,
    "b7e9": 7646,
    "bf70": 7647,
    "cf2c": 7648,
    "d1dc": 7649,
    "de88": 7650,
    "e298": 7651,
    "ed86": 7652,
    "f417": 7653,
    "f7cc": 7654,
    "02f00": 7655,
    "44578": 7656,
    "785b2": 7657,
    "80439": 7658,
    "89aa7": 7659,
    "912f8": 7660,
    "b5bb7": 7661,
    "b6dd7": 7662,
    "b7cd7": 7663,
    "122b10": 7664,
    "303080": 7665,
    "329590": 7666,
    "375e7b": 7667,
    "520520": 7668,
    "75ae72": 7669,
    "768f80": 7670,
    "78d727": 7671,
    "7ce315": 7672,
    "active": 7673,
    "bcdb15": 7674,
    "c0171a": 7675,
    "c04b06": 7676,
    "c47137": 7677,
    "\u25810x57c": 7678,
    "285cff0": 7679,
    "285cff4": 7680,
    "50c2694": 7681,
    "89903a5": 7682,
    "89aa7ae": 7683,
    "9c76797": 7684,
    "\u25810x4085": 7685,
    "\u25810x414a": 7686,
    "\u25810x422a": 7687,
    "1790fbf8": 7688,
    "18d51af4": 7689,
    "46743f98": 7690,
    "6606b1ec": 7691,
    "785b2740": 7692,
    "7dc912f8": 7693,
    "aba56a6c": 7694,
    "b5bb72c4": 7695,
    "b6dd7d4c": 7696,
    "b7cd7b0c": 7697,
    "bad02f00": 7698,
    "bc480439": 7699,
    "bc744578": 7700,
    "indirect": 7701,
    "\u2581selectob": 7702,
    "54ba303080": 7703,
    "c04b06edec": 7704,
    "f4d1520520": 7705,
    "\u25810x1211518": 7706,
    "151489aa7ae": 7707,
    "2c4e285cff0": 7708,
    "2c82285cff4": 7709,
    "\u2581getlogicaldrivestring": 7710,
    "9640a67c9b670330a08d5ff8a5b3bcd4aada19c4b00076c8b526d3e0ba4": 7711,
    "7b508278e11bc2cb46e8431dacb60370128503c278554414de26c46743f98": 7712,
    "5038ee58555f4b0c5a85a7d45fac04b064d261a069f8bea46f1f1bbc744578": 7713,
    "5282f58057a952345ccfaefc61f60bd8671c68c86c42c5cc716922e4768f80": 7714,
    "54ca9ca059f0f9545f17561c643db2f869640fe86e8a6cec73b0ca0478d727": 7715,
    "58d68ae05dfce7946323445c6849a1386d6ffe2872965b2c77bcb8447ce315": 7716,
    "74f71b647a1d78187f43d4e0846a31bc89908eac8eb6ebb093dd48c89903a5": 7717,
    "9c0a8fa4a130ec58a6574920ab7da5fcb0a402ecb5ca5ff0baf0bd08c0171a": 7718,
    "a064ad0ca58b09c0aab16688afd7c364b4fe2054ba247d58bf4ada70c47137": 7719,
    "b10e69b4b634c668bb5b2330c081800cc5a7dcfccace3a00cff49718d51af4": 7720,
    "c9e5cc4eca38321a0a8a97e68adcfdb44b2f63834b81c9538bd42f250c2694": 7721,
    "ee1e85f0f344e2a4f86b3f6cfd919c4802b7f93807de563c0d04b354122b10": 7722,
    "98526cf538579351ec5cb9aeb461e00b90670668806c2cc5847153229c76797": 7723,
    "e794564039fa21808c5fee00dec5bbc1312b8ac183915b01d5f72c82285cff4": 7724,
    "201351f0c018784d741d9eaa3c22c5071827eb64082d11c10c32381e24375e7b": 7725,
    "2498ce8ac49df4e778a31b4440a841a11cad67fe0cb28e5b10b7b4b828bcdb15": 7726,
    "26fa635c2c20c01031471cd8366d79b43b93d6a440ba33a845e090c04b06edec": 7727,
    "41fa275c472084104c46e0d8516d3db456939aa45bb9f7a860e054c06606b1ec": 7728,
    "44769b23e47bc1809880e7dd60860e3a3c8b34972c905af430958151489aa7ae": 7729,
    "59bc88685ee2e51c640941e4692f9ec06e55fbb0737c58b478a2b5cc7dc912f8": 7730,
    "8798dfdc8cbf3c9091e59958970bf6349c325324a158b028a67f0d40aba56a6c": 7731,
    "93c0f07c98e74d309e0da9f8a33406d4a85a63c4ad80c0c8b2a71de0b7cd7b0c": 7732,
    "9623a5f09b4a02a4a0705f6ca596bc48aabd1938afe3763cb509d354ba303080": 7733,
    "96c3a4709bea0124a1105deca636bac8ab5d17b8b08374bcb5a9d1d4bad02f00": 7734,
    "ad457a90b26bd744b792340cbcb890e8c1deedd8c7054adccc2ba7f4d1520520": 7735,
    "b823f7af58291e0c0c2e4468d4336ac5b0389122a03db77fa442dddcbc480439": 7736,
    "be794560c39fa214c8c5fedccdec5bb8d312b8a8d83915acdd5f72c4e285cff0": 7737,
    "f3847168f8aace1cfdd12ae402f787c0081de4b00d4441b4126a9ecc1790fbf8": 7738,
    "701": 7739,
    "70b": 7740,
    "e68": 7741,
    "40b7": 7742,
    "5553": 7743,
    "84a3": 7744,
    "9382": 7745,
    "a892": 7746,
    "abb8": 7747,
    "b890": 7748,
    "cebd": 7749,
    "d2a9": 7750,
    "ee61": 7751,
    "a37e0": 7752,
    "d2772": 7753,
    "f2920": 7754,
    "\u25810xc9": 7755,
    "576663": 7756,
    "9cd1fa": 7757,
    "b926be": 7758,
    "e59fe3": 7759,
    "\u25810x497": 7760,
    "\u25810x4238": 7761,
    "\u25810x4ec0": 7762,
    "\u25810x7db1": 7763,
    "\u25810xff90": 7764,
    "\u25810x475648": 7765,
    "\u25810x600700": 7766,
    "\u2581riched20": 7767,
    "\u25810x1211a4c": 7768,
    "\u25810xfeee00ba": 7769,
    "\u2581getusernamea": 7770,
    "175": 7771,
    "186": 7772,
    "6a4": 7773,
    "793": 7774,
    "e1e": 7775,
    "4040": 7776,
    "80db": 7777,
    "8440": 7778,
    "8cf8": 7779,
    "997c": 7780,
    "9a34": 7781,
    "b5dd": 7782,
    "b9fd": 7783,
    "bae1": 7784,
    "cc66": 7785,
    "d0c0": 7786,
    "e454": 7787,
    "ee97": 7788,
    "f49c": 7789,
    "fc41": 7790,
    "fc8c": 7791,
    "ff28": 7792,
    "hash": 7793,
    "thon": 7794,
    "1cb75": 7795,
    "307df": 7796,
    "34c53": 7797,
    "502d4": 7798,
    "54c20": 7799,
    "68dc0": 7800,
    "6b2d0": 7801,
    "70820": 7802,
    "78fac": 7803,
    "7c7ad": 7804,
    "96bd6": 7805,
    "98ddf": 7806,
    "\u25810xee": 7807,
    "\u2581vers": 7808,
    "27ac2d": 7809,
    "4b9a9c": 7810,
    "516dc0": 7811,
    "7d8184": 7812,
    "9cc997": 7813,
    "b0cbc7": 7814,
    "bff68c": 7815,
    "cbf738": 7816,
    "d67862": 7817,
    "e7ac2d": 7818,
    "44da415": 7819,
    "749fce0": 7820,
    "b9fdd08": 7821,
    "bc03da8": 7822,
    "e2a0334": 7823,
    "e84d2a9": 7824,
    "107bb5dd": 7825,
    "27ac2d34": 7826,
    "307dfd84": 7827,
    "3437bbed": 7828,
    "4b9a9cd8": 7829,
    "502d4b2c": 7830,
    "503c84d8": 7831,
    "6b2d0f2c": 7832,
    "82ef7038": 7833,
    "bf568dc0": 7834,
    "e8796bd6": 7835,
    "menuitem": 7836,
    "f7cc78fac": 7837,
    "\u25810x43f698": 7838,
    "8017516dc0": 7839,
    "9cc99794dc": 7840,
    "d310cbf738": 7841,
    "f49e2a0334": 7842,
    "75ae727c7ad": 7843,
    "fc87b9fdd08": 7844,
    "\u2581globalfind": 7845,
    "3295903437bbed": 7846,
    "785b27407d8184": 7847,
    "b6dd7d4cbc03da8": 7848,
    "18c": 7849,
    "277": 7850,
    "5e5": 7851,
    "b1c": 7852,
    "b76": 7853,
    "2980": 7854,
    "7aec": 7855,
    "9240": 7856,
    "a370": 7857,
    "cc12": 7858,
    "eb8a": 7859,
    "f469": 7860,
    "ocus": 7861,
    "80c63": 7862,
    "\u25810xf6": 7863,
    "d83b88": 7864,
    "\u25810x238": 7865,
    "169ca81": 7866,
    "16d2772": 7867,
    "e5f09fc": 7868,
    "ysystem": 7869,
    "\u25810x40c98c": 7870,
    "\u25810x549ad4": 7871,
    "\u2581comparefiletime": 7872,
    "9a0": 7873,
    "af0": 7874,
    "0082": 7875,
    "21a3": 7876,
    "24a6": 7877,
    "2bea": 7878,
    "37d8": 7879,
    "3cf3": 7880,
    "6778": 7881,
    "72fd": 7882,
    "a027": 7883,
    "b3e2": 7884,
    "b8b5": 7885,
    "d550": 7886,
    "e9b4": 7887,
    "f588": 7888,
    "f67a": 7889,
    "f9c0": 7890,
    "lipr": 7891,
    "1c77c": 7892,
    "2cd28": 7893,
    "40c51": 7894,
    "743ce": 7895,
    "8815c": 7896,
    "908aa": 7897,
    "c47ce": 7898,
    "cc499": 7899,
    "cc4e2": 7900,
    "d004c": 7901,
    "dlg32": 7902,
    "e287c": 7903,
    "17294c": 7904,
    "4cfbc7": 7905,
    "536c80": 7906,
    "8082a7": 7907,
    "9041ab": 7908,
    "92337c": 7909,
    "93821d": 7910,
    "972b08": 7911,
    "9ebfb4": 7912,
    "acb5f2": 7913,
    "b60a10": 7914,
    "d7774c": 7915,
    "\u25810x6cc": 7916,
    "21a35a0": 7917,
    "30ecd28": 7918,
    "708323e": 7919,
    "727cfe8": 7920,
    "72fd004": 7921,
    "e4cc499": 7922,
    "f67aed8": 7923,
    "\u25810x4a70": 7924,
    "\u25810x85d0": 7925,
    "1c77cb14": 7926,
    "2cd28a88": 7927,
    "40c51ce9": 7928,
    "5080dc3a": 7929,
    "50c0fa2c": 7930,
    "5553a880": 7931,
    "70536c80": 7932,
    "a3506088": 7933,
    "bb4a4f46": 7934,
    "c47ceb14": 7935,
    "cebdf230": 7936,
    "7285250f4": 7937,
    "bae1d004c": 7938,
    "bcf3d84cc": 7939,
    "cc12a37e0": 7940,
    "\u25810x412468": 7941,
    "\u25810x4175f4": 7942,
    "\u2581msvcr100": 7943,
    "287e92337c": 7944,
    "4cfbc7ffb2": 7945,
    "60db9ebfb4": 7946,
    "8082a7e1d4": 7947,
    "9041ab35e4": 7948,
    "acb5f22500": 7949,
    "bcccb60a10": 7950,
    "184df67aed8": 7951,
    "1cb7593821d": 7952,
    "34c53d7774c": 7953,
    "54c2017294c": 7954,
    "70820972b08": 7955,
    "e4cc499eba0": 7956,
    "\u25810xfeee00bd": 7957,
    "\u25810xfeee00be": 7958,
    "82ef70388815c": 7959,
    "bae1d004c0082": 7960,
    "e7ac2d30ecd28": 7961,
    "\u2581localrealloc": 7962,
    "bff68c40c51ce9": 7963,
    "307dfd84708323e": 7964,
    "749fce0bb4a4f46": 7965,
    "\u2581createprocessw": 7966,
    "107bb5dd5080dc3a": 7967,
    "27ac2d342cd28a88": 7968,
    "4b9a9cd850c0fa2c": 7969,
    "502d4b2c5553a880": 7970,
    "6b2d0f2c70536c80": 7971,
    "b0cbc7acb5f22500": 7972,
    "bcf3d84cc21a35a0": 7973,
    "bf568dc0c47ceb14": 7974,
    "d6786260db9ebfb4": 7975,
    "e84d2a97285250f4": 7976,
    "fc87b9fdd0880c63": 7977,
    "\u2581createsemaphorew": 7978,
    "44da415184df67aed8": 7979,
    "503c84d89041ab35e4": 7980,
    "54c2017294c727cfe8": 7981,
    "70820972b0872fd004": 7982,
    "8017516dc01c77cb14": 7983,
    "9cc99794dccebdf230": 7984,
    "e8796bd6287e92337c": 7985,
    "f49e2a0334a3506088": 7986,
    "3295903437bbed743ce": 7987,
    "f7cc78facbcccb60a10": 7988,
    "75ae727c7ad4cfbc7ffb2": 7989,
    "b5bb72c4bae1d004c0082": 7990,
    "d310cbf738e4cc499eba0": 7991,
    "785b27407d81848082a7e1d4": 7992,
    "b6dd7d4cbc03da8cc12a37e0": 7993,
    "132": 7994,
    "3c6": 7995,
    "750": 7996,
    "77c": 7997,
    "\u258167": 7998,
    "1f6c": 7999,
    "20c4": 8000,
    "32cs": 8001,
    "562d": 8002,
    "7403": 8003,
    "75b0": 8004,
    "adc0": 8005,
    "e896": 8006,
    "f540": 8007,
    "40284": 8008,
    "68c03": 8009,
    "945b0": 8010,
    "\u2581snap": 8011,
    "\u2581winc": 8012,
    "dbc0a0e": 8013,
    "fa6d63d": 8014,
    "section": 8015,
    "\u25810x74d0": 8016,
    "\u2581th32cs": 8017,
    "14556e1d": 8018,
    "659cd1fa": 8019,
    "747ca9be": 8020,
    "997c9fad": 8021,
    "bd00e4d3": 8022,
    "eae59fe3": 8023,
    "ed8632af": 8024,
    "\u25810x50e10": 8025,
    "\u25810x1210d90": 8026,
    "\u25810x2840284": 8027,
    "\u2581winclass32": 8028,
    "\u2581getthreadpriority": 8029,
    "ax": 8030,
    "3a0": 8031,
    "7d4": 8032,
    "\u2581eh": 8033,
    "12de": 8034,
    "30d4": 8035,
    "31c0": 8036,
    "37fc": 8037,
    "388d": 8038,
    "46d1": 8039,
    "51c0": 8040,
    "58c2": 8041,
    "5d60": 8042,
    "6364": 8043,
    "78d4": 8044,
    "7960": 8045,
    "87ce": 8046,
    "a480": 8047,
    "ance": 8048,
    "b847": 8049,
    "ccec": 8050,
    "d5fc": 8051,
    "e1ea": 8052,
    "e44f": 8053,
    "ee4e": 8054,
    "f2d0": 8055,
    "208a8": 8056,
    "5218a": 8057,
    "5a7a0": 8058,
    "7579c": 8059,
    "a4860": 8060,
    "c2704": 8061,
    "c6509": 8062,
    "c9c04": 8063,
    "d3c2a": 8064,
    "e0c40": 8065,
    "\u25810xc1": 8066,
    "1ac670": 8067,
    "24ac84": 8068,
    "31f8e7": 8069,
    "55e757": 8070,
    "83b890": 8071,
    "8c562d": 8072,
    "a63d4c": 8073,
    "apture": 8074,
    "bb1882": 8075,
    "d3e44f": 8076,
    "52e8ac0": 8077,
    "77751e4": 8078,
    "84a3f2c": 8079,
    "8cf8a32": 8080,
    "a5c85ec": 8081,
    "\u25810x4a30": 8082,
    "\u25810x4c00": 8083,
    "\u25810x7f02": 8084,
    "219e287c": 8085,
    "5a7a05e8": 8086,
    "7579c9e8": 8087,
    "87ce3f3c": 8088,
    "a876bdf0": 8089,
    "c7409308": 8090,
    "cc4e2d50": 8091,
    "d1dc6778": 8092,
    "e48e0c40": 8093,
    "a84f1f8e7": 8094,
    "c270413f4": 8095,
    "d1085218a": 8096,
    "d8c8d3c2a": 8097,
    "\u25810x429010": 8098,
    "\u2581comdlg32": 8099,
    "7c577751e4": 8100,
    "\u25810x1211bfc": 8101,
    "1c4884a3f2c": 8102,
    "24ac84208a8": 8103,
    "908aa1ac670": 8104,
    "d58c52e8ac0": 8105,
    "a63d4c8cf8a32": 8106,
    "db68c270413f4": 8107,
    "bf568dc0c47ceb14c": 8108,
    "bff68c40c51ce994c": 8109,
    "\u2581setthreadpriority": 8110,
    "d6786260db9ebfb4e0c": 8111,
    "107bb5dd5080dc3aa4860": 8112,
    "27ac2d342cd28a8831f8e7": 8113,
    "4b9a9cd850c0fa2c55e757": 8114,
    "503c84d89041ab35e446d1": 8115,
    "82ef70388815cd8c8d3c2a": 8116,
    "b0cbc7acb5f22500bb1882": 8117,
    "e7ac2d30ecd28a84f1f8e7": 8118,
    "fc87b9fdd0880c63a5c85ec": 8119,
    "1cb7593821ddb68c270413f4": 8120,
    "34c53d7774ca63d4c8cf8a32": 8121,
    "502d4b2c5553a8805a7a05e8": 8122,
    "6b2d0f2c70536c807579c9e8": 8123,
    "70820972b0872fd0048c562d": 8124,
    "9cc99794dccebdf230d3e44f": 8125,
    "bcf3d84cc21a35a0c7409308": 8126,
    "e8796bd6287e92337c83b890": 8127,
    "307dfd84708323e1c4884a3f2c": 8128,
    "44da415184df67aed8e48e0c40": 8129,
    "54c2017294c727cfe8cc4e2d50": 8130,
    "749fce0bb4a4f46908aa1ac670": 8131,
    "8017516dc01c77cb14219e287c": 8132,
    "d310cbf738e4cc499eba0c9c04": 8133,
    "e84d2a97285250f47c577751e4": 8134,
    "f49e2a0334a3506088a876bdf0": 8135,
    "f7cc78facbcccb60a10d1dc6778": 8136,
    "b6dd7d4cbc03da8cc12a37e0c6509": 8137,
    "3295903437bbed743ce24ac84208a8": 8138,
[...]
