{
    "<pad>": 0,
    "<unk>": 1,
    "<mask>": 2,
    "\u25810": 3,
    "\u25810x": 4,
    "00": 5,
    "er": 6,
    "ne": 7,
    "32": 8,
    "\u2581k": 9,
    "l32": 10,
    "erne": 11,
    "ernel32": 12,
    "\u2581kernel32": 13,
    "\u25810x0": 14,
    "\u25810x1": 15,
    "et": 16,
    "ad": 17,
    "ee": 18,
    "000": 19,
    "get": 20,
    "al": 21,
    "ti": 22,
    "\u25810x7": 23,
    "re": 24,
    "\u25810x4": 25,
    "\u2581get": 26,
    "ec": 27,
    "in": 28,
    "\u25810xf": 29,
    "0000": 30,
    "oc": 31,
    "\u25810x77": 32,
    "eee": 33,
    "\u25810xfeee": 34,
    "tr": 35,
    "iti": 36,
    "ss": 37,
    "ter": 38,
    "pr": 39,
    "proc": 40,
    "on": 41,
    "is": 42,
    "one": 43,
    "read": 44,
    "\u2581getproc": 45,
    "\u25810x1000": 46,
    "le": 47,
    "add": 48,
    "ress": 49,
    "address": 50,
    "\u2581getprocaddress": 51,
    "\u2581is": 52,
    "sec": 53,
    "cal": 54,
    "en": 55,
    "ue": 56,
    "readp": 57,
    "secti": 58,
    "riti": 59,
    "ritical": 60,
    "riticalsecti": 61,
    "bad": 62,
    "\u2581isbad": 63,
    "readptr": 64,
    "\u2581isbadreadptr": 65,
    "000000": 66,
    "\u2581n": 67,
    "\u2581none": 68,
    "\u25810x12": 69,
    "ls": 70,
    "val": 71,
    "loc": 72,
    "\u25810x2": 73,
    "\u25810x77000000": 74,
    "\u25810xfeee00": 75,
    "\u2581in": 76,
    "value": 77,
    "ap": 78,
    "ecriticalsecti": 79,
    "11": 80,
    "de": 81,
    "getvalue": 82,
    "lsgetvalue": 83,
    "us": 84,
    "co": 85,
    "or": 86,
    "\u25810xfeee000": 87,
    "\u2581s": 88,
    "ff": 89,
    "\u25810x46": 90,
    "\u25810x1211": 91,
    "te": 92,
    "ar": 93,
    "an": 94,
    "user": 95,
    "a0": 96,
    "\u2581user": 97,
    "f0": 98,
    "he": 99,
    "48": 100,
    "\u2581f": 101,
    "\u2581user32": 102,
    "\u2581en": 103,
    "\u25810x8": 104,
    "39": 105,
    "iz": 106,
    "aliz": 107,
    "itializ": 108,
    "\u2581c": 109,
    "\u2581initializ": 110,
    "heap": 111,
    "as": 112,
    "\u25810x770": 113,
    "\u2581initializecriticalsecti": 114,
    "\u2581heap": 115,
    "po": 116,
    "dec": 117,
    "ror": 118,
    "\u25810x24": 119,
    "poin": 120,
    "ta": 121,
    "\u25810x2439": 122,
    "\u25810x243948": 123,
    "las": 124,
    "laster": 125,
    "lasterror": 126,
    "alloc": 127,
    "pointer": 128,
    "\u2581t": 129,
    "depointer": 130,
    "\u25810xfa0": 131,
    "and": 132,
    "\u2581l": 133,
    "\u2581tlsgetvalue": 134,
    "\u25810xfeee0001": 135,
    "10": 136,
    "ow": 137,
    "\u2581m": 138,
    "90": 139,
    "d0": 140,
    "\u25810x5": 141,
    "inf": 142,
    "\u2581set": 143,
    "str": 144,
    "\u25810x771": 145,
    "lea": 146,
    "onex": 147,
    "ing": 148,
    "\u2581flsgetvalue": 149,
    "nt": 150,
    "00000": 151,
    "har": 152,
    "\u2581heapalloc": 153,
    "\u25810x100": 154,
    "ex": 155,
    "\u2581initializecriticalsectionex": 156,
    "string": 157,
    "\u2581w": 158,
    "\u25810x40": 159,
    "\u2581d": 160,
    "fi": 161,
    "ent": 162,
    "\u25810x42": 163,
    "ac": 164,
    "\u25810x10": 165,
    "\u2581enco": 166,
    "\u2581encodepointer": 167,
    "oad": 168,
    "mp": 169,
    "\u2581load": 170,
    "li": 171,
    "info": 172,
    "\u2581getc": 173,
    "terc": 174,
    "ecriticalsection": 175,
    "leav": 176,
    "\u2581leav": 177,
    "\u2581leavecriticalsection": 178,
    "\u25810x46d0": 179,
    "riticalsection": 180,
    "tercriticalsection": 181,
    "\u2581entercriticalsection": 182,
    "\u25810x41": 183,
    "\u25810x3": 184,
    "\u25810x45": 185,
    "\u2581getlasterror": 186,
    "tat": 187,
    "e4": 188,
    "tu": 189,
    "local": 190,
    "hand": 191,
    "\u2581setlasterror": 192,
    "\u25810xc": 193,
    "by": 194,
    "let": 195,
    "ess": 196,
    "tion": 197,
    "unt": 198,
    "ffff": 199,
    "\u25810x43": 200,
    "om": 201,
    "ind": 202,
    "count": 203,
    "40": 204,
    "10000": 205,
    "bc": 206,
    "\u25810x400000": 207,
    "\u2581initializecriticalsection": 208,
    "\u25810x45f0": 209,
    "\u25810x78": 210,
    "vi": 211,
    "ul": 212,
    "ed": 213,
    "\u25810x4e4": 214,
    "nex": 215,
    "f8": 216,
    "ys": 217,
    "ll": 218,
    "ur": 219,
    "mo": 220,
    "\u25810x6": 221,
    "ate": 222,
    "\u25810x46f0": 223,
    "b0": 224,
    "pinfo": 225,
    "locale": 226,
    "indow": 227,
    "\u2581dec": 228,
    "30": 229,
    "\u2581char": 230,
    "du": 231,
    "\u2581charnex": 232,
    "\u2581deco": 233,
    "\u2581decodepointer": 234,
    "exw": 235,
    "20": 236,
    "handle": 237,
    "ulti": 238,
    "idec": 239,
    "ultiby": 240,
    "idechar": 241,
    "\u25810xfeee001": 242,
    "\u2581gets": 243,
    "\u2581loadstring": 244,
    "ble": 245,
    "dule": 246,
    "module": 247,
    "70": 248,
    "\u2581getmodule": 249,
    "yste": 250,
    "c0": 251,
    "ion": 252,
    "me": 253,
    "50": 254,
    "\u2581getcpinfo": 255,
    "sp": 256,
    "op": 257,
    "ystem": 258,
    "78": 259,
    "\u25810x7d": 260,
    "file": 261,
    "ment": 262,
    "a5": 263,
    "spin": 264,
    "spincount": 265,
    "\u2581initializecriticalsectionand": 266,
    "\u2581initializecriticalsectionandspincount": 267,
    "\u2581cre": 268,
    "vir": 269,
    "rt": 270,
    "\u2581ms": 271,
    "\u2581dll": 272,
    "tw": 273,
    "\u25810xc000": 274,
    "\u25810x7e": 275,
    "\u2581ini": 276,
    "\u25810x1211f": 277,
    "comp": 278,
    "d10000": 279,
    "\u25810x77d10000": 280,
    "process": 281,
    "fr": 282,
    "\u2581getlocale": 283,
    "\u25810xff": 284,
    "18": 285,
    "tet": 286,
    "e0": 287,
    "indows": 288,
    "ans": 289,
    "tatus": 290,
    "status": 291,
    "id": 292,
    "trans": 293,
    "yp": 294,
    "28": 295,
    "\u2581windows": 296,
    "c4": 297,
    "ce": 298,
    "lient": 299,
    "lock": 300,
    "\u2581getcpinfoexw": 301,
    "98": 302,
    "\u25810x243948c": 303,
    "que": 304,
    "\u25810x10c": 305,
    "action": 306,
    "table": 307,
    "queue": 308,
    "letion": 309,
    "dcomp": 310,
    "queuedcomp": 311,
    "letionstatus": 312,
    "queuedcompletionstatus": 313,
    "\u2581ddec": 314,
    "\u2581getqueuedcompletionstatus": 315,
    "transaction": 316,
    "\u2581ddeclient": 317,
    "\u2581ddeclienttransaction": 318,
    "tatom": 319,
    "\u2581initatom": 320,
    "\u25810x2439480": 321,
    "\u25810x2439484": 322,
    "\u25810x2439488": 323,
    "\u2581initatomtable": 324,
    "d8": 325,
    "ri": 326,
    "vc": 327,
    "ge": 328,
    "60": 329,
    "38": 330,
    "\u2581msvc": 331,
    "\u2581create": 332,
    "rent": 333,
    "urrent": 334,
    "\u2581msvcrt": 335,
    "br": 336,
    "\u25810xf00": 337,
    "\u25810xfffff": 338,
    "free": 339,
    "ary": 340,
    "\u25810x1211c": 341,
    "\u25810xfffffff": 342,
    "\u25810x40a5": 343,
    "\u2581inter": 344,
    "\u25810x4690": 345,
    "th": 346,
    "\u2581a": 347,
    "map": 348,
    "34": 349,
    "\u2581multiby": 350,
    "tetow": 351,
    "tetowidechar": 352,
    "\u2581multibytetowidechar": 353,
    "\u2581interlock": 354,
    "brary": 355,
    "age": 356,
    "lo": 357,
    "\u2581interlocked": 358,
    "26": 359,
    "rement": 360,
    "\u25810x1210": 361,
    "\u2581getst": 362,
    "\u25810x9": 363,
    "ey": 364,
    "di": 365,
    "58": 366,
    "\u25810x88": 367,
    "\u2581system": 368,
    "\u2581charnextw": 369,
    "virtu": 370,
    "virtual": 371,
    "a8": 372,
    "b8": 373,
    "\u2581system32": 374,
    "64": 375,
    "cc": 376,
    "infow": 377,
    "em": 378,
    "68": 379,
    "it": 380,
    "\u2581loadstringw": 381,
    "\u25810x90": 382,
    "un": 383,
    "\u2581p": 384,
    "cmp": 385,
    "ype": 386,
    "library": 387,
    "\u2581getcurrent": 388,
    "hi": 389,
    "\u2581g": 390,
    "def": 391,
    "ol": 392,
    "\u2581re": 393,
    "\u2581virtual": 394,
    "1000": 395,
    "\u2581lc": 396,
    "open": 397,
    "key": 398,
    "\u2581lcmap": 399,
    "\u2581lcmapstring": 400,
    "filet": 401,
    "14": 402,
    "d4": 403,
    "var": 404,
    "\u2581heapfree": 405,
    "\u25810x409": 406,
    "7c": 407,
    "ame": 408,
    "3000": 409,
    "\u2581loadstringa": 410,
    "\u25810xfeee002": 411,
    "\u2581charnexta": 412,
    "rs": 413,
    "\u2581mem": 414,
    "69": 415,
    "qu": 416,
    "a000": 417,
    "rite": 418,
    "b000": 419,
    "2000": 420,
    "\u2581loadlibrary": 421,
    "\u25810x78000000": 422,
    "api": 423,
    "56": 424,
    "\u2581memcmp": 425,
    "\u25810x70": 426,
    "\u25810xfeee007": 427,
    "5000": 428,
    "\u25810xfeee004": 429,
    "thread": 430,
    "\u25810x41f0": 431,
    "handlew": 432,
    "\u25810x44": 433,
    "ers": 434,
    "\u25810x41f040": 435,
    "\u25810x12119": 436,
    "\u2581getlocaleinfow": 437,
    "ck": 438,
    "\u2581getlocaleinfo": 439,
    "\u2581ex": 440,
    "\u2581getmodulehandlew": 441,
    "c8": 442,
    "so": 443,
    "inc": 444,
    "7000": 445,
    "\u2581getti": 446,
    "\u2581interlockedinc": 447,
    "\u2581interlockedincrement": 448,
    "\u25810xfeee008": 449,
    "f000": 450,
    "tor": 451,
    "\u25810xfeee005": 452,
    "orm": 453,
    "name": 454,
    "tom": 455,
    "a4": 456,
    "\u25810x47": 457,
    "e8": 458,
    "\u25810x3f": 459,
    "12": 460,
    "vw": 461,
    "ultibyte": 462,
    "\u2581widechar": 463,
    "tomultibyte": 464,
    "\u2581widechartomultibyte": 465,
    "\u25810x4c4": 466,
    "\u25810x5f8": 467,
    "mm": 468,
    "\u25810x5f800000": 469,
    "d000": 470,
    "\u2581getlocaleinfoa": 471,
    "lm": 472,
    "xy": 473,
    "xyz": 474,
    "\u2581abc": 475,
    "ghi": 476,
    "klm": 477,
    "qrs": 478,
    "nop": 479,
    "tuvw": 480,
    "tuvwxyz": 481,
    "nopqrs": 482,
    "defghi": 483,
    "nopqrstuvwxyz": 484,
    "\u2581abcdefghi": 485,
    "klmnopqrstuvwxyz": 486,
    "\u25810x12117": 487,
    "rec": 488,
    "6000": 489,
    "\u2581gettick": 490,
    "\u2581gettickcount": 491,
    "9000": 492,
    "e000": 493,
    "\u2581read": 494,
    "\u2581reg": 495,
    "quer": 496,
    "\u25810xffffffff": 497,
    "\u25810x18": 498,
    "\u25810x7ec": 499,
    "temp": 500,
    "dbc": 501,
    "sle": 502,
    "\u25810xfeee006": 503,
    "da": 504,
    "b4": 505,
    "\u25810x20": 506,
    "\u25810x7de": 507,
    "dc": 508,
    "\u2581getfilet": 509,
    "ch": 510,
    "\u2581getfiletype": 511,
    "\u25810x526": 512,
    "c00000": 513,
    "\u25810x78c00000": 514,
    "adby": 515,
    "dbcsle": 516,
    "\u2581isdbcsle": 517,
    "\u2581isdbcsleadby": 518,
    "\u25810xfeee003": 519,
    "\u2581isdbcsleadbyte": 520,
    "ool": 521,
    "dhandle": 522,
    "\u25810x79": 523,
    "74": 524,
    "e6": 525,
    "f4": 526,
    "\u25810x200": 527,
    "ic": 528,
    "los": 529,
    "5c": 530,
    "\u2581getsystem": 531,
    "2c": 532,
    "\u2581getmodulehand": 533,
    "e10000": 534,
    "\u25810x77e10000": 535,
    "\u2581getstdhandle": 536,
    "fc": 537,
    "\u2581getmodulehandlea": 538,
    "viron": 539,
    "sw": 540,
    "\u2581var": 541,
    "vironment": 542,
    "vers": 543,
    "sset": 544,
    "\u25810x1211d": 545,
    "\u25810xfeee0004": 546,
    "19": 547,
    "ute": 548,
    "e5": 549,
    "a9": 550,
    "lsset": 551,
    "lssetvalue": 552,
    "\u2581co": 553,
    "\u2581open": 554,
    "24": 555,
    "\u2581local": 556,
    "direc": 557,
    "\u25810xcd": 558,
    "of": 559,
    "\u2581fls": 560,
    "filename": 561,
    "\u2581h": 562,
    "3c": 563,
    "\u25810x1211e": 564,
    "\u25810x400": 565,
    "ea": 566,
    "71": 567,
    "\u2581temp": 568,
    "\u25810x4093": 569,
    "are": 570,
    "9c": 571,
    "readpool": 572,
    "director": 573,
    "\u2581b": 574,
    "window": 575,
    "\u2581ap": 576,
    "artu": 577,
    "b7": 578,
    "eco": 579,
    "\u2581getmodulefilename": 580,
    "ect": 581,
    "\u25810x54": 582,
    "91": 583,
    "\u25810x7d90": 584,
    "54": 585,
    "la": 586,
    "94": 587,
    "valid": 588,
    "\u25810x800": 589,
    "\u25810x4610": 590,
    "\u25810xfeee0002": 591,
    "\u25810x4c42": 592,
    "\u2581ad": 593,
    "\u25810x104": 594,
    "1c": 595,
    "\u25810x7c": 596,
    "api32": 597,
    "\u25810xfeee0000": 598,
    "comm": 599,
    "\u2581adv": 600,
    "form": 601,
    "\u25810x80": 602,
    "line": 603,
    "\u2581getcurrentthread": 604,
    "\u2581fr": 605,
    "\u2581advapi32": 606,
    "\u2581lcmapstringex": 607,
    "\u25810xa": 608,
    "\u2581getstartu": 609,
    "\u25811": 610,
    "andline": 611,
    "write": 612,
    "\u2581loadlibrarya": 613,
    "\u2581se": 614,
    "75": 615,
    "\u2581virtualalloc": 616,
    "\u2581clos": 617,
    "66": 618,
    "\u2581getcomm": 619,
    "\u2581getcommandline": 620,
    "\u2581getcurrentthreadid": 621,
    "ation": 622,
    "\u2581lcmapstringw": 623,
    "b9": 624,
    "stringsw": 625,
    "\u25810x1c": 626,
    "\u2581apis": 627,
    "\u25810x4a": 628,
    "eex": 629,
    "dll": 630,
    "\u25810xfeee0003": 631,
    "\u2581flssetvalue": 632,
    "\u25810x7700": 633,
    "\u2581de": 634,
    "res": 635,
    "\u25810x48": 636,
    "ve": 637,
    "\u2581interlockeddec": 638,
    "\u2581interlockeddecrement": 639,
    "\u25810x7718": 640,
    "\u25810x7708": 641,
    "\u25810x7711": 642,
    "vironmentstringsw": 643,
    "ad0": 644,
    "time": 645,
    "filew": 646,
    "f3": 647,
    "\u2581flsalloc": 648,
    "es": 649,
    "mess": 650,
    "\u25810x7e70": 651,
    "directory": 652,
    "ist": 653,
    "processor": 654,
    "\u2581page": 655,
    "\u25810x8c": 656,
    "\u25810x8810": 657,
    "tware": 658,
    "\u2581getvers": 659,
    "filea": 660,
    "\u25810x7710": 661,
    "\u25810xfeee0005": 662,
    "6c": 663,
    "oftware": 664,
    "\u2581hkey": 665,
    "\u25810x7714": 666,
    "\u25810x7704": 667,
    "\u25810xf003": 668,
    "\u2581software": 669,
    "\u2581crea": 670,
    "\u2581readwrite": 671,
    "\u25810xf001": 672,
    "\u25810xf002": 673,
    "\u2581ls": 674,
    "\u2581write": 675,
    "f1": 676,
    "f5": 677,
    "80": 678,
    "message": 679,
    "789": 680,
    "\u25810x437": 681,
    "b5": 682,
    "cep": 683,
    "3d": 684,
    "\u25810x120": 685,
    "aa": 686,
    "f9": 687,
    "\u2581getprocess": 688,
    "int": 689,
    "up": 690,
    "\u25810xfeee009": 691,
    "\u2581lstr": 692,
    "um": 693,
    "\u2581find": 694,
    "\u25810x4378": 695,
    "3456": 696,
    "\u25810x70cc": 697,
    "\u2581012": 698,
    "3456789": 699,
    "\u25810123456789": 700,
    "arch": 701,
    "15": 702,
    "ob": 703,
    "a6": 704,
    "tin": 705,
    "ai": 706,
    "\u25810x7a": 707,
    "\u25810x14": 708,
    "vari": 709,
    "\u2581getprocessheap": 710,
    "a1": 711,
    "\u25810x7717": 712,
    "\u25810x7707": 713,
    "\u25810x7709": 714,
    "\u25810x770b": 715,
    "\u25810x7719": 716,
    "\u25810x771b": 717,
    "\u2581geten": 718,
    "list": 719,
    "\u2581localalloc": 720,
    "b2": 721,
    "bd": 722,
    "ait": 723,
    "\u25810xfff": 724,
    "query": 725,
    "\u2581x": 726,
    "bo": 727,
    "\u2581current": 728,
    "a2": 729,
    "onso": 730,
    "36": 731,
    "\u25810x7ec0": 732,
    "\u2581gdi": 733,
    "ception": 734,
    "\u2581win": 735,
    "\u2581nt": 736,
    "type": 737,
    "ut": 738,
    "\u25810xfeee0006": 739,
    "\u2581getcurrentprocess": 740,
    "f6": 741,
    "onsole": 742,
    "\u2581quer": 743,
    "508": 744,
    "yper": 745,
    "\u2581ws": 746,
    "forman": 747,
    "yperforman": 748,
    "\u2581queryperforman": 749,
    "locales": 750,
    "\u25810x1211c98": 751,
    "tim": 752,
    "ab": 753,
    "ra": 754,
    "\u25810x770c": 755,
    "\u25810x7706": 756,
    "\u25810x7716": 757,
    "\u25810x7702": 758,
    "\u25810x7705": 759,
    "\u25810x770d": 760,
    "\u25810x770f": 761,
    "\u25810x7712": 762,
    "\u25810x7715": 763,
    "\u25810x42c": 764,
    "ction": 765,
    "pres": 766,
    "\u2581gdi32": 767,
    "present": 768,
    "\u25810x4c": 769,
    "unter": 770,
    "db": 771,
    "ceco": 772,
    "cecounter": 773,
    "\u2581queryperformancecounter": 774,
    "af": 775,
    "\u2581virtualquery": 776,
    "timer": 777,
    "\u2581sl": 778,
    "\u2581search": 779,
    "ime": 780,
    "\u25810x7de0": 781,
    "eep": 782,
    "\u25810x1210e": 783,
    "\u25810x7b": 784,
    "\u2581l1": 785,
    "\u25810x8000": 786,
    "\u2581sleep": 787,
    "\u25810x430": 788,
    "ock": 789,
    "ot": 790,
    "\u2581loadlibraryexw": 791,
    "\u25810x7890": 792,
    "\u25810x12115": 793,
    "4c": 794,
    "dex": 795,
    "\u2581fi": 796,
    "\u25810x8ad0": 797,
    "hreadpool": 798,
    "b6": 799,
    "\u2581getstring": 800,
    "\u25812": 801,
    "\u2581getstringtype": 802,
    "79": 803,
    "filetime": 804,
    "76": 805,
    "\u2581api": 806,
    "35": 807,
    "exa": 808,
    "\u25810x7701": 809,
    "\u25810x7703": 810,
    "\u25810x770a": 811,
    "\u25810x770e": 812,
    "\u25810x7713": 813,
    "\u25810x771a": 814,
    "\u25810x56": 815,
    "\u25810x420": 816,
    "ture": 817,
    "fea": 818,
    "ecute": 819,
    "\u25810x7000": 820,
    "sour": 821,
    "\u2581getsystemtime": 822,
    "con": 823,
    "bf": 824,
    "to": 825,
    "feature": 826,
    "\u2581isprocessor": 827,
    "featurepresent": 828,
    "\u2581isprocessorfeaturepresent": 829,
    "from": 830,
    "d2": 831,
    "lob": 832,
    "\u2581glob": 833,
    "\u25810x9000": 834,
    "d5": 835,
    "\u2581getstringtypew": 836,
    "\u25810x1211c18": 837,
    "ting": 838,
    "\u25810x102": 839,
    "hel": 840,
    "\u25810x4ab0": 841,
    "\u2581createt": 842,
    "\u25810x69": 843,
    "source": 844,
    "\u25810xfeee0007": 845,
    "\u25810x7f": 846,
    "be": 847,
    "asfiletime": 848,
    "fil": 849,
    "b1": 850,
    "\u25810x49": 851,
    "d6": 852,
    "\u2581regopen": 853,
    "\u2581regopenkey": 854,
    "pinfow": 855,
    "\u2581getstartupinfow": 856,
    "\u25810x4670": 857,
    "inform": 858,
    "\u2581getconsole": 859,
    "\u2581sh": 860,
    "31": 861,
    "\u25810x8a": 862,
    "\u2581regis": 863,
    "\u2581delet": 864,
    "\u2581getmodulefilenamew": 865,
    "\u2581locales": 866,
    "icon": 867,
    "information": 868,
    "88": 869,
    "ervi": 870,
    "\u25810x7ee": 871,
    "b3": 872,
    "\u2581getsystemtimeasfiletime": 873,
    "\u2581getac": 874,
    "\u2581getcommandlinea": 875,
    "\u25810x4c42c0": 876,
    "print": 877,
    "\u25810x73": 878,
    "\u2581getacp": 879,
    "\u25810x7d91": 880,
    "eexw": 881,
    "e2": 882,
    "\u2581core": 883,
    "dexception": 884,
    "code": 885,
    "\u25810x4600": 886,
    "filter": 887,
    "unhandle": 888,
    "dexceptionfilter": 889,
    "unhandledexceptionfilter": 890,
    "e7": 891,
    "\u2581getmodulefilenamea": 892,
    "len": 893,
    "e9": 894,
    "printf": 895,
    "\u2581close": 896,
    "\u2581crt": 897,
    "55": 898,
    "\u2581li": 899,
    "tri": 900,
    "\u2581pf": 901,
    "py": 902,
    "\u25810x71": 903,
    "\u2581closehandle": 904,
    "\u2581o": 905,
    "4000": 906,
    "processlist": 907,
    "\u2581getconsoleprocesslist": 908,
    "rive": 909,
    "ack": 910,
    "\u2581ac": 911,
    "25": 912,
    "st": 913,
    "308": 914,
    "a7": 915,
    "\u2581getcurrentprocessid": 916,
    "\u2581isvalid": 917,
    "\u25810x50": 918,
    "directoryw": 919,
    "messagea": 920,
    "\u2581invalid": 921,
    "stru": 922,
    "struction": 923,
    "fd": 924,
    "ionex": 925,
    "\u2581getversionex": 926,
    "\u2581execute": 927,
    "ity": 928,
    "\u25810x7c000000": 929,
    "\u25810x42e5": 930,
    "\u25810x76": 931,
    "\u2581library": 932,
    "\u25810xd": 933,
    "\u25810x69000000": 934,
    "f2": 935,
    "eeen": 936,
    "\u2581freeen": 937,
    "\u2581free": 938,
    "37": 939,
    "\u25810xfeee0": 940,
    "eric": 941,
    "f7": 942,
    "threadpool": 943,
    "e1": 944,
    "\u2581lstrlen": 945,
    "lass": 946,
    "\u25810x220": 947,
    "sc": 948,
    "\u2581setunhandledexceptionfilter": 949,
    "\u25810x7e71": 950,
    "lus": 951,
    "c000": 952,
    "\u2581writefile": 953,
    "servi": 954,
    "8c": 955,
    "ber": 956,
    "\u25810x1211e0": 957,
    "defa": 958,
    "defaul": 959,
    "vai": 960,
    "vaila": 961,
    "vailable": 962,
    "a3": 963,
    "\u25810x75": 964,
    "\u2581getenvironmentstringsw": 965,
    "\u2581getuser": 966,
    "wait": 967,
    "at": 968,
    "\u2581freeenvironmentstringsw": 969,
    "44": 970,
    "16": 971,
    "\u25810x19": 972,
    "\u2581global": 973,
    "\u2581getstartupinfo": 974,
    "\u2581getstartupinfoa": 975,
    "\u2581getcommandlinew": 976,
    "\u2581available": 977,
    "f10000": 978,
    "\u25810x5266": 979,
    "\u25810x5265c": 980,
    "\u25810x40934": 981,
    "dd": 982,
    "\u25810x30": 983,
    "29": 984,
    "\u25810x77f10000": 985,
    "ard": 986,
    "error": 987,
    "gu": 988,
    "84": 989,
    "27": 990,
    "\u25810x12116": 991,
    "\u2581instruction": 992,
    "handl": 993,
    "i64": 994,
    "\u2581instructions": 995,
    "\u2581xmm": 996,
    "\u2581xmmi64": 997,
    "board": 998,
    "\u25810x7910": 999,
    "\u25810x7ed": 1000,
    "\u25810x74": 1001,
    "cre": 1002,
    "\u2581gen": 1003,
    "default": 1004,
    "urity": 1005,
    "\u2581shel": 1006,
    "urs": 1007,
    "bb": 1008,
    "security": 1009,
    "\u25810xfffffff6": 1010,
    "\u2581generic": 1011,
    "\u25810xfffffff5": 1012,
    "\u25810xfffffff4": 1013,
    "\u2581map": 1014,
    "17": 1015,
    "\u2581createfilew": 1016,
    "\u25810x72": 1017,
    "able": 1018,
    "date": 1019,
    "cess": 1020,
    "num": 1021,
    "\u25810x417": 1022,
    "\u25810xffc": 1023,
    "ant": 1024,
    "\u2581setfile": 1025,
    "3e": 1026,
    "\u25810x1211f38": 1027,
    "ba": 1028,
    "22": 1029,
    "\u2581getthread": 1030,
    "\u25810x4d": 1031,
    "\u25810xe": 1032,
    "bu": 1033,
    "\u25810x416": 1034,
    "\u2581key": 1035,
    "8000": 1036,
    "variable": 1037,
    "106": 1038,
    "d9": 1039,
    "\u25810x4305": 1040,
    "\u25810x47b0": 1041,
    "section": 1042,
    "\u25810x2a": 1043,
    "\u25810x43b7": 1044,
    "lor": 1045,
    "\u2581process": 1046,
    "00c": 1047,
    "ro": 1048,
    "\u25810x13": 1049,
    "ae": 1050,
    "ical": 1051,
    "\u2581getversion": 1052,
    "\u25810x7ec1": 1053,
    "tex": 1054,
    "end": 1055,
    "\u25810x3000": 1056,
    "codep": 1057,
    "hread": 1058,
    "\u2581process32": 1059,
    "3f": 1060,
    "create": 1061,
    "hine": 1062,
    "\u2581mac": 1063,
    "\u2581str": 1064,
    "d1": 1065,
    "\u2581machine": 1066,
    "\u2581crtdll": 1067,
    "\u25810xfeee0008": 1068,
    "art": 1069,
    "\u25810x1210f": 1070,
    "\u2581access": 1071,
    "\u2581regopenkeyexw": 1072,
    "version": 1073,
    "ursor": 1074,
    "\u25810x8811": 1075,
    "\u25810xfeee0009": 1076,
    "\u25810xfeee000a": 1077,
    "\u25810xfeee000b": 1078,
    "firs": 1079,
    "\u2581bor": 1080,
    "\u25810xfeee000c": 1081,
    "\u25810x1211dc0": 1082,
    "\u25810x4e": 1083,
    "\u25810x418": 1084,
    "codepage": 1085,
    "99": 1086,
    "1a": 1087,
    "db10": 1088,
    "\u2581isvalidcodepage": 1089,
    "\u25810xfeee000d": 1090,
    "\u25810xfeee000e": 1091,
    "color": 1092,
    "\u25810xfeee000f": 1093,
    "ating": 1094,
    "dr": 1095,
    "67": 1096,
    "\u25810xfeee0014": 1097,
    "\u2581al": 1098,
    "\u25810x771c": 1099,
    "\u25810xfeee0010": 1100,
    "db10106": 1101,
    "\u25810x1db10106": 1102,
    "\u25810xfeee0015": 1103,
    "\u25810x4b": 1104,
    "\u25810xfeee0013": 1105,
    "\u25810xfeee0012": 1106,
    "\u2581creates": 1107,
    "\u25810xfeee0016": 1108,
    "directorya": 1109,
    "\u25810xfeee0011": 1110,
    "\u2581drive": 1111,
    "\u2581exit": 1112,
    "\u25810x1211e04": 1113,
    "\u2581borl": 1114,
    "\u25817": 1115,
    "\u25810x8d": 1116,
    "vie": 1117,
    "keyw": 1118,
    "cursor": 1119,
    "394": 1120,
    "day": 1121,
    "a80": 1122,
    "\u25810x7de1": 1123,
    "\u2581freelibrary": 1124,
    "lic": 1125,
    "net": 1126,
    "\u2581borland": 1127,
    "ition": 1128,
    "dition": 1129,
    "\u2581delete": 1130,
    "\u2581loadicon": 1131,
    "men": 1132,
    "33": 1133,
    "for": 1134,
    "l66": 1135,
    "d7": 1136,
    "cec": 1137,
    "bute": 1138,
    "tribute": 1139,
    "\u2581loadcursor": 1140,
    "lip": 1141,
    "\u25810x50000": 1142,
    "\u2581mapvirtual": 1143,
    "\u2581gettemp": 1144,
    "call": 1145,
    "\u2581mapvirtualkeyw": 1146,
    "\u2581closet": 1147,
    "\u2581closethreadpool": 1148,
    "\u2581createthreadpool": 1149,
    "lose": 1150,
    "\u25810x435": 1151,
    "\u2581i": 1152,
    "\u25810x5265c14": 1153,
    "97": 1154,
    "\u25810xfeee0017": 1155,
    "\u25810x42d4": 1156,
    "ttribute": 1157,
    "\u2581ntdll": 1158,
    "1e": 1159,
    "\u25810xfeee0018": 1160,
    "\u25810xfeee0019": 1161,
    "\u25810x12116d8": 1162,
    "close": 1163,
    "fromstr": 1164,
    "a40": 1165,
    "\u2581rt": 1166,
    "l6660": 1167,
    "\u2581rtl": 1168,
    "\u25810x42c4": 1169,
    "fileattribute": 1170,
    "met": 1171,
    "\u25810xb": 1172,
    "\u25810x7f8": 1173,
    "\u2581setfilepointer": 1174,
    "95": 1175,
    "\u25810x120e6": 1176,
    "view": 1177,
    "\u25810x42d": 1178,
    "lipboard": 1179,
    "set": 1180,
    "\u25810x1211918": 1181,
    "ork": 1182,
    "menu": 1183,
    "log": 1184,
    "\u25810x34": 1185,
    "\u25810x1211c7c": 1186,
    "service": 1187,
    "back": 1188,
    "leas": 1189,
    "il": 1190,
    "\u25810x169": 1191,
    "2e": 1192,
    "b00": 1193,
    "rw": 1194,
    "resource": 1195,
    "\u25810x82": 1196,
    "908": 1197,
    "first": 1198,
    "drl6660": 1199,
    "fa": 1200,
    "try": 1201,
    "\u2581getthreadlocale": 1202,
    "aps": 1203,
    "\u25810x1211958": 1204,
    "\u2581heapcreate": 1205,
    "\u25810xfeee001a": 1206,
    "\u25810x32": 1207,
    "\u2581tls": 1208,
    "cs": 1209,
    "7e": 1210,
    "\u25810x4c4308": 1211,
    "ename": 1212,
    "callback": 1213,
    "\u2581setthreadpool": 1214,
    "\u25810x7e8": 1215,
    "loating": 1216,
    "mode": 1217,
    "term": 1218,
    "\u25810x11": 1219,
    "\u25810x4750": 1220,
    "\u25810xfeee001c": 1221,
    "\u25810x12114": 1222,
    "\u25810x8b": 1223,
    "all": 1224,
    "esource": 1225,
    "\u2581registerc": 1226,
    "\u25810xfeee001b": 1227,
    "erw": 1228,
    "\u2581flsfree": 1229,
    "\u25810x1211758": 1230,
    "rip": 1231,
    "scrip": 1232,
    "utex": 1233,
    "\u25810x429": 1234,
    "\u2581r": 1235,
    "\u25810xfeee007e": 1236,
    "c6": 1237,
    "77": 1238,
    "eb": 1239,
    "\u2581getenvironment": 1240,
    "atex": 1241,
    "descrip": 1242,
    "21": 1243,
    "descriptor": 1244,
    "securitydescriptor": 1245,
    "\u2581wi": 1246,
    "drl6660drl6660": 1247,
    "\u2581wnet": 1248,
    "dater": 1249,
    "number": 1250,
    "\u25810x4350": 1251,
    "\u25810xf0019": 1252,
    "\u25810x7f00": 1253,
    "logical": 1254,
    "\u2581getlogical": 1255,
    "ef": 1256,
    "raw": 1257,
    "bc0": 1258,
    "\u2581wait": 1259,
    "rwlock": 1260,
    "next": 1261,
    "ffi": 1262,
    "\u25810x89": 1263,
    "\u25810x43780": 1264,
    "df": 1265,
    "dateresource": 1266,
    "edc": 1267,
    "localename": 1268,
    "\u2581wsprintf": 1269,
    "ffile": 1270,
    "led": 1271,
    "b80": 1272,
    "\u2581tlssetvalue": 1273,
    "\u25810x1211c90": 1274,
    "\u2581releas": 1275,
    "eg": 1276,
    "\u25810x105": 1277,
    "\u2581tlsalloc": 1278,
    "\u25810x4000": 1279,
    "\u2581waitfor": 1280,
    "\u2581registerclass": 1281,
    "ecount": 1282,
    "\u25810x2c": 1283,
    "formatex": 1284,
    "\u2581shell32": 1285,
    "\u25810x41bc": 1286,
    "\u25810x419": 1287,
    "\u2581readfile": 1288,
    "\u2581getfile": 1289,
    "51": 1290,
    "72": 1291,
    "handlecount": 1292,
    "\u2581sethandlecount": 1293,
    "cpy": 1294,
    "ies": 1295,
    "sof": 1296,
    "\u25810x410": 1297,
    "7d": 1298,
    "\u25810x7f800": 1299,
    "low": 1300,
    "realloc": 1301,
    "pa": 1302,
    "\u2581exitprocess": 1303,
    "\u25810x3394": 1304,
    "fb": 1305,
    "sa": 1306,
    "\u25810x569": 1307,
    "offile": 1308,
    "ailed": 1309,
    "\u25810xfeee0071": 1310,
    "\u2581beg": 1311,
    "ive": 1312,
    "\u25810x42e5b0": 1313,
    "\u25810x5265": 1314,
    "45": 1315,
    "condition": 1316,
    "\u25810x1211b": 1317,
    "\u25810x3f30": 1318,
    "\u2581begin": 1319,
    "\u25810x700c": 1320,
    "bers": 1321,
    "\u2581lstrlenw": 1322,
    "1d": 1323,
    "clus": 1324,
    "soft": 1325,
    "\u25810x1e": 1326,
    "\u2581createfilea": 1327,
    "\u2581creat": 1328,
    "clusive": 1329,
    "rwlockex": 1330,
    "rwlockexclusive": 1331,
    "icro": 1332,
    "\u2581setmenu": 1333,
    "ver": 1334,
    "780": 1335,
    "\u25810x44f8": 1336,
    "icrosoft": 1337,
    "1f": 1338,
    "\u2581sprintf": 1339,
    "directories": 1340,
    "angu": 1341,
    "\u2581floating": 1342,
    "yn": 1343,
    "\u25810x704c": 1344,
    "\u25810x708c": 1345,
    "anguage": 1346,
    "\u2581virtualfree": 1347,
    "ero": 1348,
    "\u25810x4336": 1349,
    "390": 1350,
    "\u2581setdefault": 1351,
    "\u25810x28": 1352,
    "windowexa": 1353,
    "dlldirectories": 1354,
    "\u2581setdefaultdlldirectories": 1355,
    "ink": 1356,
    "ub": 1357,
    "\u2581microsoft": 1358,
    "ilanguage": 1359,
    "\u25810x99": 1360,
    "lect": 1361,
    "\u25810xfeee001d": 1362,
    "qui": 1363,
    "isting": 1364,
    "\u25810x411": 1365,
    "ockob": 1366,
    "\u2581getstockob": 1367,
    "tun": 1368,
    "put": 1369,
    "\u2581lstrlena": 1370,
    "work": 1371,
    "olf": 1372,
    "280": 1373,
    "\u2581vari": 1374,
    "\u2581setmenuinfo": 1375,
    "\u2581getsystemdirectoryw": 1376,
    "\u25810x42c508": 1377,
    "1b": 1378,
    "d3": 1379,
    "bit": 1380,
    "\u2581comp": 1381,
    "\u2581select": 1382,
    "\u2581existing": 1383,
    "trac": 1384,
    "yo": 1385,
    "\u2581heaprealloc": 1386,
    "\u25810x97": 1387,
    "servicew": 1388,
    "mem": 1389,
    "eek": 1390,
    "sta": 1391,
    "ynch": 1392,
    "initializ": 1393,
    "\u2581getversionexw": 1394,
    "ee0": 1395,
    "fe": 1396,
    "\u25810x1211cf8": 1397,
    "59": 1398,
    "\u2581synch": 1399,
    "\u25810x17": 1400,
    "\u25810x42c4d8": 1401,
    "\u2581compare": 1402,
    "\u25810xfeee001e": 1403,
    "\u25810x1211908": 1404,
    "ocket": 1405,
    "lush": 1406,
    "\u2581currentversion": 1407,
    "\u25810x7810": 1408,
    "3a": 1409,
    "flow": 1410,
    "\u25810x1075": 1411,
    "c08": 1412,
    "\u2581up": 1413,
    "\u25817z": 1414,
    "\u25810xfeee001f": 1415,
    "\u25810x7ab0": 1416,
    "namea": 1417,
    "04": 1418,
    "\u25810xfeee0020": 1419,
    "\u2581varb": 1420,
    "\u2581comparestring": 1421,
    "\u25810x12114b8": 1422,
    "\u2581gettempw": 1423,
    "buff": 1424,
    "\u2581init": 1425,
    "\u2581getdc": 1426,
    "f35": 1427,
    "\u25810x1211718": 1428,
    "\u25810x7930": 1429,
    "\u2581findfirst": 1430,
    "\u2581con": 1431,
    "\u25810x8a40": 1432,
    "clipboard": 1433,
    "paint": 1434,
    "\u2581regopenkeyexa": 1435,
    "\u25810x2000": 1436,
    "fileattributesw": 1437,
    "\u25810x1f4": 1438,
    "\u25810x42d8": 1439,
    "\u2581extrac": 1440,
    "og": 1441,
    "und": 1442,
    "\u25810xa0": 1443,
    "\u2581loadcursora": 1444,
    "\u2581ch": 1445,
    "ts": 1446,
    "quires": 1447,
    "mutex": 1448,
    "\u25810x40a5ce": 1449,
    "\u25810x40a5d0": 1450,
    "\u25810x40a5d2": 1451,
    "\u25810x40a5d4": 1452,
    "\u25810x40a5d6": 1453,
    "\u25810x40a5d8": 1454,
    "\u25810x40a5da": 1455,
    "een": 1456,
    "3b": 1457,
    "quiresrwlockexclusive": 1458,
    "not": 1459,
    "\u2581loadicona": 1460,
    "\u25810x1211728": 1461,
    "\u25810x64": 1462,
    "\u25810x1211948": 1463,
    "\u2581wsprintfw": 1464,
    "96": 1465,
    "ory": 1466,
    "\u2581flush": 1467,
    "metri": 1468,
    "\u25810x42d508": 1469,
    "\u25810x7830": 1470,
    "metrics": 1471,
    "dateresourcea": 1472,
    "emap": 1473,
    "emaph": 1474,
    "\u2581file": 1475,
    "73": 1476,
    "ock32": 1477,
    "\u2581wsock32": 1478,
    "\u2581st": 1479,
    "\u25810x1211f64": 1480,
    "\u2581getsystemmetrics": 1481,
    "\u2581getversionexa": 1482,
    "2d": 1483,
    "\u2581strn": 1484,
    "\u2581lread": 1485,
    "\u25810x4305b0": 1486,
    "300": 1487,
    "\u25810x21000": 1488,
    "\u2581findclose": 1489,
    "\u25810x198": 1490,
    "\u25810x1f400": 1491,
    "\u2581e": 1492,
    "mutexa": 1493,
    "\u25810x1211528": 1494,
    "\u25810x84": 1495,
    "buffers": 1496,
    "point": 1497,
    "\u2581golf": 1498,
    "\u2581ole": 1499,
    "\u25810x51": 1500,
    "\u25810x19a": 1501,
    "\u25810x42d4d8": 1502,
    "\u25810xfeee008b": 1503,
    "\u2581strncmp": 1504,
    "variab": 1505,
    "\u25810x42c5": 1506,
    "\u25810x38": 1507,
    "\u2581createsemaph": 1508,
    "prot": 1509,
    "mapview": 1510,
    "\u25810x436": 1511,
    "\u25810x1211e14": 1512,
    "\u25810x1211738": 1513,
    "\u2581failed": 1514,
    "23": 1515,
    "\u2581peek": 1516,
    "\u25810x42a1": 1517,
    "yscolor": 1518,
    "\u2581getsyscolor": 1519,
    "fo": 1520,
    "ag": 1521,
    "180": 1522,
    "\u2581lstrcpy": 1523,
    "isp": 1524,
    "2a": 1525,
    "\u2581th": 1526,
    "\u25810x3f75": 1527,
    "\u25810x79f0": 1528,
    "ision": 1529,
    "\u25810x1f": 1530,
    "protect": 1531,
    "ace": 1532,
    "\u25810x1211a": 1533,
    "ed8": 1534,
    "\u25810x60": 1535,
    "ke": 1536,
    "trl": 1537,
    "\u25810xfeee005f": 1538,
    "\u25810x1211fcc": 1539,
    "tered": 1540,
    "\u25810x2e": 1541,
    "\u2581virtualprotect": 1542,
    "2f": 1543,
    "\u25810x4371": 1544,
    "\u2581code": 1545,
    "\u25810xa000": 1546,
    "\u25810x7850": 1547,
    "\u2581globalalloc": 1548,
    "\u2581with": 1549,
    "oct": 1550,
    "\u25810x1211e2c": 1551,
    "\u2581peekmessagea": 1552,
    "\u2581copy": 1553,
    "\u25810x678": 1554,
    "atch": 1555,
    "tries": 1556,
    "\u2581altered": 1557,
    "\u25810x67": 1558,
    "220": 1559,
    "\u25810x42a190": 1560,
    "gear": 1561,
    "\u2581codegear": 1562,
    "ati": 1563,
    "dac": 1564,
    "\u25810x1211f8": 1565,
    "\u25810x1a": 1566,
    "\u25810x4239": 1567,
    "\u25810x8f": 1568,
    "oper": 1569,
    "\u25810x4630": 1570,
    "\u25810x1210f35": 1571,
    "\u25810x460": 1572,
    "9e": 1573,
    "9d": 1574,
    "\u25810x44f9": 1575,
    "informationby": 1576,
    "\u25810x1211dcc": 1577,
    "div": 1578,
    "\u2581start": 1579,
    "\u2581draw": 1580,
    "65": 1581,
    "\u2581ntopen": 1582,
    "\u2581ntopensection": 1583,
    "alet": 1584,
    "\u25810x4967": 1585,
    "ay": 1586,
    "\u2581fibers": 1587,
    "\u25810xcc": 1588,
    "lex": 1589,
    "\u2581register": 1590,
    "\u25810x5f5": 1591,
    "\u2581createprocess": 1592,
    "\u25810x437b": 1593,
    "ispatch": 1594,
    "\u25810x8cc0": 1595,
    "help": 1596,
    "\u25810x12118": 1597,
    "oy": 1598,
    "\u258120": 1599,
    "\u25810x569b00": 1600,
    "ct": 1601,
    "\u25810x46b0": 1602,
    "drive": 1603,
    "\u2581king": 1604,
    "kart": 1605,
    "karton": 1606,
    "\u2581send": 1607,
    "link": 1608,
    "de9": 1609,
    "stroy": 1610,
    "devi": 1611,
    "0000000": 1612,
    "eck": 1613,
    "\u25810x16": 1614,
    "\u2581kingkarton": 1615,
    "\u25810x8af0": 1616,
    "d04": 1617,
    "\u2581createwindowexa": 1618,
    "e3": 1619,
    "\u2581setthread": 1620,
    "allock": 1621,
    "2b": 1622,
    "lp": 1623,
    "operation": 1624,
    "a9a0": 1625,
    "\u25810x15": 1626,
    "\u25810x42b0": 1627,
    "\u25810x7b80": 1628,
    "system": 1629,
    "\u2581shellex": 1630,
    "variablew": 1631,
    "\u25810x1211518": 1632,
    "\u2581try": 1633,
    "\u25810xfeee00f1": 1634,
    "\u2581getuserdefault": 1635,
    "\u25810x419c": 1636,
    "verflow": 1637,
    "\u2581getdevi": 1638,
    "\u25810xfeee0027": 1639,
    "cecaps": 1640,
    "\u2581getdevicecaps": 1641,
    "ym": 1642,
    "pack": 1643,
    "bug": 1644,
    "\u25810x21": 1645,
    "\u25810x1211fd4": 1646,
    "hen": 1647,
    "e80": 1648,
    "\u25810x94": 1649,
    "\u25810xfeee0026": 1650,
    "strfrom": 1651,
    "\u2581varbstrfrom": 1652,
    "iv": 1653,
    "\u25810xfeee0021": 1654,
    "\u2581tryac": 1655,
    "\u2581tryacquiresrwlockexclusive": 1656,
    "86": 1657,
    "5f": 1658,
    "\u25810xfeee0022": 1659,
    "package": 1660,
    "770": 1661,
    "588": 1662,
    "der": 1663,
    "packageid": 1664,
    "\u2581getcurrentpackageid": 1665,
    "\u25810x8920": 1666,
    "saf": 1667,
    "480": 1668,
    "\u25810xfeee0040": 1669,
    "\u25810xfeee0023": 1670,
    "\u2581pr": 1671,
    "\u25810xfeee0024": 1672,
    "\u2581comparestringex": 1673,
    "\u2581getlocaleinfoex": 1674,
    "\u2581no": 1675,
    "\u25810x101": 1676,
    "\u25810xfeee0025": 1677,
    "320": 1678,
    "linkw": 1679,
    "\u2581findfirstfilew": 1680,
    "\u2581enum": 1681,
    "\u25810x42b9": 1682,
    "\u25810xfeee0072": 1683,
    "debug": 1684,
    "urn": 1685,
    "400": 1686,
    "\u25810x22": 1687,
    "\u25810x7aa0": 1688,
    "a256": 1689,
    "a04": 1690,
    "7b": 1691,
    "\u2581globallock": 1692,
    "52": 1693,
    "\u25810x420c": 1694,
    "c2": 1695,
    "\u2581gettime": 1696,
    "\u2581sha256": 1697,
    "\u25810x12119c0": 1698,
    "\u2581closes": 1699,
    "\u2581getlogicaldrive": 1700,
    "\u25810xb8": 1701,
    "\u2581createa": 1702,
    "servicec": 1703,
    "econ": 1704,
    "\u25810x3c": 1705,
    "\u25810x59": 1706,
    "\u25810x6781": 1707,
    "ecomp": 1708,
    "own": 1709,
    "ret": 1710,
    "ymbo": 1711,
    "servicectrl": 1712,
    "ymbolic": 1713,
    "ymboliclinkw": 1714,
    "\u2581createsymboliclinkw": 1715,
    "tes": 1716,
    "xt": 1717,
    "\u2581wc": 1718,
    "\u25810xfeee0028": 1719,
    "ton": 1720,
    "\u25810x79d0": 1721,
    "atible": 1722,
    "46": 1723,
    "\u2581initterm": 1724,
    "\u25810x25": 1725,
    "13": 1726,
    "5500000": 1727,
    "ecompatible": 1728,
    "\u2581createcompatible": 1729,
    "c04": 1730,
    "\u2581setup": 1731,
    "ays": 1732,
    "conne": 1733,
    "\u25810x9030": 1734,
    "when": 1735,
    "\u25810xfeee01": 1736,
    "return": 1737,
    "callbacks": 1738,
    "processwrite": 1739,
    "timercallbacks": 1740,
    "processornumber": 1741,
    "\u2581flushprocesswrite": 1742,
    "\u2581setthreadpoolwait": 1743,
    "\u2581waitforthreadpool": 1744,
    "\u2581setthreadpooltimer": 1745,
    "\u2581closethreadpoolwait": 1746,
    "\u2581closethreadpooltimer": 1747,
    "\u2581createthreadpoolwait": 1748,
    "\u2581createthreadpooltimer": 1749,
    "\u2581flushprocesswritebuffers": 1750,
    "\u2581getcurrentprocessornumber": 1751,
    "\u2581waitforthreadpooltimercallbacks": 1752,
    "oreexw": 1753,
    "returns": 1754,
    "whencallback": 1755,
    "whencallbackreturns": 1756,
    "\u2581createsemaphoreexw": 1757,
    "\u2581freelibrarywhencallbackreturns": 1758,
    "\u25810x7ad0": 1759,
    "\u25810x1211dd4": 1760,
    "53": 1761,
    "\u2581getenvironmentvariablew": 1762,
    "iate": 1763,
    "\u2581deletecriticalsection": 1764,
    "ways": 1765,
    "\u25810x42e": 1766,
    "\u25814": 1767,
    "\u25810x53": 1768,
    "ssoc": 1769,
    "sup": 1770,
    "ast": 1771,
    "\u25810xfeee0046": 1772,
    "\u25810x1211f7c": 1773,
    "\u2581mon": 1774,
    "\u25810x42a9a0": 1775,
    "\u25810xfeee007c": 1776,
    "\u2581app": 1777,
    "termin": 1778,
    "7a": 1779,
    "\u25810x48f8": 1780,
    "\u25810x44f8e0": 1781,
    "\u2581error": 1782,
    "\u25810x1211780": 1783,
    "\u25810x12117f8": 1784,
    "\u25810x1211f28": 1785,
    "hot": 1786,
    "\u25810x1211fd8": 1787,
    "chan": 1788,
    "\u25810xfeee0029": 1789,
    "lphi": 1790,
    "\u2581delphi": 1791,
    "\u2581always": 1792,
    "fer": 1793,
    "ryp": 1794,
    "\u2581termin": 1795,
    "sn": 1796,
    "\u2581lstrcpyn": 1797,
    "\u2581releasedc": 1798,
    "7f": 1799,
    "696": 1800,
    "\u2581getdate": 1801,
    "\u25810x5f500000": 1802,
    "\u25810xfde9": 1803,
    "sti": 1804,
    "\u2581initialize": 1805,
    "\u25810x1211fd0": 1806,
    "\u2581fon": 1807,
    "\u2581fonts": 1808,
    "\u2581hton": 1809,
    "92": 1810,
    "\u25810xfeee002c": 1811,
    "\u25810x4c32": 1812,
    "refer": 1813,
    "\u25813": 1814,
    "\u2581un": 1815,
    "\u25810x83": 1816,
    "64000": 1817,
    "input": 1818,
    "stitu": 1819,
    "dacl": 1820,
    "ubstitu": 1821,
    "ubstitutes": 1822,
    "\u2581fontsubstitutes": 1823,
    "\u2581process32next": 1824,
    "securitydescriptordacl": 1825,
    "ssociate": 1826,
    "2w": 1827,
    "connection": 1828,
    "\u2581initializesecuritydescriptor": 1829,
    "cad": 1830,
    "\u25810x1211748": 1831,
    "connection2w": 1832,
    "\u2581cryp": 1833,
    "\u25810xfeee002a": 1834,
    "\u25810x2f": 1835,
    "\u2581createmutexa": 1836,
    "c5": 1837,
    "c1": 1838,
    "\u2581setsecuritydescriptordacl": 1839,
    "\u25810xfeee002b": 1840,
    "help32": 1841,
    "oolhelp32": 1842,
    "snaps": 1843,
    "oolhelp32snaps": 1844,
    "\u2581createtoolhelp32snaps": 1845,
    "\u2581createtoolhelp32snapshot": 1846,
    "\u25810x53000": 1847,
    "\u25810xfeee002d": 1848,
    "c9": 1849,
    "\u25810x42a40": 1850,
    "\u25810x1211cc0": 1851,
    "\u2581exe": 1852,
    "\u25810xfeee002f": 1853,
    "\u2581getsysteminfo": 1854,
    "memory": 1855,
    "dicon": 1856,
    "\u2581extracta": 1857,
    "ssociatedicon": 1858,
    "\u2581extractassociatedicon": 1859,
    "\u25810x41f3": 1860,
    "\u25810xfeee006b": 1861,
    "\u25810x98": 1862,
    "ain": 1863,
    "\u2581golfinfo": 1864,
    "\u25810xfeee002e": 1865,
    "\u2581beginup": 1866,
    "\u2581enumsystem": 1867,
    "\u25810x188": 1868,
    "62": 1869,
    "ho": 1870,
    "reg": 1871,
    "d0a": 1872,
    "\u2581malloc": 1873,
    "\u25810xfeee009a": 1874,
    "\u25810xfeee0045": 1875,
    "\u25810x1211508": 1876,
    "\u25810x3e": 1877,
    "\u2581ole32": 1878,
    "\u2581wa": 1879,
    "\u25810x214": 1880,
    "\u25810x68": 1881,
    "\u25810xfeee0030": 1882,
    "\u25810x29": 1883,
    "\u2581deletefilew": 1884,
    "\u25810xfeee0031": 1885,
    "valu": 1886,
    "61": 1887,
    "\u25810x1211f2c": 1888,
    "d80": 1889,
    "\u25810x1211928": 1890,
    "\u25810x4f": 1891,
    "redu": 1892,
    "referredu": 1893,
    "referreduilanguage": 1894,
    "threadp": 1895,
    "threadpreferreduilanguage": 1896,
    "\u2581enumsystemlocales": 1897,
    "class": 1898,
    "\u25810xfeee0044": 1899,
    "\u25810xfeee0074": 1900,
    "threadpreferreduilanguages": 1901,
    "110": 1902,
    "63": 1903,
    "4d": 1904,
    "\u2581getuserdefaultlocalename": 1905,
    "\u2581getusernamea": 1906,
    "\u25810x422": 1907,
    "\u25810x65500000": 1908,
    "cy": 1909,
    "\u25810xfeee005d": 1910,
    "\u2581createthread": 1911,
    "\u2581getdateformatex": 1912,
    "\u2581isvalidlocalename": 1913,
    "\u2581gettimeformatex": 1914,
    "\u2581enumsystemlocalesex": 1915,
    "arg": 1916,
    "\u25810x42b9a0": 1917,
    "5e": 1918,
    "conditionvariable": 1919,
    "208": 1920,
    "\u258132": 1921,
    "\u25810x169bf": 1922,
    "\u25810x4c43": 1923,
    "cel": 1924,
    "\u2581initializes": 1925,
    "692": 1926,
    "\u25810x7ee0": 1927,
    "\u25810x4c42d8": 1928,
    "\u25810x4c42f0": 1929,
    "\u25810x1b": 1930,
    "ush": 1931,
    "rect": 1932,
    "\u2581getfileattributesw": 1933,
    "\u25810xfeee0043": 1934,
    "\u25810xfeee0047": 1935,
    "\u2581loadiconw": 1936,
    "e66": 1937,
    "\u25810x40a9": 1938,
    "brush": 1939,
    "\u2581createdirectorya": 1940,
    "\u2581update": 1941,
    "\u25810xfeee0048": 1942,
    "\u25810xfeee0033": 1943,
    "\u25810x423": 1944,
    "\u25810xfeee0032": 1945,
    "\u25810xfeee0035": 1946,
    "\u25810x40933d": 1947,
    "\u25810x40933e": 1948,
    "\u25810x40933f": 1949,
    "\u25810x409340": 1950,
    "\u25810x409341": 1951,
    "\u25810x409342": 1952,
    "\u25810x409343": 1953,
    "\u25810xfeee0034": 1954,
    "\u25810xfeee003b": 1955,
    "\u25810xfeee0036": 1956,
    "\u25810xfeee0037": 1957,
    "\u25810x1211f34": 1958,
    "\u25810xfeee0049": 1959,
    "e6b": 1960,
    "\u25810x6781d8": 1961,
    "\u25810x7df0": 1962,
    "\u25810x4790": 1963,
    "\u25810x5a": 1964,
    "688": 1965,
    "\u25810xfeee0038": 1966,
    "\u25810xfeee0039": 1967,
    "\u25810xfeee0062": 1968,
    "\u25810xfeee0041": 1969,
    "\u25810xfeee003f": 1970,
    "\u25810xfeee0042": 1971,
    "fol": 1972,
    "\u2581show": 1973,
    "\u2581out": 1974,
    "main": 1975,
    "ac000": 1976,
    "\u25810xfeee003a": 1977,
    "\u25810xfeee003d": 1978,
    "\u25810xfeee003e": 1979,
    "\u25810x4bc": 1980,
    "mage": 1981,
    "\u25810x39": 1982,
    "\u25810x3bc": 1983,
    "\u25810xfeee003c": 1984,
    "\u25810x92": 1985,
    "isk": 1986,
    "\u25810x78f0": 1987,
    "57": 1988,
    "9f": 1989,
    "zero": 1990,
    "3c000": 1991,
    "ini": 1992,
    "\u25810xfeee0065": 1993,
    "\u2581getlogicalprocessor": 1994,
    "leob": 1995,
    "\u2581createw": 1996,
    "\u2581getlogicalprocessorinformation": 1997,
    "ray": 1998,
    "\u25810xfeee0066": 1999,
    "\u25810xfeee0053": 2000,
    "\u25810xfeee005e": 2001,
    "\u25810xfeee0067": 2002,
    "\u2581windowsnt": 2003,
    "\u25810xfeee0060": 2004,
    "\u25810xfeee004a": 2005,
    "untime": 2006,
    "stack": 2007,
    "\u25810xfeee0061": 2008,
    "antee": 2009,
    "guar": 2010,
    "guarantee": 2011,
    "stackguarantee": 2012,
    "\u2581setthreadstackguarantee": 2013,
    "cv": 2014,
    "variablea": 2015,
    "\u25810xfeee005c": 2016,
    "\u2581recv": 2017,
    "\u25810xfeee005a": 2018,
    "\u25810xfeee0063": 2019,
    "\u25810x433648": 2020,
    "\u25810xfeee004d": 2021,
    "\u25810xfeee004b": 2022,
    "\u25810xfeee004c": 2023,
    "\u25810xfeee005b": 2024,
    "\u2581createdirectoryw": 2025,
    "\u25810xfeee0068": 2026,
    "e44": 2027,
    "39000": 2028,
    "\u25810x8a80": 2029,
    "\u25810xfeee0050": 2030,
    "\u25810xfeee0055": 2031,
    "\u25810xfeee004e": 2032,
    "\u25810xfeee0054": 2033,
    "drl6660drl6660drl6660drl6660": 2034,
    "\u25810xfeee004f": 2035,
    "\u25810xfeee0051": 2036,
    "\u25810xfeee0052": 2037,
    "\u25810xfeee0081": 2038,
    "\u25810xfeee0056": 2039,
    "\u25810xfeee0057": 2040,
    "\u25810xfeee0058": 2041,
    "\u25810xfeee0059": 2042,
    "\u2581loadcursorw": 2043,
    "69000": 2044,
    "\u25810xfeee0064": 2045,
    "\u2581txt": 2046,
    "resourcew": 2047,
    "\u25810x1211dc8": 2048,
    "\u25810xfeee0073": 2049,
    "\u2581po": 2050,
    "\u2581loadlibraryw": 2051,
    "ad000": 2052,
    "\u25810x527": 2053,
    "\u25810x3f2000": 2054,
    "a5000": 2055,
    "\u25810x6b": 2056,
    "54000": 2057,
    "\u2581findnext": 2058,
    "\u2581variant": 2059,
    "ca": 2060,
    "\u2581end": 2061,
    "6d": 2062,
    "\u25810xfeee0075": 2063,
    "\u25810x1211ec": 2064,
    "\u2581getmessagea": 2065,
    "sing": 2066,
    "b7c": 2067,
    "keyboard": 2068,
    "\u25810x42e0": 2069,
    "bits": 2070,
    "array": 2071,
    "\u25810x40a": 2072,
    "\u25810x1211d04": 2073,
    "c7": 2074,
    "\u25818": 2075,
    "\u25810xfeee006a": 2076,
    "\u25810xfeee006c": 2077,
    "load": 2078,
    "\u25810xfeee0070": 2079,
    "f00": 2080,
    "ystemp": 2081,
    "\u25810x23": 2082,
    "26000": 2083,
    "\u25810xfeee006d": 2084,
    "bc000": 2085,
    "b8000": 2086,
    "ug": 2087,
    "icode": 2088,
    "32000": 2089,
    "\u25810x43500": 2090,
    "34000": 2091,
    "24000": 2092,
    "\u25810xfeee0069": 2093,
    "securityinfo": 2094,
    "\u25810x527ed8": 2095,
    "\u25810x1211f30": 2096,
    "\u2581registerclassexa": 2097,
    "am": 2098,
    "\u25810x1211768": 2099,
    "9c000": 2100,
    "\u25810x7cd0": 2101,
    "\u25810x88a0": 2102,
    "\u2581getkeyboard": 2103,
    "48000": 2104,
    "7c000": 2105,
    "10c": 2106,
    "6c000": 2107,
    "a8000": 2108,
    "28000": 2109,
    "56000": 2110,
    "74000": 2111,
    "5c000": 2112,
    "38000": 2113,
    "de0": 2114,
    "a4000": 2115,
    "\u25810xfeee006f": 2116,
    "b4000": 2117,
    "98000": 2118,
    "mapviewof": 2119,
    "mapviewofsection": 2120,
    "tunicode": 2121,
    "\u25810x7f0": 2122,
    "78000": 2123,
    "\u25810xfeee006e": 2124,
    "b04": 2125,
    "2c000": 2126,
    "c4000": 2127,
    "58000": 2128,
    "\u25810x410770": 2129,
    "\u2581rtlini": 2130,
    "tunicodestring": 2131,
    "\u2581rtlinitunicodestring": 2132,
    "\u258120220": 2133,
    "188": 2134,
    "\u25812022030": 2135,
    "68000": 2136,
    "variant": 2137,
    "\u2581deletefilea": 2138,
    "94000": 2139,
    "data": 2140,
    "\u25810xffff": 2141,
    "\u25810xa1": 2142,
    "\u25810x1211c04": 2143,
    "windows": 2144,
    "tem": 2145,
    "typ": 2146,
    "\u2581nov": 2147,
    "\u2581sep": 2148,
    "e6669": 2149,
    "\u25810d0a": 2150,
    "696e6b": 2151,
    "692e6669": 2152,
    "696e6b692e6669": 2153,
    "\u25810x1211a04": 2154,
    "\u25810xa9": 2155,
    "6e": 2156,
    "\u2581olea": 2157,
    "380": 2158,
    "\u25810x58": 2159,
    "\u25810x1804": 2160,
    "singleob": 2161,
    "windowproc": 2162,
    "\u25810x4800": 2163,
    "\u2581apr": 2164,
    "\u2581aug": 2165,
    "ember": 2166,
    "\u2581oct": 2167,
    "ong": 2168,
    "\u25810x8e": 2169,
    "\u25810x80000000": 2170,
    "\u2581sun": 2171,
    "messagew": 2172,
    "a58": 2173,
    "5b": 2174,
    "\u2581com": 2175,
    "\u25810x42b": 2176,
    "\u25810x36": 2177,
    "\u2581waitforsingleob": 2178,
    "42": 2179,
    "tok": 2180,
    "\u25810x85": 2181,
    "uary": 2182,
    "\u2581may": 2183,
    "sday": 2184,
    "\u2581tue": 2185,
    "\u2581wed": 2186,
    "\u2581registry": 2187,
    "teen": 2188,
    "\u25810xfeee008a": 2189,
    "580": 2190,
    "aletteen": 2191,
    "aletteentries": 2192,
    "\u2581trans": 2193,
    "\u258110": 2194,
    "\u25810x1211bc0": 2195,
    "\u2581getmain": 2196,
    "\u2581showwindow": 2197,
    "\u25810x364": 2198,
    "text": 2199,
    "5d": 2200,
    "\u25810x408": 2201,
    "vol": 2202,
    "valueexw": 2203,
    "\u2581getsystemdirectorya": 2204,
    "token": 2205,
    "\u25810xfeee0078": 2206,
    "\u25810xfeee0077": 2207,
    "ord": 2208,
    "\u25810xfeee0079": 2209,
    "stringsa": 2210,
    "\u25810x7e80": 2211,
    "\u25810xfeee0076": 2212,
    "spec": 2213,
    "\u25810x86": 2214,
    "\u25810xfeee007a": 2215,
    "\u2581def": 2216,
    "\u2581getsystemp": 2217,
    "\u2581getsystempaletteentries": 2218,
    "d08": 2219,
    "suped": 2220,
    "\u25810x1211ee0": 2221,
    "\u25810x1211cdc": 2222,
    "\u25810x412": 2223,
    "f04": 2224,
    "\u25810x42fc": 2225,
    "\u2581floatingpoin": 2226,
    "\u2581invalidvariant": 2227,
    "byzero": 2228,
    "\u25810x439": 2229,
    "isionbyzero": 2230,
    "\u25810xfeee007f": 2231,
    "ume": 2232,
    "\u25810x7e74": 2233,
    "\u25810x7e75": 2234,
    "volume": 2235,
    "\u25810x7e78": 2236,
    "\u25810x7e79": 2237,
    "3f8": 2238,
    "\u25810x7e7c": 2239,
    "\u25810x7e7d": 2240,
    "\u2581updatewindow": 2241,
    "\u25810xfeee010": 2242,
    "os": 2243,
    "\u2581globalfree": 2244,
    "6f": 2245,
    "\u2581defwindowproc": 2246,
    "\u25810xe0": 2247,
    "\u2581getd": 2248,
    "your": 2249,
    "\u2581varr": 2250,
    "4fromstr": 2251,
    "\u25810x4e5": 2252,
    "\u25810x7e81": 2253,
    "\u2581q": 2254,
    "earray": 2255,
    "\u2581lstrcmp": 2256,
    "\u25810x1211fc8": 2257,
    "\u25810x33": 2258,
    "\u25810x1211f00": 2259,
    "closekey": 2260,
    "\u2581destroy": 2261,
    "\u2581regclosekey": 2262,
    "pos": 2263,
    "a00": 2264,
    "\u25810x1d": 2265,
    "\u25810x7e85": 2266,
    "\u25810x12119ac": 2267,
    "\u2581beginpaint": 2268,
    "\u25810x7e84": 2269,
    "c3": 2270,
    "\u25810x42c0": 2271,
    "\u2581contr": 2272,
    "bitmap": 2273,
    "\u2581crypt": 2274,
    "\u2581endpaint": 2275,
    "down": 2276,
    "\u25810x423d": 2277,
    "host": 2278,
    "inal": 2279,
    "118": 2280,
    "\u25810x4710": 2281,
    "\u25810xfeee0080": 2282,
    "\u25810x3f75f": 2283,
    "volumeinformation": 2284,
    "\u2581getvolumeinformation": 2285,
    "\u25810x40a5dc": 2286,
    "\u25810x40a5cc": 2287,
    "localtime": 2288,
    "\u25810x8230": 2289,
    "\u25810x1211308": 2290,
    "\u25810x1211578": 2291,
    "antor": 2292,
    "antorsaf": 2293,
    "antorsafearray": 2294,
    "\u25810x5b": 2295,
    "\u25810x4015": 2296,
    "draw": 2297,
    "\u25810x42d8c6": 2298,
    "e00": 2299,
    "\u25810x40a3": 2300,
    "\u25810x1211f20": 2301,
    "ask": 2302,
    "\u25810x1211e08": 2303,
    "quit": 2304,
    "\u2581image": 2305,
    "\u25810x431f": 2306,
    "388": 2307,
    "\u25810x10000": 2308,
    "\u25810x57": 2309,
    "\u25810xfeee007d": 2310,
    "41": 2311,
    "cb": 2312,
    "\u2581getenvironmentvariablea": 2313,
    "\u25810x2d4": 2314,
    "\u25810xfeee0095": 2315,
    "uter": 2316,
    "allocate": 2317,
    "646": 2318,
    "mapp": 2319,
    "\u25810x42c588": 2320,
    "\u25810x6d": 2321,
    "\u25810x7db0": 2322,
    "computer": 2323,
    "\u25810x4428": 2324,
    "\u25810xfeee008e": 2325,
    "\u2581post": 2326,
    "\u25810x7d10": 2327,
    "mapping": 2328,
    "filemapping": 2329,
    "fileattributesa": 2330,
    "f8000": 2331,
    "nextw": 2332,
    "ow64": 2333,
    "\u2581getlocaltime": 2334,
    "\u2581setwindow": 2335,
    "ec0": 2336,
    "cd": 2337,
    "\u25810x37": 2338,
    "\u2581wake": 2339,
    "\u25810x4094": 2340,
    "\u25810xfeee0082": 2341,
    "\u2581wakeall": 2342,
    "\u2581wakeallconditionvariable": 2343,
    "ysical": 2344,
    "\u2581regset": 2345,
    "\u25810x1211ef0": 2346,
    "se": 2347,
    "900": 2348,
    "\u25810x42d5": 2349,
    "files": 2350,
    "hysical": 2351,
    "late": 2352,
    "\u2581translate": 2353,
    "head": 2354,
    "e4000": 2355,
    "nal": 2356,
    "\u25810x7540": 2357,
    "ac0": 2358,
    "texta": 2359,
    "\u2581physical": 2360,
    "5a": 2361,
    "\u25810x567": 2362,
    "ordinal": 2363,
    "errormode": 2364,
    "268": 2365,
    "\u2581seterrormode": 2366,
    "\u2581ordinal": 2367,
    "56c": 2368,
    "\u2581process32nextw": 2369,
    "\u25810x2d": 2370,
    "\u25810xfeee007b": 2371,
    "\u2581ws2": 2372,
    "\u2581isw": 2373,
    "\u2581shget": 2374,
    "\u25810xfeee0084": 2375,
    "93": 2376,
    "\u25810xfeee008d": 2377,
    "\u25810x52": 2378,
    "\u25810xfeee008c": 2379,
    "\u2581createfilemapping": 2380,
    "\u25810x31": 2381,
    "\u25810xa2": 2382,
    "\u25810x428": 2383,
    "\u2581dispatch": 2384,
    "initialize": 2385,
    "\u2581seten": 2386,
    "\u25810x121194c": 2387,
    "\u25810x4d70": 2388,
    "ervice": 2389,
    "atet": 2390,
    "\u25810x48f898": 2391,
    "\u25810x9c": 2392,
    "listhead": 2393,
    "\u2581initializeslisthead": 2394,
    "namew": 2395,
    "long": 2396,
    "state": 2397,
    "\u25810x6a6": 2398,
    "\u2581imagelist": 2399,
    "\u2581shellexecute": 2400,
    "\u25810x1210d": 2401,
    "e68": 2402,
    "speci": 2403,
    "\u25810x4bd0": 2404,
    "enum": 2405,
    "\u25810xfeee0087": 2406,
    "\u25810x7de4": 2407,
    "\u25810x44f928": 2408,
    "\u25810x12117a4": 2409,
    "\u25810x121157c": 2410,
    "anag": 2411,
    "\u25810x7de5": 2412,
    "\u25810x1211fc4": 2413,
    "\u25810xfeee0088": 2414,
    "e40": 2415,
    "\u25810x7ee00": 2416,
    "yarg": 2417,
    "ut32": 2418,
    "\u2581oleaut32": 2419,
    "\u2581createfilemappinga": 2420,
    "\u25810xfeee0083": 2421,
    "\u25810xfeee0085": 2422,
    "\u25810xfeee0086": 2423,
    "\u25810x525": 2424,
    "\u25810xfeee0089": 2425,
    "econdition": 2426,
    "\u25810xa8": 2427,
    "econditionvariable": 2428,
    "\u2581gettempa": 2429,
    "\u2581iswow64": 2430,
    "\u2581iswow64process": 2431,
    "6a": 2432,
    "\u2581translatemessage": 2433,
    "\u25810x414": 2434,
    "tou": 2435,
    "\u25810xfeee008f": 2436,
    "e08": 2437,
    "\u25810xfeee0090": 2438,
    "\u2581createprocessa": 2439,
    "\u2581hg": 2440,
    "textou": 2441,
    "b08": 2442,
    "\u2581hgdraw": 2443,
    "\u25810x1211f48": 2444,
    "\u2581getfileinformationby": 2445,
    "\u2581check": 2446,
    "\u25810x107568": 2447,
    "\u25810x4e50": 2448,
    "ust": 2449,
    "114": 2450,
    "\u25810x42a0": 2451,
    "\u25810x1211938": 2452,
    "\u25810x40152c": 2453,
    "ofc": 2454,
    "\u25810x1211f3c": 2455,
    "box": 2456,
    "\u2581postquit": 2457,
    "\u2581postquitmessage": 2458,
    "\u25810x40f6": 2459,
    "140": 2460,
    "\u25810x1211fdc": 2461,
    "ty": 2462,
    "\u25810x1211f88": 2463,
    "lec": 2464,
    "\u25810x60000": 2465,
    "\u25810x7bd0": 2466,
    "f40": 2467,
    "\u2581regsetvalueexw": 2468,
    "708": 2469,
    "ternal": 2470,
    "\u2581getcurrentdirectoryw": 2471,
    "\u2581gettickcount64": 2472,
    "\u25810x41bc20": 2473,
    "\u25810x7d95": 2474,
    "980": 2475,
    "\u2581loc": 2476,
    "\u2581localiz": 2477,
    "\u2581localization": 2478,
    "\u2581sa": 2479,
    "\u25810x7d94": 2480,
    "unlock": 2481,
    "\u25810x519": 2482,
    "rag": 2483,
    "bl": 2484,
    "\u25810x35": 2485,
    "\u25810x4317": 2486,
    "328": 2487,
    "726": 2488,
    "round": 2489,
    "endoffile": 2490,
    "\u25810x1211f4c": 2491,
    "\u25810x40a58": 2492,
    "\u25810x42a7": 2493,
    "nexec": 2494,
    "\u2581getfileinformationbyhandl": 2495,
    "\u2581mapview": 2496,
    "ows": 2497,
    "\u2581globalunlock": 2498,
    "\u2581dispatchmessagea": 2499,
    "ger": 2500,
    "\u2581findwindow": 2501,
    "ull": 2502,
    "\u25810x2b": 2503,
    "\u2581setfileattributesa": 2504,
    "d50": 2505,
    "\u25810xfeee0094": 2506,
    "\u2581mapviewoffile": 2507,
    "2f8": 2508,
    "\u25810x7a80": 2509,
    "\u25810x6b9": 2510,
    "bk": 2511,
    "\u25810xfeee0091": 2512,
    "tate": 2513,
    "\u25810xa7": 2514,
    "manag": 2515,
    "wi": 2516,
    "change": 2517,
    "\u25810x3f3000": 2518,
    "cept": 2519,
    "\u25810x437ad": 2520,
    "\u25810x437c4": 2521,
    "\u25810x97a0": 2522,
    "\u25810x437bc": 2523,
    "\u25810x4371e6": 2524,
    "\u25810x4371e7": 2525,
    "9a": 2526,
    "\u25810x43540": 2527,
    "6b": 2528,
    "\u25810x9020": 2529,
    "f08": 2530,
    "b7c3": 2531,
    "ethread": 2532,
    "pro": 2533,
    "\u25810x43b7b9": 2534,
    "ontin": 2535,
    "\u25810x43b7c3": 2536,
    "\u25810xfeee0098": 2537,
    "\u2581copyfilea": 2538,
    "\u2581winexec": 2539,
    "\u2581res": 2540,
    "\u25810x96": 2541,
    "\u25810xfeee0092": 2542,
    "pe": 2543,
    "\u25810x95": 2544,
    "\u25810x41de": 2545,
    "\u25810xfeee0099": 2546,
    "\u2581deleteob": 2547,
    "\u2581defwindowproca": 2548,
    "b50": 2549,
    "\u25810xfeee0097": 2550,
    "\u25810xfeee0093": 2551,
    "mask": 2552,
    "\u25810x42e5f8": 2553,
    "\u25810xfeee0096": 2554,
    "\u25810xfeee009b": 2555,
    "\u2581setfileinformationby": 2556,
    "\u2581createexw": 2557,
    "\u25810x1211dfc": 2558,
    "\u25810xfeee009c": 2559,
    "\u2581er": 2560,
    "out": 2561,
    "\u25810x56bb": 2562,
    "blt": 2563,
    "\u25810x7150": 2564,
    "\u25810x61": 2565,
    "\u25810x424": 2566,
    "\u25810x567a40": 2567,
    "\u25810x5f": 2568,
    "\u25810x8814": 2569,
    "\u25810x73f0": 2570,
    "\u25810x4315": 2571,
    "\u25810x72a0": 2572,
    "\u25810x67000000": 2573,
    "new": 2574,
    "680": 2575,
    "\u2581getnumber": 2576,
    "\u2581accept": 2577,
    "foreg": 2578,
    "foreground": 2579,
    "foregroundwindow": 2580,
    "ofconsole": 2581,
    "\u2581getnumberofconsole": 2582,
    "\u25810x1211b04": 2583,
    "\u25810x7690": 2584,
    "\u25810x4319": 2585,
    "era": 2586,
    "sid": 2587,
    "\u2581op": 2588,
    "\u25810x77e0": 2589,
    "\u2581setfileattributesw": 2590,
    "ed4": 2591,
    "\u25810x99e0": 2592,
    "\u25810x1210f8": 2593,
    "bkcolor": 2594,
    "cf": 2595,
    "lw": 2596,
    "\u2581process32first": 2597,
    "\u25810xa4": 2598,
    "\u25810x45fc": 2599,
    "\u25810x4620": 2600,
    "\u2581bat": 2601,
    "\u2581textou": 2602,
    "ac6": 2603,
    "\u25810x1211fc0": 2604,
    "ee8": 2605,
    "\u25810x431998": 2606,
    "\u2581selectob": 2607,
    "\u25810xb4": 2608,
    "fac": 2609,
    "\u25810x78c0": 2610,
    "ivi": 2611,
    "vice": 2612,
    "\u25810x3d": 2613,
    "\u2581gb": 2614,
    "\u25810x8815": 2615,
    "inputs": 2616,
    "\u2581getnumberofconsoleinputs": 2617,
    "bc8": 2618,
    "\u2581getthreadpreferreduilanguages": 2619,
    "\u25810x3410c": 2620,
    "988": 2621,
    "\u2581san": 2622,
    "fdr": 2623,
    "\u2581sanfdr": 2624,
    "\u2581getlogicaldrivestringsa": 2625,
    "\u25810x41f": 2626,
    "002": 2627,
    "you": 2628,
    "can": 2629,
    "\u25810x8cf0": 2630,
    "artup": 2631,
    "\u2581remo": 2632,
    "\u25810x20000": 2633,
    "servicectrlhandl": 2634,
    "\u2581registerservicectrlhandl": 2635,
    "\u25810x432": 2636,
    "slen": 2637,
    "\u2581wcslen": 2638,
    "\u2581findnextfilew": 2639,
    "lid": 2640,
    "9b": 2641,
    "ystate": 2642,
    "\u2581device": 2643,
    "a0000": 2644,
    "\u2581resum": 2645,
    "\u2581resumethread": 2646,
    "\u2581closesocket": 2647,
    "\u25810xd0": 2648,
    "\u25810x1211cec": 2649,
    "\u2581tr": 2650,
    "\u2581sendmessagea": 2651,
    "f0000": 2652,
    "\u2581setbkcolor": 2653,
    "\u2581createprocessw": 2654,
    "\u2581z": 2655,
    "\u25810x12113": 2656,
    "terect": 2657,
    "aaaa": 2658,
    "emutex": 2659,
    "\u2581releasemutex": 2660,
    "\u25810x9a": 2661,
    "ervicehandle": 2662,
    "\u2581closeservicehandle": 2663,
    "\u2581drawtexta": 2664,
    "\u2581deletedc": 2665,
    "scmanag": 2666,
    "\u2581openscmanag": 2667,
    "\u2581exitthread": 2668,
    "\u25810x3a": 2669,
    "ivile": 2670,
    "\u2581mpr": 2671,
    "\u25810x1210e8": 2672,
    "\u2581getforegroundwindow": 2673,
    "\u2581registerclassa": 2674,
    "\u2581unmapview": 2675,
    "\u2581unmapviewoffile": 2676,
    "\u25810x7de8": 2677,
    "\u25810x4229": 2678,
    "\u2581bit": 2679,
    "\u25810x7be0": 2680,
    "\u25810x7de9": 2681,
    "\u25810x4170": 2682,
    "atethread": 2683,
    "app": 2684,
    "\u25810x6c": 2685,
    "\u2581textouta": 2686,
    "\u2581point": 2687,
    "textcolor": 2688,
    "lwapi": 2689,
    "stringa": 2690,
    "\u2581shlwapi": 2691,
    "rata": 2692,
    "\u2581prec": 2693,
    "\u2581errata": 2694,
    "\u2581precision": 2695,
    "aterect": 2696,
    "49": 2697,
    "\u2581allocate": 2698,
    "\u2581terminatethread": 2699,
    "\u2581createcompatibledc": 2700,
    "\u25810x55": 2701,
    "\u25810x51a": 2702,
    "erator": 2703,
    "\u2581getdi": 2704,
    "\u2581bitblt": 2705,
    "\u2581to": 2706,
    "\u2581setwindowpos": 2707,
    "dup": 2708,
    "esid": 2709,
    "andinitializ": 2710,
    "andinitializesid": 2711,
    "\u2581allocateandinitializesid": 2712,
    "usp": 2713,
    "\u2581conne": 2714,
    "\u2581cb": 2715,
    "\u25810x121193c": 2716,
    "\u2581openscmanagerw": 2717,
    "a81": 2718,
    "\u25810x3b": 2719,
    "\u2581settextcolor": 2720,
    "47": 2721,
    "\u25810xa5": 2722,
    "debugger": 2723,
    "\u2581geticon": 2724,
    "\u2581openservicew": 2725,
    "debuggerpresent": 2726,
    "\u25810x1211f04": 2727,
    "dispatch": 2728,
    "\u2581startservicectrl": 2729,
    "\u2581startservicectrldispatch": 2730,
    "ce8": 2731,
    "e69": 2732,
    "full": 2733,
    "\u2581setservice": 2734,
    "\u2581setservicestatus": 2735,
    "\u2581createcompatiblebitmap": 2736,
    "fe8": 2737,
    "\u2581startservicew": 2738,
    "\u25810x7d50": 2739,
    "\u2581startservicectrldispatcherw": 2740,
    "408": 2741,
    "\u25810x42c520": 2742,
    "\u2581createservicew": 2743,
    "\u25810x7c70": 2744,
    "43": 2745,
    "\u25810x7dec": 2746,
    "\u25810x7ded": 2747,
    "\u2581createdi": 2748,
    "ff8": 2749,
    "\u25810x5d": 2750,
    "bar": 2751,
    "longa": 2752,
    "e61": 2753,
    "\u2581copyfilew": 2754,
    "\u2581findwindowa": 2755,
    "\u2581getke": 2756,
    "\u25810x46e0": 2757,
    "\u2581getkeystate": 2758,
    "\u2581isdebuggerpresent": 2759,
    "a08": 2760,
    "ope": 2761,
    "opene": 2762,
    "enthread": 2763,
    "eed": 2764,
    "\u2581createf": 2765,
    "\u2581openthread": 2766,
    "\u2581drag": 2767,
    "\u2581susp": 2768,
    "ang": 2769,
    "\u25810x90f0": 2770,
    "\u2581freesid": 2771,
    "\u2581suspend": 2772,
    "\u2581suspendthread": 2773,
    "\u2581htons": 2774,
    "folder": 2775,
    "\u2581getmess": 2776,
    "\u2581runtime": 2777,
    "\u2581getcomputer": 2778,
    "\u2581socket": 2779,
    "\u2581wsast": 2780,
    "\u2581getdibits": 2781,
    "\u2581wsastartup": 2782,
    "\u25810x78a0": 2783,
    "\u25810x4c32c0": 2784,
    "\u2581getob": 2785,
    "\u2581wcsc": 2786,
    "adwork": 2787,
    "tra": 2788,
    "\u25810x7e0": 2789,
    "\u2581control": 2790,
    "\u25810x4393f8": 2791,
    "\u25810x1211c14": 2792,
    "\u25810x7d00": 2793,
    "solid": 2794,
    "\u2581wcscpy": 2795,
    "\u2581settimer": 2796,
    "\u2581msvcr": 2797,
    "\u2581connect": 2798,
    "ontindirec": 2799,
    "\u2581createfontindirec": 2800,
    "lecs": 2801,
    "variablecs": 2802,
    "\u2581sleepcondition": 2803,
    "\u2581sleepconditionvariablecs": 2804,
    "\u25810x51000": 2805,
    "\u2581getwindows": 2806,
    "\u2581comm": 2807,
    "solidbrush": 2808,
    "\u2581createsolidbrush": 2809,
    "\u25810x47c0": 2810,
    "ctl32": 2811,
    "\u2581getusernamew": 2812,
    "\u2581u": 2813,
    "\u2581comctl32": 2814,
    "utdown": 2815,
    "\u25810x2ac": 2816,
    "\u2581invalidaterect": 2817,
    "\u2581fill": 2818,
    "c80": 2819,
    "\u25810x41a5": 2820,
    "\u25810x52660": 2821,
    "\u25810x437a": 2822,
    "\u2581getlogicaldrivestringsw": 2823,
    "\u2581registerwindow": 2824,
    "\u2581gethost": 2825,
    "\u25810x63": 2826,
    "\u2581bind": 2827,
    "ecta": 2828,
    "openenum": 2829,
    "\u2581wnetopenenum": 2830,
    "\u2581mo": 2831,
    "\u2581wnetopenenumw": 2832,
    "\u25810x121": 2833,
    "a88": 2834,
    "cp": 2835,
    "\u2581destroyicon": 2836,
    "\u25810x7df1": 2837,
    "\u25810x8d80": 2838,
    "heck": 2839,
    "\u2581createfontindirecta": 2840,
    "byname": 2841,
    "tic": 2842,
    "\u25810x52000": 2843,
    "\u2581gethostbyname": 2844,
    "\u25810x1211e28": 2845,
    "hip": 2846,
    "\u25810x1211c80": 2847,
    "members": 2848,
    "\u2581wnetadd": 2849,
    "\u2581wnetaddconnection2w": 2850,
    "\u2581wnetenum": 2851,
    "\u25810x1210900": 2852,
    "\u2581wnetenumresourcew": 2853,
    "membership": 2854,
    "\u2581checktoken": 2855,
    "\u2581checktokenmembership": 2856,
    "\u2581fillrect": 2857,
    "\u2581getkeyboardstate": 2858,
    "d73": 2859,
    "\u25810x91": 2860,
    "\u2581createdib": 2861,
    "losec": 2862,
    "\u2581createdibsection": 2863,
    "\u25810x1e5": 2864,
    "\u25810x4028": 2865,
    "cancel": 2866,
    "68c": 2867,
    "e88": 2868,
    "\u2581wnetcancel": 2869,
    "\u2581wnetcancelconnection2w": 2870,
    "inst": 2871,
    "\u2581inst": 2872,
    "\u2581emp": 2873,
    "\u2581setclass": 2874,
    "ateprocess": 2875,
    "\u2581geticoninfo": 2876,
    "b88": 2877,
    "\u25810x46b3": 2878,
    "\u2581setclipboard": 2879,
    "\u2581drawicon": 2880,
    "\u2581openclipboard": 2881,
    "\u2581setclipboarddata": 2882,
    "\u2581empty": 2883,
    "\u2581closec": 2884,
    "\u2581closeclipboard": 2885,
    "\u2581failedto": 2886,
    "\u2581emptyclipboard": 2887,
    "essage": 2888,
    "ecut": 2889,
    "\u2581shellexecut": 2890,
    "zer": 2891,
    "\u2581setclasslonga": 2892,
    "\u25810x448": 2893,
    "uilanguage": 2894,
    "\u25810x26": 2895,
    "\u2581exed": 2896,
    "alog": 2897,
    "\u25810xc00": 2898,
    "\u2581shellexecuteexw": 2899,
    "\u2581extractassociatedicona": 2900,
    "\u2581extractassociatediconw": 2901,
    "\u2581list": 2902,
    "geo": 2903,
    "\u2581unhandledexceptionfilter": 2904,
    "\u2581exedows": 2905,
    "0x": 2906,
    "\u2581error0x": 2907,
    "9c1": 2908,
    "\u2581shutdown": 2909,
    "omem": 2910,
    "omemory": 2911,
    "\u2581rtlzer": 2912,
    "\u2581rtlzeromemory": 2913,
    "eextra": 2914,
    "\u25810x7bf0": 2915,
    "\u2581findwindowexa": 2916,
    "dateresourcew": 2917,
    "\u25810x1212000": 2918,
    "\u2581registerservicectrlhandlerw": 2919,
    "\u2581endup": 2920,
    "\u2581updateresourcea": 2921,
    "\u2581endupdateresourcea": 2922,
    "\u2581beginupdateresourcea": 2923,
    "geoid": 2924,
    "\u2581getusergeoid": 2925,
    "freesp": 2926,
    "\u2581htonl": 2927,
    "\u2581getdisk": 2928,
    "\u2581getdiskfreesp": 2929,
    "\u2581beginupdateresourcew": 2930,
    "\u25810x6b9c08": 2931,
    "\u25810x181b": 2932,
    "\u25810x7b90": 2933,
    "f74": 2934,
    "octls": 2935,
    "ticonex": 2936,
    "\u25810x4238": 2937,
    "\u2581ioctls": 2938,
    "\u2581ioctlsocket": 2939,
    "\u2581extracticonex": 2940,
    "\u2581extracticonexw": 2941,
    "cc8": 2942,
    "\u2581listen": 2943,
    "\u25810x7cc0": 2944,
    "\u25810x1e00000": 2945,
    "\u25810x1e50000": 2946,
    "viol": 2947,
    "\u25810x7b000": 2948,
    "\u2581sr": 2949,
    "\u25810x120e6d4": 2950,
    "\u2581getpe": 2951,
    "ername": 2952,
    "\u2581getpeername": 2953,
    "\u25810xb0000": 2954,
    "any": 2955,
    "violation": 2956,
    "\u25810x7090": 2957,
    "\u2581message": 2958,
    "\u25810x42d520": 2959,
    "\u25810x4317e0": 2960,
    "d8000": 2961,
    "\u25810x2ac45": 2962,
    "\u25810xff8": 2963,
    "\u25810x42ce": 2964,
    "\u2581terminateprocess": 2965,
    "\u25810x40287e": 2966,
    "\u2581getthreaduilanguage": 2967,
    "7c8": 2968,
    "dos": 2969,
    "\u25810x4308": 2970,
    "584": 2971,
    "\u25810x42da": 2972,
    "\u25810x1211efc": 2973,
    "\u25810x12119f0": 2974,
    "\u25810x40a5a0": 2975,
    "ageextra": 2976,
    "ageextrainfo": 2977,
    "\u2581getmessageextrainfo": 2978,
    "\u2581mul": 2979,
    "\u2581muldiv": 2980,
    "\u2581getcomputernamea": 2981,
    "\u2581messagebox": 2982,
    "288": 2983,
    "\u2581ra": 2984,
    "\u25810x5265d": 2985,
    "\u25810x20019": 2986,
    "\u25810x1211e44": 2987,
    "\u25810x566": 2988,
    "eexception": 2989,
    "\u2581rais": 2990,
    "\u2581raiseexception": 2991,
    "\u25810x409a": 2992,
    "\u25810x1f000": 2993,
    "\u25810x436390": 2994,
    "\u25810x496760": 2995,
    "ram": 2996,
    "\u25810xa6": 2997,
    "\u2581he": 2998,
    "\u25810x120fa": 2999,
    "ash": 3000,
    "\u25810x42dac6": 3001,
    "\u25810x120e6d0": 3002,
    "788": 3003,
    "\u25810x52661": 3004,
    "e4c": 3005,
    "e6c": 3006,
    "cadwork": 3007,
    "\u25810x44280": 3008,
    "\u25810x52662": 3009,
    "\u25810x7ed0": 3010,
    "f80": 3011,
    "\u25810x40a59e": 3012,
    "\u2581getdiskfreespac": 3013,
    "\u25810x40a5a2": 3014,
    "\u25810x40a5a4": 3015,
    "\u25810x40a5a6": 3016,
    "\u25810x40a5a8": 3017,
    "\u25810x40a5aa": 3018,
    "\u2581srand": 3019,
    "\u25810x40933c": 3020,
    "f62": 3021,
    "\u25810x4400": 3022,
    "\u25810x41a": 3023,
    "\u2581createp": 3024,
    "adm": 3025,
    "d4000": 3026,
    "\u25810x7ec4": 3027,
    "\u2581wsprintfa": 3028,
    "\u2581registerclassexw": 3029,
    "\u25810x7ec5": 3030,
    "\u25810x1211e1c": 3031,
    "\u25810x409344": 3032,
    "\u2581work": 3033,
    "\u2581initializeconditionvariable": 3034,
    "inki": 3035,
    "\u25810x80c0": 3036,
    "cc000": 3037,
    "\u2581hels": 3038,
    "\u2581helsinki": 3039,
    "\u25810x120f8": 3040,
    "\u25810x8d00": 3041,
    "querys": 3042,
    "\u25810x4305f8": 3043,
    "\u25810x1211f6c": 3044,
    "b190": 3045,
    "\u2581output": 3046,
    "\u2581outputdebug": 3047,
    "\u2581lock": 3048,
    "\u25810x4730": 3049,
    "destroy": 3050,
    "\u2581type": 3051,
    "ssp": 3052,
    "\u2581accessviolation": 3053,
    "\u25810x7ec8": 3054,
    "c8c": 3055,
    "\u25810x7ec9": 3056,
    "ore": 3057,
    "\u25810x4528": 3058,
    "ogram": 3059,
    "\u25810x7300": 3060,
    "izn": 3061,
    "iznadm": 3062,
    "\u2581triznadm": 3063,
    "\u2581new": 3064,
    "\u258174": 3065,
    "de8": 3066,
    "\u25810x1076": 3067,
    "\u25810x1211f10": 3068,
    "\u2581lstrcpynw": 3069,
    "\u2581kk": 3070,
    "ed000": 3071,
    "\u2581golfset": 3072,
    "special": 3073,
    "\u2581shgetspecial": 3074,
    "\u25810x43b6": 3075,
    "\u25810x7900": 3076,
    "querysystem": 3077,
    "querysysteminformation": 3078,
    "\u25810x7edc": 3079,
    "\u25810xa3": 3080,
    "alette": 3081,
    "gi": 3082,
    "\u25810x7ecc": 3083,
    "\u25810x7ecd": 3084,
    "\u25810x4189": 3085,
    "\u25810x5c": 3086,
    "instruction": 3087,
    "\u25810x42b190": 3088,
    "\u25810x42eace": 3089,
    "a44": 3090,
    "\u2581em": 3091,
    "\u25810x41e1": 3092,
    "\u25810x7ed1": 3093,
    "\u25810x52666": 3094,
    "riv": 3095,
    "wind": 3096,
    "\u25810x4418": 3097,
    "the": 3098,
    "008": 3099,
    "de4": 3100,
    "\u25810x8c70": 3101,
    "\u25815": 3102,
    "\u25810x65": 3103,
    "\u25810x8001": 3104,
    "\u25810x210": 3105,
    "\u2581rtlun": 3106,
    "004": 3107,
    "\u2581rtlunwind": 3108,
    "\u25810x8280": 3109,
    "c8000": 3110,
    "11000": 3111,
    "\u2581openmutexa": 3112,
    "\u25810x8c60": 3113,
    "\u2581mar": 3114,
    "\u2581fe": 3115,
    "\u25810x81": 3116,
    "76f7": 3117,
    "\u25810x7ed4": 3118,
    "\u25810x7ed5": 3119,
    "\u2581exception": 3120,
    "ce000": 3121,
    "\u2581sat": 3122,
    "echeck": 3123,
    "\u25810x7ed8": 3124,
    "\u25810x7ed9": 3125,
    "\u25810x47a0": 3126,
    "\u25810x41e": 3127,
    "\u25810x56bb00": 3128,
    "\u2581ntquerysysteminformation": 3129,
    "\u25810x7f03": 3130,
    "\u25810x7edd": 3131,
    "irec": 3132,
    "dc000": 3133,
    "\u25810x8aa0": 3134,
    "be0": 3135,
    "fc000": 3136,
    "irector": 3137,
    "e8000": 3138,
    "\u25810xaa": 3139,
    "de000": 3140,
    "\u25810x80e0": 3141,
    "\u25810x12112f8": 3142,
    "\u25810x7e89": 3143,
    "\u25810x9010": 3144,
    "\u25810x1f0001": 3145,
    "14000": 3146,
    "\u25810x7e88": 3147,
    "26b2": 3148,
    "ec000": 3149,
    "\u2581getwindow": 3150,
    "\u2581outof": 3151,
    "\u25810x1210ec": 3152,
    "18000": 3153,
    "\u2581shellexecutew": 3154,
    "740": 3155,
    "e2c": 3156,
    "\u2581getsecurityinfo": 3157,
    "\u25810x48400": 3158,
    "\u25810x1211d14": 3159,
    "ff000": 3160,
    "\u25810x8c90": 3161,
    "inac": 3162,
    "f4000": 3163,
    "\u25810x7ee4": 3164,
    "triesinac": 3165,
    "\u2581setentriesinac": 3166,
    "ee000": 3167,
    "\u25810x404": 3168,
    "\u25810x7ee5": 3169,
    "\u25810x4228": 3170,
    "\u25810x5638": 3171,
    "with": 3172,
    "1c000": 3173,
    "\u25810x7ee1": 3174,
    "656c": 3175,
    "failed": 3176,
    "\u25810x3f22": 3177,
    "\u25810x100000": 3178,
    "a10": 3179,
    "\u2581ntun": 3180,
    "\u25810x8ab0": 3181,
    "\u2581ntunmapviewofsection": 3182,
    "\u2581setentriesinacla": 3183,
    "\u25810xffe1": 3184,
    "derw": 3185,
    "found": 3186,
    "\u2581ntmapviewofsection": 3187,
    "488": 3188,
    "todos": 3189,
    "\u2581setsecurityinfo": 3190,
    "3b5": 3191,
    "\u2581rtlnt": 3192,
    "todoserror": 3193,
    "\u2581rtlntstatus": 3194,
    "\u2581rtlntstatustodoserror": 3195,
    "b7b": 3196,
    "\u25810xffe0": 3197,
    "\u2581feb": 3198,
    "\u25810x1009": 3199,
    "\u25810xffe4": 3200,
    "\u25810xca0000": 3201,
    "\u25810x77001000": 3202,
    "\u25810x77002000": 3203,
    "\u25810x77003000": 3204,
    "\u25810x77004000": 3205,
    "\u25810x77005000": 3206,
    "\u25810x77006000": 3207,
    "\u25810x77007000": 3208,
    "\u25810x77008000": 3209,
    "\u25810x77009000": 3210,
    "\u25810x7700a000": 3211,
    "\u25810x7700b000": 3212,
    "\u25810x7700c000": 3213,
    "\u25810x7700d000": 3214,
    "\u25810x7700e000": 3215,
    "\u25810x7700f000": 3216,
    "\u25810x77010000": 3217,
    "\u25810x77011000": 3218,
    "\u25810x77012000": 3219,
    "\u25810x77013000": 3220,
    "\u25810x77014000": 3221,
    "\u25810x77015000": 3222,
    "\u25810x77016000": 3223,
    "\u25810x77017000": 3224,
    "\u25810x77018000": 3225,
    "\u25810x77019000": 3226,
    "\u25810x7701a000": 3227,
    "\u25810x7701b000": 3228,
    "\u25810x7701c000": 3229,
    "\u25810x7701d000": 3230,
    "\u25810x7701e000": 3231,
    "\u25810x7701f000": 3232,
    "\u25810x77020000": 3233,
    "\u25810x77021000": 3234,
    "\u25810x77022000": 3235,
    "\u25810x77023000": 3236,
    "\u25810x77024000": 3237,
    "\u25810x77025000": 3238,
    "\u25810x77026000": 3239,
    "\u25810x77027000": 3240,
    "\u25810x77028000": 3241,
    "\u25810x77029000": 3242,
    "\u25810x7702a000": 3243,
    "\u25810x7702b000": 3244,
    "\u25810x7702c000": 3245,
    "\u25810x7702d000": 3246,
    "\u25810x7702e000": 3247,
    "\u25810x7702f000": 3248,
    "\u25810x77030000": 3249,
    "\u25810x77031000": 3250,
    "\u25810x77032000": 3251,
    "\u25810x77033000": 3252,
    "\u25810x77034000": 3253,
    "\u25810x77035000": 3254,
    "\u25810x77036000": 3255,
    "\u25810x77037000": 3256,
    "\u25810x77038000": 3257,
    "\u25810x77039000": 3258,
    "\u25810x7703a000": 3259,
    "\u25810x7703b000": 3260,
    "\u25810x7703c000": 3261,
    "\u25810x7703d000": 3262,
    "\u25810x7703e000": 3263,
    "\u25810x7703f000": 3264,
    "\u25810x77040000": 3265,
    "\u25810x77041000": 3266,
    "\u25810x77042000": 3267,
    "\u25810x77043000": 3268,
    "\u25810x77044000": 3269,
    "\u25810x77045000": 3270,
    "\u25810x77046000": 3271,
    "\u25810x77047000": 3272,
    "\u25810x77048000": 3273,
    "\u25810x77049000": 3274,
    "\u25810x7704a000": 3275,
    "\u25810x7704b000": 3276,
    "\u25810x7704c000": 3277,
    "\u25810x7704d000": 3278,
    "\u25810x7704e000": 3279,
    "\u25810x7704f000": 3280,
    "\u25810x77050000": 3281,
    "\u25810x77051000": 3282,
    "\u25810x77052000": 3283,
    "\u25810x77053000": 3284,
    "\u25810x77054000": 3285,
    "\u25810x77055000": 3286,
    "\u25810x77056000": 3287,
    "\u25810x77057000": 3288,
    "\u25810x77058000": 3289,
    "\u25810x77059000": 3290,
    "\u25810x7705a000": 3291,
    "\u25810x7705b000": 3292,
    "\u25810x7705c000": 3293,
    "\u25810x7705d000": 3294,
    "\u25810x7705e000": 3295,
    "\u25810x7705f000": 3296,
    "\u25810x77060000": 3297,
    "\u25810x77061000": 3298,
    "\u25810x77062000": 3299,
    "\u25810x77063000": 3300,
    "\u25810x77064000": 3301,
    "\u25810x77065000": 3302,
    "\u25810x77066000": 3303,
    "\u25810x77067000": 3304,
    "\u25810x77068000": 3305,
    "\u25810x77069000": 3306,
    "\u25810x7706a000": 3307,
    "\u25810x7706b000": 3308,
    "\u25810x7706c000": 3309,
    "\u25810x7706d000": 3310,
    "\u25810x7706e000": 3311,
    "\u25810x7706f000": 3312,
    "\u25810x77070000": 3313,
    "\u25810x77071000": 3314,
    "\u25810x77072000": 3315,
    "\u25810x77073000": 3316,
    "\u25810x77074000": 3317,
    "\u25810x77075000": 3318,
    "\u25810x77076000": 3319,
    "\u25810x77077000": 3320,
    "\u25810x77078000": 3321,
    "\u25810x77079000": 3322,
    "\u25810x7707a000": 3323,
    "\u25810x7707b000": 3324,
    "\u25810x7707c000": 3325,
    "\u25810x7707d000": 3326,
    "\u25810x7707e000": 3327,
    "\u25810x7707f000": 3328,
    "\u25810x77080000": 3329,
    "\u25810x77081000": 3330,
    "\u25810x77082000": 3331,
    "\u25810x77083000": 3332,
    "\u25810x77084000": 3333,
    "\u25810x77085000": 3334,
    "\u25810x77086000": 3335,
    "\u25810x77087000": 3336,
    "\u25810x77088000": 3337,
    "\u25810x77089000": 3338,
    "\u25810x7708a000": 3339,
    "\u25810x7708b000": 3340,
    "\u25810x7708c000": 3341,
    "\u25810x7708d000": 3342,
    "\u25810x7708e000": 3343,
    "\u25810x7708f000": 3344,
    "\u25810x77090000": 3345,
    "\u25810x77091000": 3346,
    "\u25810x77092000": 3347,
    "\u25810x77093000": 3348,
    "\u25810x77094000": 3349,
    "\u25810x77095000": 3350,
    "\u25810x77096000": 3351,
    "\u25810x77097000": 3352,
    "\u25810x77098000": 3353,
    "\u25810x77099000": 3354,
    "\u25810x7709a000": 3355,
    "\u25810x7709b000": 3356,
    "\u25810x7709c000": 3357,
    "\u25810x7709d000": 3358,
    "\u25810x7709e000": 3359,
    "\u25810x7709f000": 3360,
    "\u25810x770a0000": 3361,
    "\u25810x770a1000": 3362,
    "\u25810x770a2000": 3363,
    "\u25810x770a3000": 3364,
    "\u25810x770a4000": 3365,
    "\u25810x770a5000": 3366,
    "\u25810x770a6000": 3367,
    "\u25810x770a7000": 3368,
    "\u25810x770a8000": 3369,
    "\u25810x770a9000": 3370,
    "\u25810x770aa000": 3371,
    "\u25810x770ab000": 3372,
    "\u25810x770ac000": 3373,
    "\u25810x770ad000": 3374,
    "\u25810x770ae000": 3375,
    "\u25810x770af000": 3376,
    "\u25810x770b0000": 3377,
    "\u25810x770b1000": 3378,
    "\u25810x770b2000": 3379,
    "\u25810x770b3000": 3380,
    "\u25810x770b4000": 3381,
    "\u25810x770b5000": 3382,
    "\u25810x770b6000": 3383,
    "\u25810x770b7000": 3384,
    "\u25810x770b8000": 3385,
    "\u25810x770b9000": 3386,
    "\u25810x770ba000": 3387,
    "\u25810x770bb000": 3388,
    "\u25810x770bc000": 3389,
    "\u25810x770bd000": 3390,
    "\u25810x770be000": 3391,
    "\u25810x770bf000": 3392,
    "\u25810x770c0000": 3393,
    "\u25810x770c1000": 3394,
    "\u25810x770c2000": 3395,
    "\u25810x770c3000": 3396,
    "\u25810x770c4000": 3397,
    "\u25810x770c5000": 3398,
    "\u25810x770c6000": 3399,
    "\u25810x770c7000": 3400,
    "\u25810x770c8000": 3401,
    "\u25810x770c9000": 3402,
    "\u25810x770ca000": 3403,
    "\u25810x770cb000": 3404,
    "\u25810x770cc000": 3405,
    "\u25810x770cd000": 3406,
    "\u25810x770ce000": 3407,
    "\u25810x770cf000": 3408,
    "\u25810x770d0000": 3409,
    "\u25810x770d1000": 3410,
    "\u25810x770d2000": 3411,
    "\u25810x770d3000": 3412,
    "\u25810x770d4000": 3413,
    "\u25810x770d5000": 3414,
    "\u25810x770d6000": 3415,
    "\u25810x770d7000": 3416,
    "\u25810x770d8000": 3417,
    "\u25810x770d9000": 3418,
    "\u25810x770da000": 3419,
    "\u25810x770db000": 3420,
    "\u25810x770dc000": 3421,
    "\u25810x770dd000": 3422,
    "\u25810x770de000": 3423,
    "\u25810x770df000": 3424,
    "\u25810x770e0000": 3425,
    "\u25810x770e1000": 3426,
    "\u25810x770e2000": 3427,
    "\u25810x770e3000": 3428,
    "\u25810x770e4000": 3429,
    "\u25810x770e5000": 3430,
    "\u25810x770e6000": 3431,
    "\u25810x770e7000": 3432,
    "\u25810x770e8000": 3433,
    "\u25810x770e9000": 3434,
    "\u25810x770ea000": 3435,
    "\u25810x770eb000": 3436,
    "\u25810x770ec000": 3437,
    "\u25810x770ed000": 3438,
    "\u25810x770ee000": 3439,
    "\u25810x770ef000": 3440,
    "\u25810x770f0000": 3441,
    "\u25810x770f1000": 3442,
    "\u25810x770f2000": 3443,
    "\u25810x770f3000": 3444,
    "\u25810x770f4000": 3445,
    "\u25810x770f5000": 3446,
    "\u25810x770f6000": 3447,
    "\u25810x770f7000": 3448,
    "\u25810x770f8000": 3449,
    "\u25810x770f9000": 3450,
    "\u25810x770fa000": 3451,
    "\u25810x770fb000": 3452,
    "\u25810x770fc000": 3453,
    "\u25810x770fd000": 3454,
    "\u25810x770fe000": 3455,
    "\u25810x770ff000": 3456,
    "\u25810x77100000": 3457,
    "\u25810x77101000": 3458,
    "\u25810x77102000": 3459,
    "\u25810x77103000": 3460,
    "\u25810x77104000": 3461,
    "\u25810x77105000": 3462,
    "\u25810x77106000": 3463,
    "\u25810x77107000": 3464,
    "\u25810x77108000": 3465,
    "\u25810x77109000": 3466,
    "\u25810x7710a000": 3467,
    "\u25810x7710b000": 3468,
    "\u25810x7710c000": 3469,
    "\u25810x7710d000": 3470,
    "\u25810x7710e000": 3471,
    "\u25810x7710f000": 3472,
    "\u25810x77110000": 3473,
    "\u25810x77111000": 3474,
    "\u25810x77112000": 3475,
    "\u25810x77113000": 3476,
    "\u25810x77114000": 3477,
    "\u25810x77115000": 3478,
    "\u25810x77116000": 3479,
    "\u25810x77117000": 3480,
    "\u25810x77118000": 3481,
    "\u25810x77119000": 3482,
    "\u25810x7711a000": 3483,
    "\u25810x7711b000": 3484,
    "\u25810x7711c000": 3485,
    "\u25810x7711d000": 3486,
    "\u25810x7711e000": 3487,
    "\u25810x7711f000": 3488,
    "\u25810x77120000": 3489,
    "\u25810x77121000": 3490,
    "\u25810x77122000": 3491,
    "\u25810x77123000": 3492,
    "\u25810x77124000": 3493,
    "\u25810x77125000": 3494,
    "\u25810x77126000": 3495,
    "\u25810x77127000": 3496,
    "\u25810x77128000": 3497,
    "\u25810x77129000": 3498,
    "\u25810x7712a000": 3499,
    "\u25810x7712b000": 3500,
    "\u25810x7712c000": 3501,
    "\u25810x7712d000": 3502,
    "\u25810x7712e000": 3503,
    "\u25810x7712f000": 3504,
    "\u25810x77130000": 3505,
    "\u25810x77131000": 3506,
    "\u25810x77132000": 3507,
    "\u25810x77133000": 3508,
    "\u25810x77134000": 3509,
    "\u25810x77135000": 3510,
    "\u25810x77136000": 3511,
    "\u25810x77137000": 3512,
    "\u25810x77138000": 3513,
    "\u25810x77139000": 3514,
    "\u25810x7713a000": 3515,
    "\u25810x7713b000": 3516,
    "\u25810x7713c000": 3517,
    "\u25810x7713d000": 3518,
    "\u25810x7713e000": 3519,
    "\u25810x7713f000": 3520,
    "\u25810x77140000": 3521,
    "\u25810x77141000": 3522,
    "\u25810x77142000": 3523,
    "\u25810x77143000": 3524,
    "\u25810x77144000": 3525,
    "\u25810x77145000": 3526,
    "\u25810x77146000": 3527,
    "\u25810x77147000": 3528,
    "\u25810x77148000": 3529,
    "\u25810x77149000": 3530,
    "\u25810x7714a000": 3531,
    "\u25810x7714b000": 3532,
    "\u25810x7714c000": 3533,
    "\u25810x7714d000": 3534,
    "\u25810x7714e000": 3535,
    "\u25810x7714f000": 3536,
    "\u25810x77150000": 3537,
    "\u25810x77151000": 3538,
    "\u25810x77152000": 3539,
    "\u25810x77153000": 3540,
    "\u25810x77154000": 3541,
    "\u25810x77155000": 3542,
    "\u25810x77156000": 3543,
    "\u25810x77157000": 3544,
    "\u25810x77158000": 3545,
    "\u25810x77159000": 3546,
    "\u25810x7715a000": 3547,
    "\u25810x7715b000": 3548,
    "\u25810x7715c000": 3549,
    "\u25810x7715d000": 3550,
    "\u25810x7715e000": 3551,
    "\u25810x7715f000": 3552,
    "\u25810x77160000": 3553,
    "\u25810x77161000": 3554,
    "\u25810x77162000": 3555,
    "\u25810x77163000": 3556,
    "\u25810x77164000": 3557,
    "\u25810x77165000": 3558,
    "\u25810x77166000": 3559,
    "\u25810x77167000": 3560,
    "\u25810x77168000": 3561,
    "\u25810x77169000": 3562,
    "\u25810x7716a000": 3563,
    "\u25810x7716b000": 3564,
    "\u25810x7716c000": 3565,
    "\u25810x7716d000": 3566,
    "\u25810x7716e000": 3567,
    "\u25810x7716f000": 3568,
    "\u25810x77170000": 3569,
    "\u25810x77171000": 3570,
    "\u25810x77172000": 3571,
    "\u25810x77173000": 3572,
    "\u25810x77174000": 3573,
    "\u25810x77175000": 3574,
    "\u25810x77176000": 3575,
    "\u25810x77177000": 3576,
    "\u25810x77178000": 3577,
    "\u25810x77179000": 3578,
    "\u25810x7717a000": 3579,
    "\u25810x7717b000": 3580,
    "\u25810x7717c000": 3581,
    "\u25810x7717d000": 3582,
    "\u25810x7717e000": 3583,
    "\u25810x7717f000": 3584,
    "\u25810x77180000": 3585,
    "\u25810x77181000": 3586,
    "\u25810x77182000": 3587,
    "\u25810x77183000": 3588,
    "\u25810x77184000": 3589,
    "\u25810x77185000": 3590,
    "\u25810x77186000": 3591,
    "\u25810x77187000": 3592,
    "\u25810x77188000": 3593,
    "\u25810x77189000": 3594,
    "\u25810x7718a000": 3595,
    "\u25810x7718b000": 3596,
    "\u25810x7718c000": 3597,
    "\u25810x7718d000": 3598,
    "\u25810x7718e000": 3599,
    "\u25810x7718f000": 3600,
    "\u25810x77190000": 3601,
    "\u25810x77191000": 3602,
    "\u25810x77192000": 3603,
    "\u25810x77193000": 3604,
    "\u25810x77194000": 3605,
    "\u25810x77195000": 3606,
    "\u25810x77196000": 3607,
    "\u25810x77197000": 3608,
    "\u25810x77198000": 3609,
    "\u25810x77199000": 3610,
    "\u25810x7719a000": 3611,
    "\u25810x7719b000": 3612,
    "\u25810x7719c000": 3613,
    "\u25810x7719d000": 3614,
    "\u25810x7719e000": 3615,
    "\u25810x7719f000": 3616,
    "\u25810x771a0000": 3617,
    "\u25810x771a1000": 3618,
    "\u25810x771a2000": 3619,
    "\u25810x771a3000": 3620,
    "\u25810x771a4000": 3621,
    "\u25810x771a5000": 3622,
    "\u25810x771a6000": 3623,
    "\u2581physicalmemory": 3624,
    "gument": 3625,
    "\u25810x771a7000": 3626,
    "\u25810x771a8000": 3627,
    "\u25810x771a9000": 3628,
    "\u25810x771aa000": 3629,
    "\u25810x771ab000": 3630,
    "\u25810x771ac000": 3631,
    "\u25810x771ad000": 3632,
    "\u25810x771ae000": 3633,
    "\u25810x771af000": 3634,
    "\u25810x771b0000": 3635,
    "\u25810x771b1000": 3636,
    "\u25810x771b2000": 3637,
    "\u25810x771b3000": 3638,
    "\u25810x771b4000": 3639,
    "\u25810x771b5000": 3640,
    "\u25810x771b6000": 3641,
    "\u25810x771b7000": 3642,
    "\u25810x771b8000": 3643,
    "\u25810x771b9000": 3644,
    "\u25810x771ba000": 3645,
    "\u25810x771bb000": 3646,
    "\u25810x771bc000": 3647,
    "\u25810x771bd000": 3648,
    "\u25810x771be000": 3649,
    "\u25810x771bf000": 3650,
    "\u25810x771c0000": 3651,
    "\u25810x771c1000": 3652,
    "\u25810x771c2000": 3653,
    "\u25810x771c3000": 3654,
    "\u25810x771c4000": 3655,
    "\u25810x771c5000": 3656,
    "\u25810x771c6000": 3657,
    "\u25810x415": 3658,
    "\u25810xfffe": 3659,
    "bas": 3660,
    "barcad": 3661,
    "barcadero": 3662,
    "\u2581embarcadero": 3663,
    "\u25810x11000": 3664,
    "\u25810x1211e34": 3665,
    "cor": 3666,
    "e54": 3667,
    "97a6": 3668,
    "ccess": 3669,
    "\u25810x4340": 3670,
    "\u25810x1211a00": 3671,
    "646d73": 3672,
    "656c73": 3673,
    "\u258174726": 3674,
    "\u2581776f7": 3675,
    "26b2e68": 3676,
    "97a6e61": 3677,
    "argument": 3678,
    "26b2e68656c73": 3679,
    "97a6e61646d73": 3680,
    "\u25817472697a6e61646d73": 3681,
    "\u2581776f726b2e68656c73": 3682,
    "\u25817472697a6e61646d73696e6b692e6669": 3683,
    "\u2581776f726b2e68656c73696e6b692e6669": 3684,
    "\u25810x8c30": 3685,
    "ied": 3686,
    "\u2581septem": 3687,
    "\u25810x1005": 3688,
    "\u25810x43640": 3689,
    "b48": 3690,
    "\u25810x8d20": 3691,
    "\u25810x41d": 3692,
    "eexa": 3693,
    "\u2581v": 3694,
    "creating": 3695,
    "tionfailed": 3696,
    "une": 3697,
    "once": 3698,
    "\u25810x8bd0": 3699,
    "\u25810x42f": 3700,
    "index": 3701,
    "\u2581lstrcmpa": 3702,
    "\u2581febr": 3703,
    "irectory": 3704,
    "\u25810x1211a14": 3705,
    "sser": 3706,
    "ged": 3707,
    "\u25810x3410c60": 3708,
    "ober": 3709,
    "\u25810xffba": 3710,
    "\u2581april": 3711,
    "\u25810xffb7": 3712,
    "\u2581august": 3713,
    "\u2581november": 3714,
    "\u2581september": 3715,
    "be8": 3716,
    "\u2581sta": 3717,
    "\u25810x8ba0": 3718,
    "\u25810x8c10": 3719,
    "\u25810xffbb": 3720,
    "\u25810xffbe": 3721,
    "\u2581div": 3722,
    "\u25810x41a0": 3723,
    "\u25810xffb8": 3724,
    "\u25810xffbd": 3725,
    "\u25816": 3726,
    "\u25810xffb9": 3727,
    "\u25810xffbc": 3728,
    "\u25810xfffd": 3729,
    "bound": 3730,
    "\u25810xffbf": 3731,
    "\u2581outofmemory": 3732,
    "\u25810xfffc": 3733,
    "\u25810x40b8": 3734,
    "infoa": 3735,
    "\u25810x4318": 3736,
    "anuary": 3737,
    "\u2581march": 3738,
    "\u25810x84b0": 3739,
    "\u2581february": 3740,
    "tur": 3741,
    "uly": 3742,
    "\u2581december": 3743,
    "\u25810x7d98": 3744,
    "\u25810xffb6": 3745,
    "\u25810x52664": 3746,
    "\u2581october": 3747,
    "\u258111": 3748,
    "nesday": 3749,
    "\u25810x508": 3750,
    "\u25810xffa0": 3751,
    "\u2581monday": 3752,
    "\u2581sunday": 3753,
    "\u2581tuesday": 3754,
    "\u2581wednesday": 3755,
    "\u2581thu": 3756,
    "ond": 3757,
    "ursday": 3758,
    "\u25810x7270": 3759,
    "\u2581thursday": 3760,
    "\u2581fri": 3761,
    "\u25810xffa2": 3762,
    "iday": 3763,
    "\u25810xad": 3764,
    "turday": 3765,
    "\u25810xffa1": 3766,
    "\u2581friday": 3767,
    "\u2581saturday": 3768,
    "108": 3769,
    "a41": 3770,
    "\u25810x8310": 3771,
    "\u25810x7d99": 3772,
    "\u25810xffa3": 3773,
    "\u2581setfileinformationbyhandlew": 3774,
    "\u2581getfileinformationbyhandleexw": 3775,
    "\u25810xffa4": 3776,
    "exception": 3777,
    "ecall": 3778,
    "\u25810x8ca0": 3779,
    "licen": 3780,
    "\u25810xffa7": 3781,
    "207": 3782,
    "\u25810xfffb": 3783,
    "\u25810x42b40": 3784,
    "\u25810xffa5": 3785,
    "\u25810xffa6": 3786,
    "\u2581createpalette": 3787,
    "facen": 3788,
    "\u25810x8cd0": 3789,
    "\u2581interfacen": 3790,
    "\u25810x12110": 3791,
    "\u2581the": 3792,
    "\u25810x8bb0": 3793,
    "den": 3794,
    "\u25810x8be0": 3795,
    "\u25810x8c40": 3796,
    "\u2581asser": 3797,
    "\u2581inte": 3798,
    "\u25810xffb5": 3799,
    "\u25810xffcd": 3800,
    "safecall": 3801,
    "aff": 3802,
    "\u25810x46b4": 3803,
    "\u2581issp": 3804,
    "\u2581isspace": 3805,
    "\u2581external": 3806,
    "\u2581sn": 3807,
    "\u2581stack": 3808,
    "\u25810x8c00": 3809,
    "\u25810x4394": 3810,
    "\u25810xffa8": 3811,
    "\u25810xffa9": 3812,
    "\u2581privile": 3813,
    "\u25810x40e": 3814,
    "\u25810x78d0": 3815,
    "setinformation": 3816,
    "\u2581getwindowsdirectorya": 3817,
    "\u25810x491": 3818,
    "\u25810xcf0000": 3819,
    "insafecall": 3820,
    "\u2581exceptioninsafecall": 3821,
    "\u2581fmode": 3822,
    "calls": 3823,
    "\u2581disk": 3824,
    "changet": 3825,
    "\u2581variantchanget": 3826,
    "sub": 3827,
    "\u25810xffaa": 3828,
    "firstw": 3829,
    "ecast": 3830,
    "\u25810xffe6": 3831,
    "\u25810xfffa": 3832,
    "\u25810x8820": 3833,
    "denied": 3834,
    "\u25810xffb4": 3835,
    "\u2581assertionfailed": 3836,
    "bounds": 3837,
    "\u25810x1210e0": 3838,
    "\u2581privileged": 3839,
    "\u2581chit": 3840,
    "\u2581rang": 3841,
    "otsuped": 3842,
    "\u25810x7da0": 3843,
    "classtyp": 3844,
    "indexout": 3845,
    "notsuped": 3846,
    "\u2581rangecheck": 3847,
    "classtypecast": 3848,
    "\u2581floatingpoint": 3849,
    "\u2581externalexception": 3850,
    "\u2581interfacenotsuped": 3851,
    "tunder": 3852,
    "ofbounds": 3853,
    "overflow": 3854,
    "tunderflow": 3855,
    "callsnotsuped": 3856,
    "\u2581loadresource": 3857,
    "\u2581errorcreating": 3858,
    "indexoutofbounds": 3859,
    "pointeroperation": 3860,
    "\u2581invalidclasstypecast": 3861,
    "\u2581variantcallsnotsuped": 3862,
    "\u2581floatingpointunderflow": 3863,
    "mod": 3864,
    "\u2581integ": 3865,
    "typecon": 3866,
    "\u25810x4a20": 3867,
    "leaccess": 3868,
    "toverflow": 3869,
    "divisionbyzero": 3870,
    "typeconversion": 3871,
    "\u2581stackoverflow": 3872,
    "\u2581floatingpointoverflow": 3873,
    "\u2581privilegedinstruction": 3874,
    "\u2581invalidvariantoperation": 3875,
    "\u2581floatingpointdivisionbyzero": 3876,
    "\u2581invalidvarianttypeconversion": 3877,
    "c88": 3878,
    "floating": 3879,
    "\u2581integero": 3880,
    "floatingpoint": 3881,
    "\u2581divisionbyzero": 3882,
    "\u2581integeroverflow": 3883,
    "\u2581rangecheckerror": 3884,
    "\u2581invalidfloatingpoint": 3885,
    "\u2581invalidpointeroperation": 3886,
    "\u2581invalidfloatingpointoperation": 3887,
    "bey": 3888,
    "\u2581tmp": 3889,
    "omany": 3890,
    "beyond": 3891,
    "numeric": 3892,
    "\u2581toomany": 3893,
    "openfiles": 3894,
    "\u2581diskfull": 3895,
    "\u2581readbeyond": 3896,
    "numericinput": 3897,
    "\u2581invalidfilename": 3898,
    "\u2581toomanyopenfiles": 3899,
    "\u2581invalidnumericinput": 3900,
    "\u2581readbeyondendoffile": 3901,
    "\u2581fileaccess": 3902,
    "\u2581fileaccessdenied": 3903,
    "\u25810x7060": 3904,
    "\u2581registerwindowmessagew": 3905,
    "\u25810x434": 3906,
    "\u25810xffce": 3907,
    "\u25810x1210f4": 3908,
    "\u2581lstrcpyna": 3909,
    "bool": 3910,
    "\u25810x7390": 3911,
    "f0c": 3912,
    "\u25810x71b0": 3913,
    "\u2581varbstrfrombool": 3914,
    "\u2581of": 3915,
    "\u25810x417d": 3916,
    "330": 3917,
    "afdi": 3918,
    "\u2581wsafdi": 3919,
    "\u25810x40a3d": 3920,
    "\u2581wsafdisset": 3921,
    "e2b": 3922,
    "\u25810x7870": 3923,
    "\u25810x5265c28": 3924,
    "ypeex": 3925,
    "\u2581variantchangetypeex": 3926,
    "neg": 3927,
    "\u25810xffe5": 3928,
    "\u2581heapsetinformation": 3929,
    "\u25810xffcf": 3930,
    "\u25810x4299": 3931,
    "\u25810x7d9c": 3932,
    "\u25810x100300": 3933,
    "no": 3934,
    "d88": 3935,
    "oem": 3936,
    "\u2581varadd": 3937,
    "\u2581varneg": 3938,
    "\u2581varnot": 3939,
    "\u2581varsub": 3940,
    "mul": 3941,
    "xor": 3942,
    "idiv": 3943,
    "\u2581varcy": 3944,
    "\u2581varor": 3945,
    "\u2581varr8": 3946,
    "\u25810x7d9d": 3947,
    "\u2581varand": 3948,
    "\u2581varcmp": 3949,
    "\u2581vardiv": 3950,
    "\u2581varmod": 3951,
    "\u2581varmul": 3952,
    "\u2581varxor": 3953,
    "\u2581varbool": 3954,
    "\u2581vardate": 3955,
    "\u2581varidiv": 3956,
    "\u2581varcyfromstr": 3957,
    "\u2581vari4fromstr": 3958,
    "\u2581varr4fromstr": 3959,
    "\u2581varr8fromstr": 3960,
    "\u2581varbstrfromcy": 3961,
    "\u2581varboolfromstr": 3962,
    "\u2581vardatefromstr": 3963,
    "\u2581varbstrfromdate": 3964,
    "\u25810x88e0": 3965,
    "\u25810x42ea": 3966,
    "\u25810x8d60": 3967,
    "\u25810x3e8": 3968,
    "\u25810x202": 3969,
    "\u2581getclass": 3970,
    "\u25810x42a": 3971,
    "\u25810x7da1": 3972,
    "ok": 3973,
    "\u25810x714": 3974,
    "\u25810x431d": 3975,
    "folderw": 3976,
    "a18": 3977,
    "ab8": 3978,
    "windowexw": 3979,
    "\u2581createwindowexw": 3980,
    "fff0": 3981,
    "\u25810xffb0": 3982,
    "\u25810xfff9": 3983,
    "\u25810x3f4000": 3984,
    "\u25810x4615": 3985,
    "\u25810x46b5": 3986,
    "\u25810xffb3": 3987,
    "\u25810x120e69": 3988,
    "edex": 3989,
    "edexchange": 3990,
    "\u2581interlockedexchange": 3991,
    "\u25810xffb2": 3992,
    "\u25810x42332": 3993,
    "accel": 3994,
    "cef": 3995,
    "\u2581process32firstw": 3996,
    "ac4": 3997,
    "\u25810x7dc8": 3998,
    "b5c": 3999,
    "\u25810x421": 4000,
    "\u25810xffb1": 4001,
    "\u2581setthreadpreferreduilanguages": 4002,
    "lication": 4003,
    "504": 4004,
    "\u25810x7da4": 4005,
    "\u25810x42990": 4006,
    "74c": 4007,
    "\u25810x1211f74": 4008,
    "ac8": 4009,
    "\u2581snap": 4010,
    "\u25810x13fff0": 4011,
    "\u2581invalidargument": 4012,
    "32cs": 4013,
    "\u2581th32cs": 4014,
    "variantorsafearray": 4015,
    "\u2581variantorsafearray": 4016,
    "\u2581errorcreatingvariantorsafearray": 4017,
    "\u2581variantorsafearrayindexoutofbounds": 4018,
    "\u25810x1211ed4": 4019,
    "\u25810x51af": 4020,
    "\u25810x8819": 4021,
    "validate": 4022,
    "\u25810x8818": 4023,
    "\u25810x1211c08": 4024,
    "\u25810x42e0f0": 4025,
    "\u2581heapvalidate": 4026,
    "\u25810x4df0": 4027,
    "\u2581getoem": 4028,
    "b60": 4029,
    "\u2581getoemcp": 4030,
    "\u25810x1211ec8": 4031,
    "ad4": 4032,
    "\u25810x881c": 4033,
    "\u25810x881d": 4034,
    "\u25810xfff8": 4035,
    "\u25810x7da5": 4036,
    "\u25810x8821": 4037,
    "accelerator": 4038,
    "\u25810x437880": 4039,
    "d3c": 4040,
    "e10": 4041,
    "\u25810x4300": 4042,
    "\u2581getsyscolorbrush": 4043,
    "ee4": 4044,
    "\u25810xfff7": 4045,
    "\u25810x52665": 4046,
    "\u25810x1211690": 4047,
    "\u25810x7b10": 4048,
    "\u25810x7b40": 4049,
    "a84": 4050,
    "\u25810x8d50": 4051,
    "\u25810xb000": 4052,
    "\u25810x1211f78": 4053,
    "search": 4054,
    "searchmode": 4055,
    "\u2581setsearchmode": 4056,
    "b63": 4057,
    "\u2581findresourcew": 4058,
    "\u25810x7990": 4059,
    "\u2581ofresource": 4060,
    "b44": 4061,
    "f88": 4062,
    "\u25810xac": 4063,
    "\u25810x8d30": 4064,
    "\u25810x431e": 4065,
    "\u25810x79c0": 4066,
    "\u2581outputdebugstringa": 4067,
    "\u2581localfree": 4068,
    "\u25810x7db4": 4069,
    "\u25810x7030": 4070,
    "\u25810x75d0": 4071,
    "\u25810x437808": 4072,
    "\u25810x7db5": 4073,
    "\u25810x40f9": 4074,
    "\u25810x120e6d8": 4075,
    "\u25810x6f": 4076,
    "\u25810x51c": 4077,
    "\u25810x53000000": 4078,
    "\u2581rand": 4079,
    "\u2581flushfile": 4080,
    "\u2581flushfilebuffers": 4081,
    "ae3": 4082,
    "\u25810xfeed": 4083,
    "\u25810x4187": 4084,
    "\u25810x7da8": 4085,
    "\u25810x8090": 4086,
    "\u2581setprocess": 4087,
    "\u25810x42e6": 4088,
    "\u25810x3f3": 4089,
    "\u2581lockresource": 4090,
    "7e0": 4091,
    "\u25810x7ae0": 4092,
    "\u25810x7a50": 4093,
    "a48": 4094,
    "\u25810x71e0": 4095,
    "\u25810x1b2": 4096,
    "dep": 4097,
    "yarg1": 4098,
    "\u25810x7750": 4099,
    "\u25810x3f5000": 4100,
    "\u25810x71a0": 4101,
    "\u25810x7da9": 4102,
    "\u25810x4338": 4103,
    "\u25810x74e0": 4104,
    "\u25810x7cf0": 4105,
    "\u25810xfff6": 4106,
    "\u25810x4306": 4107,
    "\u25810xc0": 4108,
    "3c0": 4109,
    "904": 4110,
    "\u25810x3f31": 4111,
    "\u2581messageboxa": 4112,
    "\u25810x563868": 4113,
    "\u25810x8260": 4114,
    "drl6660drl6660drl6660drl6660drl6660drl6660drl6660drl6660": 4115,
    "bb8": 4116,
    "\u25810x72d0": 4117,
    "\u25810x1211e30": 4118,
    "\u2581move": 4119,
    "\u25810x7210": 4120,
    "\u25810x1211f18": 4121,
    "ff0": 4122,
    "608": 4123,
    "\u25810x7240": 4124,
    "\u25810x48f894": 4125,
    "\u25810x40f937": 4126,
    "\u2581snapprocess": 4127,
    "\u25810x7600": 4128,
    "\u25810x437806": 4129,
    "\u25810x43780a": 4130,
    "\u25810x43780c": 4131,
    "\u25810x43780e": 4132,
    "\u25810x437810": 4133,
    "\u25810x437812": 4134,
    "\u25810x437814": 4135,
    "\u25810x437816": 4136,
    "\u25810x437818": 4137,
    "\u25810x43781a": 4138,
    "\u25810x43781c": 4139,
    "\u25810x43781e": 4140,
    "\u2581vc": 4141,
    "\u25810x66": 4142,
    "\u25810x20a": 4143,
    "\u25810x7a20": 4144,
    "tec": 4145,
    "\u25810x75a0": 4146,
    "\u25810x5265e": 4147,
    "\u25810x4f62": 4148,
    "\u25810x7660": 4149,
    "\u25810x5265f": 4150,
    "\u25810x7180": 4151,
    "\u25810x7a10": 4152,
    "\u25810x7330": 4153,
    "\u25810x7720": 4154,
    "\u25810x70c0": 4155,
    "\u25810x41bcb0": 4156,
    "\u25810x41bce0": 4157,
    "hash": 4158,
    "\u25810x40c": 4159,
    "\u25810x7480": 4160,
    "\u25810x7570": 4161,
    "\u25810x7ba0": 4162,
    "\u25810x7120": 4163,
    "\u25810x7840": 4164,
    "\u25810xffd3": 4165,
    "\u25810x76c0": 4166,
    "\u25810x76f0": 4167,
    "licy": 4168,
    "\u2581string": 4169,
    "policy": 4170,
    "\u25810x7360": 4171,
    "\u25810x4169": 4172,
    "\u25810x74b0": 4173,
    "\u25810x7510": 4174,
    "profile": 4175,
    "\u25810x77b0": 4176,
    "bf0": 4177,
    "\u25810x7960": 4178,
    "\u2581acquiresrwlockexclusive": 4179,
    "\u25810x7420": 4180,
    "\u25810x7df4": 4181,
    "runtime": 4182,
    "\u25810x70f0": 4183,
    "\u25810x4e80": 4184,
    "\u25810x7450": 4185,
    "win": 4186,
    "\u25810x73c0": 4187,
    "\u25810xffc6": 4188,
    "ccc": 4189,
    "\u25810x46a0": 4190,
    "\u25810x7df5": 4191,
    "\u25810x4c3": 4192,
    "\u25810x598": 4193,
    "\u25810x7630": 4194,
    "deppolicy": 4195,
    "forma": 4196,
    "\u25810x1210e4": 4197,
    "\u25810x1211f40": 4198,
    "\u2581shgetspecialfolderw": 4199,
    "264": 4200,
    "3d8": 4201,
    "\u2581loadlibraryexa": 4202,
    "\u25810xfeee0108": 4203,
    "\u25810x4090": 4204,
    "\u25810x28c": 4205,
    "\u25810x7780": 4206,
    "\u2581setprocessdeppolicy": 4207,
    "\u25810x1210f0": 4208,
    "\u2581net": 4209,
    "\u25810x7b70": 4210,
    "398": 4211,
    "xit": 4212,
    "afile": 4213,
    "\u25810x7af0": 4214,
    "\u2581heapdestroy": 4215,
    "\u25810x46b5d4": 4216,
    "ols": 4217,
    "\u2581setst": 4218,
    "\u25810x8830": 4219,
    "\u25810x7dac": 4220,
    "\u25810x7dad": 4221,
    "\u2581setstdhandle": 4222,
    "want": 4223,
    "b30": 4224,
    "\u25810x1211dd0": 4225,
    "\u25810x4c51": 4226,
    "98c": 4227,
    "a30": 4228,
    "\u25810x94c0": 4229,
    "\u25810x7340": 4230,
    "runtime140": 4231,
    "\u2581vcruntime140": 4232,
    "\u2581program": 4233,
    "\u25810xffc5": 4234,
    "ved": 4235,
    "licence": 4236,
    "\u25810xfff5": 4237,
    "\u25810xb5": 4238,
    "\u25810x9d": 4239,
    "\u25810x42fb": 4240,
    "\u25810x7db1": 4241,
    "\u2581createsemaphore": 4242,
    "\u25810x140": 4243,
    "\u2581openprocess": 4244,
    "\u25819": 4245,
    "808": 4246,
    "\u25810xffab": 4247,
    "yarg2": 4248,
    "\u25810x490": 4249,
    "\u25810x44d4": 4250,
    "\u25810xbc": 4251,
    "\u25810x7ee9": 4252,
    "ec8": 4253,
    "\u25810xf0": 4254,
    "\u2581comparestringw": 4255,
    "00210": 4256,
    "358": 4257,
    "\u25810x416b": 4258,
    "\u25810xffac": 4259,
    "\u2581getkeyboardtype": 4260,
    "a0f": 4261,
    "\u25810x79a0": 4262,
    "\u25810x343b5": 4263,
    "\u25810x1211bd0": 4264,
    "d4c": 4265,
    "\u25810x181c": 4266,
    "\u25810x3f30b0": 4267,
    "\u25810x51c4": 4268,
    "\u25810x3f30e0": 4269,
    "contr": 4270,
    "\u25810xffcc": 4271,
    "\u25810x41b9": 4272,
    "\u258117": 4273,
    "\u25810x3f3030": 4274,
    "cid": 4275,
    "e24": 4276,
    "\u25810x3f3110": 4277,
    "\u25810x3f3140": 4278,
    "ly": 4279,
    "\u25810x422e": 4280,
    "184": 4281,
    "a9c": 4282,
    "\u25810x7ef0": 4283,
    "\u25810x416c": 4284,
    "\u25810x97b0": 4285,
    "\u25810x99d0": 4286,
    "\u25810x1210f6": 4287,
    "a5c": 4288,
    "\u2581regquery": 4289,
    "meto": 4290,
    "\u2581vers": 4291,
    "3a8": 4292,
    "b8c": 4293,
    "\u25810x7ee8": 4294,
    "\u2581are": 4295,
    "imeto": 4296,
    "\u25810x431": 4297,
    "\u25810xffd0": 4298,
    "544": 4299,
    "gine": 4300,
    "\u25810x80c4": 4301,
    "\u25810x4c4230": 4302,
    "100": 4303,
    "\u25810x42a730": 4304,
    "\u25810x42a731": 4305,
    "\u25810x4c4248": 4306,
    "\u25810x4c4260": 4307,
    "\u25810x4c4278": 4308,
    "\u25810x4c4290": 4309,
    "\u25810x4c42a8": 4310,
    "\u25810x4c4320": 4311,
    "\u25810x4c4338": 4312,
    "\u25810x4c4350": 4313,
    "\u25810x4c4368": 4314,
    "\u25810x4960": 4315,
    "\u25810x180": 4316,
    "\u25810x40a582": 4317,
    "\u25810x40a584": 4318,
    "\u25810x40a586": 4319,
    "\u25810x40a588": 4320,
    "\u25810x12118f8": 4321,
    "984": 4322,
    "\u25810x40a58a": 4323,
    "484": 4324,
    "\u25810x40a580": 4325,
    "\u25810x40a57e": 4326,
    "\u25810x429a81": 4327,
    "\u2581verset": 4328,
    "conditionmask": 4329,
    "\u2581versetconditionmask": 4330,
    "\u25810x406": 4331,
    "ream": 4332,
    "\u25810x434d": 4333,
    "\u2581corexit": 4334,
    "\u2581corexitprocess": 4335,
    "\u25810x41624": 4336,
    "unction": 4337,
    "\u25810x437ae4": 4338,
    "\u25810x437207": 4339,
    "\u25810x437208": 4340,
    "\u25810x437ad2": 4341,
    "\u25810x437ad3": 4342,
    "\u25810x437ae3": 4343,
    "\u25810x437b63": 4344,
    "\u25810x437b64": 4345,
    "\u25810x437b7b": 4346,
    "\u25810x437b7c": 4347,
    "\u25810x437bbd": 4348,
    "\u25810x437bbe": 4349,
    "\u25810x437bce": 4350,
    "\u25810x437bcf": 4351,
    "\u25810x437c42": 4352,
    "\u25810x437c43": 4353,
    "\u2581loadaccelerator": 4354,
    "\u25810x1210e5": 4355,
    "684": 4356,
    "\u25810x3f6000": 4357,
    "758": 4358,
    "\u25810x4c5158": 4359,
    "\u25810x429e2b": 4360,
    "\u25810x429e2c": 4361,
    "\u25810x434d1c": 4362,
    "\u25810x43b7a9": 4363,
    "\u25810x43b7aa": 4364,
    "\u25810x43b7b8": 4365,
    "\u25810x422ebe": 4366,
    "\u25810x43b7b3": 4367,
    "\u25810x43b7b4": 4368,
    "\u25810x43b7ba": 4369,
    "\u25810x43b7c4": 4370,
    "\u25810xa9b0": 4371,
    "\u25810x1210ed": 4372,
    "\u2581releases": 4373,
    "\u2581run": 4374,
    "\u25810x8824": 4375,
    "\u25810x1210ee": 4376,
    "\u25810x1210f5": 4377,
    "\u25810x433618": 4378,
    "409": 4379,
    "ernet": 4380,
    "\u25810x419d50": 4381,
    "160": 4382,
    "\u25810x8825": 4383,
    "metafile": 4384,
    "\u25810x1211f70": 4385,
    "\u25810x8828": 4386,
    "\u25810x3f7000": 4387,
    "e8c": 4388,
    "\u25810x1210f9": 4389,
    "\u25810x3fb000": 4390,
    "\u25810x42b020": 4391,
    "\u25810x409020": 4392,
    "\u25810x419e00": 4393,
    "\u25810x431d00": 4394,
    "\u25810x41c0": 4395,
    "\u25810x419f40": 4396,
    "\u25810x42a070": 4397,
    "\u25810x42b024": 4398,
    "\u25810x42b028": 4399,
    "\u25810x3f8000": 4400,
    "pi": 4401,
    "\u25810x3f75f60": 4402,
    "d44": 4403,
    "f50": 4404,
    "\u25810x4315b0": 4405,
    "378": 4406,
    "delet": 4407,
    "\u25810x7230": 4408,
    "\u25810x3fa000": 4409,
    "\u25810x480": 4410,
    "\u25810x3f9000": 4411,
    "\u25810x8829": 4412,
    "\u25810x882c": 4413,
    "\u2581memcpy": 4414,
    "\u25810x4967a8": 4415,
    "dc0": 4416,
    "\u2581wri": 4417,
    "\u25810x8834": 4418,
    "\u25810x882d": 4419,
    "ffc": 4420,
    "\u25810x488": 4421,
    "\u2581writec": 4422,
    "\u25810xb0": 4423,
    "\u25810x7db9": 4424,
    "204": 4425,
    "\u25810x8831": 4426,
    "\u25810x7db8": 4427,
    "\u2581findfirstfilea": 4428,
    "\u25810x8835": 4429,
    "\u25810x1211968": 4430,
    "f84": 4431,
    "\u25810x4de": 4432,
    "\u25810x4700": 4433,
    "556": 4434,
    "\u25810x509": 4435,
    "260": 4436,
    "301": 4437,
    "\u25810x7070": 4438,
    "\u25810x70a8": 4439,
    "\u25810xffd2": 4440,
    "\u2581di": 4441,
    "\u25810x3f20": 4442,
    "718": 4443,
    "\u25810x4284": 4444,
    "\u25810x4554": 4445,
    "\u25810x7dbc": 4446,
    "\u25810x3f75f30": 4447,
    "access": 4448,
    "704": 4449,
    "\u25810x405": 4450,
    "40c": 4451,
    "\u25810x41b": 4452,
    "\u25810x44f910": 4453,
    "\u25810x7f10": 4454,
    "\u25810x7e3000": 4455,
    "\u25810x7e4000": 4456,
    "d98": 4457,
    "\u25810x7dbd": 4458,
    "\u258103": 4459,
    "ownload": 4460,
    "\u25810xffad": 4461,
    "\u25810x430880": 4462,
    "\u25810x7c40": 4463,
    "driv": 4464,
    "\u25810x40a5ac": 4465,
    "controls": 4466,
    "\u25810x235": 4467,
    "104": 4468,
    "700": 4469,
    "\u25810xffef": 4470,
    "if": 4471,
    "\u2581physicaldriv": 4472,
    "218": 4473,
    "284": 4474,
    "\u25810x419c20": 4475,
    "\u2581memset": 4476,
    "\u25810x1210e6": 4477,
    "fb0": 4478,
    "\u2581setc": 4479,
    "\u2581ob": 4480,
    "myarg2": 4481,
    "\u25810x41d1": 4482,
    "\u2581physicaldrive0": 4483,
    "\u25810x42fc38": 4484,
    "e84": 4485,
    "\u25810x4e30": 4486,
    "\u25810x40ef1": 4487,
    "\u25810x4196": 4488,
    "bad8": 4489,
    "\u25810x1211ef8": 4490,
    "f8c": 4491,
    "\u25810x1211d08": 4492,
    "\u25810x1211f84": 4493,
    "c8d": 4494,
    "ansi": 4495,
    "apis": 4496,
    "yarg1myarg2": 4497,
    "a4c": 4498,
    "\u25810x4c3308": 4499,
    "apisansi": 4500,
    "\u2581arefile": 4501,
    "\u2581arefileapisansi": 4502,
    "\u25810x71c0": 4503,
    "inity": 4504,
    "\u25810x5e": 4505,
    "\u25810x181": 4506,
    "bd0": 4507,
    "\u2581form": 4508,
    "\u25810x3f24": 4509,
    "363": 4510,
    "affinity": 4511,
    "affinitymask": 4512,
    "\u25810x7d20": 4513,
    "\u25810x4f5": 4514,
    "a94": 4515,
    "\u25810xffc4": 4516,
    "\u25810x42fbf0": 4517,
    "278": 4518,
    "f70": 4519,
    "\u25810x41dd": 4520,
    "fa8": 4521,
    "382": 4522,
    "\u2581lstrcpya": 4523,
    "318": 4524,
    "stream": 4525,
    "b40": 4526,
    "a70": 4527,
    "\u25810xffe3": 4528,
    "\u25810x1210f2": 4529,
    "\u25810x7dc0": 4530,
    "\u25810x1211f80": 4531,
    "\u25810x43f0": 4532,
    "\u25810x2100210": 4533,
    "a90000": 4534,
    "\u25810x100b": 4535,
    "a17": 4536,
    "\u25810xffe2": 4537,
    "\u25810x4290": 4538,
    "\u25810x1211e24": 4539,
    "555": 4540,
    "ef0": 4541,
    "\u25810x40b3": 4542,
    "\u25810x42ef": 4543,
    "\u25810x1211ccc": 4544,
    "ff4": 4545,
    "\u25810xffe7": 4546,
    "124": 4547,
    "\u25810xffec": 4548,
    "\u25810x7e5000": 4549,
    "fied": 4550,
    "f20": 4551,
    "\u25810x407": 4552,
    "\u2581removed": 4553,
    "26c": 4554,
    "\u25810x1211f24": 4555,
    "194": 4556,
    "2ac": 4557,
    "f30": 4558,
    "ad8": 4559,
    "\u25810xffae": 4560,
    "569": 4561,
    "\u25814d5": 4562,
    "\u25810x42ae": 4563,
    "\u25810x7460": 4564,
    "\u2581removedirectory": 4565,
    "\u25810x74d0": 4566,
    "bc4": 4567,
    "fd0": 4568,
    "coree": 4569,
    "\u2581mscoree": 4570,
    "\u2581getprocessaffinitymask": 4571,
    "384": 4572,
    "d84": 4573,
    "d48": 4574,
    "\u25810xffaf": 4575,
    "\u25810x8930": 4576,
    "\u25810xffc2": 4577,
    "b84": 4578,
    "d68": 4579,
    "\u25810xbd": 4580,
    "\u25810x431f38": 4581,
    "\u2581tlsfree": 4582,
    "\u2581loadacceleratorsw": 4583,
    "\u25810x42e2": 4584,
    "\u25810x42900": 4585,
    "afc": 4586,
    "metafilebits": 4587,
    "344": 4588,
    "\u25810x4330": 4589,
    "\u25810x417c": 4590,
    "324": 4591,
    "\u2581lcmapstringa": 4592,
    "\u2581do": 4593,
    "\u25810x70e0": 4594,
    "b18": 4595,
    "\u25810xff90": 4596,
    "\u25810x4470": 4597,
    "ffff0000": 4598,
    "d28": 4599,
    "\u25810x169b": 4600,
    "\u25810x47e0": 4601,
    "\u25810x7620": 4602,
    "\u25810x7cb0": 4603,
    "\u25810x431ef0": 4604,
    "\u2581shellexecutea": 4605,
    "66c": 4606,
    "\u25810x4efd": 4607,
    "2c8": 4608,
    "\u25810x4084": 4609,
    "\u25810x7498": 4610,
    "\u25810xe00": 4611,
    "\u2581setenvironment": 4612,
    "b10": 4613,
    "\u25810x1211de4": 4614,
    "application": 4615,
    "\u25810x56bad8": 4616,
    "\u25810x72d8": 4617,
    "000000ffff0000": 4618,
    "\u25810x41a6": 4619,
    "\u25810x7dc1": 4620,
    "b4c": 4621,
    "\u25810x41d114": 4622,
    "\u25810x120f8c2": 4623,
    "\u25810x7b60": 4624,
    "4000000ffff0000": 4625,
    "144": 4626,
    "\u25810x20009": 4627,
    "\u2581cadwork": 4628,
    "5c0": 4629,
    "f4c": 4630,
    "itor": 4631,
    "\u2581coinitialize": 4632,
    "302": 4633,
    "par": 4634,
    "\u25810x42e5c8": 4635,
    "\u25810x42e5e0": 4636,
    "onsolew": 4637,
    "\u25810x7038": 4638,
    "\u25810x7310": 4639,
    "\u25810x58000": 4640,
    "b14": 4641,
    "\u25810xae": 4642,
    "\u25810x7380": 4643,
    "\u25810x4cb0": 4644,
    "\u25810xff91": 4645,
    "\u25810x42ce10": 4646,
    "ceex": 4647,
    "wantto": 4648,
    "\u25810x7770": 4649,
    "eengine": 4650,
    "\u25810x75b0": 4651,
    "initializeengine": 4652,
    "\u2581failedtoinitializeengine": 4653,
    "\u25810x41af": 4654,
    "a900003": 4655,
    "\u25810x71f8": 4656,
    "\u25814d5a900003": 4657,
    "\u25814d5a9000030000000": 4658,
    "\u25814d5a90000300000004000000ffff0000": 4659,
    "\u25810x7118": 4660,
    "\u25810x435390": 4661,
    "\u25810x7a48": 4662,
    "\u25810x59c1": 4663,
    "\u25810x7b98": 4664,
    "120": 4665,
    "d40": 4666,
    "4005": 4667,
    "\u25810x49c8": 4668,
    "\u25810x59bf": 4669,
    "\u25810x7188": 4670,
    "\u25810x7268": 4671,
    "\u25810x42e598": 4672,
    "\u25810x418970": 4673,
    "\u2581getstringtypea": 4674,
    "\u25810x7578": 4675,
    "\u25810xfeee011": 4676,
    "\u25810x7428": 4677,
    "\u25810x7348": 4678,
    "\u25810x75e8": 4679,
    "\u25810x4010": 4680,
    "\u25810x7658": 4681,
    "\u25810x1210c": 4682,
    "32c": 4683,
    "\u25810x41c": 4684,
    "\u25810x76c8": 4685,
    "\u25810x7888": 4686,
    "numberis": 4687,
    "\u2581format": 4688,
    "\u25810x73b8": 4689,
    "240": 4690,
    "\u25810x7508": 4691,
    "\u25810x7738": 4692,
    "\u25810x7818": 4693,
    "\u25810x7ce8": 4694,
    "\u25810x78f8": 4695,
    "\u25810x7c08": 4696,
    "\u25810x45f1": 4697,
    "\u25810x7ab8": 4698,
    "qa": 4699,
    "\u25810x7968": 4700,
    "\u25810x79d8": 4701,
    "12c": 4702,
    "\u25810x77a8": 4703,
    "\u25810x82c0": 4704,
    "\u25810x107": 4705,
    "\u25810x7b28": 4706,
    "\u25810x7c78": 4707,
    "\u25810x7d58": 4708,
    "316": 4709,
    "541": 4710,
    "744": 4711,
    "310": 4712,
    "768": 4713,
    "340": 4714,
    "\u25810x1210ea": 4715,
    "ceff": 4716,
    "\u25810x1210f3": 4717,
    "winmetafilebits": 4718,
    "\u25810x4130": 4719,
    "228": 4720,
    "\u25810x5658": 4721,
    "\u25810xffc3": 4722,
    "\u25810x1210f1": 4723,
    "atom": 4724,
    "\u25810x1211f1c": 4725,
    "\u2581noaccess": 4726,
    "716": 4727,
    "\u25810x1211e20": 4728,
    "strings": 4729,
    "bb0": 4730,
    "item": 4731,
    "\u25810x42bf": 4732,
    "\u25810x60c6": 4733,
    "\u2581y": 4734,
    "\u25810xea": 4735,
    "500000": 4736,
    "\u25810x437820": 4737,
    "\u2581getenvironmentstrings": 4738,
    "\u2581remove": 4739,
    "\u25810x30000": 4740,
    "\u2581findnextfilea": 4741,
    "bd4": 4742,
    "\u2581install": 4743,
    "\u25810xfff4": 4744,
    "\u25810x44d4b8": 4745,
    "\u25810x4d50": 4746,
    "\u25810x7eab": 4747,
    "d78": 4748,
    "fe0": 4749,
    "function": 4750,
    "202": 4751,
    "\u2581setcurrent": 4752,
    "defaultu": 4753,
    "defaultuilanguage": 4754,
    "\u2581getwinmetafilebits": 4755,
    "lcid": 4756,
    "\u2581releasesrwlockexclusive": 4757,
    "\u25810x423e": 4758,
    "1d0": 4759,
    "888": 4760,
    "\u25810x47f0": 4761,
    "\u25810x87": 4762,
    "\u2581initializesrwlock": 4763,
    "ise": 4764,
    "ons": 4765,
    "vis": 4766,
    "ae8": 4767,
    "\u25810x2825": 4768,
    "\u25810x4201": 4769,
    "download": 4770,
    "2e0": 4771,
    "edit": 4772,
    "\u2581gdip": 4773,
    "\u2581getdiskfreespaceexw": 4774,
    "784": 4775,
    "ivate": 4776,
    "2dc": 4777,
    "internal": 4778,
    "sg": 4779,
    "\u25810x4088": 4780,
    "\u25810x3f3060": 4781,
    "\u25810x3f3010": 4782,
    "\u25810x4340c8": 4783,
    "f318": 4784,
    "private": 4785,
    "errornumberis": 4786,
    "\u2581programinternal": 4787,
    "\u2581programinternalerrornumberis": 4788,
    "\u2581createsemaphorew": 4789,
    "aaaaaaaa": 4790,
    "\u25810x343b570": 4791,
    "\u25810x45f2": 4792,
    "\u25810x85d0": 4793,
    "\u25810x97c0": 4794,
    "\u25810x42e2f0": 4795,
    "\u25810x12117f4": 4796,
    "\u2581setendoffile": 4797,
    "\u25810x164": 4798,
    "\u2581dragob": 4799,
    "\u25810x1211f97": 4800,
    "70c": 4801,
    "1cc": 4802,
    "\u25810x4096": 4803,
    "\u2581download": 4804,
    "privateprofile": 4805,
    "\u25810x1211808": 4806,
    "\u25810x401": 4807,
    "\u25810x107538": 4808,
    "\u25810xffdd": 4809,
    "\u25810xd000": 4810,
    "\u25810x40a59c": 4811,
    "528": 4812,
    "fromstream": 4813,
    "404": 4814,
    "\u2581shfolder": 4815,
    "asnot": 4816,
    "54c": 4817,
    "\u25810xfc": 4818,
    "b20": 4819,
    "b78": 4820,
    "94c": 4821,
    "\u25810x8a41": 4822,
    "\u25810x120faa8": 4823,
    "\u25810x3f2": 4824,
    "\u25810x437804": 4825,
    "fc8": 4826,
    "ned": 4827,
    "\u25810x42c4f0": 4828,
    "\u2581version": 4829,
    "\u2581wts": 4830,
    "\u25810x107598": 4831,
    "\u25810x40ab": 4832,
    "948": 4833,
    "be20": 4834,
    "\u25810x42ae20": 4835,
    "e28": 4836,
    "mit": 4837,
    "\u25810x4614": 4838,
    "3e8": 4839,
    "owned": 4840,
    "c4c": 4841,
    "\u25810x566a40": 4842,
    "ip": 4843,
    "\u2581initon": 4844,
    "ceexecute": 4845,
    "ceexecuteonce": 4846,
    "\u2581initonceexecuteonce": 4847,
    "\u2581fil": 4848,
    "\u25810x4bb0": 4849,
    "\u25810x107658": 4850,
    "olfp": 4851,
    "\u2581controlfp": 4852,
    "\u25810x4310": 4853,
    "\u2581monitor": 4854,
    "\u25810x41c044": 4855,
    "\u25810x42aa58": 4856,
    "ession": 4857,
    "360": 4858,
    "olec": 4859,
    "\u2581oleload": 4860,
    "\u25810x1211f44": 4861,
    "\u2581oleloadfromstream": 4862,
    "a90": 4863,
    "\u25810x169bf64": 4864,
    "dc1": 4865,
    "\u25810x54000": 4866,
    "\u25810x10e9": 4867,
    "7b0": 4868,
    "ocre": 4869,
    "\u2581commode": 4870,
    "\u25810x46b3d0": 4871,
    "\u25810x120fd": 4872,
    "34c": 4873,
    "base": 4874,
    "\u25810x8250": 4875,
    "\u25810x120e690": 4876,
    "\u25810x408478": 4877,
    "\u25810x120e698": 4878,
    "\u2581log": 4879,
    "\u25810x44180": 4880,
    "\u25810x107688": 4881,
    "9c0": 4882,
    "\u25810x420e": 4883,
    "leasec": 4884,
    "\u2581setdll": 4885,
    "notin": 4886,
    "\u25810x1210f7": 4887,
    "\u25810x42f318": 4888,
    "3f0": 4889,
    "c84": 4890,
    "f90": 4891,
    "prec": 4892,
    "precise": 4893,
    "\u25810x4990": 4894,
    "\u25810x7e00": 4895,
    "preciseasfiletime": 4896,
    "\u2581getsystemtimepreciseasfiletime": 4897,
    "d6c": 4898,
    "itialized": 4899,
    "notinitialized": 4900,
    "\u2581getfileinformationbyhandleex": 4901,
    "69c": 4902,
    "\u2581wcs": 4903,
    "\u25810x4912": 4904,
    "\u25810xffc1": 4905,
    "vironmentstringsa": 4906,
    "ectlock": 4907,
    "\u25810x4828": 4908,
    "notowned": 4909,
    "supfunction": 4910,
    "ectlocknotowned": 4911,
    "\u2581monitorsupfunction": 4912,
    "\u2581monitorsupfunctionnotinitialized": 4913,
    "\u25810xffc7": 4914,
    "\u2581removedirectorya": 4915,
    "001": 4916,
    "\u25810x5199": 4917,
    "vchost": 4918,
    "\u25810x7ff": 4919,
    "\u25810x50850": 4920,
    "\u2581dw": 4921,
    "param": 4922,
    "\u2581regedit": 4923,
    "\u2581svchost": 4924,
    "\u2581oleinitialize": 4925,
    "\u2581setfilepointerex": 4926,
    "c44": 4927,
    "\u25810x4233": 4928,
    "\u2581go": 4929,
    "\u25810x1210e78": 4930,
    "\u25810x1210e7c": 4931,
    "\u25810x9e": 4932,
    "\u2581getmenu": 4933,
    "inter": 4934,
    "\u25810xcb000": 4935,
    "884": 4936,
    "eto": 4937,
    "a45": 4938,
    "\u25810x420a0f": 4939,
    "\u25810x420a10": 4940,
    "\u25810x433660": 4941,
    "db0": 4942,
    "f46": 4943,
    "ae0": 4944,
    "eec": 4945,
    "\u25810x644": 4946,
    "specified": 4947,
    "\u25810x169bf74": 4948,
    "50c": 4949,
    "\u25810x4179": 4950,
    "asnotfound": 4951,
    "\u2581thespecified": 4952,
    "filewasnotfound": 4953,
    "\u2581thespecifiedfilewasnotfound": 4954,
    "b90": 4955,
    "srw": 4956,
    "conditionvariablesrw": 4957,
    "\u2581sleepconditionvariablesrw": 4958,
    "\u2581coun": 4959,
    "\u25810x41c4": 4960,
    "\u25810x1211db8": 4961,
    "\u25810x1211e18": 4962,
    "\u25810x4076": 4963,
    "\u25810x8650": 4964,
    "\u25810x1075c8": 4965,
    "\u25810x1075f8": 4966,
    "\u25810x107628": 4967,
    "\u25810x45f4": 4968,
    "3a4": 4969,
    "\u25810x43ff": 4970,
    "\u25810x188e00": 4971,
    "\u25810x8420": 4972,
    "\u25810x8430": 4973,
    "\u25810x99a0": 4974,
    "f85": 4975,
    "\u2581setthreadlocale": 4976,
    "370": 4977,
    "ec4": 4978,
    "\u25810x3b7": 4979,
    "a19": 4980,
    "d0c": 4981,
    "\u25810x88b0": 4982,
    "\u25810x188d3c": 4983,
    "\u2581movefilea": 4984,
    "\u2581getcurrentdirectorya": 4985,
    "\u25810xc94": 4986,
    "stringw": 4987,
    "\u25810x120e6cc": 4988,
    "b0c": 4989,
    "\u25810x4086": 4990,
    "\u25810x4126": 4991,
    "b70": 4992,
    "aac": 4993,
    "\u25810x8660": 4994,
    "aad": 4995,
    "f58": 4996,
    "\u25810x401000": 4997,
    "368": 4998,
    "\u2581strcmp": 4999,
    "3e0": 5000,
    "560": 5001,
    "a54": 5002,
    "fc4": 5003,
    "\u2581pleas": 5004,
    "b68": 5005,
    "\u258124": 5006,
    "\u2581goog": 5007,
    "b46": 5008,
    "\u2581google": 5009,
    "\u25810x42c5d0": 5010,
    "\u25810x42d4f0": 5011,
    "\u25810x63000000": 5012,
    "\u25810xfeee00f4": 5013,
    "b98": 5014,
    "f34": 5015,
    "\u25810x1211bfc": 5016,
    "\u25810x40ac": 5017,
    "3b8": 5018,
    "instal": 5019,
    "\u25810x40b4": 5020,
    "\u25810x8f70": 5021,
    "\u2581aaa": 5022,
    "38c": 5023,
    "dd4": 5024,
    "lsid": 5025,
    "\u25810x188e24": 5026,
    "f51": 5027,
    "tp": 5028,
    "areex": 5029,
    "\u25810x423b": 5030,
    "\u25810x5c000": 5031,
    "compareex": 5032,
    "\u25810x42be20": 5033,
    "compareexchange": 5034,
    "\u2581interlockedcompareexchange": 5035,
    "\u25810x45fe": 5036,
    "\u25810x44000": 5037,
    "928": 5038,
    "\u25810x9210": 5039,
    "\u25810x42efe8": 5040,
    "\u25810x413d": 5041,
    "d8c": 5042,
    "\u2581doyou": 5043,
    "\u25810x2439f74": 5044,
    "mb": 5045,
    "7f0": 5046,
    "\u25810x7d0": 5047,
    "\u25810x45f3": 5048,
    "\u25810x45f5": 5049,
    "env": 5050,
    "\u25810x82f0": 5051,
    "\u25810x4efd98": 5052,
    "\u2581yo": 5053,
    "\u2581wak": 5054,
    "\u2581clsid": 5055,
    "\u2581wakeconditionvariable": 5056,
    "\u2581msvcr90": 5057,
    "7a8": 5058,
    "\u25810x45f8": 5059,
    "\u25810x8f50": 5060,
    "\u2581sub": 5061,
    "d18": 5062,
    "f65": 5063,
    "\u25810x45f6": 5064,
    "\u2581getuserdefaultlcid": 5065,
    "b28": 5066,
    "\u25810x10e9bc": 5067,
    "\u25810x45f7": 5068,
    "\u25810x45f9": 5069,
    "\u25810x45fa": 5070,
    "\u25810x42ba58": 5071,
    "\u25810xfeee012": 5072,
    "\u25810x41e2": 5073,
    "\u25810x8a60": 5074,
    "\u25810xffde": 5075,
    "\u2581clsidfrom": 5076,
    "\u2581submit": 5077,
    "\u25810x1211ecc": 5078,
    "\u2581setdlldirectoryw": 5079,
    "\u25810x420f2": 5080,
    "728": 5081,
    "lower": 5082,
    "\u2581filet": 5083,
    "\u2581filetimeto": 5084,
    "threadpoolwork": 5085,
    "\u2581closethreadpoolwork": 5086,
    "\u2581createthreadpoolwork": 5087,
    "\u2581submitthreadpoolwork": 5088,
    "\u2581setfileinformationbyhandle": 5089,
    "aa0": 5090,
    "\u25810x4232": 5091,
    "\u2581getclassinfoa": 5092,
    "heme": 5093,
    "\u2581uxt": 5094,
    "\u2581uxtheme": 5095,
    "\u25810x40a0": 5096,
    "core": 5097,
    "\u25810x12110d8": 5098,
    "985": 5099,
    "\u25810x51b": 5100,
    "\u25810x1211338": 5101,
    "fc0": 5102,
    "\u25810x4df00": 5103,
    "720": 5104,
    "\u25810x4fc": 5105,
    "\u25810x45fd": 5106,
    "\u25810x7f02": 5107,
    "\u25810x4601": 5108,
    "5088": 5109,
    "e04": 5110,
    "\u25810x22e": 5111,
    "regis": 5112,
    "\u25810x45ff": 5113,
    "2b0": 5114,
    "248": 5115,
    "644": 5116,
    "\u2581couninitialize": 5117,
    "\u25810x4270": 5118,
    "\u25810x8f20": 5119,
    "304": 5120,
    "200": 5121,
    "\u25810x169bf94": 5122,
    "348": 5123,
    "f28": 5124,
    "\u2581writeconsolew": 5125,
    "\u25810x43a4": 5126,
    "hook": 5127,
    "emyarg1myarg2": 5128,
    "f18": 5129,
    "\u2581exemyarg1myarg2": 5130,
    "11c": 5131,
    "e58": 5132,
    "\u25810x52663": 5133,
    "\u25810x422a0": 5134,
    "\u25810x27": 5135,
    "common": 5136,
    "\u25810x440": 5137,
    "lipboardforma": 5138,
    "\u2581registerclipboardforma": 5139,
    "af4": 5140,
    "\u25810x4305c8": 5141,
    "\u25810x4305e0": 5142,
    "f78": 5143,
    "\u25810x41bd": 5144,
    "dl": 5145,
    "\u25810x110": 5146,
    "\u25810x60c690": 5147,
    "3c4": 5148,
    "\u25810x3020": 5149,
    "\u25810x431828": 5150,
    "\u2581getconsolemode": 5151,
    "\u25810xfeee014": 5152,
    "2a0": 5153,
    "\u25810x8900": 5154,
    "\u25810x43400": 5155,
    "\u25810x41ebf": 5156,
    "\u2581lstrcmpw": 5157,
    "ef8": 5158,
    "\u25810x62": 5159,
    "\u25810x109": 5160,
    "\u2581initcommon": 5161,
    "\u2581initcommoncontrols": 5162,
    "\u2581getdiskfreespaceexa": 5163,
    "570": 5164,
    "b58": 5165,
    "delete": 5166,
    "fd8": 5167,
    "update": 5168,
    "\u25810x1211d30": 5169,
    "onexit": 5170,
    "\u25810x438": 5171,
    "\u25810x411555": 5172,
    "\u25810x411556": 5173,
    "\u25810x42b964": 5174,
    "pool": 5175,
    "\u25810x1211cfc": 5176,
    "3c8": 5177,
    "\u25810x42ebc0": 5178,
    "381": 5179,
    "\u25810x430598": 5180,
    "\u25810x433860": 5181,
    "\u2581freeenvironmentstringsa": 5182,
    "\u25810xd2": 5183,
    "\u2581mso": 5184,
    "\u25810xb3": 5185,
    "\u25810x52667": 5186,
    "\u25810x4307e0": 5187,
    "990": 5188,
    "e48": 5189,
    "bc5": 5190,
    "\u25810x4298": 5191,
    "\u25810x4179c": 5192,
    "\u25810x412e": 5193,
    "\u25810x4c97": 5194,
    "\u25810x71000000": 5195,
    "\u25810x40f": 5196,
    "\u25810xc8": 5197,
    "\u25810x435000": 5198,
    "\u25810x41568c": 5199,
    "ph": 5200,
    "\u2581sc": 5201,
    "\u25810x120e694": 5202,
    "\u25810x120e69c": 5203,
    "a99": 5204,
    "9c2": 5205,
    "\u258112": 5206,
    "\u25810x41b0": 5207,
    "aa4": 5208,
    "\u25810x40b7": 5209,
    "\u25810x423326": 5210,
    "\u25810x423327": 5211,
    "f44": 5212,
    "\u25810x6e": 5213,
    "\u2581getvolumeinformationa": 5214,
    "1c0": 5215,
    "\u25810x417b50": 5216,
    "\u258128": 5217,
    "\u25810x4030": 5218,
    "\u258126": 5219,
    "\u25810x4cf": 5220,
    "a79": 5221,
    "onsolec": 5222,
    "\u2581getconsolec": 5223,
    "d90": 5224,
    "ocreate": 5225,
    "\u25810x4155": 5226,
    "fa0": 5227,
    "iserror": 5228,
    "\u25810x4227": 5229,
    "738": 5230,
    "\u25810x50e10": 5231,
    "\u258119": 5232,
    "only": 5233,
    "321": 5234,
    "a38": 5235,
    "ctype": 5236,
    "\u2581getconsolecp": 5237,
    "ig": 5238,
    "c01": 5239,
    "f60": 5240,
    "\u25810x42d8a2": 5241,
    "\u25810x42d8ab": 5242,
    "\u25810x42d8b4": 5243,
    "\u25810x42d8bd": 5244,
    "\u25810x1211f54": 5245,
    "5e8": 5246,
    "116": 5247,
    "tag": 5248,
    "565": 5249,
    "70e": 5250,
    "d7c": 5251,
    "\u25810x103": 5252,
    "\u25810x4606": 5253,
    "9e0": 5254,
    "\u25810x130": 5255,
    "\u25810x435088": 5256,
    "\u25810x1860": 5257,
    "resourcea": 5258,
    "ba0": 5259,
    "\u25810x4184": 5260,
    "\u25810x1211ee8": 5261,
    "\u2581userenv": 5262,
    "acd": 5263,
    "f17": 5264,
    "\u25810xffcb": 5265,
    "\u25810x181b70": 5266,
    "ded": 5267,
    "pre": 5268,
    "a78": 5269,
    "\u25810x8fc0": 5270,
    "da9": 5271,
    "\u25810x88f0": 5272,
    "\u25810xfff3": 5273,
    "printer": 5274,
    "\u25810x41a044": 5275,
    "\u2581findresourcea": 5276,
    "\u25810x4079": 5277,
    "au": 5278,
    "bf8": 5279,
    "bbc": 5280,
    "atalog": 5281,
    "298": 5282,
    "d05": 5283,
    "\u25810x500": 5284,
    "\u25810x4cf0": 5285,
    "\u2581dialog": 5286,
    "df1": 5287,
    "\u2581qt": 5288,
    "748": 5289,
    "958": 5290,
    "\u25810x4ec": 5291,
    "101": 5292,
    "ab0": 5293,
    "mapi": 5294,
    "\u25810x46b": 5295,
    "ail": 5296,
    "d20": 5297,
    "fec": 5298,
    "960": 5299,
    "\u25810x4093e8": 5300,
    "amet": 5301,
    "\u25810x4093e5": 5302,
    "\u25810x4093e6": 5303,
    "\u25810x4093e7": 5304,
    "df0": 5305,
    "msg": 5306,
    "\u25810xf8": 5307,
    "d2c": 5308,
    "d5c": 5309,
    "\u25810x41e1d8": 5310,
    "eb8": 5311,
    "\u2581filen": 5312,
    "\u25810x12117e8": 5313,
    "plor": 5314,
    "internet": 5315,
    "350": 5316,
    "will": 5317,
    "\u2581tow": 5318,
    "\u25810x416a17": 5319,
    "\u25810x416a18": 5320,
    "a60": 5321,
    "acc": 5322,
    "bd7": 5323,
    "d38": 5324,
    "17a8": 5325,
    "\u25810x12117fc": 5326,
    "\u25812022": 5327,
    "\u25810x8b50": 5328,
    "\u2581dwmapi": 5329,
    "rn": 5330,
    "91c": 5331,
    "plorer": 5332,
    "794": 5333,
    "\u25810x169bc": 5334,
    "\u2581cryptbase": 5335,
    "798": 5336,
    "ctrl": 5337,
    "trol": 5338,
    "\u25810x560": 5339,
    "atalogs": 5340,
    "\u25810x41688": 5341,
    "quen": 5342,
    "\u25810x40b": 5343,
    "\u25810x169b7": 5344,
    "rnl": 5345,
    "a98": 5346,
    "otfound": 5347,
    "7e8": 5348,
    "\u2581hdd": 5349,
    "regen": 5350,
    "\u25810x41b8": 5351,
    "\u2581hddregen": 5352,
    "\u2581hddregenerator": 5353,
    "\u25812d": 5354,
    "\u2581runonce": 5355,
    "\u25810x169b9": 5356,
    "\u258114": 5357,
    "\u25810x4ad4": 5358,
    "\u25810x678208": 5359,
    "verif": 5360,
    "\u25810x616": 5361,
    "\u2581filenotfound": 5362,
    "6c5": 5363,
    "osk": 5364,
    "oskrnl": 5365,
    "\u2581ntoskrnl": 5366,
    "\u2581getuserdefaultuilanguage": 5367,
    "\u258118": 5368,
    "78c": 5369,
    "a69": 5370,
    "\u25810x412f": 5371,
    "ocon": 5372,
    "71c": 5373,
    "eexist": 5374,
    "\u25810x402": 5375,
    "\u25810x1211ce0": 5376,
    "\u2581fileexist": 5377,
    "\u25810xffca": 5378,
    "9d8": 5379,
    "\u25810x5f3": 5380,
    "dff": 5381,
    "90c": 5382,
    "\u25810x518": 5383,
    "e1d": 5384,
    "seek": 5385,
    "\u25810x41de20": 5386,
    "f16": 5387,
    "a64": 5388,
    "\u2581dup": 5389,
    "listmsg": 5390,
    "\u25810x41ddd8": 5391,
    "\u2581commctrl": 5392,
    "\u2581draglistmsg": 5393,
    "d58": 5394,
    "\u25810x534": 5395,
    "\u25810x2012": 5396,
    "60c": 5397,
    "7e7": 5398,
    "e50": 5399,
    "\u2581atex": 5400,
    "\u2581atexit": 5401,
    "3a0": 5402,
    "\u25810xa4a0": 5403,
    "\u25810x5937": 5404,
    "\u25810xf000": 5405,
    "2c4": 5406,
    "604": 5407,
    "\u2581202203040": 5408,
    "tac": 5409,
    "\u25810x5617a8": 5410,
    "\u25810x4093e9": 5411,
    "\u25810x4093ea": 5412,
    "\u25810x4093eb": 5413,
    "\u25810x418a00": 5414,
    "\u25810x418a30": 5415,
    "\u2581shgetfile": 5416,
    "\u25810xffc8": 5417,
    "\u25810x41cc": 5418,
    "\u25810x417b1": 5419,
    "\u25810x4170d4": 5420,
    "\u25810x4170d5": 5421,
    "\u2581cl": 5422,
    "\u2581lstrca": 5423,
    "\u25810x42c0a4": 5424,
    "\u25810x7b00": 5425,
    "\u25810x47a00": 5426,
    "\u25810x1211e54": 5427,
    "\u25810x4139": 5428,
    "\u2581ns": 5429,
    "bd8": 5430,
    "600": 5431,
    "7d0": 5432,
    "ba8": 5433,
    "fad": 5434,
    "\u2581isvalidlocale": 5435,
    "\u2581sys": 5436,
    "bb4": 5437,
    "\u2581pi": 5438,
    "\u2581duplic": 5439,
    "bcc": 5440,
    "\u2581getprivateprofile": 5441,
    "\u2581append": 5442,
    "\u2581instal": 5443,
    "\u25810x598740": 5444,
    "\u2581lstrcmpi": 5445,
    "317": 5446,
    "\u25810x120f": 5447,
    "338": 5448,
    "647": 5449,
    "d10": 5450,
    "50000": 5451,
    "974": 5452,
    "\u25810x208": 5453,
    "\u25810x95d0": 5454,
    "\u25810x409aa4": 5455,
    "vip": 5456,
    "\u25810x409aa5": 5457,
    "\u25810x4614d0": 5458,
    "\u2581defwindowprocw": 5459,
    "\u2581prvip": 5460,
    "\u2581getmodulehandl": 5461,
    "7c5": 5462,
    "resour": 5463,
    "\u2581charpre": 5464,
    "\u25810x40935d": 5465,
    "\u25810x40935e": 5466,
    "\u25810x40935f": 5467,
    "\u25810x409360": 5468,
    "\u25810x409361": 5469,
    "\u25810x409362": 5470,
    "\u25810x409363": 5471,
    "fd4": 5472,
    "\u25810x41aa": 5473,
    "694": 5474,
    "quency": 5475,
    "requency": 5476,
    "aa8": 5477,
    "lay": 5478,
    "\u2581nsiserror": 5479,
    "749": 5480,
    "\u258134": 5481,
    "\u2581e000": 5482,
    "lation": 5483,
    "\u25810x8ce0": 5484,
    "80004005": 5485,
    "\u25810x1210e80": 5486,
    "\u2581error0x80004005": 5487,
    "\u25810x455": 5488,
    "\u25810x41f7": 5489,
    "pass": 5490,
    "\u25810x468": 5491,
    "\u25810x4c10": 5492,
    "\u25810x3f21": 5493,
    "ecc": 5494,
    "\u25810x4ec0": 5495,
    "cefrequency": 5496,
    "\u2581queryperformancefrequency": 5497,
    "6d8": 5498,
    "\u25810x419ce0": 5499,
    "\u25810x42fc68": 5500,
    "18c": 5501,
    "\u25810x569b48": 5502,
    "\u25810xffc9": 5503,
    "\u25810x16000": 5504,
    "\u25810x4240": 5505,
    "690": 5506,
    "\u25810x4208": 5507,
    "20c": 5508,
    "\u25810x45fb": 5509,
    "\u25810x4650": 5510,
    "af0": 5511,
    "d30": 5512,
    "1e8": 5513,
    "withtag": 5514,
    "poolwithtag": 5515,
    "\u2581exallocate": 5516,
    "\u2581exallocatepoolwithtag": 5517,
    "bfc": 5518,
    "f48": 5519,
    "5b0": 5520,
    "1e4": 5521,
    "7ac": 5522,
    "\u25810x1211e80": 5523,
    "ef4": 5524,
    "970": 5525,
    "e0c": 5526,
    "\u25810x131": 5527,
    "\u2581ndr": 5528,
    "\u25810x4217": 5529,
    "130": 5530,
    "9bc": 5531,
    "3a20": 5532,
    "\u25810x9cc0": 5533,
    "\u2581strlen": 5534,
    "\u25810x3f3080": 5535,
    "f7c": 5536,
    "\u2581ndrd": 5537,
    "\u25810x4200": 5538,
    "64c": 5539,
    "\u25810x2200": 5540,
    "\u25810x1211fbc": 5541,
    "\u2581getmodulehandleexw": 5542,
    "chr": 5543,
    "148": 5544,
    "d24": 5545,
    "dcc": 5546,
    "ible": 5547,
    "ority": 5548,
    "\u25810x2e7": 5549,
    "\u25810x454": 5550,
    "\u25810x1211f50": 5551,
    "\u2581864000": 5552,
    "\u25810x70000": 5553,
    "\u25810x4335": 5554,
    "\u25810x39569": 5555,
    "c8e": 5556,
    "\u2581ol": 5557,
    "etype": 5558,
    "valueexa": 5559,
    "\u2581regqueryvalueexw": 5560,
    "fb8": 5561,
    "\u25810x9730": 5562,
    "this": 5563,
    "\u25810x3f2210": 5564,
    "\u25810x3f3040": 5565,
    "\u25810xbe": 5566,
    "69e": 5567,
    "\u25810x486d": 5568,
    "\u25810x4ee0": 5569,
    "\u2581programinternalerrornumberis6": 5570,
    "d9f": 5571,
    "d1ff": 5572,
    "\u258186400040": 5573,
    "a8a8": 5574,
    "\u25810x1210e84": 5575,
    "778": 5576,
    "c0c": 5577,
    "\u25810x46b400": 5578,
    "\u25810x1211f30h": 5579,
    "715": 5580,
    "a8c": 5581,
    "b2c": 5582,
    "\u25810x419cb0": 5583,
    "\u2581formatmessagea": 5584,
    "bec": 5585,
    "\u25810x3f25": 5586,
    "\u25810x8838": 5587,
    "\u2581gettempfilename": 5588,
    "\u2581appendw": 5589,
    "\u25810x2200220": 5590,
    "396": 5591,
    "\u25810x8839": 5592,
    "\u25810x416b50": 5593,
    "\u2581wm": 5594,
    "\u25810x3f26": 5595,
    "\u25810xa210": 5596,
    "\u25810x4540": 5597,
    "\u25810xffd4": 5598,
    "397": 5599,
    "\u25810x40a58c": 5600,
    "instan": 5601,
    "privile": 5602,
    "versioninfow": 5603,
    "68b": 5604,
    "\u25810x40a57c": 5605,
    "270": 5606,
    "\u25810x53e4": 5607,
    "a50": 5608,
    "roll": 5609,
    "\u25810x4607": 5610,
    "\u2581duplicate": 5611,
    "39c": 5612,
    "\u25810x1211fb8": 5613,
    "14c": 5614,
    "b23": 5615,
    "2acb2": 5616,
    "\u25810x5676": 5617,
    "485": 5618,
    "\u2581b2acb2": 5619,
    "exit": 5620,
    "\u25810x431f68": 5621,
    "\u2581can": 5622,
    "\u25810x134": 5623,
    "\u25810xfeee009d": 5624,
    "\u25810x413": 5625,
    "\u25810x4160": 5626,
    "\u25810x8490": 5627,
    "\u25810x8d90": 5628,
    "\u2581lstrcata": 5629,
    "a43": 5630,
    "bc9": 5631,
    "ready": 5632,
    "\u25810x42b4": 5633,
    "\u25810x442": 5634,
    "\u2581oleacc": 5635,
    "918": 5636,
    "\u25810x1211b08": 5637,
    "\u25810x1211ed8": 5638,
    "\u25810x4324": 5639,
    "940": 5640,
    "\u25810x4258": 5641,
    "\u25810x1210cf0": 5642,
    "709": 5643,
    "db8": 5644,
    "\u25810xfeee015": 5645,
    "a6c": 5646,
    "\u2581af": 5647,
    "verify": 5648,
    "741": 5649,
    "\u2581getdriv": 5650,
    "\u2581initcommoncontrolsex": 5651,
    "ld": 5652,
    "\u25810x7bc": 5653,
    "\u25810x1808": 5654,
    "\u25810x1211dbc": 5655,
    "\u2581getdrivetype": 5656,
    "\u258135": 5657,
    "\u2581duplicatehandle": 5658,
    "a20": 5659,
    "\u2581verify": 5660,
    "\u25810x416c0": 5661,
    "\u25810x416242": 5662,
    "\u25810x416243": 5663,
    "\u25810x42a0a0": 5664,
    "\u2581int": 5665,
    "\u25810x3f23": 5666,
    "a02": 5667,
    "\u25810x64000": 5668,
    "15c": 5669,
    "\u2581mta": 5670,
    "\u25810x1211f5c": 5671,
    "\u2581commandline": 5672,
    "b75": 5673,
    "\u2581reset": 5674,
    "\u2581isctype": 5675,
    "\u25810x200020": 5676,
    "\u2581cocreate": 5677,
    "\u25810x68000": 5678,
    "158": 5679,
    "7b8": 5680,
    "exist": 5681,
    "\u25810x43f6": 5682,
    "178": 5683,
    "argvw": 5684,
    "toargvw": 5685,
    "\u25810xfff2": 5686,
    "\u2581commandlinetoargvw": 5687,
    "3b0": 5688,
    "48c": 5689,
    "ffd1ff": 5690,
    "\u25810x3f27": 5691,
    "b34": 5692,
    "\u2581setcurrentdirectorya": 5693,
    "\u25810x41d2": 5694,
    "a32": 5695,
    "\u25810x4f6200": 5696,
    "\u2581youm": 5697,
    "b0000": 5698,
    "\u25810x4c0": 5699,
    "\u25810x1211438": 5700,
    "\u25810x1211ef4": 5701,
    "\u2581setenvironmentvariablea": 5702,
    "190": 5703,
    "af8": 5704,
    "privilege": 5705,
    "f68": 5706,
    "resourc": 5707,
    "\u25810x7eec": 5708,
    "netw": 5709,
    "5cc": 5710,
    "\u25810x414c": 5711,
    "bff": 5712,
    "ware": 5713,
    "im": 5714,
    "\u25810x450": 5715,
    "\u25810x7e4": 5716,
    "61c": 5717,
    "\u25810x10a": 5718,
    "\u25810xe9": 5719,
    "\u25810x41a8a8": 5720,
    "\u25810x41bc98": 5721,
    "\u25810x41bcc8": 5722,
    "950": 5723,
    "star": 5724,
    "\u25810x7eed": 5725,
    "\u25810x120e": 5726,
    "\u2581cocreateinstan": 5727,
    "385": 5728,
    "\u25810x8554": 5729,
    "7dc": 5730,
    "a0c": 5731,
    "\u25810x409c": 5732,
    "\u25810x4604": 5733,
    "mi": 5734,
    "19c": 5735,
    "\u25810xb7": 5736,
    "\u2581back": 5737,
    "network": 5738,
    "\u25810x94f0": 5739,
    "1b4": 5740,
    "\u2581qa": 5741,
    "\u25810xba": 5742,
    "\u25810x80c410": 5743,
    "\u25810x7f8003": 5744,
    "\u25810x7f8004": 5745,
    "\u25810x7f8005": 5746,
    "\u25810x7f8006": 5747,
    "\u25810x7f8007": 5748,
    "\u25810x7f8008": 5749,
    "\u25810x7f8009": 5750,
    "\u25810x7f800a": 5751,
    "\u25810x7f800b": 5752,
    "\u25810x7f800c": 5753,
    "\u25810x7f800d": 5754,
    "\u2581security": 5755,
    "mar": 5756,
    "\u25810x3010": 5757,
    "ec9": 5758,
    "\u25810x7f800e": 5759,
    "\u25810x502dc": 5760,
    "2d0": 5761,
    "334": 5762,
    "e81": 5763,
    "ocontrol": 5764,
    "iocontrol": 5765,
    "\u25810x7f800f": 5766,
    "pri": 5767,
    "\u2581opena": 5768,
    "386": 5769,
    "\u25810x7f4": 5770,
    "\u25810x4605": 5771,
    "\u25810x1211d44": 5772,
    "7d5": 5773,
    "bc6": 5774,
    "extex": 5775,
    "\u25810x6a": 5776,
    "priority": 5777,
    "3a5": 5778,
    "f98": 5779,
    "unch": 5780,
    "\u25810xbb": 5781,
    "\u25810x44b7": 5782,
    "\u2581deviceiocontrol": 5783,
    "b16": 5784,
    "\u25810x46c0": 5785,
    "\u25810x42eb": 5786,
    "\u25810x40ef1b": 5787,
    "1a0": 5788,
    "566": 5789,
    "\u2581qt5": 5790,
    "\u25810x1211584": 5791,
    "750": 5792,
    "alse": 5793,
    "\u25810x4d5": 5794,
    "created": 5795,
    "\u2581towlower": 5796,
    "7ce": 5797,
    "\u25810x40ef1a": 5798,
    "ed0": 5799,
    "\u25810x1211f98": 5800,
    "\u25810x7bc00000": 5801,
    "textw": 5802,
    "150": 5803,
    "fa2": 5804,
    "\u2581your": 5805,
    "294": 5806,
    "22c": 5807,
    "932": 5808,
    "\u25810xffdf": 5809,
    "\u25810x5f6": 5810,
    "\u25810x40a2": 5811,
    "\u25810x4608": 5812,
    "9f0": 5813,
    "\u2581getmessagew": 5814,
    "db5": 5815,
    "dc8": 5816,
    "\u25810x120ff": 5817,
    "\u25810x1211888": 5818,
    "\u25810x1211b74": 5819,
    "dd8": 5820,
    "3d28": 5821,
    "\u25810x600": 5822,
    "58c": 5823,
    "7a0": 5824,
    "244": 5825,
    "\u25810x4218": 5826,
    "\u25810xffed": 5827,
    "\u2581getsystemtimes": 5828,
    "314": 5829,
    "bd5": 5830,
    "ters": 5831,
    "\u2581environ": 5832,
    "\u25810x1211fa0": 5833,
    "fdc": 5834,
    "applet": 5835,
    "\u25810x491288": 5836,
    "\u25810x7e30": 5837,
    "\u2581oa": 5838,
    "\u2581regcreate": 5839,
    "d00": 5840,
    "\u25810x4219": 5841,
    "\u2581verifyversioninfow": 5842,
    "eb4": 5843,
    "\u258130": 5844,
    "\u25810x6970": 5845,
    "\u25810x5265c3c": 5846,
    "\u25810x4020": 5847,
    "\u25810x41ba": 5848,
    "\u25810xffd1": 5849,
    "\u25810x75500000": 5850,
    "a28": 5851,
    "\u25810xa6b0": 5852,
    "\u25810xff86": 5853,
    "\u25810x1211b50": 5854,
    "d60": 5855,
    "install": 5856,
    "\u2581fre": 5857,
    "\u25810x40e5": 5858,
    "\u25810x565868": 5859,
    "263": 5860,
    "\u25810x6940": 5861,
    "\u25810x7df9": 5862,
    "30000": 5863,
    "\u25810x4c30": 5864,
    "f3f": 5865,
    "\u25810x7dc4": 5866,
    "\u25810x7df8": 5867,
    "\u25810x40f6a8": 5868,
    "\u25810x598758": 5869,
    "a49": 5870,
    "ffcb": 5871,
    "9c24": 5872,
    "6d7": 5873,
    "\u25810x1210e30": 5874,
    "ning": 5875,
    "\u25810x9940": 5876,
    "3d4": 5877,
    "\u25810x599": 5878,
    "\u25810x4175": 5879,
    "\u25810x7dc5": 5880,
    "\u2581regcreatekey": 5881,
    "\u25810x4b7": 5882,
    "\u25810x4919": 5883,
    "745": 5884,
    "been": 5885,
    "\u25810x417da0": 5886,
    "198": 5887,
    "ort": 5888,
    "70000": 5889,
    "\u25810xa9a0": 5890,
    "\u2581qt5core": 5891,
    "\u25810x42b0a0": 5892,
    "\u25810x1211790": 5893,
    "ei": 5894,
    "f3e": 5895,
    "\u25810x522": 5896,
    "gex": 5897,
    "\u25810xd8": 5898,
    "\u25810x417d9f": 5899,
    "5a0": 5900,
    "d70": 5901,
    "\u25810x4140": 5902,
    "\u25810x7dd0": 5903,
    "\u25810x1211b54": 5904,
    "730": 5905,
    "da8": 5906,
    "\u25810x940000": 5907,
    "210": 5908,
    "df8": 5909,
    "\u25810x41e9": 5910,
    "\u25810x4602": 5911,
    "\u25810xffe8": 5912,
    "pl": 5913,
    "3ac": 5914,
    "\u25810x8410": 5915,
    "ects": 5916,
    "\u25810xa260": 5917,
    "2e8": 5918,
    "\u2581cq": 5919,
    "\u25810x2100": 5920,
    "a89": 5921,
    "3b6": 5922,
    "3d0": 5923,
    "\u25810x740": 5924,
    "\u25810xff69": 5925,
    "\u25810x423da8": 5926,
    "\u25810x423dd8": 5927,
    "71f": 5928,
    "des": 5929,
    "\u25810x9810": 5930,
    "1b0": 5931,
    "a24": 5932,
    "fd9": 5933,
    "run": 5934,
    "\u2581lib": 5935,
    "605": 5936,
    "move": 5937,
    "\u25810x4316": 5938,
    "\u25810x52668": 5939,
    "\u25810x188e4c": 5940,
    "ad5": 5941,
    "f19": 5942,
    "\u25810x2d4d9": 5943,
    "7170": 5944,
    "\u25810x4168": 5945,
    "\u25810x1211f0c": 5946,
    "a74": 5947,
    "f38": 5948,
    "\u25810x7dd9": 5949,
    "\u25810x2d4df": 5950,
    "\u25810x1211ad0": 5951,
    "che": 5952,
    "\u2581destroywindow": 5953,
    "\u25810x4760": 5954,
    "\u25810x461518": 5955,
    "1a4": 5956,
    "\u25810x4a77": 5957,
    "\u25810x9290": 5958,
    "ook": 5959,
    "prop": 5960,
    "\u25810x4169c0": 5961,
    "\u25810x4169c1": 5962,
    "seekto": 5963,
    "\u25810xd3d": 5964,
    "\u25810x9a60": 5965,
    "nexplorer": 5966,
    "\u2581failedtoseekto": 5967,
    "336": 5968,
    "3ad": 5969,
    "\u25810x4af4": 5970,
    "\u25810x42a00": 5971,
    "ax": 5972,
    "\u25810xb6": 5973,
    "\u2581logme": 5974,
    "117": 5975,
    "a85": 5976,
    "starto": 5977,
    "startoffile": 5978,
    "\u2581failedtoseektostartoffile": 5979,
    "\u25810x56c": 5980,
    "375": 5981,
    "\u25810xfeee018": 5982,
    "toc": 5983,
    "\u25810x4b80": 5984,
    "366": 5985,
    "fa4": 5986,
    "e4b8": 5987,
    "\u2581setupapi": 5988,
    "\u2581add": 5989,
    "\u25810xfeee019": 5990,
    "\u2581failedtoinitializeenginesection": 5991,
    "f49": 5992,
    "\u2581ri": 5993,
    "\u25810x4e5c": 5994,
    "\u25810x12106": 5995,
    "1b8": 5996,
    "bac": 5997,
    "e68c": 5998,
    "\u25810x144": 5999,
    "\u25810x4902e0": 6000,
    "7bc": 6001,
    "\u25810x6b6": 6002,
    "\u25810x496790": 6003,
    "723": 6004,
    "\u25810x41cb": 6005,
    "\u25810x4330c8": 6006,
    "\u2581failedtoinitializeenginestate": 6007,
    "944": 6008,
    "\u25810x3e6c": 6009,
    "\u25810x7eaba8": 6010,
    "f10": 6011,
    "lpapi": 6012,
    "f39": 6013,
    "\u25810x40d8": 6014,
    "\u25810x599b5c": 6015,
    "\u25810x599c24": 6016,
    "\u25810x59bf3c": 6017,
    "\u25810x59bf7c": 6018,
    "\u25810x59c120": 6019,
    "\u25810x59c138": 6020,
    "adc": 6021,
    "df5": 6022,
    "ally": 6023,
    "\u25810xe8": 6024,
    "\u25810x8330": 6025,
    "\u2581getcursor": 6026,
    "\u25810x44c2": 6027,
    "\u25810x1211568": 6028,
    "\u25811646": 6029,
    "output": 6030,
    "\u25810x4289": 6031,
    "\u25810x4b40": 6032,
    "\u25810x567678": 6033,
    "\u2581internet": 6034,
    "\u25810x42e0a4": 6035,
    "\u25810x4363d8": 6036,
    "7ec": 6037,
    "aec": 6038,
    "sys": 6039,
    "\u25810x120e68c": 6040,
    "\u25810x1210ec0": 6041,
    "656": 6042,
    "\u2581la": 6043,
    "orgex": 6044,
    "\u25810x7f9": 6045,
    "\u25810xfeee016": 6046,
    "374": 6047,
    "3d6": 6048,
    "545": 6049,
    "\u25810xa010": 6050,
    "\u2581command": 6051,
    "\u25810x435018": 6052,
    "351": 6053,
    "ae00": 6054,
    "\u25810x419c54": 6055,
    "\u25810x435002": 6056,
    "\u25810x435004": 6057,
    "\u25810x435006": 6058,
    "\u25810x435008": 6059,
    "\u25810x43500a": 6060,
    "\u25810x43500c": 6061,
    "\u25810x43500e": 6062,
    "\u25810x435010": 6063,
    "\u2581regdelete": 6064,
    "zone": 6065,
    "\u25810x478": 6066,
    "\u25810x4176": 6067,
    "\u25810x419c53": 6068,
    "\u25810x435014": 6069,
    "606": 6070,
    "\u25810x435016": 6071,
    "c43": 6072,
    "1c6": 6073,
    "2d4": 6074,
    "fc6": 6075,
    "ame32": 6076,
    "\u2581prop": 6077,
    "\u2581mame32": 6078,
    "\u25810x42398": 6079,
    "\u25810x74000": 6080,
    "\u2581freeware": 6081,
    "7cc": 6082,
    "920": 6083,
    "9c8": 6084,
    "b96": 6085,
    "\u2581ps": 6086,
    "\u25810x4095": 6087,
    "\u25810x7ddd": 6088,
    "\u2581apphelp": 6089,
    "eresource": 6090,
    "bd6": 6091,
    "bcat": 6092,
    "\u2581print": 6093,
    "\u25810x7dc9": 6094,
    "\u25810x120e6dc": 6095,
    "eb0": 6096,
    "\u2581riche": 6097,
    "\u25810x4011": 6098,
    "\u2581propsys": 6099,
    "bcatq": 6100,
    "enamew": 6101,
    "\u25810x509e4": 6102,
    "\u2581clbcatq": 6103,
    "b3c": 6104,
    "ee2": 6105,
    "outputcp": 6106,
    "\u2581qae": 6107,
    "\u25810x42ec": 6108,
    "\u25810x42d498": 6109,
    "315": 6110,
    "zoneinformation": 6111,
    "bf1": 6112,
    "cue": 6113,
    "rescue": 6114,
    "\u25810x44f": 6115,
    "ted": 6116,
    "\u2581freeresource": 6117,
    "\u2581getconsoleoutputcp": 6118,
    "\u2581gettimezoneinformation": 6119,
    "inrescue": 6120,
    "\u25810x435012": 6121,
    "\u2581logmeinrescue": 6122,
    "1c4": 6123,
    "fic": 6124,
    "\u25810x42fc20": 6125,
    "3cc": 6126,
    "0068": 6127,
    "\u2581logmeinrescueapplet": 6128,
    "reen": 6129,
    "eb2": 6130,
    "682": 6131,
    "d49": 6132,
    "\u2581systemtim": 6133,
    "6b6": 6134,
    "place": 6135,
    "program": 6136,
    "3ec": 6137,
    "f2c": 6138,
    "\u25810x4188": 6139,
    "b38": 6140,
    "ee08": 6141,
    "\u25810x3f2420": 6142,
    "a3c8": 6143,
    "128": 6144,
    "ce6": 6145,
    "d34": 6146,
    "\u25810x1faf": 6147,
    "\u2581globalf": 6148,
    "b22": 6149,
    "311": 6150,
    "e09": 6151,
    "\u2581iph": 6152,
    "profil": 6153,
    "\u2581iphlpapi": 6154,
    "\u25810x535": 6155,
    "\u25810x4c33": 6156,
    "ht": 6157,
    "\u25810x3020302": 6158,
    "\u2581messageboxw": 6159,
    "\u2581cocreateinstance": 6160,
    "\u258108": 6161,
    "\u25810xbf": 6162,
    "b33": 6163,
    "ce1": 6164,
    "ad50": 6165,
    "\u25810x8de0": 6166,
    "image": 6167,
    "recon": 6168,
    "\u25810xfeedf000": 6169,
    "7675": 6170,
    "\u25810x5266c": 6171,
    "\u25810xb1": 6172,
    "\u25810x7dcc": 6173,
    "\u25810x52669": 6174,
    "\u25810x4c32d8": 6175,
    "\u25810x4c32f0": 6176,
    "3ff": 6177,
    "a39": 6178,
    "buf": 6179,
    "e14": 6180,
    "valuea": 6181,
    "\u2581psapi": 6182,
    "\u25810x7dd4": 6183,
    "322": 6184,
    "a1c": 6185,
    "ea0": 6186,
    "\u25810xcccc": 6187,
    "e94": 6188,
    "\u25810x42ce08": 6189,
    "35c": 6190,
    "eb6": 6191,
    "\u25810x41a9": 6192,
    "\u25810xff92": 6193,
    "\u2581getwindowsdirectoryw": 6194,
    "33c4": 6195,
    "\u25810x7ddc": 6196,
    "\u2581registerwindowmessagea": 6197,
    "698": 6198,
    "7f4": 6199,
    "fed": 6200,
    "\u25810xb2": 6201,
    "\u25810xffe9": 6202,
    "f3c": 6203,
    "\u25810x40a6": 6204,
    "\u25810x7100": 6205,
    "\u25810x7dcd": 6206,
    "\u25810x7dd8": 6207,
    "7c6": 6208,
    "dfd": 6209,
    "idto": 6210,
    "\u25810x408c8d": 6211,
    "\u25810x408c8e": 6212,
    "sion": 6213,
    "364": 6214,
    "times": 6215,
    "\u25810x1211cb8": 6216,
    "\u2581lstrcmpia": 6217,
    "ave": 6218,
    "erun": 6219,
    "afcdff": 6220,
    "\u25810x181b48": 6221,
    "\u2581cryptget": 6222,
    "afcdffceff": 6223,
    "\u2581b2acb2afcdffceff": 6224,
    "238": 6225,
    "520": 6226,
    "\u25810x7dd1": 6227,
    "\u25810x7dd5": 6228,
    "sd": 6229,
    "\u25810x8cb0": 6230,
    "\u25810x3f75e88": 6231,
    "\u25810x8340": 6232,
    "\u25810x508d0": 6233,
    "\u25810x43501a": 6234,
    "3d1": 6235,
    "b6c": 6236,
    "f45": 6237,
    "\u2581cp": 6238,
    "tacqui": 6239,
    "\u25810x509a8": 6240,
    "\u25810x41cc54": 6241,
    "\u25810x120f8a6": 6242,
    "tacquirecon": 6243,
    "\u2581cryptacquirecon": 6244,
    "\u25810x4b4": 6245,
    "\u25810x7f5": 6246,
    "d85": 6247,
    "d0000": 6248,
    "\u2581openw": 6249,
    "\u25810x423818": 6250,
    "\u25810x431f20": 6251,
    "e05": 6252,
    "e9c": 6253,
    "\u2581cryptdestroy": 6254,
    "mt": 6255,
    "2c0": 6256,
    "\u25810x77000": 6257,
    "300b": 6258,
    "a5b": 6259,
    "\u25810xc4": 6260,
    "\u2581launch": 6261,
    "\u25810x120f9": 6262,
    "\u25810x42daa2": 6263,
    "\u25810x42daab": 6264,
    "\u25810x42dab4": 6265,
    "\u25810x42dabd": 6266,
    "\u2581202203031": 6267,
    "\u2581getmodulebas": 6268,
    "115": 6269,
    "\u25810x7c90": 6270,
    "\u25810x1211e38": 6271,
    "ab7": 6272,
    "\u25810x4012": 6273,
    "\u25810x4aa0": 6274,
    "atoma": 6275,
    "\u25810x2b4": 6276,
    "\u25810x4c9778": 6277,
    "\u25810x120e6a0": 6278,
    "\u25810x1211ec0": 6279,
    "365": 6280,
    "\u25810x6b9c": 6281,
    "\u25810x1211e40": 6282,
    "\u2581getmodulebasenamew": 6283,
    "\u25810xe1": 6284,
    "\u25810x4106": 6285,
    "\u25810x181b98": 6286,
    "\u25810x563a20": 6287,
    "\u25810xdf": 6288,
    "\u25810x4d0": 6289,
    "\u25810x41db": 6290,
    "\u25810xffd8": 6291,
    "leasecon": 6292,
    "gn": 6293,
    "9b4": 6294,
    "0048": 6295,
    "6e8": 6296,
    "53a0": 6297,
    "aac0": 6298,
    "\u25810x40e9": 6299,
    "c7ffd1ff": 6300,
    "c7ffd1ffca": 6301,
    "top": 6302,
    "\u25810x484": 6303,
    "\u25810x71a1": 6304,
    "\u25810x43501c": 6305,
    "\u25810x43501e": 6306,
    "\u25810x435020": 6307,
    "\u25810x435022": 6308,
    "\u25810x435028": 6309,
    "\u25810x43502a": 6310,
    "\u25810x43502c": 6311,
    "\u25810x43502e": 6312,
    "\u25810x435030": 6313,
    "\u2581findresourc": 6314,
    "\u2581mso97": 6315,
    "valuew": 6316,
    "handler": 6317,
    "releasecon": 6318,
    "releasecontext": 6319,
    "ffcbff": 6320,
    "\u25810x41d1e0": 6321,
    "\u25810x42eab0": 6322,
    "processmemory": 6323,
    "c7ffd1ffcaffcbff": 6324,
    "\u2581b2acb2afcdffceffc7ffd1ffcaffcbff": 6325,
    "a06": 6326,
    "a3c": 6327,
    "blead": 6328,
    "\u2581ismb": 6329,
    "\u25810x414d": 6330,
    "\u25810x7500": 6331,
    "\u25810x513d28": 6332,
    "\u2581ismbblead": 6333,
    "2b8": 6334,
    "790": 6335,
    "2433": 6336,
    "\u25810x40e7": 6337,
    "\u25810x41e218": 6338,
    "\u25810x1211a44": 6339,
    "3de": 6340,
    "\u25810xdc": 6341,
    "\u25810x40d9": 6342,
    "9c9": 6343,
    "b54": 6344,
    "ba4": 6345,
    "\u25810x42a6": 6346,
    "\u2581setenvironmentvariablew": 6347,
    "3e5": 6348,
    "7d8": 6349,
    "ill": 6350,
    "pop": 6351,
    "\u2581getdrivetypea": 6352,
    "354": 6353,
    "\u25810x4b8": 6354,
    "d32": 6355,
    "006c": 6356,
    "\u25810x44c250": 6357,
    "\u25810x1211eac": 6358,
    "adap": 6359,
    "longw": 6360,
    "\u25810x1210e70": 6361,
    "\u2581cryptreleasecontext": 6362,
    "adapters": 6363,
    "\u25810xfeedf0": 6364,
    "\u25810x1211f68": 6365,
    "\u25810xfeee00f3": 6366,
    "658": 6367,
    "dfc": 6368,
    "f6c": 6369,
    "\u25810x7e20": 6370,
    "inmodule": 6371,
    "a34": 6372,
    "f5c": 6373,
    "\u2581vf": 6374,
    "\u25810x44c": 6375,
    "\u25810xfeee00f2": 6376,
    "\u25810x1b5": 6377,
    "\u25810x3f28": 6378,
    "running": 6379,
    "\u25810x40a5b0": 6380,
    "\u25810x40a5b8": 6381,
    "\u2581getadapters": 6382,
    "fa6": 6383,
    "orn": 6384,
    "\u2581regenum": 6385,
    "\u25810xfeee009e": 6386,
    "\u2581doyouwantto": 6387,
    "1ac": 6388,
    "290": 6389,
    "66e": 6390,
    "false": 6391,
    "767": 6392,
    "eac": 6393,
    "\u25810x403": 6394,
    "\u25810x413b": 6395,
    "\u25810x8e90": 6396,
    "\u25810x40a5b4": 6397,
    "\u25810xfffffffe": 6398,
    "d81": 6399,
    "\u25810x5b5": 6400,
    "\u25810x413f": 6401,
    "\u25810x40a5ae": 6402,
    "\u25810x40a5b2": 6403,
    "\u25810x40a5b6": 6404,
    "\u25810x40a5ba": 6405,
    "\u25810x4220": 6406,
    "\u25810x42c020": 6407,
    "\u25810x1210e34": 6408,
    "true": 6409,
    "thash": 6410,
    "allyour": 6411,
    "onexist": 6412,
    "zeroorn": 6413,
    "\u25810x4356": 6414,
    "\u2581istrue": 6415,
    "\u2581isexist": 6416,
    "\u2581isfalse": 6417,
    "\u25810x42c024": 6418,
    "\u25810x42c028": 6419,
    "\u2581iszeroorn": 6420,
    "\u2581openanexplorer": 6421,
    "\u2581iszeroornonexist": 6422,
    "bf4": 6423,
    "f69": 6424,
    "desk": 6425,
    "6d7363": 6426,
    "\u25810x115": 6427,
    "\u25810xe06d7363": 6428,
    "bc7": 6429,
    "\u25810x636": 6430,
    "\u25810x42a4": 6431,
    "00000000": 6432,
    "thashdata": 6433,
    "createhash": 6434,
    "uti": 6435,
    "\u2581pa": 6436,
    "frominternet": 6437,
    "\u2581getfileattributesa": 6438,
    "230": 6439,
    "\u25810xd4": 6440,
    "codeptr": 6441,
    "\u25810x2840": 6442,
    "\u25810x4111d0": 6443,
    "\u2581isbadcodeptr": 6444,
    "eta": 6445,
    "\u25810xfeee00a0": 6446,
    "\u25810x4ed": 6447,
    "\u25810x700": 6448,
    "\u25810x120fb": 6449,
    "\u25810x41af40": 6450,
    "bdc": 6451,
    "\u2581onexit": 6452,
    "\u25810x181c88": 6453,
    "\u25810x439458": 6454,
    "319": 6455,
    "486": 6456,
    "\u25810xffdc": 6457,
    "\u25810x41ae00": 6458,
    "\u2581crypthashdata": 6459,
    "\u2581cryptcreatehash": 6460,
    "\u2581shgetspecialfolder": 6461,
    "b12": 6462,
    "ongle": 6463,
    "\u25810x6f00": 6464,
    "\u25810x181c60": 6465,
    "\u25810x40a020": 6466,
    "\u25810x41ad50": 6467,
    "\u25810x42b070": 6468,
    "\u25810x42eaa6": 6469,
    "\u25810x42eaba": 6470,
    "\u25810x42eac4": 6471,
    "\u25810x76500000": 6472,
    "df4": 6473,
    "\u25810x118": 6474,
    "\u25810x4040": 6475,
    "\u25810x41ac": 6476,
    "\u25810x4370": 6477,
    "16c": 6478,
    "3dc": 6479,
    "dd0": 6480,
    "\u25810x4f5320": 6481,
    "\u25810x1211edc": 6482,
    "imetofiletime": 6483,
    "795": 6484,
    "tem32": 6485,
    "\u25810x160": 6486,
    "\u25810x1211c94": 6487,
    "\u2581findresourceexw": 6488,
    "\u2581cryptdestroyhash": 6489,
    "911": 6490,
    "\u2581aa": 6491,
    "amed": 6492,
    "\u25810x40a7": 6493,
    "\u25810x51a0": 6494,
    "\u25810x46b3b8": 6495,
    "\u25810x7f80": 6496,
    "\u25810x2840284": 6497,
    "ed2": 6498,
    "ual": 6499,
    "\u25810x366": 6500,
    "\u25810x458": 6501,
    "hashparam": 6502,
    "27c": 6503,
    "943": 6504,
    "per": 6505,
    "\u2581stri": 6506,
    "af3": 6507,
    "1740": 6508,
    "ower": 6509,
    "\u25810x431a": 6510,
    "\u25810xffea": 6511,
    "0060": 6512,
    "river": 6513,
    "\u25810x4c50": 6514,
    "540": 6515,
    "\u25810x4912d0": 6516,
    "\u25810x1211e4c": 6517,
    "\u2581cryptgethashparam": 6518,
    "ae2": 6519,
    "tive": 6520,
    "b39": 6521,
    "dfe": 6522,
    "e5c": 6523,
    "\u25810x406c": 6524,
    "\u25810x40c5": 6525,
    "\u25810x409c2c": 6526,
    "7ad": 6527,
    "3cf0": 6528,
    "\u25810x7b7": 6529,
    "\u25810x3810": 6530,
    "\u25810x40af": 6531,
    "\u2581openprocesstoken": 6532,
    "711": 6533,
    "fcc": 6534,
    "\u25810xde": 6535,
    "\u25810x40f5": 6536,
    "pc": 6537,
    "a46": 6538,
    "\u25810x2280": 6539,
    "\u25810x1211f14": 6540,
    "d14": 6541,
    "\u25810x3f29": 6542,
    "\u25810x6d006c": 6543,
    "b74": 6544,
    "e70": 6545,
    "\u25810xb9": 6546,
    "e38": 6547,
    "\u2581please": 6548,
    "\u2581cryptacquirecontexta": 6549,
    "186": 6550,
    "2cc": 6551,
    "\u25810x6f006e": 6552,
    "\u25810x710070": 6553,
    "\u25810x770076": 6554,
    "\u25810x790078": 6555,
    "\u25810x120e688": 6556,
    "f24": 6557,
    "f71": 6558,
    "b006a": 6559,
    "\u25810x455480": 6560,
    "\u25810x690068": 6561,
    "\u25810x6b006a": 6562,
    "\u25810x714d98": 6563,
    "\u25810x730072": 6564,
    "\u25810x750074": 6565,
    "\u25810x7b007a": 6566,
    "\u25810x7d007c": 6567,
    "\u25810x7f007e": 6568,
    "\u2581iswindow": 6569,
    "e90": 6570,
    "\u25810xbcf2": 6571,
    "e64": 6572,
    "uld": 6573,
    "\u2581strcpy": 6574,
    "224": 6575,
    "168": 6576,
    "199": 6577,
    "\u25810x3f75f7c": 6578,
    "312": 6579,
    "\u2581fast": 6580,
    "\u25810x420fe8": 6581,
    "\u2581failedtoopen": 6582,
    "\u2581failedtoopenapplication": 6583,
    "695": 6584,
    "e74": 6585,
    "\u2581failedtoopenapplicationlog": 6586,
    "3b4": 6587,
    "b86": 6588,
    "\u25810x6f6": 6589,
    "\u25810x9028": 6590,
    "\u25810x1211f94": 6591,
    "\u25810x41a9f0": 6592,
    "\u25810x4f6230": 6593,
    "15f": 6594,
    "3c5": 6595,
    "691": 6596,
    "fox": 6597,
    "20000": 6598,
    "\u25810x12000": 6599,
    "\u2581getfull": 6600,
    "\u25810x455468": 6601,
    "5f0": 6602,
    "7540": 6603,
    "icen": 6604,
    "e0000": 6605,
    "\u25810x4041": 6606,
    "558": 6607,
    "998": 6608,
    "b94": 6609,
    "da0": 6610,
    "7c58": 6611,
    "\u2581call": 6612,
    "\u25810x4195": 6613,
    "\u25810x2357b": 6614,
    "\u25810x3010301": 6615,
    "\u25810x40d5": 6616,
    "\u25810x1211ec4": 6617,
    "3b9": 6618,
    "coll": 6619,
    "\u2581for": 6620,
    "\u25810x350": 6621,
    "\u25810x180c": 6622,
    "etofiletime": 6623,
    "\u2581systemtimetofiletime": 6624,
    "214": 6625,
    "\u25810x4bc298": 6626,
    "\u25810x1211e0c": 6627,
    "5bc": 6628,
    "9cc": 6629,
    "\u25810x4529": 6630,
    "2fc": 6631,
    "ea8": 6632,
    "\u25810xec": 6633,
    "\u25810x4a8": 6634,
    "\u2581getexit": 6635,
    "\u25810x1210d90": 6636,
    "\u25810x77000723": 6637,
    "\u2581application": 6638,
    "\u25810x3f75f84": 6639,
    "\u2581shgetfileinfow": 6640,
    "ba9": 6641,
    "fore": 6642,
    "\u25810x47d0": 6643,
    "installed": 6644,
    "\u25810x1211e88": 6645,
    "225": 6646,
    "\u25810xaf": 6647,
    "\u25810x3f75f8c": 6648,
    "initializeex": 6649,
    "\u2581localrealloc": 6650,
    "\u2581coinitializeex": 6651,
    "389": 6652,
    "582": 6653,
    "dialog": 6654,
    "\u25810x9110": 6655,
    "\u25810x6c000": 6656,
    "b56": 6657,
    "c46": 6658,
    "prog": 6659,
    "\u25810x12115bc": 6660,
    "\u2581registerclipboardformata": 6661,
    "dc9": 6662,
    "6564": 6663,
    "\u25810xfeee009f": 6664,
    "su": 6665,
    "d19": 6666,
    "\u25810x970": 6667,
    "\u2581shgetspecialfoldera": 6668,
    "7de": 6669,
    "a68": 6670,
    "f14": 6671,
    "filespec": 6672,
    "\u25810x4e300": 6673,
    "\u25810x1211788": 6674,
    "2a4": 6675,
    "\u25810x10e": 6676,
    "\u25810x40a92e": 6677,
    "\u25810x40a930": 6678,
    "\u25810x40a932": 6679,
    "\u25810x40a934": 6680,
    "\u25810x40a936": 6681,
    "\u25810x40a938": 6682,
    "\u25810x40a93a": 6683,
    "\u25810x40b888": 6684,
    "\u25810x12115d0": 6685,
    "\u2581removefilespec": 6686,
    "796": 6687,
    "f95": 6688,
    "\u2581mei": 6689,
    "pass2": 6690,
    "onsolea": 6691,
    "\u25810x4229c1": 6692,
    "\u2581meipass2": 6693,
    "f54": 6694,
    "f4e4": 6695,
    "767574": 6696,
    "session": 6697,
    "\u25810x4420": 6698,
    "\u25810x12119d0": 6699,
    "\u25810x77767574": 6700,
    "305": 6701,
    "f64": 6702,
    "\u2581mb": 6703,
    "\u25810x407b": 6704,
    "578": 6705,
    "910": 6706,
    "b29": 6707,
    "a7978": 6708,
    "sions": 6709,
    "fileex": 6710,
    "\u2581appdata": 6711,
    "\u25810x410acd": 6712,
    "\u25810x410ace": 6713,
    "\u25810x41e208": 6714,
    "\u25810x7b7a7978": 6715,
    "\u2581removefilespecw": 6716,
    "2ec": 6717,
    "\u2581gettempfilenamew": 6718,
    "945": 6719,
    "\u25810xe4": 6720,
    "\u25810x417c10": 6721,
    "1c8": 6722,
    "7f8": 6723,
    "\u25810x4154": 6724,
    "\u25810x415c": 6725,
    "\u25810x417be0": 6726,
    "\u25813d": 6727,
    "progid": 6728,
    "\u25810x7fc": 6729,
    "\u25810x4315f8": 6730,
    "\u25810x452868": 6731,
    "\u2581dialogbox": 6732,
    "\u2581clsidfromprogid": 6733,
    "\u2581clsidfromstring": 6734,
    "9d1": 6735,
    "ea1": 6736,
    "ee9": 6737,
    "\u25810x154": 6738,
    "\u25810x6ce": 6739,
    "f77": 6740,
    "26160": 6741,
    "\u25810x6b4": 6742,
    "\u25810x429260": 6743,
    "\u25810x4bcc": 6744,
    "\u25810x1211ddc": 6745,
    "1c7": 6746,
    "bed": 6747,
    "\u25810xb4ec": 6748,
    "a9a": 6749,
    "\u25810xf1": 6750,
    "\u25810x7372": 6751,
    "a83": 6752,
    "\u25810x63626160": 6753,
    "\u25810x73727170": 6754,
    "9b6": 6755,
    "a9b": 6756,
    "f3a": 6757,
    "ff5": 6758,
    "\u2581this": 6759,
    "\u25810x6766": 6760,
    "24c": 6761,
    "d12": 6762,
    "ee98": 6763,
    "\u2581fileexistsa": 6764,
    "\u2581writeconsolea": 6765,
    "\u25810xda": 6766,
    "\u25810xe2": 6767,
    "\u25810xe6": 6768,
    "\u25810x4603": 6769,
    "\u25810x7d51": 6770,
    "\u25810x67666564": 6771,
    "2f0": 6772,
    "\u25810x1211d2c": 6773,
    "d01": 6774,
    "a6968": 6775,
    "baa": 6776,
    "da4": 6777,
    "\u2581cal": 6778,
    "\u25810x6700": 6779,
    "\u2581olerun": 6780,
    "\u25810x1733c4": 6781,
    "\u25810x4378c8": 6782,
    "\u25810x1210bd7": 6783,
    "\u25810x12116c0": 6784,
    "\u25810x6b6a6968": 6785,
    "db4": 6786,
    "\u258103t": 6787,
    "\u25810xa710": 6788,
    "\u25810x4bc328": 6789,
    "\u25810x4bc358": 6790,
    "gs": 6791,
    "efc": 6792,
    "0064": 6793,
    "\u25810x4491": 6794,
    "\u25810x4548": 6795,
    "670": 6796,
    "e55": 6797,
    "\u25810x4014": 6798,
    "f06": 6799,
    "e6d6c": 6800,
    "\u2581enable": 6801,
    "\u25810x423baf": 6802,
    "\u25810x423bb0": 6803,
    "\u25810x429920": 6804,
    "2a8": 6805,
    "2ad": 6806,
    "b91": 6807,
    "e20": 6808,
    "\u25810x59c": 6809,
    "\u25810x8e50": 6810,
    "\u25810x433630": 6811,
    "\u25810x6f6e6d6c": 6812,
    "ce9": 6813,
    "7e7d7c": 6814,
    "\u25810x7f7e7d7c": 6815,
    "31c": 6816,
    "3f2": 6817,
    "775": 6818,
    "ab4": 6819,
    "\u25810x44f850": 6820,
    "\u25810x1211e90": 6821,
    "\u2581charprevw": 6822,
    "2de": 6823,
    "37c": 6824,
    "\u25810x40b9": 6825,
    "\u25810x6300": 6826,
    "\u25810x40a540": 6827,
    "\u25810x46b388": 6828,
    "b64": 6829,
    "ups": 6830,
    "\u25810x41de50": 6831,
    "395": 6832,
    "765": 6833,
    "\u25810x9230": 6834,
    "\u25810x44f868": 6835,
    "145": 6836,
    "\u2581cannot": 6837,
    "\u25810x169be": 6838,
    "\u25810x430fec": 6839,
    "\u25810x44f8c8": 6840,
    "\u25810x1211e64": 6841,
    "e98": 6842,
    "\u25810x44f880": 6843,
    "\u25810x44f898": 6844,
    "\u25810x44f8b0": 6845,
    "\u25810xfeee017": 6846,
    "\u2581getmenuitem": 6847,
    "e06": 6848,
    "\u25810x4df": 6849,
    "\u25810x40a544": 6850,
    "\u25810x430db0": 6851,
    "\u25810x44f8f8": 6852,
    "\u25810x44f940": 6853,
    "\u25810x44f958": 6854,
    "\u25810x44f970": 6855,
    "\u25810x44f988": 6856,
    "b008": 6857,
    "\u25810x40a4": 6858,
    "\u25810xa020": 6859,
    "\u25810x40a53a": 6860,
    "\u25810x40a53c": 6861,
    "\u25810x40a53e": 6862,
    "\u25810x40a542": 6863,
    "\u25810x42168c": 6864,
    "lu": 6865,
    "\u258104": 6866,
    "\u25810x7f3": 6867,
    "\u25810x9ab0": 6868,
    "\u25810x40a546": 6869,
    "\u25810x41e93e": 6870,
    "\u25810x41ebfa": 6871,
    "\u25810x41ebfb": 6872,
    "\u25810x42168b": 6873,
    "be4": 6874,
    "fe4": 6875,
    "ache": 6876,
    "\u25810x474": 6877,
    "\u25810xa050": 6878,
    "\u25810x120f7": 6879,
    "sto": 6880,
    "\u25810x4222": 6881,
    "\u25810x47b1": 6882,
    "\u25810x7e50": 6883,
    "666": 6884,
    "9c4": 6885,
    "\u25810x4034": 6886,
    "\u25810xffeb": 6887,
    "\u25810x630062": 6888,
    "\u25810x650064": 6889,
    "\u25810x670066": 6890,
    "f96": 6891,
    "ptr": 6892,
    "ea20": 6893,
    "\u25810x7f1": 6894,
    "\u25810x5619": 6895,
    "\u25810x9630": 6896,
    "\u25810x610060": 6897,
    "\u25810x7ee000": 6898,
    "\u25810x1e0": 6899,
    "\u25810x447": 6900,
    "\u25810x7f8002": 6901,
    "\u25810xfeee00a1": 6902,
    "161": 6903,
    "dee": 6904,
    "\u25810x5188": 6905,
    "\u25810x5627": 6906,
    "\u25810xd27d5": 6907,
    "\u25810x4093e4": 6908,
    "\u25810x430828": 6909,
    "\u25810x44e4b8": 6910,
    "1b5": 6911,
    "307": 6912,
    "3cf8": 6913,
    "\u25810x6781c0": 6914,
    "\u25810x6781f0": 6915,
    "a7c": 6916,
    "\u25810x7f8010": 6917,
    "620": 6918,
    "f47": 6919,
    "\u25810x6a7": 6920,
    "\u25810x7c000": 6921,
    "\u25810x422964": 6922,
    "\u25810xfeee00a2": 6923,
    "bf6": 6924,
    "a526": 6925,
    "\u25810x43f00": 6926,
    "\u25810x41b9f0": 6927,
    "\u25810x4228e1": 6928,
    "\u25810x431068": 6929,
    "\u2581om": 6930,
    "\u2581ext": 6931,
    "60000": 6932,
    "\u25810x40d": 6933,
    "618": 6934,
    "\u25810x7f6": 6935,
    "\u25810x40c7": 6936,
    "\u25810x422980": 6937,
    "a65": 6938,
    "\u25810x40ad": 6939,
    "\u25810x41300b": 6940,
    "3fc": 6941,
    "7d6": 6942,
    "\u2581ts": 6943,
    "secor": 6944,
    "\u25810x4033": 6945,
    "\u2581omsecor": 6946,
    "\u25810x423cf0": 6947,
    "406": 6948,
    "b24": 6949,
    "b9e": 6950,
    "\u25810x40f660": 6951,
    "\u25810x42286e": 6952,
    "\u25810x42286f": 6953,
    "\u25810x4228e2": 6954,
    "\u25810x422963": 6955,
    "\u25810x42297f": 6956,
    "\u25810x4229c2": 6957,
    "\u25810x4229fa": 6958,
    "\u25810x4229fb": 6959,
    "\u25810x422a0d": 6960,
    "\u25810x422a0e": 6961,
    "\u25810x42329e": 6962,
    "\u25810x42329f": 6963,
    "\u25810x4233fc": 6964,
    "\u25810x423cef": 6965,
    "bca": 6966,
    "\u2581zip": 6967,
    "ualfox": 6968,
    "\u25810x4f60": 6969,
    "\u2581memmove": 6970,
    "\u2581getwindowdc": 6971,
    "134": 6972,
    "marta": 6973,
    "\u2581ntmarta": 6974,
    "\u25810x1211180": 6975,
    "\u25810x1211e00": 6976,
    "\u2581getconsolewindow": 6977,
    "beb": 6978,
    "e78": 6979,
    "\u25810x9520": 6980,
    "550": 6981,
    "9a8": 6982,
    "\u2581437": 6983,
    "\u25810x190": 6984,
    "controlset": 6985,
    "\u25810xfeee00f0": 6986,
    "\u2581currentcontrolset": 6987,
    "\u2581ie": 6988,
    "52e8": 6989,
    "egis": 6990,
    "\u25810xc2": 6991,
    "\u25810x7e51": 6992,
    "\u25810x169bd": 6993,
    "\u25810x429903": 6994,
    "685": 6995,
    "edu": 6996,
    "fa5": 6997,
    "ated": 6998,
    "\u25810x429902": 6999,
    "\u25810x42990c": 7000,
    "\u25810x42990d": 7001,
    "\u25810x429921": 7002,
    "235": 7003,
    "cod": 7004,
    "\u2581oem": 7005,
    "\u25810x238": 7006,
    "already": 7007,
    "\u25810x4210": 7008,
    "\u25810x42992a": 7009,
    "\u25810x42992b": 7010,
    "\u2581movefilew": 7011,
    "\u25810xfeee00f5": 7012,
    "\u2581line": 7013,
    "really": 7014,
    "avebeen": 7015,
    "\u2581calloc": 7016,
    "\u2581pleasec": 7017,
    "\u25810x431e28": 7018,
    "\u25810xfeee00a3": 7019,
    "\u2581openanexploreron": 7020,
    "afe": 7021,
    "d35": 7022,
    "\u258150": 7023,
    "\u25810x4444": 7024,
    "\u2581stem32": 7025,
    "\u25810x1211d3c": 7026,
    "\u25810x1211d50": 7027,
    "d91": 7028,
    "e60": 7029,
    "\u25810x4100": 7030,
    "\u25810x44e9": 7031,
    "7c0": 7032,
    "\u25810xfeee00a4": 7033,
    "\u25810xfeee00a5": 7034,
    "3f3": 7035,
    "d17": 7036,
    "da5": 7037,
    "df9": 7038,
    "3e3d": 7039,
    "systemtime": 7040,
    "b26": 7041,
    "\u25810xb4eb": 7042,
    "\u25810xddf1": 7043,
    "\u2581outputdebugstringw": 7044,
    "1d5": 7045,
    "964": 7046,
    "b71": 7047,
    "0050": 7048,
    "\u2581afx": 7049,
    "\u25810x41be": 7050,
    "\u2581vie": 7051,
    "older": 7052,
    "\u25810x4060": 7053,
    "\u25810x9640": 7054,
    "\u25810x431a50": 7055,
    "296": 7056,
    "306": 7057,
    "75a": 7058,
    "ocus": 7059,
    "\u2581lmi": 7060,
    "\u25810x4364": 7061,
    "\u2581registerclipboardformatw": 7062,
    "fig": 7063,
    "2433a": 7064,
    "\u25810xd5": 7065,
    "56c202": 7066,
    "570656": 7067,
    "d0a646": 7068,
    "\u25813a526": 7069,
    "\u25810x4180": 7070,
    "1740d0a646": 7071,
    "56c2022433a": 7072,
    "\u25810xfeee00a6": 7073,
    "\u25813a526570656": 7074,
    "1740d0a64656c2022433a": 7075,
    "\u2581setcurrentdirectoryw": 7076,
    "\u25813a5265706561740d0a64656c2022433a": 7077,
    "686": 7078,
    "\u2581evie": 7079,
    "\u25810x2b2": 7080,
    "\u25810x4238a8": 7081,
    "\u25810x4238d8": 7082,
    "\u25810x53e498": 7083,
    "\u25810x1210e6f": 7084,
    "\u25810x1210e73": 7085,
    "\u25810x1210e74": 7086,
    "\u25810x1210e77": 7087,
    "\u25810x1210e7b": 7088,
    "777": 7089,
    "dc5": 7090,
    "fa1": 7091,
    "sand": 7092,
    "\u2581psc": 7093,
    "\u25810x40f1": 7094,
    "\u25810x8028": 7095,
    "\u2581youmust": 7096,
    "\u25810x1210f66": 7097,
    "\u25810x1210f6a": 7098,
    "3c6": 7099,
    "bb9": 7100,
    "\u25817z6": 7101,
    "\u25810x57c": 7102,
    "\u2581unlock": 7103,
    "1d8": 7104,
    "69d": 7105,
    "70f": 7106,
    "\u258136": 7107,
    "\u2581exp": 7108,
    "\u2581mail": 7109,
    "lientrect": 7110,
    "\u25810x6ba3c8": 7111,
    "\u2581isbadwrite": 7112,
    "\u2581getclientrect": 7113,
    "ba6": 7114,
    "\u2581cli": 7115,
    "atomw": 7116,
    "\u25810x537": 7117,
    "\u2581localfilet": 7118,
    "\u2581localfiletimetofiletime": 7119,
    "f75": 7120,
    "\u25810x567a": 7121,
    "\u25810x169bc9c": 7122,
    "710": 7123,
    "a96": 7124,
    "b66": 7125,
    "row": 7126,
    "ails": 7127,
    "\u25810x112": 7128,
    "\u25810x7ce0": 7129,
    "\u2581isbadwriteptr": 7130,
    "774": 7131,
    "9da": 7132,
    "focus": 7133,
    "274": 7134,
    "\u25810x42c5a0": 7135,
    "\u25810x42c5b8": 7136,
    "\u25810x439440": 7137,
    "138": 7138,
    "645": 7139,
    "\u25810x504": 7140,
    "\u25810x1010": 7141,
    "\u25810x41c6": 7142,
    "\u25810x46a1": 7143,
    "\u25810x413972": 7144,
    "234": 7145,
    "a31": 7146,
    "\u25810x4a80": 7147,
    "\u25810xffc0": 7148,
    "menuitem": 7149,
    "\u25810x42abc0": 7150,
    "\u25810x1211684": 7151,
    "30c": 7152,
    "\u25810x120ee": 7153,
    "\u25810x427": 7154,
    "\u25810x515": 7155,
    "\u25810x4770": 7156,
    "\u25810x4a40": 7157,
    "743": 7158,
    "96c": 7159,
    "propw": 7160,
    "b42": 7161,
    "bf3": 7162,
    "ron": 7163,
    "visible": 7164,
    "\u25810x42c570": 7165,
    "804": 7166,
    "\u2581tsl": 7167,
    "\u25810xffd5": 7168,
    "\u25810x120fe": 7169,
    "\u25810x40935c": 7170,
    "\u25810x4093ec": 7171,
    "\u25810x411218": 7172,
    "2c6": 7173,
    "3f4": 7174,
    "7e9": 7175,
    "\u2581ro": 7176,
    "3130": 7177,
    "\u25810xed": 7178,
    "\u25810xfeee00a7": 7179,
    "a87": 7180,
    "\u25810xfeee00a8": 7181,
    "bd2": 7182,
    "d94": 7183,
    "\u2581884": 7184,
    "kg": 7185,
    "250": 7186,
    "ab5": 7187,
    "d26": 7188,
    "option": 7189,
    "\u25810x423d18": 7190,
    "\u25810x1211e98": 7191,
    "d61": 7192,
    "\u25810x572": 7193,
    "\u25810x40b5": 7194,
    "\u2581globaladd": 7195,
    "\u25810x150": 7196,
    "\u25810x9050": 7197,
    "\u25810xa290": 7198,
    "\u2581session": 7199,
    "\u25810xfeee00a9": 7200,
    "\u2581getthreadtimes": 7201,
    "\u2581createsemaphorea": 7202,
    "\u25810x4966": 7203,
    "\u25810x1211fe4": 7204,
    "\u25810x131aac0": 7205,
    "\u25810xfeee00bc": 7206,
    "a14": 7207,
    "f91": 7208,
    "ookup": 7209,
    "7ee": 7210,
    "\u25810xa950": 7211,
    "\u25810x1210f64": 7212,
    "\u2581formatmessagew": 7213,
    "28c": 7214,
    "3da": 7215,
    "drl66": 7216,
    "\u25810x824": 7217,
    "\u25810x41688a": 7218,
    "\u25810x41688b": 7219,
    "\u2581tsldrl66": 7220,
    "\u25810xfeee00aa": 7221,
    "\u25810xfeee00ae": 7222,
    "b76": 7223,
    "f99": 7224,
    "\u25810x80b": 7225,
    "\u25810x40c4": 7226,
    "\u2581lookup": 7227,
    "\u25810xfeee00ac": 7228,
    "eb5": 7229,
    "ebc": 7230,
    "\u25810x4235": 7231,
    "\u25810xfeee00ab": 7232,
    "2e1": 7233,
    "aa5": 7234,
    "c45": 7235,
    "6808": 7236,
    "\u25810x4066": 7237,
    "\u25810xff87": 7238,
    "\u2581winapp": 7239,
    "\u25810x42e658": 7240,
    "\u25810xfeee00ad": 7241,
    "\u2581findwindoww": 7242,
    "170": 7243,
    "325": 7244,
    "356": 7245,
    "a37": 7246,
    "ethe": 7247,
    "\u25810x604": 7248,
    "\u25810x5040": 7249,
    "201": 7250,
    "d54": 7251,
    "376": 7252,
    "c89": 7253,
    "\u25810x45d1": 7254,
    "\u25810xa030": 7255,
    "\u25810x42e0a8": 7256,
    "\u25810x42e520": 7257,
    "407": 7258,
    "eatom": 7259,
    "\u25810x412e39": 7260,
    "\u25810x413f64": 7261,
    "\u25810x413f65": 7262,
    "\u25810x42c990": 7263,
    "\u25810x42ca48": 7264,
    "\u25810x42e538": 7265,
    "\u25810x42e550": 7266,
    "\u25810x42e568": 7267,
    "\u25810x42e580": 7268,
    "\u25810x42e610": 7269,
    "\u25810x42e628": 7270,
    "\u25810x42e640": 7271,
    "9ac": 7272,
    "\u25810x4e39": 7273,
    "windowshook": 7274,
    "ten": 7275,
    "9c7": 7276,
    "son": 7277,
    "\u2581date": 7278,
    "\u25810x47ee": 7279,
    "\u25810x2d4dd": 7280,
    "\u25810x4012db": 7281,
    "\u25810x42cd78": 7282,
    "\u25810x42ce38": 7283,
    "\u2581myarg1myarg2": 7284,
    "\u2581filetimetosystemtime": 7285,
    "tochar": 7286,
    "\u25810x232": 7287,
    "\u25810x42b7": 7288,
    "\u25810x40300": 7289,
    "\u2581oemtochar": 7290,
    "ba1": 7291,
    "e1c": 7292,
    "e34": 7293,
    "ede": 7294,
    "\u2581xz": 7295,
    "\u25810xf4": 7296,
    "\u25810x426": 7297,
    "\u25810x482854": 7298,
    "\u25810x482870": 7299,
    "6d4": 7300,
    "ae1": 7301,
    "fe5": 7302,
    "formatw": 7303,
    "\u25810x7a40": 7304,
    "510": 7305,
    "a26": 7306,
    "vec": 7307,
    "\u25810x698": 7308,
    "\u25810x4780": 7309,
    "\u25810x42e090": 7310,
    "772": 7311,
    "\u25810x411c": 7312,
    "\u25810x42e0d8": 7313,
    "de08": 7314,
    "630": 7315,
    "b1c": 7316,
    "\u25810x9cf0": 7317,
    "\u25810x420c30": 7318,
    "\u25810xfeee00af": 7319,
    "2b7": 7320,
    "2d8": 7321,
    "remo": 7322,
    "\u25810x420c00": 7323,
    "\u25810x42e0c0": 7324,
    "25c": 7325,
    "\u25810x10005c": 7326,
    "\u25810x413dd6": 7327,
    "\u25810x413dd7": 7328,
    "\u25810x4170f5": 7329,
    "\u25810x4170f6": 7330,
    "\u25810x4179b4": 7331,
    "\u25810x4179b5": 7332,
    "\u25810x4179c5": 7333,
    "\u25810x4179c6": 7334,
    "\u25810x417a43": 7335,
    "\u25810x417a44": 7336,
    "\u25810x417a5b": 7337,
    "\u25810x417a5c": 7338,
    "\u25810x417a9b": 7339,
    "\u25810x417a9c": 7340,
    "\u25810x417aac": 7341,
    "\u25810x417aad": 7342,
    "\u25810x417b1e": 7343,
    "\u25810x417b1f": 7344,
    "\u25810x420c2f": 7345,
    "\u25810x2825ef8": 7346,
    "6c0": 7347,
    "e4f": 7348,
    "ef9": 7349,
    "\u25810x420bf0": 7350,
    "\u25810x420bf1": 7351,
    "\u25810x420c01": 7352,
    "\u25810x420c10": 7353,
    "\u25810x420c11": 7354,
    "\u25810x420c1b": 7355,
    "\u25810x420c1c": 7356,
    "\u25810x420c25": 7357,
    "\u25810x420c26": 7358,
    "\u25810x420c39": 7359,
    "\u25810x420c3a": 7360,
    "\u25810x420c43": 7361,
    "\u25810x420c44": 7362,
    "\u25810x420c50": 7363,
    "\u25810x420c51": 7364,
    "\u25810x42f194": 7365,
    "\u25810xfeee00b0": 7366,
    "\u25810xfeee00b1": 7367,
    "2c1": 7368,
    "3e1": 7369,
    "\u2581fastf": 7370,
    "\u25810x42db": 7371,
    "\u25810x9070": 7372,
    "\u2581ab": 7373,
    "\u2581getdl": 7374,
    "\u25810xffee": 7375,
    "\u25810x1211e8c": 7376,
    "aler": 7377,
    "\u2581cqa": 7378,
    "\u2581scqa": 7379,
    "\u2581pscqa": 7380,
    "\u25810x4522": 7381,
    "\u25810x3b7fb": 7382,
    "111": 7383,
    "641": 7384,
    "7d4": 7385,
    "3534": 7386,
    "\u25810x459": 7387,
    "\u25810x4146": 7388,
    "\u25810x100fd": 7389,
    "ssoftware": 7390,
    "\u25810x416be0": 7391,
    "\u25810x416c10": 7392,
    "\u25810x12119a0": 7393,
    "6c4": 7394,
    "5234": 7395,
    "\u2581std": 7396,
    "quest": 7397,
    "\u25810x1b1": 7398,
    "\u2581fastfail": 7399,
    "\u2581getprivateprofilestringa": 7400,
    "aa1": 7401,
    "ba3": 7402,
    "a4c4": 7403,
    "\u2581164": 7404,
    "\u25810x42e388": 7405,
    "\u25810x431810": 7406,
    "2e2": 7407,
    "\u25810x1fa": 7408,
    "\u25810x1810": 7409,
    "\u25810x92e0": 7410,
    "\u25810xae20": 7411,
    "\u25810x120ce": 7412,
    "\u25810xfeee00b3": 7413,
    "\u2581oemtochara": 7414,
    "754": 7415,
    "f55": 7416,
    "a00000": 7417,
    "\u25810x10b": 7418,
    "\u25810xfeee00b2": 7419,
    "\u25810xfeee00b4": 7420,
    "\u2581getsystemdefault": 7421,
    "586": 7422,
    "713": 7423,
    "b79": 7424,
    "\u25810xd6": 7425,
    "\u25810x41f6": 7426,
    "\u25810xffda": 7427,
    "\u25810x442806": 7428,
    "\u2581regqueryvalueexa": 7429,
    "\u25810x40b1": 7430,
    "\u25810x424d": 7431,
    "\u25810x90c0": 7432,
    "\u25810x409364": 7433,
    "deleteatom": 7434,
    "\u25810x1010101": 7435,
    "\u25810x1211fb0": 7436,
    "\u2581globaldeleteatom": 7437,
    "\u2581lmir": 7438,
    "\u25810x442808": 7439,
    "\u25810xd27d571f": 7440,
    "\u25810xfeee00b5": 7441,
    "668": 7442,
    "955": 7443,
    "af1": 7444,
    "b15": 7445,
    "\u25810x510": 7446,
    "\u2581files": 7447,
    "\u25810x7dfc": 7448,
    "\u2581module": 7449,
    "\u25810x44280a": 7450,
    "\u25810x44280c": 7451,
    "\u25810x44280e": 7452,
    "\u25810x442810": 7453,
    "\u25810x442812": 7454,
    "\u25810x442814": 7455,
    "\u25810x442816": 7456,
    "\u25810x442818": 7457,
    "\u25810x44281a": 7458,
    "\u25810x44281c": 7459,
    "\u25810x44281e": 7460,
    "\u2581dllonexit": 7461,
    "978": 7462,
    "e75": 7463,
    "205": 7464,
    "\u2581tol": 7465,
    "\u2581class": 7466,
    "\u2581wtsapi32": 7467,
    "3a08": 7468,
    "69c0": 7469,
    "scroll": 7470,
    "\u25810x7dfd": 7471,
    "\u2581tolower": 7472,
    "146": 7473,
    "2d9": 7474,
    "2f2": 7475,
    "3e4": 7476,
    "b05": 7477,
    "ea4": 7478,
    "\u2581dl": 7479,
    "\u25810x44e": 7480,
    "705": 7481,
    "dio": 7482,
    "\u25810x6e6": 7483,
    "\u25810x412565": 7484,
    "\u2581comparestringa": 7485,
    "\u2581writeprocessmemory": 7486,
    "212": 7487,
    "7b7": 7488,
    "\u25810xc9": 7489,
    "\u2581task": 7490,
    "l6660d": 7491,
    "\u2581virtu": 7492,
    "\u25810x412566": 7493,
    "\u25810x454bb8": 7494,
    "\u25810xfeee00b7": 7495,
    "\u2581virtuallock": 7496,
    "9a0": 7497,
    "cc6": 7498,
    "99b9": 7499,
    "\u25810xfeee00b8": 7500,
    "\u2581userprofil": 7501,
    "b9c": 7502,
    "be5": 7503,
    "eth": 7504,
    "\u2581meta": 7505,
    "\u25810x40ca": 7506,
    "\u25810x28fd0": 7507,
    "ange": 7508,
    "\u25810x7730": 7509,
    "\u25810x42dfe8": 7510,
    "a12": 7511,
    "\u25810xe7": 7512,
    "\u25810x88c0": 7513,
    "vieworgex": 7514,
    "\u25810x4528b0": 7515,
    "\u25810x483cf8": 7516,
    "\u25810xfeee00b6": 7517,
    "\u25810xfeee00b9": 7518,
    "245": 7519,
    "916": 7520,
    "c85": 7521,
    "f76": 7522,
    "lete": 7523,
    "\u25810x5258": 7524,
    "\u2581conver": 7525,
    "\u2581module32": 7526,
    "drl6660drl6660drl6660drl6660drl6660": 7527,
    "353": 7528,
    "dd3": 7529,
    "paramw": 7530,
    "\u25810x6e7": 7531,
    "\u25810x437b7": 7532,
    "\u25810x437116": 7533,
    "\u25810x437117": 7534,
    "aa6": 7535,
    "\u25810x2d4d": 7536,
    "\u25810x8a44": 7537,
    "\u25810xffdb": 7538,
    "\u25810xfeee00bb": 7539,
    "lot": 7540,
    "\u2581xh": 7541,
    "\u25810x120fd64": 7542,
    "3ea": 7543,
    "004c": 7544,
    "b445": 7545,
    "\u25810x5b2": 7546,
    "\u25810x573c": 7547,
    "\u25810x7e01": 7548,
    "\u25810x43b6e9": 7549,
    "\u25810x10000000": 7550,
    "196": 7551,
    "\u2581stdio": 7552,
    "\u25810x3001": 7553,
    "\u25810x43b6f3": 7554,
    "\u25810xfeee00ba": 7555,
    "1f0": 7556,
    "d06": 7557,
    "block": 7558,
    "\u25810x4720": 7559,
    "\u25810x4c40": 7560,
    "\u25810x714d68": 7561,
    "\u25810x1211e58": 7562,
    "938": 7563,
    "e11": 7564,
    "f79": 7565,
    "llow": 7566,
    "\u25810x5000": 7567,
    "e3d": 7568,
    "\u25810x4908": 7569,
    "\u2581msvcr71": 7570,
    "topwindow": 7571,
    "\u25810x567a88": 7572,
    "500": 7573,
    "a76": 7574,
    "xfr": 7575,
    "copy": 7576,
    "\u25810x80c": 7577,
    "\u25810x423e08": 7578,
    "9e4": 7579,
    "fde": 7580,
    "\u2581ur": 7581,
    "\u2581gum": 7582,
    "\u25810x7e04": 7583,
    "\u25810x2000000": 7584,
    "\u25810xfeee00bd": 7585,
    "760": 7586,
    "e18": 7587,
    "f1c": 7588,
    "gro": 7589,
    "\u25810x7d40": 7590,
    "\u25810x1211f58": 7591,
    "\u25810xfeee00be": 7592,
    "3f5": 7593,
    "7a5": 7594,
    "hell": 7595,
    "\u25810x2f2": 7596,
    "\u25810x4ef": 7597,
    "\u25810x12117c8": 7598,
    "\u25810x6ce0000": 7599,
    "2bc": 7600,
    "785": 7601,
    "f32": 7602,
    "be04": 7603,
    "\u25810x8a45": 7604,
    "\u25810x1211d60": 7605,
    "\u25810xfeee00bf": 7606,
    "\u25810xfeee010b": 7607,
    "aaaaaaaaaaaaaaaa": 7608,
    "126": 7609,
    "2d5": 7610,
    "\u25810xc6": 7611,
    "\u25810xef": 7612,
    "aramet": 7613,
    "\u25810x4a5": 7614,
    "\u25810x1211a4c": 7615,
    "dlg": 7616,
    "\u2581from": 7617,
    "\u25810x53d": 7618,
    "\u25810x4178": 7619,
    "\u25810x9170": 7620,
    "\u25810x1211b38": 7621,
    "quo": 7622,
    "apture": 7623,
    "\u25810x7e05": 7624,
    "\u25810x9850": 7625,
    "\u2581taskbar": 7626,
    "332": 7627,
    "det": 7628,
    "22f8": 7629,
    "\u25810x4070": 7630,
    "\u2581winmain": 7631,
    "\u2581msvcr100": 7632,
    "\u25810x1211878": 7633,
    "\u25810xfeee00c0": 7634,
    "\u25810xfeee00c1": 7635,
    "712": 7636,
    "af6": 7637,
    "4444": 7638,
    "\u25810x4156": 7639,
    "\u25810x4300a8": 7640,
    "\u2581riched20": 7641,
    "\u25810xfeee00d7": 7642,
    "\u2581globalrealloc": 7643,
    "b7e": 7644,
    "e7ec": 7645,
    "software": 7646,
    "\u25810x416264": 7647,
    "\u25810x41e1c0": 7648,
    "\u25810x41f310": 7649,
    "d15": 7650,
    "2838": 7651,
    "lity": 7652,
    "\u25810x4640": 7653,
    "\u25810x4740": 7654,
    "ataddress": 7655,
    "\u25810xd3da80": 7656,
    "\u25810xfeee00c2": 7657,
    "\u2581taskbarcreated": 7658,
    "67f": 7659,
    "3ef0": 7660,
    "e054": 7661,
    "\u25810x7a4": 7662,
    "\u25810x41d0": 7663,
    "\u25810x41d8": 7664,
    "\u25810x491994": 7665,
    "\u25810x4fc2c8": 7666,
    "\u25810xfeee00c3": 7667,
    "\u2581accessviolationataddress": 7668,
    "392": 7669,
    "ea6": 7670,
    "med": 7671,
    "3718": 7672,
    "e100": 7673,
    "\u25810x1104": 7674,
    "\u25810x7e10": 7675,
    "5ac": 7676,
    "\u25810x1814": 7677,
    "\u25810x40000": 7678,
    "\u25810x42c580": 7679,
    "\u25810x120faac": 7680,
    "\u2581enddialog": 7681,
    "\u25810xfeee00c4": 7682,
    "\u2581globalfind": 7683,
    "tsb": 7684,
    "latsb": 7685,
    "\u25810x8640": 7686,
    "\u25810x9600": 7687,
    "\u25810x412541": 7688,
    "\u25810x4130d4": 7689,
    "\u25810x4130d5": 7690,
    "\u25810x42c448": 7691,
    "\u25810x42c460": 7692,
    "\u25810x42c478": 7693,
    "\u25810x42c490": 7694,
    "\u25810x42c4a8": 7695,
    "\u25810x42c4c0": 7696,
    "\u25810x42c538": 7697,
    "\u25810x42c550": 7698,
    "\u25810x42c568": 7699,
    "d3d": 7700,
    "\u25810x40b0": 7701,
    "\u25810x7e90": 7702,
    "\u25810xb4ea": 7703,
    "\u2581metaquo": 7704,
    "nd": 7705,
    "90000": 7706,
    "\u25810x42390": 7707,
    "\u2581dispatchmessagew": 7708,
    "1514": 7709,
    "amedpi": 7710,
    "releas": 7711,
    "\u25810x54500000": 7712,
    "2e4": 7713,
    "5655": 7714,
    "b6b0": 7715,
    "\u25810x3b3": 7716,
    "\u25810x4048": 7717,
    "\u25810x41de00": 7718,
    "\u25810x1f1": 7719,
    "\u25810x4033e6": 7720,
    "\u25810x4093a5": 7721,
    "\u25810x4093a6": 7722,
    "\u25810x4093a7": 7723,
    "\u25810x4093a8": 7724,
    "\u25810x4093a9": 7725,
    "\u25810x4093aa": 7726,
    "\u25810x4093ab": 7727,
    "\u25810x416bc9": 7728,
    "\u25810x41e190": 7729,
    "\u25810xfeee00c6": 7730,
    "xf": 7731,
    "emaphore": 7732,
    "\u25810xfeee00c7": 7733,
    "119": 7734,
    "aa7": 7735,
    "ae4": 7736,
    "b89": 7737,
    "f86": 7738,
    "trace": 7739,
    "\u25810x80000": 7740,
    "\u25810x41f300": 7741,
    "\u25810xfeee00c5": 7742,
    "e30": 7743,
    "\u2581ftp": 7744,
    "\u25810x40b6": 7745,
    "\u25810x416c8c": 7746,
    "\u25810x41f301": 7747,
    "\u2581loadbitmap": 7748,
    "localfiletime": 7749,
    "\u2581filetimetolocalfiletime": 7750,
    "3e2": 7751,
    "ba5": 7752,
    "othe": 7753,
    "\u25811da": 7754,
    "\u25810x5ab": 7755,
    "\u25810x40799b": 7756,
    "\u25810x40799c": 7757,
    "\u25810x412ad5": 7758,
    "\u25810x412f39": 7759,
    "\u25810x412f3a": 7760,
    "\u25810x416263": 7761,
    "\u25810x416b22": 7762,
    "\u25810x416b23": 7763,
    "\u25810x416b33": 7764,
    "\u25810x416b34": 7765,
    "\u25810x416bb1": 7766,
    "\u25810x416bb2": 7767,
    "\u25810x416bca": 7768,
    "\u25810x416c09": 7769,
    "\u25810x416c0a": 7770,
    "\u25810x416c1a": 7771,
    "\u25810x416c1b": 7772,
    "\u25810x416c8d": 7773,
    "\u25810x41f311": 7774,
    "\u25810x41f320": 7775,
    "\u25810x41f321": 7776,
    "\u25810x41f396": 7777,
    "\u25810x41f397": 7778,
    "\u25810x41f3a0": 7779,
    "\u25810x41f3a1": 7780,
    "\u25810x41f3aa": 7781,
    "\u25810x41f3ab": 7782,
    "\u25810x41f3b4": 7783,
    "\u25810x41f3b5": 7784,
    "\u25810x41f3be": 7785,
    "\u25810x41f3bf": 7786,
    "\u25810x41f3d0": 7787,
    "\u25810x41f3d1": 7788,
    "\u25810x42bfb0": 7789,
    "\u25810x42bfc8": 7790,
    "\u25810x42bfe0": 7791,
    "\u25810x42bff8": 7792,
    "\u2581regsetvalueexa": 7793,
    "1a7": 7794,
    "371": 7795,
    "ivq": 7796,
    "before": 7797,
    "\u25810xfeee00c8": 7798,
    "3bc": 7799,
    "lack": 7800,
    "\u2581enter": 7801,
    "\u25810x426d": 7802,
    "\u25810x45d0": 7803,
    "\u25810x7e08": 7804,
    "fication": 7805,
    "\u25810x461548": 7806,
    "\u25810xfeee00ca": 7807,
    "thi": 7808,
    "\u2581sig": 7809,
    "tinue": 7810,
    "\u2581directory": 7811,
    "yourcomputer": 7812,
    "fc1": 7813,
    "rey": 7814,
    "\u25810xee": 7815,
    "dealer": 7816,
    "\u25811days": 7817,
    "ontinue": 7818,
    "\u25810xa980": 7819,
    "catalogs": 7820,
    "havebeen": 7821,
    "\u2581intermed": 7822,
    "allcadwork": 7823,
    "\u25810x169be04": 7824,
    "reallywantto": 7825,
    "bb5": 7826,
    "2524": 7827,
    "cons": 7828,
    "forcadwork": 7829,
    "\u25810x1211f08": 7830,
    "\u25810xfeee00c9": 7831,
    "\u25810xfeee00cb": 7832,
    "a2c": 7833,
    "ab6": 7834,
    "lang": 7835,
    "a5958": 7836,
    "\u25810x1824": 7837,
    "\u25810x8e60": 7838,
    "\u25810x1211f60": 7839,
    "7b5": 7840,
    "ae6": 7841,
    "dbc0": 7842,
    "\u25810x429c": 7843,
    "\u25810x565848": 7844,
    "13d": 7845,
    "219": 7846,
    "\u2581gut": 7847,
    "ultip": 7848,
    "\u25810xc7": 7849,
    "formultip": 7850,
    "445": 7851,
    "\u25810xff50": 7852,
    "\u25810x42a408": 7853,
    "\u25810x1211ea8": 7854,
    "formultipleob": 7855,
    "326": 7856,
    "5c5": 7857,
    "b21": 7858,
    "bb7": 7859,
    "fb5": 7860,
    "fe1": 7861,
    "1110": 7862,
    "\u25810x444": 7863,
    "\u25810x5e9": 7864,
    "\u25810x4820": 7865,
    "ofaddress": 7866,
    "\u25810x40b840": 7867,
    "\u25810x697070": 7868,
    "\u2581ff": 7869,
    "modi": 7870,
    "langid": 7871,
    "\u25810x584": 7872,
    "\u25810x7e09": 7873,
    "9c6": 7874,
    "00248": 7875,
    "datet": 7876,
    "\u25810x288": 7877,
    "\u25810x4521": 7878,
    "\u25810x412715": 7879,
    "\u25810x412716": 7880,
    "\u25810x4217bf": 7881,
    "\u25810x4217c0": 7882,
    "\u25810x1211984": 7883,
    "3f9": 7884,
    "bde": 7885,
    "\u25810x40e4": 7886,
    "\u25810x195000": 7887,
    "\u25810x4189e8": 7888,
    "266": 7889,
    "2ed": 7890,
    "339": 7891,
    "3ed": 7892,
    "905": 7893,
    "dc4": 7894,
    "e31": 7895,
    "e35": 7896,
    "\u25810x108": 7897,
    "isation": 7898,
    "\u25810x40ea": 7899,
    "\u25810x4177b0": 7900,
    "va": 7901,
    "17b": 7902,
    "906": 7903,
    "ce5": 7904,
    "ddc": 7905,
    "our": 7906,
    "e5d5c": 7907,
    "\u25810x40bd": 7908,
    "\u25810x422a": 7909,
    "\u25810xcb008": 7910,
    "\u25810x4540e0": 7911,
    "\u25810x5b5a5958": 7912,
    "\u25810x5f5e5d5c": 7913,
    "\u2581regopenkeya": 7914,
    "681": 7915,
    "\u2581arg": 7916,
    "client": 7917,
    "\u25810x418a18": 7918,
    "\u25810x42a403": 7919,
    "\u25810x42a404": 7920,
    "\u25810x42a405": 7921,
    "\u25810x42a406": 7922,
    "\u25810x42a407": 7923,
    "\u25810x42a409": 7924,
    "\u25810x42a40a": 7925,
    "\u25810x42a40b": 7926,
    "\u25810x42a40c": 7927,
    "\u25810x42a40d": 7928,
    "\u25810x42a40e": 7929,
    "\u25810x42a40f": 7930,
    "\u25810xfeee00cc": 7931,
    "\u2581fileexistsw": 7932,
    "\u2581getcursorpos": 7933,
    "506": 7934,
    "546": 7935,
    "qstring": 7936,
    "\u25810x1818": 7937,
    "\u25810x4108": 7938,
    "\u25810x41de08": 7939,
    "\u25810xfeee00cd": 7940,
    "23d": 7941,
    "2a9": 7942,
    "a71": 7943,
    "bf5": 7944,
    "d46": 7945,
    "\u25810x40b2": 7946,
    "\u25810x40a40": 7947,
    "a25": 7948,
    "fd1": 7949,
    "\u2581ta": 7950,
    "popup": 7951,
    "\u2581fput": 7952,
    "\u25810x457c": 7953,
    "\u2581signal": 7954,
    "\u25810x120f6": 7955,
    "\u25810xfeee00ce": 7956,
    "\u2581getthreadpriority": 7957,
    "d9c": 7958,
    "keya": 7959,
    "\u25810x40c6": 7960,
    "\u25810x40c8": 7961,
    "\u258120220304": 7962,
    "\u25810x1211de8": 7963,
    "\u25810xfeee00cf": 7964,
    "5a7": 7965,
    "\u2581if": 7966,
    "\u25810x43b4": 7967,
    "sessionid": 7968,
    "\u2581lookupprivilege": 7969,
    "wc": 7970,
    "919": 7971,
    "20c0": 7972,
    "\u25810xf9": 7973,
    "\u25810x1828": 7974,
    "\u25810x40400": 7975,
    "\u25810x4cb00": 7976,
    "\u25810x2d4ddc0": 7977,
    "3b1": 7978,
    "1cd8": 7979,
    "teex": 7980,
    "\u25810x9240": 7981,
    "\u25810x4153a0": 7982,
    "\u25810x5265c50": 7983,
    "\u2581getfileex": 7984,
    "3aa": 7985,
    "75c": 7986,
    "e85": 7987,
    "3cd8": 7988,
    "\u25810x798": 7989,
    "\u25810x3820": 7990,
    "\u25810x419638": 7991,
    "\u25810x42d4c0": 7992,
    "\u25810x44ea20": 7993,
    "\u2581getsystemwindows": 7994,
    "2da": 7995,
    "9d0": 7996,
    "d37": 7997,
    "\u25810x9090": 7998,
    "viewextex": 7999,
    "d1b": 8000,
    "d79": 8001,
    "f15": 8002,
    "fb4": 8003,
    "ftime": 8004,
    "isplay": 8005,
    "\u25810xba8": 8006,
    "\u25810x41b1": 8007,
    "usttoken": 8008,
    "\u25810x42d4a8": 8009,
    "\u2581getsystemwindowsdirectoryw": 8010,
    "e2e": 8011,
    "\u25810x240": 8012,
    "\u25810x1848": 8013,
    "\u25810x184c": 8014,
    "\u25810x42d538": 8015,
    "privileges": 8016,
    "\u25810x3820382": 8017,
    "usttokenprivileges": 8018,
    "4cb": 8019,
    "has": 8020,
    "\u25810x532": 8021,
    "visualfox": 8022,
    "\u25810x42d550": 8023,
    "\u25810xfeee00d5": 8024,
    "\u25810xfeee00d6": 8025,
    "aa9": 8026,
    "thec": 8027,
    "\u25810xdb": 8028,
    "\u25810x4b0": 8029,
    "\u25810x4dc": 8030,
    "\u25810x4d80": 8031,
    "\u25810x7e8c": 8032,
    "\u25810xc0000": 8033,
    "\u25810x1211fb4": 8034,
    "\u25810x3810381": 8035,
    "77c": 8036,
    "f94": 8037,
    "\u2581vfp": 8038,
    "a4948": 8039,
    "\u25810x8e70": 8040,
    "\u25810x181bc0": 8041,
    "232": 8042,
    "\u25810x42f1": 8043,
    "\u25810x7398": 8044,
    "addresses": 8045,
    "\u25810x698b8c": 8046,
    "764": 8047,
    "7a4": 8048,
    "912": 8049,
    "a1918": 8050,
    "f4e4d4c": 8051,
    "\u25810x4051": 8052,
    "\u25810x43424": 8053,
    "\u25810x3f22a0": 8054,
    "\u25810x4c50c0": 8055,
    "\u25810x1210f8c": 8056,
    "\u25810x4b4a4948": 8057,
    "\u25810x4f4e4d4c": 8058,
    "visualfoxpro": 8059,
    "b880": 8060,
    "mple": 8061,
    "word": 8062,
    "565554": 8063,
    "\u25810x3332": 8064,
    "\u25810x519dd": 8065,
    "\u25810x51af8": 8066,
    "\u25810x486d18": 8067,
    "\u25810x80c458": 8068,
    "\u25810x57565554": 8069,
    "\u2581getadaptersaddresses": 8070,
    "ea5": 8071,
    "fb6": 8072,
    "xfrm": 8073,
    "ative": 8074,
    "\u25810xc5": 8075,
    "\u2581unget": 8076,
    "\u25810x423a": 8077,
    "\u25810x7e0c": 8078,
    "\u25810x51af1": 8079,
    "\u25810x42d478": 8080,
    "\u25810x42d490": 8081,
    "\u25810x562838": 8082,
    "\u25810x563888": 8083,
    "\u25810x563a08": 8084,
    "\u25810x569b30": 8085,
    "\u2581registerservicectrlhandler": 8086,
    "\u25810x1830": 8087,
    "\u25810x1838": 8088,
    "\u25810x1858": 8089,
    "\u25810x7e0d": 8090,
    "\u25810x42d460": 8091,
    "\u25810x4338a8": 8092,
    "\u25810x2280228": 8093,
    "2e7": 8094,
    "gcc": 8095,
    "3f00": 8096,
    "bea8": 8097,
    "64544": 8098,
    "e1d1c": 8099,
    "3e3d3c": 8100,
    "\u25810x1820": 8101,
    "\u25810x1840": 8102,
    "\u25810x1844": 8103,
    "\u25810x2726": 8104,
    "\u25810x3736": 8105,
    "\u25810xb4e9": 8106,
    "\u2581libgcc": 8107,
    "\u25810x1b25f": 8108,
    "\u25810x4140a1": 8109,
    "\u25810x414c34": 8110,
    "\u25810x414c35": 8111,
    "\u25810x42d448": 8112,
    "\u25810x42d568": 8113,
    "\u25810x42d580": 8114,
    "\u25810x3f3e3d3c": 8115,
    "\u25810x43424140": 8116,
    "\u25810x47464544": 8117,
    "5b4": 8118,
    "a29": 8119,
    "dbd": 8120,
    "\u2581cpp": 8121,
    "\u25810x4151": 8122,
    "b99": 8123,
    "a3938": 8124,
    "e2d2c": 8125,
    "7161514": 8126,
    "\u25810x1834": 8127,
    "\u25810xfff1": 8128,
    "debughook": 8129,
    "\u25810x4353d8": 8130,
    "\u25810x17161514": 8131,
    "\u25810x37363534": 8132,
    "\u2581cppdebughook": 8133,
    "bda": 8134,
    "fc5": 8135,
    "bc08": 8136,
    "22120": 8137,
    "a2928": 8138,
    "\u25810x8d10": 8139,
    "\u2581lcidto": 8140,
    "\u25810x1b1a1918": 8141,
    "\u25810x1f1e1d1c": 8142,
    "\u25810x23222120": 8143,
    "\u25810x2f2e2d2c": 8144,
    "\u25810x33323130": 8145,
    "\u25810x3b3a3938": 8146,
    "installation": 8147,
    "\u2581lcidtolocalename": 8148,
    "3b7": 8149,
    "fbc": 8150,
    "fd5": 8151,
    "b47c": 8152,
    "\u25810x182c": 8153,
    "\u25810x1864": 8154,
    "\u25810x40015f": 8155,
    "\u25810x27262524": 8156,
    "\u25810x2b2a2928": 8157,
    "2d1": 8158,
    "etw": 8159,
    "f9d0": 8160,
    "25150": 8161,
    "\u2581readc": 8162,
    "\u25810x183c": 8163,
    "\u25810x8850": 8164,
    "\u25810x53525150": 8165,
    "\u2581getsystemdefaultuilanguage": 8166,
    "a11": 8167,
    "a95": 8168,
    "f9c": 8169,
    "3c54": 8170,
    "\u2581nar": 8171,
    "uldnot": 8172,
    "\u25810x1fe": 8173,
    "\u25810x1854": 8174,
    "\u25810x185c": 8175,
    "\u25810x186c": 8176,
    "\u2581myarg1": 8177,
    "\u25810x40e500": 8178,
    "\u25810x4285c0": 8179,
    "\u2581cau": 8180,
    "egistry": 8181,
    "\u2581narrow": 8182,
    "\u2581caution": 8183,
    "\u2581stricmp": 8184,
    "tokeninformation": 8185,
    "345": 8186,
    "355": 8187,
    "5c6": 8188,
    "a86": 8189,
    "abc": 8190,
    "cache": 8191,
    "\u25810x1850": 8192,
    "d64": 8193,
    "dfa": 8194,
    "\u25810x452": 8195,
    "\u25810x1868": 8196,
    "\u25810x7e11": 8197,
    "\u25810xfeee00da": 8198,
    "enh": 8199,
    "\u25810x43c": 8200,
    "\u25810x4e2": 8201,
    "\u25810x4f0": 8202,
    "\u25810x448ad0": 8203,
    "ced": 8204,
    "fd2": 8205,
    "\u25810x4c78": 8206,
    "\u25810x1211708": 8207,
    "\u25810x1211dd8": 8208,
    "185": 8209,
    "7c7": 8210,
    "5678": 8211,
    "olcid": 8212,
    "enamet": 8213,
    "\u25810x1878": 8214,
    "\u25810x4059": 8215,
    "\u25810x40938": 8216,
    "\u25810x420f34": 8217,
    "\u25810x12117b0": 8218,
    "\u25810x1211850": 8219,
    "enametolcid": 8220,
    "\u2581localenametolcid": 8221,
    "632": 8222,
    "a72": 8223,
    "bd1": 8224,
    "d1c": 8225,
    "\u25810x71c": 8226,
    "\u25810x7eac": 8227,
    "\u25810x414635": 8228,
    "\u25810x414a99": 8229,
    "\u25810x414a9a": 8230,
    "\u25810x420f16": 8231,
    "\u25810x420f17": 8232,
    "\u25810x420f20": 8233,
    "\u25810x420f21": 8234,
    "\u25810x420f2a": 8235,
    "\u25810x420f2b": 8236,
    "\u25810x420f35": 8237,
    "\u25810x420f3e": 8238,
    "\u25810x420f3f": 8239,
    "\u25810x42cfb0": 8240,
    "\u25810x42cfc8": 8241,
    "\u25810x42cfe0": 8242,
    "\u25810x42cff8": 8243,
    "a05": 8244,
    "ee6": 8245,
    "roniz": 8246,
    "\u25810x1312": 8247,
    "\u25810x8e40": 8248,
    "\u25810xa9d0": 8249,
    "\u25810x1d000": 8250,
    "\u25810x417dc0": 8251,
    "\u25810x417dc1": 8252,
    "\u25810x41867f": 8253,
    "\u25810x418680": 8254,
    "\u25810x418690": 8255,
    "\u25810x418691": 8256,
    "\u25810x41870e": 8257,
    "\u25810x41870f": 8258,
[...]
