{
    "<pad>": 0,
    "<unk>": 1,
    "<mask>": 2,
    "\u25810": 3,
    "\u25810x": 4,
    "00": 5,
    "er": 6,
    "ne": 7,
    "32": 8,
    "\u2581k": 9,
    "l32": 10,
    "erne": 11,
    "ernel32": 12,
    "\u2581kernel32": 13,
    "\u25810x0": 14,
    "et": 15,
    "\u25810x1": 16,
    "al": 17,
    "ee": 18,
    "get": 19,
    "ti": 20,
    "\u25810x4": 21,
    "ec": 22,
    "\u2581get": 23,
    "\u25810xf": 24,
    "in": 25,
    "0000": 26,
    "\u25810x7": 27,
    "ad": 28,
    "oc": 29,
    "re": 30,
    "iti": 31,
    "000": 32,
    "eee": 33,
    "\u25810xfeee": 34,
    "st": 35,
    "ss": 36,
    "tio": 37,
    "pr": 38,
    "proc": 39,
    "\u25810x77": 40,
    "le": 41,
    "ue": 42,
    "cal": 43,
    "sec": 44,
    "\u2581getproc": 45,
    "sectio": 46,
    "riti": 47,
    "ritical": 48,
    "riticalsectio": 49,
    "add": 50,
    "ress": 51,
    "address": 52,
    "\u2581getprocaddress": 53,
    "en": 54,
    "no": 55,
    "val": 56,
    "ls": 57,
    "000000": 58,
    "\u2581no": 59,
    "value": 60,
    "\u2581none": 61,
    "\u25810x12": 62,
    "\u2581in": 63,
    "ecriticalsectio": 64,
    "getvalue": 65,
    "lsgetvalue": 66,
    "loc": 67,
    "\u25810x2": 68,
    "ter": 69,
    "\u25810x77000000": 70,
    "ap": 71,
    "\u25810xfeee000": 72,
    "co": 73,
    "us": 74,
    "\u25810x121": 75,
    "\u25810xfeee00": 76,
    "or": 77,
    "ff": 78,
    "de": 79,
    "\u2581s": 80,
    "\u25810x46": 81,
    "ar": 82,
    "\u25810x1211": 83,
    "a0": 84,
    "an": 85,
    "iz": 86,
    "aliz": 87,
    "nex": 88,
    "itializ": 89,
    "f0": 90,
    "user": 91,
    "\u2581initializ": 92,
    "he": 93,
    "\u2581user": 94,
    "\u2581initializecriticalsectio": 95,
    "\u2581f": 96,
    "\u2581t": 97,
    "48": 98,
    "\u2581user32": 99,
    "43": 100,
    "heap": 101,
    "la": 102,
    "\u2581heap": 103,
    "\u25810x8": 104,
    "at": 105,
    "\u2581c": 106,
    "\u2581en": 107,
    "\u25810xfa0": 108,
    "err": 109,
    "alloc": 110,
    "948": 111,
    "error": 112,
    "\u25810x243": 113,
    "\u25810x243948": 114,
    "\u25810xfeee0001": 115,
    "last": 116,
    "lasterror": 117,
    "po": 118,
    "\u2581l": 119,
    "\u2581tlsgetvalue": 120,
    "dec": 121,
    "poin": 122,
    "str": 123,
    "and": 124,
    "pointer": 125,
    "\u2581initializecriticalsectionex": 126,
    "\u25810x5": 127,
    "\u2581m": 128,
    "depointer": 129,
    "read": 130,
    "is": 131,
    "ow": 132,
    "90": 133,
    "inf": 134,
    "tr": 135,
    "\u2581set": 136,
    "\u25810x1000": 137,
    "\u2581flsgetvalue": 138,
    "ex": 139,
    "\u2581heapalloc": 140,
    "lea": 141,
    "d0": 142,
    "ing": 143,
    "em": 144,
    "har": 145,
    "nt": 146,
    "\u25810x100": 147,
    "00000": 148,
    "\u25810x40": 149,
    "string": 150,
    "\u2581w": 151,
    "\u2581is": 152,
    "\u2581d": 153,
    "li": 154,
    "ac": 155,
    "oad": 156,
    "\u25810x10": 157,
    "\u2581load": 158,
    "fi": 159,
    "it": 160,
    "\u25810x45": 161,
    "ab": 162,
    "\u25810x3": 163,
    "info": 164,
    "ent": 165,
    "10": 166,
    "on": 167,
    "\u2581enco": 168,
    "\u2581encodepointer": 169,
    "ecriticalsection": 170,
    "leav": 171,
    "\u2581leav": 172,
    "\u2581leavecriticalsection": 173,
    "\u2581getlasterror": 174,
    "\u2581enter": 175,
    "criticalsectio": 176,
    "criticalsection": 177,
    "\u2581entercriticalsection": 178,
    "\u2581getc": 179,
    "\u2581setlasterror": 180,
    "e4": 181,
    "hand": 182,
    "local": 183,
    "by": 184,
    "\u25810x45f0": 185,
    "mp": 186,
    "let": 187,
    "\u25810xc": 188,
    "rt": 189,
    "ffff": 190,
    "tion": 191,
    "ess": 192,
    "readp": 193,
    "byt": 194,
    "bad": 195,
    "om": 196,
    "\u25810x41": 197,
    "\u2581isbad": 198,
    "40": 199,
    "readptr": 200,
    "\u2581isbadreadptr": 201,
    "\u25810x46d0": 202,
    "ind": 203,
    "\u25810x400000": 204,
    "\u25810x43": 205,
    "unt": 206,
    "ul": 207,
    "\u25810x78": 208,
    "\u25810x42": 209,
    "count": 210,
    "vi": 211,
    "\u25810x4e4": 212,
    "f8": 213,
    "next": 214,
    "c0": 215,
    "10000": 216,
    "\u2581initializecriticalsection": 217,
    "mo": 218,
    "pinfo": 219,
    "locale": 220,
    "\u2581char": 221,
    "exw": 222,
    "ur": 223,
    "\u25810x6": 224,
    "\u2581charnext": 225,
    "\u25810x46f0": 226,
    "du": 227,
    "indow": 228,
    "handle": 229,
    "70": 230,
    "\u2581loadstring": 231,
    "ed": 232,
    "\u25810xfeee001": 233,
    "20": 234,
    "ll": 235,
    "\u25810x7d": 236,
    "ulti": 237,
    "idec": 238,
    "ultibyt": 239,
    "idechar": 240,
    "yst": 241,
    "dule": 242,
    "module": 243,
    "78": 244,
    "30": 245,
    "\u2581getmodule": 246,
    "ystem": 247,
    "ion": 248,
    "\u2581getcpinfo": 249,
    "50": 250,
    "file": 251,
    "reat": 252,
    "\u2581dec": 253,
    "\u2581ms": 254,
    "\u2581deco": 255,
    "\u2581decodepointer": 256,
    "a5": 257,
    "able": 258,
    "\u25810x7e": 259,
    "\u25810xc000": 260,
    "18": 261,
    "me": 262,
    "\u2581dll": 263,
    "fr": 264,
    "dco": 265,
    "\u2581creat": 266,
    "sp": 267,
    "\u2581getlocale": 268,
    "\u25810xff": 269,
    "\u2581init": 270,
    "process": 271,
    "stat": 272,
    "indows": 273,
    "e0": 274,
    "ans": 275,
    "yp": 276,
    "\u25810x1211f": 277,
    "spin": 278,
    "spincount": 279,
    "andspincount": 280,
    "\u2581initializecriticalsectionandspincount": 281,
    "status": 282,
    "que": 283,
    "\u2581windows": 284,
    "28": 285,
    "atom": 286,
    "\u2581getcpinfoexw": 287,
    "\u25810x243948c": 288,
    "lient": 289,
    "action": 290,
    "table": 291,
    "bc": 292,
    "98": 293,
    "queue": 294,
    "mplet": 295,
    "trans": 296,
    "mpletion": 297,
    "queuedco": 298,
    "mpletionstatus": 299,
    "queuedcompletionstatus": 300,
    "\u2581ddec": 301,
    "\u2581getqueuedcompletionstatus": 302,
    "transaction": 303,
    "\u2581ddeclient": 304,
    "\u2581ddeclienttransaction": 305,
    "atomtable": 306,
    "\u25810x2439480": 307,
    "\u25810x2439484": 308,
    "\u25810x2439488": 309,
    "\u2581initatomtable": 310,
    "60": 311,
    "vc": 312,
    "b0": 313,
    "\u25810x10c": 314,
    "hread": 315,
    "\u2581msvc": 316,
    "d10000": 317,
    "\u25810x77d10000": 318,
    "br": 319,
    "ce": 320,
    "ge": 321,
    "ment": 322,
    "\u2581msvcrt": 323,
    "ary": 324,
    "\u25810x1211c": 325,
    "free": 326,
    "rent": 327,
    "urrent": 328,
    "\u25810xfffff": 329,
    "\u25810x4690": 330,
    "\u25810xfffffff": 331,
    "\u25810x9": 332,
    "id": 333,
    "\u25810x40a5": 334,
    "\u25810xf00": 335,
    "brary": 336,
    "\u25810x770": 337,
    "93": 338,
    "d8": 339,
    "\u2581multibyt": 340,
    "etow": 341,
    "etowidechar": 342,
    "\u2581multibytetowidechar": 343,
    "age": 344,
    "a8": 345,
    "\u2581system": 346,
    "ey": 347,
    "\u2581charnextw": 348,
    "\u25810x1210": 349,
    "\u2581getst": 350,
    "\u2581system32": 351,
    "26": 352,
    "c4": 353,
    "ual": 354,
    "lo": 355,
    "ect": 356,
    "virt": 357,
    "virtual": 358,
    "cc": 359,
    "map": 360,
    "38": 361,
    "infow": 362,
    "lock": 363,
    "\u2581loadstringw": 364,
    "\u2581create": 365,
    "58": 366,
    "un": 367,
    "cmp": 368,
    "var": 369,
    "64": 370,
    "op": 371,
    "ype": 372,
    "library": 373,
    "hi": 374,
    "68": 375,
    "\u2581heapfree": 376,
    "con": 377,
    "\u2581getcurrent": 378,
    "thread": 379,
    "b8": 380,
    "\u2581virtual": 381,
    "filet": 382,
    "\u2581g": 383,
    "\u2581p": 384,
    "\u2581lc": 385,
    "key": 386,
    "ut": 387,
    "\u2581lcmap": 388,
    "\u2581lcmapstring": 389,
    "def": 390,
    "34": 391,
    "7c": 392,
    "\u2581loadstringa": 393,
    "ol": 394,
    "\u25810x70": 395,
    "\u2581charnexta": 396,
    "\u2581mem": 397,
    "\u25810x771": 398,
    "di": 399,
    "\u25810x3f": 400,
    "\u2581re": 401,
    "\u25810xfeee002": 402,
    "fe": 403,
    "qu": 404,
    "handlew": 405,
    "rst": 406,
    "\u2581loadlibrary": 407,
    "api": 408,
    "\u25810x47": 409,
    "open": 410,
    "\u2581memcmp": 411,
    "\u25810x44": 412,
    "\u2581getmodulehandlew": 413,
    "\u2581inter": 414,
    "na": 415,
    "\u25810x41f0": 416,
    "\u25810x41f040": 417,
    "14": 418,
    "\u25810x18": 419,
    "ers": 420,
    "\u2581getlocaleinfow": 421,
    "\u25810x90": 422,
    "\u2581interlock": 423,
    "\u2581getti": 424,
    "\u2581getlocaleinfo": 425,
    "\u25810x78000000": 426,
    "\u25810xa": 427,
    "56": 428,
    "c8": 429,
    "\u2581interlocked": 430,
    "12": 431,
    "\u2581gets": 432,
    "\u2581ex": 433,
    "es": 434,
    "rement": 435,
    "\u25810x4093": 436,
    "ck": 437,
    "ch": 438,
    "ckcount": 439,
    "\u2581gettickcount": 440,
    "d4": 441,
    "94": 442,
    "\u2581getlocaleinfoa": 443,
    "\u25810x5f8": 444,
    "emp": 445,
    "\u25810x5f800000": 446,
    "\u2581co": 447,
    "\u25810xffffffff": 448,
    "orm": 449,
    "mm": 450,
    "rit": 451,
    "tom": 452,
    "ultibyte": 453,
    "\u2581widechar": 454,
    "tomultibyte": 455,
    "\u2581widechartomultibyte": 456,
    "e8": 457,
    "\u25810x20": 458,
    "\u25810xfeee005": 459,
    "vw": 460,
    "rite": 461,
    "abc": 462,
    "\u25810x12117": 463,
    "71": 464,
    "lm": 465,
    "nop": 466,
    "\u25810xfeee004": 467,
    "xy": 468,
    "xyz": 469,
    "\u2581abc": 470,
    "ghi": 471,
    "klm": 472,
    "uvw": 473,
    "qrst": 474,
    "uvwxyz": 475,
    "nopqrst": 476,
    "defghi": 477,
    "nopqrstuvwxyz": 478,
    "\u2581abcdefghi": 479,
    "klmnopqrstuvwxyz": 480,
    "sle": 481,
    "\u25810xfeee008": 482,
    "\u2581read": 483,
    "dbc": 484,
    "quer": 485,
    "name": 486,
    "\u25810x7de": 487,
    "of": 488,
    "\u2581getsystem": 489,
    "\u25810x526": 490,
    "\u2581reg": 491,
    "\u25810xfeee006": 492,
    "up": 493,
    "adbyt": 494,
    "dbcsle": 495,
    "\u2581isdbcsle": 496,
    "\u2581isdbcsleadbyt": 497,
    "\u2581isdbcsleadbyte": 498,
    "wa": 499,
    "\u2581getfilet": 500,
    "\u2581getfiletype": 501,
    "\u25810xfeee003": 502,
    "sset": 503,
    "\u25810xfeee0004": 504,
    "a4": 505,
    "dhandle": 506,
    "art": 507,
    "f4": 508,
    "res": 509,
    "91": 510,
    "\u2581var": 511,
    "\u25810x200": 512,
    "\u25810x1211d": 513,
    "dc": 514,
    "\u25810x79": 515,
    "lsset": 516,
    "lssetvalue": 517,
    "\u2581getstdhandle": 518,
    "rect": 519,
    "74": 520,
    "ron": 521,
    "\u2581getmodulehand": 522,
    "viron": 523,
    "\u25810x80": 524,
    "7b": 525,
    "\u2581getmodulehandlea": 526,
    "\u25811": 527,
    "vironment": 528,
    "75": 529,
    "\u2581fls": 530,
    "\u25810x4610": 531,
    "\u25810x4600": 532,
    "2c": 533,
    "\u2581local": 534,
    "9b": 535,
    "c00000": 536,
    "\u25810x78c00000": 537,
    "da": 538,
    "5c": 539,
    "los": 540,
    "vers": 541,
    "\u2581temp": 542,
    "\u25810x12119": 543,
    "\u2581h": 544,
    "\u25810x7d90": 545,
    "\u25810x77e": 546,
    "fc": 547,
    "\u25810x77e10000": 548,
    "9c": 549,
    "ri": 550,
    "\u25810x4c4": 551,
    "\u25810x400": 552,
    "\u2581a": 553,
    "\u25810x1211e": 554,
    "eco": 555,
    "\u2581se": 556,
    "\u25810x4c": 557,
    "66": 558,
    "oft": 559,
    "\u2581open": 560,
    "filename": 561,
    "\u25810xf001": 562,
    "inc": 563,
    "rector": 564,
    "\u25810xfeee0002": 565,
    "\u2581b": 566,
    "strings": 567,
    "\u25810x88": 568,
    "increment": 569,
    "\u2581interlockedincrement": 570,
    "1c": 571,
    "\u25810x4c42": 572,
    "b4": 573,
    "\u25810x800": 574,
    "\u25810x54": 575,
    "\u2581lcmapstringw": 576,
    "\u25810x104": 577,
    "\u2581getmodulefilename": 578,
    "\u25810x1c": 579,
    "\u2581ap": 580,
    "\u25810xfeee0000": 581,
    "pool": 582,
    "\u2581flssetvalue": 583,
    "\u2581getcurrentthread": 584,
    "mmand": 585,
    "24": 586,
    "line": 587,
    "\u2581getstart": 588,
    "\u25810x48": 589,
    "\u2581getco": 590,
    "ve": 591,
    "mmandline": 592,
    "\u2581fr": 593,
    "window": 594,
    "\u25810xfeee0003": 595,
    "54": 596,
    "\u2581getcommandline": 597,
    "time": 598,
    "\u2581getcurrentthreadid": 599,
    "form": 600,
    "\u25810xcd": 601,
    "eex": 602,
    "\u2581flsalloc": 603,
    "vironmentstrings": 604,
    "96": 605,
    "\u2581lcmapstringex": 606,
    "\u2581virtualalloc": 607,
    "write": 608,
    "80": 609,
    "ation": 610,
    "\u2581ad": 611,
    "ad0": 612,
    "\u25810x7e70": 613,
    "3c": 614,
    "vari": 615,
    "api32": 616,
    "\u25810x8c": 617,
    "arch": 618,
    "\u2581adv": 619,
    "\u2581advapi32": 620,
    "\u25810xfeee007": 621,
    "vironmentstringsw": 622,
    "\u25810x4378": 623,
    "as": 624,
    "\u2581apis": 625,
    "ole": 626,
    "\u2581loadlibrarya": 627,
    "\u25810xfeee0005": 628,
    "\u2581win": 629,
    "\u2581clos": 630,
    "rectory": 631,
    "ware": 632,
    "\u25810x7b": 633,
    "9a": 634,
    "essage": 635,
    "filew": 636,
    "\u2581hkey": 637,
    "\u25810x70cc": 638,
    "ethread": 639,
    "\u2581getprocess": 640,
    "oftware": 641,
    "\u2581de": 642,
    "\u2581software": 643,
    "\u2581getcurrentprocess": 644,
    "f5": 645,
    "\u25810xf003": 646,
    "\u2581page": 647,
    "ai": 648,
    "\u25810xf002": 649,
    "db": 650,
    "\u2581l1": 651,
    "\u25810x56": 652,
    "e6": 653,
    "\u2581lstr": 654,
    "\u2581getprocessheap": 655,
    "\u2581search": 656,
    "\u2581api": 657,
    "\u2581readwrite": 658,
    "\u2581loadlibraryexw": 659,
    "aa": 660,
    "\u2581getvers": 661,
    "f6": 662,
    "list": 663,
    "cep": 664,
    "15": 665,
    "bo": 666,
    "\u2581sl": 667,
    "789": 668,
    "eep": 669,
    "\u2581x": 670,
    "tin": 671,
    "\u2581sleep": 672,
    "query": 673,
    "ic": 674,
    "1000": 675,
    "\u25810x1210e": 676,
    "\u2581localalloc": 677,
    "\u25810x73": 678,
    "\u25812": 679,
    "a2": 680,
    "3d": 681,
    "\u25810x7c": 682,
    "1234": 683,
    "56789": 684,
    "\u258101234": 685,
    "\u25810123456789": 686,
    "\u2581find": 687,
    "a6": 688,
    "\u25810xfff": 689,
    "95": 690,
    "ate": 691,
    "b5": 692,
    "\u25810x14": 693,
    "\u2581current": 694,
    "\u2581li": 695,
    "08": 696,
    "processor": 697,
    "\u2581geten": 698,
    "message": 699,
    "yper": 700,
    "forman": 701,
    "\u2581quer": 702,
    "\u2581queryper": 703,
    "\u2581queryperforman": 704,
    "76": 705,
    "pres": 706,
    "present": 707,
    "92": 708,
    "\u25810x1211c98": 709,
    "type": 710,
    "\u2581core": 711,
    "cons": 712,
    "ception": 713,
    "ction": 714,
    "ob": 715,
    "unter": 716,
    "valid": 717,
    "\u25810xfeee0006": 718,
    "um": 719,
    "ceco": 720,
    "cecounter": 721,
    "\u2581queryperformancecounter": 722,
    "\u25810x12115": 723,
    "f1": 724,
    "\u2581gdi": 725,
    "\u2581ws": 726,
    "\u25810x71": 727,
    "our": 728,
    "\u25810x7890": 729,
    "\u2581virtualquery": 730,
    "ime": 731,
    "d6": 732,
    "exa": 733,
    "ure": 734,
    "88": 735,
    "locales": 736,
    "\u25810x7de0": 737,
    "console": 738,
    "\u25810x8000": 739,
    "ab0": 740,
    "filetime": 741,
    "\u2581getsystemtime": 742,
    "ble": 743,
    "\u2581gdi32": 744,
    "11": 745,
    "ecut": 746,
    "f3": 747,
    "d2": 748,
    "dex": 749,
    "\u25810x8ad0": 750,
    "ature": 751,
    "feature": 752,
    "\u2581isprocessor": 753,
    "featurepresent": 754,
    "\u2581isprocessorfeaturepresent": 755,
    "\u25810x7000": 756,
    "b7": 757,
    "\u2581getstring": 758,
    "e5": 759,
    "\u2581getstringtype": 760,
    "ting": 761,
    "16": 762,
    "\u2581library": 763,
    "b6": 764,
    "from": 765,
    "\u25810xfeee0007": 766,
    "\u2581fi": 767,
    "a9": 768,
    "\u25810x102": 769,
    "icon": 770,
    "\u25810x76": 771,
    "ra": 772,
    "d3": 773,
    "\u25810x1211c18": 774,
    "asfiletime": 775,
    "b2": 776,
    "int": 777,
    "\u2581getstringtypew": 778,
    "\u25810x4670": 779,
    "\u2581getmodulefilenamew": 780,
    "a1": 781,
    "ock": 782,
    "\u25810x75": 783,
    "tim": 784,
    "a3": 785,
    "f9": 786,
    "ecute": 787,
    "ethreadpool": 788,
    "\u25810x7d91": 789,
    "lob": 790,
    "\u2581glob": 791,
    "directory": 792,
    "a7": 793,
    "\u2581locales": 794,
    "\u2581sh": 795,
    "\u25810x7f": 796,
    "\u2581write": 797,
    "hel": 798,
    "\u2581regopen": 799,
    "\u2581regopenkey": 800,
    "36": 801,
    "af": 802,
    "\u25810x4fe": 803,
    "fil": 804,
    "timer": 805,
    "ack": 806,
    "4c": 807,
    "\u2581getconsole": 808,
    "inform": 809,
    "be": 810,
    "\u25810x4c42c0": 811,
    "\u2581getsystemtimeasfiletime": 812,
    "\u25810x30": 813,
    "97": 814,
    "9e": 815,
    "b3": 816,
    "\u2581pf": 817,
    "\u25810x7a": 818,
    "information": 819,
    "dd": 820,
    "\u25810x74": 821,
    "\u2581getac": 822,
    "\u2581delet": 823,
    "\u25810x8a": 824,
    "ource": 825,
    "44": 826,
    "\u25810x69": 827,
    "\u2581regi": 828,
    "upinfow": 829,
    "\u2581getstartupinfow": 830,
    "55": 831,
    "decrement": 832,
    "\u2581interlockeddecrement": 833,
    "\u25810x5266": 834,
    "\u2581getacp": 835,
    "stru": 836,
    "bd": 837,
    "\u2581setfile": 838,
    "\u25810x72": 839,
    "rive": 840,
    "processlist": 841,
    "\u2581getconsoleprocesslist": 842,
    "ervi": 843,
    "eexw": 844,
    "struction": 845,
    "to": 846,
    "dexception": 847,
    "filter": 848,
    "\u25810xe": 849,
    "\u2581getcurrentprocessid": 850,
    "unhandle": 851,
    "dexceptionfilter": 852,
    "unhandledexceptionfilter": 853,
    "py": 854,
    "3000": 855,
    "lus": 856,
    "variable": 857,
    "22": 858,
    "ition": 859,
    "dition": 860,
    "\u25810x120": 861,
    "ae": 862,
    "\u2581invalid": 863,
    "7e": 864,
    "b1": 865,
    "b9": 866,
    "\u25810x16": 867,
    "\u2581lstrle": 868,
    "messagea": 869,
    "d1": 870,
    "\u2581getcommandlinea": 871,
    "onex": 872,
    "\u25810x7e71": 873,
    "\u25810x437": 874,
    "\u2581ac": 875,
    "filea": 876,
    "\u25810xfeee0": 877,
    "\u25810x9000": 878,
    "31": 879,
    "aila": 880,
    "vaila": 881,
    "vailable": 882,
    "\u25810x1211e0": 883,
    "\u2581getcommandlinew": 884,
    "25": 885,
    "3e": 886,
    "\u25810x12116": 887,
    "ant": 888,
    "8c": 889,
    "\u25810x50": 890,
    "eeen": 891,
    "\u2581freeen": 892,
    "fd": 893,
    "\u2581available": 894,
    "\u25810x4d": 895,
    "2000": 896,
    "upinfo": 897,
    "\u2581getstartupinfo": 898,
    "\u2581getstartupinfoa": 899,
    "\u25810x8810": 900,
    "\u2581wa": 901,
    "27": 902,
    "sc": 903,
    "ionex": 904,
    "\u2581getversionex": 905,
    "\u25810xd": 906,
    "eric": 907,
    "\u25810x220": 908,
    "\u2581instruction": 909,
    "i64": 910,
    "handl": 911,
    "\u2581instructions": 912,
    "\u25810x42c": 913,
    "\u2581xmm": 914,
    "\u2581xmmi64": 915,
    "\u2581setunhandledexceptionfilter": 916,
    "dll": 917,
    "35": 918,
    "ot": 919,
    "\u25810x1210f": 920,
    "f10000": 921,
    "\u2581execute": 922,
    "\u2581creates": 923,
    "\u2581free": 924,
    "99": 925,
    "\u25810x77f10000": 926,
    "utes": 927,
    "\u2581getenvironmentstringsw": 928,
    "gu": 929,
    "\u2581freeenvironmentstringsw": 930,
    "ehandle": 931,
    "ber": 932,
    "\u25810x47b0": 933,
    "\u25810x69000000": 934,
    "\u2581closehandle": 935,
    "\u2581getmodulefilenamea": 936,
    "6c": 937,
    "tri": 938,
    "\u25810x4c43": 939,
    "\u2581createfilew": 940,
    "\u2581global": 941,
    "ys": 942,
    "\u25810xb": 943,
    "7d": 944,
    "\u2581regist": 945,
    "84": 946,
    "\u2581r": 947,
    "1e": 948,
    "\u25810x435": 949,
    "\u25810xfffffff6": 950,
    "threadpool": 951,
    "\u2581gett": 952,
    "\u25810x7ec": 953,
    "\u2581getfile": 954,
    "\u2581map": 955,
    "rw": 956,
    "\u25810xfffffff5": 957,
    "\u25810xfffffff4": 958,
    "2e": 959,
    "ult": 960,
    "\u25810xffc": 961,
    "bb": 962,
    "\u2581gen": 963,
    "f7": 964,
    "defa": 965,
    "default": 966,
    "fa": 967,
    "\u2581getthread": 968,
    "\u2581generic": 969,
    "\u25810x1211b": 970,
    "\u25810x4ab0": 971,
    "dep": 972,
    "9d": 973,
    "boar": 974,
    "\u2581shel": 975,
    "\u25810x4750": 976,
    "\u25810x4e": 977,
    "\u2581key": 978,
    "\u25810x5265c": 979,
    "9000": 980,
    "wait": 981,
    "\u2581process": 982,
    "ity": 983,
    "17": 984,
    "num": 985,
    "a80": 986,
    "\u25810x13": 987,
    "creat": 988,
    "lor": 989,
    "ervice": 990,
    "\u25810x1211dc0": 991,
    "directoryw": 992,
    "f2": 993,
    "\u25810x4b": 994,
    "\u2581drive": 995,
    "hine": 996,
    "\u2581mac": 997,
    "\u25810x4feb": 998,
    "\u2581machine": 999,
    "urs": 1000,
    "all": 1001,
    "\u25810x58": 1002,
    "print": 1003,
    "ro": 1004,
    "e7": 1005,
    "rwlock": 1006,
    "d5": 1007,
    "\u25810x51": 1008,
    "edi": 1009,
    "cess": 1010,
    "\u25810x33": 1011,
    "ditionvariable": 1012,
    "\u25810x7de1": 1013,
    "\u2581bor": 1014,
    "first": 1015,
    "ating": 1016,
    "\u25810x32": 1017,
    "fb": 1018,
    "00c": 1019,
    "bu": 1020,
    "version": 1021,
    "f000": 1022,
    "dr": 1023,
    "\u2581register": 1024,
    "date": 1025,
    "106": 1026,
    "\u2581process32": 1027,
    "\u2581regopenkeyexw": 1028,
    "create": 1029,
    "37": 1030,
    "color": 1031,
    "\u25810x1211e04": 1032,
    "\u2581borl": 1033,
    "e1": 1034,
    "\u25810x8d": 1035,
    "lass": 1036,
    "keyw": 1037,
    "\u25810x2a": 1038,
    "\u25810x416": 1039,
    "day": 1040,
    "\u2581borland": 1041,
    "vali": 1042,
    "\u2581getuser": 1043,
    "end": 1044,
    "set": 1045,
    "\u25810x12116d8": 1046,
    "\u25810x3000": 1047,
    "validco": 1048,
    "\u2581str": 1049,
    "net": 1050,
    "\u25810x4350": 1051,
    "depage": 1052,
    "\u25810xfeee0008": 1053,
    "\u2581isvalidco": 1054,
    "\u2581isvalidcodepage": 1055,
    "\u25810x34": 1056,
    "l66": 1057,
    "mpa": 1058,
    "\u25810x1211918": 1059,
    "\u2581exit": 1060,
    "board": 1061,
    "\u2581tr": 1062,
    "cec": 1063,
    "\u2581i": 1064,
    "\u2581mapvirtual": 1065,
    "\u2581mapvirtualkeyw": 1066,
    "\u2581getversion": 1067,
    "a000": 1068,
    "gi": 1069,
    "\u25810x82": 1070,
    "\u25810xfeee0009": 1071,
    "nw": 1072,
    "\u2581gettemp": 1073,
    "72": 1074,
    "fromstr": 1075,
    "b000": 1076,
    "908": 1077,
    "\u25810xfeee000a": 1078,
    "\u25810xfeee000b": 1079,
    "l6660": 1080,
    "\u25810xfeee000c": 1081,
    "\u25810x7f8": 1082,
    "ork": 1083,
    "led": 1084,
    "met": 1085,
    "lic": 1086,
    "ive": 1087,
    "pt": 1088,
    "\u25810xfeee000d": 1089,
    "\u25810xfeee000e": 1090,
    "\u25810xfeee0014": 1091,
    "3f": 1092,
    "leas": 1093,
    "\u25810xfeee000f": 1094,
    "\u2581access": 1095,
    "508": 1096,
    "\u25810x50000": 1097,
    "79": 1098,
    "clus": 1099,
    "cs": 1100,
    "\u25810x1211c7c": 1101,
    "clusive": 1102,
    "rwlockex": 1103,
    "rwlockexclusive": 1104,
    "\u25810xfeee0010": 1105,
    "aps": 1106,
    "\u25810xfeee0015": 1107,
    "\u25810xfeee0013": 1108,
    "\u25810xfeee0012": 1109,
    "for": 1110,
    "\u25810xfeee0016": 1111,
    "\u25810xfeee0011": 1112,
    "ursor": 1113,
    "\u2581delete": 1114,
    "\u25810x4a": 1115,
    "urity": 1116,
    "\u25810x43b": 1117,
    "\u2581heapcreate": 1118,
    "\u2581freelibrary": 1119,
    "\u25810x8b": 1120,
    "yn": 1121,
    "ee0": 1122,
    "db10": 1123,
    "security": 1124,
    "\u25810x7e8": 1125,
    "attri": 1126,
    "\u2581getthreadlocale": 1127,
    "attrib": 1128,
    "il": 1129,
    "drl6660": 1130,
    "work": 1131,
    "lose": 1132,
    "\u2581tls": 1133,
    "eb": 1134,
    "\u25810x1211758": 1135,
    "\u25810x4c4308": 1136,
    "63": 1137,
    "attributes": 1138,
    "loating": 1139,
    "51": 1140,
    "ynch": 1141,
    "\u2581o": 1142,
    "ailed": 1143,
    "close": 1144,
    "\u2581createdi": 1145,
    "db10106": 1146,
    "\u25810x1db10106": 1147,
    "men": 1148,
    "\u2581synch": 1149,
    "qui": 1150,
    "42": 1151,
    "cursor": 1152,
    "77": 1153,
    "\u25810x49": 1154,
    "\u25810x11": 1155,
    "\u2581closethreadpool": 1156,
    "\u2581createthreadpool": 1157,
    "a40": 1158,
    "\u2581al": 1159,
    "\u2581st": 1160,
    "bers": 1161,
    "term": 1162,
    "\u25810xfeee0017": 1163,
    "lip": 1164,
    "\u25810xfeee0018": 1165,
    "\u25810x4f": 1166,
    "menu": 1167,
    "mode": 1168,
    "edc": 1169,
    "\u25810xfeee0019": 1170,
    "41": 1171,
    "\u25810x12114": 1172,
    "5e": 1173,
    "\u2581loadcursor": 1174,
    "\u25817": 1175,
    "drl6660drl6660": 1176,
    "eg": 1177,
    "printf": 1178,
    "\u2581loadicon": 1179,
    "\u25810xf0019": 1180,
    "9f": 1181,
    "class": 1182,
    "ba": 1183,
    "\u2581releas": 1184,
    "\u25810x410": 1185,
    "280": 1186,
    "\u2581writefile": 1187,
    "21": 1188,
    "\u25810x437b": 1189,
    "\u2581tlssetvalue": 1190,
    "\u2581setfilepointer": 1191,
    "resource": 1192,
    "\u2581nt": 1193,
    "\u2581flsfree": 1194,
    "\u2581tlsalloc": 1195,
    "call": 1196,
    "33": 1197,
    "\u25810xfeee001a": 1198,
    "ecount": 1199,
    "\u25810x2c": 1200,
    "erw": 1201,
    "\u25810x1211c90": 1202,
    "point": 1203,
    "\u25810x105": 1204,
    "\u25810x4000": 1205,
    "soft": 1206,
    "handlecount": 1207,
    "quires": 1208,
    "\u2581sethandlecount": 1209,
    "esource": 1210,
    "quiresrwlockexclusive": 1211,
    "off": 1212,
    "cpy": 1213,
    "\u25810x169b": 1214,
    "5000": 1215,
    "scri": 1216,
    "ext": 1217,
    "ies": 1218,
    "back": 1219,
    "\u25810xfeee001c": 1220,
    "script": 1221,
    "raw": 1222,
    "\u2581lstrlenw": 1223,
    "\u2581crt": 1224,
    "ile": 1225,
    "number": 1226,
    "\u25810xfeee001d": 1227,
    "\u2581readfile": 1228,
    "scriptor": 1229,
    "descriptor": 1230,
    "bf": 1231,
    "securitydescriptor": 1232,
    "low": 1233,
    "\u25810x7f800": 1234,
    "\u2581wnet": 1235,
    "offile": 1236,
    "dater": 1237,
    "\u25810x5265c14": 1238,
    "icro": 1239,
    "icrosoft": 1240,
    "olf": 1241,
    "\u25810xfeee001b": 1242,
    "\u25810x28": 1243,
    "19": 1244,
    "und": 1245,
    "ith": 1246,
    "\u25810x1e": 1247,
    "\u25810x3394": 1248,
    "04": 1249,
    "ub": 1250,
    "econ": 1251,
    "5d": 1252,
    "\u25810x7700": 1253,
    "308": 1254,
    "isting": 1255,
    "23": 1256,
    "\u2581microsoft": 1257,
    "callback": 1258,
    "ame": 1259,
    "dateresource": 1260,
    "\u25810x1211728": 1261,
    "\u2581setthreadpool": 1262,
    "\u2581shell32": 1263,
    "\u25810x3f30": 1264,
    "780": 1265,
    "\u2581exitprocess": 1266,
    "\u2581wait": 1267,
    "ero": 1268,
    "\u2581floating": 1269,
    "\u25810x7910": 1270,
    "\u2581existing": 1271,
    "\u25810x44f8": 1272,
    "\u25810x64": 1273,
    "c6": 1274,
    "ver": 1275,
    "\u2581failed": 1276,
    "c08": 1277,
    "\u25810x7f00": 1278,
    "realloc": 1279,
    "\u25810x7810": 1280,
    "\u25810xfeee001e": 1281,
    "not": 1282,
    "\u2581pr": 1283,
    "rectories": 1284,
    "\u2581setmenu": 1285,
    "\u2581lstrlena": 1286,
    "\u2581getversionexw": 1287,
    "5f": 1288,
    "inp": 1289,
    "\u25810x7930": 1290,
    "ke": 1291,
    "directories": 1292,
    "\u25810xa0": 1293,
    "ata": 1294,
    "e2": 1295,
    "\u25810x1211528": 1296,
    "1a": 1297,
    "\u25810x198": 1298,
    "e9": 1299,
    "\u2581setdefault": 1300,
    "\u25810x1211908": 1301,
    "conne": 1302,
    "\u2581getenvironment": 1303,
    "dlldirectories": 1304,
    "\u2581setdefaultdlldirectories": 1305,
    "\u2581createdirectory": 1306,
    "\u2581waitfor": 1307,
    "\u2581vari": 1308,
    "\u2581setmenuinfo": 1309,
    "angu": 1310,
    "de9": 1311,
    "variab": 1312,
    "anguage": 1313,
    "df": 1314,
    "een": 1315,
    "\u25810x19": 1316,
    "\u25810x19a": 1317,
    "\u25810x422": 1318,
    "\u25810x12114b8": 1319,
    "\u2581ini": 1320,
    "\u2581fibers": 1321,
    "eek": 1322,
    "\u2581getsystemdirectoryw": 1323,
    "ilanguage": 1324,
    "vie": 1325,
    "1f": 1326,
    "initializ": 1327,
    "\u25810x1211718": 1328,
    "lect": 1329,
    "\u2581gettempw": 1330,
    "\u2581beg": 1331,
    "\u2581virtualfree": 1332,
    "\u25810xfeee001f": 1333,
    "gical": 1334,
    "logical": 1335,
    "\u2581getlogical": 1336,
    "service": 1337,
    "\u25810x569b": 1338,
    "\u25810xfeee0020": 1339,
    "\u2581golf": 1340,
    "\u25810x1075": 1341,
    "flow": 1342,
    "lipboard": 1343,
    "\u2581currentversion": 1344,
    "\u25810x1211cf8": 1345,
    "1d": 1346,
    "\u25817z": 1347,
    "45": 1348,
    "\u25810x99": 1349,
    "\u25810x7ee": 1350,
    "\u2581heaprealloc": 1351,
    "1b": 1352,
    "ename": 1353,
    "\u2581select": 1354,
    "\u25810x7830": 1355,
    "\u25810x420": 1356,
    "ho": 1357,
    "\u25810x43b7b": 1358,
    "\u25810x429": 1359,
    "\u25810x8a40": 1360,
    "2d": 1361,
    "\u2581process32next": 1362,
    "informationby": 1363,
    "220": 1364,
    "\u25810x1f4": 1365,
    "conditionvariable": 1366,
    "\u25810x40a5ce": 1367,
    "\u25810x40a5d0": 1368,
    "\u25810x40a5d2": 1369,
    "\u25810x40a5d4": 1370,
    "\u25810x40a5d6": 1371,
    "\u25810x40a5d8": 1372,
    "\u25810x40a5da": 1373,
    "\u25810x2000": 1374,
    "metri": 1375,
    "metrics": 1376,
    "\u258120": 1377,
    "\u25810x1211748": 1378,
    "prot": 1379,
    "bit": 1380,
    "\u25810x38": 1381,
    "\u25810x418": 1382,
    "ag": 1383,
    "\u25810x4371": 1384,
    "\u25810x79f0": 1385,
    "oy": 1386,
    "format": 1387,
    "\u25810x700c": 1388,
    "\u25810xfde9": 1389,
    "\u2581getdc": 1390,
    "\u2581getsystemmetrics": 1391,
    "\u2581findfirst": 1392,
    "\u2581regopenkeyexa": 1393,
    "\u25810xfeee0071": 1394,
    "\u2581up": 1395,
    "\u25810x1211948": 1396,
    "printfw": 1397,
    "\u2581wsprintfw": 1398,
    "7000": 1399,
    "ock32": 1400,
    "\u2581wsock32": 1401,
    "\u2581registerclass": 1402,
    "\u25810x7850": 1403,
    "ed8": 1404,
    "\u2581lread": 1405,
    "\u2581strn": 1406,
    "protect": 1407,
    "yscolor": 1408,
    "\u2581getsyscolor": 1409,
    "\u25810x21000": 1410,
    "\u25810x17": 1411,
    "\u25810x84": 1412,
    "trac": 1413,
    "6d": 1414,
    "\u25810x704c": 1415,
    "\u2581virtualprotect": 1416,
    "\u25810x708c": 1417,
    "180": 1418,
    "\u25810x1f400": 1419,
    "\u2581ole": 1420,
    "\u2581th": 1421,
    "\u25810xa000": 1422,
    "\u2581try": 1423,
    "view": 1424,
    "73": 1425,
    "ocket": 1426,
    "ef": 1427,
    "\u25810x2e": 1428,
    "\u25810x9c": 1429,
    "sub": 1430,
    "\u2581findclose": 1431,
    "emap": 1432,
    "\u2581tryac": 1433,
    "\u2581strncmp": 1434,
    "\u2581tryacquiresrwlockexclusive": 1435,
    "\u2581compa": 1436,
    "\u2581compare": 1437,
    "\u25810x8f": 1438,
    "ryp": 1439,
    "\u25810x43780": 1440,
    "\u25810x53": 1441,
    "\u2581ch": 1442,
    "\u25810x1211958": 1443,
    "attributesw": 1444,
    "ea": 1445,
    "ision": 1446,
    "\u25810x7ec0": 1447,
    "\u2581lstrcpy": 1448,
    "aint": 1449,
    "\u25810x3f75": 1450,
    "\u2581comparestring": 1451,
    "\u2581extrac": 1452,
    "\u25810x678": 1453,
    "xt": 1454,
    "\u2581peek": 1455,
    "\u25810x40a": 1456,
    "46": 1457,
    "\u25810x4630": 1458,
    "\u25810xfeee01": 1459,
    "\u25810x4feba8": 1460,
    "ont": 1461,
    "\u25810xfeee008b": 1462,
    "lush": 1463,
    "\u25810x1211f8": 1464,
    "\u25810x60": 1465,
    "\u25810x98": 1466,
    "\u25810x67": 1467,
    "2b": 1468,
    "86": 1469,
    "\u25810x12118": 1470,
    "\u2581createfilea": 1471,
    "ockob": 1472,
    "\u2581getstockob": 1473,
    "\u2581createsemap": 1474,
    "\u25810x8cc0": 1475,
    "\u2581file": 1476,
    "dateresourcea": 1477,
    "localename": 1478,
    "967": 1479,
    "\u25810x7718": 1480,
    "\u25810x8af0": 1481,
    "mem": 1482,
    "\u2581setup": 1483,
    "\u2581with": 1484,
    "\u2581code": 1485,
    "\u25810x1211e2c": 1486,
    "\u2581peekmessagea": 1487,
    "ct": 1488,
    "buff": 1489,
    "tered": 1490,
    "\u2581altered": 1491,
    "rypt": 1492,
    "windowexa": 1493,
    "\u25810x1f": 1494,
    "gear": 1495,
    "\u2581codegear": 1496,
    "\u25810x423": 1497,
    "\u25810x41bc": 1498,
    "trl": 1499,
    "\u25810x1a": 1500,
    "isp": 1501,
    "\u2581globalalloc": 1502,
    "help": 1503,
    "\u25810x44f9": 1504,
    "ay": 1505,
    "div": 1506,
    "og": 1507,
    "\u2581crypt": 1508,
    "oct": 1509,
    "ors": 1510,
    "\u25810x1211dcc": 1511,
    "oper": 1512,
    "ett": 1513,
    "pal": 1514,
    "palett": 1515,
    "\u25810x5f5": 1516,
    "\u2581initializes": 1517,
    "480": 1518,
    "d9": 1519,
    "formatex": 1520,
    "400": 1521,
    "directorya": 1522,
    "\u25810xfeee005f": 1523,
    "\u2581flush": 1524,
    "\u25810x4967": 1525,
    "devi": 1526,
    "lin": 1527,
    "\u2581variant": 1528,
    "\u25810x46b0": 1529,
    "\u25810x569b00": 1530,
    "300": 1531,
    "fo": 1532,
    "ember": 1533,
    "\u25810x43b7": 1534,
    "\u2581rt": 1535,
    "variant": 1536,
    "0000000": 1537,
    "\u25810x42d3": 1538,
    "13": 1539,
    "770": 1540,
    "eto": 1541,
    "\u25810xfeee0027": 1542,
    "\u2581getdevi": 1543,
    "\u25810x7710": 1544,
    "cecaps": 1545,
    "\u2581getdevicecaps": 1546,
    "operation": 1547,
    "\u25810x1211d0": 1548,
    "\u2581copy": 1549,
    "52": 1550,
    "buffers": 1551,
    "\u25810xfeee0026": 1552,
    "\u25810xfeee0021": 1553,
    "\u25810xfeee0022": 1554,
    "\u2581e": 1555,
    "atch": 1556,
    "a256": 1557,
    "verflow": 1558,
    "320": 1559,
    "\u25810xfeee0023": 1560,
    "\u25810xfeee0024": 1561,
    "emut": 1562,
    "iv": 1563,
    "\u25810xfeee0025": 1564,
    "4d": 1565,
    "\u25810x21": 1566,
    "\u25810x9a": 1567,
    "\u2581sha256": 1568,
    "text": 1569,
    "e3": 1570,
    "\u2581error": 1571,
    "\u25810x12119c0": 1572,
    "\u2581start": 1573,
    "\u2581wake": 1574,
    "bstr": 1575,
    "bstrfrom": 1576,
    "\u2581varbstrfrom": 1577,
    "\u2581wakeall": 1578,
    "\u2581wakeallconditionvariable": 1579,
    "dac": 1580,
    "ass": 1581,
    "allock": 1582,
    "\u25810x22": 1583,
    "\u25810x1211f64": 1584,
    "\u25810x2f": 1585,
    "588": 1586,
    "\u25810x94": 1587,
    "1d8": 1588,
    "53": 1589,
    "\u25810x7aa0": 1590,
    "\u25810x68": 1591,
    "\u25810x1211f7c": 1592,
    "\u2581loadcursora": 1593,
    "lp": 1594,
    "ns": 1595,
    "900": 1596,
    "\u25810x4238": 1597,
    "\u2581createprocess": 1598,
    "\u25810x8e": 1599,
    "\u2581wc": 1600,
    "\u2581getversionexa": 1601,
    "\u25810x460": 1602,
    "\u2581loadicona": 1603,
    "stroy": 1604,
    "\u2581initterm": 1605,
    "c2": 1606,
    "\u25810x79d0": 1607,
    "ispatch": 1608,
    "bug": 1609,
    "eck": 1610,
    "\u25813": 1611,
    "chan": 1612,
    "\u2581draw": 1613,
    "e80": 1614,
    "\u25810xfeee0028": 1615,
    "\u25810x3c": 1616,
    "\u25810x101": 1617,
    "\u25810x85": 1618,
    "clipboard": 1619,
    "contr": 1620,
    "ory": 1621,
    "\u2581send": 1622,
    "\u2581txt": 1623,
    "\u25810x430": 1624,
    "\u2581golfinfo": 1625,
    "drive": 1626,
    "lex": 1627,
    "\u25810x1211fd8": 1628,
    "\u2581findfirstfilew": 1629,
    "\u25810x25": 1630,
    "\u25810x15": 1631,
    "29": 1632,
    "econditionvariable": 1633,
    "variablew": 1634,
    "\u25810x428": 1635,
    "\u25810x97": 1636,
    "debug": 1637,
    "hot": 1638,
    "ton": 1639,
    "\u25810x1211dd4": 1640,
    "\u25810x7ad0": 1641,
    "\u2581globallock": 1642,
    "viewoffile": 1643,
    "\u25810x1211780": 1644,
    "\u25810x1211fd0": 1645,
    "\u25810x8811": 1646,
    "sti": 1647,
    "link": 1648,
    "\u2581createa": 1649,
    "c04": 1650,
    "c5": 1651,
    "\u25810xa9": 1652,
    "\u2581deletecriticalsection": 1653,
    "61": 1654,
    "condition": 1655,
    "hor": 1656,
    "22030": 1657,
    "\u2581exe": 1658,
    "\u25812022030": 1659,
    "7a": 1660,
    "\u25810xfeee0040": 1661,
    "sn": 1662,
    "\u25810x12117f8": 1663,
    "\u2581rtl": 1664,
    "old": 1665,
    "section": 1666,
    "\u25810x1211fcc": 1667,
    "7f": 1668,
    "\u25810x1211f28": 1669,
    "\u2581mon": 1670,
    "etool": 1671,
    "apshot": 1672,
    "help32": 1673,
    "\u2581createtool": 1674,
    "help32sn": 1675,
    "help32snapshot": 1676,
    "\u2581createtoolhelp32snapshot": 1677,
    "\u25810x48f8": 1678,
    "\u25810x44f8e0": 1679,
    "6e": 1680,
    "\u2581shellex": 1681,
    "lphi": 1682,
    "\u2581delphi": 1683,
    "\u25810x1211cc0": 1684,
    "\u25810x5f500000": 1685,
    "\u2581releasedc": 1686,
    "\u25810xfeee0029": 1687,
    "a04": 1688,
    "\u25810x4fec": 1689,
    "\u2581app": 1690,
    "004": 1691,
    "\u25810x6b": 1692,
    "\u25810xfeee0072": 1693,
    "\u2581getusername": 1694,
    "\u25810x214": 1695,
    "\u2581font": 1696,
    "2a": 1697,
    "ated": 1698,
    "fer": 1699,
    "94c": 1700,
    "stit": 1701,
    "2f": 1702,
    "ervicec": 1703,
    "ast": 1704,
    "\u25810x4c32": 1705,
    "substit": 1706,
    "substitutes": 1707,
    "\u2581fontsubstitutes": 1708,
    "210": 1709,
    "\u2581closes": 1710,
    "own": 1711,
    "ym": 1712,
    "\u25810xfeee005d": 1713,
    "\u25810x364": 1714,
    "input": 1715,
    "ervicectrl": 1716,
    "\u2581process32first": 1717,
    "\u25810x188": 1718,
    "arg": 1719,
    "\u25810xfeee002a": 1720,
    "\u25810x4790": 1721,
    "mpati": 1722,
    "\u25810x24": 1723,
    "\u25810x42a40": 1724,
    "linkw": 1725,
    "mpatible": 1726,
    "\u25810x83": 1727,
    "isk": 1728,
    "\u2581createco": 1729,
    "\u2581createcompatible": 1730,
    "\u25810x7708": 1731,
    "refer": 1732,
    "adwork": 1733,
    "\u2581getm": 1734,
    "hen": 1735,
    "\u25810x1211f2c": 1736,
    "\u2581getsysteminfo": 1737,
    "3a": 1738,
    "drivestrings": 1739,
    "\u2581getlogicaldrivestrings": 1740,
    "\u25810xcc": 1741,
    "\u2581getuserdefault": 1742,
    "\u2581malloc": 1743,
    "servicew": 1744,
    "65": 1745,
    "\u25810x96": 1746,
    "\u2581getenvironmentvariablew": 1747,
    "\u2581ole32": 1748,
    "ec0": 1749,
    "ackage": 1750,
    "\u25810x655": 1751,
    "\u25810x3e": 1752,
    "\u25810x1211508": 1753,
    "4000": 1754,
    "188": 1755,
    "c7": 1756,
    "cy": 1757,
    "39": 1758,
    "688": 1759,
    "\u25810xfeee0046": 1760,
    "\u2581un": 1761,
    "oci": 1762,
    "\u2581comparestringex": 1763,
    "\u2581getlocaleinfoex": 1764,
    "\u25810xfeee007c": 1765,
    "termin": 1766,
    "208": 1767,
    "\u25810x65500000": 1768,
    "d7": 1769,
    "package": 1770,
    "c1": 1771,
    "system": 1772,
    "3b": 1773,
    "packageid": 1774,
    "\u2581getcurrentpackageid": 1775,
    "\u25810xa1": 1776,
    "\u25810x1b": 1777,
    "ace": 1778,
    "\u25810x1211928": 1779,
    "\u2581termin": 1780,
    "ymbo": 1781,
    "ymbolic": 1782,
    "ymboliclinkw": 1783,
    "\u2581createsymboliclinkw": 1784,
    "\u25810x4c42d8": 1785,
    "\u25810x4c42f0": 1786,
    "untime": 1787,
    "redu": 1788,
    "ilanguages": 1789,
    "referredu": 1790,
    "referreduilanguages": 1791,
    "hreadp": 1792,
    "hreadpreferreduilanguages": 1793,
    "\u25810x1211578": 1794,
    "ken": 1795,
    "messagew": 1796,
    "\u25810x4bc": 1797,
    "d80": 1798,
    "69": 1799,
    "\u25810x1211308": 1800,
    "\u25810xfeee002c": 1801,
    "430": 1802,
    "\u2581initialize": 1803,
    "\u25810x40933d": 1804,
    "\u25810x40933e": 1805,
    "\u25810x40933f": 1806,
    "\u25810x409340": 1807,
    "\u25810x409341": 1808,
    "\u25810x409342": 1809,
    "\u25810x409343": 1810,
    "afe": 1811,
    "\u2581rec": 1812,
    "ret": 1813,
    "62": 1814,
    "\u2581hton": 1815,
    "\u25810x6781d8": 1816,
    "associ": 1817,
    "\u2581extract": 1818,
    "mage": 1819,
    "connection": 1820,
    "dacl": 1821,
    "380": 1822,
    "securitydescriptordacl": 1823,
    "\u25810x770c": 1824,
    "\u2581initializesecuritydescriptor": 1825,
    "tries": 1826,
    "2w": 1827,
    "\u25810xfeee002b": 1828,
    "b80": 1829,
    "head": 1830,
    "\u25810x169bf": 1831,
    "stry": 1832,
    "connection2w": 1833,
    "\u25810xfeee009a": 1834,
    "\u2581out": 1835,
    "\u25810xfeee002d": 1836,
    "\u25810xfeee002f": 1837,
    "when": 1838,
    "\u25810x3f2000": 1839,
    "localtime": 1840,
    "\u25810x53000": 1841,
    "zero": 1842,
    "\u25810x1211f38": 1843,
    "\u2581setsecuritydescriptordacl": 1844,
    "5b": 1845,
    "brus": 1846,
    "\u25810xfeee002e": 1847,
    "\u25810x7c000000": 1848,
    "\u25810xfeee006b": 1849,
    "\u25810x8230": 1850,
    "lec": 1851,
    "\u2581begin": 1852,
    "fold": 1853,
    "2f8": 1854,
    "retur": 1855,
    "\u25810x7540": 1856,
    "atedicon": 1857,
    "associatedicon": 1858,
    "\u2581process32nextw": 1859,
    "\u2581extractassociatedicon": 1860,
    "\u2581windowsnt": 1861,
    "268": 1862,
    "ornumber": 1863,
    "\u2581getcurrentprocessornumber": 1864,
    "returns": 1865,
    "processwrite": 1866,
    "whencallback": 1867,
    "\u2581flushprocesswrite": 1868,
    "\u2581setthreadpoolwait": 1869,
    "whencallbackreturns": 1870,
    "\u2581closethreadpoolwait": 1871,
    "\u2581createthreadpoolwait": 1872,
    "\u2581flushprocesswritebuffers": 1873,
    "\u2581freelibrarywhencallbackreturns": 1874,
    "horeexw": 1875,
    "\u2581beginup": 1876,
    "callbacks": 1877,
    "timercallbacks": 1878,
    "\u2581waitforthreadpool": 1879,
    "\u2581createsemaphoreexw": 1880,
    "\u2581setthreadpooltimer": 1881,
    "\u2581closethreadpooltimer": 1882,
    "\u2581createthreadpooltimer": 1883,
    "\u2581waitforthreadpooltimercallbacks": 1884,
    "listhead": 1885,
    "\u2581initializeslisthead": 1886,
    "\u25810x8a80": 1887,
    "\u2581loadcursorw": 1888,
    "\u25810x80c4": 1889,
    "\u2581getlocaltime": 1890,
    "\u25810xfeee0045": 1891,
    "\u2581show": 1892,
    "brush": 1893,
    "\u25810x1211dc8": 1894,
    "\u2581createdirectorya": 1895,
    "ray": 1896,
    "\u2581update": 1897,
    "\u2581loadiconw": 1898,
    "drl6660drl6660drl6660drl6660": 1899,
    "\u2581setthread": 1900,
    "\u25810xfeee0030": 1901,
    "e44": 1902,
    "allocate": 1903,
    "\u2581deletefilew": 1904,
    "\u25810x5a": 1905,
    "\u25810x1211fd4": 1906,
    "\u25810x527": 1907,
    "\u25810xfeee0031": 1908,
    "\u25810x410770": 1909,
    "load": 1910,
    "cb": 1911,
    "\u25810x1211d04": 1912,
    "sup": 1913,
    "array": 1914,
    "\u25810xfeee0044": 1915,
    "\u2581createthread": 1916,
    "\u25810x1804": 1917,
    "\u2581isvalid": 1918,
    "\u25810x1211f30": 1919,
    "de0": 1920,
    "\u25810x4800": 1921,
    "\u25810xfeee005e": 1922,
    "\u25810x7cd0": 1923,
    "leob": 1924,
    "\u2581loadlibraryw": 1925,
    "008": 1926,
    "\u25810x527ed8": 1927,
    "\u25810x42c5": 1928,
    "\u25810x1211bc0": 1929,
    "\u2581createwindowexa": 1930,
    "\u258132": 1931,
    "59": 1932,
    "408": 1933,
    "\u25810x23": 1934,
    "\u25810x408": 1935,
    "\u25810x3f34": 1936,
    "\u25810x409": 1937,
    "variablea": 1938,
    "\u25810x1211c04": 1939,
    "\u2581createw": 1940,
    "\u2581getfileattributesw": 1941,
    "ord": 1942,
    "\u2581sat": 1943,
    "\u25810x29": 1944,
    "\u2581gettickcount64": 1945,
    "\u25810xfeee0043": 1946,
    "\u2581recv": 1947,
    "\u25810xfeee0047": 1948,
    "c3": 1949,
    "\u25814": 1950,
    "cel": 1951,
    "\u2581nov": 1952,
    "\u25810x1211a04": 1953,
    "\u25810x80000000": 1954,
    "\u25818": 1955,
    "\u25810x1211ee0": 1956,
    "\u25810xfeee0048": 1957,
    "\u25810xfeee0033": 1958,
    "\u25810xfeee0032": 1959,
    "\u2581com": 1960,
    "\u25810xfeee0035": 1961,
    "\u25810xfeee003b": 1962,
    "\u2581getmessagea": 1963,
    "938": 1964,
    "\u25810xfeee0034": 1965,
    "ab8": 1966,
    "\u25810x7714": 1967,
    "\u25810x7704": 1968,
    "d000": 1969,
    "\u25810x7706": 1970,
    "\u25810x7716": 1971,
    "\u25810x1211518": 1972,
    "\u25810x1211f00": 1973,
    "bits": 1974,
    "\u25810x7d10": 1975,
    "\u25810xfeee0074": 1976,
    "\u25810xfeee0036": 1977,
    "\u2581au": 1978,
    "\u25810x7bd0": 1979,
    "\u25810xfeee0037": 1980,
    "\u25810xfeee0049": 1981,
    "\u2581oct": 1982,
    "\u25810xfeee0038": 1983,
    "\u2581apr": 1984,
    "\u25810xfeee0039": 1985,
    "\u25810xfeee010": 1986,
    "\u2581enum": 1987,
    "\u25810xfeee0041": 1988,
    "\u2581findnext": 1989,
    "\u25810xfeee003f": 1990,
    "\u2581sun": 1991,
    "\u25810xfeee0042": 1992,
    "sing": 1993,
    "\u25810x5b": 1994,
    "\u25810x4428": 1995,
    "\u2581registerclassexa": 1996,
    "\u25810xfeee0062": 1997,
    "57": 1998,
    "\u25810x437880": 1999,
    "\u25810xfeee003a": 2000,
    "\u25810xfeee003d": 2001,
    "keyboard": 2002,
    "\u25810x8280": 2003,
    "\u25810x42fc": 2004,
    "\u25810xfeee003e": 2005,
    "lecs": 2006,
    "variablecs": 2007,
    "\u25810xfeee003c": 2008,
    "\u2581sleepcondition": 2009,
    "\u2581sleepconditionvariablecs": 2010,
    "\u2581may": 2011,
    "uary": 2012,
    "eentries": 2013,
    "paletteentries": 2014,
    "sday": 2015,
    "\u2581tue": 2016,
    "\u2581wed": 2017,
    "\u25810x7e80": 2018,
    "\u2581getd": 2019,
    "93c": 2020,
    "\u25810x4363": 2021,
    "\u2581loc": 2022,
    "valu": 2023,
    "\u25810x12119ac": 2024,
    "\u25810xffff": 2025,
    "\u25810x419c": 2026,
    "\u2581localiz": 2027,
    "\u2581localization": 2028,
    "\u25810xa8": 2029,
    "\u2581gettime": 2030,
    "\u2581getw": 2031,
    "spec": 2032,
    "lat": 2033,
    "\u2581olea": 2034,
    "b04": 2035,
    "\u25810x7e74": 2036,
    "\u25810x7e75": 2037,
    "\u2581getkeyboard": 2038,
    "\u25810xfeee0053": 2039,
    "\u25810xfeee0060": 2040,
    "\u25810x7e78": 2041,
    "\u25810x7e79": 2042,
    "\u25810xfeee0065": 2043,
    "\u25810xfeee004a": 2044,
    "\u25810xfeee005c": 2045,
    "suped": 2046,
    "f04": 2047,
    "\u25810xfeee0066": 2048,
    "\u25810x7e7c": 2049,
    "\u25810x7e7d": 2050,
    "\u25810x1211e08": 2051,
    "\u25810xfeee0067": 2052,
    "\u25810xfeee0061": 2053,
    "\u2581q": 2054,
    "\u25810xfeee004d": 2055,
    "\u25810xfeee005a": 2056,
    "\u2581getsystempaletteentries": 2057,
    "\u25810xfeee004b": 2058,
    "\u25810xfeee004c": 2059,
    "\u25810x86": 2060,
    "\u25810xfeee005b": 2061,
    "\u2581registry": 2062,
    "\u25810xfeee0050": 2063,
    "\u25810xfeee0063": 2064,
    "\u25810xfeee004e": 2065,
    "\u25810x7e81": 2066,
    "\u25810xfeee0055": 2067,
    "\u25810xfeee0054": 2068,
    "\u25810xfeee004f": 2069,
    "\u25810x1211cdc": 2070,
    "\u2581floatingpoint": 2071,
    "\u25810xfeee0051": 2072,
    "\u2581invalidvariant": 2073,
    "\u25810xfeee0052": 2074,
    "\u25810xfeee0068": 2075,
    "\u2581deletefilea": 2076,
    "byzero": 2077,
    "isionbyzero": 2078,
    "\u25810xfeee0056": 2079,
    "\u25810xfeee0057": 2080,
    "\u25810xfeee0058": 2081,
    "\u25810xfeee0059": 2082,
    "\u2581createdirectoryw": 2083,
    "fe8": 2084,
    "\u2581getfileinformationby": 2085,
    "\u25810x36": 2086,
    "bool": 2087,
    "\u25810x4e5": 2088,
    "\u25810x1211fc4": 2089,
    "\u25810x7e84": 2090,
    "\u25810x7e85": 2091,
    "\u25810x7150": 2092,
    "\u25810x7a80": 2093,
    "67": 2094,
    "\u25810x88a0": 2095,
    "\u2581varr": 2096,
    "4fromstr": 2097,
    "\u25810xfeee0064": 2098,
    "singleob": 2099,
    "afearray": 2100,
    "a00": 2101,
    "\u2581showwindow": 2102,
    "\u2581contr": 2103,
    "\u25810x72a0": 2104,
    "\u25810x73f0": 2105,
    "\u25810x1211fc8": 2106,
    "\u25810x412": 2107,
    "\u25810x431f": 2108,
    "\u25810x10000": 2109,
    "resourcew": 2110,
    "\u2581waitforsingleob": 2111,
    "ask": 2112,
    "\u25810x92": 2113,
    "\u25810x7690": 2114,
    "\u25810x4620": 2115,
    "\u25810xfeee0073": 2116,
    "\u2581trans": 2117,
    "\u25810x40a3": 2118,
    "\u25810x77e0": 2119,
    "\u2581initializeconditionvariable": 2120,
    "\u25810xfeee0075": 2121,
    "\u25810xfeee006a": 2122,
    "\u25810xfeee006c": 2123,
    "\u25810xe0": 2124,
    "\u25810x37": 2125,
    "7c3": 2126,
    "\u25810x2d4": 2127,
    "\u25810x1d": 2128,
    "\u25810x1211f20": 2129,
    "10c": 2130,
    "\u2581lstrcmp": 2131,
    "\u25810x40a5dc": 2132,
    "\u25810xfeee006d": 2133,
    "\u25810x40a5cc": 2134,
    "inal": 2135,
    "\u25810x1211ec": 2136,
    "\u25810x3f75f": 2137,
    "\u25810x4710": 2138,
    "\u2581getfileinformationbyhandl": 2139,
    "orsafearray": 2140,
    "\u2581end": 2141,
    "\u25810xfeee0069": 2142,
    "\u25810x9b": 2143,
    "\u2581updatewindow": 2144,
    "\u2581image": 2145,
    "\u25810xfeee0070": 2146,
    "token": 2147,
    "\u25810x4015": 2148,
    "\u25810x1211f4c": 2149,
    "\u25810x91": 2150,
    "\u2581po": 2151,
    "\u25810x1210d": 2152,
    "\u25810x1211fc0": 2153,
    "\u25810xfeee006f": 2154,
    "\u25810x7705": 2155,
    "\u25810x7715": 2156,
    "\u25810xa7": 2157,
    "your": 2158,
    "\u25810xfeee006e": 2159,
    "\u25810xb8": 2160,
    "files": 2161,
    "ow64": 2162,
    "\u25810x39": 2163,
    "vol": 2164,
    "\u25810x95": 2165,
    "\u25810x42c588": 2166,
    "\u25810x9d": 2167,
    "draw": 2168,
    "\u2581setfileinformationby": 2169,
    "\u2581createexw": 2170,
    "connect": 2171,
    "\u25810xfeee008a": 2172,
    "se": 2173,
    "new": 2174,
    "windowproc": 2175,
    "\u25810x4353": 2176,
    "\u25810x1211ef0": 2177,
    "ume": 2178,
    "\u25810x5c": 2179,
    "volume": 2180,
    "wow64": 2181,
    "nal": 2182,
    "\u25810x61": 2183,
    "\u25810x121194c": 2184,
    "438": 2185,
    "initialize": 2186,
    "\u25810x5f": 2187,
    "\u25810x42e": 2188,
    "ong": 2189,
    "cd": 2190,
    "\u2581def": 2191,
    "yarg": 2192,
    "down": 2193,
    "ordinal": 2194,
    "\u25810x52": 2195,
    "\u2581getdate": 2196,
    "\u2581setc": 2197,
    "\u25810x7ec1": 2198,
    "errormode": 2199,
    "\u25810x7ab0": 2200,
    "\u2581globalfree": 2201,
    "\u2581seterrormode": 2202,
    "\u2581ordinal": 2203,
    "host": 2204,
    "6f": 2205,
    "\u25810x12117a4": 2206,
    "\u25810xfeee0078": 2207,
    "\u25810x121157c": 2208,
    "\u25810x4d70": 2209,
    "\u25810xfeee0077": 2210,
    "\u25810xfeee0079": 2211,
    "\u25810xfeee0076": 2212,
    "\u25810x58de": 2213,
    "980": 2214,
    "\u2581registerwindow": 2215,
    "\u25810x4bd0": 2216,
    "\u25810xfeee007a": 2217,
    "cf": 2218,
    "change": 2219,
    "state": 2220,
    "\u2581defwindowproc": 2221,
    "\u25810xa5": 2222,
    "\u25810x7de4": 2223,
    "\u2581imagelist": 2224,
    "\u25810x6d": 2225,
    "volumeinformation": 2226,
    "\u25810x2d": 2227,
    "\u2581getvolumeinformation": 2228,
    "e08": 2229,
    "\u25810x48f898": 2230,
    "\u25810x7de5": 2231,
    "\u25810x57": 2232,
    "uilanguage": 2233,
    "mapp": 2234,
    "ac0": 2235,
    "\u2581shget": 2236,
    "\u2581getenvironmentvariablea": 2237,
    "\u25810x12113": 2238,
    "attributesa": 2239,
    "speci": 2240,
    "mapping": 2241,
    "filemapping": 2242,
    "ed4": 2243,
    "ways": 2244,
    "\u2581always": 2245,
    "ca": 2246,
    "b40": 2247,
    "\u25810x44f928": 2248,
    "\u2581ntdll": 2249,
    "\u2581translat": 2250,
    "reg": 2251,
    "\u25810xa4": 2252,
    "\u25810x2b": 2253,
    "c80": 2254,
    "\u2581endp": 2255,
    "\u2581wi": 2256,
    "inpaint": 2257,
    "\u25810xfeee0095": 2258,
    "\u2581beginpaint": 2259,
    "pro": 2260,
    "\u25810x1211f88": 2261,
    "\u2581iswow64": 2262,
    "\u2581iswow64process": 2263,
    "\u2581endpaint": 2264,
    "pos": 2265,
    "\u25810x4e50": 2266,
    "quit": 2267,
    "ut32": 2268,
    "\u2581oleaut32": 2269,
    "\u2581enumsystem": 2270,
    "\u2581enumsystemlocales": 2271,
    "\u25810x525": 2272,
    "\u2581createmut": 2273,
    "\u25810x423d": 2274,
    "\u25810x3f31": 2275,
    "\u25810xfeee008e": 2276,
    "bitmap": 2277,
    "\u25810x42c4": 2278,
    "e40": 2279,
    "\u25810x770e": 2280,
    "388": 2281,
    "\u25810x1211f48": 2282,
    "memory": 2283,
    "\u2581destroy": 2284,
    "\u25810x107568": 2285,
    "f0000": 2286,
    "\u25810xa2": 2287,
    "\u2581createfilemapping": 2288,
    "708": 2289,
    "\u25810x40f6": 2290,
    "\u25810x40152c": 2291,
    "closekey": 2292,
    "\u2581regclosekey": 2293,
    "\u25810x7d50": 2294,
    "anag": 2295,
    "937": 2296,
    "\u25810x58c0": 2297,
    "\u2581connect": 2298,
    "9c1": 2299,
    "valueexw": 2300,
    "\u25810x7d95": 2301,
    "\u25810x78c0": 2302,
    "\u2581n": 2303,
    "am": 2304,
    "\u25810x4febf0": 2305,
    "\u25810xfeee0081": 2306,
    "\u2581hg": 2307,
    "\u2581hgdraw": 2308,
    "f08": 2309,
    "\u25810x7d94": 2310,
    "ain": 2311,
    "ternal": 2312,
    "\u2581crtdll": 2313,
    "\u25810x6c": 2314,
    "\u25810xfeee007f": 2315,
    "\u25810x31": 2316,
    "5a": 2317,
    "lation": 2318,
    "\u2581dispatch": 2319,
    "\u25810x437a": 2320,
    "e000": 2321,
    "numberof": 2322,
    "put": 2323,
    "rag": 2324,
    "\u25810x3f3000": 2325,
    "328": 2326,
    "ce8": 2327,
    "\u25810x429e": 2328,
    "\u25810xfeee0084": 2329,
    "\u2581getuserdefaultlocalename": 2330,
    "\u25810xfeee008d": 2331,
    "\u2581failedto": 2332,
    "\u2581translatem": 2333,
    "\u25810x40a58": 2334,
    "enum": 2335,
    "\u25810xfeee008c": 2336,
    "\u25810x42a7": 2337,
    "\u2581getdateformatex": 2338,
    "\u2581isvalidlocalename": 2339,
    "\u2581enumsystemlocalesex": 2340,
    "\u2581gettimeformatex": 2341,
    "\u25810x1211dfc": 2342,
    "140": 2343,
    "\u2581createfilemappinga": 2344,
    "ull": 2345,
    "0x": 2346,
    "\u2581error0x": 2347,
    "\u25810x80e0": 2348,
    "00a": 2349,
    "\u2581regset": 2350,
    "\u2581post": 2351,
    "bar": 2352,
    "\u2581createmutexa": 2353,
    "\u2581translatemessage": 2354,
    "\u25810x46e0": 2355,
    "\u25810x4336": 2356,
    "\u25810x437ad": 2357,
    "\u25810x437bc": 2358,
    "\u25810x4371e6": 2359,
    "\u25810x4371e7": 2360,
    "b08": 2361,
    "\u2581int": 2362,
    "\u25810xa6": 2363,
    "\u2581gettempa": 2364,
    "\u2581err": 2365,
    "4e": 2366,
    "\u25810x43b7b9": 2367,
    "sw": 2368,
    "\u25810x43b7c3": 2369,
    "\u25810x78a0": 2370,
    "\u25810xfeee007b": 2371,
    "\u25810xfeee007d": 2372,
    "\u25810xfeee007e": 2373,
    "\u25810x5d": 2374,
    "47": 2375,
    "\u25810x421": 2376,
    "\u25810x7ee0": 2377,
    "\u2581ws2": 2378,
    "\u25810x7df0": 2379,
    "\u25810x56bb": 2380,
    "\u25810xfeee0080": 2381,
    "\u2581createprocessa": 2382,
    "\u25810xfeee0087": 2383,
    "\u25810x89": 2384,
    "out": 2385,
    "\u2581setwindow": 2386,
    "988": 2387,
    "bc8": 2388,
    "\u25810x67000000": 2389,
    "\u25810xfeee0088": 2390,
    "app": 2391,
    "\u25810x35": 2392,
    "sid": 2393,
    "\u25810x1211f34": 2394,
    "c9": 2395,
    "box": 2396,
    "\u25810x5265": 2397,
    "\u25810x46b3": 2398,
    "\u25810xfeee0083": 2399,
    "ows": 2400,
    "\u25810xfeee0082": 2401,
    "\u25810xfeee008f": 2402,
    "\u2581getnumberof": 2403,
    "\u2581getnumberofconsole": 2404,
    "\u25810x1211b04": 2405,
    "\u25810xfeee0085": 2406,
    "\u25810xfeee0086": 2407,
    "\u25810x3f22": 2408,
    "\u25810xfeee0090": 2409,
    "\u25810xfeee0089": 2410,
    "\u2581shellexecute": 2411,
    "\u2581check": 2412,
    "\u25810x1211fdc": 2413,
    "\u25810x1210f8": 2414,
    "\u25810x8cf0": 2415,
    "\u25810x432": 2416,
    "\u2581allocate": 2417,
    "\u25810x3b": 2418,
    "ty": 2419,
    "long": 2420,
    "\u25810x78f0": 2421,
    "freesp": 2422,
    "\u2581getdisk": 2423,
    "\u2581getdiskfreesp": 2424,
    "\u25810x121193c": 2425,
    "ivi": 2426,
    "endoffile": 2427,
    "\u25810x3bc": 2428,
    "6b": 2429,
    "\u2581getcurrentdirectoryw": 2430,
    "6000": 2431,
    "bl": 2432,
    "\u25810x7702": 2433,
    "\u25810x40f": 2434,
    "\u25810x7703": 2435,
    "\u25810x7712": 2436,
    "\u25810x7713": 2437,
    "\u25810x7be0": 2438,
    "ivile": 2439,
    "manag": 2440,
    "\u25810x12112f8": 2441,
    "\u25810xc00": 2442,
    "\u25810xfeee0092": 2443,
    "\u2581gb": 2444,
    "inputs": 2445,
    "\u2581registerwindowmessagew": 2446,
    "\u2581getnumberofconsoleinputs": 2447,
    "stack": 2448,
    "\u25810xb4": 2449,
    "\u2581getlogicalprocessor": 2450,
    "\u2581mapviewoffile": 2451,
    "\u2581dispatchmessagea": 2452,
    "\u25810x3410c": 2453,
    "setinformation": 2454,
    "\u2581findwindow": 2455,
    "\u2581getlogicalprocessorinformation": 2456,
    "guar": 2457,
    "\u2581defwindowproca": 2458,
    "\u25810x6b9": 2459,
    "\u25810x181b": 2460,
    "antee": 2461,
    "guarantee": 2462,
    "stackguarantee": 2463,
    "\u2581setthreadstackguarantee": 2464,
    "\u2581heapsetinformation": 2465,
    "\u2581setfileattributesa": 2466,
    "6a": 2467,
    "slen": 2468,
    "\u2581point": 2469,
    "\u25810x3d": 2470,
    "\u2581wcslen": 2471,
    "\u2581prec": 2472,
    "\u2581errata": 2473,
    "\u2581precision": 2474,
    "\u25810x7090": 2475,
    "ger": 2476,
    "ee8": 2477,
    "cept": 2478,
    "\u25810x63": 2479,
    "\u2581getthreadpreferreduilanguages": 2480,
    "\u2581to": 2481,
    "\u25810xd0": 2482,
    "\u25810x4730": 2483,
    "stringa": 2484,
    "\u25810x436": 2485,
    "\u2581z": 2486,
    "\u2581copyfilea": 2487,
    "unlock": 2488,
    "\u25810x1211cec": 2489,
    "pe": 2490,
    "nexec": 2491,
    "\u25810x43540": 2492,
    "\u2581winexec": 2493,
    "texta": 2494,
    "\u2581remo": 2495,
    "\u2581getusernamea": 2496,
    "\u25810x42d": 2497,
    "\u25810xfeee0094": 2498,
    "\u25810x4393": 2499,
    "blt": 2500,
    "\u25810x41d1": 2501,
    "\u25810x3f34c0": 2502,
    "\u2581postquit": 2503,
    "\u2581getdiskfreespac": 2504,
    "\u2581postquitmessage": 2505,
    "aaaa": 2506,
    "\u2581new": 2507,
    "lw": 2508,
    "\u25810x1211f04": 2509,
    "\u25810x7de8": 2510,
    "\u25810xfeee0091": 2511,
    "\u2581globalunlock": 2512,
    "\u25810x1211a": 2513,
    "\u25810x7de9": 2514,
    "las": 2515,
    "\u25810x1210e8": 2516,
    "\u2581runtime": 2517,
    "exto": 2518,
    "extout": 2519,
    "\u2581drag": 2520,
    "\u2581msvcr": 2521,
    "mask": 2522,
    "\u25810x3a": 2523,
    "\u2581u": 2524,
    "\u25810x7dec": 2525,
    "a81": 2526,
    "\u25810x28c": 2527,
    "bk": 2528,
    "\u25810xfeee0093": 2529,
    "\u2581deleteob": 2530,
    "\u2581accept": 2531,
    "full": 2532,
    "\u25810x55": 2533,
    "\u25810xfeee0098": 2534,
    "\u25810x52660": 2535,
    "\u25810xfeee0099": 2536,
    "\u2581bat": 2537,
    "\u25810x52661": 2538,
    "\u2581regsetvalueexw": 2539,
    "4f": 2540,
    "4b": 2541,
    "\u25810x7ded": 2542,
    "\u25810x210": 2543,
    "\u25810xfeee0097": 2544,
    "\u25810xfeee0096": 2545,
    "68c": 2546,
    "\u25810xfeee009b": 2547,
    "ater": 2548,
    "\u25810xfeee009c": 2549,
    "\u25810x7d00": 2550,
    "\u25810x3f4000": 2551,
    "tra": 2552,
    "code": 2553,
    "eed": 2554,
    "\u25810x7300": 2555,
    "a08": 2556,
    "\u25810x7ee00": 2557,
    "\u2581san": 2558,
    "fdr": 2559,
    "\u2581sanfdr": 2560,
    "fac": 2561,
    "has": 2562,
    "\u25810xac": 2563,
    "\u2581res": 2564,
    "\u2581wcsc": 2565,
    "\u25810x8d80": 2566,
    "\u25810x7c70": 2567,
    "\u25810xab": 2568,
    "\u2581op": 2569,
    "\u25810x448": 2570,
    "hore": 2571,
    "\u25810x7ed": 2572,
    "folder": 2573,
    "\u25810x7900": 2574,
    "cadwork": 2575,
    "ontin": 2576,
    "\u2581getwindows": 2577,
    "\u2581registers": 2578,
    "\u2581control": 2579,
    "ctl32": 2580,
    "\u25810x7bf0": 2581,
    "\u25810x4c32c0": 2582,
    "\u2581comctl32": 2583,
    "\u25810x120e6": 2584,
    "\u2581wcscpy": 2585,
    "\u25810x7b90": 2586,
    "\u2581getlogicaldrivestringsa": 2587,
    "ist": 2588,
    "\u25810x4393f8": 2589,
    "\u2581createprocessw": 2590,
    "erat": 2591,
    "\u2581setfileattributesw": 2592,
    "round": 2593,
    "\u25810x1210f3": 2594,
    "inst": 2595,
    "lwapi": 2596,
    "\u2581shlwapi": 2597,
    "f00": 2598,
    "\u2581findnextfilew": 2599,
    "bkcolor": 2600,
    "\u25810x20000": 2601,
    "ervicectrlhandl": 2602,
    "\u2581registerservicectrlhandl": 2603,
    "\u25810x1212000": 2604,
    "\u2581textout": 2605,
    "\u2581selectob": 2606,
    "\u2581resum": 2607,
    "\u2581resumethread": 2608,
    "ang": 2609,
    "\u2581inst": 2610,
    "\u25810x7df1": 2611,
    "\u2581sendmessagea": 2612,
    "vio": 2613,
    "\u2581closesocket": 2614,
    "artup": 2615,
    "\u25810x51a": 2616,
    "8000": 2617,
    "heck": 2618,
    "emutex": 2619,
    "\u2581releasemutex": 2620,
    "\u25810x1211c80": 2621,
    "\u2581drawtexta": 2622,
    "can": 2623,
    "\u25810x1210900": 2624,
    "\u25810x78d0": 2625,
    "\u25810xa3": 2626,
    "580": 2627,
    "e88": 2628,
    "\u2581bit": 2629,
    "ervicehandle": 2630,
    "\u2581closeservicehandle": 2631,
    "\u2581mo": 2632,
    "\u25810x5265d": 2633,
    "\u25810x1211e28": 2634,
    "\u2581exitthread": 2635,
    "scmanag": 2636,
    "\u2581openscmanag": 2637,
    "servicestatus": 2638,
    "\u25810x7f0": 2639,
    "\u2581unmap": 2640,
    "\u2581unmapviewoffile": 2641,
    "ou": 2642,
    "\u25810xad": 2643,
    "\u2581mpr": 2644,
    "riv": 2645,
    "atethread": 2646,
    "\u2581createcompatibledc": 2647,
    "\u25810x4317": 2648,
    "\u2581bitblt": 2649,
    "9c0": 2650,
    "\u25810x566": 2651,
    "\u2581terminatethread": 2652,
    "\u2581textouta": 2653,
    "dup": 2654,
    "cc8": 2655,
    "\u25810x7701": 2656,
    "\u25810x7707": 2657,
    "\u25810x7711": 2658,
    "\u25810x7717": 2659,
    "lid": 2660,
    "\u25810x58c01c": 2661,
    "foreg": 2662,
    "foreground": 2663,
    "foregroundwindow": 2664,
    "usp": 2665,
    "\u25810x8420": 2666,
    "\u25810x6b9c08": 2667,
    "\u2581createcompatiblebitmap": 2668,
    "esid": 2669,
    "andinitializ": 2670,
    "andinitializesid": 2671,
    "\u2581allocateandinitializesid": 2672,
    "ystate": 2673,
    "debugger": 2674,
    "\u25810x52662": 2675,
    "\u25810x47c0": 2676,
    "debuggerpresent": 2677,
    "\u25810x7e0": 2678,
    "\u2581starts": 2679,
    "dispatch": 2680,
    "\u2581openscmanagerw": 2681,
    "\u2581startservicectrl": 2682,
    "\u2581startservicectrldispatch": 2683,
    "7c8": 2684,
    "\u2581geticon": 2685,
    "\u2581getdi": 2686,
    "\u2581openservicew": 2687,
    "direct": 2688,
    "\u2581setbkcolor": 2689,
    "\u2581createservice": 2690,
    "\u2581getmess": 2691,
    "violation": 2692,
    "any": 2693,
    "\u2581startservicectrldispatcherw": 2694,
    "\u2581sn": 2695,
    "\u2581setservicestatus": 2696,
    "970": 2697,
    "eextra": 2698,
    "d08": 2699,
    "\u2581startservicew": 2700,
    "\u25810x4418": 2701,
    "\u2581deletedc": 2702,
    "\u2581createservicew": 2703,
    "\u25810x7270": 2704,
    "longa": 2705,
    "comp": 2706,
    "\u2581copyfilew": 2707,
    "\u2581mul": 2708,
    "\u2581muldiv": 2709,
    "\u25810x20019": 2710,
    "\u2581isdebuggerpresent": 2711,
    "\u25810x7cc0": 2712,
    "\u25810x59": 2713,
    "\u25810x40a5a0": 2714,
    "\u25810x1211efc": 2715,
    "\u2581findwindowa": 2716,
    "ope": 2717,
    "\u25810xff8": 2718,
    "enthread": 2719,
    "opene": 2720,
    "\u2581golfset": 2721,
    "\u2581createf": 2722,
    "\u2581openthread": 2723,
    "\u25810x7390": 2724,
    "\u25810x4094": 2725,
    "\u2581susp": 2726,
    "\u25810x1211e44": 2727,
    "\u2581getmain": 2728,
    "aterect": 2729,
    "\u25810x81": 2730,
    "\u25810x7060": 2731,
    "\u25810x12119f0": 2732,
    "\u2581suspend": 2733,
    "\u25810x1211738": 2734,
    "\u2581suspendthread": 2735,
    "\u2581settext": 2736,
    "\u2581freesid": 2737,
    "\u2581htons": 2738,
    "\u2581getdibits": 2739,
    "\u25810x436390": 2740,
    "\u2581setwindowpos": 2741,
    "\u2581acquiresrwlockexclusive": 2742,
    "ram": 2743,
    "ageextra": 2744,
    "\u25810x496760": 2745,
    "ageextrainfo": 2746,
    "\u2581getmessageextrainfo": 2747,
    "\u2581socket": 2748,
    "\u25810x7f10": 2749,
    "\u2581getthreaduilanguage": 2750,
    "\u2581process32firstw": 2751,
    "\u2581message": 2752,
    "\u2581getob": 2753,
    "\u2581wsast": 2754,
    "\u25810x71b0": 2755,
    "\u2581wsastartup": 2756,
    "\u2581getforegroundwindow": 2757,
    "\u25810x1211690": 2758,
    "\u2581settextcolor": 2759,
    "\u25810x42d4": 2760,
    "\u25810x120fa": 2761,
    "printfa": 2762,
    "a88": 2763,
    "\u25810x7870": 2764,
    "olid": 2765,
    "\u2581settimer": 2766,
    "\u2581exed": 2767,
    "\u25810x7db0": 2768,
    "\u25810x51000": 2769,
    "ontindirect": 2770,
    "\u2581createfontindirect": 2771,
    "\u25810x52666": 2772,
    "\u25810xaa": 2773,
    "\u25810x43500": 2774,
    "\u2581exedows": 2775,
    "\u25810x46b5": 2776,
    "olidbrush": 2777,
    "\u2581createsolidbrush": 2778,
    "\u2581snap": 2779,
    "\u25810x40a59e": 2780,
    "\u25810x40a5a2": 2781,
    "\u25810x40a5a4": 2782,
    "\u25810x40a5a6": 2783,
    "\u25810x40a5a8": 2784,
    "\u25810x40a5aa": 2785,
    "32cs": 2786,
    "\u2581th32cs": 2787,
    "destroy": 2788,
    "\u2581getusernamew": 2789,
    "utdown": 2790,
    "\u25810x40933c": 2791,
    "287e": 2792,
    "\u25810x2ac": 2793,
    "\u2581ls": 2794,
    "e4c": 2795,
    "\u25810x1211e1c": 2796,
    "\u2581invalidaterect": 2797,
    "\u2581fill": 2798,
    "\u25810x4400": 2799,
    "\u2581messagebox": 2800,
    "\u2581getsystemdirectorya": 2801,
    "empty": 2802,
    "f80": 2803,
    "488": 2804,
    "f62": 2805,
    "\u2581getlogicaldrivestringsw": 2806,
    "\u2581getke": 2807,
    "\u2581getkeystate": 2808,
    "\u25810x1211f6c": 2809,
    "\u25810x7dc8": 2810,
    "\u25810x409344": 2811,
    "\u2581type": 2812,
    "\u25810x4f5": 2813,
    "\u2581gethost": 2814,
    "\u2581bind": 2815,
    "openenum": 2816,
    "\u2581wnetopenenum": 2817,
    "\u2581wnetopenenumw": 2818,
    "\u2581y": 2819,
    "\u2581wsprintfa": 2820,
    "ddata": 2821,
    "lipboar": 2822,
    "lipboarddata": 2823,
    "\u2581destroyicon": 2824,
    "\u25810x52000": 2825,
    "\u25810x120f8": 2826,
    "byname": 2827,
    "\u2581createfontindirecta": 2828,
    "ecta": 2829,
    "\u2581gethostbyname": 2830,
    "hip": 2831,
    "members": 2832,
    "cad": 2833,
    "108": 2834,
    "\u2581getkeyboardstate": 2835,
    "\u2581wnetadd": 2836,
    "membership": 2837,
    "\u2581checktoken": 2838,
    "\u2581checktokenmembership": 2839,
    "\u25810x26": 2840,
    "\u2581wnetaddconnection2w": 2841,
    "ssp": 2842,
    "\u25810x42c508": 2843,
    "\u2581wnetenum": 2844,
    "ateprocess": 2845,
    "\u2581wnetenumresourcew": 2846,
    "740": 2847,
    "\u2581fillrect": 2848,
    "hash": 2849,
    "\u25810x3e8": 2850,
    "losec": 2851,
    "\u2581createdib": 2852,
    "\u2581accessviolation": 2853,
    "\u2581createdibsection": 2854,
    "\u25810x1211e14": 2855,
    "cancel": 2856,
    "\u25810x1076": 2857,
    "\u2581wnetcancel": 2858,
    "\u2581wnetcancelconnection2w": 2859,
    "conex": 2860,
    "ogram": 2861,
    "\u25810x4528": 2862,
    "edex": 2863,
    "\u2581output": 2864,
    "\u25810x1211f10": 2865,
    "\u2581outputdebug": 2866,
    "\u2581lstrcpynw": 2867,
    "a58": 2868,
    "edexchange": 2869,
    "\u2581interlockedexchange": 2870,
    "\u25810x65": 2871,
    "\u25810x1e5": 2872,
    "\u25810x7b40": 2873,
    "\u2581setclass": 2874,
    "\u25810x5e": 2875,
    "\u2581geticoninfo": 2876,
    "\u2581unhandledexceptionfilter": 2877,
    "\u2581createsemaphore": 2878,
    "\u2581drawicon": 2879,
    "\u2581openclipboard": 2880,
    "\u2581setclipboarddata": 2881,
    "\u25810x7b10": 2882,
    "\u2581empty": 2883,
    "special": 2884,
    "\u2581closec": 2885,
    "\u2581shgetspecial": 2886,
    "\u2581closeclipboard": 2887,
    "\u2581emptyclipboard": 2888,
    "\u2581shellexecut": 2889,
    "emory": 2890,
    "\u25810x2100": 2891,
    "alog": 2892,
    "zer": 2893,
    "palette": 2894,
    "\u2581setclasslonga": 2895,
    "\u25810x43b6": 2896,
    "\u2581extracti": 2897,
    "geo": 2898,
    "\u2581shellexecuteexw": 2899,
    "\u2581list": 2900,
    "\u2581extractassociatedicona": 2901,
    "\u2581extractassociatediconw": 2902,
    "\u2581fe": 2903,
    "\u25810x7030": 2904,
    "\u2581shutdown": 2905,
    "\u25810x79c0": 2906,
    "zerom": 2907,
    "\u2581rtlzerom": 2908,
    "\u2581rtlzeromemory": 2909,
    "\u2581cb": 2910,
    "\u25810x4096": 2911,
    "instruction": 2912,
    "\u2581findwindowexa": 2913,
    "dateresourcew": 2914,
    "\u2581registerservicectrlhandlerw": 2915,
    "\u2581endup": 2916,
    "\u2581updateresourcea": 2917,
    "\u2581endupdateresourcea": 2918,
    "\u2581beginupdateresourcea": 2919,
    "geoid": 2920,
    "\u2581getusergeoid": 2921,
    "\u25810x7d99": 2922,
    "\u25810x1211f18": 2923,
    "\u2581htonl": 2924,
    "\u25810x7e88": 2925,
    "\u25810x41e1": 2926,
    "\u2581beginupdateresourcew": 2927,
    "aff": 2928,
    "\u2581ass": 2929,
    "\u25810x75d0": 2930,
    "\u25810x7e89": 2931,
    "octls": 2932,
    "\u2581ioctls": 2933,
    "\u2581ioctlsocket": 2934,
    "\u2581extracticonex": 2935,
    "\u25810x8c70": 2936,
    "\u2581extracticonexw": 2937,
    "680": 2938,
    "\u2581listen": 2939,
    "\u2581terminateprocess": 2940,
    "\u25810x1e00000": 2941,
    "\u25810x1e50000": 2942,
    "\u25810x7da0": 2943,
    "\u25810x7d98": 2944,
    "\u25810x79a0": 2945,
    "\u25810x3f20": 2946,
    "\u25810x8c60": 2947,
    "\u2581em": 2948,
    "\u25810x8090": 2949,
    "\u2581getpe": 2950,
    "\u2581snapprocess": 2951,
    "ername": 2952,
    "\u25810xb0000": 2953,
    "\u2581getpeername": 2954,
    "\u25810x42c4d8": 2955,
    "\u2581ra": 2956,
    "typ": 2957,
    "\u2581mar": 2958,
    "\u25810x41bc20": 2959,
    "\u2581exception": 2960,
    "\u25810x7a50": 2961,
    "\u25810x8001": 2962,
    "\u25810x2ac45": 2963,
    "\u25810x7b000": 2964,
    "echeck": 2965,
    "\u25810x435390": 2966,
    "\u25810x71e0": 2967,
    "\u25810x7a10": 2968,
    "\u25810x40287e": 2969,
    "\u25810x7e4": 2970,
    "\u25810x7d9c": 2971,
    "\u2581releases": 2972,
    "\u25810x7750": 2973,
    "eexception": 2974,
    "\u25810x46b4": 2975,
    "\u25810x7d9d": 2976,
    "\u25810x8aa0": 2977,
    "\u2581rais": 2978,
    "\u25810x74e0": 2979,
    "\u2581raiseexception": 2980,
    "\u25816": 2981,
    "\u25810x56bb00": 2982,
    "\u25810x188e": 2983,
    "\u25810x100000": 2984,
    "\u25810x7cf0": 2985,
    "\u25810x7da1": 2986,
    "\u25810xae": 2987,
    "\u25810x7ae0": 2988,
    "6e8": 2989,
    "bas": 2990,
    "\u25810x72d0": 2991,
    "\u25810x7af0": 2992,
    "\u25810x7210": 2993,
    "\u25810x771c": 2994,
    "\u25810x508": 2995,
    "e6c": 2996,
    "\u25810x7240": 2997,
    "\u25810x7600": 2998,
    "\u25810x415": 2999,
    "\u2581outof": 3000,
    "\u25810x85d0": 3001,
    "\u25810x7a20": 3002,
    "cre": 3003,
    "\u25810x1210ec": 3004,
    "ff8": 3005,
    "\u25810x8c90": 3006,
    "\u25810x48400": 3007,
    "\u25810x7180": 3008,
    "\u25810x75a0": 3009,
    "de8": 3010,
    "\u25810x7db4": 3011,
    "\u25810x70c0": 3012,
    "ecall": 3013,
    "\u25810x7720": 3014,
    "\u25810x7db5": 3015,
    "788": 3016,
    "\u25810x11000": 3017,
    "\u25810x4228": 3018,
    "\u25810x567": 3019,
    "\u25810x7660": 3020,
    "\u25810x8ab0": 3021,
    "failed": 3022,
    "\u25810x7120": 3023,
    "\u25810x7480": 3024,
    "\u25810x7330": 3025,
    "found": 3026,
    "\u25810x7570": 3027,
    "\u25810x7ba0": 3028,
    "\u25810x5638": 3029,
    "\u25810x76c0": 3030,
    "\u25810x417": 3031,
    "\u25810x76f0": 3032,
    "os": 3033,
    "\u25810x343": 3034,
    "\u25810x7360": 3035,
    "\u25810xffe1": 3036,
    "ins": 3037,
    "\u25810x74b0": 3038,
    "\u25810x7da4": 3039,
    "\u25810x6a6": 3040,
    "\u25810x70f0": 3041,
    "\u25810x7510": 3042,
    "\u25810x7840": 3043,
    "with": 3044,
    "\u25810x7960": 3045,
    "cp": 3046,
    "\u25810x7420": 3047,
    "ysi": 3048,
    "\u25810x7450": 3049,
    "\u2581feb": 3050,
    "\u25810x77b0": 3051,
    "\u25810xffe0": 3052,
    "\u25810x73c0": 3053,
    "\u25810x7990": 3054,
    "\u25810xffe4": 3055,
    "ust": 3056,
    "gument": 3057,
    "\u25810x40b8": 3058,
    "\u25810xfffe": 3059,
    "\u25810x80c410": 3060,
    "\u2581sep": 3061,
    "\u25810x8d20": 3062,
    "\u25810x1009": 3063,
    "\u25810x8d00": 3064,
    "\u25815": 3065,
    "\u25810x7630": 3066,
    "\u2581registerclassexw": 3067,
    "\u25810x4340": 3068,
    "une": 3069,
    "\u25810xaf": 3070,
    "\u25810x1211e34": 3071,
    "argument": 3072,
    "th": 3073,
    "\u25810x4317e0": 3074,
    "\u25810x8c30": 3075,
    "\u25810x7da5": 3076,
    "\u2581net": 3077,
    "\u2581sept": 3078,
    "\u25810x40e": 3079,
    "\u25810x7780": 3080,
    "ied": 3081,
    "\u2581v": 3082,
    "c42": 3083,
    "\u25810x1005": 3084,
    "\u25810x8bd0": 3085,
    "\u25810x7b70": 3086,
    "\u25810x417b": 3087,
    "ccess": 3088,
    "\u25810x43640": 3089,
    "\u25810x770d": 3090,
    "eexa": 3091,
    "creating": 3092,
    "hysi": 3093,
    "index": 3094,
    "ged": 3095,
    "\u2581febr": 3096,
    "barcad": 3097,
    "\u25810xffba": 3098,
    "\u25810xffbb": 3099,
    "barcadero": 3100,
    "\u2581embarcadero": 3101,
    "\u25810x1211f74": 3102,
    "\u25810xffbe": 3103,
    "ober": 3104,
    "\u25810xffbc": 3105,
    "\u25810xffbd": 3106,
    "gust": 3107,
    "\u2581aug": 3108,
    "\u2581april": 3109,
    "\u25810xffb7": 3110,
    "\u2581august": 3111,
    "\u2581november": 3112,
    "\u2581september": 3113,
    "\u25810xffb9": 3114,
    "\u25810xffb8": 3115,
    "\u25810xfffd": 3116,
    "\u2581div": 3117,
    "\u25810x8c10": 3118,
    "\u25810xffbf": 3119,
    "\u25810x416b": 3120,
    "\u25810x3410c60": 3121,
    "lication": 3122,
    "c8c": 3123,
    "\u25810x5265c28": 3124,
    "bound": 3125,
    "\u25810xfffc": 3126,
    "\u25810x8ba0": 3127,
    "\u25810x5265f": 3128,
    "\u2581outofmemory": 3129,
    "\u2581physi": 3130,
    "\u2581physical": 3131,
    "\u25810x435088": 3132,
    "\u25810x7ef0": 3133,
    "78c": 3134,
    "\u25810xffa0": 3135,
    "uter": 3136,
    "anuary": 3137,
    "\u2581march": 3138,
    "\u2581february": 3139,
    "uly": 3140,
    "\u2581december": 3141,
    "\u2581october": 3142,
    "\u2581thu": 3143,
    "nesday": 3144,
    "\u25810xffa1": 3145,
    "\u25810xffa2": 3146,
    "\u2581monday": 3147,
    "\u2581sunday": 3148,
    "\u2581tuesday": 3149,
    "\u2581wednesday": 3150,
    "\u2581lock": 3151,
    "ursday": 3152,
    "\u25810xffb6": 3153,
    "\u2581thursday": 3154,
    "\u2581setfileinformationbyhandlew": 3155,
    "\u2581getfileinformationbyhandleexw": 3156,
    "\u2581fri": 3157,
    "iday": 3158,
    "urday": 3159,
    "\u2581friday": 3160,
    "exception": 3161,
    "\u2581saturday": 3162,
    "\u25810xffa3": 3163,
    "ond": 3164,
    "f8000": 3165,
    "\u25810xffa4": 3166,
    "\u2581fmode": 3167,
    "afecall": 3168,
    "ad4": 3169,
    "\u2581createpalette": 3170,
    "den": 3171,
    "\u25810x7da8": 3172,
    "\u25810x8ca0": 3173,
    "\u25810xfffb": 3174,
    "\u25810xffa7": 3175,
    "\u25810xffa6": 3176,
    "\u25810x84b0": 3177,
    "\u25810x8c40": 3178,
    "\u25810xffa5": 3179,
    "facen": 3180,
    "licen": 3181,
    "sspace": 3182,
    "\u2581interfacen": 3183,
    "\u25810x8cd0": 3184,
    "\u2581isspace": 3185,
    "\u25810xffcd": 3186,
    "\u25810x42b40": 3187,
    "\u25810xcf0000": 3188,
    "\u2581asser": 3189,
    "\u25810x58de20": 3190,
    "\u25810x8be0": 3191,
    "\u25810x8bb0": 3192,
    "c88": 3193,
    "\u25810x8310": 3194,
    "\u25810x42d3d8": 3195,
    "\u2581external": 3196,
    "\u25810x714": 3197,
    "\u2581stack": 3198,
    "\u25810xffb5": 3199,
    "\u25810xffa8": 3200,
    "\u25810x8c00": 3201,
    "\u25810xffa9": 3202,
    "\u2581privile": 3203,
    "\u2581assertion": 3204,
    "styp": 3205,
    "\u2581the": 3206,
    "\u2581integ": 3207,
    "\u25810x4394": 3208,
    "wind": 3209,
    "\u25810x7da9": 3210,
    "insafecall": 3211,
    "\u2581exceptioninsafecall": 3212,
    "cor": 3213,
    "\u25810x4308": 3214,
    "\u25810x51af": 3215,
    "changet": 3216,
    "\u2581variantchanget": 3217,
    "\u2581disk": 3218,
    "calls": 3219,
    "under": 3220,
    "\u25810xffaa": 3221,
    "\u2581getwindowsdirectorya": 3222,
    "notfound": 3223,
    "\u25810x53000000": 3224,
    "500000": 3225,
    "ecast": 3226,
    "\u25810xffe6": 3227,
    "\u25810xfffa": 3228,
    "\u25810x51c": 3229,
    "\u25810x7230": 3230,
    "underflow": 3231,
    "\u2581lstrcmpa": 3232,
    "denied": 3233,
    "207": 3234,
    "\u2581assertionfailed": 3235,
    "bounds": 3236,
    "\u2581rtlun": 3237,
    "mod": 3238,
    "\u2581rtlunwind": 3239,
    "\u2581privileged": 3240,
    "clas": 3241,
    "\u2581chit": 3242,
    "otsuped": 3243,
    "classtyp": 3244,
    "indexout": 3245,
    "notsuped": 3246,
    "\u2581lstrcpyna": 3247,
    "classtypecast": 3248,
    "\u2581externalexception": 3249,
    "\u2581interfacenotsuped": 3250,
    "\u2581rang": 3251,
    "ofbounds": 3252,
    "overflow": 3253,
    "\u2581rangecheck": 3254,
    "callsnotsuped": 3255,
    "\u2581errorcreating": 3256,
    "indexoutofbounds": 3257,
    "\u2581errorcreatingvariant": 3258,
    "\u2581invalidclasstypecast": 3259,
    "\u2581variantcallsnotsuped": 3260,
    "\u2581floatingpointunderflow": 3261,
    "typecon": 3262,
    "\u25810xffce": 3263,
    "typeconversion": 3264,
    "\u2581stackoverflow": 3265,
    "pointeroperation": 3266,
    "\u2581privilegedinstruction": 3267,
    "\u2581invalidvariantoperation": 3268,
    "\u2581invalidvarianttypeconversion": 3269,
    "pointo": 3270,
    "leaccess": 3271,
    "\u25810x1210e0": 3272,
    "pointoverflow": 3273,
    "divisionbyzero": 3274,
    "\u2581floatingpointoverflow": 3275,
    "\u2581floatingpointdivisionbyzero": 3276,
    "\u25810xffb4": 3277,
    "floating": 3278,
    "\u25810x42d390": 3279,
    "\u2581integero": 3280,
    "floatingpoint": 3281,
    "\u2581divisionbyzero": 3282,
    "\u2581integeroverflow": 3283,
    "\u2581rangecheckerror": 3284,
    "\u2581invalidfloatingpoint": 3285,
    "\u2581invalidpointeroperation": 3286,
    "\u2581invalidfloatingpointoperation": 3287,
    "bey": 3288,
    "omany": 3289,
    "beyond": 3290,
    "numeric": 3291,
    "\u2581toomany": 3292,
    "openfiles": 3293,
    "\u2581diskfull": 3294,
    "\u2581readbeyond": 3295,
    "numericinput": 3296,
    "\u2581invalidfilename": 3297,
    "\u2581toomanyopenfiles": 3298,
    "\u2581invalidnumericinput": 3299,
    "\u2581readbeyondendoffile": 3300,
    "\u25810x3f24": 3301,
    "\u2581fileaccess": 3302,
    "\u2581fileaccessdenied": 3303,
    "a0000": 3304,
    "\u25810x4a20": 3305,
    "ceex": 3306,
    "\u25810x1211c08": 3307,
    "cef": 3308,
    "neg": 3309,
    "b88": 3310,
    "\u2581varbstrfrombool": 3311,
    "\u25810x52664": 3312,
    "\u25810x52665": 3313,
    "\u2581sprintf": 3314,
    "infoa": 3315,
    "\u25810x70a8": 3316,
    "\u2581getsyscolorbrush": 3317,
    "afdi": 3318,
    "ypeex": 3319,
    "\u25810x4201": 3320,
    "\u2581wsafdi": 3321,
    "\u25810x40a3d": 3322,
    "\u25810x100300": 3323,
    "\u2581wsafdisset": 3324,
    "\u2581variantchangetypeex": 3325,
    "\u25810x7070": 3326,
    "\u25810xffe5": 3327,
    "\u25810xffcf": 3328,
    "\u2581varadd": 3329,
    "\u2581varneg": 3330,
    "\u2581varnot": 3331,
    "\u2581varsub": 3332,
    "mul": 3333,
    "xor": 3334,
    "idiv": 3335,
    "\u2581varcy": 3336,
    "\u2581varor": 3337,
    "\u2581varr8": 3338,
    "\u2581varand": 3339,
    "\u2581varcmp": 3340,
    "\u2581vardiv": 3341,
    "\u2581varmod": 3342,
    "\u2581varmul": 3343,
    "\u2581varxor": 3344,
    "\u2581varbool": 3345,
    "\u2581vardate": 3346,
    "\u2581varidiv": 3347,
    "\u2581varcyfromstr": 3348,
    "\u2581vari4fromstr": 3349,
    "\u2581varr4fromstr": 3350,
    "\u2581varr8fromstr": 3351,
    "\u2581varbstrfromcy": 3352,
    "\u2581varboolfromstr": 3353,
    "\u2581vardatefromstr": 3354,
    "\u2581varbstrfromdate": 3355,
    "\u25810x47a0": 3356,
    "a44": 3357,
    "f0c": 3358,
    "\u25810x8d60": 3359,
    "\u25810x44280": 3360,
    "\u25810x40b": 3361,
    "\u25810x80c0": 3362,
    "d88": 3363,
    "\u25810x1211ef8": 3364,
    "\u25810xa9b0": 3365,
    "\u25810x42c0": 3366,
    "f88": 3367,
    "\u25810xfff9": 3368,
    "\u25810x1211f78": 3369,
    "\u25810xffb0": 3370,
    "fff0": 3371,
    "\u25810x202": 3372,
    "\u25810x7c40": 3373,
    "\u25810x12110": 3374,
    "\u25810x46b5d4": 3375,
    "\u25810x4615": 3376,
    "\u25810x343b5": 3377,
    "\u25810xffb3": 3378,
    "\u25810x42fb": 3379,
    "\u25810x42332": 3380,
    "yarg1": 3381,
    "\u25810xffb2": 3382,
    "mit": 3383,
    "\u25810x437808": 3384,
    "\u25810x1211ec8": 3385,
    "74c": 3386,
    "gine": 3387,
    "\u25810xffb1": 3388,
    "9bc": 3389,
    "\u25810x42990": 3390,
    "\u25810x13fff0": 3391,
    "\u2581invalidargument": 3392,
    "\u25810x7dad": 3393,
    "\u25810x52663": 3394,
    "\u25810x7dac": 3395,
    "\u2581variantorsafearray": 3396,
    "\u2581errorcreatingvariantorsafearray": 3397,
    "\u2581variantorsafearrayindexoutofbounds": 3398,
    "7e0": 3399,
    "\u25810x71c0": 3400,
    "\u25810x1211ed4": 3401,
    "\u2581shellexecutew": 3402,
    "\u25810x9e": 3403,
    "validate": 3404,
    "\u2581heapvalidate": 3405,
    "\u25810x4df0": 3406,
    "de4": 3407,
    "\u25810x7d20": 3408,
    "\u25810x1210e6": 3409,
    "\u25810xfff8": 3410,
    "\u2581initializesrwlock": 3411,
    "\u2581releasesrwlockexclusive": 3412,
    "584": 3413,
    "\u25810xb000": 3414,
    "\u25810x4fec20": 3415,
    "\u2581di": 3416,
    "\u25810x1210f6": 3417,
    "\u25810x7db1": 3418,
    "\u25810x8d50": 3419,
    "\u25810xb5": 3420,
    "ip": 3421,
    "\u25810x93": 3422,
    "\u25810xfff7": 3423,
    "\u25810x46a0": 3424,
    "b44": 3425,
    "\u25810x71a0": 3426,
    "ise": 3427,
    "\u2581sett": 3428,
    "\u2581setthreadpreferreduilanguages": 3429,
    "ae3": 3430,
    "\u2581vc": 3431,
    "folderw": 3432,
    "\u25810x8d30": 3433,
    "\u25810x9f": 3434,
    "\u2581outputdebugstringa": 3435,
    "\u25810x1210f4": 3436,
    "\u25810x5265e": 3437,
    "\u2581seten": 3438,
    "758": 3439,
    "\u25810x7460": 3440,
    "\u258103": 3441,
    "\u25810xc0": 3442,
    "\u25810x74d0": 3443,
    "\u25810x9cc0": 3444,
    "once": 3445,
    "49": 3446,
    "ac8": 3447,
    "\u25810x3f5000": 3448,
    "ly": 3449,
    "\u25810x41e": 3450,
    "\u2581createsemaphorew": 3451,
    "d3c": 3452,
    "xit": 3453,
    "\u2581rand": 3454,
    "\u25810x409a": 3455,
    "\u25810xfeed": 3456,
    "\u25810x7038": 3457,
    "search": 3458,
    "searchmode": 3459,
    "\u2581setsearchmode": 3460,
    "\u25810x70e0": 3461,
    "\u25810x7620": 3462,
    "\u25810xe00": 3463,
    "\u25810x7cb0": 3464,
    "\u25810x72d8": 3465,
    "\u25810x7498": 3466,
    "ernet": 3467,
    "\u25810x9020": 3468,
    "\u25810x71f8": 3469,
    "\u25810x7310": 3470,
    "\u25810x7b60": 3471,
    "\u2581initon": 3472,
    "profile": 3473,
    "ceexecute": 3474,
    "ceexecuteonce": 3475,
    "\u2581initonceexecuteonce": 3476,
    "808": 3477,
    "\u25810x7380": 3478,
    "prec": 3479,
    "\u2581messageboxa": 3480,
    "\u25810xfff6": 3481,
    "\u25810x4e80": 3482,
    "\u25810x7770": 3483,
    "\u25810x4338": 3484,
    "\u25810x75b0": 3485,
    "\u25810x7118": 3486,
    "\u25810x563868": 3487,
    "\u2581string": 3488,
    "a84": 3489,
    "\u25810x7188": 3490,
    "\u2581move": 3491,
    "\u25810x7268": 3492,
    "driv": 3493,
    "\u25810x7a48": 3494,
    "\u25810x7b98": 3495,
    "runtime": 3496,
    "\u25810x1211e30": 3497,
    "\u25810x7348": 3498,
    "\u25810x7428": 3499,
    "\u25810x1b2": 3500,
    "\u25810x20a": 3501,
    "\u25810x567a40": 3502,
    "\u25810x73b8": 3503,
    "\u25810x48f894": 3504,
    "\u25810x7508": 3505,
    "\u25810x7578": 3506,
    "\u25810x7888": 3507,
    "\u25810x40f937": 3508,
    "precise": 3509,
    "\u25810x75e8": 3510,
    "\u25810x437806": 3511,
    "\u25810x43780a": 3512,
    "\u25810x43780c": 3513,
    "\u25810x43780e": 3514,
    "\u25810x437810": 3515,
    "\u25810x437812": 3516,
    "\u25810x437814": 3517,
    "\u25810x437816": 3518,
    "\u25810x437818": 3519,
    "\u25810x43781a": 3520,
    "\u25810x43781c": 3521,
    "\u25810x43781e": 3522,
    "runtime140": 3523,
    "\u2581vcruntime140": 3524,
    "preciseasfiletime": 3525,
    "\u2581getsystemtimepreciseasfiletime": 3526,
    "\u25810x7738": 3527,
    "\u25810x414": 3528,
    "\u25810x7658": 3529,
    "\u25810x78f8": 3530,
    "\u2581getfileinformationbyhandleex": 3531,
    "\u25810x76c8": 3532,
    "\u25810x7818": 3533,
    "\u25810x7968": 3534,
    "\u25810x42cd": 3535,
    "\u25810x7c08": 3536,
    "\u25810x77a8": 3537,
    "\u25810x7ab8": 3538,
    "\u25810x418a": 3539,
    "\u25810x7ce8": 3540,
    "\u2581heapdestroy": 3541,
    "\u25810x79d8": 3542,
    "\u25810x4c3": 3543,
    "\u25810x4229": 3544,
    "\u25810x7b28": 3545,
    "oem": 3546,
    "64000": 3547,
    "\u25810x4f62": 3548,
    "\u25810x7c78": 3549,
    "\u25810x7d58": 3550,
    "drl6660drl6660drl6660drl6660drl6660drl6660drl6660drl6660": 3551,
    "srw": 3552,
    "\u25810x12117f4": 3553,
    "\u25810x404": 3554,
    "288": 3555,
    "\u2581localfree": 3556,
    "conditionvariablesrw": 3557,
    "\u2581sleepconditionvariablesrw": 3558,
    "\u25810x8814": 3559,
    "918": 3560,
    "\u25810x6f": 3561,
    "\u25810x1211f40": 3562,
    "a41": 3563,
    "\u25810xffd3": 3564,
    "the": 3565,
    "\u25810x1211fb8": 3566,
    "\u25810x7db9": 3567,
    "\u25810x434": 3568,
    "\u2581loadlibraryexa": 3569,
    "\u25810x7df4": 3570,
    "\u25810x66": 3571,
    "\u25810x7db8": 3572,
    "\u2581loadresource": 3573,
    "\u25810x40c": 3574,
    "\u25810xffc6": 3575,
    "\u2581setprocess": 3576,
    "\u25810x7340": 3577,
    "9bf": 3578,
    "\u25810x488": 3579,
    "\u25810x7df5": 3580,
    "\u2581shgetspecialfolderw": 3581,
    "98c": 3582,
    "\u2581of": 3583,
    "ccc": 3584,
    "exit": 3585,
    "\u25810x405": 3586,
    "\u25810x40a9": 3587,
    "\u25810x43ff": 3588,
    "\u2581createwindow": 3589,
    "\u2581createwindowexw": 3590,
    "\u2581corexit": 3591,
    "\u25810x1211dd0": 3592,
    "\u2581corexitprocess": 3593,
    "edirectory": 3594,
    "90000": 3595,
    "\u25810xfeee0108": 3596,
    "accel": 3597,
    "\u25810x7dbc": 3598,
    "\u25810x1210ee": 3599,
    "\u25810x1210f0": 3600,
    "yarg2": 3601,
    "504": 3602,
    "afile": 3603,
    "608": 3604,
    "\u25810x598": 3605,
    "\u25810x7dbd": 3606,
    "ff0": 3607,
    "\u25810x181c": 3608,
    "ols": 3609,
    "92e": 3610,
    "\u25810x770b": 3611,
    "want": 3612,
    "\u2581wak": 3613,
    "\u2581wakeconditionvariable": 3614,
    "\u25810x771b": 3615,
    "\u25810x4c51": 3616,
    "oemcp": 3617,
    "\u25810x8430": 3618,
    "\u2581getoemcp": 3619,
    "\u2581sub": 3620,
    "\u25810x1211df4": 3621,
    "\u25810x1211f24": 3622,
    "\u2581program": 3623,
    "\u25810xffc5": 3624,
    "\u2581submit": 3625,
    "\u2581getdiskfreespaceexw": 3626,
    "\u2581setfileinformationbyhandle": 3627,
    "threadpoolwork": 3628,
    "\u2581closethreadpoolwork": 3629,
    "\u2581createthreadpoolwork": 3630,
    "\u2581submitthreadpoolwork": 3631,
    "\u25810x42a1": 3632,
    "licence": 3633,
    "aac": 3634,
    "\u2581comparestringw": 3635,
    "\u25810xfff5": 3636,
    "2c0": 3637,
    "accelerat": 3638,
    "\u25810x4237": 3639,
    "\u25810x4115": 3640,
    "\u25810x140": 3641,
    "\u25810xffab": 3642,
    "\u25810xf0": 3643,
    "\u2581memcpy": 3644,
    "\u2581remov": 3645,
    "eengine": 3646,
    "\u25810x423e": 3647,
    "7c43": 3648,
    "initializeengine": 3649,
    "\u2581failedtoinitializeengine": 3650,
    "\u2581getkeyboardtype": 3651,
    "\u25810x44d4": 3652,
    "\u25810x4112": 3653,
    "lete": 3654,
    "b60": 3655,
    "licy": 3656,
    "\u25810xbc": 3657,
    "policy": 3658,
    "\u25810xffac": 3659,
    "unction": 3660,
    "ec8": 3661,
    "\u25810x9030": 3662,
    "\u258117": 3663,
    "\u25810x3f30b0": 3664,
    "\u25810xffcc": 3665,
    "\u25810xfc": 3666,
    "\u25810x422e": 3667,
    "\u25810x3f30e0": 3668,
    "240": 3669,
    "\u25810x8815": 3670,
    "\u25810x3f3140": 3671,
    "\u25810x41688": 3672,
    "\u25810x3f3030": 3673,
    "\u25810x3f3110": 3674,
    "deppolicy": 3675,
    "\u25810x3f6000": 3676,
    "\u2581physicaldriv": 3677,
    "1c0": 3678,
    "\u25810x401": 3679,
    "\u25810x4700": 3680,
    "\u2581physicaldrive0": 3681,
    "b00": 3682,
    "\u25810xffd0": 3683,
    "\u25810x3f7000": 3684,
    "\u25810x3fb000": 3685,
    "\u2581setprocessdeppolicy": 3686,
    "656": 3687,
    "b8c": 3688,
    "\u25810x3f21": 3689,
    "\u2581flushfile": 3690,
    "\u2581flushfilebuffers": 3691,
    "\u25810x3f8000": 3692,
    "ok": 3693,
    "928": 3694,
    "\u25810x4c4230": 3695,
    "\u25810x4c4260": 3696,
    "\u25810x4c42a8": 3697,
    "\u2581findresourcew": 3698,
    "\u25810x42a730": 3699,
    "\u25810x42a731": 3700,
    "\u25810x4c4248": 3701,
    "\u25810x4c4278": 3702,
    "\u25810x4c4290": 3703,
    "\u25810x4c4320": 3704,
    "\u25810x4c4338": 3705,
    "\u25810x4c4350": 3706,
    "\u25810x4c4368": 3707,
    "\u2581getwindow": 3708,
    "\u25810x1211f3c": 3709,
    "leasec": 3710,
    "\u25810x1211f70": 3711,
    "\u25810x431e": 3712,
    "\u25810x12118f8": 3713,
    "\u2581ofresource": 3714,
    "\u25810x40a584": 3715,
    "ream": 3716,
    "\u25810x40a582": 3717,
    "\u25810x40a586": 3718,
    "\u25810x40a588": 3719,
    "\u25810x40a58a": 3720,
    "\u25810x1211568": 3721,
    "\u25810x40a580": 3722,
    "\u25810x480": 3723,
    "\u25810x434d": 3724,
    "\u25810x40a57e": 3725,
    "\u25810x429a81": 3726,
    "\u25810x3fa000": 3727,
    "data": 3728,
    "\u25810x3f9000": 3729,
    "\u25810x40a93": 3730,
    "\u25810x41f": 3731,
    "\u2581getclass": 3732,
    "\u25810x437ae4": 3733,
    "\u25810x437207": 3734,
    "\u25810x437208": 3735,
    "\u25810x437ad2": 3736,
    "\u25810x437ad3": 3737,
    "\u25810x437ae3": 3738,
    "\u25810x437b63": 3739,
    "\u25810x437b64": 3740,
    "\u25810x437b7b": 3741,
    "\u25810x437b7c": 3742,
    "\u25810x437bbd": 3743,
    "\u25810x437bbe": 3744,
    "\u25810x437bce": 3745,
    "\u25810x437bcf": 3746,
    "\u25810x437c42": 3747,
    "\u25810x437c43": 3748,
    "\u25810x1210e4": 3749,
    "\u25810x1211c14": 3750,
    "\u25810x419": 3751,
    "\u25810x4c5158": 3752,
    "\u25810x429e2b": 3753,
    "\u25810x429e2c": 3754,
    "\u25810x434d1c": 3755,
    "\u25810x43b7a9": 3756,
    "\u25810x43b7aa": 3757,
    "\u25810x43b7b8": 3758,
    "\u25810x422ebe": 3759,
    "\u25810x43b7b3": 3760,
    "\u25810x43b7b4": 3761,
    "\u25810x43b7ba": 3762,
    "\u25810x43b7c4": 3763,
    "\u25810x41c0": 3764,
    "\u25810x1210ed": 3765,
    "\u25810x1210f5": 3766,
    "104": 3767,
    "\u25810x417c": 3768,
    "metafile": 3769,
    "d4c": 3770,
    "\u25810x60000": 3771,
    "\u25810x41a0": 3772,
    "\u2581lockresource": 3773,
    "100": 3774,
    "700": 3775,
    "\u25810x3f75f60": 3776,
    "904": 3777,
    "d0a": 3778,
    "pi": 3779,
    "\u25810x433648": 3780,
    "meto": 3781,
    "\u25810x1211d08": 3782,
    "imeto": 3783,
    "\u25810x4967a8": 3784,
    "a4c": 3785,
    "d98": 3786,
    "\u25810x7dc0": 3787,
    "\u25810x7e3000": 3788,
    "\u25810x7e4000": 3789,
    "bd0": 3790,
    "ffc": 3791,
    "\u25810x4de": 3792,
    "a9a0": 3793,
    "d44": 3794,
    "access": 3795,
    "184": 3796,
    "\u25810x41f3": 3797,
    "4005": 3798,
    "\u2581findfirstfilea": 3799,
    "\u25810x1211f5c": 3800,
    "9e8": 3801,
    "a10": 3802,
    "\u25810x4227": 3803,
    "\u25810x41a": 3804,
    "\u25810x1211f84": 3805,
    "\u25810x40b3": 3806,
    "\u25810x42fc38": 3807,
    "3e8": 3808,
    "78d": 3809,
    "\u2581are": 3810,
    "\u25810x4470": 3811,
    "\u25810x4284": 3812,
    "\u25810xffd2": 3813,
    "\u25810x1211f80": 3814,
    "9b4": 3815,
    "\u25810x3f75f30": 3816,
    "application": 3817,
    "ts": 3818,
    "log": 3819,
    "f4c": 3820,
    "\u25810x519": 3821,
    "\u25810x44f910": 3822,
    "\u25810x500": 3823,
    "228": 3824,
    "\u25810x6e": 3825,
    "ownload": 3826,
    "\u25810x8260": 3827,
    "\u25810xffad": 3828,
    "340": 3829,
    "\u25810x4960": 3830,
    "\u2581memset": 3831,
    "2ac": 3832,
    "controls": 3833,
    "\u25810x430880": 3834,
    "myarg2": 3835,
    "\u25810x42fbf0": 3836,
    "95000": 3837,
    "\u25810x235": 3838,
    "\u25810x509": 3839,
    "cid": 3840,
    "\u25810x40a5ac": 3841,
    "\u25810xffef": 3842,
    "ceff": 3843,
    "3c8": 3844,
    "\u25810x42a9a0": 3845,
    "dc0": 3846,
    "\u25810xb0": 3847,
    "\u25810x3f23": 3848,
    "\u25810x419c20": 3849,
    "\u25810x1211bd0": 3850,
    "\u25810x4e30": 3851,
    "coree": 3852,
    "\u2581mscoree": 3853,
    "be8": 3854,
    "\u25810x2439f": 3855,
    "\u2581ob": 3856,
    "yarg1myarg2": 3857,
    "718": 3858,
    "e10": 3859,
    "d68": 3860,
    "\u2581setst": 3861,
    "sa": 3862,
    "stream": 3863,
    "\u25810x42d8": 3864,
    "\u25810x7dc1": 3865,
    "\u2581setstdhandle": 3866,
    "\u25810x40ef1": 3867,
    "par": 3868,
    "\u25810x41b": 3869,
    "\u25810x7eab": 3870,
    "\u25810x46b": 3871,
    "\u25810x431": 3872,
    "\u25810x42ce": 3873,
    "\u25810x42a0": 3874,
    "\u25810x51c4": 3875,
    "248": 3876,
    "inity": 3877,
    "\u25810x4c3308": 3878,
    "368": 3879,
    "\u25810x424": 3880,
    "\u25810x4290": 3881,
    "bad8": 3882,
    "\u25810x343b570": 3883,
    "affinity": 3884,
    "affinitymask": 3885,
    "\u25810x7e5000": 3886,
    "\u25810x42992": 3887,
    "\u25810x486d": 3888,
    "\u2581lstrcpya": 3889,
    "ill": 3890,
    "\u25810x4febd8": 3891,
    "bc0": 3892,
    "124": 3893,
    "sto": 3894,
    "\u25810xffc4": 3895,
    "f8c": 3896,
    "\u25810x45f1": 3897,
    "\u25810xffe3": 3898,
    "a70": 3899,
    "\u25810x1210f1": 3900,
    "\u25810x100b": 3901,
    "\u25810xffe2": 3902,
    "\u25810x1211e24": 3903,
    "\u25810x43f0": 3904,
    "\u25810x431f38": 3905,
    "\u25810x2100210": 3906,
    "160": 3907,
    "namea": 3908,
    "\u25810x490": 3909,
    "\u2581removedirectory": 3910,
    "302": 3911,
    "\u25810xffe7": 3912,
    "\u25810x97a0": 3913,
    "f84": 3914,
    "d04": 3915,
    "\u25810xffec": 3916,
    "684": 3917,
    "\u25810x47e0": 3918,
    "748": 3919,
    "\u25810x4330": 3920,
    "\u2581at": 3921,
    "fied": 3922,
    "\u25810x431ef0": 3923,
    "\u2581asw": 3924,
    "\u25810xffae": 3925,
    "sg": 3926,
    "if": 3927,
    "\u2581coinitialize": 3928,
    "ad8": 3929,
    "\u25810x3f2": 3930,
    "\u2581getprocessaffinitymask": 3931,
    "284": 3932,
    "\u25810x1211ccc": 3933,
    "\u25810xffaf": 3934,
    "\u25810x5004": 3935,
    "\u25810x4084": 3936,
    "\u2581install": 3937,
    "26c": 3938,
    "\u25810x99a0": 3939,
    "\u25810x4237d8": 3940,
    "\u25810xffc2": 3941,
    "\u25810x1210f35": 3942,
    "\u25810x42900": 3943,
    "ansi": 3944,
    "\u25810x4fe6e8": 3945,
    "120": 3946,
    "metafilebits": 3947,
    "\u25810x41de": 3948,
    "\u25810x3f34e0": 3949,
    "\u2581regquery": 3950,
    "736": 3951,
    "apis": 3952,
    "\u25810x8250": 3953,
    "d6c": 3954,
    "ntext": 3955,
    "\u25810xff90": 3956,
    "\u25810x40ab": 3957,
    "9c2": 3958,
    "apisansi": 3959,
    "\u2581arefile": 3960,
    "\u2581setenvironment": 3961,
    "\u2581arefileapisansi": 3962,
    "\u2581tmp": 3963,
    "start": 3964,
    "\u2581comm": 3965,
    "\u25810x58000": 3966,
    "\u25810x42f": 3967,
    "\u25810x4efd": 3968,
    "\u25810x1211de4": 3969,
    "\u25810x3f25": 3970,
    "\u25810x20009": 3971,
    "\u25810x56bad8": 3972,
    "\u25810x437820": 3973,
    "9f0": 3974,
    "\u25810x41d114": 3975,
    "\u25810x120f8c2": 3976,
    "768": 3977,
    "\u25810x94c0": 3978,
    "a90000": 3979,
    "delete": 3980,
    "\u2581cadwork": 3981,
    "958": 3982,
    "\u25810x406": 3983,
    "afc": 3984,
    "\u25810x4010": 3985,
    "\u25810xff91": 3986,
    "\u25810x46b3d0": 3987,
    "\u25810x4cb0": 3988,
    "720": 3989,
    "wantto": 3990,
    "accelerators": 3991,
    "\u2581loadaccelerators": 3992,
    "\u25810x1211e00": 3993,
    "2e0": 3994,
    "\u25810x7b80": 3995,
    "\u25810x1211f1c": 3996,
    "304": 3997,
    "\u25810x59c1": 3998,
    "\u2581202203040": 3999,
    "ee4": 4000,
    "\u25810x49c8": 4001,
    "\u25810x59bf": 4002,
    "310": 4003,
    "338": 4004,
    "40c": 4005,
    "5c0": 4006,
    "\u25810x1211e20": 4007,
    "91c": 4008,
    "\u25810x416ed": 4009,
    "a38": 4010,
    "\u2581vers": 4011,
    "\u25810x3f26": 4012,
    "\u25810x99e0": 4013,
    "numberis": 4014,
    "\u25814d5": 4015,
    "reque": 4016,
    "\u2581form": 4017,
    "\u25810x491": 4018,
    "qa": 4019,
    "920": 4020,
    "\u25810x4270": 4021,
    "\u25810x82c0": 4022,
    "\u25810x30000": 4023,
    "\u25810x164": 4024,
    "12c": 4025,
    "728": 4026,
    "\u2581noaccess": 4027,
    "\u2581gdip": 4028,
    "\u2581verset": 4029,
    "conditionmask": 4030,
    "\u2581versetconditionmask": 4031,
    "\u2581ntopen": 4032,
    "inmetafilebits": 4033,
    "204": 4034,
    "\u25810x1210c": 4035,
    "350": 4036,
    "\u25810x5658": 4037,
    "\u25810x1211808": 4038,
    "\u25810x4076": 4039,
    "\u2581getenvironmentstrings": 4040,
    "\u25810xffc3": 4041,
    "ffff0000": 4042,
    "f40": 4043,
    "f70": 4044,
    "a5c": 4045,
    "ivate": 4046,
    "comm": 4047,
    "\u25810x417d": 4048,
    "\u25810x45fc": 4049,
    "434": 4050,
    "264": 4051,
    "744": 4052,
    "716": 4053,
    "\u2581ntopensection": 4054,
    "000000ffff0000": 4055,
    "ac4": 4056,
    "private": 4057,
    "\u25810x6a": 4058,
    "4000000ffff0000": 4059,
    "b68": 4060,
    "2c8": 4061,
    "\u2581findnextfilea": 4062,
    "\u25810x419a": 4063,
    "\u25810x4d50": 4064,
    "\u25810x3f27": 4065,
    "len": 4066,
    "\u25810x60c6": 4067,
    "\u2581setcurrent": 4068,
    "privateprofile": 4069,
    "\u25810x107": 4070,
    "9d0": 4071,
    "301": 4072,
    "\u25810x44d4b8": 4073,
    "\u25810x103": 4074,
    "\u25810xfff4": 4075,
    "\u258110": 4076,
    "\u25810x120f": 4077,
    "\u25810x47f0": 4078,
    "download": 4079,
    "\u2581getwinmetafilebits": 4080,
    "\u25810x408c8": 4081,
    "\u25810x42a190": 4082,
    "984": 4083,
    "a900003": 4084,
    "\u25810x90f0": 4085,
    "\u25814d5a900003": 4086,
    "\u25814d5a9000030000000": 4087,
    "\u25814d5a90000300000004000000ffff0000": 4088,
    "\u25810x41c": 4089,
    "function": 4090,
    "\u25810x7bc": 4091,
    "\u25810x9210": 4092,
    "\u25810x4208": 4093,
    "\u25810x8f50": 4094,
    "econs": 4095,
    "edit": 4096,
    "b4c": 4097,
    "\u25810x41c4": 4098,
    "\u25810x418970": 4099,
    "\u25810x9a90": 4100,
    "\u25810x2825": 4101,
    "\u25810x4088": 4102,
    "\u2581setdll": 4103,
    "344": 4104,
    "118": 4105,
    "2dc": 4106,
    "\u2581wts": 4107,
    "was": 4108,
    "1cc": 4109,
    "3a8": 4110,
    "a0f": 4111,
    "\u25810x2200": 4112,
    "435": 4113,
    "544": 4114,
    "internal": 4115,
    "\u25810x4318": 4116,
    "a48": 4117,
    "\u25810x3f3060": 4118,
    "32c": 4119,
    "tp": 4120,
    "\u2581format": 4121,
    "998": 4122,
    "\u25810x401000": 4123,
    "\u25810x3f3010": 4124,
    "\u25810x4340c8": 4125,
    "\u25810x42d408": 4126,
    "e8c": 4127,
    "eec": 4128,
    "\u25810x53e4": 4129,
    "errornumberis": 4130,
    "\u2581programinternal": 4131,
    "\u2581programinternalerrornumberis": 4132,
    "278": 4133,
    "aaaaaaaa": 4134,
    "\u25810x45f2": 4135,
    "\u2581dragob": 4136,
    "\u25810x1211f97": 4137,
    "144": 4138,
    "olfp": 4139,
    "\u2581controlfp": 4140,
    "358": 4141,
    "\u25810xffdd": 4142,
    "\u2581download": 4143,
    "\u25810x107538": 4144,
    "\u2581version": 4145,
    "\u25810x4554": 4146,
    "fromstream": 4147,
    "\u25810x7ff": 4148,
    "\u25810x41bcb0": 4149,
    "\u25810x41bce0": 4150,
    "\u25810x40a59c": 4151,
    "ned": 4152,
    "884": 4153,
    "\u2581shfolder": 4154,
    "ocreat": 4155,
    "\u25810x4bb0": 4156,
    "ab4": 4157,
    "\u2581commode": 4158,
    "\u25810x408478": 4159,
    "001": 4160,
    "7f0": 4161,
    "b0c": 4162,
    "\u25810x4177": 4163,
    "\u25810x120faa8": 4164,
    "\u25810x1211f44": 4165,
    "940": 4166,
    "itors": 4167,
    "\u25810x7e00": 4168,
    "\u25810x437804": 4169,
    "\u25810x107598": 4170,
    "\u25810x1211768": 4171,
    "3c000": 4172,
    "\u25810x4614": 4173,
    "484": 4174,
    "\u25810x1211900": 4175,
    "\u2581fil": 4176,
    "\u25810x27": 4177,
    "\u2581log": 4178,
    "\u25810x455": 4179,
    "\u25810x107658": 4180,
    "66c": 4181,
    "\u25810x566a40": 4182,
    "90c": 4183,
    "owned": 4184,
    "\u25810x120fd": 4185,
    "a28": 4186,
    "\u25810x9810": 4187,
    "\u2581getsystemtimes": 4188,
    "rand": 4189,
    "ession": 4190,
    "\u25810x41c044": 4191,
    "\u2581oleload": 4192,
    "\u2581oleloadfromstream": 4193,
    "c0c": 4194,
    "\u2581removedirectorya": 4195,
    "\u25819": 4196,
    "reco": 4197,
    "\u25810x54000": 4198,
    "\u25810x9010": 4199,
    "b48": 4200,
    "bb0": 4201,
    "\u2581doy": 4202,
    "\u25810x10e9": 4203,
    "b14": 4204,
    "\u25810x407": 4205,
    "\u25810x4126": 4206,
    "\u25810x1211bfc": 4207,
    "\u25810x7bc00000": 4208,
    "\u2581lcmapstringa": 4209,
    "f46": 4210,
    "\u25810x107688": 4211,
    "you": 4212,
    "\u2581tlsfree": 4213,
    "\u2581setfilepointerex": 4214,
    "960": 4215,
    "\u25810x169bf64": 4216,
    "\u25810x41eb": 4217,
    "9f8": 4218,
    "7a8": 4219,
    "vironmentstringsa": 4220,
    "409": 4221,
    "d84": 4222,
    "\u25810x4990": 4223,
    "\u25810xffc7": 4224,
    "\u25810x3200a": 4225,
    "notin": 4226,
    "528": 4227,
    "\u2581coun": 4228,
    "\u25810x45f4": 4229,
    "5b0": 4230,
    "\u25810x4828": 4231,
    "\u25810x7f02": 4232,
    "\u25810x50850": 4233,
    "437": 4234,
    "d8c": 4235,
    "vchost": 4236,
    "notinitializ": 4237,
    "e84": 4238,
    "f6c": 4239,
    "locknot": 4240,
    "\u25810xffc1": 4241,
    "\u2581oleinitialize": 4242,
    "\u2581dw": 4243,
    "\u2581svchost": 4244,
    "itorsup": 4245,
    "\u2581regedit": 4246,
    "ectlocknot": 4247,
    "\u2581monitorsup": 4248,
    "notinitialized": 4249,
    "ectlocknotowned": 4250,
    "\u2581monitorsupfunction": 4251,
    "\u2581monitorsupfunctionnotinitialized": 4252,
    "888": 4253,
    "\u25812022": 4254,
    "\u25810x3b7": 4255,
    "97f": 4256,
    "\u25810x1075c8": 4257,
    "\u25810x1210e78": 4258,
    "\u25810x1210e7c": 4259,
    "\u25810x644": 4260,
    "\u25810x4378c8": 4261,
    "\u25810xcb000": 4262,
    "\u25810x8f20": 4263,
    "\u2581setdlldirectoryw": 4264,
    "\u25810x8650": 4265,
    "324": 4266,
    "d18": 4267,
    "compar": 4268,
    "compareex": 4269,
    "compareexchange": 4270,
    "\u2581interlockedcompareexchange": 4271,
    "\u25810x169bf74": 4272,
    "af4": 4273,
    "filewas": 4274,
    "specified": 4275,
    "\u25810x1211e18": 4276,
    "witht": 4277,
    "\u2581openprocess": 4278,
    "3c0": 4279,
    "\u2581registerclassa": 4280,
    "\u2581thespecified": 4281,
    "filewasnotfound": 4282,
    "\u2581thespecifiedfilewasnotfound": 4283,
    "\u25810x411": 4284,
    "\u25810x1075f8": 4285,
    "\u25810x107628": 4286,
    "\u25810x188e00": 4287,
    "1f0": 4288,
    "\u25810x1211db8": 4289,
    "\u2581loadacceleratorsw": 4290,
    "mb": 4291,
    "base": 4292,
    "lower": 4293,
    "\u2581shellexecutea": 4294,
    "ef0": 4295,
    "db24": 4296,
    "\u25810x4330c8": 4297,
    "\u2581getcurrentdirectorya": 4298,
    "794": 4299,
    "db0": 4300,
    "\u25810x4086": 4301,
    "\u2581remove": 4302,
    "\u2581movefilea": 4303,
    "lcid": 4304,
    "\u25810x8a60": 4305,
    "\u25810x188d3c": 4306,
    "2c4": 4307,
    "will": 4308,
    "windows": 4309,
    "50000": 4310,
    "\u2581getstringtypea": 4311,
    "\u25810x181": 4312,
    "\u2581msvcr90": 4313,
    "34c": 4314,
    "b84": 4315,
    "\u2581strcmp": 4316,
    "50c": 4317,
    "\u2581writ": 4318,
    "\u25810x4196": 4319,
    "a20": 4320,
    "\u25810x1bf": 4321,
    "9e0": 4322,
    "\u2581writecons": 4323,
    "\u25810x8660": 4324,
    "9a0": 4325,
    "\u2581sa": 4326,
    "178": 4327,
    "\u25810x8f70": 4328,
    "\u25810x42c5d0": 4329,
    "\u25810x63000000": 4330,
    "70c": 4331,
    "dl": 4332,
    "instal": 4333,
    "\u25810x4ad4": 4334,
    "dff": 4335,
    "core": 4336,
    "75000": 4337,
    "\u25810x45fe": 4338,
    "\u25810x82f0": 4339,
    "\u25810x1211938": 4340,
    "978": 4341,
    "computer": 4342,
    "2a0": 4343,
    "d28": 4344,
    "d40": 4345,
    "\u25810x40ac": 4346,
    "\u25810x188e24": 4347,
    "lay": 4348,
    "91000": 4349,
    "\u25810x45f6": 4350,
    "lsid": 4351,
    "5a0": 4352,
    "\u25810x5c000": 4353,
    "b20": 4354,
    "dat": 4355,
    "\u25810x45f3": 4356,
    "\u25810x44000": 4357,
    "\u25810x45f5": 4358,
    "\u25810x42efe8": 4359,
    "\u2581e000": 4360,
    "80004005": 4361,
    "\u25810x1211ef4": 4362,
    "\u2581error0x80004005": 4363,
    "\u25810x45f7": 4364,
    "\u25810x45fa": 4365,
    "\u25810x80c": 4366,
    "7d000": 4367,
    "43c": 4368,
    "acqui": 4369,
    "acquireco": 4370,
    "\u25810x2439f74": 4371,
    "acquirecontext": 4372,
    "\u2581cryptacquirecontext": 4373,
    "7d0": 4374,
    "\u25810x4319": 4375,
    "\u25810x45f8": 4376,
    "\u25810xd8": 4377,
    "560": 4378,
    "\u25810x4efd98": 4379,
    "\u2581clsid": 4380,
    "\u2581filet": 4381,
    "\u25810xa4a0": 4382,
    "\u2581filetimeto": 4383,
    "\u25810xd2": 4384,
    "\u25810x4111": 4385,
    "\u25810x45f9": 4386,
    "env": 4387,
    "\u25810x9af0": 4388,
    "148": 4389,
    "seek": 4390,
    "92000": 4391,
    "\u25810x4fc": 4392,
    "\u25810x9d10": 4393,
    "71000": 4394,
    "\u2581setthreadlocale": 4395,
    "b964": 4396,
    "\u25810xffde": 4397,
    "\u25810x10e9bc": 4398,
    "\u25810x1211ecc": 4399,
    "\u25810xfeee012": 4400,
    "9b6": 4401,
    "leasecont": 4402,
    "\u2581clsidfrom": 4403,
    "releasecont": 4404,
    "releasecontext": 4405,
    "9d000": 4406,
    "\u25810x22e": 4407,
    "\u25810x4232": 4408,
    "heme": 4409,
    "9d8": 4410,
    "\u2581couninitialize": 4411,
    "a90": 4412,
    "\u2581uxt": 4413,
    "\u2581uxtheme": 4414,
    "fd0": 4415,
    "\u258112": 4416,
    "\u2581getclassinfoa": 4417,
    "e68": 4418,
    "\u25810x45fd": 4419,
    "acc": 4420,
    "f28": 4421,
    "\u25810x4601": 4422,
    "\u25810x8fc0": 4423,
    "\u2581registerclipboard": 4424,
    "\u2581cryptreleasecontext": 4425,
    "\u25810x7d0": 4426,
    "934": 4427,
    "\u25810x3f2210": 4428,
    "\u25810x45ff": 4429,
    "\u25810x9a70": 4430,
    "\u25810x416c": 4431,
    "\u25810x71000000": 4432,
    "\u2581202203031": 4433,
    "\u25810x9ad0": 4434,
    "93e": 4435,
    "\u25810x1860": 4436,
    "96c": 4437,
    "9b8": 4438,
    "9c8": 4439,
    "35000": 4440,
    "\u25810x4cf": 4441,
    "a6c": 4442,
    "b5c": 4443,
    "b70": 4444,
    "\u25810x1211cfc": 4445,
    "1e4": 4446,
    "994": 4447,
    "f18": 4448,
    "950": 4449,
    "f30": 4450,
    "stringw": 4451,
    "regi": 4452,
    "\u25810xb3": 4453,
    "msg": 4454,
    "6d000": 4455,
    "\u25810x46b400": 4456,
    "55000": 4457,
    "vis": 4458,
    "\u25810x42b0": 4459,
    "\u25810x9c30": 4460,
    "\u25810x80c458": 4461,
    "298": 4462,
    "item": 4463,
    "5e8": 4464,
    "704": 4465,
    "f78": 4466,
    "3d000": 4467,
    "330": 4468,
    "910": 4469,
    "936": 4470,
    "\u25810x169bf94": 4471,
    "99000": 4472,
    "7b4": 4473,
    "d20": 4474,
    "\u25810x431998": 4475,
    "a9000": 4476,
    "\u25810x62": 4477,
    "390": 4478,
    "param": 4479,
    "9c000": 4480,
    "\u25810x4a7": 4481,
    "968": 4482,
    "ctrl": 4483,
    "\u2581exem": 4484,
    "common": 4485,
    "\u2581exemyarg1myarg2": 4486,
    "\u25810x8b50": 4487,
    "2d8": 4488,
    "738": 4489,
    "9b9": 4490,
    "b10": 4491,
    "mputer": 4492,
    "\u25810x422a0": 4493,
    "\u25810x50e10": 4494,
    "\u2581getdiskfreespaceexa": 4495,
    "ae0": 4496,
    "1a0": 4497,
    "15f": 4498,
    "reen": 4499,
    "54000": 4500,
    "bd000": 4501,
    "\u25810xd000": 4502,
    "\u25810x60c690": 4503,
    "\u2581initcommon": 4504,
    "\u2581initcommoncontrols": 4505,
    "a5000": 4506,
    "\u25810x3020": 4507,
    "\u25810xfeee011": 4508,
    "985": 4509,
    "b9000": 4510,
    "\u25810x87": 4511,
    "\u25810x43400": 4512,
    "\u2581pleas": 4513,
    "ad000": 4514,
    "ocreate": 4515,
    "f58": 4516,
    "15000": 4517,
    "\u25810x1211d30": 4518,
    "1a4": 4519,
    "\u25810xc8": 4520,
    "7b8": 4521,
    "\u25810x9730": 4522,
    "ae8": 4523,
    "\u25810xbd": 4524,
    "\u25810x40b4": 4525,
    "\u25810x416d": 4526,
    "\u25810x41678c": 4527,
    "\u2581freeenvironmentstringsa": 4528,
    "\u25810x41678d": 4529,
    "\u25810x42b964": 4530,
    "onexit": 4531,
    "bb8": 4532,
    "\u25810x438": 4533,
    "vice": 4534,
    "b5000": 4535,
    "\u25810x433860": 4536,
    "\u2581lstrcpyn": 4537,
    "listmsg": 4538,
    "\u2581commctrl": 4539,
    "\u2581draglistmsg": 4540,
    "\u25810x4298": 4541,
    "7e000": 4542,
    "\u25810x4030": 4543,
    "\u2581mso": 4544,
    "784": 4545,
    "\u25810x2012": 4546,
    "\u25810x4c97": 4547,
    "c000": 4548,
    "proces": 4549,
    "\u25810x4ac": 4550,
    "\u2581wcs": 4551,
    "\u25810x4155": 4552,
    "\u25810x8ec0": 4553,
    "\u2581getcomputer": 4554,
    "\u2581sc": 4555,
    "only": 4556,
    "\u25810x435000": 4557,
    "570": 4558,
    "\u25810x9c80": 4559,
    "\u25810x41568c": 4560,
    "\u25810x41b0": 4561,
    "\u25810x4199": 4562,
    "\u25810xa210": 4563,
    "114": 4564,
    "6d8": 4565,
    "2f0": 4566,
    "e04": 4567,
    "\u258128": 4568,
    "\u2581ru": 4569,
    "\u25810x440": 4570,
    "\u2581setendoffile": 4571,
    "\u2581getvolumeinformationa": 4572,
    "36c": 4573,
    "fa8": 4574,
    "\u25810x423326": 4575,
    "\u25810x423327": 4576,
    "d48": 4577,
    "\u258124": 4578,
    "5d000": 4579,
    "17000": 4580,
    "\u25810x417b50": 4581,
    "ec4": 4582,
    "\u25810x99c0": 4583,
    "6d736": 4584,
    "\u25810x403": 4585,
    "54c": 4586,
    "created": 4587,
    "\u25810x3956": 4588,
    "\u25810x1211f54": 4589,
    "iserror": 4590,
    "\u258126": 4591,
    "\u25810x109": 4592,
    "\u2581qt": 4593,
    "\u25810x41cc": 4594,
    "ctype": 4595,
    "\u25810x4df": 4596,
    "\u25810x9850": 4597,
    "\u25810x5265c3c": 4598,
    "370": 4599,
    "b98": 4600,
    "uni": 4601,
    "7978": 4602,
    "\u25810x9600": 4603,
    "306": 4604,
    "ac000": 4605,
    "resourcea": 4606,
    "565": 4607,
    "d1ff": 4608,
    "\u25810x181b70": 4609,
    "\u25810x8a41": 4610,
    "382": 4611,
    "644": 4612,
    "ail": 4613,
    "\u25810x208": 4614,
    "ef8": 4615,
    "ce1": 4616,
    "\u25810x8ce0": 4617,
    "\u2581getuserdefaultlcid": 4618,
    "a1000": 4619,
    "\u25810x12117e8": 4620,
    "cc6": 4621,
    "\u25810x4ec": 4622,
    "\u25810x4606": 4623,
    "ig": 4624,
    "\u25810xffcb": 4625,
    "\u25810x12117fc": 4626,
    "18c": 4627,
    "ded": 4628,
    "\u2581findresourcea": 4629,
    "378": 4630,
    "25000": 4631,
    "46000": 4632,
    "\u25810x616": 4633,
    "\u2581userenv": 4634,
    "\u25810x1211ee8": 4635,
    "798": 4636,
    "pre": 4637,
    "\u25810x110": 4638,
    "f38": 4639,
    "acd": 4640,
    "\u25810xfff3": 4641,
    "43000": 4642,
    "\u25810x41a044": 4643,
    "\u25810x492": 4644,
    "\u25810x120ff": 4645,
    "101": 4646,
    "\u2581stor": 4647,
    "\u25810x4feaac": 4648,
    "\u2581lstrcmpi": 4649,
    "\u25810x4cf0": 4650,
    "\u25810xa6b0": 4651,
    "\u2581storage": 4652,
    "inter": 4653,
    "atalog": 4654,
    "\u2581connector": 4655,
    "kart": 4656,
    "9a000": 4657,
    "952": 4658,
    "karton": 4659,
    "\u25810x12110d8": 4660,
    "\u25810x8920": 4661,
    "150": 4662,
    "7c5": 4663,
    "b8000": 4664,
    "\u25810x1211338": 4665,
    "26000": 4666,
    "b58": 4667,
    "bc000": 4668,
    "olec": 4669,
    "mapi": 4670,
    "2acb2": 4671,
    "aab": 4672,
    "unicode": 4673,
    "\u2581b2acb2": 4674,
    "\u2581device": 4675,
    "\u25810xfeee014": 4676,
    "a45": 4677,
    "non": 4678,
    "9b5c": 4679,
    "12000": 4680,
    "2e000": 4681,
    "\u25810xc94": 4682,
    "\u25810x4093e8": 4683,
    "\u25810x44180": 4684,
    "b18": 4685,
    "\u258118": 4686,
    "4d000": 4687,
    "\u2581your": 4688,
    "\u25810x4093e5": 4689,
    "\u25810x4093e6": 4690,
    "\u25810x4093e7": 4691,
    "\u25810xf8": 4692,
    "consolec": 4693,
    "\u25810x4d7978": 4694,
    "fd8": 4695,
    "1e0": 4696,
    "963": 4697,
    "fdd": 4698,
    "\u2581aaa": 4699,
    "\u2581king": 4700,
    "internet": 4701,
    "\u2581tow": 4702,
    "formatw": 4703,
    "\u25810x41e1d8": 4704,
    "\u25810x4ddb24": 4705,
    "db5": 4706,
    "ab000": 4707,
    "\u25810x4200": 4708,
    "\u25810x500410": 4709,
    "plor": 4710,
    "\u25810x7f1": 4711,
    "\u2581lstrcmpw": 4712,
    "b90": 4713,
    "2d000": 4714,
    "\u25810xa260": 4715,
    "\u25810x130": 4716,
    "381": 4717,
    "16c": 4718,
    "d0c": 4719,
    "24000": 4720,
    "34000": 4721,
    "\u2581dwmapi": 4722,
    "rn": 4723,
    "a02": 4724,
    "ncy": 4725,
    "\u25810x4176": 4726,
    "436": 4727,
    "der": 4728,
    "\u25810x9a60": 4729,
    "tokeninformation": 4730,
    "\u2581getprivateprofile": 4731,
    "\u2581cryptbase": 4732,
    "b78": 4733,
    "b6000": 4734,
    "\u25810x12106": 4735,
    "647": 4736,
    "atalogs": 4737,
    "requency": 4738,
    "7dc": 4739,
    "rnl": 4740,
    "14000": 4741,
    "1d000": 4742,
    "32000": 4743,
    "\u2581filenotfound": 4744,
    "ffd1ff": 4745,
    "af0": 4746,
    "nonce": 4747,
    "enerat": 4748,
    "\u2581runonce": 4749,
    "130": 4750,
    "a78": 4751,
    "b30": 4752,
    "\u2581hdd": 4753,
    "\u2581hddreg": 4754,
    "enerator": 4755,
    "\u2581internet": 4756,
    "\u2581hddregenerator": 4757,
    "\u2581gettokeninformation": 4758,
    "b28": 4759,
    "b7000": 4760,
    "\u25810x534": 4761,
    "securityinfo": 4762,
    "604": 4763,
    "7c000": 4764,
    "ae000": 4765,
    "\u25810x678208": 4766,
    "cefrequency": 4767,
    "\u2581queryperformancefrequency": 4768,
    "9fc": 4769,
    "af000": 4770,
    "eexist": 4771,
    "\u2581fileexist": 4772,
    "osk": 4773,
    "a8000": 4774,
    "oskrnl": 4775,
    "\u2581ntoskrnl": 4776,
    "318": 4777,
    "\u25810x42d3c0": 4778,
    "a54": 4779,
    "16000": 4780,
    "a64": 4781,
    "28000": 4782,
    "\u25812d": 4783,
    "\u25810x8d90": 4784,
    "18000": 4785,
    "56000": 4786,
    "\u25810x1211ce0": 4787,
    "ba0": 4788,
    "\u25810xffca": 4789,
    "60c": 4790,
    "5c000": 4791,
    "74000": 4792,
    "bb000": 4793,
    "\u25810x94f0": 4794,
    "500": 4795,
    "be000": 4796,
    "\u25810x5f3": 4797,
    "190": 4798,
    "\u2581dup": 4799,
    "38000": 4800,
    "48000": 4801,
    "7b000": 4802,
    "9e000": 4803,
    "\u25810x468": 4804,
    "747": 4805,
    "9b000": 4806,
    "71c": 4807,
    "\u2581con": 4808,
    "a2000": 4809,
    "c6000": 4810,
    "22000": 4811,
    "36000": 4812,
    "37000": 4813,
    "93000": 4814,
    "linit": 4815,
    "\u2581atexit": 4816,
    "\u2581rtlinit": 4817,
    "unicodestring": 4818,
    "\u2581sys": 4819,
    "a3000": 4820,
    "bc5": 4821,
    "3e000": 4822,
    "b4000": 4823,
    "\u25810xe8": 4824,
    "\u2581task": 4825,
    "viewof": 4826,
    "\u25810x4650": 4827,
    "mapviewof": 4828,
    "mapviewofsection": 4829,
    "f50": 4830,
    "\u2581shgetfile": 4831,
    "1e000": 4832,
    "44000": 4833,
    "b3000": 4834,
    "3c4": 4835,
    "98000": 4836,
    "\u25810xffc8": 4837,
    "76000": 4838,
    "\u25810x52668": 4839,
    "\u2581cl": 4840,
    "a7000": 4841,
    "a8c": 4842,
    "\u25810x5937": 4843,
    "\u25810x4093e9": 4844,
    "\u25810x4093ea": 4845,
    "\u25810x4093eb": 4846,
    "\u2581kingkarton": 4847,
    "ethe": 4848,
    "b2000": 4849,
    "27000": 4850,
    "aa000": 4851,
    "\u25810x518": 4852,
    "56c": 4853,
    "1c000": 4854,
    "\u25810xa9a0": 4855,
    "\u25810x42fc68": 4856,
    "\u2581rtlinitunicodestring": 4857,
    "78000": 4858,
    "a4000": 4859,
    "d5c": 4860,
    "a98": 4861,
    "bcc": 4862,
    "2c000": 4863,
    "\u25810x423868": 4864,
    "\u25810x423898": 4865,
    "\u25810x1211e54": 4866,
    "\u2581ns": 4867,
    "58000": 4868,
    "e6b6": 4869,
    "5e000": 4870,
    "66000": 4871,
    "1b4": 4872,
    "1b8": 4873,
    "\u2581yo": 4874,
    "68000": 4875,
    "96000": 4876,
    "c4000": 4877,
    "605": 4878,
    "68b": 4879,
    "aa0": 4880,
    "d30": 4881,
    "77000": 4882,
    "\u2581duplic": 4883,
    "\u2581taskbar": 4884,
    "\u25810x95d0": 4885,
    "e00": 4886,
    "\u25810x8ef0": 4887,
    "e28": 4888,
    "\u2581pi": 4889,
    "\u25810x411b": 4890,
    "\u25810x41f7": 4891,
    "6c000": 4892,
    "\u25810x598740": 4893,
    "a50": 4894,
    "\u2581getmodulehandl": 4895,
    "bf0": 4896,
    "f85": 4897,
    "a6000": 4898,
    "\u2581lstrc": 4899,
    "\u25810x4ec0": 4900,
    "\u25810x169bc": 4901,
    "\u25810x16000": 4902,
    "94000": 4903,
    "\u25810x409aa4": 4904,
    "\u2581isvalidlocale": 4905,
    "vip": 4906,
    "97000": 4907,
    "\u25810x409aa5": 4908,
    "\u25810x4614d0": 4909,
    "730": 4910,
    "\u2581prvip": 4911,
    "processto": 4912,
    "f60": 4913,
    "ourc": 4914,
    "6e000": 4915,
    "\u2581charpre": 4916,
    "71f": 4917,
    "7cc": 4918,
    "\u25810x1bf9b": 4919,
    "\u25810x40935d": 4920,
    "\u25810x40935e": 4921,
    "\u25810x40935f": 4922,
    "\u25810x409360": 4923,
    "\u25810x409361": 4924,
    "\u25810x409362": 4925,
    "\u25810x409363": 4926,
    "4c000": 4927,
    "9f000": 4928,
    "7e8": 4929,
    "e0c": 4930,
    "\u25810x770f": 4931,
    "processtoken": 4932,
    "\u2581nsiserror": 4933,
    "\u25810x45fb": 4934,
    "\u25810x402": 4935,
    "\u25810x1210e80": 4936,
    "\u2581openprocesstoken": 4937,
    "ecc": 4938,
    "ff4": 4939,
    "\u25810x4c10": 4940,
    "541": 4941,
    "790": 4942,
    "\u25810x131": 4943,
    "\u25810xffc9": 4944,
    "b50": 4945,
    "\u25810x1808": 4946,
    "\u25810x9940": 4947,
    "\u25810x419ce0": 4948,
    "\u25810x53e498": 4949,
    "\u25810x1211fbc": 4950,
    "c4c": 4951,
    "\u25810x180": 4952,
    "778": 4953,
    "seekto": 4954,
    "\u25810x3200a48": 4955,
    "\u2581failedtoseekto": 4956,
    "200": 4957,
    "\u25810x569b48": 4958,
    "startoffile": 4959,
    "\u2581failedtoseektostartoffile": 4960,
    "instan": 4961,
    "6669": 4962,
    "\u25810x43a4": 4963,
    "formata": 4964,
    "d90": 4965,
    "550": 4966,
    "974": 4967,
    "d10": 4968,
    "d50": 4969,
    "\u2581getmenu": 4970,
    "20c": 4971,
    "\u25810x4307e0": 4972,
    "\u25810x41b9": 4973,
    "\u25810x431d": 4974,
    "\u2581failedtoinitializeenginesection": 4975,
    "\u25810x4240": 4976,
    "64c": 4977,
    "withtag": 4978,
    "poolwithtag": 4979,
    "\u2581exallocate": 4980,
    "\u2581exallocatepoolwithtag": 4981,
    "aa8": 4982,
    "\u2581wm": 4983,
    "\u2581commandline": 4984,
    "hook": 4985,
    "b190": 4986,
    "\u2581failedtoinitializeenginestate": 4987,
    "privile": 4988,
    "\u25810x1211e80": 4989,
    "argvw": 4990,
    "toargvw": 4991,
    "\u2581commandlinetoargvw": 4992,
    "\u2581getmodulehandleexw": 4993,
    "a60": 4994,
    "\u2581af": 4995,
    "\u25810x4ee0": 4996,
    "\u25810x3f3080": 4997,
    "110": 4998,
    "ab5": 4999,
    "e58": 5000,
    "\u2581ndr": 5001,
    "\u25810x1211f50": 5002,
    "\u25810x560": 5003,
    "\u2581strlen": 5004,
    "1c6": 5005,
    "9da": 5006,
    "\u25810d0a": 5007,
    "\u2581ndrd": 5008,
    "96e6b6": 5009,
    "\u25810x42b": 5010,
    "92e6669": 5011,
    "96e6b692e6669": 5012,
    "b46": 5013,
    "ef4": 5014,
    "fec": 5015,
    "\u25810x47ee": 5016,
    "\u2581864000": 5017,
    "7ac": 5018,
    "chr": 5019,
    "etype": 5020,
    "\u2581dialog": 5021,
    "\u25810x70000": 5022,
    "\u25810x431f68": 5023,
    "\u25810x3f3040": 5024,
    "932": 5025,
    "a32": 5026,
    "\u25810x99d0": 5027,
    "\u25810xbe": 5028,
    "\u25810x41688a": 5029,
    "\u25810x41688b": 5030,
    "158": 5031,
    "\u25810x5f6": 5032,
    "one": 5033,
    "\u25810x41d2": 5034,
    "5ac": 5035,
    "\u25810x97b0": 5036,
    "\u2581programinternalerrornumberis6": 5037,
    "\u258186400040": 5038,
    "bd4": 5039,
    "\u25810x1210e84": 5040,
    "namew": 5041,
    "\u2581formatmessagea": 5042,
    "fc4": 5043,
    "\u25810x1211f30h": 5044,
    "7a0": 5045,
    "ffcb": 5046,
    "\u2581ver": 5047,
    "\u2581cocreate": 5048,
    "990": 5049,
    "valueexa": 5050,
    "\u25810x1211ed8": 5051,
    "e48": 5052,
    "\u25810x8de0": 5053,
    "\u25810x419cb0": 5054,
    "3a0": 5055,
    "\u25810x9290": 5056,
    "eab": 5057,
    "\u25810x8490": 5058,
    "\u25810x2200220": 5059,
    "im": 5060,
    "9c4": 5061,
    "\u25810x4540": 5062,
    "\u25810x8ed0": 5063,
    "bc6": 5064,
    "d38": 5065,
    "f98": 5066,
    "\u25810x120f7": 5067,
    "70000": 5068,
    "\u25810xffd4": 5069,
    "\u2581kk": 5070,
    "\u25810x3f2420": 5071,
    "\u25810x40a58c": 5072,
    "e61": 5073,
    "\u258114": 5074,
    "f48": 5075,
    "\u25810x40a57c": 5076,
    "\u25810x4c0": 5077,
    "\u2581duplicate": 5078,
    "754": 5079,
    "utton": 5080,
    "\u25810x200020": 5081,
    "\u2581getmessagew": 5082,
    "\u2581cocreateinstan": 5083,
    "f90": 5084,
    "\u258136": 5085,
    "\u25810x4718": 5086,
    "9a6": 5087,
    "\u25810x42eb": 5088,
    "\u25810x5676": 5089,
    "\u25810x7a2": 5090,
    "\u25810x4324": 5091,
    "privilege": 5092,
    "a30": 5093,
    "d58": 5094,
    "df8": 5095,
    "fad": 5096,
    "\u2581instal": 5097,
    "\u2581reset": 5098,
    "\u25810x7b00": 5099,
    "\u2581writeconsole": 5100,
    "a68": 5101,
    "\u2581can": 5102,
    "9cc": 5103,
    "bc4": 5104,
    "fc8": 5105,
    "\u25810x1211b08": 5106,
    "eb8": 5107,
    "\u2581initcommoncontrolsex": 5108,
    "\u25810x40a7": 5109,
    "\u2581getdriv": 5110,
    "14c": 5111,
    "\u25810x1210cf0": 5112,
    "\u2581getdrivetype": 5113,
    "\u25810x1211d44": 5114,
    "715": 5115,
    "\u25810x426": 5116,
    "9b0": 5117,
    "f20": 5118,
    "roll": 5119,
    "\u2581duplicatehandle": 5120,
    "38c": 5121,
    "d24": 5122,
    "\u25810x1211dbc": 5123,
    "7b0": 5124,
    "\u25810x418a00": 5125,
    "\u25810x418a30": 5126,
    "f35": 5127,
    "\u25810x64000": 5128,
    "\u2581writeconsolew": 5129,
    "\u2581setenvironmentvariablea": 5130,
    "66e": 5131,
    "exist": 5132,
    "\u2581setcurrentdirectorya": 5133,
    "ready": 5134,
    "\u2581isctype": 5135,
    "\u25810x58de50": 5136,
    "\u25810x68000": 5137,
    "\u2581lstrcata": 5138,
    "toc": 5139,
    "9dc": 5140,
    "\u25810xb6": 5141,
    "\u25810x43f6": 5142,
    "\u25810xfff2": 5143,
    "9ac": 5144,
    "\u25810x42b190": 5145,
    "\u25810x42eace": 5146,
    "\u25810x1211438": 5147,
    "\u25810x1211f98": 5148,
    "\u25810x416b50": 5149,
    "\u2581qt5": 5150,
    "\u25810x409c": 5151,
    "\u25810x42b4": 5152,
    "\u25810x504": 5153,
    "f74": 5154,
    "\u25810x4f6200": 5155,
    "7ec": 5156,
    "\u2581youm": 5157,
    "\u25810x411555": 5158,
    "\u25810x411556": 5159,
    "ki": 5160,
    "1e8": 5161,
    "f7c": 5162,
    "fd4": 5163,
    "\u25810x134": 5164,
    "\u2581opena": 5165,
    "170": 5166,
    "\u2581cq": 5167,
    "\u2581getconsolemode": 5168,
    "are": 5169,
    "dos": 5170,
    "\u25810x4607": 5171,
    "723": 5172,
    "f44": 5173,
    "\u25810x2357b": 5174,
    "15c": 5175,
    "nam": 5176,
    "\u25810x42c520": 5177,
    "506": 5178,
    "912": 5179,
    "9a8": 5180,
    "a0c": 5181,
    "\u25810x7e30": 5182,
    "ax": 5183,
    "77c": 5184,
    "bbc": 5185,
    "\u25810x4604": 5186,
    "\u25810x1211fa0": 5187,
    "\u25810x75500000": 5188,
    "d83": 5189,
    "\u25810x46c0": 5190,
    "260": 5191,
    "75c": 5192,
    "\u258134": 5193,
    "2b0": 5194,
    "3b8": 5195,
    "\u25810xb1": 5196,
    "\u2581security": 5197,
    "\u25810x600": 5198,
    "1d0": 5199,
    "\u25810x1211bf4": 5200,
    "95c": 5201,
    "\u2581back": 5202,
    "d78": 5203,
    "ior": 5204,
    "\u2581getuserdefaultuilanguage": 5205,
    "a83": 5206,
    "memor": 5207,
    "\u25810x7f8003": 5208,
    "\u25810x7f8004": 5209,
    "\u25810x7f8005": 5210,
    "\u25810x7f8006": 5211,
    "\u25810x7f8007": 5212,
    "\u25810x7f8008": 5213,
    "\u25810x7f8009": 5214,
    "\u25810x7f800a": 5215,
    "\u25810x7f800b": 5216,
    "\u25810x7f800c": 5217,
    "\u25810x7f800d": 5218,
    "atus": 5219,
    "ystatus": 5220,
    "\u2581getcomputernamea": 5221,
    "646": 5222,
    "prior": 5223,
    "\u25810x4095": 5224,
    "\u25810x47a00": 5225,
    "memorystatus": 5226,
    "\u2581globalmemorystatus": 5227,
    "\u2581print": 5228,
    "\u25810x5266c": 5229,
    "\u25810x7f800e": 5230,
    "a7c": 5231,
    "laun": 5232,
    "\u25810x40e5": 5233,
    "\u25810x502dc": 5234,
    "priority": 5235,
    "\u25810x7f800f": 5236,
    "218": 5237,
    "b0000": 5238,
    "printer": 5239,
    "\u25810x4605": 5240,
    "\u25810x450": 5241,
    "\u25810x3010": 5242,
    "launch": 5243,
    "\u2581towlower": 5244,
    "\u25810x1211584": 5245,
    "\u25810x522": 5246,
    "fb8": 5247,
    "\u2581qae": 5248,
    "\u25810x40ef1b": 5249,
    "bd5": 5250,
    "\u25810x44b7": 5251,
    "670": 5252,
    "install": 5253,
    "\u2581qt5core": 5254,
    "\u25810x40ef1a": 5255,
    "aec": 5256,
    "bfc": 5257,
    "\u25810x7ed0": 5258,
    "\u25810x4608": 5259,
    "\u2581getconsolec": 5260,
    "be54": 5261,
    "1ac": 5262,
    "\u2581aa": 5263,
    "\u25810xa010": 5264,
    "\u25810xffdf": 5265,
    "566": 5266,
    "bd7": 5267,
    "times": 5268,
    "\u25810x6940": 5269,
    "\u25810x7df9": 5270,
    "\u25810x1f000": 5271,
    "\u25810x58c034": 5272,
    "\u25810x1211b74": 5273,
    "fb0": 5274,
    "\u25810x4218": 5275,
    "\u2581getconsolecp": 5276,
    "afcdff": 5277,
    "\u25810x7df8": 5278,
    "afcdffceff": 5279,
    "\u2581b2acb2afcdffceff": 5280,
    "run": 5281,
    "0048": 5282,
    "\u25810xffed": 5283,
    "ad6": 5284,
    "\u2581ntquery": 5285,
    "\u25810x1211888": 5286,
    "\u25810xfeee016": 5287,
    "3f0": 5288,
    "a18": 5289,
    "360": 5290,
    "7d8": 5291,
    "b94": 5292,
    "198": 5293,
    "plorer": 5294,
    "\u25810x6a0": 5295,
    "applet": 5296,
    "\u2581environ": 5297,
    "1d4": 5298,
    "baf": 5299,
    "\u25810x4251": 5300,
    "\u25810x4c30": 5301,
    "\u25810x7ec4": 5302,
    "348": 5303,
    "db8": 5304,
    "\u25810xfeee015": 5305,
    "9e4": 5306,
    "9c24": 5307,
    "lien": 5308,
    "\u25810x80be54": 5309,
    "\u2581qa": 5310,
    "versioninfow": 5311,
    "\u25810x6970": 5312,
    "\u25810x1210f9": 5313,
    "3d28": 5314,
    "\u25810x40f6a8": 5315,
    "\u25810x1211b50": 5316,
    "\u2581failedtoopen": 5317,
    "\u2581failedtoopenapplication": 5318,
    "af8": 5319,
    "\u25810x7ce0": 5320,
    "\u2581failedtoopenapplicationlog": 5321,
    "ce3": 5322,
    "image": 5323,
    "\u25810x565868": 5324,
    "1f8": 5325,
    "505": 5326,
    "\u25810x42a6": 5327,
    "\u25810xff86": 5328,
    "\u25810xffd1": 5329,
    "\u25810x8554": 5330,
    "so": 5331,
    "\u25810x598758": 5332,
    "d0000": 5333,
    "24c": 5334,
    "502": 5335,
    "\u25810x41cb": 5336,
    "c7ffd1ff": 5337,
    "c7ffd1ffca": 5338,
    "ffcbff": 5339,
    "c7ffd1ffcaffcbff": 5340,
    "\u2581b2acb2afcdffceffc7ffd1ffcaffcbff": 5341,
    "3e0": 5342,
    "\u25810x1210e30": 5343,
    "944": 5344,
    "a2c": 5345,
    "\u2581he": 5346,
    "ning": 5347,
    "\u25810x7f4": 5348,
    "\u25810xa710": 5349,
    "d1c": 5350,
    "ati": 5351,
    "\u25810x1211790": 5352,
    "ha": 5353,
    "che": 5354,
    "been": 5355,
    "\u25810x4020": 5356,
    "\u25810x1211b54": 5357,
    "1a8": 5358,
    "667": 5359,
    "ects": 5360,
    "\u25810x4041": 5361,
    "\u25810x42d8c6": 5362,
    "bec": 5363,
    "\u25810x4602": 5364,
    "600": 5365,
    "d60": 5366,
    "\u25810x1211d00": 5367,
    "\u25810xfeee009d": 5368,
    "fa4": 5369,
    "\u25810xffe8": 5370,
    "\u25810x1211f0c": 5371,
    "dc8": 5372,
    "\u25810x412f": 5373,
    "\u25810x940000": 5374,
    "\u25810x46b3b8": 5375,
    "aa4": 5376,
    "su": 5377,
    "128": 5378,
    "7d5": 5379,
    "\u258135": 5380,
    "\u25810xff69": 5381,
    "270": 5382,
    "\u25810x740": 5383,
    "\u2581oleacc": 5384,
    "964": 5385,
    "\u25810xf000": 5386,
    "\u25810x4f53c8": 5387,
    "a74": 5388,
    "ify": 5389,
    "145": 5390,
    "button": 5391,
    "enamew": 5392,
    "0060": 5393,
    "\u2581lib": 5394,
    "\u25810xd3d": 5395,
    "bdc": 5396,
    "dcc": 5397,
    "fcc": 5398,
    "\u25810x188e4c": 5399,
    "305": 5400,
    "9c3": 5401,
    "9260": 5402,
    "amet": 5403,
    "\u2581verify": 5404,
    "\u25810x1211cf4": 5405,
    "7bc": 5406,
    "905": 5407,
    "\u25810x4168": 5408,
    "\u2581ps": 5409,
    "7170": 5410,
    "rap": 5411,
    "\u2581ri": 5412,
    "\u2581doyou": 5413,
    "\u25810x4b40": 5414,
    "\u25810x461518": 5415,
    "22c": 5416,
    "e05": 5417,
    "\u2581run": 5418,
    "\u25810x6b6": 5419,
    "b7c": 5420,
    "\u2581logme": 5421,
    "\u25810x4169c0": 5422,
    "\u25810x4169c1": 5423,
    "orno": 5424,
    "\u2581srand": 5425,
    "\u25810x419d": 5426,
    "\u25810x486d18": 5427,
    "72c": 5428,
    "\u2581add": 5429,
    "\u2581append": 5430,
    "bed": 5431,
    "\u2581setupapi": 5432,
    "398": 5433,
    "bd8": 5434,
    "\u25810x40af": 5435,
    "\u25810x4af4": 5436,
    "\u25810x9520": 5437,
    "\u25810xfeee018": 5438,
    "238": 5439,
    "b34": 5440,
    "\u25810x2d4df": 5441,
    "2d0": 5442,
    "ld": 5443,
    "242": 5444,
    "\u25810x51b": 5445,
    "\u25810x4e5c": 5446,
    "adm": 5447,
    "f3c": 5448,
    "\u25810x4760": 5449,
    "\u25810x40a0": 5450,
    "\u25810x40d8": 5451,
    "\u25810x4310": 5452,
    "\u25810x7ec8": 5453,
    "\u25810x4902e0": 5454,
    "river": 5455,
    "\u25810x496790": 5456,
    "\u25810x1211e0c": 5457,
    "e4b8": 5458,
    "oure": 5459,
    "\u25810x41d": 5460,
    "\u25810x7ec5": 5461,
    "\u2581regdelete": 5462,
    "\u25810x7dc4": 5463,
    "\u25810x42fc20": 5464,
    "\u25810x7eaba8": 5465,
    "zone": 5466,
    "\u25810x10a": 5467,
    "0070": 5468,
    "\u25810x599b5c": 5469,
    "\u25810x599c24": 5470,
    "\u25810x59bf3c": 5471,
    "\u25810x59bf7c": 5472,
    "\u25810x59c120": 5473,
    "\u25810x59c138": 5474,
    "a34": 5475,
    "fdc": 5476,
    "\u2581riche": 5477,
    "5a7": 5478,
    "per": 5479,
    "\u25810x7dd9": 5480,
    "\u25810x416ed1": 5481,
    "\u2581getwindowsdirectoryw": 5482,
    "7a7": 5483,
    "adc": 5484,
    "\u25810xcb": 5485,
    "\u25810x44c2": 5486,
    "\u25810x7dc5": 5487,
    "\u25810x416ed2": 5488,
    "\u25810x567678": 5489,
    "\u25810x407b": 5490,
    "\u2581getsystemdefault": 5491,
    "7b6": 5492,
    "beb": 5493,
    "\u2581psapi": 5494,
    "\u25810x4363d8": 5495,
    "\u25810x1210ec0": 5496,
    "ed0": 5497,
    "sys": 5498,
    "a06": 5499,
    "f92": 5500,
    "\u25810x1211ebc": 5501,
    "765": 5502,
    "9be": 5503,
    "\u2581ro": 5504,
    "\u25810x435018": 5505,
    "\u25810x435002": 5506,
    "\u25810x435004": 5507,
    "\u25810x435006": 5508,
    "\u25810x435008": 5509,
    "\u25810x43500a": 5510,
    "\u25810x43500c": 5511,
    "\u25810x43500e": 5512,
    "\u25810x435010": 5513,
    "\u25810x435014": 5514,
    "zoneinformation": 5515,
    "f71": 5516,
    "\u25810x7dd0": 5517,
    "\u25810x120fb": 5518,
    "\u25810x435016": 5519,
    "bff": 5520,
    "\u2581gettimezoneinformation": 5521,
    "1c4": 5522,
    "374": 5523,
    "be0": 5524,
    "fic": 5525,
    "gen": 5526,
    "ame32": 5527,
    "\u2581prop": 5528,
    "\u2581mame32": 5529,
    "\u25810x74000": 5530,
    "\u2581freeware": 5531,
    "6b6": 5532,
    "\u2581work": 5533,
    "\u25810x144": 5534,
    "\u25810x478": 5535,
    "\u2581apphelp": 5536,
    "bcat": 5537,
    "\u25810x46a1": 5538,
    "\u25810x509e4": 5539,
    "a31": 5540,
    "\u25810x44f": 5541,
    "\u2581propsys": 5542,
    "ht": 5543,
    "316": 5544,
    "bcatq": 5545,
    "\u2581clbcatq": 5546,
    "cue": 5547,
    "pla": 5548,
    "move": 5549,
    "30000": 5550,
    "rescue": 5551,
    "mt": 5552,
    "fc0": 5553,
    "\u25810x42d498": 5554,
    "a7b": 5555,
    "3a20": 5556,
    "inki": 5557,
    "inrescue": 5558,
    "\u2581logmeinrescue": 5559,
    "290": 5560,
    "\u2581defwindowprocw": 5561,
    "c84": 5562,
    "cc000": 5563,
    "\u2581logmeinrescueapplet": 5564,
    "314": 5565,
    "\u25810x4188": 5566,
    "\u25810x435012": 5567,
    "\u2581registerwindowmessagea": 5568,
    "\u2581fre": 5569,
    "his": 5570,
    "a94": 5571,
    "f24": 5572,
    "f68": 5573,
    "a3c8": 5574,
    "\u25810xfeedf000": 5575,
    "\u2581getmodulebas": 5576,
    "da0": 5577,
    "\u2581hels": 5578,
    "\u2581helsinki": 5579,
    "program": 5580,
    "screen": 5581,
    "\u25810x424e": 5582,
    "\u2581command": 5583,
    "\u2581getmodulebasenamew": 5584,
    "931": 5585,
    "\u25810x4287": 5586,
    "5ec": 5587,
    "ae2": 5588,
    "\u25810x1211c4c": 5589,
    "fd000": 5590,
    "\u25810x535": 5591,
    "profil": 5592,
    "\u25810x431f20": 5593,
    "valuea": 5594,
    "\u25810x442": 5595,
    "\u25810x4c33": 5596,
    "\u2581regcreate": 5597,
    "\u25810x7e20": 5598,
    "\u25810x3020302": 5599,
    "\u2581cocreateinstance": 5600,
    "7de": 5601,
    "\u25810x4175": 5602,
    "dd4": 5603,
    "\u2581ab": 5604,
    "\u25810xb2": 5605,
    "58c": 5606,
    "\u25810x1211e38": 5607,
    "99e": 5608,
    "bb4": 5609,
    "ster": 5610,
    "\u25810x8e90": 5611,
    "\u25810xff92": 5612,
    "7675": 5613,
    "\u25810x40a2": 5614,
    "\u25810x7d51": 5615,
    "\u25810x8cb0": 5616,
    "\u25810x4c32d8": 5617,
    "\u25810x4c32f0": 5618,
    "\u25810x1211ad0": 5619,
    "df5": 5620,
    "\u25810x40a6": 5621,
    "\u25810xffe9": 5622,
    "2ec": 5623,
    "a24": 5624,
    "\u25810xcccc": 5625,
    "fe0": 5626,
    "\u25810x42ce08": 5627,
    "3d1": 5628,
    "\u25810x42ae": 5629,
    "\u25810x181b48": 5630,
    "303": 5631,
    "buf": 5632,
    "\u258108": 5633,
    "\u25810x4b7": 5634,
    "\u25810x7edc": 5635,
    "\u25810x4040": 5636,
    "\u25810x9c50": 5637,
    "9d1": 5638,
    "dd0": 5639,
    "mut": 5640,
    "\u258103t": 5641,
    "\u25810x40b7": 5642,
    "\u25810x41a9": 5643,
    "\u25810x408c8d": 5644,
    "\u25810x408c8e": 5645,
    "\u25810x1211cb8": 5646,
    "\u2581getfileattributesa": 5647,
    "ee2": 5648,
    "update": 5649,
    "\u25810x7ecc": 5650,
    "\u2581getcursor": 5651,
    "386": 5652,
    "\u2581ol": 5653,
    "\u25810x1211eac": 5654,
    "5cc": 5655,
    "erun": 5656,
    "\u25810x42ec": 5657,
    "\u2581cryptget": 5658,
    "76c": 5659,
    "valuew": 5660,
    "\u25810x423d38": 5661,
    "\u2581regcreatekey": 5662,
    "\u2581verifyversioninfow": 5663,
    "946": 5664,
    "dd8": 5665,
    "\u25810x4106": 5666,
    "\u25810x7ec9": 5667,
    "\u25810x508d0": 5668,
    "7bf": 5669,
    "df0": 5670,
    "atoma": 5671,
    "\u25810x7730": 5672,
    "\u25810x509a8": 5673,
    "\u25810x3f75e88": 5674,
    "uthor": 5675,
    "\u25810x4012": 5676,
    "\u25810x43501a": 5677,
    "1b0": 5678,
    "5c8": 5679,
    "\u25810x412e": 5680,
    "\u25810x41cc54": 5681,
    "\u25810x120f8a6": 5682,
    "da8": 5683,
    "\u25810x7f5": 5684,
    "\u2581appendw": 5685,
    "9a4": 5686,
    "\u25810x4222": 5687,
    "af6": 5688,
    "\u25810x4b8": 5689,
    "\u25810x41bd": 5690,
    "\u25810x423818": 5691,
    "handler": 5692,
    "\u25810x9b30": 5693,
    "\u25810x181b98": 5694,
    "\u2581cryptdestroy": 5695,
    "710": 5696,
    "\u25810x8e50": 5697,
    "\u25810x77000": 5698,
    "\u25810x7f3": 5699,
    "\u25810x7dc9": 5700,
    "\u2581launch": 5701,
    "\u25810x1211ec0": 5702,
    "\u2581lstrcmpia": 5703,
    "300b": 5704,
    "\u25810x4353d8": 5705,
    "fc6": 5706,
    "\u25810x2b4": 5707,
    "\u25810x40d": 5708,
    "\u25810x7ddd": 5709,
    "\u25810xa020": 5710,
    "pc": 5711,
    "\u25810x9ab0": 5712,
    "\u25810x4c9778": 5713,
    "\u25810x1211f68": 5714,
    "processmemory": 5715,
    "d4000": 5716,
    "\u25810x4d0": 5717,
    "\u25810x424f": 5718,
    "\u25810x6b9c": 5719,
    "485": 5720,
    "b3c": 5721,
    "bd6": 5722,
    "fa0": 5723,
    "idto": 5724,
    "\u25810x7c90": 5725,
    "\u25810x563a20": 5726,
    "mi": 5727,
    "pp": 5728,
    "\u25810x5b5": 5729,
    "ce6": 5730,
    "\u25810x180c": 5731,
    "\u25810x4356": 5732,
    "\u25810x7ed1": 5733,
    "\u25810x423df8": 5734,
    "\u25810x12117ec": 5735,
    "\u25810x42a": 5736,
    "\u25810xffd8": 5737,
    "gn": 5738,
    "d00": 5739,
    "\u25810x99f0": 5740,
    "\u2581openmut": 5741,
    "586": 5742,
    "7c6": 5743,
    "\u25810xdc": 5744,
    "186": 5745,
    "741": 5746,
    "\u258104": 5747,
    "\u25810x7f6": 5748,
    "\u25810x3f28": 5749,
    "\u25810x71a1": 5750,
    "\u25810x43501c": 5751,
    "\u25810x43501e": 5752,
    "\u25810x435020": 5753,
    "\u25810x435022": 5754,
    "\u25810x435028": 5755,
    "\u25810x43502a": 5756,
    "\u25810x43502c": 5757,
    "\u25810x43502e": 5758,
    "\u25810x435030": 5759,
    "v1": 5760,
    "d70": 5761,
    "izn": 5762,
    "iznadm": 5763,
    "\u2581mso97": 5764,
    "\u2581triznadm": 5765,
    "au": 5766,
    "e0000": 5767,
    "\u25810x8410": 5768,
    "\u25810x41d1e0": 5769,
    "\u25810x46b388": 5770,
    "\u25810x40d5": 5771,
    "\u25810x9630": 5772,
    "\u2581regenum": 5773,
    "9c6": 5774,
    "blead": 5775,
    "\u2581ismb": 5776,
    "\u25810x7500": 5777,
    "\u25810x513d28": 5778,
    "\u25810x1211a44": 5779,
    "\u2581ismbblead": 5780,
    "\u2581vf": 5781,
    "\u25810x4130": 5782,
    "\u2581getdrivetypea": 5783,
    "\u2581fast": 5784,
    "\u25810x443": 5785,
    "\u25810x700": 5786,
    "\u25810x40d9": 5787,
    "\u25810xfffffffe": 5788,
    "\u25810x4212": 5789,
    "0068": 5790,
    "\u25810x1211d14": 5791,
    "\u2581setenvironmentvariablew": 5792,
    "334": 5793,
    "icen": 5794,
    "inmodule": 5795,
    "\u25810x1210e70": 5796,
    "a3c": 5797,
    "1110": 5798,
    "\u25810x40e7": 5799,
    "\u25810x44c250": 5800,
    "fa000": 5801,
    "\u25810xa050": 5802,
    "\u25810x80c488": 5803,
    "\u25810xfeedf0": 5804,
    "244": 5805,
    "9fe": 5806,
    "00000000": 5807,
    "3d6": 5808,
    "hide": 5809,
    "\u25810x40e9": 5810,
    "hashdata": 5811,
    "\u25810x1211ddc": 5812,
    "9c7": 5813,
    "\u25810x452": 5814,
    "\u25810x41ab": 5815,
    "\u25810x4220": 5816,
    "\u25810x40a5b8": 5817,
    "\u2581gettempfilename": 5818,
    "alse": 5819,
    "\u25810x40a5b0": 5820,
    "\u25810x1211c60": 5821,
    "fed": 5822,
    "006c": 5823,
    "\u2581zip": 5824,
    "ed000": 5825,
    "running": 5826,
    "\u25810x7dcc": 5827,
    "eresource": 5828,
    "\u2581doyouwantto": 5829,
    "403": 5830,
    "5bc": 5831,
    "false": 5832,
    "\u25810x40a5b4": 5833,
    "\u25810x1210e34": 5834,
    "\u25810x6f6": 5835,
    "\u25810x80b": 5836,
    "\u25810x4491": 5837,
    "\u2581openanex": 5838,
    "\u25810x2d4d": 5839,
    "\u25810x40a5ae": 5840,
    "\u25810x40a5b2": 5841,
    "\u25810x40a5b6": 5842,
    "\u25810x40a5ba": 5843,
    "\u2581lo": 5844,
    "strue": 5845,
    "\u25810x484": 5846,
    "\u25810x42a4": 5847,
    "\u25810x431828": 5848,
    "allyour": 5849,
    "\u25810x7dd8": 5850,
    "\u2581istrue": 5851,
    "\u2581isexist": 5852,
    "\u2581isfalse": 5853,
    "\u25810x1211f14": 5854,
    "404": 5855,
    "nexist": 5856,
    "\u25810x636": 5857,
    "\u25810x7dd1": 5858,
    "\u2581iszero": 5859,
    "\u25810x42a00": 5860,
    "ornonexist": 5861,
    "\u2581iszeroornonexist": 5862,
    "\u25810xb7": 5863,
    "\u25810x7dcd": 5864,
    "\u25810x9890": 5865,
    "createhash": 5866,
    "d46": 5867,
    "\u25810x4ed": 5868,
    "\u25810x4c50": 5869,
    "\u25810x7dd4": 5870,
    "\u25810x7ddc": 5871,
    "\u25810xffdc": 5872,
    "\u25810x181c88": 5873,
    "frominternet": 5874,
    "243": 5875,
    "aad": 5876,
    "f10": 5877,
    "\u2581freeresource": 5878,
    "48c": 5879,
    "ce5": 5880,
    "dd000": 5881,
    "\u25810x458": 5882,
    "filespec": 5883,
    "\u25810x181c60": 5884,
    "\u25810x4111d0": 5885,
    "\u25810x1211edc": 5886,
    "a46": 5887,
    "\u25810x80ba": 5888,
    "\u2581removefilespec": 5889,
    "systeminformation": 5890,
    "sk": 5891,
    "f77": 5892,
    "f9000": 5893,
    "\u25810x41a8": 5894,
    "\u25810x7dd5": 5895,
    "\u25810x8820": 5896,
    "\u2581onexit": 5897,
    "\u25810x409c2c": 5898,
    "\u25810x439458": 5899,
    "3db": 5900,
    "e06": 5901,
    "\u25810x3f29": 5902,
    "\u25810x406c": 5903,
    "\u25810x6f00": 5904,
    "\u25810x423e08": 5905,
    "\u2581crypthashdata": 5906,
    "\u2581cryptcreatehash": 5907,
    "\u2581shgetspecialfolder": 5908,
    "9ee": 5909,
    "e74": 5910,
    "ongle": 5911,
    "\u25810x41ff": 5912,
    "ecadwork": 5913,
    "\u25810x1211e4c": 5914,
    "\u25810x76500000": 5915,
    "3f4": 5916,
    "9920": 5917,
    "\u25810x3e6c": 5918,
    "\u25810x4233": 5919,
    "\u25810x4f5320": 5920,
    "\u25810x1211c94": 5921,
    "\u2581removefilespecw": 5922,
    "a63": 5923,
    "1740": 5924,
    "em32": 5925,
    "\u25810x2840": 5926,
    "\u25810x7ecd": 5927,
    "\u2581cryptdestroyhash": 5928,
    "\u2581regqueryvalueexw": 5929,
    "af3": 5930,
    "\u25810x2e7": 5931,
    "\u2581getthreadtimes": 5932,
    "2e8": 5933,
    "9a5": 5934,
    "\u25810x40a4": 5935,
    "\u25810x41aa": 5936,
    "\u25810x4aa0": 5937,
    "\u25810x7f80": 5938,
    "\u25810x1211f94": 5939,
    "\u25810x2840284": 5940,
    "578": 5941,
    "eac": 5942,
    "\u25810xa950": 5943,
    "\u2581registerclipboardformata": 5944,
    "922": 5945,
    "006a": 5946,
    "17c0": 5947,
    "resourc": 5948,
    "\u25810x4b80": 5949,
    "hashparam": 5950,
    "168": 5951,
    "606": 5952,
    "d06": 5953,
    "codep": 5954,
    "codeptr": 5955,
    "\u25810x413b": 5956,
    "\u2581isbadcodeptr": 5957,
    "205": 5958,
    "96e": 5959,
    "f2c": 5960,
    "3008": 5961,
    "ower": 5962,
    "trol": 5963,
    "\u25810x3820": 5964,
    "\u25810x4370": 5965,
    "\u2581systemtim": 5966,
    "\u25810x7ed4": 5967,
    "\u25810xffea": 5968,
    "\u25810x12000": 5969,
    "\u25810x1211e88": 5970,
    "2fc": 5971,
    "486": 5972,
    "\u25810xd3": 5973,
    "6d7363": 5974,
    "\u25810x7fe": 5975,
    "\u25810x85c0": 5976,
    "\u2581please": 5977,
    "\u25810xe06d7363": 5978,
    "\u2581cryptgethashparam": 5979,
    "b97": 5980,
    "uti": 5981,
    "\u25810x40f5": 5982,
    "\u25810x8330": 5983,
    "\u25810x4a8": 5984,
    "9d4": 5985,
    "\u25810x7f7e": 5986,
    "bf4": 5987,
    "\u25810x7ed8": 5988,
    "\u25810x8930": 5989,
    "be4": 5990,
    "\u25810x2d4d9": 5991,
    "\u25810x1211370": 5992,
    "\u25810x1211ba8": 5993,
    "11c": 5994,
    "3a5": 5995,
    "33c4": 5996,
    "\u25810x6d006c": 5997,
    "90e": 5998,
    "b12": 5999,
    "bf6": 6000,
    "7540": 6001,
    "\u25810x4f60": 6002,
    "\u2581cryptacquirecontexta": 6003,
    "926": 6004,
    "235": 6005,
    "6c5": 6006,
    "abc0": 6007,
    "\u2581strcpy": 6008,
    "\u2581getfull": 6009,
    "\u25810x6f006e": 6010,
    "\u25810x710070": 6011,
    "\u25810x770076": 6012,
    "\u25810x790078": 6013,
    "294": 6014,
    "545": 6015,
    "ioc": 6016,
    "4bb8": 6017,
    "\u25810x3810": 6018,
    "\u25810x47d0": 6019,
    "\u25810x455480": 6020,
    "\u25810x690068": 6021,
    "\u25810x6b006a": 6022,
    "\u25810x714d98": 6023,
    "\u25810x730072": 6024,
    "\u25810x750074": 6025,
    "\u25810x7b007a": 6026,
    "\u25810x7d007c": 6027,
    "\u25810x7f007e": 6028,
    "7f4": 6029,
    "\u25810x10e": 6030,
    "\u25810xbcf2": 6031,
    "925": 6032,
    "d55": 6033,
    "de5": 6034,
    "\u2581for": 6035,
    "\u25810x2280": 6036,
    "\u2581globalmemorystatusex": 6037,
    "76e": 6038,
    "db6": 6039,
    "\u25810x419970": 6040,
    "\u25810x4bc298": 6041,
    "666": 6042,
    "5400": 6043,
    "\u25810x53d": 6044,
    "\u25810x3f75f7c": 6045,
    "663": 6046,
    "\u25810x420fe8": 6047,
    "\u25810x9d30": 6048,
    "a1c": 6049,
    "\u25810xa980": 6050,
    "5f0": 6051,
    "\u25810x8770": 6052,
    "\u25810x9028": 6053,
    "\u25810x41a9f0": 6054,
    "\u25810x455468": 6055,
    "\u25810x4f6230": 6056,
    "\u25810x1211ec4": 6057,
    "fox": 6058,
    "\u25810xae20": 6059,
    "\u2581getexit": 6060,
    "d35": 6061,
    "17a8": 6062,
    "20000": 6063,
    "\u25810x1b5": 6064,
    "743": 6065,
    "d85": 6066,
    "\u2581me": 6067,
    "\u2581this": 6068,
    "\u25810x4332": 6069,
    "\u25810x3010301": 6070,
    "f5c": 6071,
    "\u25810x4160": 6072,
    "\u25810x4195": 6073,
    "\u2581messageboxw": 6074,
    "7f8": 6075,
    "9e5": 6076,
    "bf8": 6077,
    "coll": 6078,
    "60000": 6079,
    "\u2581stri": 6080,
    "\u2581shgetfileinfow": 6081,
    "ort": 6082,
    "\u25810xdb": 6083,
    "\u25810xa290": 6084,
    "224": 6085,
    "3de": 6086,
    "f5000": 6087,
    "\u25810xde": 6088,
    "\u25810x4061": 6089,
    "705": 6090,
    "\u25810x1210d90": 6091,
    "\u25810x77000723": 6092,
    "\u2581application": 6093,
    "e55": 6094,
    "\u25810x160": 6095,
    "\u25810xa9d0": 6096,
    "\u25810x3f75f84": 6097,
    "bd2": 6098,
    "3cf0": 6099,
    "installed": 6100,
    "a56": 6101,
    "fc5": 6102,
    "\u25810x433618": 6103,
    "\u25810x3f75f8c": 6104,
    "fig": 6105,
    "pop": 6106,
    "\u25810x4300": 6107,
    "\u25810x6c000": 6108,
    "97c": 6109,
    "prog": 6110,
    "\u2581dat": 6111,
    "384": 6112,
    "3a4": 6113,
    "ba8": 6114,
    "\u25810x424d": 6115,
    "1af": 6116,
    "\u25810xc4": 6117,
    "\u25810x1faf": 6118,
    "\u2581appdata": 6119,
    "\u25810x1211a00": 6120,
    "e2c": 6121,
    "\u258111": 6122,
    "6564": 6123,
    "\u25810xec": 6124,
    "\u2581shgetspecialfoldera": 6125,
    "\u2581mb": 6126,
    "\u25810x4ab": 6127,
    "\u25810x120ee": 6128,
    "aa6": 6129,
    "\u25810x40a92e": 6130,
    "\u25810x40a930": 6131,
    "\u25810x40a932": 6132,
    "\u25810x40a934": 6133,
    "\u25810x40a936": 6134,
    "\u25810x40a938": 6135,
    "\u25810x40a93a": 6136,
    "\u25810x40b888": 6137,
    "\u25810x1211788": 6138,
    "123": 6139,
    "e94": 6140,
    "ass2": 6141,
    "\u25810xe6": 6142,
    "\u2581meip": 6143,
    "\u25810x970": 6144,
    "\u25810x9cf0": 6145,
    "\u25810x4229c1": 6146,
    "\u2581meipass2": 6147,
    "121": 6148,
    "767574": 6149,
    "\u25810x4420": 6150,
    "\u25810x417c10": 6151,
    "\u25810x77767574": 6152,
    "\u25810x9050": 6153,
    "582": 6154,
    "c8000": 6155,
    "etime": 6156,
    "7a7978": 6157,
    "\u25810x4343": 6158,
    "\u25810x410acd": 6159,
    "\u25810x410ace": 6160,
    "\u25810x41e208": 6161,
    "\u25810x7b7a7978": 6162,
    "dfc": 6163,
    "b2c": 6164,
    "b96": 6165,
    "7d7c": 6166,
    "b91": 6167,
    "\u25810x417be0": 6168,
    "161": 6169,
    "ert": 6170,
    "progid": 6171,
    "\u25810x452868": 6172,
    "\u2581openmutexa": 6173,
    "\u2581clsidfromprogid": 6174,
    "\u2581clsidfromstring": 6175,
    "\u25810x4b4": 6176,
    "\u25810x415c": 6177,
    "\u25810x92e0": 6178,
    "7c58": 6179,
    "\u25810x4bcc": 6180,
    "\u25810x1733c4": 6181,
    "\u25810x429260": 6182,
    "322": 6183,
    "3cc": 6184,
    "75e": 6185,
    "ible": 6186,
    "e5000": 6187,
    "\u25810x7fc": 6188,
    "\u25810x88e0": 6189,
    "\u25810x1211684": 6190,
    "sd": 6191,
    "main": 6192,
    "26160": 6193,
    "\u25810x7372": 6194,
    "\u25810x9110": 6195,
    "\u25810xd1": 6196,
    "\u25810x4603": 6197,
    "\u25810x420a0f": 6198,
    "\u25810x420a10": 6199,
    "\u25810x4bc328": 6200,
    "\u25810x4bc358": 6201,
    "\u25810x63626160": 6202,
    "\u25810x73727170": 6203,
    "\u25810x154": 6204,
    "\u25810x3001": 6205,
    "\u25810x5188": 6206,
    "\u25810x6766": 6207,
    "e5c": 6208,
    "fde": 6209,
    "\u25810x593": 6210,
    "\u2581fileexistsa": 6211,
    "2b8": 6212,
    "775": 6213,
    "\u25810x115": 6214,
    "\u25810x8340": 6215,
    "\u25810x41a8a8": 6216,
    "\u25810x41bc98": 6217,
    "\u25810x41bcc8": 6218,
    "\u25810x67666564": 6219,
    "0064": 6220,
    "\u25810x43f": 6221,
    "\u25810xb4ec": 6222,
    "1d5": 6223,
    "2cc": 6224,
    "a6968": 6225,
    "\u25810x40f4": 6226,
    "7d6": 6227,
    "9d3": 6228,
    "\u25810x6700": 6229,
    "\u2581olerun": 6230,
    "\u25810x1210bd7": 6231,
    "\u25810x12116c0": 6232,
    "\u25810x1211c3c": 6233,
    "\u25810x6b6a6968": 6234,
    "681": 6235,
    "d32": 6236,
    "ache": 6237,
    "\u25810x4154": 6238,
    "\u25810x7ed5": 6239,
    "3f8": 6240,
    "9f3": 6241,
    "c20": 6242,
    "\u25810x1211d2c": 6243,
    "\u25810x1211e90": 6244,
    "7d4": 6245,
    "f4e4": 6246,
    "sb": 6247,
    "568": 6248,
    "\u25810x4548": 6249,
    "\u25810x423baf": 6250,
    "\u25810x423bb0": 6251,
    "\u25810x429920": 6252,
    "\u25810x1211c28": 6253,
    "406": 6254,
    "804": 6255,
    "916": 6256,
    "930": 6257,
    "\u2581a7": 6258,
    "e6d6c": 6259,
    "\u25810x1211a14": 6260,
    "\u25810x6f6e6d6c": 6261,
    "\u2581cryptacquirecontextw": 6262,
    "f7b": 6263,
    "fb000": 6264,
    "\u25810x413": 6265,
    "\u25810x44c": 6266,
    "\u25810x7ed9": 6267,
    "\u25810x7ee4": 6268,
    "\u25810x7f7e7d7c": 6269,
    "53a0": 6270,
    "\u2581cal": 6271,
    "ce000": 6272,
    "\u25810x44f850": 6273,
    "\u2581charprevw": 6274,
    "b6c": 6275,
    "ups": 6276,
    "find": 6277,
    "reated": 6278,
    "\u25810x41e2": 6279,
    "\u25810x40a540": 6280,
    "746": 6281,
    "e1c": 6282,
    "f76": 6283,
    "\u25810x350": 6284,
    "\u25810x5617a8": 6285,
    "\u25810x1fa": 6286,
    "\u2581cannot": 6287,
    "\u25810x42168c": 6288,
    "\u25810x44f868": 6289,
    "b75": 6290,
    "dd5": 6291,
    "d5000": 6292,
    "\u25810x42168b": 6293,
    "\u25810x430fec": 6294,
    "\u25810x44f8c8": 6295,
    "\u25810x1211e64": 6296,
    "a43": 6297,
    "\u25810x44f880": 6298,
    "\u25810x44f898": 6299,
    "\u25810x44f8b0": 6300,
    "20e": 6301,
    "\u25810x40ad": 6302,
    "\u25810x40a544": 6303,
    "\u25810x430db0": 6304,
    "\u25810x44f8f8": 6305,
    "\u25810x44f940": 6306,
    "\u25810x44f958": 6307,
    "\u25810x44f970": 6308,
    "\u25810x44f988": 6309,
    "3ac": 6310,
    "\u25810x6b4": 6311,
    "\u25810x120f9": 6312,
    "\u25810x40a53a": 6313,
    "\u25810x40a53c": 6314,
    "\u25810x40a53e": 6315,
    "\u25810x40a542": 6316,
    "dio": 6317,
    "\u258150": 6318,
    "\u2581afx": 6319,
    "\u25810x4014": 6320,
    "\u25810x6300": 6321,
    "\u25810x40a546": 6322,
    "\u25810x41e93e": 6323,
    "\u25810x41ebfa": 6324,
    "\u25810x41ebfb": 6325,
    "da000": 6326,
    "\u25810xd4": 6327,
    "\u25810x9980": 6328,
    "\u25810x120e6d4": 6329,
    "\u25810x1211180": 6330,
    "\u25810x1211bf0": 6331,
    "a26": 6332,
    "ee6": 6333,
    "\u25810x409e": 6334,
    "\u25810xa030": 6335,
    "\u25810xffeb": 6336,
    "\u2581winapp": 6337,
    "33c": 6338,
    "a7d": 6339,
    "raphi": 6340,
    "\u25810x47b1": 6341,
    "\u25810x1211c44": 6342,
    "766": 6343,
    "\u25810x7e50": 6344,
    "\u25810x630062": 6345,
    "\u25810x650064": 6346,
    "\u25810x670066": 6347,
    "2243": 6348,
    "\u25810xed": 6349,
    "\u25810x610060": 6350,
    "\u25810x7ee000": 6351,
    "hlp": 6352,
    "\u25810xda": 6353,
    "\u25810x7f8002": 6354,
    "\u25810x1211e40": 6355,
    "\u2581ntquerysysteminformation": 6356,
    "2a8": 6357,
    "\u2581om": 6358,
    "a526": 6359,
    "tive": 6360,
    "\u25810x2b2": 6361,
    "\u25810x4034": 6362,
    "\u2581gdiplus": 6363,
    "\u25810x4093e4": 6364,
    "\u25810x44e4b8": 6365,
    "230": 6366,
    "28c": 6367,
    "7a4": 6368,
    "ontrol": 6369,
    "random": 6370,
    "\u25810x1e0": 6371,
    "\u25810x59c": 6372,
    "\u25810x41ac": 6373,
    "\u25810x6781c0": 6374,
    "\u25810x6781f0": 6375,
    "548": 6376,
    "2697": 6377,
    "arta": 6378,
    "pipe": 6379,
    "\u25810x7f8010": 6380,
    "781": 6381,
    "9ec": 6382,
    "\u25810xba": 6383,
    "751": 6384,
    "77e": 6385,
    "fbc": 6386,
    "\u25810xe4": 6387,
    "\u25810x40f660": 6388,
    "\u25810x41b9f0": 6389,
    "\u25810x4228e1": 6390,
    "\u25810x431068": 6391,
    "vider": 6392,
    "\u25810x4033": 6393,
    "\u25810x40df": 6394,
    "\u25810x7edd": 6395,
    "\u25810x97c0": 6396,
    "f5e": 6397,
    "genrandom": 6398,
    "\u25810x422980": 6399,
    "imetofiletime": 6400,
    "ea8": 6401,
    "aac0": 6402,
    "64656": 6403,
    "\u25810x41300b": 6404,
    "\u25810x422964": 6405,
    "secor": 6406,
    "session": 6407,
    "\u2581omsecor": 6408,
    "\u25810x423cf0": 6409,
    "\u25810x12117e0": 6410,
    "gex": 6411,
    "\u25810x366": 6412,
    "\u25810x7ee1": 6413,
    "\u25810x42286e": 6414,
    "\u25810x42286f": 6415,
    "\u25810x4228e2": 6416,
    "\u25810x422963": 6417,
    "\u25810x42297f": 6418,
    "\u25810x4229c2": 6419,
    "\u25810x4229fa": 6420,
    "\u25810x4229fb": 6421,
    "\u25810x422a0d": 6422,
    "\u25810x422a0e": 6423,
    "\u25810x42329e": 6424,
    "\u25810x42329f": 6425,
    "\u25810x4233fc": 6426,
    "\u25810x423cef": 6427,
    "7c7": 6428,
    "f64": 6429,
    "\u2581ts": 6430,
    "d8000": 6431,
    "older": 6432,
    "ualfox": 6433,
    "provider": 6434,
    "iocontrol": 6435,
    "controlset": 6436,
    "\u2581currentcontrolset": 6437,
    "f51": 6438,
    "lash": 6439,
    "\u2581ntm": 6440,
    "\u25810x41b8": 6441,
    "\u2581ntmarta": 6442,
    "\u2581movefilew": 6443,
    "cod": 6444,
    "d14": 6445,
    "f7000": 6446,
    "\u25810x584": 6447,
    "\u25810x434388": 6448,
    "systemtime": 6449,
    "\u2581cryptgenrandom": 6450,
    "b38": 6451,
    "b93": 6452,
    "f16": 6453,
    "ally": 6454,
    "\u2581pleasec": 6455,
    "\u25810x4fecb0": 6456,
    "\u25810xfeee009e": 6457,
    "egi": 6458,
    "\u2581ie": 6459,
    "\u2581437": 6460,
    "\u2581stdio": 6461,
    "\u25810x7e51": 6462,
    "\u25810x429903": 6463,
    "\u25810x435228": 6464,
    "\u25810x435240": 6465,
    "\u25810x4378b0": 6466,
    "\u25810x4922c0": 6467,
    "\u25810x4feb14": 6468,
    "\u25810x4feb78": 6469,
    "\u25810x4feb90": 6470,
    "945": 6471,
    "eb0": 6472,
    "\u25810x429902": 6473,
    "\u25810x42990c": 6474,
    "\u25810x42990d": 6475,
    "\u25810x429921": 6476,
    "\u25810x4febc0": 6477,
    "\u25810x4fec08": 6478,
    "\u25810x4fec38": 6479,
    "\u25810x4fec50": 6480,
    "\u25810x4fec68": 6481,
    "\u25810x1211c5c": 6482,
    "\u2581deviceiocontrol": 6483,
    "\u2581oem": 6484,
    "tinue": 6485,
    "already": 6486,
    "\u25810x42e0": 6487,
    "\u2581calloc": 6488,
    "\u25810x42992a": 6489,
    "\u25810x42992b": 6490,
    "\u25810x4fec80": 6491,
    "\u25810x4fec98": 6492,
    "7c0": 6493,
    "9a1": 6494,
    "dc000": 6495,
    "vebeen": 6496,
    "\u25810x1010": 6497,
    "\u25810x1810": 6498,
    "oureally": 6499,
    "\u25810x4acbc0": 6500,
    "321": 6501,
    "0050": 6502,
    "\u2581stem32": 6503,
    "\u25810x423dc8": 6504,
    "\u25810x1211d50": 6505,
    "111": 6506,
    "2d1": 6507,
    "30c": 6508,
    "540": 6509,
    "a4d": 6510,
    "e70": 6511,
    "22433a": 6512,
    "570656": 6513,
    "graphi": 6514,
    "\u25813a526": 6515,
    "1740d0a": 6516,
    "\u25810x4210": 6517,
    "\u25810x8ee0": 6518,
    "\u25810x9640": 6519,
    "64656c20": 6520,
    "\u25810x12119d0": 6521,
    "\u25813a526570656": 6522,
    "64656c2022433a": 6523,
    "\u25813a5265706561740d0a": 6524,
    "\u2581setcurrentdirectoryw": 6525,
    "\u25813a5265706561740d0a64656c2022433a": 6526,
    "\u25810x40b5": 6527,
    "\u25810x2d4dd": 6528,
    "\u25810x12115bc": 6529,
    "9de": 6530,
    "bac": 6531,
    "f6000": 6532,
    "\u25810x238": 6533,
    "\u25810x4060": 6534,
    "\u25810x7c000": 6535,
    "79c": 6536,
    "99b": 6537,
    "e8000": 6538,
    "f3000": 6539,
    "\u25810x6ce": 6540,
    "network": 6541,
    "245": 6542,
    "\u2581lmi": 6543,
    "de000": 6544,
    "fc000": 6545,
    "\u25810x4dc": 6546,
    "\u25810x57c": 6547,
    "\u2581unlock": 6548,
    "\u25810x1f0001": 6549,
    "\u2581getwindowdc": 6550,
    "745": 6551,
    "f14": 6552,
    "3e3d": 6553,
    "\u2581vie": 6554,
    "\u25810xfeee00a0": 6555,
    "\u2581class": 6556,
    "\u25810x44ea": 6557,
    "\u25810x12115d0": 6558,
    "\u2581registerclipboardformatw": 6559,
    "96d": 6560,
    "f86": 6561,
    "row": 6562,
    "\u2581youmust": 6563,
    "7ee": 6564,
    "b26": 6565,
    "\u2581exp": 6566,
    "db000": 6567,
    "\u2581evie": 6568,
    "\u2581fastf": 6569,
    "\u25810x4238a8": 6570,
    "\u25810x4238d8": 6571,
    "\u25810x1210e6f": 6572,
    "\u25810x1210e73": 6573,
    "\u25810x1210e74": 6574,
    "\u25810x1210e77": 6575,
    "\u25810x1210e7b": 6576,
    "1ec": 6577,
    "f54": 6578,
    "vert": 6579,
    "\u2581psc": 6580,
    "output": 6581,
    "\u25810x4444": 6582,
    "\u25810x1210f66": 6583,
    "\u25810x1210f6a": 6584,
    "f47": 6585,
    "\u25817z6": 6586,
    "d6000": 6587,
    "ec000": 6588,
    "\u25817z72": 6589,
    "\u2581myarg1": 6590,
    "\u2581fastfail": 6591,
    "e14": 6592,
    "\u2581mail": 6593,
    "\u25810x572": 6594,
    "\u25810x7dfc": 6595,
    "\u25810x6ba3c8": 6596,
    "red": 6597,
    "26b2": 6598,
    "ceb": 6599,
    "splash": 6600,
    "\u25810x8028": 6601,
    "\u25810x169bc9c": 6602,
    "\u25810x41af": 6603,
    "\u25810x7dfd": 6604,
    "9ae": 6605,
    "rypto": 6606,
    "graphic": 6607,
    "\u25810xffd5": 6608,
    "2de": 6609,
    "\u25810x8e70": 6610,
    "\u25810x120fe": 6611,
    "\u2581memmove": 6612,
    "\u25810x42c5a0": 6613,
    "\u25810x42c5b8": 6614,
    "\u25810x439440": 6615,
    "\u2581deallocate": 6616,
    "116": 6617,
    "okup": 6618,
    "option": 6619,
    "\u25810x4b1": 6620,
    "\u25810x4770": 6621,
    "\u2581destroywindow": 6622,
    "\u2581getsecurityinfo": 6623,
    "af1": 6624,
    "sion": 6625,
    "trect": 6626,
    "\u25810x44e": 6627,
    "\u25810x42abc0": 6628,
    "\u2581getprivateprofilestringa": 6629,
    "\u25810x8818": 6630,
    "\u25810x8819": 6631,
    "\u2581lookup": 6632,
    "\u25810x4fea28": 6633,
    "screenhide": 6634,
    "\u2581aswsplash": 6635,
    "etofiletime": 6636,
    "buttoncreated": 6637,
    "\u2581aswsplashscreenhide": 6638,
    "\u2581systemtimetofiletime": 6639,
    "\u2581taskbarbuttoncreated": 6640,
    "376": 6641,
    "\u2581xz": 6642,
    "3cf8": 6643,
    "\u25810x41b1": 6644,
    "\u25810x4718f0": 6645,
    "\u25810x4fe2c0": 6646,
    "\u25810x4fe2d8": 6647,
    "\u2581myarg1myarg2": 6648,
    "3b0": 6649,
    "eb6": 6650,
    "\u258131": 6651,
    "e100": 6652,
    "\u25810x42f1": 6653,
    "\u25810x4f5390": 6654,
    "\u25810x4f5400": 6655,
    "\u25810x4fe2f0": 6656,
    "\u25810x4fe308": 6657,
    "\u25810x4fe320": 6658,
    "\u25810x4fe338": 6659,
    "\u25810x4fe350": 6660,
    "\u25810x4fe368": 6661,
    "\u25810x4fea80": 6662,
    "\u2581findwindoww": 6663,
    "1c8": 6664,
    "3b3": 6665,
    "bae": 6666,
    "ff000": 6667,
    "\u2581line": 6668,
    "\u25810x43a": 6669,
    "\u25810x45d1": 6670,
    "\u25810xffc0": 6671,
    "\u25810x42c570": 6672,
    "kg": 6673,
    "146": 6674,
    "f9e": 6675,
    "tiv": 6676,
    "\u2581tsl": 6677,
    "\u25810x46a": 6678,
    "\u25810x40935c": 6679,
    "\u25810x4093ec": 6680,
    "\u25810x411218": 6681,
    "inac": 6682,
    "triesinac": 6683,
    "\u25810x5003e8": 6684,
    "\u2581setentriesinac": 6685,
    "756": 6686,
    "e4f": 6687,
    "\u25810xf1": 6688,
    "\u25810x42db": 6689,
    "\u2581createsemaphorea": 6690,
    "5b2": 6691,
    "ea0": 6692,
    "\u2581a7k": 6693,
    "basec": 6694,
    "\u25810x7e01": 6695,
    "\u25810x500448": 6696,
    "basecrypto": 6697,
    "providerv1": 6698,
    "\u25810x1211e98": 6699,
    "basecryptographic": 6700,
    "basecryptographicproviderv1": 6701,
    "\u2581microsoftbasecryptographicproviderv1": 6702,
    "f4000": 6703,
    "0000040": 6704,
    "3ad": 6705,
    "935": 6706,
    "f43": 6707,
    "\u2581session": 6708,
    "\u25810x1211fe4": 6709,
    "dlg": 6710,
    "1cd8": 6711,
    "\u2581884": 6712,
    "\u25810x474": 6713,
    "\u25810x411c": 6714,
    "\u25810xf0000040": 6715,
    "965": 6716,
    "9e667": 6717,
    "ee000": 6718,
    "\u25810x698": 6719,
    "\u25810x4966": 6720,
    "\u25810x131aac0": 6721,
    "\u25810x6a09e667": 6722,
    "31c": 6723,
    "d91": 6724,
    "\u25810x118": 6725,
    "\u25810x9b50": 6726,
    "register": 6727,
    "439": 6728,
    "e6000": 6729,
    "\u25810x4066": 6730,
    "\u25810x40c7": 6731,
    "\u25810x1210f64": 6732,
    "drl66": 6733,
    "\u25810x112": 6734,
    "\u25810x4235": 6735,
    "\u25810x7ee5": 6736,
    "\u25810x3f22a0": 6737,
    "\u2581tsldrl66": 6738,
    "\u25810x7e04": 6739,
    "f318": 6740,
    "\u25810x7ee8": 6741,
    "\u2581localrealloc": 6742,
    "\u2581filetimetosystemtime": 6743,
    "afd": 6744,
    "e4000": 6745,
    "fe000": 6746,
    "\u25810x824": 6747,
    "\u25810x5040": 6748,
    "\u25810x881c": 6749,
    "\u25810x881d": 6750,
    "\u25810x8821": 6751,
    "\u25810xff87": 6752,
    "326": 6753,
    "391": 6754,
    "win": 6755,
    "\u25810x1814": 6756,
    "\u2581outputdebugstringw": 6757,
    "uld": 6758,
    "\u25810x7e05": 6759,
    "\u25810x7f03": 6760,
    "\u25810x8830": 6761,
    "74e": 6762,
    "\u25810xbf": 6763,
    "\u25810x604": 6764,
    "\u25810x41f6": 6765,
    "\u25810x7a40": 6766,
    "\u25810x80c3": 6767,
    "33e": 6768,
    "0036": 6769,
    "914": 6770,
    "a87": 6771,
    "now": 6772,
    "\u25810x120ce": 6773,
    "\u25810x80c440": 6774,
    "25c": 6775,
    "\u25810x571": 6776,
    "\u25810x4df00": 6777,
    "\u25810x4012db": 6778,
    "\u25810x42cd78": 6779,
    "\u25810x42ce38": 6780,
    "\u25810x1010101": 6781,
    "unmapviewofsection": 6782,
    "dc2": 6783,
    "\u2581fput": 6784,
    "tochar": 6785,
    "\u25810x40c4": 6786,
    "\u25810x44e9": 6787,
    "\u25810x5627": 6788,
    "\u2581oemtochar": 6789,
    "\u25810x42b7": 6790,
    "\u25810x482854": 6791,
    "\u25810x482870": 6792,
    "9ad": 6793,
    "dad": 6794,
    "\u258104t": 6795,
    "\u25810xc9": 6796,
    "\u25810x232": 6797,
    "\u25810x42bf": 6798,
    "\u25810x7e10": 6799,
    "fileex": 6800,
    "\u25810x4d5": 6801,
    "\u25810x1211c00": 6802,
    "\u2581ntunmapviewofsection": 6803,
    "956": 6804,
    "ab6": 6805,
    "fore": 6806,
    "statust": 6807,
    "\u25810x5199": 6808,
    "\u25810xffee": 6809,
    "7e5": 6810,
    "b54": 6811,
    "76f7": 6812,
    "\u25810x1211d3c": 6813,
    "\u2581setentriesinacla": 6814,
    "6e0": 6815,
    "dc3": 6816,
    "remo": 6817,
    "\u25810x10b": 6818,
    "\u25810x40b1": 6819,
    "\u25810x7eec": 6820,
    "\u25810x8f30": 6821,
    "\u2581module": 6822,
    "\u25810x1211e8c": 6823,
    "3ae": 6824,
    "odos": 6825,
    "d2000": 6826,
    "7d571f": 6827,
    "\u2581rtlnt": 6828,
    "odoserror": 6829,
    "\u25810x120e6d8": 6830,
    "\u25810xd27d571f": 6831,
    "\u2581rtlntstatust": 6832,
    "\u2581rtlntstatustodoserror": 6833,
    "10d": 6834,
    "f34": 6835,
    "this": 6836,
    "\u25810x1824": 6837,
    "\u25810xa040": 6838,
    "\u25810x10005c": 6839,
    "\u25810x46b5fc": 6840,
    "\u25810x2825ef8": 6841,
    "285": 6842,
    "750": 6843,
    "a65": 6844,
    "b5e": 6845,
    "bf3": 6846,
    "\u2581ntmapviewofsection": 6847,
    "1b2": 6848,
    "\u25810x1b1": 6849,
    "\u25810x4522": 6850,
    "outputcp": 6851,
    "\u25810xfeee009f": 6852,
    "325": 6853,
    "5c6": 6854,
    "\u25810xffda": 6855,
    "3130": 6856,
    "aler": 6857,
    "\u2581cqa": 6858,
    "\u2581ext": 6859,
    "84000": 6860,
    "virtu": 6861,
    "\u2581scqa": 6862,
    "\u25810x510": 6863,
    "\u25810x532": 6864,
    "\u2581pscqa": 6865,
    "\u2581virtu": 6866,
    "\u25810x41ba": 6867,
    "\u25810x7e08": 6868,
    "\u25810xb4eb": 6869,
    "\u25810x3b7fb": 6870,
    "\u25810x12119a0": 6871,
    "\u2581virtuallock": 6872,
    "\u2581setsecurityinfo": 6873,
    "ablet": 6874,
    "\u25810x5ab": 6875,
    "\u25810x4a80": 6876,
    "a9c": 6877,
    "d26": 6878,
    "fe4": 6879,
    "\u25810x489d": 6880,
    "\u25810x7e8c": 6881,
    "\u25810x100fdd": 6882,
    "\u2581getconsoleoutputcp": 6883,
    "366": 6884,
    "\u25810x4a40": 6885,
    "7b5": 6886,
    "desk": 6887,
    "init": 6888,
    "d3000": 6889,
    "\u25810x40e4": 6890,
    "\u25810x80b9": 6891,
    "\u2581writeprocessmemory": 6892,
    "201": 6893,
    "232": 6894,
    "2c6": 6895,
    "8c000": 6896,
    "\u25810x6e6": 6897,
    "\u25810x41c6": 6898,
    "\u25810x42c6": 6899,
    "\u25810x9870": 6900,
    "\u2581msvcr100": 6901,
    "\u25810x1211fb0": 6902,
    "initializeex": 6903,
    "\u2581coinitializeex": 6904,
    "7a5": 6905,
    "\u2581arg": 6906,
    "e7000": 6907,
    "\u2581oemtochara": 6908,
    "a71": 6909,
    "b7b": 6910,
    "c86": 6911,
    "0012": 6912,
    "\u25810xf4": 6913,
    "106000": 6914,
    "a00000": 6915,
    "\u25810x4156": 6916,
    "356": 6917,
    "34b8": 6918,
    "a4c4": 6919,
    "\u2581std": 6920,
    "86000": 6921,
    "88000": 6922,
    "\u2581lmir": 6923,
    "\u25810x1818": 6924,
    "\u25810x411d8": 6925,
    "\u25810x442806": 6926,
    "3a08": 6927,
    "\u25810x8e60": 6928,
    "\u25810x409364": 6929,
    "\u25810xca0000": 6930,
    "forcadwork": 6931,
    "3f3": 6932,
    "ange": 6933,
    "00c000": 6934,
    "\u25810x442808": 6935,
    "\u25810x77001000": 6936,
    "\u25810x77002000": 6937,
    "\u25810x77003000": 6938,
    "\u25810x77004000": 6939,
    "\u25810x77005000": 6940,
    "\u25810x77006000": 6941,
    "\u25810x77007000": 6942,
    "\u25810x77008000": 6943,
    "\u25810x77009000": 6944,
    "\u25810x7700a000": 6945,
    "\u25810x7700b000": 6946,
    "\u25810x7700c000": 6947,
    "\u25810x7700d000": 6948,
    "\u25810x7700e000": 6949,
    "\u25810x7700f000": 6950,
    "\u25810x77010000": 6951,
    "\u25810x77011000": 6952,
    "\u25810x77012000": 6953,
    "\u25810x77013000": 6954,
    "\u25810x77014000": 6955,
    "\u25810x77015000": 6956,
    "\u25810x77016000": 6957,
    "\u25810x77017000": 6958,
    "\u25810x77018000": 6959,
    "\u25810x77019000": 6960,
    "\u25810x7701a000": 6961,
    "\u25810x7701b000": 6962,
    "\u25810x7701c000": 6963,
    "\u25810x7701d000": 6964,
    "\u25810x7701e000": 6965,
    "\u25810x7701f000": 6966,
    "\u25810x77020000": 6967,
    "\u25810x77021000": 6968,
    "\u25810x77022000": 6969,
    "\u25810x77023000": 6970,
    "\u25810x77024000": 6971,
    "\u25810x77025000": 6972,
    "\u25810x77026000": 6973,
    "\u25810x77027000": 6974,
    "\u25810x77028000": 6975,
    "\u25810x77029000": 6976,
    "\u25810x7702a000": 6977,
    "\u25810x7702b000": 6978,
    "\u25810x7702c000": 6979,
    "\u25810x7702d000": 6980,
    "\u25810x7702e000": 6981,
    "\u25810x7702f000": 6982,
    "\u25810x77030000": 6983,
    "\u25810x77031000": 6984,
    "\u25810x77032000": 6985,
    "\u25810x77033000": 6986,
    "\u25810x77034000": 6987,
    "\u25810x77035000": 6988,
    "\u25810x77036000": 6989,
    "\u25810x77037000": 6990,
    "\u25810x77038000": 6991,
    "\u25810x77039000": 6992,
    "\u25810x7703a000": 6993,
    "\u25810x7703b000": 6994,
    "\u25810x7703c000": 6995,
    "\u25810x7703d000": 6996,
    "\u25810x7703e000": 6997,
    "\u25810x7703f000": 6998,
    "\u25810x77040000": 6999,
    "\u25810x77041000": 7000,
    "\u25810x77042000": 7001,
    "\u25810x77043000": 7002,
    "\u25810x77044000": 7003,
    "\u25810x77045000": 7004,
    "\u25810x77046000": 7005,
    "\u25810x77047000": 7006,
    "\u25810x77048000": 7007,
    "\u25810x77049000": 7008,
    "\u25810x7704a000": 7009,
    "\u25810x7704b000": 7010,
    "\u25810x7704c000": 7011,
    "\u25810x7704d000": 7012,
    "\u25810x7704e000": 7013,
    "\u25810x7704f000": 7014,
    "\u25810x77050000": 7015,
    "\u25810x77051000": 7016,
    "\u25810x77052000": 7017,
    "\u25810x77053000": 7018,
    "\u25810x77054000": 7019,
    "\u25810x77055000": 7020,
    "\u25810x77056000": 7021,
    "\u25810x77057000": 7022,
    "\u25810x77058000": 7023,
    "\u25810x77059000": 7024,
    "\u25810x7705a000": 7025,
    "\u25810x7705b000": 7026,
    "\u25810x7705c000": 7027,
    "\u25810x7705d000": 7028,
    "\u25810x7705e000": 7029,
    "\u25810x7705f000": 7030,
    "\u25810x77060000": 7031,
    "\u25810x77061000": 7032,
    "\u25810x77062000": 7033,
    "\u25810x77063000": 7034,
    "\u25810x77064000": 7035,
    "\u25810x77065000": 7036,
    "\u25810x77066000": 7037,
    "\u25810x77067000": 7038,
    "\u25810x77068000": 7039,
    "\u25810x77069000": 7040,
    "\u25810x7706a000": 7041,
    "\u25810x7706b000": 7042,
    "\u25810x7706c000": 7043,
    "\u25810x7706d000": 7044,
    "\u25810x7706e000": 7045,
    "\u25810x7706f000": 7046,
    "\u25810x77070000": 7047,
    "\u25810x77071000": 7048,
    "\u25810x77072000": 7049,
    "\u25810x77073000": 7050,
    "\u25810x77074000": 7051,
    "\u25810x77075000": 7052,
    "\u25810x77076000": 7053,
    "\u25810x77077000": 7054,
    "\u25810x77078000": 7055,
    "\u25810x77079000": 7056,
    "\u25810x7707a000": 7057,
    "\u25810x7707b000": 7058,
    "\u25810x7707c000": 7059,
    "\u25810x7707d000": 7060,
    "\u25810x7707e000": 7061,
    "\u25810x7707f000": 7062,
    "\u25810x77080000": 7063,
    "\u25810x77081000": 7064,
    "\u25810x77082000": 7065,
    "\u25810x77083000": 7066,
    "\u25810x77084000": 7067,
    "\u25810x77085000": 7068,
    "\u25810x77086000": 7069,
    "\u25810x77087000": 7070,
    "\u25810x77088000": 7071,
    "\u25810x77089000": 7072,
    "\u25810x7708a000": 7073,
    "\u25810x7708b000": 7074,
    "\u25810x7708c000": 7075,
    "\u25810x7708d000": 7076,
    "\u25810x7708e000": 7077,
    "\u25810x7708f000": 7078,
    "\u25810x77090000": 7079,
    "\u25810x77091000": 7080,
    "\u25810x77092000": 7081,
    "\u25810x77093000": 7082,
    "\u25810x77094000": 7083,
    "\u25810x77095000": 7084,
    "\u25810x77096000": 7085,
    "\u25810x77097000": 7086,
    "\u25810x77098000": 7087,
    "\u25810x77099000": 7088,
    "\u25810x7709a000": 7089,
    "\u25810x7709b000": 7090,
    "\u25810x7709c000": 7091,
    "\u25810x7709d000": 7092,
    "\u25810x7709e000": 7093,
    "\u25810x7709f000": 7094,
    "\u25810x770a0000": 7095,
    "\u25810x770a1000": 7096,
    "\u25810x770a2000": 7097,
    "\u25810x770a3000": 7098,
    "\u25810x770a4000": 7099,
    "\u25810x770a5000": 7100,
    "\u25810x770a6000": 7101,
    "\u25810x770a7000": 7102,
    "\u25810x770a8000": 7103,
    "\u25810x770a9000": 7104,
    "\u25810x770aa000": 7105,
    "\u25810x770ab000": 7106,
    "\u25810x770ac000": 7107,
    "\u25810x770ad000": 7108,
    "\u25810x770ae000": 7109,
    "\u25810x770af000": 7110,
    "\u25810x770b0000": 7111,
    "\u25810x770b1000": 7112,
    "\u25810x770b2000": 7113,
    "\u25810x770b3000": 7114,
    "\u25810x770b4000": 7115,
    "\u25810x770b5000": 7116,
    "\u25810x770b6000": 7117,
    "\u25810x770b7000": 7118,
    "\u25810x770b8000": 7119,
    "\u25810x770b9000": 7120,
    "\u25810x770ba000": 7121,
    "\u25810x770bb000": 7122,
    "\u25810x770bc000": 7123,
    "\u25810x770bd000": 7124,
    "\u25810x770be000": 7125,
    "\u25810x770bf000": 7126,
    "\u25810x770c0000": 7127,
    "\u25810x770c1000": 7128,
    "\u25810x770c2000": 7129,
    "\u25810x770c3000": 7130,
    "\u25810x770c4000": 7131,
    "\u25810x770c5000": 7132,
    "\u25810x770c6000": 7133,
    "\u25810x770c7000": 7134,
    "\u25810x770c8000": 7135,
    "\u25810x770c9000": 7136,
    "\u25810x770ca000": 7137,
    "\u25810x770cb000": 7138,
    "\u25810x770cc000": 7139,
    "\u25810x770cd000": 7140,
    "\u25810x770ce000": 7141,
    "\u25810x770cf000": 7142,
    "\u25810x770d0000": 7143,
    "\u25810x770d1000": 7144,
    "\u25810x770d2000": 7145,
    "\u25810x770d3000": 7146,
    "\u25810x770d4000": 7147,
    "\u25810x770d5000": 7148,
    "\u25810x770d6000": 7149,
    "\u25810x770d7000": 7150,
    "\u25810x770d8000": 7151,
    "\u25810x770d9000": 7152,
    "\u25810x770da000": 7153,
    "\u25810x770db000": 7154,
    "\u25810x770dc000": 7155,
    "\u25810x770dd000": 7156,
    "\u25810x770de000": 7157,
    "\u25810x770df000": 7158,
    "\u25810x770e0000": 7159,
    "\u25810x770e1000": 7160,
    "\u25810x770e2000": 7161,
    "\u25810x770e3000": 7162,
    "\u25810x770e4000": 7163,
    "\u25810x770e5000": 7164,
    "\u25810x770e6000": 7165,
    "\u25810x770e7000": 7166,
    "\u25810x770e8000": 7167,
    "\u25810x770e9000": 7168,
    "\u25810x770ea000": 7169,
    "\u25810x770eb000": 7170,
    "\u25810x770ec000": 7171,
    "\u25810x770ed000": 7172,
    "\u25810x770ee000": 7173,
    "\u25810x770ef000": 7174,
    "\u25810x770f0000": 7175,
    "\u25810x770f1000": 7176,
    "\u25810x770f2000": 7177,
    "\u25810x770f3000": 7178,
    "\u25810x770f4000": 7179,
    "\u25810x770f5000": 7180,
    "\u25810x770f6000": 7181,
    "\u25810x770f7000": 7182,
    "\u25810x770f8000": 7183,
    "\u25810x770f9000": 7184,
    "\u25810x770fa000": 7185,
    "\u25810x770fb000": 7186,
    "\u25810x770fc000": 7187,
    "\u25810x770fd000": 7188,
    "\u25810x770fe000": 7189,
    "\u25810x770ff000": 7190,
    "\u25810x77100000": 7191,
    "\u25810x77101000": 7192,
    "\u25810x77102000": 7193,
    "\u25810x77103000": 7194,
    "\u25810x77104000": 7195,
    "\u25810x77105000": 7196,
    "\u25810x77106000": 7197,
    "\u25810x77107000": 7198,
    "\u25810x77108000": 7199,
    "\u25810x77109000": 7200,
    "\u25810x7710a000": 7201,
    "\u25810x7710b000": 7202,
    "\u25810x7710c000": 7203,
    "\u25810x7710d000": 7204,
    "\u25810x7710e000": 7205,
    "\u25810x7710f000": 7206,
    "\u25810x77110000": 7207,
    "\u25810x77111000": 7208,
    "\u25810x77112000": 7209,
    "\u25810x77113000": 7210,
    "\u25810x77114000": 7211,
    "\u25810x77115000": 7212,
    "\u25810x77116000": 7213,
    "\u25810x77117000": 7214,
    "\u25810x77118000": 7215,
    "\u25810x77119000": 7216,
    "\u25810x7711a000": 7217,
    "\u25810x7711b000": 7218,
    "\u25810x7711c000": 7219,
    "\u25810x7711d000": 7220,
    "\u25810x7711e000": 7221,
    "\u25810x7711f000": 7222,
    "\u25810x77120000": 7223,
    "\u25810x77121000": 7224,
    "\u25810x77122000": 7225,
    "\u25810x77123000": 7226,
    "\u25810x77124000": 7227,
    "\u25810x77125000": 7228,
    "\u25810x77126000": 7229,
    "\u25810x77127000": 7230,
    "\u25810x77128000": 7231,
    "\u25810x77129000": 7232,
    "\u25810x7712a000": 7233,
    "\u25810x7712b000": 7234,
    "\u25810x7712c000": 7235,
    "\u25810x7712d000": 7236,
    "\u25810x7712e000": 7237,
    "\u25810x7712f000": 7238,
    "\u25810x77130000": 7239,
    "\u25810x77131000": 7240,
    "\u25810x77132000": 7241,
    "\u25810x77133000": 7242,
    "\u25810x77134000": 7243,
    "\u25810x77135000": 7244,
    "\u25810x77136000": 7245,
    "\u25810x77137000": 7246,
    "\u25810x77138000": 7247,
    "\u25810x77139000": 7248,
    "\u25810x7713a000": 7249,
    "\u25810x7713b000": 7250,
    "\u25810x7713c000": 7251,
    "\u25810x7713d000": 7252,
    "\u25810x7713e000": 7253,
    "\u25810x7713f000": 7254,
    "\u25810x77140000": 7255,
    "\u25810x77141000": 7256,
    "\u25810x77142000": 7257,
    "\u25810x77143000": 7258,
    "\u25810x77144000": 7259,
    "\u25810x77145000": 7260,
    "\u25810x77146000": 7261,
    "\u25810x77147000": 7262,
    "\u25810x77148000": 7263,
    "\u25810x77149000": 7264,
    "\u25810x7714a000": 7265,
    "\u25810x7714b000": 7266,
    "\u25810x7714c000": 7267,
    "\u25810x7714d000": 7268,
    "\u25810x7714e000": 7269,
    "\u25810x7714f000": 7270,
    "\u25810x77150000": 7271,
    "\u25810x77151000": 7272,
    "\u25810x77152000": 7273,
    "\u25810x77153000": 7274,
    "\u25810x77154000": 7275,
    "\u25810x77155000": 7276,
    "\u25810x77156000": 7277,
    "\u25810x77157000": 7278,
    "\u25810x77158000": 7279,
    "\u25810x77159000": 7280,
    "\u25810x7715a000": 7281,
    "\u25810x7715b000": 7282,
    "\u25810x7715c000": 7283,
    "\u25810x7715d000": 7284,
    "\u25810x7715e000": 7285,
    "\u25810x7715f000": 7286,
    "\u25810x77160000": 7287,
    "\u25810x77161000": 7288,
    "\u25810x77162000": 7289,
    "\u25810x77163000": 7290,
    "\u25810x77164000": 7291,
    "\u25810x77165000": 7292,
    "\u25810x77166000": 7293,
    "\u25810x77167000": 7294,
    "\u25810x77168000": 7295,
    "\u25810x77169000": 7296,
    "\u25810x7716a000": 7297,
    "\u25810x7716b000": 7298,
    "\u25810x7716c000": 7299,
    "\u25810x7716d000": 7300,
    "\u25810x7716e000": 7301,
    "\u25810x7716f000": 7302,
    "\u25810x77170000": 7303,
    "\u25810x77171000": 7304,
    "\u25810x77172000": 7305,
    "\u25810x77173000": 7306,
    "\u25810x77174000": 7307,
    "\u25810x77175000": 7308,
    "\u25810x77176000": 7309,
    "\u25810x77177000": 7310,
    "\u25810x77178000": 7311,
    "\u25810x77179000": 7312,
    "\u25810x7717a000": 7313,
    "\u25810x7717b000": 7314,
    "\u25810x7717c000": 7315,
    "\u25810x7717d000": 7316,
    "\u25810x7717e000": 7317,
    "\u25810x7717f000": 7318,
    "\u25810x77180000": 7319,
    "\u25810x77181000": 7320,
    "\u25810x77182000": 7321,
    "\u25810x77183000": 7322,
    "\u25810x77184000": 7323,
    "\u25810x77185000": 7324,
    "\u25810x77186000": 7325,
    "\u25810x77187000": 7326,
    "\u25810x77188000": 7327,
    "\u25810x77189000": 7328,
    "\u25810x7718a000": 7329,
    "\u25810x7718b000": 7330,
    "\u25810x7718c000": 7331,
    "\u25810x7718d000": 7332,
    "\u25810x7718e000": 7333,
    "\u25810x7718f000": 7334,
    "\u25810x77190000": 7335,
    "\u25810x77191000": 7336,
    "\u25810x77192000": 7337,
    "\u25810x77193000": 7338,
    "\u2581physicalmemory": 7339,
    "\u2581regqueryvalueexa": 7340,
    "fa3": 7341,
    "dialog": 7342,
    "scroll": 7343,
    "\u25810x447": 7344,
    "\u25810x5258": 7345,
    "\u25810x7e09": 7346,
    "\u25810x44280a": 7347,
    "\u25810x44280c": 7348,
    "\u25810x44280e": 7349,
    "\u25810x442810": 7350,
    "\u25810x442812": 7351,
    "\u25810x442814": 7352,
    "\u25810x442816": 7353,
    "\u25810x442818": 7354,
    "\u25810x44281a": 7355,
    "\u25810x44281c": 7356,
    "\u25810x44281e": 7357,
    "\u25810x77194000": 7358,
    "\u25810x77195000": 7359,
    "\u25810x77196000": 7360,
    "\u25810x77197000": 7361,
    "\u25810x77198000": 7362,
    "\u25810x77199000": 7363,
    "\u25810x7719a000": 7364,
    "\u25810x7719b000": 7365,
    "\u25810x7719c000": 7366,
    "\u25810x7719d000": 7367,
    "\u25810x7719e000": 7368,
    "\u25810x7719f000": 7369,
    "\u25810x771a0000": 7370,
    "\u25810x771a1000": 7371,
    "\u25810x771a2000": 7372,
    "\u25810x771a3000": 7373,
    "\u25810x771a4000": 7374,
    "\u25810x771a5000": 7375,
    "\u25810x771a6000": 7376,
    "\u25810x771a7000": 7377,
    "\u25810x771a8000": 7378,
    "\u25810x771a9000": 7379,
    "\u25810x771aa000": 7380,
    "\u25810x771ab000": 7381,
    "\u25810x771ac000": 7382,
    "\u25810x771ad000": 7383,
    "\u25810x771ae000": 7384,
    "\u25810x771af000": 7385,
    "\u25810x771b0000": 7386,
    "\u25810x771b1000": 7387,
    "\u25810x771b2000": 7388,
    "\u25810x771b3000": 7389,
    "\u25810x771b4000": 7390,
    "\u25810x771b5000": 7391,
    "\u25810x771b6000": 7392,
    "\u25810x771b7000": 7393,
    "\u25810x771b8000": 7394,
    "\u25810x771b9000": 7395,
    "\u25810x771ba000": 7396,
    "\u25810x771bb000": 7397,
    "\u25810x771bc000": 7398,
    "\u25810x771bd000": 7399,
    "\u25810x771be000": 7400,
    "\u25810x771bf000": 7401,
    "\u25810x771c0000": 7402,
    "\u25810x771c1000": 7403,
    "\u25810x771c2000": 7404,
    "\u25810x771c3000": 7405,
    "\u25810x771c4000": 7406,
    "\u25810x771c5000": 7407,
    "\u2581comparestringa": 7408,
    "194": 7409,
    "e31": 7410,
    "\u2581ur": 7411,
    "\u2581files": 7412,
    "\u25810x40b6": 7413,
    "\u2581module32": 7414,
    "\u25810x771c6000": 7415,
    "f06": 7416,
    "9e00": 7417,
    "\u25810x454bb8": 7418,
    "\u2581wtsapi32": 7419,
    "\u25810x1211f08": 7420,
    "\u2581dllonexit": 7421,
    "gs": 7422,
    "250": 7423,
    "546": 7424,
    "9ce": 7425,
    "a96": 7426,
    "f65": 7427,
    "\u2581tol": 7428,
    "\u25810xb9": 7429,
    "\u25810x49a": 7430,
    "\u25810x88c0": 7431,
    "\u2581tolower": 7432,
    "\u25810x431d00": 7433,
    "\u25810x1211f58": 7434,
    "165": 7435,
    "645": 7436,
    "fab": 7437,
    "\u2581dl": 7438,
    "\u25810x4a5": 7439,
    "972": 7440,
    "\u25810x5b2": 7441,
    "\u25810x4258": 7442,
    "\u25810x412565": 7443,
    "l6660d": 7444,
    "\u25810xffdb": 7445,
    "\u25810x412566": 7446,
    "drl6660drl6660drl6660drl6660drl6660": 7447,
    "\u2581747": 7448,
    "\u25810x4521": 7449,
    "\u25810x40938": 7450,
    "\u2581userprofil": 7451,
    "774": 7452,
    "b42": 7453,
    "cc5": 7454,
    "\u25810x28fd0": 7455,
    "97b": 7456,
    "aa5": 7457,
    "lot": 7458,
    "\u25810x4780": 7459,
    "\u25810x4e300": 7460,
    "\u25810x42dfe8": 7461,
    "126": 7462,
    "9d6": 7463,
    "f05": 7464,
    "fa2": 7465,
    "\u25810x4178": 7466,
    "\u25810x4640": 7467,
    "\u25810x416be0": 7468,
    "\u25810x4528b0": 7469,
    "\u25810x483cf8": 7470,
    "9f4": 7471,
    "fee": 7472,
    "77b": 7473,
    "\u2581xh": 7474,
    "\u25810x190": 7475,
    "\u25810x1828": 7476,
    "\u25810x4c40": 7477,
    "\u25810x416c10": 7478,
    "\u25810x437116": 7479,
    "\u25810x437117": 7480,
    "\u25810x120fd64": 7481,
    "ba4": 7482,
    "c736": 7483,
    "\u25810xc6": 7484,
    "\u25810xd6": 7485,
    "\u25810x414d": 7486,
    "\u25810x40000": 7487,
    "c45": 7488,
    "fb6": 7489,
    "004c": 7490,
    "\u25810xc2": 7491,
    "\u25810x4ef": 7492,
    "\u25810x1838": 7493,
    "\u25810x184c": 7494,
    "\u25810x573c": 7495,
    "\u25810x8e40": 7496,
    "\u25810x43b6e9": 7497,
    "\u2581riched20": 7498,
    "2d4": 7499,
    "771": 7500,
    "954": 7501,
    "f1e": 7502,
    "a6e61": 7503,
    "e68656": 7504,
    "\u2581776f7": 7505,
    "646d736": 7506,
    "\u25810x1820": 7507,
    "\u25810x1848": 7508,
    "\u25810x185c": 7509,
    "\u25810x4043": 7510,
    "\u25810x4820": 7511,
    "\u25817472697": 7512,
    "\u25810x43b6f3": 7513,
    "26b2e68656": 7514,
    "\u25810x10000000": 7515,
    "a6e61646d736": 7516,
    "26b2e68656c736": 7517,
    "\u25817472697a6e61646d736": 7518,
    "\u2581776f726b2e68656c736": 7519,
    "\u25817472697a6e61646d73696e6b692e6669": 7520,
    "\u2581776f726b2e68656c73696e6b692e6669": 7521,
    "906": 7522,
    "a14": 7523,
    "f32": 7524,
    "\u25810x714d68": 7525,
    "\u25810x1211e58": 7526,
    "\u2581dialogbox": 7527,
    "9f40": 7528,
    "llow": 7529,
    "\u2581all": 7530,
    "block": 7531,
    "\u25810x9070": 7532,
    "b74": 7533,
    "dfd": 7534,
    "try": 7535,
    "xfr": 7536,
    "\u25810x1830": 7537,
    "\u25810x8640": 7538,
    "36d8": 7539,
    "indi": 7540,
    "\u25810x1840": 7541,
    "\u25810x2000000": 7542,
    "\u25810x54500000": 7543,
    "2b6": 7544,
    "2bc": 7545,
    "903": 7546,
    "isa": 7547,
    "1514": 7548,
    "2838": 7549,
    "\u25810x182c": 7550,
    "\u25810x183c": 7551,
    "\u25810x4070": 7552,
    "\u25810x7ce1": 7553,
    "\u25810x423d78": 7554,
    "\u25810x423e38": 7555,
    "27e": 7556,
    "558": 7557,
    "b7e": 7558,
    "d1b": 7559,
    "request": 7560,
    "6c0": 7561,
    "gro": 7562,
    "\u25810x1834": 7563,
    "\u25810x1844": 7564,
    "\u25810x1858": 7565,
    "\u25810x186c": 7566,
    "\u25810x12117c8": 7567,
    "\u25810x1211800": 7568,
    "\u25810x6ce0000": 7569,
    "9ab": 7570,
    "3534": 7571,
    "\u2581from": 7572,
    "\u25810x4b0": 7573,
    "\u25810x1868": 7574,
    "\u25810x28c3": 7575,
    "\u25810x7e0c": 7576,
    "\u25810x1211a4c": 7577,
    "\u25810x1211d60": 7578,
    "\u25810xfeee010b": 7579,
    "aaaaaaaaaaaaaaaa": 7580,
    "274": 7581,
    "5410": 7582,
    "place": 7583,
    "\u2581updat": 7584,
    "\u25810x7e0d": 7585,
    "emaphore": 7586,
    "wc": 7587,
    "\u2581202203032": 7588,
    "dfe": 7589,
    "99b9": 7590,
    "\u25810x53c": 7591,
    "\u25810x1878": 7592,
    "\u25810x9350": 7593,
    "ataddress": 7594,
    "\u25810x1211878": 7595,
    "\u25810x1211b38": 7596,
    "nd": 7597,
    "2ad": 7598,
    "\u25810x1854": 7599,
    "\u25810x28c3f": 7600,
    "\u25810x1211850": 7601,
    "\u2581accessviolationataddress": 7602,
    "962": 7603,
    "a76": 7604,
    "\u258130": 7605,
    "latsb": 7606,
    "\u25810x3b3": 7607,
    "\u25810x7a4": 7608,
    "qstring": 7609,
    "\u25810x4048": 7610,
    "924": 7611,
    "4444": 7612,
    "\u25810x486": 7613,
    "\u25810x1864": 7614,
    "\u25810x41d0": 7615,
    "\u25810x90c0": 7616,
    "\u25810x41e1c0": 7617,
    "\u25810x120fb48": 7618,
    "510": 7619,
    "5655": 7620,
    "\u25810xe1": 7621,
    "\u25810x4e3": 7622,
    "\u25810x1850": 7623,
    "\u25810x40b0": 7624,
    "\u25810x414b": 7625,
    "\u25810x7ee9": 7626,
    "\u25810x9170": 7627,
    "\u25810x42d420": 7628,
    "\u25810xd3da80": 7629,
    "\u25810xfeee00a1": 7630,
    "\u2581taskbarcreated": 7631,
    "115": 7632,
    "6d4": 7633,
    "e20": 7634,
    "e98": 7635,
    "\u25810x40015f": 7636,
    "\u25810x491994": 7637,
    "\u25810x4fc2c8": 7638,
    "\u25810x1874": 7639,
    "\u25810x187c": 7640,
    "lientrect": 7641,
    "\u2581getclientrect": 7642,
    "\u25810x9230": 7643,
    "\u25810x120faac": 7644,
    "2b7": 7645,
    "b71": 7646,
    "\u25810x7e11": 7647,
    "\u25810xfeee00a2": 7648,
    "ae6": 7649,
    "det": 7650,
    "e7ec": 7651,
    "andar": 7652,
    "localfiletime": 7653,
    "\u2581filetimetolocalfiletime": 7654,
    "712": 7655,
    "d65": 7656,
    "e60": 7657,
    "9640": 7658,
    "medi": 7659,
    "hlpapi": 7660,
    "\u2581findresourc": 7661,
    "266": 7662,
    "d43": 7663,
    "e64": 7664,
    "e90": 7665,
    "lity": 7666,
    "\u25810x1870": 7667,
    "\u2581getcursorpos": 7668,
    "xf": 7669,
    "258": 7670,
    "2b5": 7671,
    "e9b": 7672,
    "\u25810x57e": 7673,
    "\u25810x4740": 7674,
    "fication": 7675,
    "\u2581classes": 7676,
    "\u25810x41de00": 7677,
    "48d": 7678,
    "7f6": 7679,
    "b64": 7680,
    "c01": 7681,
    "db4": 7682,
    "textw": 7683,
    "\u25810xef": 7684,
    "\u25810x4033e6": 7685,
    "\u25810x4093a5": 7686,
    "\u25810x4093a6": 7687,
    "\u25810x4093a7": 7688,
    "\u25810x4093a8": 7689,
    "\u25810x4093a9": 7690,
    "\u25810x4093aa": 7691,
    "\u25810x4093ab": 7692,
    "\u25810x41e190": 7693,
    "\u2581localfilet": 7694,
    "\u2581localfiletimetofiletime": 7695,
    "7fc": 7696,
    "e38": 7697,
    "ptr": 7698,
    "\u2581ff": 7699,
    "6808": 7700,
    "\u25810xf3": 7701,
    "\u25810x150": 7702,
    "\u25810x1104": 7703,
    "\u25810x120e": 7704,
    "\u25810x4720": 7705,
    "\u25810x42f318": 7706,
    "9df": 7707,
    "lack": 7708,
    "7e6": 7709,
    "2625": 7710,
    "\u2581ftp": 7711,
    "\u2581sig": 7712,
    "\u25810x1f1": 7713,
    "\u25810xe9a": 7714,
    "\u25810x40c5": 7715,
    "69c0": 7716,
    "othe": 7717,
    "\u25811da": 7718,
    "enter": 7719,
    "\u25810xdd": 7720,
    "\u25810xee": 7721,
    "\u25810x1211df8": 7722,
    "ivq": 7723,
    "\u25810xba8": 7724,
    "\u25810x4051": 7725,
    "\u25810x4335": 7726,
    "\u25810x45d0": 7727,
    "\u25810x5000": 7728,
    "2d2c": 7729,
    "ultip": 7730,
    "client": 7731,
    "formultip": 7732,
    "\u25810x461548": 7733,
    "\u2581directory": 7734,
    "3a1": 7735,
    "88c": 7736,
    "dce": 7737,
    "fa1": 7738,
    "wares": 7739,
    "\u25810x240": 7740,
    "\u25810x427": 7741,
    "\u25810x8e20": 7742,
    "yourcomputer": 7743,
    "formultipleob": 7744,
    "rey": 7745,
    "tiono": 7746,
    "dealer": 7747,
    "\u25810x515": 7748,
    "\u25811days": 7749,
    "\u25810x7e14": 7750,
    "continue": 7751,
    "havebeen": 7752,
    "allcadwork": 7753,
    "\u25810x120e6d0": 7754,
    "\u25810x1211f60": 7755,
    "\u2581intermedi": 7756,
    "\u2581doyoureally": 7757,
    "\u2581openanexplorer": 7758,
    "19b": 7759,
    "581": 7760,
    "f93": 7761,
    "\u25810x51c3": 7762,
    "\u25810x80000": 7763,
    "\u25810x1211fb4": 7764,
    "av": 7765,
    "312": 7766,
    "3718": 7767,
    "a5958": 7768,
    "correct": 7769,
    "ofaddress": 7770,
    "\u25810x5265c50": 7771,
    "\u25810xfeee00a3": 7772,
    "\u2581lookupprivilege": 7773,
    "1c7": 7774,
    "d56": 7775,
    "ede": 7776,
    "\u25810x46c4": 7777,
    "\u25810x7eed": 7778,
    "\u25810x565848": 7779,
    "311": 7780,
    "\u25810x7e8d": 7781,
    "\u2581winmain": 7782,
    "\u25810x1211ea8": 7783,
    "c06": 7784,
    "d61": 7785,
    "\u2581ip": 7786,
    "\u25810x4108": 7787,
    "\u25810x4150": 7788,
    "\u25810x7e15": 7789,
    "\u25810x7eac": 7790,
    "\u25810xff50": 7791,
    "\u2581msvcr71": 7792,
    "\u25810x42a408": 7793,
    "\u25810x1211834": 7794,
    "\u25810xfeee00a4": 7795,
    "\u25810xfeee00a5": 7796,
    "\u2581fileexistsw": 7797,
    "\u2581regsetvalueexa": 7798,
    "37c": 7799,
    "431": 7800,
    "ae4": 7801,
    "keya": 7802,
    "isplay": 7803,
    "\u25810x40c6": 7804,
    "\u25810x40b840": 7805,
    "\u25810x433660": 7806,
    "\u25810x697070": 7807,
    "f03": 7808,
    "usttoken": 7809,
    "c03": 7810,
    "df4": 7811,
    "fdb": 7812,
    "\u25810x798": 7813,
    "\u25810x412715": 7814,
    "\u25810x412716": 7815,
    "\u25810x4217bf": 7816,
    "\u25810x4217c0": 7817,
    "privileges": 7818,
    "\u25810x1211984": 7819,
    "usttokenprivileges": 7820,
    "2d5": 7821,
    "2f2": 7822,
    "f94": 7823,
    "\u25810x413f": 7824,
    "\u25810x195000": 7825,
    "sh": 7826,
    "ba3": 7827,
    "dd3": 7828,
    "20c0": 7829,
    "prop": 7830,
    "\u25810x4364": 7831,
    "\u25810x7e24": 7832,
    "\u25810x40a40": 7833,
    "\u25810xfeee017": 7834,
    "\u2581charlower": 7835,
    "2a7": 7836,
    "99c": 7837,
    "f83": 7838,
    "e5d5c": 7839,
    "\u25810x429c": 7840,
    "\u2581signal": 7841,
    "\u25810xcb008": 7842,
    "\u25810x4540e0": 7843,
    "\u25810x1211dc4": 7844,
    "\u25810x5b5a5958": 7845,
    "\u25810x5f5e5d5c": 7846,
    "\u25810xfeee00a6": 7847,
    "\u25810x2439": 7848,
    "\u25810x418c": 7849,
    "\u25810x4529": 7850,
    "\u25810x7e90": 7851,
    "\u25810x42a403": 7852,
    "\u25810x42a404": 7853,
    "\u25810x42a405": 7854,
    "\u25810x42a406": 7855,
    "\u25810x42a407": 7856,
    "\u25810x42a409": 7857,
    "\u25810x42a40a": 7858,
    "\u25810x42a40b": 7859,
    "\u25810x42a40c": 7860,
    "\u25810x42a40d": 7861,
    "\u25810x42a40e": 7862,
    "\u25810x42a40f": 7863,
    "7ff": 7864,
    "e50": 7865,
    "f91": 7866,
    "b6b0": 7867,
    "\u25810x4090": 7868,
    "2f1": 7869,
    "ails": 7870,
    "\u2581cpp": 7871,
    "tiont": 7872,
    "\u25810x100098": 7873,
    "\u2581getthreadpriority": 7874,
    "vb": 7875,
    "hell": 7876,
    "\u25810x88b0": 7877,
    "licences": 7878,
    "\u25810x181bc0": 7879,
    "\u25810x422750": 7880,
    "\u25810x423850": 7881,
    "\u25810x423880": 7882,
    "1d3": 7883,
    "80c": 7884,
    "b1c": 7885,
    "b24": 7886,
    "b9b": 7887,
    "dc6": 7888,
    "\u25810x569": 7889,
    "\u25810x40ca": 7890,
    "debughook": 7891,
    "sessionid": 7892,
    "\u2581cppdebughook": 7893,
    "1a7": 7894,
    "234": 7895,
    "d34": 7896,
    "\u2581if": 7897,
    "0010": 7898,
    "\u25810xfe": 7899,
    "791": 7900,
    "a25": 7901,
    "d15": 7902,
    "\u25810x4128": 7903,
    "\u25810x4dfb": 7904,
    "\u25810x7e18": 7905,
    "\u25810x40400": 7906,
    "\u25810x1211de8": 7907,
    "\u25810x2d4ddc0": 7908,
    "\u2581registerservicectrlhandler": 7909,
    "c44": 7910,
    "f9d0": 7911,
    "\u25810x4445": 7912,
    "\u25810x7e19": 7913,
    "\u25810xabc0": 7914,
    "\u25810x4153a0": 7915,
    "ec5": 7916,
    "3ef0": 7917,
    "\u25810x457c": 7918,
    "\u25810x569a": 7919,
    "\u25810x419638": 7920,
    "\u25810x500000": 7921,
    "a7b0": 7922,
    "named": 7923,
    "\u25810x40c8": 7924,
    "\u2581regopenkeya": 7925,
    "a85": 7926,
    "ed6": 7927,
    "fa6": 7928,
    "dbc0": 7929,
    "ftime": 7930,
    "\u25810x43c": 7931,
    "\u25810x40bd": 7932,
    "\u25810x7398": 7933,
    "\u25810x44ea20": 7934,
    "1ae": 7935,
    "3c6": 7936,
    "\u25810x108": 7937,
    "\u2581openw": 7938,
    "\u25810x4d80": 7939,
    "\u25810x519dd": 7940,
    "\u2581iphlpapi": 7941,
    "\u25810x3820382": 7942,
    "760": 7943,
    "992": 7944,
    "bf5": 7945,
    "imer": 7946,
    "\u25810xc5": 7947,
    "\u2581getsid": 7948,
    "visualfox": 7949,
    "\u2581globaladd": 7950,
    "\u2581findresourceexw": 7951,
    "b06": 7952,
    "d05": 7953,
    "f22": 7954,
    "f96": 7955,
    "\u25810x3810381": 7956,
    "bde": 7957,
    "word": 7958,
    "\u2581vfp": 7959,
    "\u25810x4b4a4": 7960,
    "visualfoxpro": 7961,
    "fb4": 7962,
    "7a00": 7963,
    "\u25810x1fe": 7964,
    "\u25810x40f1": 7965,
    "\u25810x698b8c": 7966,
    "2fe": 7967,
    "40d": 7968,
    "a86": 7969,
    "d93": 7970,
    "da4": 7971,
    "f4e4d4c": 7972,
    "\u25810x4100": 7973,
    "\u25810x4151": 7974,
    "\u25810x9200": 7975,
    "\u25810x43424": 7976,
    "\u25810x4c50c0": 7977,
    "\u25810x1210f8c": 7978,
    "\u25810x4b4a4948": 7979,
    "\u25810x4f4e4d4c": 7980,
    "\u25810xfeee00a7": 7981,
    "\u2581isbadwrite": 7982,
    "va": 7983,
    "713": 7984,
    "a1918": 7985,
    "565554": 7986,
    "\u25810x3332": 7987,
    "\u25810x7e91": 7988,
    "\u25810x57565554": 7989,
    "\u25810xfeee00a8": 7990,
    "wit": 7991,
    "b47c": 7992,
    "xfrm": 7993,
    "orgex": 7994,
    "\u2581unget": 7995,
    "\u2581lcidto": 7996,
    "\u25810x51b68": 7997,
    "\u25810x412505": 7998,
    "\u25810x412506": 7999,
    "\u25810x562838": 8000,
    "\u25810x563888": 8001,
    "\u25810x563a08": 8002,
    "\u25810x569b30": 8003,
    "\u2581lcidtolocalename": 8004,
    "185": 8005,
    "\u2581uc": 8006,
    "bea8": 8007,
    "\u2581libg": 8008,
    "\u25810x4338a8": 8009,
    "\u25810x2280228": 8010,
    "\u2581isbadwriteptr": 8011,
    "b86": 8012,
    "d3d": 8013,
    "\u2581ht": 8014,
    "64544": 8015,
    "e1d1c": 8016,
    "3e3d3c": 8017,
    "\u25810x7e1c": 8018,
    "\u25810x7e1d": 8019,
    "\u25810xa180": 8020,
    "\u2581libgcc": 8021,
    "uthority": 8022,
    "\u25810x3f3e3d3c": 8023,
    "\u25810x43424140": 8024,
    "\u25810x47464544": 8025,
    "915": 8026,
    "ade": 8027,
    "mple": 8028,
    "assword": 8029,
    "\u25810x2f2e": 8030,
    "\u25810x3736": 8031,
    "\u25810xfeee00a9": 8032,
    "\u2581formatmessagew": 8033,
    "92c": 8034,
    "bab": 8035,
    "d72": 8036,
    "ddc": 8037,
    "\u2581ucrt": 8038,
    "7161514": 8039,
    "\u25810xfff1": 8040,
    "\u25810x17161514": 8041,
    "\u25810x37363534": 8042,
    "\u25810xfeee00bc": 8043,
    "641": 8044,
    "99a": 8045,
    "etw": 8046,
    "f45": 8047,
    "22120": 8048,
    "a2928": 8049,
    "a3938": 8050,
    "\u25810x71c": 8051,
    "\u25810x7f9": 8052,
    "\u25810x40b2": 8053,
    "\u25810x40e500": 8054,
    "\u25810x1b1a1918": 8055,
    "\u25810x1f1e1d1c": 8056,
    "\u25810x23222120": 8057,
    "\u25810x2f2e2d2c": 8058,
    "\u25810x33323130": 8059,
    "\u25810x3b3a3938": 8060,
    "ni": 8061,
    "bda": 8062,
    "\u2581nar": 8063,
    "262524": 8064,
    "\u25810x4bb": 8065,
    "\u25810x1211fe8": 8066,
    "\u25810x27262524": 8067,
    "\u25810x2b2a2928": 8068,
    "b16": 8069,
    "ff40": 8070,
    "25150": 8071,
    "\u25810x288": 8072,
    "\u25810xb4e": 8073,
    "\u25810x9950": 8074,
    "\u2581narrow": 8075,
    "\u25810x53525150": 8076,
    "\u25810xfeee00aa": 8077,
    "\u25810xfeee00ae": 8078,
    "799": 8079,
    "b66": 8080,
    "\u25810x8850": 8081,
    "\u25810x42513f": 8082,
    "\u25810x425140": 8083,
    "\u25810x4285c0": 8084,
    "\u25810xfeee00ac": 8085,
    "\u2581writeprivateprofile": 8086,
    "2ab": 8087,
    "7c1": 8088,
    "\u2581cau": 8089,
    "egistry": 8090,
    "\u2581caution": 8091,
    "\u25810xfeee00ab": 8092,
    "d94": 8093,
    "fb5": 8094,
    "upper": 8095,
    "\u25810x4140": 8096,
    "\u25810xfeee00ad": 8097,
    "b05": 8098,
    "cho": 8099,
    "e92": 8100,
    "fe8c": 8101,
    "olcid": 8102,
    "enamet": 8103,
    "\u25810x9c8": 8104,
    "\u25810x46b430": 8105,
    "\u2581iswindow": 8106,
    "\u25810x12117b0": 8107,
    "\u25810x1211dd8": 8108,
    "enametolcid": 8109,
    "\u2581localenametolcid": 8110,
    "105": 8111,
    "73e": 8112,
    "enh": 8113,
    "b880": 8114,
    "\u2581call": 8115,
    "\u2581date": 8116,
    "\u25810xa26": 8117,
    "\u25810x40d6": 8118,
    "\u25810x7e21": 8119,
    "\u25810x448ad0": 8120,
    "\u25810x1211ca4": 8121,
    "te": 8122,
    "12a": 8123,
    "ff5": 8124,
    "14c8": 8125,
    "based": 8126,
    "\u25810x4c78": 8127,
    "\u2581ucrtbased": 8128,
    "fs": 8129,
    "uldnot": 8130,
    "7be8": 8131,
    "\u2581stricmp": 8132,
    "\u25810x42e0f0": 8133,
    "\u25810x1211708": 8134,
    "\u2581setscroll": 8135,
    "138": 8136,
    "b45": 8137,
    "b8a8": 8138,
    "anden": 8139,
    "roniz": 8140,
    "\u25810x120f6": 8141,
    "\u2581iob": 8142,
    "\u25810x1e4": 8143,
    "\u25810x1312": 8144,
    "\u25810x53e0": 8145,
    "\u25810x9820": 8146,
    "\u25810x1d000": 8147,
    "\u25810x412670": 8148,
    "\u25810x4208e0": 8149,
    "\u25810x39569a0": 8150,
    "\u2581charpreva": 8151,
    "\u2581getfileattributes": 8152,
    "9e6": 8153,
    "e46": 8154,
    "f3d": 8155,
    "41e8": 8156,
    "\u25810x4609": 8157,
    "\u2581msvcr80": 8158,
    "\u25810x40a3d1": 8159,
    "\u25810x40a3d2": 8160,
    "\u25810x40a3d3": 8161,
    "\u25810x120e690": 8162,
    "\u25810x120e698": 8163,
    "\u2581synchroniz": 8164,
    "pa": 8165,
    "742": 8166,
    "ece": 8167,
    "f9c": 8168,
    "fce": 8169,
    "3c54": 8170,
    "\u25810x4a4": 8171,
    "\u25810x680": 8172,
    "\u25810x48b0": 8173,
    "\u25810x8570": 8174,
    "\u25810x3f2080": 8175,
    "\u2581expanden": 8176,
    "\u25810x2050000": 8177,
    "\u2581setfiletime": 8178,
    "154": 8179,
    "a95": 8180,
    "fae": 8181,
    "add8": 8182,
    "suba": 8183,
    "\u25810x403000": 8184,
    "\u25810x42c070": 8185,
    "\u25810x47ee08": 8186,
    "\u2581getsidsuba": 8187,
    "\u2581getsidsubauthority": 8188,
    "345": 8189,
    "7e3": 8190,
    "0024": 8191,
    "a440": 8192,
    "\u25810xc7": 8193,
    "\u25810x498": 8194,
    "\u25810x4f0": 8195,
    "\u25810x42d0": 8196,
    "\u25810x4a50": 8197,
    "\u25810x41d210": 8198,
    "\u25810x1211eb4": 8199,
    "26f": 8200,
    "9f5": 8201,
    "b15": 8202,
    "b5b4": 8203,
    "d310": 8204,
    "952e8": 8205,
    "cache": 8206,
    "ecode": 8207,
    "ection": 8208,
    "\u25810x244": 8209,
    "\u2581licen": 8210,
    "\u25810x7e2c": 8211,
    "996": 8212,
    "a03": 8213,
    "a75": 8214,
    "fd6": 8215,
    "\u25810x4b6": 8216,
    "\u25810x7e2d": 8217,
    "\u25810x9620": 8218,
    "\u25810x1b25f": 8219,
    "\u25810x419c98": 8220,
    "\u258120220304": 8221,
    "555": 8222,
    "632": 8223,
    "etween": 8224,
    "\u25810x4031": 8225,
    "\u25810xa090": 8226,
    "\u25810x4188a8": 8227,
    "\u25810x419cc8": 8228,
    "\u25810xfeee00af": 8229,
    "a13": 8230,
    "9228": 8231,
    "\u25810xe5": 8232,
    "\u25810x4016": 8233,
    "\u25810x4047": 8234,
    "\u25810x593748": 8235,
    "\u2581waitformultipleob": 8236,
    "b76": 8237,
    "94a8": 8238,
    "f084": 8239,
    "extex": 8240,
    "\u25810x132": 8241,
    "\u25810x9090": 8242,
    "\u25810xac30": 8243,
    "\u25810xc0000": 8244,
    "\u2581service": 8245,
    "\u25810x1211b58": 8246,
    "214": 8247,
    "2c1": 8248,
    "72e": 8249,
    "ba6": 8250,
    "e9a": 8251,
    "\u25810xebad": 8252,
    "\u25810xfeee00b0": 8253,
    "\u25810xfeee00b1": 8254,
    "\u2581shgetfileinfoa": 8255,
    "862": 8256,
    "d54": 8257,
    "fd3": 8258,
    "96d8": 8259,
    "d6d8": 8260,
    "\u2581cle": 8261,
    "\u25810xc3": 8262,
    "\u25810x3ae": 8263,
    "\u25810x43b4": 8264,
    "\u25810x483d": 8265,
    "\u25810x42d480": 8266,
    "\u25810x1211ba4": 8267,
    "\u2581sldrl6660drl6660drl6660drl6660drl6660drl6660drl6660drl6660": 8268,
    "ce9": 8269,
    "ddf8": 8270,
    "\u25810x405c": 8271,
    "\u25810x1211cbc": 8272,
    "7f3": 8273,
    "943": 8274,
    "9ed": 8275,
    "a72": 8276,
    "\u2581vfp6": 8277,
    "\u25810x96e0": 8278,
    "\u25810xa0f0": 8279,
    "\u2581flatsb": 8280,
    "\u2581strcpyw": 8281,
    "\u25810x4189e8": 8282,
    "\u25810x42d468": 8283,
    "frame": 8284,
    "\u25810x470": 8285,
    "\u25810x6ed": 8286,
    "\u25810x4450": 8287,
    "\u25810x5718": 8288,
    "\u25810x4177b0": 8289,
    "\u25810x42d438": 8290,
    "\u25810x1211e94": 8291,
    "\u25810x2d4d918": 8292,
    "556": 8293,
    "658": 8294,
    "a92": 8295,
    "\u25810x4055": 8296,
    "\u25810x8a44": 8297,
    "\u25810x120f3": 8298,
    "\u25810x40a3d4": 8299,
[...]
