{
    "<pad>": 0,
    "<unk>": 1,
    "<mask>": 2,
    "\u25810": 3,
    "\u25810x": 4,
    "00": 5,
    "er": 6,
    "ne": 7,
    "32": 8,
    "\u2581k": 9,
    "l32": 10,
    "erne": 11,
    "ernel32": 12,
    "\u2581kernel32": 13,
    "et": 14,
    "\u25810x4": 15,
    "\u25810x0": 16,
    "ee": 17,
    "get": 18,
    "\u25810x1": 19,
    "al": 20,
    "\u2581get": 21,
    "\u25810xf": 22,
    "ti": 23,
    "0000": 24,
    "in": 25,
    "ec": 26,
    "oc": 27,
    "ad": 28,
    "\u25810x7": 29,
    "re": 30,
    "st": 31,
    "eee": 32,
    "\u25810xfeee": 33,
    "\u25810xfeee00": 34,
    "le": 35,
    "ss": 36,
    "iti": 37,
    "ar": 38,
    "pr": 39,
    "proc": 40,
    "\u2581c": 41,
    "one": 42,
    "us": 43,
    "user": 44,
    "\u2581user": 45,
    "\u2581user32": 46,
    "val": 47,
    "\u2581getproc": 48,
    "dre": 49,
    "addre": 50,
    "address": 51,
    "\u2581getprocaddress": 52,
    "\u25810x77": 53,
    "ls": 54,
    "ue": 55,
    "value": 56,
    "\u25810x40": 57,
    "getvalue": 58,
    "lsgetvalue": 59,
    "on": 60,
    "\u25810x12": 61,
    "or": 62,
    "\u2581n": 63,
    "000000": 64,
    "har": 65,
    "\u2581none": 66,
    "\u25810xfeee000": 67,
    "\u2581s": 68,
    "cal": 69,
    "sec": 70,
    "secti": 71,
    "riti": 72,
    "ritical": 73,
    "riticalsecti": 74,
    "\u25810x121": 75,
    "loc": 76,
    "\u25810x77000000": 77,
    "en": 78,
    "xt": 79,
    "\u25810x1211": 80,
    "ter": 81,
    "next": 82,
    "\u2581char": 83,
    "de": 84,
    "\u2581charnext": 85,
    "ff": 86,
    "la": 87,
    "\u2581t": 88,
    "err": 89,
    "ap": 90,
    "error": 91,
    "last": 92,
    "\u2581f": 93,
    "ecriticalsecti": 94,
    "lasterror": 95,
    "\u25810x46": 96,
    "\u2581l": 97,
    "\u25810xfeee0001": 98,
    "str": 99,
    "\u2581charnexta": 100,
    "000": 101,
    "\u2581in": 102,
    "\u2581tlsgetvalue": 103,
    "te": 104,
    "f0": 105,
    "93": 106,
    "an": 107,
    "a0": 108,
    "\u25810x4093": 109,
    "\u2581set": 110,
    "66": 111,
    "he": 112,
    "co": 113,
    "and": 114,
    "ing": 115,
    "iz": 116,
    "\u2581en": 117,
    "aliz": 118,
    "itializ": 119,
    "heap": 120,
    "\u25810x8": 121,
    "\u25810x45": 122,
    "is": 123,
    "\u2581initializ": 124,
    "string": 125,
    "by": 126,
    "po": 127,
    "\u2581initializecriticalsecti": 128,
    "\u2581flsgetvalue": 129,
    "\u2581heap": 130,
    "\u25810x5": 131,
    "alloc": 132,
    "00000": 133,
    "\u25810x100": 134,
    "ow": 135,
    "\u2581lo": 136,
    "\u2581load": 137,
    "\u2581m": 138,
    "lea": 139,
    "poin": 140,
    "\u2581d": 141,
    "90": 142,
    "\u25810x2": 143,
    "pointer": 144,
    "\u2581w": 145,
    "em": 146,
    "bc": 147,
    "40": 148,
    "depointer": 149,
    "\u25810xfa0": 150,
    "\u2581is": 151,
    "10": 152,
    "\u2581getlasterror": 153,
    "local": 154,
    "inf": 155,
    "fi": 156,
    "\u25810xc": 157,
    "nt": 158,
    "\u2581setlasterror": 159,
    "byte": 160,
    "60": 161,
    "\u25810x42": 162,
    "\u25810x43": 163,
    "\u25810x10": 164,
    "id": 165,
    "\u25810x45f0": 166,
    "\u25810x400000": 167,
    "hand": 168,
    "ind": 169,
    "info": 170,
    "e4": 171,
    "\u2581heapalloc": 172,
    "\u25810x40a": 173,
    "mo": 174,
    "locale": 175,
    "\u25810x3": 176,
    "d0": 177,
    "dbc": 178,
    "onex": 179,
    "lead": 180,
    "stringa": 181,
    "dbcs": 182,
    "\u2581isdbcs": 183,
    "\u2581isdbcslead": 184,
    "\u2581isdbcsleadbyte": 185,
    "stem": 186,
    "ystem": 187,
    "indow": 188,
    "ll": 189,
    "\u2581initializecriticalsectionex": 190,
    "ecriticalsection": 191,
    "ffff": 192,
    "\u2581enco": 193,
    "\u2581encodepointer": 194,
    "du": 195,
    "leav": 196,
    "\u2581leav": 197,
    "\u2581leavecriticalsection": 198,
    "ul": 199,
    "criticalsecti": 200,
    "criticalsection": 201,
    "tercriticalsection": 202,
    "infoa": 203,
    "\u2581entercriticalsection": 204,
    "read": 205,
    "dule": 206,
    "ir": 207,
    "l66": 208,
    "\u25810xff": 209,
    "module": 210,
    "\u2581loadstringa": 211,
    "li": 212,
    "dr": 213,
    "\u2581getmodule": 214,
    "l6660": 215,
    "\u2581getlocale": 216,
    "\u2581initializecriticalsection": 217,
    "\u25810xc000": 218,
    "\u2581dll": 219,
    "drl6660": 220,
    "ur": 221,
    "50": 222,
    "\u25810x4e4": 223,
    "indows": 224,
    "10000": 225,
    "f8": 226,
    "\u25810x41": 227,
    "\u2581windows": 228,
    "unt": 229,
    "ulti": 230,
    "idec": 231,
    "idechar": 232,
    "ent": 233,
    "drl6660drl6660": 234,
    "me": 235,
    "ex": 236,
    "\u2581getlocaleinfoa": 237,
    "eco": 238,
    "ac": 239,
    "ke": 240,
    "78": 241,
    "\u25810x40a5": 242,
    "count": 243,
    "c0": 244,
    "cm": 245,
    "\u25810x4690": 246,
    "\u25810x400": 247,
    "handle": 248,
    "\u2581system": 249,
    "\u2581charnextw": 250,
    "\u25810x1000": 251,
    "file": 252,
    "fr": 253,
    "\u2581system32": 254,
    "70": 255,
    "\u2581ms": 256,
    "ess": 257,
    "op": 258,
    "\u2581getc": 259,
    "cr": 260,
    "sp": 261,
    "aa": 262,
    "20": 263,
    "ect": 264,
    "tu": 265,
    "ate": 266,
    "om": 267,
    "\u2581deco": 268,
    "\u2581decodepointer": 269,
    "ut": 270,
    "yp": 271,
    "br": 272,
    "30": 273,
    "spin": 274,
    "spincount": 275,
    "ary": 276,
    "andspincount": 277,
    "\u2581initializecriticalsectionandspincount": 278,
    "\u2581msv": 279,
    "\u25810x47": 280,
    "rent": 281,
    "free": 282,
    "\u2581msvcr": 283,
    "b0": 284,
    "\u25810x1211d": 285,
    "\u25810x44": 286,
    "ment": 287,
    "urrent": 288,
    "\u25810x1211f": 289,
    "\u2581v": 290,
    "80": 291,
    "\u25810x6": 292,
    "\u25810x46f0": 293,
    "brary": 294,
    "\u2581msvcrt": 295,
    "e0": 296,
    "\u25810x78": 297,
    "\u25810x77d": 298,
    "\u25810x77d10000": 299,
    "ge": 300,
    "let": 301,
    "tet": 302,
    "\u25810xfeee001": 303,
    "th": 304,
    "\u25810xfffff": 305,
    "\u25810xf00": 306,
    "\u25810xfffffff": 307,
    "ce": 308,
    "library": 309,
    "of": 310,
    "na": 311,
    "\u25810x7e": 312,
    "\u2581getst": 313,
    "b8": 314,
    "\u25810x9": 315,
    "01": 316,
    "\u25810x40933": 317,
    "bytet": 318,
    "\u2581multi": 319,
    "bytetow": 320,
    "\u2581multibytetow": 321,
    "\u2581multibytetowidechar": 322,
    "\u25810x46d0": 323,
    "\u25810x42a": 324,
    "reate": 325,
    "44": 326,
    "so": 327,
    "cc": 328,
    "\u25810x7d": 329,
    "process": 330,
    "\u2581a": 331,
    "18": 332,
    "lo": 333,
    "age": 334,
    "\u2581re": 335,
    "ype": 336,
    "\u2581getmodulehand": 337,
    "\u25810x4610": 338,
    "\u2581getmodulehandlea": 339,
    "\u25810x1211e": 340,
    "\u25810x4093e": 341,
    "stringw": 342,
    "\u2581loadlibrary": 343,
    "\u25810x10c": 344,
    "\u2581getcurrent": 345,
    "hi": 346,
    "irect": 347,
    "28": 348,
    "thread": 349,
    "cmp": 350,
    "direct": 351,
    "58": 352,
    "tion": 353,
    "d4": 354,
    "key": 355,
    "ri": 356,
    "director": 357,
    "put": 358,
    "\u25810x40934": 359,
    "\u2581g": 360,
    "\u25810xfeee01": 361,
    "\u2581heapfree": 362,
    "it": 363,
    "un": 364,
    "14": 365,
    "\u2581lstr": 366,
    "\u25810x435": 367,
    "filet": 368,
    "bu": 369,
    "def": 370,
    "\u25810x1210": 371,
    "\u2581inter": 372,
    "\u2581gets": 373,
    "d8": 374,
    "\u25810x45f": 375,
    "tom": 376,
    "ch": 377,
    "con": 378,
    "a8": 379,
    "\u2581create": 380,
    "locke": 381,
    "\u2581interlocke": 382,
    "94": 383,
    "64": 384,
    "drl6660drl6660drl6660drl6660": 385,
    "12": 386,
    "directory": 387,
    "tomulti": 388,
    "\u2581widechar": 389,
    "tomultibyte": 390,
    "\u2581widechartomultibyte": 391,
    "cmap": 392,
    "\u2581lcmap": 393,
    "ed": 394,
    "rst": 395,
    "ber": 396,
    "38": 397,
    "34": 398,
    "\u2581ap": 399,
    "\u2581interlocked": 400,
    "\u25810x42a40": 401,
    "name": 402,
    "a4": 403,
    "um": 404,
    "\u2581getsystem": 405,
    "5c": 406,
    "\u2581reg": 407,
    "56": 408,
    "rement": 409,
    "\u2581local": 410,
    "open": 411,
    "\u2581p": 412,
    "\u25810xfeee002": 413,
    "\u25810x88": 414,
    "ers": 415,
    "handlew": 416,
    "\u25810x18": 417,
    "98": 418,
    "\u2581getmodulehandlew": 419,
    "sole": 420,
    "\u25810x40a3": 421,
    "irtu": 422,
    "irtual": 423,
    "mm": 424,
    "\u25810x104": 425,
    "\u25810xcd": 426,
    "\u2581virtual": 427,
    "vw": 428,
    "\u25810x5f8": 429,
    "\u25810x5f800000": 430,
    "\u25810x78000000": 431,
    "orm": 432,
    "lm": 433,
    "\u2581o": 434,
    "xy": 435,
    "ab": 436,
    "klm": 437,
    "ghi": 438,
    "opq": 439,
    "xyz": 440,
    "uvw": 441,
    "\u2581abc": 442,
    "defghi": 443,
    "opqrst": 444,
    "uvwxyz": 445,
    "\u2581abcdefghi": 446,
    "opqrstuvwxyz": 447,
    "klmn": 448,
    "klmnopqrstuvwxyz": 449,
    "bug": 450,
    "\u25810xffffffff": 451,
    "debug": 452,
    "ersi": 453,
    "\u25810x12119": 454,
    "f4": 455,
    "\u25810x90": 456,
    "68": 457,
    "i32": 458,
    "num": 459,
    "vir": 460,
    "viron": 461,
    "7c": 462,
    "vironment": 463,
    "\u25810x70": 464,
    "\u2581read": 465,
    "74": 466,
    "\u25810xfeee004": 467,
    "console": 468,
    "\u25810x14": 469,
    "\u2581var": 470,
    "\u25810x20": 471,
    "dhandle": 472,
    "\u2581lcmapstringw": 473,
    "\u25810xfeee0004": 474,
    "number": 475,
    "filename": 476,
    "b4": 477,
    "\u2581getfilet": 478,
    "\u25810x54": 479,
    "input": 480,
    "f5": 481,
    "versi": 482,
    "\u2581getfiletype": 483,
    "\u2581getstdhandle": 484,
    "se": 485,
    "\u2581getnumber": 486,
    "ofconsole": 487,
    "\u2581getnumberofconsole": 488,
    "e10000": 489,
    "\u25810x77e10000": 490,
    "comm": 491,
    "db": 492,
    "\u2581ex": 493,
    "at": 494,
    "tr": 495,
    "e8": 496,
    "\u25810xa": 497,
    "inputs": 498,
    "\u2581getnumberofconsoleinputs": 499,
    "dc": 500,
    "ea": 501,
    "pre": 502,
    "ol": 503,
    "24": 504,
    "\u25810xfeee003": 505,
    "arch": 506,
    "\u25810x43540": 507,
    "\u25810xfeee0002": 508,
    "\u2581getmodulefilename": 509,
    "1c": 510,
    "\u2581mem": 511,
    "\u2581apis": 512,
    "line": 513,
    "26": 514,
    "tup": 515,
    "artup": 516,
    "filea": 517,
    "54": 518,
    "inc": 519,
    "\u2581se": 520,
    "fc": 521,
    "sw": 522,
    "andline": 523,
    "\u2581getcomm": 524,
    "\u25810x7de": 525,
    "directorya": 526,
    "\u25810xfeee0000": 527,
    "\u2581getstartup": 528,
    "increment": 529,
    "\u2581interlockedincrement": 530,
    "\u25810xf001": 531,
    "\u2581getcommandline": 532,
    "2c": 533,
    "are": 534,
    "infow": 535,
    "\u25810x48": 536,
    "\u2581getcurrentthread": 537,
    "a6": 538,
    "\u25810x12117": 539,
    "window": 540,
    "etvalue": 541,
    "lss": 542,
    "lssetvalue": 543,
    "\u25810x4378": 544,
    "\u2581fr": 545,
    "\u25810x102": 546,
    "qu": 547,
    "\u25810x7f8": 548,
    "\u2581getversi": 549,
    "\u2581memcmp": 550,
    "exw": 551,
    "\u2581loadlibrarya": 552,
    "emp": 553,
    "\u2581getcurrentthreadid": 554,
    "pres": 555,
    "present": 556,
    "oft": 557,
    "\u2581temp": 558,
    "3c": 559,
    "\u25810xfeee005": 560,
    "\u2581de": 561,
    "\u2581localalloc": 562,
    "\u25810xfeee006": 563,
    "da": 564,
    "\u25810x1211c": 565,
    "lsalloc": 566,
    "ng": 567,
    "900": 568,
    "\u2581open": 569,
    "\u25810xfeee008": 570,
    "rite": 571,
    "\u2581getti": 572,
    "\u25810x4750": 573,
    "\u25810xb": 574,
    "\u2581h": 575,
    "\u25810x80": 576,
    "16": 577,
    "vironmentstring": 578,
    "a2": 579,
    "\u25810xfff": 580,
    "\u2581ad": 581,
    "\u25810x460": 582,
    "\u25810x7f800": 583,
    "lob": 584,
    "\u25810xfeee0003": 585,
    "f6": 586,
    "9c": 587,
    "\u2581glob": 588,
    "\u25810x8000": 589,
    "mp": 590,
    "\u25810xffb": 591,
    "\u25810x7a": 592,
    "eex": 593,
    "\u25810xfeee0005": 594,
    "valid": 595,
    "\u2581search": 596,
    "quer": 597,
    "91": 598,
    "\u25810xfeee007": 599,
    "\u2581getcp": 600,
    "\u2581getcpinfo": 601,
    "\u25810x200": 602,
    "e7": 603,
    "ation": 604,
    "\u2581hkey": 605,
    "bad": 606,
    "11": 607,
    "type": 608,
    "\u2581b": 609,
    "ware": 610,
    "\u25810x7c": 611,
    "oftware": 612,
    "form": 613,
    "f2": 614,
    "c4": 615,
    "\u2581software": 616,
    "iv": 617,
    "\u25810x800": 618,
    "ck": 619,
    "eb": 620,
    "vironmentstringsw": 621,
    "fa": 622,
    "\u25810x50": 623,
    "ckcount": 624,
    "\u2581gettickcount": 625,
    "exa": 626,
    "ptr": 627,
    "\u2581isbad": 628,
    "\u2581out": 629,
    "\u2581loadstringw": 630,
    "bo": 631,
    "\u25810x7000": 632,
    "\u25810xf003": 633,
    "mode": 634,
    "a5": 635,
    "lose": 636,
    "\u2581sh": 637,
    "api32": 638,
    "\u25810x40b": 639,
    "sour": 640,
    "time": 641,
    "\u25810xf002": 642,
    "im": 643,
    "95": 644,
    "\u25810x120": 645,
    "\u2581adv": 646,
    "\u2581advapi32": 647,
    "readptr": 648,
    "\u2581isbadreadptr": 649,
    "\u25810x436": 650,
    "\u25810x7b": 651,
    "\u2581lstrle": 652,
    "\u25810x79": 653,
    "\u2581virtualalloc": 654,
    "e2": 655,
    "d2": 656,
    "\u2581gd": 657,
    "drl6660drl6660drl6660drl6660drl6660drl6660drl6660drl6660": 658,
    "dex": 659,
    "ime": 660,
    "\u2581getstartupinfoa": 661,
    "b2": 662,
    "789": 663,
    "\u2581output": 664,
    "\u2581outputdebug": 665,
    "cep": 666,
    "ile": 667,
    "\u2581find": 668,
    "source": 669,
    "ot": 670,
    "\u25810xffc": 671,
    "\u25810x4670": 672,
    "\u2581getcommandlinea": 673,
    "55": 674,
    "400": 675,
    "96": 676,
    "as": 677,
    "ception": 678,
    "var": 679,
    "\u25810x4b": 680,
    "71": 681,
    "\u25810x7e70": 682,
    "76": 683,
    "\u2581aa": 684,
    "vari": 685,
    "int": 686,
    "\u2581lstrcmp": 687,
    "1234": 688,
    "56789": 689,
    "\u258101234": 690,
    "\u25810123456789": 691,
    "\u25810xfeee0006": 692,
    "\u2581outputdebugstringa": 693,
    "\u2581getmodulefilenamea": 694,
    "es": 695,
    "\u25811": 696,
    "\u2581getcurrentprocess": 697,
    "locales": 698,
    "9e": 699,
    "d5": 700,
    "d6": 701,
    "\u25810x40933d": 702,
    "\u25810x40933e": 703,
    "\u25810x40933f": 704,
    "\u25810x409340": 705,
    "\u25810x409341": 706,
    "\u25810x409342": 707,
    "\u25810x409343": 708,
    "\u2581global": 709,
    "ic": 710,
    "35": 711,
    "\u2581ws": 712,
    "ger": 713,
    "\u25810x4c": 714,
    "\u2581flssetvalue": 715,
    "filetime": 716,
    "\u2581getstring": 717,
    "ting": 718,
    "\u2581loadlibraryexw": 719,
    "ve": 720,
    "\u2581locales": 721,
    "15": 722,
    "\u2581flsalloc": 723,
    "\u25810x40935": 724,
    "\u25810xfeee0007": 725,
    "directoryw": 726,
    "f7": 727,
    "\u2581co": 728,
    "\u2581com": 729,
    "\u2581getstringtype": 730,
    "dec": 731,
    "\u2581getlocaleinfow": 732,
    "\u2581getthread": 733,
    "\u25810x43640": 734,
    "\u25810x1211dd4": 735,
    "\u25810x7ee": 736,
    "\u2581getac": 737,
    "cp": 738,
    "\u25810x42900": 739,
    "92": 740,
    "list": 741,
    "print": 742,
    "\u2581current": 743,
    "\u2581page": 744,
    "\u2581geten": 745,
    "e5": 746,
    "\u2581getstringtypew": 747,
    "ra": 748,
    "d3": 749,
    "\u25810x5f5": 750,
    "\u25810x5f500000": 751,
    "88": 752,
    "\u2581delet": 753,
    "a7": 754,
    "\u25810x1211dc0": 755,
    "e6": 756,
    "up": 757,
    "\u2581getacp": 758,
    "\u2581gdi32": 759,
    "\u25810x73": 760,
    "write": 761,
    "\u25810x7d90": 762,
    "f3": 763,
    "\u25810x42b": 764,
    "\u2581getversion": 765,
    "\u25810x21": 766,
    "nd": 767,
    "106": 768,
    "d1": 769,
    "\u25810x4e": 770,
    "\u2581x": 771,
    "7b": 772,
    "\u25810x1211e0": 773,
    "\u25810x4a": 774,
    "\u2581lstrlena": 775,
    "\u25810x71": 776,
    "\u2581lstrcmpa": 777,
    "fil": 778,
    "\u2581regopen": 779,
    "\u2581regopenkey": 780,
    "a9": 781,
    "\u25810x105": 782,
    "002": 783,
    "\u2581wsprint": 784,
    "debugger": 785,
    "debuggerpresent": 786,
    "decrement": 787,
    "\u2581interlockeddecrement": 788,
    "f1": 789,
    "from": 790,
    "\u25810x4d": 791,
    "\u2581isdebuggerpresent": 792,
    "\u2581quer": 793,
    "\u25810x12116": 794,
    "c8": 795,
    "ob": 796,
    "cpy": 797,
    "\u25810x4350": 798,
    "\u2581al": 799,
    "db10": 800,
    "\u25810x40936": 801,
    "af": 802,
    "84": 803,
    "ith": 804,
    "\u25810x72": 805,
    "image": 806,
    "\u2581gette": 807,
    "dll": 808,
    "\u25810xd": 809,
    "\u2581str": 810,
    "db10106": 811,
    "\u25810x1db10106": 812,
    "erform": 813,
    "erforman": 814,
    "\u2581getsystemtime": 815,
    "ba": 816,
    "\u25810x526": 817,
    "\u2581queryp": 818,
    "\u2581queryperforman": 819,
    "\u2581bor": 820,
    "f00": 821,
    "b1": 822,
    "e1": 823,
    "\u2581readwrite": 824,
    "36": 825,
    "8c": 826,
    "\u2581invalid": 827,
    "\u25810x50000": 828,
    "97": 829,
    "mess": 830,
    "\u25810x1c": 831,
    "variab": 832,
    "land": 833,
    "\u2581borland": 834,
    "set": 835,
    "\u25810x7de0": 836,
    "\u2581free": 837,
    "\u2581regi": 838,
    "\u2581getprocess": 839,
    "message": 840,
    "filter": 841,
    "dexception": 842,
    "\u25810x41c0": 843,
    "defa": 844,
    "stringex": 845,
    "72": 846,
    "hread": 847,
    "unhandle": 848,
    "dexceptionfilter": 849,
    "\u2581getcurrentprocessid": 850,
    "unhandledexceptionfilter": 851,
    "defaul": 852,
    "acc": 853,
    "\u25810x49": 854,
    "create": 855,
    "\u25810x41c044": 856,
    "map": 857,
    "9b": 858,
    "tered": 859,
    "\u2581with": 860,
    "\u2581altered": 861,
    "\u2581win": 862,
    "ef": 863,
    "inform": 864,
    "\u2581gettemp": 865,
    "information": 866,
    "\u2581r": 867,
    "tt": 868,
    "\u25810x16": 869,
    "\u25810x42b40": 870,
    "ture": 871,
    "unter": 872,
    "to": 873,
    "\u25810x12115": 874,
    "a1": 875,
    "ey": 876,
    "\u25810x53": 877,
    "ceco": 878,
    "\u25810x180": 879,
    "cecounter": 880,
    "\u2581queryperformancecounter": 881,
    "d7": 882,
    "\u25810x52": 883,
    "processor": 884,
    "\u2581lstrcpy": 885,
    "filew": 886,
    "\u2581getthreadlocale": 887,
    "4c": 888,
    "urs": 889,
    "\u2581li": 890,
    "17": 891,
    "dep": 892,
    "\u2581image": 893,
    "access": 894,
    "\u25810x8810": 895,
    "\u25810x4290": 896,
    "ys": 897,
    "fea": 898,
    "\u2581lcmapstringex": 899,
    "default": 900,
    "\u25810x75": 901,
    "e3": 902,
    "b5": 903,
    "handl": 904,
    "hel": 905,
    "vi": 906,
    "eeen": 907,
    "\u2581freeen": 908,
    "\u2581getmodulefilenamew": 909,
    "\u2581core": 910,
    "\u25810x76": 911,
    "rea": 912,
    "9d": 913,
    "\u2581getversionex": 914,
    "feature": 915,
    "\u2581isprocessor": 916,
    "featurepresent": 917,
    "\u2581isprocessorfeaturepresent": 918,
    "day": 919,
    "asfiletime": 920,
    "\u2581getsystemtimeasfiletime": 921,
    "\u25810x220": 922,
    "\u2581setfile": 923,
    "\u25810x43400": 924,
    "\u2581close": 925,
    "a3": 926,
    "lass": 927,
    "\u25810xfffffff6": 928,
    "\u25810x47b0": 929,
    "b6": 930,
    "ila": 931,
    "ata": 932,
    "\u2581init": 933,
    "\u25810x410": 934,
    "\u25810x30": 935,
    "\u25810x74": 936,
    "22": 937,
    "99": 938,
    "\u2581getenvironmentstringsw": 939,
    "\u25810x2a": 940,
    "\u2581getprocessheap": 941,
    "\u2581lread": 942,
    "\u25810x121178": 943,
    "ip": 944,
    "\u2581setunhandledexceptionfilter": 945,
    "\u2581key": 946,
    "\u2581freeenvironmentstringsw": 947,
    "\u25810x1f4": 948,
    "\u25810x43780": 949,
    "\u2581imagelist": 950,
    "\u2581library": 951,
    "9a": 952,
    "\u25810xe": 953,
    "lock": 954,
    "df": 955,
    "13": 956,
    "resource": 957,
    "\u25810xfffffff5": 958,
    "\u25810xfffffff4": 959,
    "\u2581readfile": 960,
    "\u25810x121194": 961,
    "ursor": 962,
    "ster": 963,
    "\u25810x41a0": 964,
    "bb": 965,
    "\u25810x4094": 966,
    "\u25810x1211e04": 967,
    "\u2581l1": 968,
    "\u25810x21000": 969,
    "ant": 970,
    "bute": 971,
    "term": 972,
    "ribute": 973,
    "vironmentvariab": 974,
    "\u25810x13": 975,
    "\u25810x9000": 976,
    "\u2581fi": 977,
    "\u2581exit": 978,
    "ard": 979,
    "\u2581sl": 980,
    "\u2581setfilepointer": 981,
    "\u2581closehandle": 982,
    "fileatt": 983,
    "fileattribute": 984,
    "75": 985,
    "\u25810x7830": 986,
    "\u25810x1211b": 987,
    "\u25810x17": 988,
    "\u25810x2000": 989,
    "\u25810x1f400": 990,
    "ae": 991,
    "board": 992,
    "close": 993,
    "lic": 994,
    "\u25812": 995,
    "\u2581tlssetvalue": 996,
    "\u2581getcommandlinew": 997,
    "\u25810x41a044": 998,
    "ait": 999,
    "ction": 1000,
    "\u2581write": 1001,
    "\u25810x7e71": 1002,
    "\u25810x44d4": 1003,
    "ec0": 1004,
    "\u25810x43500": 1005,
    "aaaa": 1006,
    "pool": 1007,
    "arg": 1008,
    "\u2581e": 1009,
    "33": 1010,
    "\u2581getstartupinfow": 1011,
    "\u25810x12114": 1012,
    "\u2581register": 1013,
    "ecount": 1014,
    "\u25810x40933c": 1015,
    "lor": 1016,
    "\u25810x5265c": 1017,
    "\u2581freelibrary": 1018,
    "\u2581seten": 1019,
    "first": 1020,
    "6c": 1021,
    "\u2581heapcreate": 1022,
    "hine": 1023,
    "\u2581mac": 1024,
    "\u25810x70cc": 1025,
    "\u2581machine": 1026,
    "\u25810x12116d8": 1027,
    "\u2581isvalid": 1028,
    "\u25810x88a0": 1029,
    "\u25810x409344": 1030,
    "met": 1031,
    "1a": 1032,
    "\u25810x77f": 1033,
    "\u25810x77f10000": 1034,
    "dd": 1035,
    "\u2581getcurrentdirectorya": 1036,
    "\u2581access": 1037,
    "\u2581getsystemdirectoryw": 1038,
    "5500000": 1039,
    "\u2581aaa": 1040,
    "cursor": 1041,
    "\u25810x15": 1042,
    "eric": 1043,
    "9f": 1044,
    "\u25810x4340": 1045,
    "\u2581delete": 1046,
    "loa": 1047,
    "loating": 1048,
    "handlecount": 1049,
    "\u2581ole": 1050,
    "\u25810x11": 1051,
    "\u2581gettempa": 1052,
    "\u2581sethandlecount": 1053,
    "\u2581virtualfree": 1054,
    "\u25810x40b3": 1055,
    "\u2581getversionexa": 1056,
    "\u25810x1210f": 1057,
    "\u25810x1211f8": 1058,
    "c2": 1059,
    "de9": 1060,
    "1e": 1061,
    "37": 1062,
    "\u2581pf": 1063,
    "\u25810x7810": 1064,
    "\u2581regopenkeyexa": 1065,
    "\u25810x1210e": 1066,
    "\u2581app": 1067,
    "query": 1068,
    "1b": 1069,
    "\u25810x2e7": 1070,
    "\u2581loadlibraryexa": 1071,
    "fromstr": 1072,
    "\u25810x7ee00": 1073,
    "\u25810x4093e5": 1074,
    "\u25810x4093e6": 1075,
    "\u25810x4093e7": 1076,
    "\u2581crea": 1077,
    "\u25810xfde9": 1078,
    "\u2581wsprintfa": 1079,
    "ov": 1080,
    "\u25810x42a1": 1081,
    "\u2581getsystemdirectorya": 1082,
    "\u25810x8c": 1083,
    "\u25810x4093e8": 1084,
    "\u25810x1211918": 1085,
    "ble": 1086,
    "\u25810x7d91": 1087,
    "19": 1088,
    "ct": 1089,
    "ies": 1090,
    "chan": 1091,
    "\u25810xf0019": 1092,
    "ion": 1093,
    "\u25810x38": 1094,
    "stru": 1095,
    "\u2581tlsalloc": 1096,
    "defaultdll": 1097,
    "directories": 1098,
    "\u2581setdefaultdll": 1099,
    "\u2581setdefaultdlldirectories": 1100,
    "010": 1101,
    "va": 1102,
    "\u2581setc": 1103,
    "\u25810x1b": 1104,
    "sa": 1105,
    "\u25810x82": 1106,
    "\u25810x19": 1107,
    "\u2581strn": 1108,
    "ccc": 1109,
    "struction": 1110,
    "\u2581exe": 1111,
    "7e": 1112,
    "\u25810x4f": 1113,
    "\u25810x4093e9": 1114,
    "\u25810x4093ea": 1115,
    "\u25810x4093eb": 1116,
    "\u2581shel": 1117,
    "\u25810x5265c14": 1118,
    "\u2581getd": 1119,
    "\u2581strncmp": 1120,
    "48": 1121,
    "\u25810x1211dcc": 1122,
    "39": 1123,
    "\u2581exitprocess": 1124,
    "\u2581fin": 1125,
    "\u25810x79d0": 1126,
    "\u2581dri": 1127,
    "\u25810x28": 1128,
    "\u2581findre": 1129,
    "\u25810x7aa0": 1130,
    "enu": 1131,
    "ack": 1132,
    "\u2581drive": 1133,
    "\u2581gen": 1134,
    "\u25810x1f": 1135,
    "\u2581getfileattribute": 1136,
    "der": 1137,
    "\u2581loadcursor": 1138,
    "e9": 1139,
    "\u2581pr": 1140,
    "\u2581api": 1141,
    "\u25810x1a": 1142,
    "\u2581vari": 1143,
    "\u2581createt": 1144,
    "\u25810x1211dd0": 1145,
    "not": 1146,
    "\u25810x7de1": 1147,
    "point": 1148,
    "\u25810x22": 1149,
    "low": 1150,
    "\u25810x422": 1151,
    "\u2581globalalloc": 1152,
    "\u2581findfirst": 1153,
    "yarg": 1154,
    "tim": 1155,
    "b7": 1156,
    "\u25810xfeee0008": 1157,
    "\u25810x409": 1158,
    "\u2581floating": 1159,
    "\u2581setcurrent": 1160,
    "\u25810x1804": 1161,
    "lsfree": 1162,
    "\u2581relea": 1163,
    "\u2581generic": 1164,
    "42": 1165,
    "\u25810x99": 1166,
    "color": 1167,
    "\u2581findresource": 1168,
    "off": 1169,
    "908": 1170,
    "62": 1171,
    "lus": 1172,
    "icon": 1173,
    "\u2581initterm": 1174,
    "\u25810xfeee00c": 1175,
    "nw": 1176,
    "\u2581con": 1177,
    "\u25810x8a": 1178,
    "\u2581localfree": 1179,
    "prot": 1180,
    "\u25810x40a5a0": 1181,
    "version": 1182,
    "\u25810x4600": 1183,
    "depage": 1184,
    "\u25810x8f": 1185,
    "offile": 1186,
    "codepage": 1187,
    "\u2581isvalidcodepage": 1188,
    "eexa": 1189,
    "\u25810x44d4b8": 1190,
    "\u2581setenvironmentvariab": 1191,
    "\u25810x3f": 1192,
    "\u2581loadlibraryw": 1193,
    "\u25810x40c": 1194,
    "eexw": 1195,
    "errormode": 1196,
    "\u2581setthread": 1197,
    "\u2581seterrormode": 1198,
    "\u25810x40a59e": 1199,
    "\u25810x40a5a2": 1200,
    "\u25810x40a5a4": 1201,
    "\u25810x40a5a6": 1202,
    "\u25810x40a5a8": 1203,
    "\u25810x40a5aa": 1204,
    "\u25810x434": 1205,
    "older": 1206,
    "\u2581virtualprot": 1207,
    "os": 1208,
    "din": 1209,
    "7d": 1210,
    "\u25810x77002": 1211,
    "folder": 1212,
    "\u25810x1211758": 1213,
    "aps": 1214,
    "\u2581createfilea": 1215,
    "fw": 1216,
    "b3": 1217,
    "\u25810xfeee0009": 1218,
    "\u2581wsprintfw": 1219,
    "text": 1220,
    "\u25810xfeee000b": 1221,
    "00c": 1222,
    "\u25810x10000": 1223,
    "tem": 1224,
    "1f": 1225,
    "\u25810xfeee000a": 1226,
    "\u2581lstrcpyna": 1227,
    "pal": 1228,
    "\u2581dra": 1229,
    "palet": 1230,
    "\u2581virtualprotect": 1231,
    "bd": 1232,
    "b9": 1233,
    "ctl32": 1234,
    "\u2581comctl32": 1235,
    "\u25810xfeee000c": 1236,
    "ock": 1237,
    "\u2581setcurrentdirectorya": 1238,
    "cs": 1239,
    "erf": 1240,
    "edc": 1241,
    "timer": 1242,
    "\u25810x69": 1243,
    "initializ": 1244,
    "erflow": 1245,
    "messagea": 1246,
    "change": 1247,
    "\u2581loadcursora": 1248,
    "menu": 1249,
    "\u2581shell32": 1250,
    "\u2581file": 1251,
    "ad0": 1252,
    "\u25810x4076": 1253,
    "\u25810x2c": 1254,
    "eep": 1255,
    "ping": 1256,
    "\u2581malloc": 1257,
    "\u25810x58": 1258,
    "\u25810x44e4": 1259,
    "\u25810x405": 1260,
    "\u2581registerc": 1261,
    "ee0": 1262,
    "\u2581findclose": 1263,
    "filemap": 1264,
    "\u25810x43f6": 1265,
    "filemapping": 1266,
    "89": 1267,
    "ors": 1268,
    "\u25810xfeee010": 1269,
    "vaila": 1270,
    "vailable": 1271,
    "allock": 1272,
    "lp": 1273,
    "yn": 1274,
    "div": 1275,
    "\u25810xfeee0014": 1276,
    "end": 1277,
    "\u25810x32": 1278,
    "\u2581deletefilea": 1279,
    "\u2581getkey": 1280,
    "\u25810x1211fd8": 1281,
    "\u2581available": 1282,
    "\u25810xfeee000e": 1283,
    "52": 1284,
    "\u25810x8b": 1285,
    "\u25810xfeee0015": 1286,
    "\u25810x12114b8": 1287,
    "\u25810xfeee000d": 1288,
    "oper": 1289,
    "\u25810x1211e4": 1290,
    "\u25810xfeee0010": 1291,
    "i64": 1292,
    "\u25810x1e": 1293,
    "\u25810xfeee0016": 1294,
    "\u2581globallock": 1295,
    "\u2581instruction": 1296,
    "ision": 1297,
    "5f": 1298,
    "vic": 1299,
    "\u2581cr": 1300,
    "\u25810x60": 1301,
    "\u25810x7f00": 1302,
    "\u25810x48400": 1303,
    "\u25810x1211958": 1304,
    "ute": 1305,
    "\u25810xfeee0013": 1306,
    "ay": 1307,
    "\u25810xfeee0012": 1308,
    "\u2581xmm": 1309,
    "\u2581xmmi64": 1310,
    "\u2581instructions": 1311,
    "\u25810x1211ccc": 1312,
    "\u2581regopenkeyexw": 1313,
    "2000": 1314,
    "\u25810xfeee000f": 1315,
    "\u25810xfeee0011": 1316,
    "\u2581getfile": 1317,
    "\u25810xcc": 1318,
    "\u25810x440": 1319,
    "\u2581createfilemapping": 1320,
    "\u25810x1211908": 1321,
    "\u2581th": 1322,
    "\u2581shget": 1323,
    "realloc": 1324,
    "\u25810x12118": 1325,
    "3d": 1326,
    "0000000": 1327,
    "\u25810x40a58": 1328,
    "\u2581flsfree": 1329,
    "\u25810x69000000": 1330,
    "fd": 1331,
    "\u2581exis": 1332,
    "\u2581existing": 1333,
    "79": 1334,
    "trol": 1335,
    "\u2581sleep": 1336,
    "\u25810x4790": 1337,
    "\u25810x7ee01": 1338,
    "\u2581un": 1339,
    "\u2581getde": 1340,
    "\u2581setenvironmentvariablea": 1341,
    "econ": 1342,
    "\u25810x8811": 1343,
    "3a": 1344,
    "\u25810x1211718": 1345,
    "3e": 1346,
    "930": 1347,
    "5d": 1348,
    "\u2581deletecriticalsection": 1349,
    "\u25810x1211fd0": 1350,
    "pare": 1351,
    "\u25810x40958": 1352,
    "\u25810x65500000": 1353,
    "\u25810x214": 1354,
    "\u25810x1211948": 1355,
    "gi": 1356,
    "box": 1357,
    "\u2581releas": 1358,
    "\u2581createthread": 1359,
    "f9": 1360,
    "\u2581getkeyboard": 1361,
    "ockob": 1362,
    "\u25810x3c": 1363,
    "\u2581getstockob": 1364,
    "31": 1365,
    "3b": 1366,
    "\u25810x25": 1367,
    "\u25810x1211a": 1368,
    "\u2581compare": 1369,
    "\u2581createa": 1370,
    "ok": 1371,
    "\u2581variant": 1372,
    "\u2581findresourcea": 1373,
    "\u25810x412": 1374,
    "\u2581wait": 1375,
    "\u2581createfilemappinga": 1376,
    "\u25810x1211780": 1377,
    "\u25810x1211c94": 1378,
    "\u25810x12119c0": 1379,
    "\u25814": 1380,
    "\u25810x61": 1381,
    "\u25810x8001": 1382,
    "fe": 1383,
    "\u2581or": 1384,
    "\u2581ts": 1385,
    "bc0": 1386,
    "priv": 1387,
    "namea": 1388,
    "dinal": 1389,
    "\u2581ordinal": 1390,
    "\u2581inst": 1391,
    "api": 1392,
    "\u2581ole32": 1393,
    "mem": 1394,
    "polic": 1395,
    "isk": 1396,
    "\u25810x1211c0": 1397,
    "25": 1398,
    "lphi": 1399,
    "\u2581delphi": 1400,
    "operation": 1401,
    "initialize": 1402,
    "\u25810x78c": 1403,
    "\u2581tmp": 1404,
    "\u25810x78c00000": 1405,
    "ngu": 1406,
    "\u2581lstrlenw": 1407,
    "410": 1408,
    "\u2581setprocess": 1409,
    "\u25810x29": 1410,
    "77": 1411,
    "oy": 1412,
    "ity": 1413,
    "policy": 1414,
    "\u25810x40a5ac": 1415,
    "be": 1416,
    "\u25810x67": 1417,
    "nguage": 1418,
    "messagew": 1419,
    "\u2581writefile": 1420,
    "d9": 1421,
    "\u2581tsl": 1422,
    "\u25810x5266": 1423,
    "\u25810x1210d": 1424,
    "\u25810x1212000": 1425,
    "stroy": 1426,
    "\u2581getcon": 1427,
    "85": 1428,
    "300": 1429,
    "\u25810x1211f7c": 1430,
    "bf": 1431,
    "deppolicy": 1432,
    "\u2581getdc": 1433,
    "\u2581setprocessdeppolicy": 1434,
    "ho": 1435,
    "ero": 1436,
    "drl66": 1437,
    "\u2581tsldrl66": 1438,
    "ilanguage": 1439,
    "\u25810x1211e30": 1440,
    "46": 1441,
    "\u2581z": 1442,
    "search": 1443,
    "searchmode": 1444,
    "\u2581setsearchmode": 1445,
    "valu": 1446,
    "vie": 1447,
    "pro": 1448,
    "vicec": 1449,
    "\u25810x47c0": 1450,
    "\u25810x44e4b8": 1451,
    "vicecaps": 1452,
    "\u2581getdevicecaps": 1453,
    "a256": 1454,
    "ial": 1455,
    "\u2581sha256": 1456,
    "\u25810xfeee0017": 1457,
    "und": 1458,
    "\u25810x40935d": 1459,
    "\u25810x40935e": 1460,
    "\u25810x40935f": 1461,
    "\u25810x409360": 1462,
    "\u25810x409361": 1463,
    "\u25810x409362": 1464,
    "\u25810x409363": 1465,
    "\u2581mo": 1466,
    "poolw": 1467,
    "vice": 1468,
    "out": 1469,
    "\u25810x121194c": 1470,
    "\u25810xfeee0018": 1471,
    "\u2581getsysteminfo": 1472,
    "all": 1473,
    "\u25810x23": 1474,
    "\u25810x41f7": 1475,
    "\u25810xfeee0019": 1476,
    "\u25810x5a": 1477,
    "\u2581getwindow": 1478,
    "\u2581getkeyboardtype": 1479,
    "\u25810x700c": 1480,
    "\u25810x101": 1481,
    "ory": 1482,
    "\u25810xfeee001a": 1483,
    "l6660d": 1484,
    "5e": 1485,
    "508": 1486,
    "essage": 1487,
    "\u25810x41f0": 1488,
    "\u25810x1211d0": 1489,
    "\u25810x1211f28": 1490,
    "c3": 1491,
    "pooltimer": 1492,
    "\u25810x2d": 1493,
    "\u2581message": 1494,
    "\u2581getclass": 1495,
    "imet": 1496,
    "\u25810x1210ec0": 1497,
    "ypt": 1498,
    "arra": 1499,
    "\u25810x4093e4": 1500,
    "\u25810x4000": 1501,
    "\u2581releasedc": 1502,
    "5b": 1503,
    "\u25810x34": 1504,
    "\u2581control": 1505,
    "yscolor": 1506,
    "drl6660drl6660drl6660drl6660drl6660": 1507,
    "\u2581olea": 1508,
    "\u25810x1211528": 1509,
    "\u2581getsyscolor": 1510,
    "windows": 1511,
    "\u25810xfeee001c": 1512,
    "memory": 1513,
    "\u25810x4730": 1514,
    "metri": 1515,
    "\u2581createfilew": 1516,
    "\u25810x2e": 1517,
    "\u25810x1002": 1518,
    "\u2581stem": 1519,
    "\u2581stem32": 1520,
    "\u2581getuser": 1521,
    "ts": 1522,
    "7a": 1523,
    "\u25810x3a": 1524,
    "748": 1525,
    "\u25810x4606": 1526,
    "eent": 1527,
    "dexchange": 1528,
    "\u2581interlockedexchange": 1529,
    "ug": 1530,
    "buff": 1531,
    "\u25810x1211f20": 1532,
    "\u25810xfeee001b": 1533,
    "53": 1534,
    "\u25810x1d": 1535,
    "\u25810x478": 1536,
    "array": 1537,
    "\u2581enum": 1538,
    "\u25810x44c2": 1539,
    "ull": 1540,
    "\u25810x4012": 1541,
    "\u25810x45f2": 1542,
    "\u2581messagebox": 1543,
    "\u2581getfileattributesw": 1544,
    "\u25810x37": 1545,
    "\u25810x4093a5": 1546,
    "\u25810x4093a6": 1547,
    "\u25810x4093a7": 1548,
    "\u25810x4093a8": 1549,
    "\u25810x4093a9": 1550,
    "\u25810x4093aa": 1551,
    "\u25810x4093ab": 1552,
    "ma": 1553,
    "\u2581mon": 1554,
    "view": 1555,
    "lip": 1556,
    "\u25810x2b": 1557,
    "\u25810x24": 1558,
    "\u25810x45f4": 1559,
    "\u25810x45f5": 1560,
    "\u25810x7ec": 1561,
    "\u25810x41f040": 1562,
    "\u25810x704c": 1563,
    "\u25810x708c": 1564,
    "comp": 1565,
    "\u25810x45f1": 1566,
    "\u2581nov": 1567,
    "\u25810x45f6": 1568,
    "\u25810xfeee001d": 1569,
    "2e": 1570,
    "cy": 1571,
    "move": 1572,
    "\u2581sep": 1573,
    "\u2581crypt": 1574,
    "\u25810x45f3": 1575,
    "\u25810x45f7": 1576,
    "\u25810x45f8": 1577,
    "\u25810x1211728": 1578,
    "bstr": 1579,
    "\u25810x45f9": 1580,
    "\u25810x45fa": 1581,
    "bstrfrom": 1582,
    "\u25810x40a66": 1583,
    "\u25810x410ac": 1584,
    "\u25810x4093ec": 1585,
    "\u2581varbstrfrom": 1586,
    "\u2581waitf": 1587,
    "\u2581tr": 1588,
    "date": 1589,
    "\u25810x45fe": 1590,
    "\u25810x4601": 1591,
    "\u25810x42a190": 1592,
    "\u25810x35": 1593,
    "\u25810x31": 1594,
    "\u25810xfeee001f": 1595,
    "\u2581getconsole": 1596,
    "3f": 1597,
    "\u25810x45ff": 1598,
    "308": 1599,
    "vol": 1600,
    "\u25810x45fd": 1601,
    "metrics": 1602,
    "aaaaaaaa": 1603,
    "\u25810x4012db": 1604,
    "\u25810x1211e44": 1605,
    "\u2581getsystemmetrics": 1606,
    "\u25810x36": 1607,
    "188": 1608,
    "\u2581oc": 1609,
    "leob": 1610,
    "1d": 1611,
    "full": 1612,
    "ember": 1613,
    "ition": 1614,
    "\u2581apr": 1615,
    "\u2581aug": 1616,
    "\u25810xfeee001e": 1617,
    "\u25810x7ff": 1618,
    "\u25810xfeee0020": 1619,
    "bit": 1620,
    "\u25810x3f2": 1621,
    "\u2581sun": 1622,
    "\u25810x420": 1623,
    "\u2581regquery": 1624,
    "\u2581shfolder": 1625,
    "\u25810x2f": 1626,
    "f08": 1627,
    "call": 1628,
    "\u25810x95": 1629,
    "\u25810x42a0": 1630,
    "help": 1631,
    "\u25810x98": 1632,
    "dition": 1633,
    "\u25810x8e": 1634,
    "fb": 1635,
    "lush": 1636,
    "lipboard": 1637,
    "73": 1638,
    "og": 1639,
    "b2b": 1640,
    "\u25810x44c": 1641,
    "\u2581of": 1642,
    "ub": 1643,
    "ries": 1644,
    "uary": 1645,
    "\u2581dec": 1646,
    "\u25810xd0": 1647,
    "\u25810x4428": 1648,
    "\u25810x7d10": 1649,
    "940": 1650,
    "\u2581may": 1651,
    "\u25810x1211efc": 1652,
    "sday": 1653,
    "\u2581tue": 1654,
    "\u2581wed": 1655,
    "\u25810x83": 1656,
    "\u2581loadresource": 1657,
    "\u2581sat": 1658,
    "\u2581gdip": 1659,
    "\u25810x40938": 1660,
    "2a": 1661,
    "a04": 1662,
    "\u2581ofresource": 1663,
    "\u25810x1211f2c": 1664,
    "il": 1665,
    "\u25818": 1666,
    "teent": 1667,
    "teentries": 1668,
    "\u25810x100000": 1669,
    "\u25810x1211c04": 1670,
    "\u2581heaprealloc": 1671,
    "paletteentries": 1672,
    "\u25810x3b": 1673,
    "\u25810x10005c": 1674,
    "\u25810xfeee0021": 1675,
    "rect": 1676,
    "stry": 1677,
    "\u25810x4960": 1678,
    "\u2581virtualquery": 1679,
    "\u2581sldrl6660drl6660drl6660drl6660drl6660drl6660drl6660drl6660": 1680,
    "sup": 1681,
    "profile": 1682,
    "\u2581registerclass": 1683,
    "648": 1684,
    "variant": 1685,
    "lew": 1686,
    "ume": 1687,
    "\u2581creates": 1688,
    "yarg1": 1689,
    "\u25810x3d": 1690,
    "\u25810x406": 1691,
    "formata": 1692,
    "\u25810x39": 1693,
    "volume": 1694,
    "ust": 1695,
    "\u25810x12117a4": 1696,
    "b88": 1697,
    "\u25810x3e": 1698,
    "\u25810x121157c": 1699,
    "\u25810xfeee0022": 1700,
    "ilege": 1701,
    "yarg2": 1702,
    "scr": 1703,
    "\u25810x41c": 1704,
    "\u25810x40b7": 1705,
    "\u25810x7700": 1706,
    "6a": 1707,
    "\u25810x33": 1708,
    "\u2581mi": 1709,
    "spac": 1710,
    "pos": 1711,
    "cros": 1712,
    "delet": 1713,
    "26c": 1714,
    "ac0": 1715,
    "de0": 1716,
    "\u25810x1211cc0": 1717,
    "\u25810x1211f88": 1718,
    "41": 1719,
    "afe": 1720,
    "\u2581lock": 1721,
    "\u25810x79f0": 1722,
    "\u25810x7d00": 1723,
    "780": 1724,
    "iskfree": 1725,
    "\u25810x1211e08": 1726,
    "iskfreespac": 1727,
    "\u2581getdiskfreespac": 1728,
    "67": 1729,
    "\u2581u": 1730,
    "\u25810x94": 1731,
    "crosoft": 1732,
    "5a": 1733,
    "\u2581st": 1734,
    "ynch": 1735,
    "suped": 1736,
    "\u25810xa0": 1737,
    "\u2581synch": 1738,
    "\u25810x41ce": 1739,
    "\u25810x4607": 1740,
    "\u25810xffff": 1741,
    "\u25810xff8": 1742,
    "660": 1743,
    "\u2581loadicon": 1744,
    "\u2581nt": 1745,
    "\u25810x1210f64": 1746,
    "2f": 1747,
    "f80": 1748,
    "\u25810x57": 1749,
    "\u25810x40a59c": 1750,
    "poolwait": 1751,
    "\u2581lstrcpya": 1752,
    "bers": 1753,
    "9000": 1754,
    "\u25810x91": 1755,
    "\u25810x4620": 1756,
    "valueexa": 1757,
    "\u2581microsoft": 1758,
    "\u25810x68": 1759,
    "\u25810x40ab": 1760,
    "\u25810x4bd0": 1761,
    "\u25810xfeee0024": 1762,
    "6d": 1763,
    "\u25810x5b2b": 1764,
    "\u2581remove": 1765,
    "\u2581no": 1766,
    "\u25810x46b0": 1767,
    "\u2581gettime": 1768,
    "state": 1769,
    "\u2581filet": 1770,
    "\u2581filetimet": 1771,
    "aa8": 1772,
    "\u25810x7f": 1773,
    "\u2581type": 1774,
    "\u2581process": 1775,
    "\u2581registry": 1776,
    "\u2581draw": 1777,
    "\u25810x42a403": 1778,
    "\u25810x42a404": 1779,
    "\u25810x42a405": 1780,
    "\u25810x42a406": 1781,
    "\u25810x42a407": 1782,
    "\u25810x42a408": 1783,
    "\u25810x42a409": 1784,
    "\u25810x42a40a": 1785,
    "\u25810x42a40b": 1786,
    "\u25810x42a40c": 1787,
    "\u25810x42a40d": 1788,
    "\u25810x42a40e": 1789,
    "\u25810x42a40f": 1790,
    "\u25810x1211e58": 1791,
    "\u25810xfeee0025": 1792,
    "\u25810x43a4": 1793,
    "\u25810x8f70": 1794,
    "\u25810xfeee0023": 1795,
    "xit": 1796,
    "\u25810x4356": 1797,
    "\u25810x40a5b0": 1798,
    "\u2581setwindow": 1799,
    "\u2581tsldrl666": 1800,
    "\u2581getclassinfoa": 1801,
    "\u2581findfirstfilew": 1802,
    "51": 1803,
    "\u25810x75500000": 1804,
    "6b": 1805,
    "\u25810x40a5ae": 1806,
    "\u25810x40a5b2": 1807,
    "\u25810x40a5b4": 1808,
    "\u25810x40a5b6": 1809,
    "\u25810x40a5b8": 1810,
    "\u25810x40a5ba": 1811,
    "tl": 1812,
    "ost": 1813,
    "ervice": 1814,
    "\u2581oleinitialize": 1815,
    "\u2581findfirstfilea": 1816,
    "59": 1817,
    "fo": 1818,
    "myarg2": 1819,
    "\u2581destroy": 1820,
    "\u2581fibers": 1821,
    "d24": 1822,
    "base": 1823,
    "\u25810x65": 1824,
    "\u2581setdll": 1825,
    "lw": 1826,
    "\u2581setup": 1827,
    "aa40": 1828,
    "\u25810x407b": 1829,
    "\u25810x47a0": 1830,
    "\u25810x7090": 1831,
    "\u25810x1211748": 1832,
    "\u2581getsystempaletteentries": 1833,
    "zero": 1834,
    "chost": 1835,
    "\u25810x1211f74": 1836,
    "\u25810xfeee0026": 1837,
    "ditionvariab": 1838,
    "\u2581getenvironmentvariab": 1839,
    "21": 1840,
    "ame": 1841,
    "ersion": 1842,
    "\u25810x4c4": 1843,
    "\u25810x8cc0": 1844,
    "\u2581version": 1845,
    "\u25810x44c250": 1846,
    "\u2581i": 1847,
    "utex": 1848,
    "32next": 1849,
    "\u25810x1211d04": 1850,
    "\u2581fmode": 1851,
    "\u25810xfeee0027": 1852,
    "568": 1853,
    "tro": 1854,
    "ush": 1855,
    "\u25810x84": 1856,
    "byzero": 1857,
    "vchost": 1858,
    "\u25810x450": 1859,
    "overflow": 1860,
    "\u25810x1211e40": 1861,
    "\u25810x1211f24": 1862,
    "isionbyzero": 1863,
    "yarg1myarg2": 1864,
    "eck": 1865,
    "\u2581floatingpoin": 1866,
    "\u2581error": 1867,
    "\u2581svchost": 1868,
    "\u258117": 1869,
    "\u25810x4300": 1870,
    "\u25810x45fb": 1871,
    "808": 1872,
    "\u25810xfee": 1873,
    "\u25810x45fc": 1874,
    "2d": 1875,
    "\u25817": 1876,
    "\u25810x424": 1877,
    "\u25810x4e50": 1878,
    "afearray": 1879,
    "\u2581mul": 1880,
    "\u25810x1808": 1881,
    "\u2581muldiv": 1882,
    "viewoffile": 1883,
    "heck": 1884,
    "\u25810x66": 1885,
    "private": 1886,
    "\u25810x42a00": 1887,
    "rw": 1888,
    "driv": 1889,
    "brush": 1890,
    "trols": 1891,
    "\u2581getvolume": 1892,
    "privateprofile": 1893,
    "\u2581getvolumeinformation": 1894,
    "\u25810x4800": 1895,
    "\u25810x7cd0": 1896,
    "\u25810x1211f78": 1897,
    "29": 1898,
    "termin": 1899,
    "env": 1900,
    "emap": 1901,
    "\u2581rtl": 1902,
    "\u25810x1211a04": 1903,
    "\u25810x53000000": 1904,
    "spec": 1905,
    "\u25810x44d2": 1906,
    "\u25810x4605": 1907,
    "\u25810xfeee0028": 1908,
    "ass": 1909,
    "\u2581termin": 1910,
    "f04": 1911,
    "\u25810x89": 1912,
    "\u2581map": 1913,
    "lwapi": 1914,
    "\u25810x46a0": 1915,
    "\u2581shlwapi": 1916,
    "\u25810x414": 1917,
    "\u2581loadicona": 1918,
    "\u2581ext": 1919,
    "\u2581findnext": 1920,
    "\u2581flush": 1921,
    "reat": 1922,
    "\u25810x4604": 1923,
    "orsing": 1924,
    "\u25810x7aa40": 1925,
    "orsingleob": 1926,
    "\u25810x1211f50": 1927,
    "\u25810x67000000": 1928,
    "\u2581messageboxa": 1929,
    "main": 1930,
    "\u25810x80c0": 1931,
    "ument": 1932,
    "\u25810x4ab0": 1933,
    "\u25810x1211ee0": 1934,
    "ialog": 1935,
    "\u25810x8d": 1936,
    "\u25810x1211928": 1937,
    "\u2581getversionexw": 1938,
    "61": 1939,
    "\u25810x5b": 1940,
    "\u2581form": 1941,
    "\u25810x1211308": 1942,
    "\u2581po": 1943,
    "\u25810x432": 1944,
    "\u25810x1211578": 1945,
    "dege": 1946,
    "\u2581clo": 1947,
    "\u2581setdlldirectoryw": 1948,
    "\u2581exp": 1949,
    "degear": 1950,
    "rl6660d": 1951,
    "\u2581codegear": 1952,
    "\u2581waitforsingleob": 1953,
    "arc": 1954,
    "\u25810x198": 1955,
    "\u25810x408": 1956,
    "\u25810x1211db8": 1957,
    "\u25810xfeee002a": 1958,
    "\u25810x7ad0": 1959,
    "\u25810x97": 1960,
    "\u25810x7930": 1961,
    "1000": 1962,
    "palette": 1963,
    "\u25810x1211bc0": 1964,
    "27": 1965,
    "data": 1966,
    "\u25810x85": 1967,
    "\u2581creat": 1968,
    "closekey": 1969,
    "\u2581regclosekey": 1970,
    "\u25810x4608": 1971,
    "\u25810x12119ac": 1972,
    "\u25810xfeee002c": 1973,
    "\u25810xfeee002d": 1974,
    "ca": 1975,
    "ut32": 1976,
    "\u25810x181": 1977,
    "controls": 1978,
    "\u2581oleaut32": 1979,
    "\u25810x1211508": 1980,
    "\u25810xfeee0029": 1981,
    "57": 1982,
    "heme": 1983,
    "\u25810x41f": 1984,
    "\u25810x428": 1985,
    "\u25810x442": 1986,
    "\u25810x480": 1987,
    "23": 1988,
    "bool": 1989,
    "\u2581varr": 1990,
    "4fromstr": 1991,
    "\u25810x40935c": 1992,
    "\u2581noaccess": 1993,
    "\u25810xfeee014": 1994,
    "\u25810xfeee002f": 1995,
    "\u25810x584": 1996,
    "\u25810x120f": 1997,
    "\u25810xfeee002b": 1998,
    "\u25810xfeee002e": 1999,
    "\u25810x64": 2000,
    "\u25810x77000": 2001,
    "fp": 2002,
    "723": 2003,
    "93c": 2004,
    "ken": 2005,
    "\u25810x46b": 2006,
    "63": 2007,
    "7f": 2008,
    "\u25810xa7": 2009,
    "len": 2010,
    "namew": 2011,
    "\u25810x10b": 2012,
    "\u25810x4196": 2013,
    "\u2581pi": 2014,
    "\u25810xfeee0032": 2015,
    "\u25810xfeee0033": 2016,
    "oll": 2017,
    "\u25810xfeee0031": 2018,
    "informationby": 2019,
    "65": 2020,
    "\u25810x40b4": 2021,
    "\u2581closet": 2022,
    "\u25810x46b188": 2023,
    "\u25810x1211e14": 2024,
    "\u2581closethread": 2025,
    "erre": 2026,
    "\u2581uxt": 2027,
    "\u2581uxtheme": 2028,
    "\u2581currentversion": 2029,
    "ask": 2030,
    "ecute": 2031,
    "\u25810x4602": 2032,
    "\u25810xfeee0030": 2033,
    "\u2581exem": 2034,
    "common": 2035,
    "\u25810x508": 2036,
    "\u2581getmain": 2037,
    "\u25810x1211f84": 2038,
    "\u2581exemyarg1myarg2": 2039,
    "ename": 2040,
    "\u2581initcommon": 2041,
    "\u2581getfileattributesa": 2042,
    "\u2581initcommoncontrols": 2043,
    "c1": 2044,
    "\u25810x4095": 2045,
    "\u25810x4e30": 2046,
    "\u25810x7850": 2047,
    "\u25810xfeee0034": 2048,
    "\u25810x584d24": 2049,
    "\u25810x1211790": 2050,
    "cor": 2051,
    "srw": 2052,
    "\u25810x19a": 2053,
    "\u25810x1211fd4": 2054,
    "\u25810xfeee0035": 2055,
    "\u25810xfeee0036": 2056,
    "\u25810xfeee0037": 2057,
    "\u25810x63": 2058,
    "\u25810x4615": 2059,
    "localtime": 2060,
    "\u25810xfeee0045": 2061,
    "ara": 2062,
    "\u25810x644": 2063,
    "\u25810x4bb0": 2064,
    "\u25810xfeee0046": 2065,
    "\u25810xfeee0038": 2066,
    "\u2581initializes": 2067,
    "668": 2068,
    "\u2581ra": 2069,
    "\u25810xfeee003d": 2070,
    "\u25810xfeee0047": 2071,
    "iseex": 2072,
    "\u25810x169b": 2073,
    "\u2581raiseex": 2074,
    "\u25810x1211fcc": 2075,
    "\u25810xfeee003e": 2076,
    "\u2581raiseexception": 2077,
    "cb": 2078,
    "a00": 2079,
    "\u2581me": 2080,
    "\u25810x55": 2081,
    "\u25810x4d70": 2082,
    "\u25810x121178c": 2083,
    "\u25810xfeee003b": 2084,
    "\u25810xfeee0040": 2085,
    "700": 2086,
    "buffers": 2087,
    "\u25810x4418": 2088,
    "\u25810xfeee004d": 2089,
    "\u2581createprocess": 2090,
    "ad4": 2091,
    "\u2581dw": 2092,
    "\u25810x1211e50": 2093,
    "\u25810xfeee003a": 2094,
    "2b": 2095,
    "able": 2096,
    "exit": 2097,
    "pref": 2098,
    "toma": 2099,
    "\u25810x99a0": 2100,
    "\u2581shgetfile": 2101,
    "\u25810xfeee0039": 2102,
    "\u25810xfeee0041": 2103,
    "\u2581lockresource": 2104,
    "\u2581registerclipboard": 2105,
    "ag": 2106,
    "\u25810xc00": 2107,
    "\u25810xfeee003f": 2108,
    "\u25810xfeee0043": 2109,
    "\u25810xfeee0044": 2110,
    "\u25810xfeee0048": 2111,
    "\u2581drag": 2112,
    "\u25810x40e5": 2113,
    "\u25810x7340": 2114,
    "orsafearray": 2115,
    "\u25810xfeee004a": 2116,
    "\u2581move": 2117,
    "\u25810x1211784": 2118,
    "\u2581controlfp": 2119,
    "\u25810x990": 2120,
    "\u25810xfeee003c": 2121,
    "\u25810xfeee0042": 2122,
    "\u25810xfeee0049": 2123,
    "108": 2124,
    "item": 2125,
    "\u25810x40b8": 2126,
    "\u25810x30000": 2127,
    "\u25810xfeee004c": 2128,
    "ditionvariable": 2129,
    "\u25810x7c000": 2130,
    "\u25810xfeee004b": 2131,
    "\u2581createdirectorya": 2132,
    "6e": 2133,
    "\u2581err": 2134,
    "\u25810x42c0": 2135,
    "\u2581registerwindow": 2136,
    "\u25810x1211ddc": 2137,
    "\u25810x1211f00": 2138,
    "\u25810xfeee0055": 2139,
    "284": 2140,
    "\u25810x96": 2141,
    "ast": 2142,
    "ass2": 2143,
    "head": 2144,
    "mapi": 2145,
    "\u2581meip": 2146,
    "\u2581meipass2": 2147,
    "\u25810xfeee0050": 2148,
    "\u2581getwindows": 2149,
    "\u2581setfileattribute": 2150,
    "ong": 2151,
    "lect": 2152,
    "\u25810xb3": 2153,
    "\u25810x4364": 2154,
    "\u25810x7bd0": 2155,
    "\u25810x7de4": 2156,
    "\u25810x7de5": 2157,
    "\u2581userenv": 2158,
    "\u25810x1211f5c": 2159,
    "\u25810xfeee004e": 2160,
    "\u2581charpre": 2161,
    "\u2581commode": 2162,
    "pa": 2163,
    "\u25810x9c": 2164,
    "delete": 2165,
    "\u25810x7ec0": 2166,
    "\u2581getfull": 2167,
    "\u25810x1211f64": 2168,
    "\u25810xfeee004f": 2169,
    "\u25810xfeee0054": 2170,
    "8d": 2171,
    "\u25810x7c90": 2172,
    "\u2581dwmapi": 2173,
    "\u25810xfeee0051": 2174,
    "\u25810xfeee0052": 2175,
    "\u2581ac": 2176,
    "\u2581ns": 2177,
    "\u2581sys": 2178,
    "\u2581prec": 2179,
    "\u2581point": 2180,
    "\u2581errata": 2181,
    "\u2581precision": 2182,
    "\u25810xfeee0053": 2183,
    "a4c4": 2184,
    "\u25810xa8": 2185,
    "\u2581nsis": 2186,
    "\u2581corexit": 2187,
    "\u25810x409364": 2188,
    "\u2581cryptbase": 2189,
    "\u2581nsiserror": 2190,
    "\u25810xfeee0057": 2191,
    "\u25810xfeee005e": 2192,
    "\u2581corexitprocess": 2193,
    "gn": 2194,
    "320": 2195,
    "b08": 2196,
    "ethread": 2197,
    "\u25810xfeee0056": 2198,
    "ink": 2199,
    "clus": 2200,
    "\u2581cop": 2201,
    "erredu": 2202,
    "preferredu": 2203,
    "\u25810x1211cb8": 2204,
    "preferreduilanguage": 2205,
    "enum": 2206,
    "\u25810xaa": 2207,
    "\u25810x4e39": 2208,
    "\u25810xfeee005c": 2209,
    "\u2581createwindow": 2210,
    "c6": 2211,
    "ff0": 2212,
    "3880": 2213,
    "long": 2214,
    "valuea": 2215,
    "\u2581format": 2216,
    "\u25810x1211ef8": 2217,
    "token": 2218,
    "\u25810xfeee005a": 2219,
    "\u25810xfeee005f": 2220,
    "\u25810x92": 2221,
    "\u25810xa000": 2222,
    "\u25810xfeee0058": 2223,
    "\u25810xfeee005b": 2224,
    "\u25810xfeee0064": 2225,
    "\u2581createsemap": 2226,
    "hor": 2227,
    "para": 2228,
    "menuitem": 2229,
    "\u25810x54a4c4": 2230,
    "\u25810x1211ea0": 2231,
    "\u25810x77000723": 2232,
    "\u25810x80000000": 2233,
    "\u25810xfeee0059": 2234,
    "back": 2235,
    "\u25810x53e0": 2236,
    "\u25810xfeee0063": 2237,
    "preferreduilanguages": 2238,
    "fac": 2239,
    "exitco": 2240,
    "\u25810x4710": 2241,
    "\u2581getexitco": 2242,
    "100": 2243,
    "\u25810x1211e1c": 2244,
    "\u2581registerclassa": 2245,
    "e04": 2246,
    "ork": 2247,
    "echeck": 2248,
    "\u25810x40c4": 2249,
    "callback": 2250,
    "l6660drl6660drl6660drl6660drl6660drl6660drl6660drl6660drl6660": 2251,
    "di": 2252,
    "ire": 2253,
    "\u2581getlocaltime": 2254,
    "81": 2255,
    "ive": 2256,
    "\u2581copy": 2257,
    "\u25810xfeee005d": 2258,
    "\u25810xfeee0060": 2259,
    "\u25810x7300": 2260,
    "\u25810x40a3d1": 2261,
    "\u25810x40a3d2": 2262,
    "\u25810x40a3d3": 2263,
    "\u25810x40a3d4": 2264,
    "\u25810x40a3d5": 2265,
    "\u25810x40a3d6": 2266,
    "\u25810x40a3d7": 2267,
    "\u25810x435403": 2268,
    "\u25810x435404": 2269,
    "\u25810x435405": 2270,
    "\u25810x435406": 2271,
    "\u25810x44d250": 2272,
    "\u25810xfeee0062": 2273,
    "dl": 2274,
    "bitmap": 2275,
    "\u2581getdate": 2276,
    "\u25810xfeee0061": 2277,
    "\u25810xfeee0065": 2278,
    "\u2581findwindow": 2279,
    "ool": 2280,
    "\u2581fe": 2281,
    "doffile": 2282,
    "\u25810xffe1": 2283,
    "\u25810x435407": 2284,
    "\u2581setendoffile": 2285,
    "ro": 2286,
    "ert": 2287,
    "\u2581mar": 2288,
    "\u25810x8260": 2289,
    "\u25810x42a402": 2290,
    "\u25810x42a410": 2291,
    "\u25810xfeee0068": 2292,
    "iled": 2293,
    "wind": 2294,
    "\u25810x475": 2295,
    "\u25810x42eb": 2296,
    "\u25810x8a40": 2297,
    "\u25810x1211dbc": 2298,
    "\u2581unhandledexceptionfilter": 2299,
    "708": 2300,
    "\u25810xe0": 2301,
    "\u25810x7270": 2302,
    "\u25810x43440": 2303,
    "\u25810x435408": 2304,
    "\u25810x435409": 2305,
    "\u25810x43540a": 2306,
    "\u25810x43540b": 2307,
    "\u25810x43540c": 2308,
    "\u25813": 2309,
    "7c8": 2310,
    "ecte": 2311,
    "hook": 2312,
    "files": 2313,
    "\u25810x81": 2314,
    "\u25810xac": 2315,
    "exclus": 2316,
    "srwlock": 2317,
    "exclusive": 2318,
    "\u25810x1211d2c": 2319,
    "\u25810xfeee0069": 2320,
    "srwlockexclusive": 2321,
    "\u25810x140": 2322,
    "\u25810x42c": 2323,
    "\u25810x41f6": 2324,
    "\u25810xfeee0066": 2325,
    "\u2581rtlun": 2326,
    "\u25810x43540d": 2327,
    "\u2581y": 2328,
    "\u25810x26": 2329,
    "\u25810x40a6": 2330,
    "\u25810x7d50": 2331,
    "\u25810x1211e28": 2332,
    "\u25810x1211e2c": 2333,
    "\u2581regdelete": 2334,
    "\u2581rtlunwind": 2335,
    "\u25810xfeee0067": 2336,
    "\u2581getuserdefault": 2337,
    "\u2581registerclipboardformata": 2338,
    "ang": 2339,
    "que": 2340,
    "\u25810x188": 2341,
    "\u25810x78a0": 2342,
    "\u25810xffe4": 2343,
    "\u25810x6d": 2344,
    "\u25810x8814": 2345,
    "\u25810xffe0": 2346,
    "\u25810x43540e": 2347,
    "\u25810x43540f": 2348,
    "quire": 2349,
    "\u25810x7900": 2350,
    "663": 2351,
    "lorer": 2352,
    "\u25810x8815": 2353,
    "\u25810x4093a4": 2354,
    "\u25810x4093ac": 2355,
    "c5": 2356,
    "\u258132": 2357,
    "mutex": 2358,
    "\u25810x93": 2359,
    "\u25810xb000": 2360,
    "\u25810x1211cd0": 2361,
    "\u25810xfeee0077": 2362,
    "\u25816": 2363,
    "coree": 2364,
    "\u25810x43f": 2365,
    "\u25810x42ff": 2366,
    "\u2581mscoree": 2367,
    "\u25810x1211f04": 2368,
    "4f": 2369,
    "listhead": 2370,
    "\u25810xfeee006b": 2371,
    "\u25810xfeee0079": 2372,
    "\u2581initializeslisthead": 2373,
    "tin": 2374,
    "\u25810x56": 2375,
    "\u25810x4010": 2376,
    "d40": 2377,
    "oem": 2378,
    "\u2581septem": 2379,
    "ofiletime": 2380,
    "\u2581filetimeto": 2381,
    "setinformation": 2382,
    "\u2581oct": 2383,
    "\u25810xfeee006a": 2384,
    "eek": 2385,
    "\u2581regset": 2386,
    "createkey": 2387,
    "\u2581terminate": 2388,
    "\u25810xfeee0070": 2389,
    "\u2581regcreatekey": 2390,
    "df0": 2391,
    "e48": 2392,
    "\u25810xffe5": 2393,
    "\u2581regenum": 2394,
    "\u25810x410acd": 2395,
    "\u25810x410ace": 2396,
    "\u2581getprivateprofile": 2397,
    "ec8": 2398,
    "texta": 2399,
    "\u2581send": 2400,
    "\u25810x88c0": 2401,
    "processlist": 2402,
    "\u25810xfeee0078": 2403,
    "\u2581getconsoleprocesslist": 2404,
    "5c8": 2405,
    "system": 2406,
    "\u25810x419": 2407,
    "\u25810xffe2": 2408,
    "\u2581terminateprocess": 2409,
    "80c": 2410,
    "tive": 2411,
    "00210": 2412,
    "format": 2413,
    "\u25810xfeee006e": 2414,
    "\u2581getenvironmentvariablew": 2415,
    "\u2581feb": 2416,
    "\u25810x5c": 2417,
    "\u25810x9b": 2418,
    "\u25810xffb5": 2419,
    "\u25810xffb8": 2420,
    "\u25810xffb9": 2421,
    "\u25810xffbb": 2422,
    "\u25810xffbc": 2423,
    "\u25810xfffe": 2424,
    "\u2581lstrcmpw": 2425,
    "\u25810xfeee006c": 2426,
    "\u25810x43f0": 2427,
    "\u25810xffb6": 2428,
    "\u25810xffb7": 2429,
    "\u25810xffba": 2430,
    "\u25810xffbd": 2431,
    "\u25810xffbe": 2432,
    "\u25810xa4": 2433,
    "\u25810x160": 2434,
    "\u25810x412c": 2435,
    "\u25810xfffc": 2436,
    "\u25810x40b44": 2437,
    "\u2581explorer": 2438,
    "\u25810xfeee006f": 2439,
    "\u2581regqueryvalueexa": 2440,
    "4e": 2441,
    "bk": 2442,
    "bl": 2443,
    "fx": 2444,
    "548": 2445,
    "pla": 2446,
    "tober": 2447,
    "\u2581febr": 2448,
    "\u25810x47f": 2449,
    "\u2581april": 2450,
    "\u25810xfffd": 2451,
    "\u2581august": 2452,
    "\u25810x429000": 2453,
    "\u2581november": 2454,
    "\u2581september": 2455,
    "\u25810xfeee006d": 2456,
    "atch": 2457,
    "\u25810xfffb": 2458,
    "\u25810xfeee0076": 2459,
    "\u25810xfeee007a": 2460,
    "\u25810xfeee007b": 2461,
    "\u2581heapsetinformation": 2462,
    "mask": 2463,
    "\u25810x1009": 2464,
    "\u25810x4400": 2465,
    "\u25810x40593": 2466,
    "privilege": 2467,
    "ffa0": 2468,
    "\u25810x4614": 2469,
    "\u25810xfeee0074": 2470,
    "\u25810x42ff40": 2471,
    "\u2581gettempw": 2472,
    "\u25810xfeee0071": 2473,
    "\u2581gettempfilename": 2474,
    "eni": 2475,
    "bound": 2476,
    "32first": 2477,
    "\u25810x4df0": 2478,
    "\u25810xffb4": 2479,
    "\u2581setfilepointerex": 2480,
    "47": 2481,
    "cf": 2482,
    "6e0": 2483,
    "blt": 2484,
    "une": 2485,
    "stat": 2486,
    "\u25810xb0": 2487,
    "unlock": 2488,
    "\u2581ntdll": 2489,
    "\u25810x4368": 2490,
    "\u25810x4603": 2491,
    "\u25810x121193c": 2492,
    "\u25810x10000000": 2493,
    "\u25810xfeee0073": 2494,
    "\u2581globalfree": 2495,
    "\u2581getvolumeinformationw": 2496,
    "mbb": 2497,
    "varian": 2498,
    "\u2581ismbb": 2499,
    "\u25810xffb3": 2500,
    "\u25810xffbf": 2501,
    "\u25810xffe6": 2502,
    "\u2581ismbblead": 2503,
    "\u25810xfeee0072": 2504,
    "360": 2505,
    "\u25810xb8": 2506,
    "\u25810x1005": 2507,
    "\u25810x7a80": 2508,
    "\u25810x40a40": 2509,
    "\u25810xfeee0075": 2510,
    "status": 2511,
    "handler": 2512,
    "\u2581module": 2513,
    "de8": 2514,
    "uly": 2515,
    "anuary": 2516,
    "\u2581march": 2517,
    "\u25810x4700": 2518,
    "\u25810xffb1": 2519,
    "\u25810xfff9": 2520,
    "\u2581october": 2521,
    "\u2581december": 2522,
    "\u2581february": 2523,
    "sn": 2524,
    "ans": 2525,
    "ati": 2526,
    "emb": 2527,
    "\u2581thu": 2528,
    "urity": 2529,
    "\u25810x9a": 2530,
    "nesday": 2531,
    "\u25810xffb0": 2532,
    "\u25810xffb2": 2533,
    "\u2581monday": 2534,
    "\u2581sunday": 2535,
    "lication": 2536,
    "\u2581tuesday": 2537,
    "\u25810x437808": 2538,
    "\u2581wednesday": 2539,
    "\u25810xfeee007c": 2540,
    "nal": 2541,
    "\u2581cl": 2542,
    "areex": 2543,
    "etype": 2544,
    "\u25810x6b": 2545,
    "ursday": 2546,
    "\u25810xffcf": 2547,
    "compareex": 2548,
    "\u2581thursday": 2549,
    "compareexchange": 2550,
    "\u2581interlockedcompareexchange": 2551,
    "e00": 2552,
    "pack": 2553,
    "zone": 2554,
    "\u2581fri": 2555,
    "lation": 2556,
    "\u25810x7540": 2557,
    "\u25810x437806": 2558,
    "\u25810x43780a": 2559,
    "\u25810x43780c": 2560,
    "\u25810x43780e": 2561,
    "\u25810x437810": 2562,
    "\u25810x437812": 2563,
    "\u25810x437814": 2564,
    "\u25810x437816": 2565,
    "\u25810x437818": 2566,
    "\u25810x43781a": 2567,
    "\u25810x43781c": 2568,
    "\u25810x43781e": 2569,
    "\u2581shgetfileinfoa": 2570,
    "hot": 2571,
    "iday": 2572,
    "urday": 2573,
    "\u25810x4222": 2574,
    "\u25810x4630": 2575,
    "\u25810xfffa": 2576,
    "\u2581friday": 2577,
    "\u25810x5026c": 2578,
    "\u2581saturday": 2579,
    "\u2581gettimezone": 2580,
    "\u2581gettimezoneinformation": 2581,
    "920": 2582,
    "\u2581div": 2583,
    "\u2581show": 2584,
    "\u25810x71b0": 2585,
    "\u25810x47a00": 2586,
    "\u25810x1211dc8": 2587,
    "\u25810xa1": 2588,
    "\u25810x4195": 2589,
    "\u25810x4235": 2590,
    "\u25810xffcd": 2591,
    "\u2581memset": 2592,
    "\u2581charpreva": 2593,
    "\u2581lstrcpynw": 2594,
    "712": 2595,
    "804": 2596,
    "meta": 2597,
    "\u2581ws2": 2598,
    "index": 2599,
    "\u2581outof": 2600,
    "\u25810x46b1": 2601,
    "\u25810x1211dfc": 2602,
    "\u25810xfeee018": 2603,
    "\u2581outofmemory": 2604,
    "928": 2605,
    "add": 2606,
    "\u25810xa2": 2607,
    "\u25810xa3": 2608,
    "\u25810x7150": 2609,
    "\u25810xffc6": 2610,
    "\u25810x1211f80": 2611,
    "69": 2612,
    "004": 2613,
    "special": 2614,
    "\u25810x3000": 2615,
    "\u25810xffce": 2616,
    "specialfolder": 2617,
    "\u2581shgetspecialfolder": 2618,
    "\u2581initcommoncontrolsex": 2619,
    "740": 2620,
    "ext": 2621,
    "\u25810x40aa": 2622,
    "security": 2623,
    "\u2581ass": 2624,
    "failed": 2625,
    "\u25810x40ca": 2626,
    "\u25810x72a0": 2627,
    "\u2581process32next": 2628,
    "\u2581getdiskfreespaceexa": 2629,
    "145": 2630,
    "ce1": 2631,
    "e1d": 2632,
    "50f8": 2633,
    "uter": 2634,
    "\u25810xffe3": 2635,
    "\u25810x12111": 2636,
    "45": 2637,
    "cd": 2638,
    "ym": 2639,
    "\u2581q": 2640,
    "3c8": 2641,
    "apshot": 2642,
    "\u25810x509": 2643,
    "olation": 2644,
    "\u25810x70a8": 2645,
    "\u25810x40a582": 2646,
    "\u25810x40a584": 2647,
    "\u25810x40a586": 2648,
    "\u25810x40a588": 2649,
    "\u25810x40a58a": 2650,
    "\u25810xfeee007e": 2651,
    "7b7": 2652,
    "de2": 2653,
    "org": 2654,
    "pip": 2655,
    "\u25810xa6": 2656,
    "\u25810x40f": 2657,
    "\u25810x78d0": 2658,
    "\u2581interfac": 2659,
    "6f": 2660,
    "kg": 2661,
    "b78": 2662,
    "\u2581chi": 2663,
    "\u2581post": 2664,
    "\u25810xffcb": 2665,
    "computer": 2666,
    "\u25810x40a580": 2667,
    "\u25810x7f8003": 2668,
    "\u25810x7f8004": 2669,
    "\u25810x7f8005": 2670,
    "\u25810x7f8006": 2671,
    "\u25810x7f8007": 2672,
    "\u25810x7f8008": 2673,
    "\u25810x7f8009": 2674,
    "\u25810x7f800a": 2675,
    "\u25810x7f800b": 2676,
    "\u25810x7f800c": 2677,
    "\u25810x7f800d": 2678,
    "\u25810x7f800e": 2679,
    "\u25810x7f800f": 2680,
    "\u25810x1211e38": 2681,
    "\u25810xfeee0081": 2682,
    "\u25819": 2683,
    "\u25810x59": 2684,
    "\u2581rand": 2685,
    "help32": 2686,
    "\u25810x403": 2687,
    "\u25810xffa0": 2688,
    "\u25810xfff7": 2689,
    "oolhelp32": 2690,
    "\u25810x2100210": 2691,
    "\u25810xfeee007f": 2692,
    "\u2581createpalette": 2693,
    "f58": 2694,
    "\u25810x441": 2695,
    "\u25810x7ab0": 2696,
    "\u25810xffe7": 2697,
    "snapshot": 2698,
    "\u25810x40a57e": 2699,
    "\u25810xfeee007d": 2700,
    "\u25810xfeee0082": 2701,
    "\u2581getcomputer": 2702,
    "\u2581globalunlock": 2703,
    "oolhelp32snapshot": 2704,
    "\u2581createtoolhelp32snapshot": 2705,
    "keyw": 2706,
    "orgex": 2707,
    "\u25810x27": 2708,
    "\u25810xffa1": 2709,
    "\u25810x4786e0": 2710,
    "\u25810xfeee0080": 2711,
    "service": 2712,
    "\u25810x73f0": 2713,
    "\u25810x5b2bd0": 2714,
    "\u25810xfeee0086": 2715,
    "\u25815": 2716,
    "ad2": 2717,
    "\u25810xffa2": 2718,
    "\u2581select": 2719,
    "\u25810x120f5": 2720,
    "\u2581getdriv": 2721,
    "\u2581setupapi": 2722,
    "\u2581exception": 2723,
    "\u25810xfeee0083": 2724,
    "\u2581getdrivetype": 2725,
    "\u2581createdirectoryw": 2726,
    "\u2581emb": 2727,
    "adero": 2728,
    "\u2581lstrc": 2729,
    "\u2581embarc": 2730,
    "\u2581lstrcmpi": 2731,
    "\u25810xfeee0084": 2732,
    "\u25810xfeee0085": 2733,
    "\u2581createmutex": 2734,
    "\u2581embarcadero": 2735,
    "las": 2736,
    "\u2581priv": 2737,
    "\u25810x401": 2738,
    "\u25810x181b": 2739,
    "d83": 2740,
    "ere": 2741,
    "\u25810x51": 2742,
    "\u25810x7b40": 2743,
    "\u25810xfeee0087": 2744,
    "rl6660dl6660d": 2745,
    "\u2581getfileinformationby": 2746,
    "saf": 2747,
    "tes": 2748,
    "\u2581to": 2749,
    "calls": 2750,
    "ecall": 2751,
    "\u25810xab": 2752,
    "\u25810xffc7": 2753,
    "exception": 2754,
    "violation": 2755,
    "96d": 2756,
    "a08": 2757,
    "adm": 2758,
    "pop": 2759,
    "ton": 2760,
    "\u25810x404": 2761,
    "\u2581stack": 2762,
    "unction": 2763,
    "\u25810xffa3": 2764,
    "\u2581apphelp": 2765,
    "\u25810xfeee008c": 2766,
    "\u2581setthreadlocale": 2767,
    "66f": 2768,
    "atq": 2769,
    "ync": 2770,
    "crea": 2771,
    "styp": 2772,
    "async": 2773,
    "bcatq": 2774,
    "gical": 2775,
    "teger": 2776,
    "ertion": 2777,
    "\u25810x502": 2778,
    "\u25810xffcc": 2779,
    "\u2581oleacc": 2780,
    "\u2581clbcatq": 2781,
    "\u2581integer": 2782,
    "\u25810x100220": 2783,
    "\u2581assertion": 2784,
    "\u2581interfacen": 2785,
    "\u2581openprocess": 2786,
    "938": 2787,
    "ops": 2788,
    "ernal": 2789,
    "opsys": 2790,
    "logical": 2791,
    "asynckey": 2792,
    "\u2581propsys": 2793,
    "\u25810x40a5bc": 2794,
    "\u25810x1211e4c": 2795,
    "\u25810xfeee0088": 2796,
    "\u25810xfeee008e": 2797,
    "\u2581getasynckey": 2798,
    "\u2581getasynckeystate": 2799,
    "302": 2800,
    "\u2581dis": 2801,
    "\u2581comm": 2802,
    "500000": 2803,
    "\u25810xffd3": 2804,
    "\u25810x1211f70": 2805,
    "\u25810xfeee0089": 2806,
    "\u25810xfeee008b": 2807,
    "\u2581getthreadpreferreduilanguages": 2808,
    "izn": 2809,
    "sti": 2810,
    "iznadm": 2811,
    "\u25810xffa4": 2812,
    "\u2581triznadm": 2813,
    "\u2581getlogical": 2814,
    "\u2581findresourcew": 2815,
    "\u2581accessviolation": 2816,
    "ior": 2817,
    "bits": 2818,
    "found": 2819,
    "gitem": 2820,
    "\u25810xc8": 2821,
    "\u25810x4122": 2822,
    "\u25810x7be0": 2823,
    "\u25810xffca": 2824,
    "localename": 2825,
    "\u25810x1211fc8": 2826,
    "any": 2827,
    "\u25810x86": 2828,
    "\u2581disk": 2829,
    "\u2581external": 2830,
    "\u25810xfeee008a": 2831,
    "\u25810xfeee008d": 2832,
    "\u2581setfileattributesa": 2833,
    "\u2581getwindowsdirectorya": 2834,
    "698": 2835,
    "patch": 2836,
    "prior": 2837,
    "changet": 2838,
    "\u25810x1211954": 2839,
    "\u25810x1211ad4": 2840,
    "\u25810x1211fc4": 2841,
    "\u2581variantchanget": 2842,
    "008": 2843,
    "deni": 2844,
    "\u2581loc": 2845,
    "\u25810x364": 2846,
    "\u25810xffc5": 2847,
    "priority": 2848,
    "safecall": 2849,
    "\u25810x43f6b0": 2850,
    "\u2581lstrcata": 2851,
    "288": 2852,
    "cef": 2853,
    "een": 2854,
    "pkg": 2855,
    "class": 2856,
    "oemcp": 2857,
    "\u25810x4e2": 2858,
    "\u2581reset": 2859,
    "\u25810x40f6": 2860,
    "notfound": 2861,
    "\u2581getoemcp": 2862,
    "\u2581privilege": 2863,
    "\u2581floatingpoint": 2864,
    "ccess": 2865,
    "ecast": 2866,
    "verflow": 2867,
    "\u25810x40e6": 2868,
    "\u25810xffc9": 2869,
    "leaccess": 2870,
    "\u2581localiz": 2871,
    "insafecall": 2872,
    "\u2581deletefilew": 2873,
    "\u2581localization": 2874,
    "\u2581mapviewoffile": 2875,
    "\u2581exceptioninsafecall": 2876,
    "b70": 2877,
    "cid": 2878,
    "atex": 2879,
    "clas": 2880,
    "\u2581dup": 2881,
    "omany": 2882,
    "stitu": 2883,
    "\u25810x5d": 2884,
    "\u2581chit": 2885,
    "\u2581rang": 2886,
    "\u25810x41d8": 2887,
    "\u25810x77e0": 2888,
    "callsnot": 2889,
    "classtyp": 2890,
    "creating": 2891,
    "floating": 2892,
    "formatex": 2893,
    "metafile": 2894,
    "\u2581toomany": 2895,
    "openfiles": 2896,
    "toverflow": 2897,
    "echeckerror": 2898,
    "dinstruction": 2899,
    "callsnotsuped": 2900,
    "classtypecast": 2901,
    "floatingpoint": 2902,
    "divisionbyzero": 2903,
    "\u2581errorcreating": 2904,
    "\u2581divisionbyzero": 2905,
    "pointeroperation": 2906,
    "\u2581integeroverflow": 2907,
    "\u2581invalidfilename": 2908,
    "\u2581rangecheckerror": 2909,
    "\u2581toomanyopenfiles": 2910,
    "\u2581errorcreatingvariant": 2911,
    "\u2581invalidfloatingpoint": 2912,
    "\u2581variantcallsnotsuped": 2913,
    "\u2581floatingpointoverflow": 2914,
    "\u2581floatingpointdivisionbyzero": 2915,
    "\u2581invalidfloatingpointoperation": 2916,
    "bey": 2917,
    "ond": 2918,
    "sid": 2919,
    "onts": 2920,
    "ttyp": 2921,
    "tund": 2922,
    "outof": 2923,
    "beyond": 2924,
    "bounds": 2925,
    "denied": 2926,
    "ontsub": 2927,
    "numeric": 2928,
    "otsuped": 2929,
    "\u25810x7690": 2930,
    "\u25810xffa5": 2931,
    "stitutes": 2932,
    "ttypecon": 2933,
    "\u2581fontsub": 2934,
    "beyondend": 2935,
    "\u25810x4e2de0": 2936,
    "\u2581diskfull": 2937,
    "indexoutof": 2938,
    "tunderflow": 2939,
    "\u2581fileaccess": 2940,
    "numericinput": 2941,
    "varianttypecon": 2942,
    "\u2581readbeyondend": 2943,
    "\u2581stackoverflow": 2944,
    "\u2581invalidvariant": 2945,
    "indexoutofbounds": 2946,
    "\u2581assertionfailed": 2947,
    "\u2581fontsubstitutes": 2948,
    "\u2581fileaccessdenied": 2949,
    "\u2581externalexception": 2950,
    "\u2581interfacenotsuped": 2951,
    "\u2581invalidnumericinput": 2952,
    "\u2581readbeyondendoffile": 2953,
    "varianttypeconversion": 2954,
    "\u2581invalidclasstypecast": 2955,
    "\u2581privilegedinstruction": 2956,
    "\u2581floatingpointunderflow": 2957,
    "\u2581invalidpointeroperation": 2958,
    "\u2581invalidvariantoperation": 2959,
    "\u2581invalidvarianttypeconversion": 2960,
    "b8c": 2961,
    "9138": 2962,
    "lient": 2963,
    "\u25810xaf": 2964,
    "\u25810x430": 2965,
    "\u25810xffa6": 2966,
    "argument": 2967,
    "\u25810x435000": 2968,
    "\u25810x1211d4c": 2969,
    "sol": 2970,
    "terect": 2971,
    "\u25810x7060": 2972,
    "\u25810x5b2be8": 2973,
    "\u2581registerwindowmessagew": 2974,
    "fon": 2975,
    "\u25810x418": 2976,
    "\u25810xffa7": 2977,
    "\u25810x11000": 2978,
    "windowproc": 2979,
    "\u25810x1211e98": 2980,
    "\u2581findnextfilea": 2981,
    "\u2581getenvironmentstring": 2982,
    "eff": 2983,
    "\u25810x40d": 2984,
    "\u25810x44d5": 2985,
    "\u25810x4cf0": 2986,
    "\u25810x7750": 2987,
    "\u25810x12116c0": 2988,
    "ret": 2989,
    "\u25810x7d94": 2990,
    "\u25810x7d95": 2991,
    "\u2581createw": 2992,
    "\u25810x1211d60": 2993,
    "\u25810x1211eac": 2994,
    "328": 2995,
    "951": 2996,
    "dlg": 2997,
    "popup": 2998,
    "\u25810x415e": 2999,
    "\u25810xffc8": 3000,
    "179": 3001,
    "70b": 3002,
    "ceex": 3003,
    "\u25810x40d6": 3004,
    "\u25810xffd2": 3005,
    "\u25810x1211cf0": 3006,
    "\u25810xfeee008f": 3007,
    "344": 3008,
    "74c": 3009,
    "lex": 3010,
    "\u2581wa": 3011,
    "3564": 3012,
    "annot": 3013,
    "\u25810x61e2": 3014,
    "\u25810x72d0": 3015,
    "\u25810x40a3e9": 3016,
    "\u25810x40a3ea": 3017,
    "\u25810x40a3eb": 3018,
    "\u25810x40a3ec": 3019,
    "\u25810x40a3ed": 3020,
    "\u25810x40a3ee": 3021,
    "\u25810x40a3ef": 3022,
    "\u25810x42a1d8": 3023,
    "\u25810xfeee0090": 3024,
    "\u25810xfeee0097": 3025,
    "346d": 3026,
    "\u25810x407": 3027,
    "\u25810xffec": 3028,
    "valueexw": 3029,
    "eg": 3030,
    "ects": 3031,
    "\u2581setbk": 3032,
    "\u25810x7210": 3033,
    "\u25810x12110": 3034,
    "\u2581tlsfree": 3035,
    "\u25810x435402": 3036,
    "\u25810xfeee0091": 3037,
    "\u25810xfeee0092": 3038,
    "\u25810xfeee0093": 3039,
    "aff": 3040,
    "dd4": 3041,
    "sum": 3042,
    "d63d": 3043,
    "e7f4": 3044,
    "\u25810x7ae0": 3045,
    "\u25810x188e04": 3046,
    "\u2581comparestringw": 3047,
    "per": 3048,
    "56e1d": 3049,
    "\u25810x4360": 3050,
    "\u25810x7ec1": 3051,
    "\u25810xffa8": 3052,
    "\u25810xffc4": 3053,
    "\u25810x434000": 3054,
    "\u25810x539138": 3055,
    "\u25810x1211f18": 3056,
    "\u25810xfeee0094": 3057,
    "\u25810xfeee0095": 3058,
    "\u2581getenvironmentstrings": 3059,
    "574": 3060,
    "esst": 3061,
    "lcid": 3062,
    "\u25810xad": 3063,
    "\u2581unmap": 3064,
    "\u25810xfff8": 3065,
    "processt": 3066,
    "\u25810x100300": 3067,
    "\u25810x1211f34": 3068,
    "\u25810x76500000": 3069,
    "\u2581findwindowa": 3070,
    "\u2581unmapviewoffile": 3071,
    "quiresrwlockexclusive": 3072,
    "5c4": 3073,
    "f2920": 3074,
    "\u25810x435f": 3075,
    "\u25810x7a50": 3076,
    "\u25810x7b00": 3077,
    "\u25810x4614d0": 3078,
    "\u25810x475648": 3079,
    "\u25810x77002c": 3080,
    "\u25810xfeee0096": 3081,
    "\u2581run": 3082,
    "54d83": 3083,
    "ypeex": 3084,
    "datoma": 3085,
    "\u25810x423": 3086,
    "\u25810x44c4": 3087,
    "\u25810xffa9": 3088,
    "\u25810x419638": 3089,
    "\u25810xfeedf0": 3090,
    "\u25810xfeee0098": 3091,
    "\u2581variantchangetypeex": 3092,
    "7cf": 3093,
    "ee4": 3094,
    "f54": 3095,
    "pen": 3096,
    "oken": 3097,
    "tings": 3098,
    "17346d": 3099,
    "a6d63d": 3100,
    "\u25810x468": 3101,
    "\u25810x7030": 3102,
    "\u25810x74e0": 3103,
    "\u2581shellex": 3104,
    "\u25810x435410": 3105,
    "\u25810x43f698": 3106,
    "\u2581pb": 3107,
    "pipe": 3108,
    "\u25810xffaa": 3109,
    "uilanguage": 3110,
    "\u2581getfullnamea": 3111,
    "\u2581comparestringa": 3112,
    "9a0": 3113,
    "\u2581def": 3114,
    "reque": 3115,
    "\u25810x6c": 3116,
    "\u25810xf0": 3117,
    "\u25810x181c": 3118,
    "\u2581strcmp": 3119,
    "14556e1d": 3120,
    "54d83b88": 3121,
    "\u25810x40000": 3122,
    "\u25810x100093": 3123,
    "\u2581flushfile": 3124,
    "\u2581flushfilebuffers": 3125,
    "\u2581shgetspecialfolderw": 3126,
    "53c": 3127,
    "mod": 3128,
    "sub": 3129,
    "inst": 3130,
    "\u25810x45b1": 3131,
    "\u25810x7cf0": 3132,
    "upper": 3133,
    "\u25810x7600": 3134,
    "\u25810xffc0": 3135,
    "3564f2920": 3136,
    "66fa6d63d": 3137,
    "\u25810x47f108": 3138,
    "\u25810xfeee0099": 3139,
    "\u25810xfeee009b": 3140,
    "ncy": 3141,
    "neg": 3142,
    "\u25810x205": 3143,
    "\u25810x7180": 3144,
    "\u25810x71e0": 3145,
    "\u25810x7240": 3146,
    "\u25810x75d0": 3147,
    "\u2581varneg": 3148,
    "cefreque": 3149,
    "\u25810x40a3f0": 3150,
    "\u25810x1211edc": 3151,
    "cefrequency": 3152,
    "\u25810xfeee009c": 3153,
    "processtoken": 3154,
    "\u2581filenotfound": 3155,
    "\u2581openprocesstoken": 3156,
    "\u2581queryperformancefrequency": 3157,
    "ta": 3158,
    "f0c": 3159,
    "mul": 3160,
    "xor": 3161,
    "idiv": 3162,
    "keya": 3163,
    "link": 3164,
    "\u25810x9f": 3165,
    "\u2581varcy": 3166,
    "\u2581varor": 3167,
    "\u2581varr8": 3168,
    "\u25810x4cb0": 3169,
    "\u2581varadd": 3170,
    "\u2581varand": 3171,
    "\u2581varcmp": 3172,
    "\u2581vardiv": 3173,
    "\u2581varmod": 3174,
    "\u2581varmul": 3175,
    "\u2581varnot": 3176,
    "\u2581varsub": 3177,
    "\u2581varxor": 3178,
    "\u2581varbool": 3179,
    "\u2581vardate": 3180,
    "\u2581varidiv": 3181,
    "\u25810x10021f": 3182,
    "\u25810x41f6c0": 3183,
    "\u25810x41f750": 3184,
    "\u25810x41f780": 3185,
    "\u25810x4bb04c": 3186,
    "9214556e1d": 3187,
    "e454d83b88": 3188,
    "e7f417346d": 3189,
    "\u25810x7c000000": 3190,
    "\u2581varcyfromstr": 3191,
    "\u2581vari4fromstr": 3192,
    "\u2581varr4fromstr": 3193,
    "\u2581varr8fromstr": 3194,
    "\u2581varbstrfromcy": 3195,
    "\u2581createprocessa": 3196,
    "\u2581regsetvalueexa": 3197,
    "\u2581varboolfromstr": 3198,
    "\u2581vardatefromstr": 3199,
    "\u2581varbstrfrombool": 3200,
    "\u2581varbstrfromdate": 3201,
    "sk": 3202,
    "scroll": 3203,
    "\u25810x40e": 3204,
    "\u25810x44ed": 3205,
    "\u25810x7840": 3206,
    "\u25810x1211a44": 3207,
    "\u25810x1211b5c": 3208,
    "\u25810xfeee009a": 3209,
    "\u25810xfeee009d": 3210,
    "248": 3211,
    "429": 3212,
    "d48": 3213,
    "load": 3214,
    "tons": 3215,
    "\u2581end": 3216,
    "\u25810xcf": 3217,
    "\u25810x50e": 3218,
    "\u25810x7660": 3219,
    "\u25810x7870": 3220,
    "\u25810xffc2": 3221,
    "\u25810xffe8": 3222,
    "\u25810x12108": 3223,
    "3566fa6d63d": 3224,
    "vm": 3225,
    "b3e2": 3226,
    "scrip": 3227,
    "\u25810x6f": 3228,
    "\u25810x414a": 3229,
    "\u2581duplic": 3230,
    "\u25810x121188": 3231,
    "\u2581getsyscolorbrush": 3232,
    "\u2581gettempfilenamea": 3233,
    "608": 3234,
    "lay": 3235,
    "ram": 3236,
    "vis": 3237,
    "d1e5": 3238,
    "\u2581beg": 3239,
    "\u25810xae": 3240,
    "\u25810x419a": 3241,
    "\u25810x8090": 3242,
    "\u25810xffc3": 3243,
    "\u25810x120ee": 3244,
    "\u25810x1210d1c": 3245,
    "\u25810x1210d3c": 3246,
    "\u25810x1211950": 3247,
    "\u25810x1211c08": 3248,
    "\u25810x1211e00": 3249,
    "\u2581application": 3250,
    "aaaaaaaaaaaaaaaa": 3251,
    "\u2581createwindowexa": 3252,
    "190": 3253,
    "340": 3254,
    "448": 3255,
    "b48": 3256,
    "1492": 3257,
    "d5700": 3258,
    "\u25810x2d0": 3259,
    "\u25810x4540": 3260,
    "\u25810x7ba0": 3261,
    "\u25810x7de8": 3262,
    "\u25810x7de9": 3263,
    "\u25810xffd0": 3264,
    "\u25810x120f8": 3265,
    "\u25810x990f58": 3266,
    "localfiletime": 3267,
    "\u2581getsystemdefault": 3268,
    "\u2581filetimetolocalfiletime": 3269,
    "net": 3270,
    "24fc": 3271,
    "mous": 3272,
    "40429": 3273,
    "96da0": 3274,
    "ad2de": 3275,
    "b08ac": 3276,
    "e4698": 3277,
    "efff8": 3278,
    "\u258150f8": 3279,
    "24fc360": 3280,
    "\u25810x4085": 3281,
    "\u25810x4609": 3282,
    "\u25810x70c0": 3283,
    "\u25810x76f0": 3284,
    "\u25810xfff6": 3285,
    "1492d1e5": 3286,
    "179ad2de": 3287,
    "940efff8": 3288,
    "b3e2d5700": 3289,
    "4042996da0": 3290,
    "\u258150f8e4698": 3291,
    "de23564f2920": 3292,
    "f2e454d83b88": 3293,
    "f39214556e1d": 3294,
    "1492d1e5b08ac": 3295,
    "ac0e7f417346d": 3296,
    "940efff8179ad2de": 3297,
    "b3e2d570024fc360": 3298,
    "\u258150f8e46984042996da0": 3299,
    "b3e2d570024fc3601492d1e5b08ac": 3300,
    "\u258150f8e46984042996da0940efff8179ad2de": 3301,
    "rl": 3302,
    "9a2": 3303,
    "nect": 3304,
    "sourc": 3305,
    "\u25810xa5": 3306,
    "\u25810x40c7": 3307,
    "\u25810x412b": 3308,
    "\u25810x4533": 3309,
    "\u25810x7390": 3310,
    "\u25810x7a20": 3311,
    "\u25810x7e80": 3312,
    "\u2581release": 3313,
    "\u2581windowsnt": 3314,
    "\u25810xfeee00bc": 3315,
    "c7": 3316,
    "1c8": 3317,
    "202": 3318,
    "\u25810x41d": 3319,
    "\u25810x44c9": 3320,
    "\u25810x466b": 3321,
    "\u25810x76c0": 3322,
    "econsole": 3323,
    "tethread": 3324,
    "\u2581gettext": 3325,
    "\u25810x100098": 3326,
    "\u25810x1211ec8": 3327,
    "\u2581enumsystem": 3328,
    "with": 3329,
    "\u2581crt": 3330,
    "textw": 3331,
    "\u25810x5f": 3332,
    "\u25810x4b40": 3333,
    "\u25810x7120": 3334,
    "\u25810x7480": 3335,
    "\u25810x75a0": 3336,
    "\u25810x1211118": 3337,
    "\u25810x1211b78": 3338,
    "\u2581formatmessagea": 3339,
    "\u2581comparefiletime": 3340,
    "osystem": 3341,
    "\u25810x4289": 3342,
    "\u25810x7360": 3343,
    "\u25810x74b0": 3344,
    "\u25810x7510": 3345,
    "\u25810x7570": 3346,
    "\u25810x7720": 3347,
    "\u25810x79c0": 3348,
    "\u25810x44280": 3349,
    "\u25810x4e39b4": 3350,
    "\u2581dispatch": 3351,
    "osystemtime": 3352,
    "\u25810xfeee009e": 3353,
    "\u2581messageboxw": 3354,
    "38803566fa6d63d": 3355,
    "568f2e454d83b88": 3356,
    "70bde23564f2920": 3357,
    "3ea": 3358,
    "ba8": 3359,
    "\u25810xd8": 3360,
    "\u25810x7330": 3361,
    "\u25810x77b0": 3362,
    "\u2581iswindow": 3363,
    "\u2581getthreaduilanguage": 3364,
    "49": 3365,
    "aa4": 3366,
    "ffc": 3367,
    "croll": 3368,
    "named": 3369,
    "\u25810xdc": 3370,
    "\u25810x415": 3371,
    "\u25810x427": 3372,
    "\u2581resum": 3373,
    "\u25810x180c": 3374,
    "\u25810x7990": 3375,
    "\u25810x8230": 3376,
    "\u25810xfeedf": 3377,
    "\u25810x437820": 3378,
    "\u2581resumethread": 3379,
    "feac0e7f417346d": 3380,
    "208": 3381,
    "package": 3382,
    "\u25810x53e050": 3383,
    "\u2581globalad": 3384,
    "\u25810x1211e5c": 3385,
    "\u25810xfeee009f": 3386,
    "\u2581filetimetosystemtime": 3387,
    "\u2581getcurrentdirectoryw": 3388,
    "\u2581setenvironmentvariablew": 3389,
    "\u2581errorcreatingvariantorsafearray": 3390,
    "119": 3391,
    "ee8": 3392,
    "eec": 3393,
    "lang": 3394,
    "okup": 3395,
    "osda": 3396,
    "\u2581wts": 3397,
    "\u2581peek": 3398,
    "dialog": 3399,
    "langid": 3400,
    "ocument": 3401,
    "osdatet": 3402,
    "\u2581lookup": 3403,
    "\u25810x4093f1": 3404,
    "\u25810x4093f2": 3405,
    "\u25810x4093f3": 3406,
    "\u25810x40a3f1": 3407,
    "\u25810x40a3f2": 3408,
    "\u25810x40a3f3": 3409,
    "\u25810x40a3f4": 3410,
    "\u25810x40a3f5": 3411,
    "\u25810x40a3f6": 3412,
    "\u25810x40a3f7": 3413,
    "\u25810x436408": 3414,
    "\u25810x437804": 3415,
    "\u25810x43f668": 3416,
    "\u25810x1211f54": 3417,
    "\u2581showwindow": 3418,
    "processmemory": 3419,
    "53cf39214556e1d": 3420,
    "\u2581invalidargument": 3421,
    "3570bde23564f2920": 3422,
    "97feac0e7f417346d": 3423,
    "vironmentstringsa": 3424,
    "\u2581variantorsafearray": 3425,
    "\u2581variantorsafearrayindexoutofbounds": 3426,
    "148": 3427,
    "bcc": 3428,
    "atible": 3429,
    "\u25810x61f6": 3430,
    "\u25810x7960": 3431,
    "\u2581createmutexa": 3432,
    "conditionvariable": 3433,
    "econditionvariable": 3434,
    "115": 3435,
    "948": 3436,
    "log": 3437,
    "w32": 3438,
    "affin": 3439,
    "paint": 3440,
    "\u25810x87": 3441,
    "\u25810xc0": 3442,
    "lgitem": 3443,
    "itymask": 3444,
    "\u25810x43a2": 3445,
    "\u25810x70f0": 3446,
    "poolwork": 3447,
    "\u2581waitfor": 3448,
    "\u25810x436403": 3449,
    "\u25810x436404": 3450,
    "\u25810x436405": 3451,
    "\u25810x436406": 3452,
    "\u25810x436407": 3453,
    "\u25810x436409": 3454,
    "\u25810x43640a": 3455,
    "\u25810x43640b": 3456,
    "\u25810x43640c": 3457,
    "\u25810x43640d": 3458,
    "\u25810x43640e": 3459,
    "\u25810x43640f": 3460,
    "\u2581document": 3461,
    "\u25810x1211f14": 3462,
    "\u25810x1211fc0": 3463,
    "affinitymask": 3464,
    "\u2581getlocaleinfo": 3465,
    "ry": 3466,
    "timet": 3467,
    "\u25810xbe": 3468,
    "\u25810x7450": 3469,
    "\u25810x7c91": 3470,
    "\u25810x10011": 3471,
    "hmetafile": 3472,
    "\u25810xfeee00a0": 3473,
    "\u25810xfeee00a1": 3474,
    "\u25810xfeee00d7": 3475,
    "334": 3476,
    "fc8": 3477,
    "\u2581wm": 3478,
    "79ac": 3479,
    "ebb5": 3480,
    "once": 3481,
    "\u25810xb7": 3482,
    "descrip": 3483,
    "\u25810x18cc": 3484,
    "\u25810x2100": 3485,
    "\u25810x42a2": 3486,
    "\u25810x4df00": 3487,
    "\u25810x1211d08": 3488,
    "\u25810x1211de8": 3489,
    "\u25810x1211e8c": 3490,
    "b7853cf39214556e1d": 3491,
    "ce1568f2e454d83b88": 3492,
    "ffa038803566fa6d63d": 3493,
    "ns": 3494,
    "209": 3495,
    "301": 3496,
    "\u25810x5d0": 3497,
    "\u25810x4020": 3498,
    "\u25810x73c0": 3499,
    "\u25810x7b10": 3500,
    "\u25810xffea": 3501,
    "\u25810x12112": 3502,
    "\u25810x50850": 3503,
    "packageid": 3504,
    "\u25810x4c79ac": 3505,
    "\u2581documents": 3506,
    "\u25810xfeee00a2": 3507,
    "\u2581shellexecute": 3508,
    "\u2581comparestringex": 3509,
    "\u2581getlocaleinfoex": 3510,
    "\u2581getcurrentpackageid": 3511,
    "ax": 3512,
    "ab8": 3513,
    "\u2581inf": 3514,
    "\u25810x9d": 3515,
    "onceex": 3516,
    "\u25810x410e": 3517,
    "\u25810x7420": 3518,
    "\u25810x7630": 3519,
    "\u25810x7b70": 3520,
    "\u25810xffed": 3521,
    "deprocess": 3522,
    "ecuteonce": 3523,
    "\u2581initonceex": 3524,
    "\u2581systemtimet": 3525,
    "\u2581sendmessagea": 3526,
    "\u2581isvalidlocale": 3527,
    "\u2581getexitcodeprocess": 3528,
    "16ce1568f2e454d83b88": 3529,
    "66397feac0e7f417346d": 3530,
    "\u2581initonceexecuteonce": 3531,
    "rit": 3532,
    "\u2581fre": 3533,
    "\u2581yap": 3534,
    "\u2581writ": 3535,
    "\u25810x7af0": 3536,
    "\u25810xffab": 3537,
    "\u25810x1210ec": 3538,
    "\u2581duplicate": 3539,
    "\u2581createsemapho": 3540,
    "ld": 3541,
    "e000": 3542,
    "calling": 3543,
    "destroy": 3544,
    "\u25810x41e0": 3545,
    "\u25810x47e0": 3546,
    "\u25810x7780": 3547,
    "\u25810xfff5": 3548,
    "\u25810x2e7ea": 3549,
    "afunction": 3550,
    "\u25810x7ee000": 3551,
    "\u25810x7f8002": 3552,
    "\u25810x7f8010": 3553,
    "\u25810x12119f0": 3554,
    "\u25810x1211e0c": 3555,
    "\u2581lstrcmpia": 3556,
    "imetofiletime": 3557,
    "\u2581module32next": 3558,
    "7bffa038803566fa6d63d": 3559,
    "ebb53570bde23564f2920": 3560,
    "688": 3561,
    "9c8": 3562,
    "top": 3563,
    "\u2581nto": 3564,
    "eatom": 3565,
    "\u25810x42ac": 3566,
    "\u25810x78f0": 3567,
    "\u25810x20019": 3568,
    "\u25810xfeee00a3": 3569,
    "\u2581setfiletime": 3570,
    "\u2581coinitialize": 3571,
    "\u2581findnextfilew": 3572,
    "\u2581getdrivetypea": 3573,
    "wh": 3574,
    "504": 3575,
    "fore": 3576,
    "\u25810x402": 3577,
    "\u25810x501": 3578,
    "\u25810x44e5": 3579,
    "\u25810x475f": 3580,
    "\u25810xffd8": 3581,
    "\u2581getprocessaffinitymask": 3582,
    "gu": 3583,
    "fic": 3584,
    "when": 3585,
    "ymbo": 3586,
    "liclink": 3587,
    "\u25810x7e88": 3588,
    "\u25810xffdf": 3589,
    "\u2581enable": 3590,
    "\u25810x1210c": 3591,
    "\u2581globalf": 3592,
    "tivewindow": 3593,
    "\u25810x1211cbc": 3594,
    "\u25810x1211f30": 3595,
    "ymboliclink": 3596,
    "fff0": 3597,
    "36574": 3598,
    "formatw": 3599,
    "\u25810x53c8": 3600,
    "\u25810xffd5": 3601,
    "fxstring": 3602,
    "\u25810x1211eb4": 3603,
    "\u2581getcursor": 3604,
    "\u25810xfeee00a4": 3605,
    "ymboliclinkw": 3606,
    "\u2581gettickcount64": 3607,
    "\u2581createsymboliclinkw": 3608,
    "36574b7853cf39214556e1d": 3609,
    "\u2581getenvironmentvariablea": 3610,
    "d07": 3611,
    "dis": 3612,
    "tor": 3613,
    "urns": 3614,
    "\u25810xbac": 3615,
    "horeexw": 3616,
    "returns": 3617,
    "ornumber": 3618,
    "callbacks": 3619,
    "\u2581charupper": 3620,
    "\u25810xfeee00a5": 3621,
    "processwrite": 3622,
    "whencallback": 3623,
    "\u2581waitforthread": 3624,
    "\u2581getmodulehandl": 3625,
    "pooltimercallbacks": 3626,
    "\u2581flushprocesswrite": 3627,
    "\u2581setthreadpoolwait": 3628,
    "whencallbackreturns": 3629,
    "\u2581createsemaphoreexw": 3630,
    "\u2581setthreadpooltimer": 3631,
    "\u2581closethreadpoolwait": 3632,
    "\u2581closethreadpooltimer": 3633,
    "\u2581createthreadpoolwait": 3634,
    "\u2581createthreadpooltimer": 3635,
    "\u2581flushprocesswritebuffers": 3636,
    "\u2581getcurrentprocessornumber": 3637,
    "\u2581freelibrarywhencallbackreturns": 3638,
    "\u2581waitforthreadpooltimercallbacks": 3639,
    "388": 3640,
    "a54": 3641,
    "f078": 3642,
    "ecomp": 3643,
    "printf": 3644,
    "\u25810x1a14": 3645,
    "\u25810x7e74": 3646,
    "\u25810x7e75": 3647,
    "\u25810x7e78": 3648,
    "\u25810x7e79": 3649,
    "\u25810x7e7c": 3650,
    "\u25810x7e7d": 3651,
    "defaultu": 3652,
    "\u25810x40a3d0": 3653,
    "\u25810x40a3d8": 3654,
    "\u25810x429010": 3655,
    "\u25810x4300e0": 3656,
    "\u25810x461518": 3657,
    "ecompatible": 3658,
    "\u2581exitthread": 3659,
    "defaultuilanguage": 3660,
    "\u2581createcompatible": 3661,
    "34416ce1568f2e454d83b88": 3662,
    "3ea66397feac0e7f417346d": 3663,
    "f27bffa038803566fa6d63d": 3664,
    "faebb53570bde23564f2920": 3665,
    "\u2581getprivateprofilestringa": 3666,
    "588": 3667,
    "ab0": 3668,
    "prop": 3669,
    "\u25810x4718": 3670,
    "\u25810xffc1": 3671,
    "\u25810xffeb": 3672,
    "\u25810xfff4": 3673,
    "settings": 3674,
    "\u2581msvcr90": 3675,
    "\u25810x13fff0": 3676,
    "\u25810x429001": 3677,
    "\u25810x429018": 3678,
    "\u2581selectob": 3679,
    "\u2581getconsolemode": 3680,
    "wa": 3681,
    "904": 3682,
    "910": 3683,
    "\u2581wcs": 3684,
    "ansla": 3685,
    "\u25810x7f0": 3686,
    "\u25810x7a40": 3687,
    "\u25810xffd9": 3688,
    "\u25810x120cb": 3689,
    "\u25810x429002": 3690,
    "\u25810x429003": 3691,
    "\u25810x429004": 3692,
    "\u25810x429005": 3693,
    "\u25810x429006": 3694,
    "\u25810x429007": 3695,
    "\u25810x429008": 3696,
    "\u25810x429009": 3697,
    "\u25810x42900a": 3698,
    "\u25810x42900b": 3699,
    "\u25810x42900c": 3700,
    "\u25810x42900d": 3701,
    "\u25810x42900e": 3702,
    "\u25810x42900f": 3703,
    "\u25810x429011": 3704,
    "\u25810x429012": 3705,
    "\u25810x429013": 3706,
    "\u25810x429014": 3707,
    "\u25810x429015": 3708,
    "\u25810x429016": 3709,
    "\u25810x429017": 3710,
    "\u25810x429019": 3711,
    "\u25810x1211cb4": 3712,
    "\u25810x1211d30": 3713,
    "\u25810x1211db0": 3714,
    "\u2581duplicatehandle": 3715,
    "99faebb53570bde23564f2920": 3716,
    "af0": 3717,
    "db2": 3718,
    "\u2581setst": 3719,
    "\u25810x7e00": 3720,
    "\u25810x7e81": 3721,
    "\u25810xffdb": 3722,
    "dethread": 3723,
    "stringlen": 3724,
    "\u25810x77002b": 3725,
    "\u25810x1211f44": 3726,
    "\u2581loadcursorw": 3727,
    "\u2581setstdhandle": 3728,
    "\u2581globaladdatoma": 3729,
    "\u2581getexitcodethread": 3730,
    "398": 3731,
    "5bc": 3732,
    "741": 3733,
    "d000": 3734,
    "drag": 3735,
    "\u2581the": 3736,
    "\u25810xb4": 3737,
    "\u25810x71a0": 3738,
    "\u25810x7b90": 3739,
    "\u2581transla": 3740,
    "\u25810xfeee00a6": 3741,
    "\u25810xfeee00a7": 3742,
    "\u2581regcreatekeyexa": 3743,
    "\u2581removedirectorya": 3744,
    "f6f27bffa038803566fa6d63d": 3745,
    "95136574b7853cf39214556e1d": 3746,
    "ee2": 3747,
    "eeb": 3748,
    "f07": 3749,
    "f48": 3750,
    "\u2581sn": 3751,
    "\u25810x504": 3752,
    "\u25810x7e0": 3753,
    "\u25810x42bc": 3754,
    "\u25810x7bf0": 3755,
    "\u25810x7dec": 3756,
    "\u25810x7ded": 3757,
    "\u25810x1211808": 3758,
    "\u25810x1211d7c": 3759,
    "\u2581copyfilea": 3760,
    "a88": 3761,
    "ebut": 3762,
    "pleob": 3763,
    "\u25810xf96": 3764,
    "\u25810x7e84": 3765,
    "\u25810x7e85": 3766,
    "\u2581freere": 3767,
    "formulti": 3768,
    "mousebut": 3769,
    "\u25810x7a900": 3770,
    "\u25810x407bed": 3771,
    "\u25810x407bee": 3772,
    "\u25810x43f620": 3773,
    "\u25810x120faa8": 3774,
    "\u25810x12117f4": 3775,
    "\u25810x1211894": 3776,
    "\u25810xfeee00a8": 3777,
    "formultipleob": 3778,
    "\u2581freeresource": 3779,
    "\u2581defwindowproc": 3780,
    "securitydescrip": 3781,
    "\u2581getcomputernamea": 3782,
    "\u2581getvolumeinformationa": 3783,
    "7123ea66397feac0e7f417346d": 3784,
    "c9": 3785,
    "hl": 3786,
    "\u2581fa": 3787,
    "atoma": 3788,
    "longw": 3789,
    "\u2581strlen": 3790,
    "\u25810x44c280": 3791,
    "\u25810x44d500": 3792,
    "\u25810xfeee00a9": 3793,
    "mousebuttons": 3794,
    "\u2581getnumberofconsolemousebuttons": 3795,
    "7b0": 3796,
    "aac": 3797,
    "ad8": 3798,
    "cc8": 3799,
    "e68": 3800,
    "e8c1": 3801,
    "etch": 3802,
    "\u2581are": 3803,
    "\u25810xffef": 3804,
    "indirect": 3805,
    "\u25810x1210b": 3806,
    "\u25810xfeee00aa": 3807,
    "\u25810xfeee00ab": 3808,
    "\u2581regenumkey": 3809,
    "\u2581acquiresrwlockexclusive": 3810,
    "f07834416ce1568f2e454d83b88": 3811,
    "5d95136574b7853cf39214556e1d": 3812,
    "7cf99faebb53570bde23564f2920": 3813,
    "348": 3814,
    "988": 3815,
    "foc": 3816,
    "hed": 3817,
    "\u2581eh": 3818,
    "focus": 3819,
    "update": 3820,
    "\u25810x110": 3821,
    "\u25810x429": 3822,
    "\u25810x500": 3823,
    "\u25810x3020": 3824,
    "\u25810x48b0": 3825,
    "\u25810x7020": 3826,
    "\u25810x7890": 3827,
    "\u25810x7d98": 3828,
    "\u25810x7d99": 3829,
    "\u25810x7df0": 3830,
    "\u25810x435018": 3831,
    "\u25810x7c000c": 3832,
    "\u25810x1211d14": 3833,
    "\u25810xfeee00ac": 3834,
    "cq": 3835,
    "678": 3836,
    "d08": 3837,
    "f20": 3838,
    "own": 3839,
    "a000": 3840,
    "\u25810x4405": 3841,
    "\u25810x7320": 3842,
    "\u25810xffd6": 3843,
    "\u25810x44000": 3844,
    "\u25810x435002": 3845,
    "\u25810x435004": 3846,
    "\u25810x435006": 3847,
    "\u25810x435008": 3848,
    "\u25810x43500a": 3849,
    "\u25810x43500c": 3850,
    "\u25810x43500e": 3851,
    "\u25810x435010": 3852,
    "\u25810x435014": 3853,
    "\u25810x435016": 3854,
    "\u25810xfeee00ad": 3855,
    "\u25810xfeee00ae": 3856,
    "\u2581process32first": 3857,
    "cc7123ea66397feac0e7f417346d": 3858,
    "e8c1f6f27bffa038803566fa6d63d": 3859,
    "ce8": 3860,
    "chr": 3861,
    "dc0": 3862,
    "ance": 3863,
    "longa": 3864,
    "\u25810x62": 3865,
    "\u25810x4b0": 3866,
    "\u25810x7230": 3867,
    "\u25810x7e89": 3868,
    "\u25810xffd4": 3869,
    "\u25810x1210e2": 3870,
    "\u25810xb33880": 3871,
    "\u25810x1211e90": 3872,
    "\u2581createfon": 3873,
    "381": 3874,
    "\u258112": 3875,
    "apture": 3876,
    "valuew": 3877,
    "\u25810x4226": 3878,
    "\u25810x7da0": 3879,
    "\u25810x7e90": 3880,
    "rlhandler": 3881,
    "\u25810x1211ed4": 3882,
    "\u2581enumsystemlocales": 3883,
    "365d95136574b7853cf39214556e1d": 3884,
    "e48f07834416ce1568f2e454d83b88": 3885,
    "382": 3886,
    "\u25810xd3": 3887,
    "meters": 3888,
    "\u25810x3f3": 3889,
    "\u25810x420c": 3890,
    "\u25810x7500": 3891,
    "\u25810x40b75": 3892,
    "\u25810x200020": 3893,
    "parameters": 3894,
    "\u2581getfileinformationbyhandl": 3895,
    "32cs": 3896,
    "9c4f": 3897,
    "recte": 3898,
    "\u2581snap": 3899,
    "\u25810x44e": 3900,
    "\u2581debug": 3901,
    "\u25810x79a0": 3902,
    "\u25810xffde": 3903,
    "\u2581th32cs": 3904,
    "\u25810x502dc": 3905,
    "\u25810x4093d1": 3906,
    "\u25810x4093d2": 3907,
    "\u25810x4093d3": 3908,
    "\u25810x4093f4": 3909,
    "\u25810x40957e": 3910,
    "\u25810x409580": 3911,
    "\u25810x409582": 3912,
    "\u25810x409584": 3913,
    "\u25810x409586": 3914,
    "\u25810x409588": 3915,
    "\u25810x40958a": 3916,
    "\u25810x40a5ce": 3917,
    "\u25810x40a5d0": 3918,
    "\u25810x40a5d2": 3919,
    "\u25810x40a5d4": 3920,
    "\u25810x40a5d6": 3921,
    "\u25810x40a5d8": 3922,
    "\u25810x40a5da": 3923,
    "\u25810x40b3df": 3924,
    "\u25810x40b3e0": 3925,
    "\u25810x40b3e1": 3926,
    "\u25810x40b3e2": 3927,
    "\u25810x40b3e3": 3928,
    "\u25810x40b3e4": 3929,
    "\u25810x40b3e5": 3930,
    "securitydescriptor": 3931,
    "209cc7123ea66397feac0e7f417346d": 3932,
    "37e8c1f6f27bffa038803566fa6d63d": 3933,
    "50c": 3934,
    "\u2581add": 3935,
    "\u25810x4d3": 3936,
    "\u25810x59d": 3937,
    "\u25810x465b": 3938,
    "\u25810x46ec": 3939,
    "\u25810x7a90": 3940,
    "deleteatom": 3941,
    "\u2581createexw": 3942,
    "\u2581createwindowexw": 3943,
    "\u2581globaldeleteatom": 3944,
    "\u2581setfileinformationby": 3945,
    "emutex": 3946,
    "layout": 3947,
    "\u25810x44d": 3948,
    "\u25810x40f0": 3949,
    "\u25810x7e8c": 3950,
    "\u25810x7e8d": 3951,
    "\u25810x7e91": 3952,
    "\u25810xffac": 3953,
    "allocate": 3954,
    "\u2581runtime": 3955,
    "\u25810x1210f8": 3956,
    "\u25810x40593d": 3957,
    "\u25810x40593e": 3958,
    "\u25810x41f738": 3959,
    "\u25810x12118f8": 3960,
    "\u2581releasemutex": 3961,
    "\u2581systemparameters": 3962,
    "\u2581getuserdefaultlcid": 3963,
    "\u2581writeprivateprofile": 3964,
    "9c4f7cf99faebb53570bde23564f2920": 3965,
    "pp": 3966,
    "ated": 3967,
    "\u25810xa9": 3968,
    "ession": 3969,
    "\u25810x164": 3970,
    "\u25810x42b4": 3971,
    "\u25810x44ee": 3972,
    "\u25810x6f00": 3973,
    "\u25810xffda": 3974,
    "\u25810xfff3": 3975,
    "\u2581strcpy": 3976,
    "\u2581settimer": 3977,
    "\u2581setscroll": 3978,
    "\u25810xfeee00b1": 3979,
    "ash": 3980,
    "b84": 3981,
    "c08": 3982,
    "\u25810xe8": 3983,
    "\u25810x4262": 3984,
    "\u25810x523e": 3985,
    "topwindow": 3986,
    "\u2581deleteob": 3987,
    "\u25810xfeee00af": 3988,
    "\u25810xfeee00b0": 3989,
    "\u2581getdateformata": 3990,
    "b7e48f07834416ce1568f2e454d83b88": 3991,
    "py": 3992,
    "754": 3993,
    "a7b0": 3994,
    "e024": 3995,
    "regi": 3996,
    "ervic": 3997,
    "\u25810xd4": 3998,
    "\u25810x7100": 3999,
    "\u25810xffd1": 4000,
    "\u2581update": 4001,
    "\u25810x120f9": 4002,
    "\u2581getfullnamew": 4003,
    "802": 4004,
    "dc6": 4005,
    "\u25810x40f1": 4006,
    "\u25810x42ec": 4007,
    "\u25810x46c0": 4008,
    "\u25810x4aa0": 4009,
    "\u25810x80e0": 4010,
    "\u25810x10020": 4011,
    "\u25810x1211d44": 4012,
    "\u2581getscroll": 4013,
    "\u2581setthreadpriority": 4014,
    "bb209cc7123ea66397feac0e7f417346d": 4015,
    "9b9c4f7cf99faebb53570bde23564f2920": 4016,
    "750": 4017,
    "ill": 4018,
    "rgn": 4019,
    "3000": 4020,
    "leng": 4021,
    "ryto": 4022,
    "\u25810x9e": 4023,
    "length": 4024,
    "\u25810x3010": 4025,
    "\u25810x7d9c": 4026,
    "\u25810x7d9d": 4027,
    "\u25810xffe9": 4028,
    "\u25810x1210e8": 4029,
    "\u25810x42b408": 4030,
    "andsettings": 4031,
    "\u2581getusernamea": 4032,
    "\u2581applicationdata": 4033,
    "\u2581lookupprivilege": 4034,
    "\u2581getdiskfreespacea": 4035,
    "\u2581getmodulehandleexw": 4036,
    "drl6660drl6660drl6660": 4037,
    "\u2581documentsandsettings": 4038,
    "74e": 4039,
    "3cd8": 4040,
    "\u25810xbf": 4041,
    "\u25810xfe": 4042,
    "ca0000": 4043,
    "\u25810x1001": 4044,
    "\u25810x4b62": 4045,
    "\u25810x7bf8": 4046,
    "\u25810x8280": 4047,
    "\u25810x8b60": 4048,
    "\u25810xffad": 4049,
    "\u2581setcon": 4050,
    "\u2581getmenu": 4051,
    "\u25810x426264": 4052,
    "\u25810x54a7b0": 4053,
    "\u25810x12116fc": 4054,
    "\u25810x1211fb8": 4055,
    "\u25810x80ca0000": 4056,
    "\u2581getcursorpos": 4057,
    "334365d95136574b7853cf39214556e1d": 4058,
    "9a237e8c1f6f27bffa038803566fa6d63d": 4059,
    "adb7e48f07834416ce1568f2e454d83b88": 4060,
    "006c": 4061,
    "atom": 4062,
    "code": 4063,
    "40284": 4064,
    "onexit": 4065,
    "\u25810x466": 4066,
    "aterect": 4067,
    "\u25810x7db0": 4068,
    "usttoken": 4069,
    "\u25810x1210e0": 4070,
    "privileges": 4071,
    "\u25810x2840284": 4072,
    "\u25810xfeee00b4": 4073,
    "\u2581writeconsole": 4074,
    "\u2581destroywindow": 4075,
    "usttokenprivileges": 4076,
    "aw": 4077,
    "a48": 4078,
    "006a": 4079,
    "5440": 4080,
    "b000": 4081,
    "lipr": 4082,
    "\u25810x4f8": 4083,
    "session": 4084,
    "\u25810x12f1": 4085,
    "\u25810x43c3": 4086,
    "\u25810x7910": 4087,
    "\u25810xffae": 4088,
    "\u25810x40a58c": 4089,
    "\u25810x42b403": 4090,
    "\u25810x42b404": 4091,
    "\u25810x42b405": 4092,
    "\u25810x42b406": 4093,
    "\u25810x42b407": 4094,
    "\u25810x42b409": 4095,
    "\u25810x42b40a": 4096,
    "\u25810x42b40b": 4097,
    "\u25810x42b40c": 4098,
    "\u25810x42b40d": 4099,
    "\u25810x42b40e": 4100,
    "\u25810x42b40f": 4101,
    "\u25810x450928": 4102,
    "\u25810x6d006c": 4103,
    "\u25810x6f006e": 4104,
    "\u25810x710070": 4105,
    "\u25810x770076": 4106,
    "\u25810x790078": 4107,
    "\u25810xfeee00b2": 4108,
    "\u25810xfeee00b3": 4109,
    "\u2581getdlgitem": 4110,
    "\u2581globalhandle": 4111,
    "\u2581formatmessagew": 4112,
    "\u2581registerwindowmessagea": 4113,
    "fa334365d95136574b7853cf39214556e1d": 4114,
    "83": 4115,
    "ie": 4116,
    "9e0": 4117,
    "bd0": 4118,
    "ioc": 4119,
    "pic": 4120,
    "0138": 4121,
    "94c4": 4122,
    "ways": 4123,
    "90068": 4124,
    "\u25810xe4": 4125,
    "\u2581pbvm": 4126,
    "\u25810x7d20": 4127,
    "\u25810x7da1": 4128,
    "\u25810xcccc": 4129,
    "\u25810xffdd": 4130,
    "\u2581always": 4131,
    "atethread": 4132,
    "\u25810x430138": 4133,
    "\u25810x435012": 4134,
    "\u25810x690068": 4135,
    "\u25810x6b006a": 4136,
    "\u25810x730072": 4137,
    "\u25810x750074": 4138,
    "\u25810x7b007a": 4139,
    "\u25810x7d007c": 4140,
    "\u25810x7f007e": 4141,
    "\u25810x120f5d0": 4142,
    "\u2581heapdestroy": 4143,
    "\u2581systemtimetofiletime": 4144,
    "404": 4145,
    "dc4": 4146,
    "enh": 4147,
    "tiv": 4148,
    "\u2581lz": 4149,
    "\u2581rb": 4150,
    "00220": 4151,
    "\u25810xea": 4152,
    "\u2581aaal": 4153,
    "\u2581aaaq": 4154,
    "\u25810x47c": 4155,
    "\u25810x40ac": 4156,
    "\u25810x4ad0": 4157,
    "\u25810xffdc": 4158,
    "\u2581unlock": 4159,
    "\u25810x43f650": 4160,
    "\u2581msvcr100": 4161,
    "\u25810x12114bc": 4162,
    "\u25810x1211f1c": 4163,
    "\u25810x2200220": 4164,
    "\u25810xfeee00b5": 4165,
    "\u2581globalfind": 4166,
    "\u2581terminatethread": 4167,
    "\u2581registerclassexa": 4168,
    "eeb9b9c4f7cf99faebb53570bde23564f2920": 4169,
    "am": 4170,
    "2c8": 4171,
    "ver": 4172,
    "atal": 4173,
    "flush": 4174,
    "lower": 4175,
    "\u25810x4a4": 4176,
    "\u25810x5ab": 4177,
    "\u2581fatal": 4178,
    "\u25810x7df1": 4179,
    "\u2581cannot": 4180,
    "\u25810x1210e4": 4181,
    "\u25810x43a4c8": 4182,
    "\u2581getlogicaldriv": 4183,
    "\u2581removedirectoryw": 4184,
    "408": 4185,
    "5d0": 4186,
    "ff8": 4187,
    "red": 4188,
    "\u2581lib": 4189,
    "archi": 4190,
    "\u25810xd2": 4191,
    "\u25810xe3": 4192,
    "\u25810xe7": 4193,
    "\u25810x7da4": 4194,
    "\u25810x7da5": 4195,
    "\u2581append": 4196,
    "\u25810x4093f0": 4197,
    "\u25810x40a57c": 4198,
    "\u25810x410f08": 4199,
    "\u25810x4b6270": 4200,
    "\u25810x121192f": 4201,
    "\u2581createprocessw": 4202,
    "46bb209cc7123ea66397feac0e7f417346d": 4203,
    "a6fa334365d95136574b7853cf39214556e1d": 4204,
    "5440adb7e48f07834416ce1568f2e454d83b88": 4205,
    "94c49a237e8c1f6f27bffa038803566fa6d63d": 4206,
    "gl": 4207,
    "934": 4208,
    "ab4": 4209,
    "\u2581ss": 4210,
    "\u25810x421": 4211,
    "section": 4212,
    "\u25810x4124": 4213,
    "\u2581updatewindow": 4214,
    "184": 4215,
    "304": 4216,
    "3fa": 4217,
    "a0c": 4218,
    "cc4": 4219,
    "dfc": 4220,
    "\u25817z": 4221,
    "5000": 4222,
    "anden": 4223,
    "\u25810xeb": 4224,
    "\u2581aaad": 4225,
    "\u2581aaak": 4226,
    "\u25810x3bc": 4227,
    "\u25810xccc": 4228,
    "\u25810x41c4": 4229,
    "\u25810x4c42": 4230,
    "\u25810x9960": 4231,
    "validate": 4232,
    "sessionid": 4233,
    "\u25810x40b7b2": 4234,
    "\u25810x42c0e0": 4235,
    "fxstring39": 4236,
    "\u2581charlower": 4237,
    "\u25810xfeee00b6": 4238,
    "\u25810xfeee00b7": 4239,
    "\u25810xfeee00b8": 4240,
    "\u2581getmenuitem": 4241,
    "\u2581heapvalidate": 4242,
    "\u2581getsystemdefaultlangid": 4243,
    "ba846bb209cc7123ea66397feac0e7f417346d": 4244,
    "012": 4245,
    "526": 4246,
    "7b1": 4247,
    "918": 4248,
    "\u25810xc7": 4249,
    "\u2581call": 4250,
    "\u25810x413": 4251,
    "\u25810x416": 4252,
    "\u2581begin": 4253,
    "\u25810x3f24": 4254,
    "\u25810x42b2": 4255,
    "\u25810x4a80": 4256,
    "\u2581dialog": 4257,
    "\u25810x120af": 4258,
    "\u25810x63000000": 4259,
    "\u25810xfeedf000": 4260,
    "\u25810xfeee00b9": 4261,
    "\u2581getactivewindow": 4262,
    "584": 4263,
    "f84": 4264,
    "trl": 4265,
    "\u25810xd7": 4266,
    "\u25810xdb": 4267,
    "\u25810xde": 4268,
    "\u25810x4aa": 4269,
    "context": 4270,
    "\u25810x40e4": 4271,
    "\u25810x427d": 4272,
    "\u25810x7da8": 4273,
    "\u25810x7da9": 4274,
    "\u25810x54000": 4275,
    "\u2581geticon": 4276,
    "\u25810x46ec80": 4277,
    "\u25810x53c820": 4278,
    "\u2581expanden": 4279,
    "\u25810xfeee00bb": 4280,
    "tokeninformation": 4281,
    "ee2eeb9b9c4f7cf99faebb53570bde23564f2920": 4282,
    "ce5": 4283,
    "ric": 4284,
    "dlg32": 4285,
    "\u25810xbc": 4286,
    "\u2581kill": 4287,
    "etchblt": 4288,
    "\u25810x4450": 4289,
    "\u25810x5284": 4290,
    "\u2581memcpy": 4291,
    "\u25810x20535": 4292,
    "namedpipe": 4293,
    "\u25810x436410": 4294,
    "\u2581killtimer": 4295,
    "\u2581setbkcolor": 4296,
    "memorystatus": 4297,
    "\u2581regqueryvalueexw": 4298,
    "\u2581globalmemorystatus": 4299,
    "\u2581getuserdefaultuilanguage": 4300,
    "200": 4301,
    "984": 4302,
    "det": 4303,
    "wer": 4304,
    "\u2581ric": 4305,
    "ccccc": 4306,
    "\u25810xdf": 4307,
    "\u25810xf7": 4308,
    "\u2581aaac": 4309,
    "\u2581aaap": 4310,
    "\u2581wink": 4311,
    "\u25810x438": 4312,
    "\u25810x40d5": 4313,
    "\u25810x4680": 4314,
    "\u25810x4a60": 4315,
    "\u25810x8410": 4316,
    "\u25810xffaf": 4317,
    "\u25810xffd7": 4318,
    "\u2581riched": 4319,
    "\u25810x436402": 4320,
    "\u25810x523e40": 4321,
    "\u25810xcccccccc": 4322,
    "\u2581writeconsolew": 4323,
    "\u2581invalidaterect": 4324,
    "1155440adb7e48f07834416ce1568f2e454d83b88": 4325,
    "940ba846bb209cc7123ea66397feac0e7f417346d": 4326,
    "e024a6fa334365d95136574b7853cf39214556e1d": 4327,
    "av": 4328,
    "ea8": 4329,
    "new": 4330,
    "1ff0": 4331,
    "447d": 4332,
    "keall": 4333,
    "place": 4334,
    "solec": 4335,
    "\u25810xf8": 4336,
    "\u2581prog": 4337,
    "\u25810x208": 4338,
    "connect": 4339,
    "virtual": 4340,
    "\u25810x41b8": 4341,
    "\u25810x4404": 4342,
    "\u2581wakeall": 4343,
    "\u2581comdlg32": 4344,
    "\u25810x1211e18": 4345,
    "\u25810x1211ed8": 4346,
    "\u25810xfeee00ba": 4347,
    "\u25810xfeee010f": 4348,
    "\u25810xfffffffc": 4349,
    "\u2581globalrealloc": 4350,
    "\u2581module32nextw": 4351,
    "\u2581outputdebugstringw": 4352,
    "\u2581setfileattributesw": 4353,
    "\u2581wakeallconditionvariable": 4354,
    "\u2581initializeconditionvariable": 4355,
    "gro": 4356,
    "mar": 4357,
    "onit": 4358,
    "visi": 4359,
    "\u25810xc2": 4360,
    "\u25810xec": 4361,
    "\u25810xfc": 4362,
    "active": 4363,
    "ocreate": 4364,
    "\u25810x4787": 4365,
    "\u25810x4a40": 4366,
    "\u25810x4ee0": 4367,
    "\u25810x4f00": 4368,
    "\u25810x8330": 4369,
    "\u25810x44180": 4370,
    "\u2581settext": 4371,
    "\u25810x420c60": 4372,
    "\u25810x120f558": 4373,
    "\u25810x1211884": 4374,
    "\u25810x1211e60": 4375,
    "\u25810x1211e64": 4376,
    "\u25810xfeee00bd": 4377,
    "\u25810xfeee00be": 4378,
    "\u2581localrealloc": 4379,
    "\u2581setwindowpos": 4380,
    "19094c49a237e8c1f6f27bffa038803566fa6d63d": 4381,
    "204": 4382,
    "axi": 4383,
    "f78": 4384,
    "sel": 4385,
    "conv": 4386,
    "ow64": 4387,
    "\u25810x488": 4388,
    "\u25810x46e0": 4389,
    "\u25810x7cc0": 4390,
    "\u25810x7dac": 4391,
    "\u25810x7dad": 4392,
    "\u25810x7f02": 4393,
    "\u2581yapaxi": 4394,
    "\u25810x2000ec": 4395,
    "\u25810x3f2000": 4396,
    "\u25810x40a670": 4397,
    "\u25810x1211bfc": 4398,
    "\u2581process32nextw": 4399,
    "\u2581getdateformatex": 4400,
    "\u2581gettokeninformation": 4401,
    "\u2581freeenvironmentstringsa": 4402,
    "64c": 4403,
    "65c": 4404,
    "9e6": 4405,
    "b80": 4406,
    "e88": 4407,
    "6ahi": 4408,
    "glti": 4409,
    "\u2581ate": 4410,
    "\u2581cpp": 4411,
    "\u2581ini": 4412,
    "\u2581isc": 4413,
    "beloc": 4414,
    "decla": 4415,
    "\u25810xef": 4416,
    "\u25810xf1": 4417,
    "\u2581aaab": 4418,
    "\u2581aaah": 4419,
    "\u2581ming": 4420,
    "conven": 4421,
    "redwith": 4422,
    "visible": 4423,
    "\u25810x100b": 4424,
    "\u25810x4216": 4425,
    "\u25810x4238": 4426,
    "\u25810x4ec0": 4427,
    "\u2581atexit": 4428,
    "\u25810x12e00": 4429,
    "\u25810x2e7eb": 4430,
    "\u25810x43f00": 4431,
    "belocated": 4432,
    "debughook": 4433,
    "\u25810x434002": 4434,
    "\u25810x434004": 4435,
    "\u25810x434006": 4436,
    "\u25810x434008": 4437,
    "\u25810x43400a": 4438,
    "\u25810x43400c": 4439,
    "\u25810x43400e": 4440,
    "\u25810x434010": 4441,
    "\u25810x434014": 4442,
    "\u25810x434016": 4443,
    "\u25810x434018": 4444,
    "\u2581cocreate": 4445,
    "\u2581setconso": 4446,
    "convention": 4447,
    "\u25810x1211d8c": 4448,
    "declaredwith": 4449,
    "\u2581cppdebughook": 4450,
    "\u2581gettimeformatex": 4451,
    "callingconvention": 4452,
    "\u2581isvalidlocalename": 4453,
    "\u2581enumsystemlocalesex": 4454,
    "\u2581getuserdefaultlocalename": 4455,
    "gw": 4456,
    "104": 4457,
    "970": 4458,
    "eac": 4459,
    "ine": 4460,
    "run": 4461,
    "\u2581op": 4462,
    "buil": 4463,
    "hort": 4464,
    "\u2581sfc": 4465,
    "picli": 4466,
    "\u25810xe2": 4467,
    "ground": 4468,
    "screen": 4469,
    "\u25810x461": 4470,
    "\u25810x4a5": 4471,
    "\u2581check": 4472,
    "\u25810x4377": 4473,
    "\u25810x5bd4": 4474,
    "\u25810x7ea0": 4475,
    "\u2581calloc": 4476,
    "\u25810x2e7ec": 4477,
    "\u2581sspicli": 4478,
    "\u25810x434012": 4479,
    "\u25810x44c418": 4480,
    "\u25810x61e240": 4481,
    "\u2581getshort": 4482,
    "\u25810x1211e24": 4483,
    "\u25810x1211f0c": 4484,
    "\u25810xfeee00bf": 4485,
    "\u2581fatalerror": 4486,
    "516": 4487,
    "hlp": 4488,
    "\u2581os": 4489,
    "30a6": 4490,
    "acce": 4491,
    "\u25810xf2": 4492,
    "\u2581star": 4493,
    "\u25810x4b6": 4494,
    "\u25810x59e": 4495,
    "\u25810x7c70": 4496,
    "\u25810x7e94": 4497,
    "\u25810x7e95": 4498,
    "\u25810x401000": 4499,
    "\u25810x603cd8": 4500,
    "foreground": 4501,
    "\u2581movefilew": 4502,
    "\u25810xfeee00c0": 4503,
    "\u25810xfeee00c1": 4504,
    "\u25810xfeee00c2": 4505,
    "\u25810xfeee00c3": 4506,
    "\u2581getmessagea": 4507,
    "foregroundwindow": 4508,
    "\u2581waitformultipleob": 4509,
    "\u2581getwindowsdirectoryw": 4510,
    "447dee2eeb9b9c4f7cf99faebb53570bde23564f2920": 4511,
    "7b71155440adb7e48f07834416ce1568f2e454d83b88": 4512,
    "fy": 4513,
    "ly": 4514,
    "3e6": 4515,
    "646": 4516,
    "ana": 4517,
    "bd8": 4518,
    "de4": 4519,
    "for": 4520,
    "gcc": 4521,
    "5560": 4522,
    "ctrl": 4523,
    "dd1c": 4524,
    "\u25810x6a": 4525,
    "\u25810xc4": 4526,
    "\u25810xf3": 4527,
    "\u25810x4025": 4528,
    "\u25810x40de": 4529,
    "\u25810x4e80": 4530,
    "\u25810x7070": 4531,
    "\u25810x8340": 4532,
    "\u25810xd000": 4533,
    "\u2581libgcc": 4534,
    "\u25810x120fa": 4535,
    "\u25810x2e7ed": 4536,
    "\u25810x409389": 4537,
    "\u25810x40938a": 4538,
    "\u25810x4300a8": 4539,
    "\u25810x1000000": 4540,
    "\u25810x1211f10": 4541,
    "\u25810x1211f58": 4542,
    "\u2581translate": 4543,
    "\u25810xfeee00c4": 4544,
    "processorinformation": 4545,
    "\u2581getlogicalprocessorinformation": 4546,
    "7f4": 4547,
    "ort": 4548,
    "\u2581sy": 4549,
    "7000": 4550,
    "block": 4551,
    "stack": 4552,
    "times": 4553,
    "\u25810x5e": 4554,
    "\u25810xce": 4555,
    "\u2581aaam": 4556,
    "\u2581vers": 4557,
    "\u25810x470": 4558,
    "\u2581getob": 4559,
    "\u25810x4041": 4560,
    "\u25810x4106": 4561,
    "\u25810x4867": 4562,
    "\u25810x78c0": 4563,
    "\u25810xffee": 4564,
    "dosdatet": 4565,
    "\u25810x2e7ee": 4566,
    "\u25810x2e7ef": 4567,
    "\u25810x2e7f0": 4568,
    "\u25810x2e7f1": 4569,
    "\u25810x2e7f2": 4570,
    "\u25810x43740": 4571,
    "\u2581getlast": 4572,
    "\u25810x1210e6": 4573,
    "\u25810x1210e7": 4574,
    "\u25810x1210eb": 4575,
    "\u25810x409355": 4576,
    "\u25810x409356": 4577,
    "\u25810x409357": 4578,
    "\u25810x409358": 4579,
    "\u25810x409359": 4580,
    "\u25810x40935a": 4581,
    "\u25810x40935b": 4582,
    "\u25810x40938b": 4583,
    "\u25810x40938c": 4584,
    "\u25810x40938d": 4585,
    "\u25810x40938e": 4586,
    "\u25810x40938f": 4587,
    "\u25810x4093d0": 4588,
    "\u25810x4093d4": 4589,
    "\u25810x4093e1": 4590,
    "\u25810x4093e2": 4591,
    "\u25810x4093e3": 4592,
    "\u25810x4093f5": 4593,
    "\u25810x4093f6": 4594,
    "\u25810x4093f7": 4595,
    "\u25810x409411": 4596,
    "\u25810x409412": 4597,
    "\u25810x409413": 4598,
    "\u25810x409414": 4599,
    "\u25810x409415": 4600,
    "\u25810x409416": 4601,
    "\u25810x409417": 4602,
    "\u25810x40a3e8": 4603,
    "\u25810x40a666": 4604,
    "\u25810x40a668": 4605,
    "\u25810x40a66a": 4606,
    "\u25810x40a66c": 4607,
    "\u25810x40a66e": 4608,
    "\u25810x40a672": 4609,
    "\u25810x412468": 4610,
    "\u25810x430070": 4611,
    "\u25810x44d280": 4612,
    "\u25810x44e500": 4613,
    "\u25810x44edc0": 4614,
    "\u25810x46b1d0": 4615,
    "\u25810x585560": 4616,
    "\u25810x120faa4": 4617,
    "activepopup": 4618,
    "dosdatetime": 4619,
    "windowshook": 4620,
    "\u2581regqueryinfo": 4621,
    "\u2581getwindowrect": 4622,
    "\u2581getlastactivepopup": 4623,
    "\u2581filetimetodosdatetime": 4624,
    "ffa0e024a6fa334365d95136574b7853cf39214556e1d": 4625,
    "lu": 4626,
    "d7a": 4627,
    "guar": 4628,
    "antee": 4629,
    "\u25810xee": 4630,
    "archiv": 4631,
    "\u25810x448": 4632,
    "\u25810x4770": 4633,
    "\u25810x4990": 4634,
    "\u25810x9500": 4635,
    "\u25810x42d40": 4636,
    "\u2581gdiplus": 4637,
    "\u2581handler": 4638,
    "guarantee": 4639,
    "\u25810x4b6288": 4640,
    "\u2581sysalloc": 4641,
    "\u25810x1211ce4": 4642,
    "\u25810x1211f3c": 4643,
    "stackguarantee": 4644,
    "\u2581defwindowproca": 4645,
    "\u2581getstringtypea": 4646,
    "\u2581globalfindatoma": 4647,
    "\u2581setcurrentdirectoryw": 4648,
    "\u2581setthreadstackguarantee": 4649,
    "ty": 4650,
    "140": 4651,
    "40c": 4652,
    "a84": 4653,
    "\u2581dx": 4654,
    "accel": 4655,
    "solid": 4656,
    "\u25810xf9": 4657,
    "output": 4658,
    "parent": 4659,
    "\u25810x20a": 4660,
    "\u25810x42c2": 4661,
    "\u2581device": 4662,
    "\u25810x509e4": 4663,
    "\u25810x7a940": 4664,
    "\u25810x7b340": 4665,
    "tindirect": 4666,
    "\u25810x10005c64": 4667,
    "vironmentblock": 4668,
    "\u2581createfontindirect": 4669,
    "\u2581releasesrwlockexclusive": 4670,
    "ab0940ba846bb209cc7123ea66397feac0e7f417346d": 4671,
    "12c": 4672,
    "32a": 4673,
    "3a0": 4674,
    "3c4": 4675,
    "738": 4676,
    "b00": 4677,
    "d63": 4678,
    "ore": 4679,
    "9d90": 4680,
    "prog": 4681,
    "\u25810x6e": 4682,
    "\u25810x210": 4683,
    "\u25810x439": 4684,
    "\u25810x8f7": 4685,
    "\u2581ntohl": 4686,
    "\u2581opens": 4687,
    "\u25810x41ef": 4688,
    "\u25810x4624": 4689,
    "\u25810x7ce0": 4690,
    "\u25810x7ec4": 4691,
    "\u25810x7ec5": 4692,
    "lientrect": 4693,
    "\u25810x20535e0": 4694,
    "\u2581cocreateinst": 4695,
    "\u2581getclientrect": 4696,
    "\u2581ps": 4697,
    "7680": 4698,
    "idto": 4699,
    "rchr": 4700,
    "\u2581rsa": 4701,
    "b7a54": 4702,
    "buffa": 4703,
    "\u25810xd6": 4704,
    "\u2581aaaa": 4705,
    "\u2581aaaf": 4706,
    "\u2581aaag": 4707,
    "\u2581aaar": 4708,
    "\u2581dxgi": 4709,
    "proper": 4710,
    "\u25810x107": 4711,
    "\u25810x410f": 4712,
    "\u25810x4153": 4713,
    "\u25810x449e": 4714,
    "\u2581rsaenh": 4715,
    "writeptr": 4716,
    "\u2581program": 4717,
    "\u25810x1210f4": 4718,
    "\u25810x434001": 4719,
    "\u25810x434003": 4720,
    "\u25810x434005": 4721,
    "\u25810x434007": 4722,
    "\u25810x434009": 4723,
    "\u25810x43400b": 4724,
    "\u25810x43400d": 4725,
    "\u25810x43400f": 4726,
    "\u25810x434011": 4727,
    "\u25810x434015": 4728,
    "\u25810x434017": 4729,
    "\u25810x1211e68": 4730,
    "\u25810x3020302": 4731,
    "\u2581dxgidebug": 4732,
    "\u2581movefilea": 4733,
    "\u2581setcursor": 4734,
    "\u2581gettextext": 4735,
    "\u2581lcmapstringa": 4736,
    "\u2581isbadwriteptr": 4737,
    "\u2581module32first": 4738,
    "327b71155440adb7e48f07834416ce1568f2e454d83b88": 4739,
    "b7a5419094c49a237e8c1f6f27bffa038803566fa6d63d": 4740,
    "3c7": 4741,
    "66c": 4742,
    "704": 4743,
    "d88": 4744,
    "dc8": 4745,
    "ebc": 4746,
    "ist": 4747,
    "lec": 4748,
    "\u258192": 4749,
    "imer": 4750,
    "\u2581ins": 4751,
    "iocon": 4752,
    "\u25810xca": 4753,
    "\u25810xda": 4754,
    "\u25810xed": 4755,
    "\u25810xfb": 4756,
    "parama": 4757,
    "\u25810x153": 4758,
    "\u25810x202": 4759,
    "\u25810x1810": 4760,
    "\u25810x2804": 4761,
    "\u25810x423b": 4762,
    "\u25810x7730": 4763,
    "\u25810xff90": 4764,
    "\u2581unglti": 4765,
    "\u25810x120ed": 4766,
    "\u2581getdesk": 4767,
    "\u25810x434013": 4768,
    "\u25810x434019": 4769,
    "\u25810x475f5c": 4770,
    "freestring": 4771,
    "\u25810x1211708": 4772,
    "\u25810x1211960": 4773,
    "\u25810x1211fa0": 4774,
    "\u2581cannotopen": 4775,
    "\u2581deviceiocon": 4776,
    "\u2581regdeletevaluea": 4777,
    "\u2581dispatchmessagew": 4778,
    "\u2581getdesktopwindow": 4779,
    "142": 4780,
    "b98": 4781,
    "17fd": 4782,
    "\u2581isw": 4783,
    "\u2581tim": 4784,
    "marta": 4785,
    "\u25810xbd": 4786,
    "\u25810xd1": 4787,
    "\u25810xe6": 4788,
    "\u25810xf4": 4789,
    "erclass": 4790,
    "\u25810x4160": 4791,
    "\u25810x422a": 4792,
    "\u25810x429f": 4793,
    "\u25810x9020": 4794,
    "\u25810x43300": 4795,
    "\u2581ntmarta": 4796,
    "\u25810x43501a": 4797,
    "\u25810x770012": 4798,
    "\u25810x800000": 4799,
    "\u25810x12119a0": 4800,
    "\u25810x1211ef0": 4801,
    "\u2581timecheck": 4802,
    "\u25810x58000000": 4803,
    "\u25810xfeee00c5": 4804,
    "\u25810xfeee00c6": 4805,
    "\u25810xfeee00c7": 4806,
    "\u25810xfeee00c8": 4807,
    "\u25810xfeee00c9": 4808,
    "\u25810xfeee00ca": 4809,
    "\u25810xfeee00cb": 4810,
    "\u2581mapvirtual": 4811,
    "\u2581timecheckerclass": 4812,
    "1bffa0e024a6fa334365d95136574b7853cf39214556e1d": 4813,
    "516ab0940ba846bb209cc7123ea66397feac0e7f417346d": 4814,
    "f07447dee2eeb9b9c4f7cf99faebb53570bde23564f2920": 4815,
    "1c4": 4816,
    "363": 4817,
    "5b0": 4818,
    "bb8": 4819,
    "d5c": 4820,
    "f98": 4821,
    "\u2581ch": 4822,
    "1bec": 4823,
    "98f5": 4824,
    "\u2581ver": 4825,
    "119f3": 4826,
    "309a0": 4827,
    "328e2": 4828,
    "b70ea": 4829,
    "c3ffc": 4830,
    "\u25810xb6": 4831,
    "\u25810xba": 4832,
    "\u25810xc5": 4833,
    "\u25810xfa": 4834,
    "emapho": 4835,
    "\u25810x1b2": 4836,
    "\u25810x378": 4837,
    "\u25810x444": 4838,
    "\u25810x6a6": 4839,
    "9d90bcc": 4840,
    "dd1cd07": 4841,
    "\u25810x3810": 4842,
    "\u25810x40a0": 4843,
    "\u25810x4184": 4844,
    "\u25810x7b80": 4845,
    "\u25810x7db4": 4846,
    "\u25810x7db5": 4847,
    "\u25810x8af0": 4848,
    "\u2581insert": 4849,
    "17fd7680": 4850,
    "\u2581replace": 4851,
    "30a6309a0": 4852,
    "98f5b70ea": 4853,
    "\u25810x61e258": 4854,
    "\u2581createdi": 4855,
    "119f3328e2": 4856,
    "\u25810x1211e20": 4857,
    "\u25810x1211fbc": 4858,
    "\u25810x1211fe4": 4859,
    "9d90bcc1bec": 4860,
    "\u25810x10021ff0": 4861,
    "\u25810x10022020": 4862,
    "c3ffcdd1cd07": 4863,
    "servicehandle": 4864,
    "\u2581sysfreestring": 4865,
    "119f3328e217fd7680": 4866,
    "98f5b70ea30a6309a0": 4867,
    "\u2581sysallocstringlen": 4868,
    "\u2581closeservicehandle": 4869,
    "\u2581systemparametersinfoa": 4870,
    "119f3328e217fd76809d90bcc1bec": 4871,
    "98f5b70ea30a6309a0c3ffcdd1cd07": 4872,
    "98f5b70ea30a6309a0c3ffcdd1cd07119f3328e217fd76809d90bcc1bec": 4873,
    "sh": 4874,
    "1a8": 4875,
    "210": 4876,
    "a4c": 4877,
    "e30": 4878,
    "f5c": 4879,
    "ich": 4880,
    "\u2581kic": 4881,
    "endar": 4882,
    "\u25810xcb": 4883,
    "\u25810xd5": 4884,
    "\u2581aaan": 4885,
    "fileex": 4886,
    "\u25810x2b4": 4887,
    "\u25810x433": 4888,
    "\u25810x12f2": 4889,
    "\u25810x7db1": 4890,
    "calendar": 4891,
    "\u25810x508d0": 4892,
    "\u2581movefil": 4893,
    "solidbrush": 4894,
    "\u25810x1211f40": 4895,
    "\u2581localfilet": 4896,
    "\u2581deviceiocontrol": 4897,
    "\u2581createsolidbrush": 4898,
    "\u2581readprocessmemory": 4899,
    "\u2581localfiletimetofiletime": 4900,
    "ee4b7a5419094c49a237e8c1f6f27bffa038803566fa6d63d": 4901,
    "38c": 4902,
    "fc4": 4903,
    "ted": 4904,
    "tsb": 4905,
    "etcon": 4906,
    "latsb": 4907,
    "lseek": 4908,
    "\u25810xb2": 4909,
    "\u25810xc6": 4910,
    "aaaaaa": 4911,
    "\u2581drayn": 4912,
    "\u25810x58db": 4913,
    "\u25810x7460": 4914,
    "entpoint": 4915,
    "\u25810x22802": 4916,
    "\u25810x528468": 4917,
    "\u25810x61f680": 4918,
    "\u2581imagehlp": 4919,
    "textlength": 4920,
    "\u25810x1211ba8": 4921,
    "\u25810x1211dd8": 4922,
    "\u25810x1211ef4": 4923,
    "\u25810x3010301": 4924,
    "\u2581dialogbox": 4925,
    "\u2581getconsolec": 4926,
    "\u2581enumcalendar": 4927,
    "aaaaaaaaaaaaaa": 4928,
    "\u2581aaaaaaaaaaaaaaaaaa": 4929,
    "\u2581gettextextentpoint": 4930,
    "\u2581getwindowtextlength": 4931,
    "\u2581aaaaaaaaaaaaaaaaaaaaaaaaaaaaaaaa": 4932,
    "pi": 4933,
    "120": 4934,
    "212": 4935,
    "684": 4936,
    "9c1": 4937,
    "cqa": 4938,
    "dd8": 4939,
    "typ": 4940,
    "usp": 4941,
    "dc68": 4942,
    "esid": 4943,
    "lecs": 4944,
    "ected": 4945,
    "emenu": 4946,
    "propa": 4947,
    "\u25810xb1": 4948,
    "\u25810x4030": 4949,
    "\u25810x42a5": 4950,
    "\u25810x4c90": 4951,
    "\u25810x74d0": 4952,
    "\u25810x509a8": 4953,
    "\u25810x50e10": 4954,
    "\u2581allocate": 4955,
    "\u2581sleepcon": 4956,
    "ditionmask": 4957,
    "\u25810x1211738": 4958,
    "\u25810x1211f48": 4959,
    "\u2581versetcon": 4960,
    "andinitializ": 4961,
    "\u2581getmessagew": 4962,
    "\u2581readconsole": 4963,
    "\u2581getstringtyp": 4964,
    "\u2581regsetvalueexw": 4965,
    "andinitializesid": 4966,
    "ditionvariablecs": 4967,
    "\u2581translatemessage": 4968,
    "\u2581versetconditionmask": 4969,
    "\u2581allocateandinitializesid": 4970,
    "\u2581sleepconditionvariablecs": 4971,
    "3fa327b71155440adb7e48f07834416ce1568f2e454d83b88": 4972,
    "89f07447dee2eeb9b9c4f7cf99faebb53570bde23564f2920": 4973,
    "ws": 4974,
    "218": 4975,
    "290": 4976,
    "720": 4977,
    "76b": 4978,
    "b58": 4979,
    "bar": 4980,
    "e08": 4981,
    "\u2581ma": 4982,
    "ress": 4983,
    "\u25817zs": 4984,
    "\u2581pro": 4985,
    "\u25810xbb": 4986,
    "\u25810xc1": 4987,
    "\u25810xc9": 4988,
    "\u25810xd9": 4989,
    "\u25810xe1": 4990,
    "\u2581endd": 4991,
    "\u25810x532": 4992,
    "\u25810x4033": 4993,
    "\u25810x4150": 4994,
    "\u25810x419b": 4995,
    "\u25810x4292": 4996,
    "\u25810x451f": 4997,
    "\u25810x45d3": 4998,
    "\u25810xf003f": 4999,
    "\u2581msvcr71": 5000,
    "atomnamea": 5001,
    "\u25810x40e558": 5002,
    "\u25810x42b410": 5003,
    "\u25810xffffff": 5004,
    "\u25810x1211e54": 5005,
    "\u2581setbkmode": 5006,
    "\u25810xfeee00da": 5007,
    "\u2581snapmodule": 5008,
    "\u2581settextcolor": 5009,
    "\u2581shgetfileinfow": 5010,
    "\u2581setthreadpreferreduilanguages": 5011,
    "ms": 5012,
    "1de": 5013,
    "650": 5014,
    "d4c": 5015,
    "\u2581sw": 5016,
    "ee08": 5017,
    "hild": 5018,
    "selfc": 5019,
    "\u25810xf6": 5020,
    "\u2581aaas": 5021,
    "anager": 5022,
    "\u25810x130": 5023,
    "\u25810x4175": 5024,
    "\u25810x4295": 5025,
    "\u25810x42ad": 5026,
    "\u25810x4754": 5027,
    "\u25810x4d50": 5028,
    "\u25810x573c": 5029,
    "\u25810x574c": 5030,
    "\u25810x9560": 5031,
    "archivec": 5032,
    "register": 5033,
    "\u25810x43680": 5034,
    "\u2581msvcr80": 5035,
    "\u25810x1210f6": 5036,
    "\u25810x42a1a8": 5037,
    "\u25810x42a1c0": 5038,
    "\u25810x42c070": 5039,
    "\u25810x42c0a8": 5040,
    "\u25810x43a4b0": 5041,
    "\u25810x460658": 5042,
    "\u25810x461548": 5043,
    "\u25810x1211e78": 5044,
    "\u25810x1211eb0": 5045,
    "\u25810xfeee00cc": 5046,
    "\u25810xfeee00cd": 5047,
    "\u25810xfeee00ce": 5048,
    "uninitialize": 5049,
    "\u2581enablewindow": 5050,
    "\u2581cannotopenselfc": 5051,
    "\u2581writeprivateprofilestringa": 5052,
    "db21bffa0e024a6fa334365d95136574b7853cf39214556e1d": 5053,
    "1889f07447dee2eeb9b9c4f7cf99faebb53570bde23564f2920": 5054,
    "el": 5055,
    "958": 5056,
    "98c": 5057,
    "a44": 5058,
    "ae9": 5059,
    "bc8": 5060,
    "d84": 5061,
    "fa0": 5062,
    "draw": 5063,
    "\u2581bit": 5064,
    "\u25810xb5": 5065,
    "\u25810xdd": 5066,
    "\u2581fill": 5067,
    "\u25810x12f0": 5068,
    "\u25810x4060": 5069,
    "\u25810x40e2": 5070,
    "\u25810x4244": 5071,
    "\u25810x42e3": 5072,
    "\u25810x4900": 5073,
    "\u25810x4a70": 5074,
    "\u25810x7a10": 5075,
    "\u2581sybase": 5076,
    "\u25810x12113": 5077,
    "\u2581appendw": 5078,
    "\u25810x100012": 5079,
    "\u25810x44eef0": 5080,
    "\u25810x12110fc": 5081,
    "\u25810x1211e88": 5082,
    "\u25810xfeee00cf": 5083,
    "\u2581getconsolecp": 5084,
    "\u2581lookupprivilegevaluea": 5085,
    "\u2581getfileinformationbyhandle": 5086,
    "2e0": 5087,
    "56c": 5088,
    "6d7": 5089,
    "b20": 5090,
    "d3c": 5091,
    "ico": 5092,
    "0022": 5093,
    "002a": 5094,
    "002e": 5095,
    "ange": 5096,
    "inki": 5097,
    "\u25810xe9": 5098,
    "\u2581rect": 5099,
    "device": 5100,
    "\u25810x1b5": 5101,
    "\u25810x538": 5102,
    "\u25810x4840": 5103,
    "\u25810x7c40": 5104,
    "\u25810x7ef0": 5105,
    "detected": 5106,
    "\u25810x10012": 5107,
    "\u25810x2e7f3": 5108,
    "\u25810x1210d1": 5109,
    "\u25810x1210e5": 5110,
    "\u25810x40851b": 5111,
    "\u25810x40851c": 5112,
    "\u25810x40a3f8": 5113,
    "\u25810x423590": 5114,
    "\u25810x43501c": 5115,
    "\u25810x43501e": 5116,
    "\u25810x435020": 5117,
    "\u25810x435022": 5118,
    "\u25810x435028": 5119,
    "\u25810x43502a": 5120,
    "\u25810x43502c": 5121,
    "\u25810x43502e": 5122,
    "\u25810x435030": 5123,
    "orarchivec": 5124,
    "\u25810x1210e34": 5125,
    "\u25810x1211b8c": 5126,
    "\u25810x1211d5a": 5127,
    "\u25810x1211f08": 5128,
    "\u25810x3781000": 5129,
    "\u2581beginpaint": 5130,
    "\u2581tsldrl6664": 5131,
    "\u2581regopenkeya": 5132,
    "\u2581getenhmetafile": 5133,
    "\u2581fatalerrordetected": 5134,
    "aac516ab0940ba846bb209cc7123ea66397feac0e7f417346d": 5135,
    "183fa327b71155440adb7e48f07834416ce1568f2e454d83b88": 5136,
    "b1ee4b7a5419094c49a237e8c1f6f27bffa038803566fa6d63d": 5137,
    "35db21bffa0e024a6fa334365d95136574b7853cf39214556e1d": 5138,
    "b50": 5139,
    "d34": 5140,
    "dac": 5141,
    "e38": 5142,
    "rew": 5143,
    "thr": 5144,
    "4040": 5145,
    "hash": 5146,
    "host": 5147,
    "init": 5148,
    "\u25810xb9": 5149,
    "\u25810xc3": 5150,
    "\u25810xf5": 5151,
    "\u2581gthr": 5152,
    "\u2581susp": 5153,
    "program": 5154,
    "\u25810x3aea": 5155,
    "\u25810x4050": 5156,
    "\u25810x40d4": 5157,
    "\u25810x42ea": 5158,
    "\u25810x4634": 5159,
    "\u25810x57b7": 5160,
    "\u25810x71c0": 5161,
    "\u25810x7dc0": 5162,
    "\u25810x8e90": 5163,
    "\u2581mingw32": 5164,
    "\u2581suspend": 5165,
    "\u25810x1210e1": 5166,
    "\u25810x4184c0": 5167,
    "\u25810x4195f0": 5168,
    "\u25810x419620": 5169,
    "\u25810x43c310": 5170,
    "\u25810x44c9b0": 5171,
    "\u25810x44c9f0": 5172,
    "\u25810x77002d": 5173,
    "\u25810x1211cc8": 5174,
    "\u2581libgccw32": 5175,
    "\u25810x20000000": 5176,
    "\u25810xfeee00d0": 5177,
    "\u25810xfeee00d8": 5178,
    "\u2581shellexecutea": 5179,
    "\u2581suspendthread": 5180,
    "\u2581createsemaphorea": 5181,
    "\u2581getkeyboardlayout": 5182,
    "md": 5183,
    "978": 5184,
    "f75": 5185,
    "nam": 5186,
    "ansi": 5187,
    "imag": 5188,
    "\u25810x184": 5189,
    "\u25810x42e": 5190,
    "\u25810x43e4": 5191,
    "\u25810x46bd": 5192,
    "\u25810x46d1": 5193,
    "\u25810x7cb0": 5194,
    "\u25810x84b0": 5195,
    "\u25810x85d0": 5196,
    "\u25810x8820": 5197,
    "flushkey": 5198,
    "\u25810x7bf80": 5199,
    "\u25810x42b402": 5200,
    "\u25810x4540e0": 5201,
    "\u2581deletedc": 5202,
    "\u2581endpaint": 5203,
    "\u25810x12118d8": 5204,
    "\u25810xfeee00d6": 5205,
    "\u25810xfeee00d9": 5206,
    "\u2581findwindoww": 5207,
    "\u2581regflushkey": 5208,
    "a1aac516ab0940ba846bb209cc7123ea66397feac0e7f417346d": 5209,
    "80b1ee4b7a5419094c49a237e8c1f6f27bffa038803566fa6d63d": 5210,
    "306": 5211,
    "446": 5212,
    "563": 5213,
    "6a0": 5214,
    "d65": 5215,
    "3096": 5216,
    "5d14": 5217,
    "e0a5": 5218,
    "\u2581437": 5219,
    "\u2581afx": 5220,
    "\u2581zip": 5221,
    "param": 5222,
    "specw": 5223,
    "\u25810x4de": 5224,
    "\u25810x5a1": 5225,
    "\u25810x40e0": 5226,
    "\u25810x40e7": 5227,
    "\u25810xff91": 5228,
    "\u2581llseek": 5229,
    "\u2581varian": 5230,
    "\u2581iswow64": 5231,
    "\u25810x4533d8": 5232,
    "\u25810x5bd4a8": 5233,
    "\u25810x8f7ab8": 5234,
    "\u2581safearray": 5235,
    "\u25810xfeee00d1": 5236,
    "\u25810xfeee00d2": 5237,
    "\u25810xfeee00d3": 5238,
    "\u2581getfiletime": 5239,
    "\u2581iswow64process": 5240,
    "\u2581createcompatibledc": 5241,
    "110": 5242,
    "160": 5243,
    "68c": 5244,
    "921": 5245,
    "ace": 5246,
    "f70": 5247,
    "f90": 5248,
    "fe8": 5249,
    "copy": 5250,
    "clipr": 5251,
    "icows": 5252,
    "\u25810xe5": 5253,
    "ce0000": 5254,
    "\u25810x411": 5255,
    "\u25810x1814": 5256,
    "\u25810x42d0": 5257,
    "\u25810x4a30": 5258,
    "\u25810x7c16": 5259,
    "\u25810x8310": 5260,
    "\u25810x8df0": 5261,
    "\u25810xf000": 5262,
    "\u2581bitblt": 5263,
    "\u2581unicows": 5264,
    "\u25810x1210ed": 5265,
    "\u25810x1210f0": 5266,
    "\u25810x1210f2": 5267,
    "\u25810x1210f5": 5268,
    "\u25810x41f768": 5269,
    "\u25810x41f7b0": 5270,
    "\u25810x41f7c8": 5271,
    "\u25810x41f7e0": 5272,
    "\u25810x53e020": 5273,
    "\u25810x7ee001": 5274,
    "\u25810x7ee002": 5275,
    "\u25810x7ee003": 5276,
    "\u25810x7ee004": 5277,
    "\u25810x7ee005": 5278,
    "\u25810x7ee006": 5279,
    "\u25810x7ee007": 5280,
    "\u25810x7ee008": 5281,
    "\u25810x7ee009": 5282,
    "\u25810x7ee00a": 5283,
    "\u25810x7ee00b": 5284,
    "\u25810x7ee00c": 5285,
    "\u25810x7ee00d": 5286,
    "\u25810x7ee00e": 5287,
    "\u25810x7ee00f": 5288,
    "\u25810x7ee010": 5289,
    "\u25810x7ee011": 5290,
    "\u25810x7ee012": 5291,
    "\u25810x7ee013": 5292,
    "\u25810x7ee014": 5293,
    "\u25810x7ee015": 5294,
    "\u25810x7ee016": 5295,
    "\u25810x7ee017": 5296,
    "\u25810x7ee018": 5297,
    "\u25810x7ee019": 5298,
    "\u25810xfeee00d4": 5299,
    "\u25810xfeee00d5": 5300,
    "\u25810xfeee00db": 5301,
    "\u2581sfxstring39": 5302,
    "\u2581shellexecutew": 5303,
    "b9183fa327b71155440adb7e48f07834416ce1568f2e454d83b88": 5304,
    "407": 5305,
    "5e8": 5306,
    "768": 5307,
    "9b8": 5308,
    "e50": 5309,
    "ea4": 5310,
    "ec4": 5311,
    "ign": 5312,
    "\u2581he": 5313,
    "72d0": 5314,
    "90aa": 5315,
    "f000": 5316,
    "\u2581rec": 5317,
    "\u2581try": 5318,
    "\u25810xfd": 5319,
    "\u25810x13e": 5320,
    "\u2581wsast": 5321,
    "\u25810x4015": 5322,
    "\u25810x411b": 5323,
    "\u25810x4236": 5324,
    "\u25810x4500": 5325,
    "\u25810x4780": 5326,
    "\u25810x4c00": 5327,
    "\u25810x5a64": 5328,
    "\u25810x7db8": 5329,
    "\u25810x7db9": 5330,
    "\u25810x7ea4": 5331,
    "\u25810x8ae0": 5332,
    "\u25810x42a400": 5333,
    "\u25810x45d340": 5334,
    "\u25810x58db80": 5335,
    "\u25810x1211438": 5336,
    "\u25810x1211a3c": 5337,
    "\u25810x1211f6c": 5338,
    "\u25810x1211fb0": 5339,
    "\u25810x6ce0000": 5340,
    "\u2581dllonexit": 5341,
    "\u2581removefile": 5342,
    "\u2581wsastartup": 5343,
    "\u2581regdeletekeya": 5344,
    "\u2581dispatchmessagea": 5345,
    "\u2581gettempfilenamew": 5346,
    "\u2581setfileinformationbyhandlew": 5347,
    "\u2581getfileinformationbyhandleexw": 5348,
    "338": 5349,
    "380": 5350,
    "664": 5351,
    "9c0": 5352,
    "a3f": 5353,
    "aa5": 5354,
    "f88": 5355,
    "mov": 5356,
    "msg": 5357,
    "sul": 5358,
    "toc": 5359,
    "ual": 5360,
    "\u258110": 5361,
    "\u258115": 5362,
    "sult": 5363,
    "\u25810x147": 5364,
    "\u25810x242": 5365,
    "\u25810x716": 5366,
    "\u2581getdi": 5367,
    "\u25810x4425": 5368,
    "\u25810x45d5": 5369,
    "\u25810x7620": 5370,
    "\u25810x7b60": 5371,
    "\u25810x8b50": 5372,
    "cmanager": 5373,
    "\u25810xcf0000": 5374,
    "\u2581riched20": 5375,
    "lectrlhandler": 5376,
    "\u2581openscmanager": 5377,
    "\u2581createsemaphorew": 5378,
    "\u2581setconsolectrlhandler": 5379,
    "7b135db21bffa0e024a6fa334365d95136574b7853cf39214556e1d": 5380,
    "93b9183fa327b71155440adb7e48f07834416ce1568f2e454d83b88": 5381,
    "2c2": 5382,
    "386": 5383,
    "d10": 5384,
    "eb3": 5385,
    "ff4": 5386,
    "pix": 5387,
    "\u2581ls": 5388,
    "005c": 5389,
    "\u2581oem": 5390,
    "\u25810526": 5391,
    "buffer": 5392,
    "malloc": 5393,
    "tochar": 5394,
    "\u25810x204": 5395,
    "\u25810x238": 5396,
    "\u25810x1075": 5397,
    "\u25810x7dc8": 5398,
    "\u25810x7e9c": 5399,
    "\u25810x7ead": 5400,
    "\u25810x7eb0": 5401,
    "\u25810x9910": 5402,
    "\u2581flatsb": 5403,
    "itthread": 5404,
    "\u258105265d14": 5405,
    "\u25810x1210e3": 5406,
    "\u25810x1210ea": 5407,
    "\u25810x415ea0": 5408,
    "\u25810x43a480": 5409,
    "imagecount": 5410,
    "\u25810x1211dc4": 5411,
    "\u25810x1211eb8": 5412,
    "\u2581charprevw": 5413,
    "\u2581oemtochar": 5414,
    "\u2581unregister": 5415,
    "\u2581peekmessagea": 5416,
    "\u2581removefilespecw": 5417,
    "\u2581writeprocessmemory": 5418,
    "1e0": 5419,
    "94c": 5420,
    "b04": 5421,
    "d30": 5422,
    "f8c": 5423,
    "fc2": 5424,
    "rac": 5425,
    "the": 5426,
    "\u258111": 5427,
    "3a68": 5428,
    "47dd": 5429,
    "6202": 5430,
    "a5bc": 5431,
    "ream": 5432,
    "11f54": 5433,
    "9e69d": 5434,
    "d4013": 5435,
    "dc6a3": 5436,
    "pixel": 5437,
    "\u25818754": 5438,
    "\u2581hels": 5439,
    "\u2581this": 5440,
    "\u2581work": 5441,
    "2127b0": 5442,
    "\u25810x118": 5443,
    "\u25810x43b": 5444,
    "\u25810x544": 5445,
    "\u2581opent": 5446,
    "30965bc": 5447,
    "47ddd7a": 5448,
    "\u25810x4110": 5449,
    "\u25810x43b4": 5450,
    "\u25810x43ef": 5451,
    "\u25810x70e0": 5452,
    "\u25810x7e98": 5453,
    "\u25810x7e99": 5454,
    "\u25810x7e9d": 5455,
    "\u25810x7ea1": 5456,
    "\u25810x7ea5": 5457,
    "\u25810x7ea8": 5458,
    "\u25810x7ea9": 5459,
    "\u25810x7eac": 5460,
    "\u25810x7eb1": 5461,
    "\u25810x7eb4": 5462,
    "\u25810x7eb5": 5463,
    "\u25810x7eb8": 5464,
    "\u25810x7eb9": 5465,
    "3a684040": 5466,
    "\u25810x5265d": 5467,
    "\u2581strrchr": 5468,
    "d401390aa": 5469,
    "e0a511f54": 5470,
    "plication": 5471,
    "\u25810x42901a": 5472,
    "\u25810x42e360": 5473,
    "\u2581helsinki": 5474,
    "2127b06202": 5475,
    "\u25810x120cbdc": 5476,
    "\u25810x1210e20": 5477,
    "\u25810x1211904": 5478,
    "\u25810xfeee00dc": 5479,
    "\u2581openthread": 5480,
    "47ddd7a9e69d": 5481,
    "dc6a330965bc": 5482,
    "\u2581destroyicon": 5483,
    "\u258187542127b06202": 5484,
    "\u2581module32firstw": 5485,
    "e0a511f54d401390aa": 5486,
    "3a684040dc6a330965bc": 5487,
    "e0a511f54d401390aa47ddd7a9e69d": 5488,
    "\u258187542127b062023a684040dc6a330965bc": 5489,
    "72d0a1aac516ab0940ba846bb209cc7123ea66397feac0e7f417346d": 5490,
    "d90": 5491,
    "f28": 5492,
    "f60": 5493,
    "\u2581ie": 5494,
    "c37c": 5495,
    "enuhi": 5496,
    "ocket": 5497,
    "6d7363": 5498,
    "\u25810x11c": 5499,
    "\u25810x182": 5500,
    "\u25810x7bc": 5501,
    "listmsg": 5502,
    "\u25810x1288": 5503,
    "\u25810x2f08": 5504,
    "\u25810x4013": 5505,
    "\u25810x41ec": 5506,
    "\u25810x41f4": 5507,
    "\u25810x4720": 5508,
    "\u25810x7ebc": 5509,
    "\u25810x7ebd": 5510,
    "\u25810x89e0": 5511,
    "\u2581menuhi": 5512,
    "ervicect": 5513,
    "\u2581gethost": 5514,
    "\u25810x181bc0": 5515,
    "\u25810x407bba": 5516,
    "\u25810x44ef08": 5517,
    "\u25810x57b738": 5518,
    "\u2581commctrl": 5519,
    "\u25810x1211ed0": 5520,
    "\u25810x10009380": 5521,
    "\u25810xe06d7363": 5522,
    "\u25810xfeee00dd": 5523,
    "\u25810xfeee00de": 5524,
    "\u2581draglistmsg": 5525,
    "\u2581menuhistroy": 5526,
    "\u2581regenumkeyexa": 5527,
    "\u2581setwindowtexta": 5528,
    "ml": 5529,
    "rn": 5530,
    "5cc": 5531,
    "95b": 5532,
    "9a8": 5533,
    "aa0": 5534,
    "ac4": 5535,
    "e58": 5536,
    "f7c": 5537,
    "gen": 5538,
    "ned": 5539,
    "rup": 5540,
    "\u2581ta": 5541,
    "001c": 5542,
    "\u2581fil": 5543,
    "25712": 5544,
    "bcolor": 5545,
    "querys": 5546,
    "rupted": 5547,
    "\u25810x437": 5548,
    "\u25810xaca": 5549,
    "ecannot": 5550,
    "semapho": 5551,
    "\u25810x4021": 5552,
    "\u25810x40b1": 5553,
    "\u25810x4310": 5554,
    "\u25810x44e8": 5555,
    "\u25810x4868": 5556,
    "\u25810x4d63": 5557,
    "\u25810x53a5": 5558,
    "\u25810x8828": 5559,
    "\u25810x8ad0": 5560,
    "\u25810x8cf0": 5561,
    "dresourc": 5562,
    "\u25810x120de": 5563,
    "\u25810x120fd": 5564,
    "\u25810x4067c": 5565,
    "\u25810x47c00": 5566,
    "\u25810x48800": 5567,
    "semaphore": 5568,
    "\u25810x1210f3": 5569,
    "\u25810x181b70": 5570,
    "\u25810x407bb9": 5571,
    "\u25810x40de88": 5572,
    "\u25810x41b868": 5573,
    "\u25810x422f20": 5574,
    "\u25810x44d418": 5575,
    "\u25810x50db10": 5576,
    "\u2581arequire": 5577,
    "\u25810x1210834": 5578,
    "\u25810x1211ba4": 5579,
    "\u25810x1211d5b": 5580,
    "\u2581enddialog": 5581,
    "\u2581lstrcmpiw": 5582,
    "\u2581tsldrl6662": 5583,
    "dresourcecannot": 5584,
    "\u2581mapvirtualkeyw": 5585,
    "\u2581releasesemaphore": 5586,
    "\u2581enumcalendarinfoa": 5587,
    "dresourcecannotbelocated": 5588,
    "\u2581arequiredresourcecannotbelocated": 5589,
    "257121889f07447dee2eeb9b9c4f7cf99faebb53570bde23564f2920": 5590,
    "65c80b1ee4b7a5419094c49a237e8c1f6f27bffa038803566fa6d63d": 5591,
    "97b135db21bffa0e024a6fa334365d95136574b7853cf39214556e1d": 5592,
    "ig": 5593,
    "30c": 5594,
    "be0": 5595,
    "fd0": 5596,
    "\u258142": 5597,
    "aret": 5598,
    "chto": 5599,
    "quit": 5600,
    "alize": 5601,
    "ectex": 5602,
    "extex": 5603,
    "speci": 5604,
    "\u2581evie": 5605,
    "\u2581swit": 5606,
    "\u25810x310": 5607,
    "\u25810x5ff": 5608,
    "\u2581lopen": 5609,
    "\u25810x4100": 5610,
    "\u25810x41d7": 5611,
    "\u25810x4233": 5612,
    "\u25810x4406": 5613,
    "\u25810x44aa": 5614,
    "\u25810x4860": 5615,
    "\u25810x7260": 5616,
    "\u25810x8430": 5617,
    "\u25810x40aba": 5618,
    "popupmenu": 5619,
    "\u25810x44c9c8": 5620,
    "\u25810x44ca08": 5621,
    "\u25810x4533f0": 5622,
    "\u2581postquit": 5623,
    "\u2581switchto": 5624,
    "\u25810xfeee00df": 5625,
    "\u25810xfeee00e0": 5626,
    "\u25810xfeee00e1": 5627,
    "\u25810xfeee00e2": 5628,
    "\u25810xfeee00e3": 5629,
    "\u25810xfeee00e4": 5630,
    "\u2581shgetmalloc": 5631,
    "\u2581getdrivetypew": 5632,
    "\u2581postquitmessage": 5633,
    "\u2581getthreadcontext": 5634,
    "\u2581createcompatiblebitmap": 5635,
    "no": 5636,
    "36c": 5637,
    "5b8": 5638,
    "979": 5639,
    "a6c": 5640,
    "b10": 5641,
    "da8": 5642,
    "fb8": 5643,
    "\u2581cq": 5644,
    "\u2581py": 5645,
    "3a24": 5646,
    "9078": 5647,
    "a6cc": 5648,
    "apis": 5649,
    "prec": 5650,
    "qual": 5651,
    "thon": 5652,
    "\u2581env": 5653,
    "\u2581vie": 5654,
    "aller": 5655,
    "lease": 5656,
    "\u258112e9": 5657,
    "\u25814142": 5658,
    "\u258141de": 5659,
    "\u258192ec": 5660,
    "\u2581aca7": 5661,
    "eexist": 5662,
    "\u25810x4ed": 5663,
    "\u25810x700": 5664,
    "entryto": 5665,
    "\u25810x1824": 5666,
    "\u25810x408c": 5667,
    "\u25810x415f": 5668,
    "\u25810x4484": 5669,
    "\u25810x89c0": 5670,
    "\u25810x8f00": 5671,
    "\u25810x8f20": 5672,
    "\u25810x8f30": 5673,
    "a5bcc37c": 5674,
    "apisansi": 5675,
    "\u25810x42c40": 5676,
    "\u25810x44040": 5677,
    "\u25810x59e40": 5678,
    "\u2581arefile": 5679,
    "\u25810x4540b0": 5680,
    "\u25810x45d560": 5681,
    "\u2581aca73a24": 5682,
    "\u25810x12110a8": 5683,
    "\u25810x1211a68": 5684,
    "\u25810x1211da4": 5685,
    "\u2581copyfilew": 5686,
    "\u2581fileexist": 5687,
    "entrytodata": 5688,
    "querysystem": 5689,
    "\u25810xfeee00e5": 5690,
    "\u258141dea5bcc37c": 5691,
    "\u2581getsystemmenu": 5692,
    "\u2581imagedirectory": 5693,
    "\u2581arefileapisansi": 5694,
    "\u2581menuhistroyname": 5695,
    "\u2581cocreateinstance": 5696,
    "querysysteminformation": 5697,
    "\u2581imagedirectoryentrytodata": 5698,
    "da93b9183fa327b71155440adb7e48f07834416ce1568f2e454d83b88": 5699,
    "ed257121889f07447dee2eeb9b9c4f7cf99faebb53570bde23564f2920": 5700,
    "tz": 5701,
    "1ec": 5702,
    "350": 5703,
    "3c6": 5704,
    "78c": 5705,
    "aa6": 5706,
    "ac8": 5707,
    "ae0": 5708,
    "b21": 5709,
    "eas": 5710,
    "ecc": 5711,
    "fc0": 5712,
    "\u258167": 5713,
    "\u258175": 5714,
    "\u2581low": 5715,
    "\u2581new": 5716,
    "enter": 5717,
    "iseas": 5718,
    "displa": 5719,
    "visual": 5720,
    "\u25810x45c": 5721,
    "\u25810x574": 5722,
    "\u2581track": 5723,
    "\u25810x42e4": 5724,
    "\u25810x4d40": 5725,
    "\u25810xfff2": 5726,
    "preciseas": 5727,
    "\u25810x40b750": 5728,
    "\u25810x4150e0": 5729,
    "\u2581isdialog": 5730,
    "\u2581setfocus": 5731,
    "\u25810xfeee0141": 5732,
    "\u2581myarg1myarg2": 5733,
    "\u2581regenumkeyexw": 5734,
    "preciseasfiletime": 5735,
    "\u2581getfileattributes": 5736,
    "\u2581getsystemtimepreciseasfiletime": 5737,
    "d09": 5738,
    "edu": 5739,
    "\u2581zw": 5740,
    "0010": 5741,
    "0012": 5742,
    "0030": 5743,
    "0054": 5744,
    "nrun": 5745,
    "\u2581net": 5746,
    "incor": 5747,
    "\u25810x3f4": 5748,
    "\u25810x43a": 5749,
    "\u25810x43c": 5750,
    "\u25810x568": 5751,
    "\u25810x5a2": 5752,
    "procedu": 5753,
    "\u25810x40f5": 5754,
    "\u25810x41e4": 5755,
    "\u25810x4280": 5756,
    "\u25810x7310": 5757,
    "\u25810x73d0": 5758,
    "\u25810x75b0": 5759,
    "\u25810x40c75": 5760,
    "\u2581creater": 5761,
    "\u2581zipnrun": 5762,
    "\u25810x407629": 5763,
    "\u25810x40762a": 5764,
    "\u25810x40762b": 5765,
    "\u25810x40762c": 5766,
    "\u25810x40762d": 5767,
    "\u25810x40762e": 5768,
    "\u25810x40762f": 5769,
    "\u25810x409335": 5770,
    "\u25810x409336": 5771,
    "\u25810x409337": 5772,
    "\u25810x409338": 5773,
    "\u25810x409339": 5774,
    "\u25810x40933a": 5775,
    "\u25810x40933b": 5776,
    "\u25810x4093cd": 5777,
    "\u25810x4093ce": 5778,
    "\u25810x4093cf": 5779,
    "\u25810x4093d5": 5780,
    "\u25810x4093d6": 5781,
    "\u25810x4093d7": 5782,
    "\u25810x4093e0": 5783,
    "\u25810x4093ed": 5784,
    "\u25810x4093ee": 5785,
    "\u25810x4093ef": 5786,
    "\u25810x409431": 5787,
    "\u25810x409432": 5788,
    "\u25810x409433": 5789,
    "\u25810x409434": 5790,
    "\u25810x409435": 5791,
    "\u25810x409436": 5792,
    "\u25810x409437": 5793,
    "\u25810x40957c": 5794,
    "\u25810x40958c": 5795,
    "\u25810x40a5cc": 5796,
    "\u25810x40a5dc": 5797,
    "\u25810x40b3de": 5798,
    "\u25810x40b3e6": 5799,
    "\u25810x40b74e": 5800,
    "\u25810x40b752": 5801,
    "\u25810x40b754": 5802,
    "\u25810x40b756": 5803,
    "\u25810x40b758": 5804,
    "\u25810x40b75a": 5805,
    "\u25810x4153a0": 5806,
    "\u25810x450000": 5807,
    "\u25810x4606a0": 5808,
    "\u25810x4634e8": 5809,
    "\u2581dosdatet": 5810,
    "\u25810x120f878": 5811,
    "\u25810x121085c": 5812,
    "\u25810x7bc00000": 5813,
    "\u25810xfeee00e6": 5814,
    "\u25810xfeee00e7": 5815,
    "\u25810xfeee00e8": 5816,
    "\u25810xfeee00e9": 5817,
    "\u2581setconsole": 5818,
    "\u2581movefileexa": 5819,
    "\u2581dosdatetimetofiletime": 5820,
    "26c97b135db21bffa0e024a6fa334365d95136574b7853cf39214556e1d": 5821,
    "66372d0a1aac516ab0940ba846bb209cc7123ea66397feac0e7f417346d": 5822,
    "444": 5823,
    "570": 5824,
    "5a0": 5825,
    "64b": 5826,
    "929": 5827,
    "df2": 5828,
    "e4c": 5829,
    "ed0": 5830,
    "f17": 5831,
    "f73": 5832,
    "rag": 5833,
    "ung": 5834,
    "\u258116": 5835,
    "002c": 5836,
    "def0": 5837,
    "hell": 5838,
    "20382": 5839,
    "leave": 5840,
    "monit": 5841,
    "\u2581data": 5842,
    "indrag": 5843,
    "\u25810x2d4": 5844,
    "\u25810x426": 5845,
    "\u25810x684": 5846,
    "\u2581getbk": 5847,
    "\u2581power": 5848,
    "monitor": 5849,
    "\u25810x4174": 5850,
    "\u25810x4189": 5851,
    "\u25810x4635": 5852,
    "\u25810x47f0": 5853,
    "\u25810x4f98": 5854,
    "\u25810x5265": 5855,
    "\u25810x85a0": 5856,
    "\u25810x8ba0": 5857,
    "\u25810x8ce0": 5858,
    "\u25810x8f80": 5859,
    "\u2581enddrag": 5860,
    "vieworgex": 5861,
    "\u25810x4289c0": 5862,
    "\u25810x450aa8": 5863,
    "\u2581dragmove": 5864,
    "\u25810x1211b90": 5865,
    "\u25810x1211f4c": 5866,
    "\u25810x3820382": 5867,
    "\u2581begindrag": 5868,
    "\u2581dragenter": 5869,
    "\u2581dragleave": 5870,
    "\u2581getparent": 5871,
    "\u2581powerbuil": 5872,
    "\u25810x10021f60": 5873,
    "\u25810x10021fd8": 5874,
    "\u25810xfeee00ea": 5875,
    "\u25810xfeee00eb": 5876,
    "\u25810xfeee00ec": 5877,
    "\u25810xfeee00f1": 5878,
    "\u25810xfeee00f4": 5879,
    "\u25810xfeee00f6": 5880,
    "\u25810xfeee00f7": 5881,
    "\u2581readconsolew": 5882,
    "\u2581getshortnamea": 5883,
    "\u2581getstringtypeexa": 5884,
    "\u2581getwindowtextlengtha": 5885,
    "305": 5886,
    "682": 5887,
    "906": 5888,
    "af8": 5889,
    "b62": 5890,
    "df8": 5891,
    "e40": 5892,
    "f21": 5893,
    "f79": 5894,
    "fe4": 5895,
    "xec": 5896,
    "\u2581bc": 5897,
    "003a": 5898,
    "004c": 5899,
    "0052": 5900,
    "6788": 5901,
    "buffw": 5902,
    "\u25810x128": 5903,
    "\u25810x3f5": 5904,
    "\u25810x41e": 5905,
    "\u25810x1500": 5906,
    "\u25810x3700": 5907,
    "\u25810x4116": 5908,
    "\u25810x41d3": 5909,
    "\u25810x4330": 5910,
    "\u25810x4738": 5911,
    "\u25810x5000": 5912,
    "\u25810x7df4": 5913,
    "\u25810x7df5": 5914,
    "\u25810x7f10": 5915,
    "\u2581querys": 5916,
    "\u25810x1210ee": 5917,
    "\u25810x3f3000": 5918,
    "\u25810x43a438": 5919,
    "\u25810x45b178": 5920,
    "\u25810x461500": 5921,
    "\u25810x486788": 5922,
    "brushorgex": 5923,
    "\u25810x1211240": 5924,
    "\u25810x12117c8": 5925,
    "\u25810x1211b88": 5926,
    "\u25810x1211c48": 5927,
    "\u25810x1211f8c": 5928,
    "\u25810x1211f90": 5929,
    "\u2581createpen": 5930,
    "\u25810xfeee00ed": 5931,
    "\u25810xfeee00ee": 5932,
    "\u25810xfeee00ef": 5933,
    "\u25810xfeee00f0": 5934,
    "\u25810xfeee00f8": 5935,
    "\u2581createpipe": 5936,
    "\u2581insertmenuitem": 5937,
    "\u2581regcreatekeyexw": 5938,
    "\u2581getthreadpriority": 5939,
    "119da93b9183fa327b71155440adb7e48f07834416ce1568f2e454d83b88": 5940,
    "907865c80b1ee4b7a5419094c49a237e8c1f6f27bffa038803566fa6d63d": 5941,
    "124": 5942,
    "2f0": 5943,
    "788": 5944,
    "7e0": 5945,
    "915": 5946,
    "a3c": 5947,
    "adi": 5948,
    "b0c": 5949,
    "d22": 5950,
    "d66": 5951,
    "dd3": 5952,
    "emo": 5953,
    "f1d": 5954,
    "\u2581ro": 5955,
    "0024": 5956,
    "0034": 5957,
    "003c": 5958,
    "0064": 5959,
    "0066": 5960,
    "30062": 5961,
    "letit": 5962,
    "store": 5963,
    "table": 5964,
    "byname": 5965,
    "fromid": 5966,
    "\u25810x23c": 5967,
    "\u25810x454": 5968,
    "\u25810x458": 5969,
    "\u25810x505": 5970,
    "\u25810x507": 5971,
    "\u25810x597": 5972,
    "\u2581remov": 5973,
    "\u25810x1074": 5974,
    "\u25810x1900": 5975,
    "\u25810x4040": 5976,
    "\u25810x41cc": 5977,
    "\u25810x42a4": 5978,
    "\u25810x4478": 5979,
    "\u25810x65f5": 5980,
    "\u25810x7dbc": 5981,
    "\u25810x7dbd": 5982,
    "\u25810x8850": 5983,
    "\u25810x9010": 5984,
    "\u2581printf": 5985,
    "\u2581unpack": 5986,
    "\u2581window": 5987,
    "\u25810x12069": 5988,
    "\u25810x422740": 5989,
    "\u25810x4295b4": 5990,
    "\u25810x630062": 5991,
    "\u25810x650064": 5992,
    "\u25810x670066": 5993,
    "fromidlist": 5994,
    "\u25810x121191c": 5995,
    "\u25810x1211b60": 5996,
    "\u25810x1211bb0": 5997,
    "\u25810x1211d1c": 5998,
    "\u25810x1211e70": 5999,
    "\u25810x1211e84": 6000,
    "\u25810x1211ea4": 6001,
    "\u25810xfeee00f2": 6002,
    "\u25810xfeee00f3": 6003,
    "\u25810xfeee00f5": 6004,
    "\u25810xfeee00f9": 6005,
    "\u25810xfeee00fa": 6006,
    "\u2581processidto": 6007,
    "\u2581gethostbyname": 6008,
    "\u2581callwindowproc": 6009,
    "\u2581shgetfromidlist": 6010,
    "\u2581getcomputernamew": 6011,
    "\u2581getsystemdefaultlcid": 6012,
    "\u2581processidtosessionid": 6013,
    "324": 6014,
    "620": 6015,
    "6d8": 6016,
    "6f0": 6017,
    "718": 6018,
    "71f": 6019,
    "7ad": 6020,
    "7b8": 6021,
    "9c2": 6022,
    "a52": 6023,
    "a6b": 6024,
    "aa1": 6025,
    "afc": 6026,
    "bfc": 6027,
    "eb8": 6028,
    "lys": 6029,
    "rnl": 6030,
    "0060": 6031,
    "work": 6032,
    "\u2581aaae": 6033,
    "\u2581aaai": 6034,
    "enable": 6035,
    "\u25810x350": 6036,
    "\u2581equal": 6037,
    "current": 6038,
    "\u25810x409e": 6039,
    "\u25810x40ea": 6040,
    "\u25810x4640": 6041,
    "\u25810x4830": 6042,
    "\u25810x52a5": 6043,
    "\u25810x53c7": 6044,
    "\u25810x7710": 6045,
    "\u25810x7770": 6046,
    "\u25810x9940": 6047,
    "\u2581myarg1": 6048,
    "\u25810x40300": 6049,
    "clipboard": 6050,
    "\u25810x110010": 6051,
    "\u25810x17a6cc": 6052,
    "\u25810x402526": 6053,
    "\u25810x40f118": 6054,
    "\u25810x44c400": 6055,
    "\u25810x4c42c0": 6056,
    "\u25810x610060": 6057,
    "\u2581intersec": 6058,
    "\u25810x1210e2c": 6059,
    "\u25810x1210eb0": 6060,
    "\u25810x3810381": 6061,
    "\u2581loadiconw": 6062,
    "\u25810x10009880": 6063,
    "\u25810xfeee00fb": 6064,
    "\u25810xfeee0153": 6065,
    "\u2581gdipcreate": 6066,
    "\u2581getprofile": 6067,
    "\u2581commandline": 6068,
    "\u2581createdialog": 6069,
    "\u2581getfileversion": 6070,
    "\u2581getlogicaldrives": 6071,
    "3766372d0a1aac516ab0940ba846bb209cc7123ea66397feac0e7f417346d": 6072,
    "ef26c97b135db21bffa0e024a6fa334365d95136574b7853cf39214556e1d": 6073,
    "uf": 6074,
    "318": 6075,
    "3a4": 6076,
    "534": 6077,
    "5d8": 6078,
    "d00": 6079,
    "d14": 6080,
    "e5c": 6081,
    "ens": 6082,
    "f4c": 6083,
    "fd8": 6084,
    "0016": 6085,
    "roup": 6086,
    "range": 6087,
    "ension": 6088,
    "\u25810x3e8": 6089,
    "\u25810x1b00": 6090,
    "\u25810x403b": 6091,
    "\u25810x40a4": 6092,
    "\u25810x40e1": 6093,
    "\u25810x43a5": 6094,
    "\u25810x5700": 6095,
    "\u25810x82c0": 6096,
    "\u25810x8b00": 6097,
    "\u25810x50004": 6098,
    "\u2581freesid": 6099,
    "\u25810x40e510": 6100,
    "\u25810x44d4d0": 6101,
    "\u25810x44d4e8": 6102,
    "\u25810x4d35c8": 6103,
    "\u25810x5a64b8": 6104,
    "\u25810x1211c60": 6105,
    "\u25810x1211cfc": 6106,
    "\u25810x1211fa4": 6107,
    "\u25810x5265c28": 6108,
    "bcolortable": 6109,
    "\u25810xfeee00fc": 6110,
    "\u25810xfeee00fd": 6111,
    "\u2581deletemenu": 6112,
    "\u2581createbitmap": 6113,
    "\u2581postmessagea": 6114,
    "\u2581couninitialize": 6115,
    "\u2581getdateformatw": 6116,
    "\u2581expandenvironmentstringsa": 6117,
    "1e8": 6118,
    "28c": 6119,
    "44c": 6120,
    "600": 6121,
    "645": 6122,
    "782": 6123,
    "914": 6124,
    "925": 6125,
    "980": 6126,
    "b51": 6127,
    "cem": 6128,
    "fe0": 6129,
    "004a": 6130,
    "005a": 6131,
    "3030": 6132,
    "edac": 6133,
    "font": 6134,
    "lear": 6135,
    "10050": 6136,
    "30032": 6137,
    "70026": 6138,
    "90028": 6139,
    "90038": 6140,
    "90058": 6141,
    "angle": 6142,
    "argvw": 6143,
    "f001e": 6144,
    "f003e": 6145,
    "f005e": 6146,
    "owned": 6147,
    "sters": 6148,
    "\u2581lz32": 6149,
    "\u2581wine": 6150,
    "cement": 6151,
    "\u25810x12f": 6152,
    "\u25810x474": 6153,
    "\u25810x4ac": 6154,
    "\u25810x5a4": 6155,
    "\u25810x602": 6156,
    "\u25810xb33": 6157,
    "toargvw": 6158,
    "\u25810x2012": 6159,
    "\u25810x4080": 6160,
    "\u25810x4210": 6161,
    "\u25810x4252": 6162,
    "\u25810x42ce": 6163,
    "\u25810x4574": 6164,
    "\u25810x4c10": 6165,
    "\u25810x82d0": 6166,
    "\u25810x82e8": 6167,
    "\u25810x82f6": 6168,
    "\u25810x8420": 6169,
    "\u25810x8b40": 6170,
    "\u25810x8f50": 6171,
    "\u25810x90f0": 6172,
    "\u25810x9930": 6173,
    "\u25810x120ff": 6174,
    "\u25810x30002": 6175,
    "\u25810x70006": 6176,
    "\u25810x90008": 6177,
    "\u25810xb000a": 6178,
    "\u25810xd000c": 6179,
    "\u25810xf000e": 6180,
    "\u2581winexec": 6181,
    "placement": 6182,
    "\u25810x10011c": 6183,
    "\u25810x130012": 6184,
    "\u25810x150014": 6185,
    "\u25810x170016": 6186,
    "\u25810x190018": 6187,
    "\u25810x1b001a": 6188,
    "\u25810x1d001c": 6189,
    "\u25810x1f001e": 6190,
    "\u25810x210020": 6191,
    "\u25810x230022": 6192,
    "\u25810x250024": 6193,
    "\u25810x270026": 6194,
    "\u25810x290028": 6195,
    "\u25810x2b002a": 6196,
    "\u25810x2d002c": 6197,
    "\u25810x2f002e": 6198,
    "\u25810x310030": 6199,
    "\u25810x330032": 6200,
    "\u25810x350034": 6201,
    "\u25810x370036": 6202,
    "\u25810x390038": 6203,
    "\u25810x3b003a": 6204,
    "\u25810x3d003c": 6205,
    "\u25810x3f003e": 6206,
    "\u25810x410040": 6207,
    "\u25810x422741": 6208,
    "\u25810x430042": 6209,
    "\u25810x450044": 6210,
    "\u25810x470046": 6211,
    "\u25810x490048": 6212,
    "\u25810x4b004a": 6213,
    "\u25810x4d004c": 6214,
    "\u25810x4f004e": 6215,
    "\u25810x510050": 6216,
    "\u25810x530052": 6217,
    "\u25810x550054": 6218,
    "\u25810x570056": 6219,
    "\u25810x573c10": 6220,
    "\u25810x574c10": 6221,
    "\u25810x590058": 6222,
    "\u25810x5b005a": 6223,
    "\u25810x5d005c": 6224,
    "\u25810x5f005e": 6225,
    "\u25810x61f690": 6226,
    "stretchblt": 6227,
    "\u25810x1211768": 6228,
    "\u25810x1211da0": 6229,
    "\u25810x1211eec": 6230,
    "\u25810x2280228": 6231,
    "\u2581registers": 6232,
    "\u25810x71000000": 6233,
    "\u25810xfeee00fe": 6234,
    "\u25810xfeee00ff": 6235,
    "\u25810xfeee0100": 6236,
    "\u25810xfeee0101": 6237,
    "\u25810xfeee0102": 6238,
    "\u2581getmonitor": 6239,
    "stretchbltmode": 6240,
    "\u2581regcreatekeya": 6241,
    "\u2581getwindowlongw": 6242,
    "\u2581process32firstw": 6243,
    "\u2581unregisterclass": 6244,
    "ervicectrlhandler": 6245,
    "\u2581commandlinetoargvw": 6246,
    "\u2581getdiskfreespaceexw": 6247,
    "\u2581registerservicectrlhandler": 6248,
    "44e": 6249,
    "9e8": 6250,
    "de7": 6251,
    "f50": 6252,
    "f72": 6253,
    "fig": 6254,
    "ome": 6255,
    "\u2581db": 6256,
    "78d0": 6257,
    "erat": 6258,
    "model": 6259,
    "\u25810x445": 6260,
    "\u25810x5b1": 6261,
    "textout": 6262,
    "\u25810x2d05": 6263,
    "\u25810x4c70": 6264,
    "\u25810x7920": 6265,
    "\u25810x79b0": 6266,
    "\u25810x8830": 6267,
    "\u25810x8ab0": 6268,
    "\u25810x8ee0": 6269,
    "\u25810x9980": 6270,
    "\u25810xff92": 6271,
    "\u25810xfff1": 6272,
    "\u2581connect": 6273,
    "\u2581gdipset": 6274,
    "accelerat": 6275,
    "\u25810x40e658": 6276,
    "\u25810x4150f8": 6277,
    "\u25810x419ad0": 6278,
    "\u25810x4404f8": 6279,
    "\u25810x440540": 6280,
    "\u25810x44ee08": 6281,
    "\u25810xa7def0": 6282,
    "\u2581appmodel": 6283,
    "\u2581ungltige": 6284,
    "\u25810x1210ebc": 6285,
    "\u25810x1211a3f": 6286,
    "\u25810x1211c98": 6287,
    "\u2581getfileex": 6288,
    "\u25810xfeee0103": 6289,
    "\u25810xfeee0104": 6290,
    "\u2581getbkcolor": 6291,
    "\u2581replaceicon": 6292,
    "\u2581peeknamedpipe": 6293,
    "\u2581regdeletekeyw": 6294,
    "\u2581getthreadtimes": 6295,
    "\u2581switchtothread": 6296,
    "\u2581microsoftvisual": 6297,
    "ha": 6298,
    "130": 6299,
    "169": 6300,
    "180": 6301,
    "384": 6302,
    "561": 6303,
    "72b": 6304,
    "798": 6305,
    "ad5": 6306,
    "d2c": 6307,
    "e10": 6308,
    "ecta": 6309,
    "\u2581wak": 6310,
    "paramw": 6311,
    "\u25810x604": 6312,
    "\u2581group": 6313,
    "\u25810x120c": 6314,
    "\u25810x2002": 6315,
    "\u25810x4070": 6316,
    "\u25810x4676": 6317,
    "\u25810x4a20": 6318,
    "\u25810x5278": 6319,
    "\u25810x5ab0": 6320,
    "\u25810x6488": 6321,
    "\u25810x7dc1": 6322,
    "\u25810x8a80": 6323,
    "\u25810x9920": 6324,
    "function": 6325,
    "outputcp": 6326,
    "\u25810x10013": 6327,
    "\u25810x13000": 6328,
    "\u2581environ": 6329,
    "\u25810x40b921": 6330,
    "\u25810x40b930": 6331,
    "\u25810x40dc68": 6332,
    "\u25810x4122ac": 6333,
    "\u25810x4122ad": 6334,
    "\u25810x442806": 6335,
    "\u25810x442808": 6336,
    "\u25810x44280a": 6337,
    "\u25810x44280c": 6338,
    "\u25810x44280e": 6339,
    "\u25810x442810": 6340,
    "\u25810x442812": 6341,
    "\u25810x442814": 6342,
    "\u25810x442816": 6343,
    "\u25810x442818": 6344,
    "\u25810x44281a": 6345,
    "\u25810x44281c": 6346,
    "\u25810x44281e": 6347,
    "\u25810x484003": 6348,
    "\u25810x484004": 6349,
    "\u25810x484005": 6350,
    "\u25810x484006": 6351,
    "\u25810x484007": 6352,
    "\u25810x484008": 6353,
    "\u25810x484009": 6354,
    "\u25810x48400a": 6355,
    "\u25810x48400b": 6356,
    "\u25810x48400c": 6357,
    "\u25810x48400d": 6358,
    "\u25810x48400e": 6359,
    "\u25810x48400f": 6360,
    "\u25810x4e39cc": 6361,
    "\u25810x4e39e4": 6362,
    "\u25810x7c16a0": 6363,
    "getversion": 6364,
    "\u25810xfeee0105": 6365,
    "\u25810xfeee0112": 6366,
    "initializeex": 6367,
    "\u2581sendmessagew": 6368,
    "\u2581charupperbuffa": 6369,
    "\u2581coinitializeex": 6370,
    "\u2581setwindowlongw": 6371,
    "\u2581regqueryinfokeya": 6372,
    "conditionvariablesrw": 6373,
    "\u2581wakeconditionvariable": 6374,
    "\u2581sleepconditionvariablesrw": 6375,
    "\u2581getfileinformationbyhandleex": 6376,
    "3e6ed257121889f07447dee2eeb9b9c4f7cf99faebb53570bde23564f2920": 6377,
    "1d119da93b9183fa327b71155440adb7e48f07834416ce1568f2e454d83b88": 6378,
    "50c907865c80b1ee4b7a5419094c49a237e8c1f6f27bffa038803566fa6d63d": 6379,
    "b0ef26c97b135db21bffa0e024a6fa334365d95136574b7853cf39214556e1d": 6380,
    "8b": 6381,
    "10c": 6382,
    "170": 6383,
    "32c": 6384,
    "442": 6385,
    "565": 6386,
    "5f0": 6387,
    "70c": 6388,
    "724": 6389,
    "784": 6390,
    "9ea": 6391,
    "a20": 6392,
    "a75": 6393,
    "b28": 6394,
    "b36": 6395,
    "b5b": 6396,
    "bc4": 6397,
    "cac": 6398,
    "d0c": 6399,
    "e77": 6400,
    "1f20": 6401,
    "38e8": 6402,
    "vert": 6403,
    "lassob": 6404,
    "rwlock": 6405,
    "\u25810x446": 6406,
    "\u25810x497": 6407,
    "\u25810x528": 6408,
    "\u25810x1800": 6409,
    "\u25810x409d": 6410,
    "\u25810x43a8": 6411,
    "\u25810x43e8": 6412,
    "\u25810x4489": 6413,
    "\u25810x48c0": 6414,
    "\u25810x4ba0": 6415,
    "\u25810x4e00": 6416,
    "\u25810x7380": 6417,
    "\u25810x7ec8": 6418,
    "\u25810x7ec9": 6419,
    "\u2581prolog": 6420,
    "osdevice": 6421,
    "\u25810x120ec": 6422,
    "\u25810x504d4": 6423,
    "\u2581convert": 6424,
    "filenamea": 6425,
    "\u25810x40d630": 6426,
    "\u25810x43401a": 6427,
    "\u25810x435400": 6428,
    "\u25810x53a500": 6429,
    "\u25810x8f80c0": 6430,
    "\u2581lstrcpyw": 6431,
    "\u25810x1211900": 6432,
    "\u25810x1211c00": 6433,
    "\u25810x1211c84": 6434,
    "\u2581enumdispla": 6435,
    "\u2581oemtochara": 6436,
    "\u2581getimagecount": 6437,
    "\u2581setwindowlonga": 6438,
    "\u2581setwindowshook": 6439,
    "\u2581getlogicaldrive": 6440,
    "\u2581initializesrwlock": 6441,
    "16c": 6442,
    "260": 6443,
    "303": 6444,
    "558": 6445,
    "907": 6446,
    "998": 6447,
    "9f0": 6448,
    "a8c": 6449,
    "a9c": 6450,
    "ab5": 6451,
    "b74": 6452,
    "ba0": 6453,
    "e6c": 6454,
    "ee6": 6455,
    "fa1": 6456,
    "fd4": 6457,
    "ubm": 6458,
    "usu": 6459,
    "was": 6460,
    "win": 6461,
    "\u25810a": 6462,
    "\u258120": 6463,
    "\u2581t0": 6464,
    "\u2581zp": 6465,
    "97c0": 6466,
    "\u25814d5": 6467,
    "\u25817f8": 6468,
    "\u2581edc": 6469,
    "\u2581int": 6470,
    "tooem": 6471,
    "volum": 6472,
    "\u2581poly": 6473,
    "\u2581subm": 6474,
    "metric": 6475,
    "\u25810x173": 6476,
    "\u25810x183": 6477,
    "\u25810x417": 6478,
    "\u25810x449": 6479,
    "\u25810x4374": 6480,
    "\u25810x4ba9": 6481,
    "\u25810x7428": 6482,
    "\u25810x8030": 6483,
    "\u2581starts": 6484,
    "00000004": 6485,
    "ffff0000": 6486,
    "\u25810x43600": 6487,
    "\u25810x50e80": 6488,
    "\u2581interne": 6489,
    "frompoint": 6490,
    "\u25810x414af4": 6491,
    "\u25810x41a058": 6492,
    "\u25810x4289d8": 6493,
    "\u25810x435001": 6494,
    "\u25810x435003": 6495,
    "\u25810x435005": 6496,
    "\u25810x435007": 6497,
    "\u25810x435009": 6498,
    "\u25810x43500b": 6499,
    "\u25810x43500d": 6500,
    "\u25810x43500f": 6501,
    "\u25810x435011": 6502,
    "\u25810x435015": 6503,
    "\u25810x435017": 6504,
    "\u25810x4377a8": 6505,
    "\u25810x44dac0": 6506,
    "\u25810x53c7f0": 6507,
    "\u2581wtsapi32": 6508,
    "\u25810x1211938": 6509,
    "\u25810x1211c90": 6510,
    "\u2581chartooem": 6511,
    "\u2581loadimage": 6512,
    "heapplication": 6513,
    "\u2581findfirstfil": 6514,
    "\u2581submitthread": 6515,
    "\u2581getwindowtexta": 6516,
    "\u2581iswindowvisible": 6517,
    "\u2581getconsoleoutputcp": 6518,
    "\u2581closethreadpoolwork": 6519,
    "\u2581createthreadpoolwork": 6520,
    "\u2581submitthreadpoolwork": 6521,
    "\u2581setfileinformationbyhandle": 6522,
    "mi": 6523,
    "1f4": 6524,
    "2cd": 6525,
    "5d6": 6526,
    "5fc": 6527,
    "665": 6528,
    "943": 6529,
    "96c": 6530,
    "a50": 6531,
    "b47": 6532,
    "c04": 6533,
    "e28": 6534,
    "f19": 6535,
    "f51": 6536,
    "f74": 6537,
    "fff": 6538,
    "0106": 6539,
    "adc0": 6540,
    "owno": 6541,
    "undr": 6542,
    "\u2581off": 6543,
    "\u2581line": 6544,
    "showno": 6545,
    "\u25810x298": 6546,
    "\u25810x492": 6547,
    "\u25810x4c0": 6548,
    "\u25810x573": 6549,
    "\u2581setdl": 6550,
    "\u2581tryac": 6551,
    "\u25810x40e8": 6552,
    "\u25810x41ab": 6553,
    "\u25810x4234": 6554,
    "\u25810x4319": 6555,
    "\u25810x4459": 6556,
    "\u25810x47d0": 6557,
    "\u25810x8060": 6558,
    "\u25810x88e0": 6559,
    "\u25810x8b30": 6560,
    "\u2581client": 6561,
    "\u2581failed": 6562,
    "\u25810x120eb": 6563,
    "\u25810x5265e": 6564,
    "ataddress": 6565,
    "ofaddress": 6566,
    "\u25810x41d780": 6567,
    "\u25810x421630": 6568,
    "\u25810x475f64": 6569,
    "\u2581createen": 6570,
    "\u2581getfocus": 6571,
    "shownolock": 6572,
    "\u25810x1210ecc": 6573,
    "\u25810x1211a7c": 6574,
    "emotethread": 6575,
    "\u25810xfeee0106": 6576,
    "\u2581setdlgitem": 6577,
    "screenbuffer": 6578,
    "\u2581getclipboard": 6579,
    "\u2581getclassnamew": 6580,
    "\u2581gettextmetric": 6581,
    "\u2581dragshownolock": 6582,
    "\u2581insertmenuitema": 6583,
    "\u2581microsoftvisualc": 6584,
    "\u2581createfilemappingw": 6585,
    "\u2581createremotethread": 6586,
    "\u2581tryacquiresrwlockexclusive": 6587,
    "drl6660drl6660drl6660drl6660drl6660drl6660": 6588,
    "drl6660drl6660drl6660drl6660drl6660drl6660drl6660": 6589,
    "1d4": 6590,
    "220": 6591,
    "730": 6592,
    "99c": 6593,
    "9fc": 6594,
    "a58": 6595,
    "aba": 6596,
    "b7c": 6597,
    "d28": 6598,
    "e80": 6599,
    "e90": 6600,
    "esp": 6601,
    "fa5": 6602,
    "rap": 6603,
    "ally": 6604,
    "atic": 6605,
    "ffer": 6606,
    "kesp": 6607,
    "ross": 6608,
    "activ": 6609,
    "forex": 6610,
    "isusu": 6611,
    "lysav": 6612,
    "ofesp": 6613,
    "skrnl": 6614,
    "\u2581aaao": 6615,
    "\u2581i386": 6616,
    "\u2581inet": 6617,
    "\u2581t065": 6618,
    "debugt": 6619,
    "sultof": 6620,
    "wasnot": 6621,
    "\u25810x109": 6622,
    "\u25810x124": 6623,
    "\u25810x519": 6624,
    "\u25810x51d": 6625,
    "\u25810x600": 6626,
    "\u258142the": 6627,
    "\u2581cline": 6628,
    "\u2581press": 6629,
    "\u2581taken": 6630,
    "adiffer": 6631,
    "allyare": 6632,
    "retryto": 6633,
    "\u25810x415d": 6634,
    "\u25810x4180": 6635,
    "\u25810x42d4": 6636,
    "\u25810x43d4": 6637,
    "\u25810x49d0": 6638,
    "\u25810x49e8": 6639,
    "\u25810x5aa8": 6640,
    "\u25810x6662": 6641,
    "\u25810x7ab8": 6642,
    "\u25810x7ce1": 6643,
    "\u25810x7d70": 6644,
    "\u25810x8818": 6645,
    "\u25810x8819": 6646,
    "\u25810x8840": 6647,
    "\u2581chkesp": 6648,
    "\u2581extrac": 6649,
    "\u2581static": 6650,
    "\u2581thread": 6651,
    "\u2581wcslen": 6652,
    "\u2581zp6ahi": 6653,
    "edacross": 6654,
    "keyboard": 6655,
    "\u25810x12012": 6656,
    "\u25810x20009": 6657,
    "\u25810x25000": 6658,
    "\u25810x52660": 6659,
    "\u2581yap6ahi": 6660,
    "scrollbar": 6661,
    "\u25810x419aa0": 6662,
    "\u25810x42eb28": 6663,
    "\u25810x449e10": 6664,
    "\u25810x46bd94": 6665,
    "\u25810x475458": 6666,
    "\u25810x4de648": 6667,
    "\u2581ntoskrnl": 6668,
    "adifferent": 6669,
    "valueofesp": 6670,
    "\u25810x121177c": 6671,
    "\u25810x1211b84": 6672,
    "\u25810x1211cc4": 6673,
    "\u25810x1211d50": 6674,
    "\u25810xc000000": 6675,
    "\u2581drawtexta": 6676,
    "\u2581thisisusu": 6677,
    "properlysav": 6678,
    "\u25810xfeee0107": 6679,
    "\u25810xfeee0108": 6680,
    "\u25810xfeee0109": 6681,
    "\u25810xfeee010a": 6682,
    "\u25810xfeee010d": 6683,
    "\u25810xfeee010e": 6684,
    "\u25810xfeee0111": 6685,
    "\u2581debugerror": 6686,
    "\u2581takenforex": 6687,
    "\u25810x100012dfc": 6688,
    "\u2581findresourc": 6689,
    "\u2581setmenuitem": 6690,
    "afunctioncall": 6691,
    "allyaresultof": 6692,
    "retrytodebugt": 6693,
    "withafunction": 6694,
    "\u2581debuglibrary": 6695,
    "\u2581powerbuilder": 6696,
    "declaredwithone": 6697,
    "\u2581getwindowlonga": 6698,
    "callingafunction": 6699,
    "valueofespwasnot": 6700,
    "pointerdeclaredwith": 6701,
    "properlysavedacross": 6702,
    "\u2581pressretrytodebugt": 6703,
    "\u2581createfontindirectw": 6704,
    "\u2581getuserdefaultlangid": 6705,
    "\u258142thevalueofespwasnot": 6706,
    "\u2581getlogicaldrivestring": 6707,
    "\u2581thisisusuallyaresultof": 6708,
    "\u2581accessviolationataddress": 6709,
    "adifferentcallingconvention": 6710,
    "callingconventionwithafunction": 6711,
    "callingafunctiondeclaredwithone": 6712,
    "properlysavedacrossafunctioncall": 6713,
    "\u2581pressretrytodebugtheapplication": 6714,
    "pointerdeclaredwithadifferentcallingconvention": 6715,
    "\u258142thevalueofespwasnotproperlysavedacrossafunctioncall": 6716,
    "\u2581thisisusuallyaresultofcallingafunctiondeclaredwithone": 6717,
    "gs": 6718,
    "15f": 6719,
    "1c5": 6720,
    "270": 6721,
    "2fc": 6722,
    "330": 6723,
    "44d": 6724,
    "59b": 6725,
    "627": 6726,
    "642": 6727,
    "710": 6728,
    "7a0": 6729,
    "7e1": 6730,
    "91f": 6731,
    "a80": 6732,
    "ab2": 6733,
    "b2c": 6734,
    "b45": 6735,
    "bde": 6736,
    "d6c": 6737,
    "d7c": 6738,
    "db1": 6739,
    "dfb": 6740,
    "e78": 6741,
    "est": 6742,
    "f68": 6743,
    "ows": 6744,
    "\u2581cot": 6745,
    "\u2581mfc": 6746,
    "askmem": 6747,
    "stream": 6748,
    "\u25810x103": 6749,
    "\u25810x355": 6750,
    "\u25810x4f0": 6751,
    "\u25810x506": 6752,
    "\u25810xe00": 6753,
    "\u2581query": 6754,
    "resourc": 6755,
    "\u25810x11c8": 6756,
    "\u25810x1818": 6757,
    "\u25810x3aeb": 6758,
    "\u25810x4042": 6759,
    "\u25810x4940": 6760,
    "\u25810x66a5": 6761,
    "\u25810x7190": 6762,
    "\u25810x7530": 6763,
    "\u25810x8b20": 6764,
    "\u25810x9210": 6765,
    "\u25810x97a0": 6766,
    "\u2581offset": 6767,
    "\u2581redraw": 6768,
    "\u2581wtsget": 6769,
    "\u2581setcomm": 6770,
    "\u25810x40e1f8": 6771,
    "\u25810x419a10": 6772,
    "\u25810x478e68": 6773,
    "\u25810x47f948": 6774,
    "\u2581fillrect": 6775,
    "\u25810x12119a4": 6776,
    "\u25810x1211d48": 6777,
    "\u25810x1211ea8": 6778,
    "\u25810x1211f38": 6779,
    "\u2581borland32": 6780,
    "\u2581cotaskmem": 6781,
    "\u25810xfeee010b": 6782,
    "\u25810xfeee010c": 6783,
    "\u25810xfeee0110": 6784,
    "\u2581stretchblt": 6785,
    "\u2581fileexistsw": 6786,
    "\u2581wtsgetactiv": 6787,
    "\u2581redrawwindow": 6788,
    "\u2581safearrayget": 6789,
    "\u2581regenumvaluea": 6790,
    "econsolesessionid": 6791,
    "\u2581setstretchbltmode": 6792,
    "\u2581wtsgetactiveconsolesessionid": 6793,
    "2c0": 6794,
    "2c6": 6795,
    "3f4": 6796,
    "790": 6797,
    "91c": 6798,
    "9b0": 6799,
    "9d8": 6800,
    "9f8": 6801,
    "a47": 6802,
    "a60": 6803,
    "a65": 6804,
    "a68": 6805,
    "a69": 6806,
    "b4c": 6807,
    "bcf": 6808,
    "db0": 6809,
    "e0c": 6810,
    "ead": 6811,
    "ef0": 6812,
    "eto": 6813,
    "f18": 6814,
    "tun": 6815,
    "\u258190": 6816,
    "\u2581x0": 6817,
    "eich": 6818,
    "\u2581mai": 6819,
    "\u2581xml": 6820,
    "lass32": 6821,
    "letion": 6822,
    "\u25810x334": 6823,
    "\u25810x5c2": 6824,
    "\u25810x5f9": 6825,
    "\u2581setdi": 6826,
    "\u25810x405c": 6827,
    "\u25810x4130": 6828,
    "\u25810x4288": 6829,
    "\u25810x43a3": 6830,
    "\u25810x443b": 6831,
    "\u25810x44eb": 6832,
    "\u25810x46ab": 6833,
    "\u25810x579a": 6834,
    "\u25810x7038": 6835,
    "\u25810x7118": 6836,
    "\u25810x7188": 6837,
    "\u25810x71f8": 6838,
    "\u25810x7268": 6839,
    "\u25810x72d8": 6840,
    "\u25810x7348": 6841,
    "\u25810x73b8": 6842,
    "\u25810x7498": 6843,
    "\u25810x7508": 6844,
    "\u25810x7578": 6845,
    "\u25810x75e8": 6846,
    "\u25810x7658": 6847,
    "\u25810x76c8": 6848,
    "\u25810x7738": 6849,
    "\u25810x77a8": 6850,
    "\u25810x7818": 6851,
    "\u25810x7888": 6852,
    "\u25810x78f8": 6853,
    "\u25810x7968": 6854,
    "\u25810x79d8": 6855,
    "\u25810x7a48": 6856,
    "\u25810x7b28": 6857,
    "\u25810x7b98": 6858,
    "\u25810x7c08": 6859,
    "\u25810x7c78": 6860,
    "\u25810x7ce8": 6861,
    "\u25810x7d58": 6862,
    "\u25810x8b10": 6863,
    "\u25810x50f78": 6864,
    "ervicecon": 6865,
    "\u25810x181bd0": 6866,
    "\u25810x409354": 6867,
    "\u25810x409388": 6868,
    "\u25810x409390": 6869,
    "\u25810x4093f8": 6870,
    "\u25810x409410": 6871,
    "\u25810x409418": 6872,
    "\u25810x40a664": 6873,
    "\u25810x40a674": 6874,
    "\u25810x40b4a4": 6875,
    "\u25810x410ef0": 6876,
    "\u25810x4175f4": 6877,
    "\u25810x41d810": 6878,
    "\u25810x41d840": 6879,
    "\u25810x42eae0": 6880,
    "\u25810x43e4a4": 6881,
    "\u25810x4450d0": 6882,
    "\u25810x45b1c0": 6883,
    "\u25810x4867d0": 6884,
    "\u25810x77002a": 6885,
    "\u25810x990900": 6886,
    "freememory": 6887,
    "\u25810x12117e8": 6888,
    "\u25810x12117f0": 6889,
    "\u25810x12117fc": 6890,
    "\u25810x1211bb8": 6891,
    "\u25810x1211d97": 6892,
    "\u25810x1211ebc": 6893,
    "\u25810xfeee0113": 6894,
    "\u2581exttextout": 6895,
    "stringformat": 6896,
    "\u2581openservice": 6897,
    "\u2581regdeletevaluew": 6898,
    "\u2581setdlldirectorya": 6899,
    "\u2581getforegroundwindow": 6900,
    "125": 6901,
    "1c0": 6902,
    "20c": 6903,
    "3d8": 6904,
    "54a": 6905,
    "760": 6906,
    "770": 6907,
    "7c0": 6908,
    "7c4": 6909,
    "9d4": 6910,
    "a3b": 6911,
    "ae8": 6912,
    "b40": 6913,
    "b46": 6914,
    "d44": 6915,
    "d55": 6916,
    "deb": 6917,
    "ded": 6918,
    "f86": 6919,
    "ff5": 6920,
    "ids": 6921,
    "itk": 6922,
    "lnd": 6923,
    "rand": 6924,
    "\u2581dat": 6925,
    "\u2581mov": 6926,
    "\u2581scr": 6927,
    "etoex": 6928,
    "inter": 6929,
    "lndmm": 6930,
    "solea": 6931,
    "tific": 6932,
    "\u2581beep": 6933,
    "\u2581sha1": 6934,
    "eentoc": 6935,
    "\u2581forms": 6936,
    "\u25810x188c": 6937,
    "\u25810x4066": 6938,
    "\u25810x41f8": 6939,
    "\u25810x42f8": 6940,
    "\u25810x43f7": 6941,
    "\u25810x43fd": 6942,
    "\u25810x44e9": 6943,
    "\u25810x4c50": 6944,
    "\u25810x4c68": 6945,
    "\u25810x4fe2": 6946,
    "\u25810x7250": 6947,
    "\u25810x7dc4": 6948,
    "\u25810x7e20": 6949,
    "\u25810x8cb0": 6950,
    "\u25810x8ef0": 6951,
    "\u25810x9030": 6952,
    "\u2581drawex": 6953,
    "\u2581lineto": 6954,
    "toscreen": 6955,
    "\u2581gdipget": 6956,
    "\u2581searcha": 6957,
    "\u25810x1733c4": 6958,
    "\u25810x42a000": 6959,
    "\u25810x467638": 6960,
    "\u25810x538f80": 6961,
    "\u2581borlndmm": 6962,
    "\u2581internet": 6963,
    "\u2581movetoex": 6964,
    "\u25810x1211518": 6965,
    "\u25810x8000000": 6966,
    "\u2581destroyen": 6967,
    "\u2581openmutex": 6968,
    "\u2581screentoc": 6969,
    "\u25810xfeee019d": 6970,
    "\u2581sofaddress": 6971,
    "\u2581sysrealloc": 6972,
    "\u2581enumresourc": 6973,
    "\u2581createmutexw": 6974,
    "\u2581clienttoscreen": 6975,
    "\u2581screentoclient": 6976,
    "\u2581openfilemapping": 6977,
    "\u2581openthreadtoken": 6978,
    "\u2581sysreallocstringlen": 6979,
    "\u2581createenvironmentblock": 6980,
    "\u2581destroyenvironmentblock": 6981,
    "\u2581registerclipboardformatw": 6982,
    "2f8": 6983,
    "370": 6984,
    "3c0": 6985,
    "530": 6986,
    "666": 6987,
    "716": 6988,
    "9c4": 6989,
    "9d6": 6990,
    "bvm": 6991,
    "e54": 6992,
    "e74": 6993,
    "fa4": 6994,
    "fc1": 6995,
    "fdb": 6996,
    "flo": 6997,
    "\u2581eb": 6998,
    "\u2581qa": 6999,
    "hier": 7000,
    "lauf": 7001,
    "llip": 7002,
    "orde": 7003,
    "tify": 7004,
    "ablet": 7005,
    "cache": 7006,
    "itkom": 7007,
    "pipea": 7008,
    "iconic": 7009,
    "lipbox": 7010,
    "\u25810x1f0": 7011,
    "\u25810x464": 7012,
    "\u25810x4f3": 7013,
    "\u25810x533": 7014,
    "\u25810x613": 7015,
    "\u2581mfc42": 7016,
    "\u2581monit": 7017,
    "\u2581start": 7018,
    "cliprgn": 7019,
    "leitkom": 7020,
    "startup": 7021,
    "\u25810x417c": 7022,
    "\u25810x41df": 7023,
    "\u25810x45a1": 7024,
    "\u25810x46b2": 7025,
    "\u25810x4930": 7026,
    "\u25810x4b80": 7027,
    "\u25810x4e40": 7028,
    "\u25810x5267": 7029,
    "\u25810x71d0": 7030,
    "\u25810x82f0": 7031,
    "\u25810xfff0": 7032,
    "\u2581dborde": 7033,
    "\u2581msvbvm": 7034,
    "\u25810x52661": 7035,
    "\u25810x405000": 7036,
    "\u2581failedto": 7037,
    "\u2581isiconic": 7038,
    "\u25810x1210b60": 7039,
    "\u25810x12115c4": 7040,
    "\u25810x12119b0": 7041,
    "\u25810x1211cf4": 7042,
    "\u25810x1211d38": 7043,
    "\u25810x1211f68": 7044,
    "\u2581createdib": 7045,
    "winmetafile": 7046,
    "\u25810xfeee011d": 7047,
    "\u2581getclipbox": 7048,
    "keyboardlayout": 7049,
    "winmetafilebits": 7050,
    "\u2581gdiplusstartup": 7051,
    "\u2581gettimeformata": 7052,
    "\u2581getprocessversion": 7053,
    "\u2581getprofilestringa": 7054,
    "\u2581setforegroundwindow": 7055,
    "\u2581zwquerysysteminformation": 7056,
    "\u2581expandenvironmentstringsw": 7057,
    "126": 7058,
    "14c": 7059,
    "3f8": 7060,
    "634": 7061,
    "6a8": 7062,
    "74d": 7063,
    "762": 7064,
    "7c5": 7065,
    "93b": 7066,
    "963": 7067,
    "96f": 7068,
    "990": 7069,
    "abc": 7070,
    "cat": 7071,
    "dda": 7072,
    "e31": 7073,
    "ed8": 7074,
    "f1e": 7075,
    "fa8": 7076,
    "27fa": 7077,
    "ac40": 7078,
    "cher": 7079,
    "ablea": 7080,
    "\u2581cryp": 7081,
    "\u2581msgw": 7082,
    "\u2581setr": 7083,
    "\u25810x4b4": 7084,
    "\u2581d27fa": 7085,
    "\u2581print": 7086,
    "undrect": 7087,
    "\u25810x17a8": 7088,
    "\u25810x42e8": 7089,
    "\u25810x4c32": 7090,
    "\u25810x70d0": 7091,
    "\u25810x7a60": 7092,
    "\u25810xb068": 7093,
    "\u25810x1f000": 7094,
    "\u2581flushin": 7095,
    "\u25810x40d648": 7096,
    "\u25810x4310e0": 7097,
    "\u25810x436400": 7098,
    "\u25810x4978d0": 7099,
    "\u25810x1210f70": 7100,
    "\u25810x1211994": 7101,
    "\u25810x12119f4": 7102,
    "\u25810x1211ca4": 7103,
    "\u25810x1211fb4": 7104,
    "\u25810x77001248": 7105,
    "\u25810x77001249": 7106,
    "\u25810xfeee0114": 7107,
    "\u25810xfeee0115": 7108,
    "\u25810xfeee0116": 7109,
    "\u25810xfeee0117": 7110,
    "\u25810xfeee0118": 7111,
    "\u25810xfeee0119": 7112,
    "\u25810xfeee011a": 7113,
    "\u25810xfeee011b": 7114,
    "\u25810xfeee011c": 7115,
    "\u25810xfeee0120": 7116,
    "\u25810xfeee0156": 7117,
    "\u2581enumwindows": 7118,
    "\u2581snapprocess": 7119,
    "structioncache": 7120,
    "\u2581getclassnamea": 7121,
    "\u2581wtsfreememory": 7122,
    "\u2581virtualallocex": 7123,
    "\u2581getmonitorinfoa": 7124,
    "\u2581getfileattributesexw": 7125,
    "\u2581flushinstructioncache": 7126,
    "\u2581registerservicectrlhandlerexa": 7127,
    "ik": 7128,
    "005": 7129,
    "198": 7130,
    "2c4": 7131,
    "34c": 7132,
    "390": 7133,
    "567": 7134,
    "60c": 7135,
    "690": 7136,
    "7ac": 7137,
    "7d5": 7138,
    "a18": 7139,
    "a97": 7140,
    "a98": 7141,
    "aec": 7142,
    "app": 7143,
    "b30": 7144,
    "bd9": 7145,
    "can": 7146,
    "d70": 7147,
    "dab": 7148,
    "db4": 7149,
    "f10": 7150,
    "hal": 7151,
    "\u2581sp": 7152,
    "1884": 7153,
    "7498": 7154,
    "9440": 7155,
    "96e8": 7156,
    "e740": 7157,
    "lags": 7158,
    "\u2581txt": 7159,
    "ecomm": 7160,
    "fiber": 7161,
    "menua": 7162,
    "queue": 7163,
    "setup": 7164,
    "stool": 7165,
    "\u2581kics": 7166,
    "\u2581ptin": 7167,
    "\u25810x113": 7168,
    "\u25810x41b": 7169,
    "\u25810x4d5": 7170,
    "\u25810x1015": 7171,
    "\u25810x120a": 7172,
    "\u25810x1820": 7173,
    "\u25810x406c": 7174,
    "\u25810x42e2": 7175,
    "\u25810x44a4": 7176,
    "\u25810x44b1": 7177,
    "\u25810x4d35": 7178,
    "\u25810x71f0": 7179,
    "\u25810x7c00": 7180,
    "\u25810x7ca0": 7181,
    "\u25810x8650": 7182,
    "\u25810x881c": 7183,
    "\u25810x881d": 7184,
    "\u2581onexit": 7185,
    "\u25810x5265f": 7186,
    "\u2581isctype": 7187,
    "\u2581service": 7188,
    "secapture": 7189,
    "terectrgn": 7190,
    "\u25810x410ec0": 7191,
    "\u25810x421648": 7192,
    "\u25810x429220": 7193,
    "\u25810x438eec": 7194,
    "\u25810x46d178": 7195,
    "\u2581addatoma": 7196,
    "\u2581kicstool": 7197,
    "\u25810x1211db4": 7198,
    "\u25810x1211df8": 7199,
    "\u25810x169bdd4": 7200,
    "\u25810x3aeae5c": 7201,
    "\u25810x3aebd5c": 7202,
    "\u2581drawtextw": 7203,
    "\u2581getdibits": 7204,
    "\u25810xfeee011e": 7205,
    "\u25810xfeee011f": 7206,
    "\u25810xfeee0121": 7207,
    "\u25810xfeee0122": 7208,
    "\u25810xfeee0123": 7209,
    "\u25810xfeee0124": 7210,
    "\u25810xfeee0125": 7211,
    "\u25810xfeee0126": 7212,
    "\u25810xfeee0127": 7213,
    "\u25810xfeee0128": 7214,
    "\u25810xfeee0142": 7215,
    "\u25810xfeee0143": 7216,
    "\u2581dbordement": 7217,
    "\u2581getcapture": 7218,
    "\u2581loadbitmap": 7219,
    "\u2581movewindow": 7220,
    "\u2581kicsconnect": 7221,
    "\u2581getscrollpos": 7222,
    "\u2581createrectrgn": 7223,
    "\u2581getwindowtextw": 7224,
    "\u2581releasecapture": 7225,
    "\u2581findfirstfileexw": 7226,
    "\u2581createfontindirecta": 7227,
    "\u2581fa98f5b70ea30a6309a0c3ffcdd1cd07119f3328e217fd76809d90bcc1bec": 7228,
    "11a": 7229,
    "158": 7230,
    "162": 7231,
    "24c": 7232,
    "261": 7233,
    "394": 7234,
    "3dc": 7235,
    "945": 7236,
    "9fb": 7237,
    "a90": 7238,
    "b52": 7239,
    "d78": 7240,
    "e3c": 7241,
    "e94": 7242,
    "ea6": 7243,
    "f40": 7244,
    "fb0": 7245,
    "has": 7246,
    "sus": 7247,
    "ttp": 7248,
    "\u258119": 7249,
    "\u2581cs": 7250,
    "\u2581ob": 7251,
    "brow": 7252,
    "eext": 7253,
    "\u2581cqa": 7254,
    "\u2581sav": 7255,
    "\u2581sen": 7256,
    "proca": 7257,
    "sefor": 7258,
    "uthor": 7259,
    "\u2581cert": 7260,
    "\u2581scqa": 7261,
    "points": 7262,
    "\u25810x18e": 7263,
    "\u25810x22e": 7264,
    "\u2581pscqa": 7265,
    "\u2581there": 7266,
    "esystem": 7267,
    "folderw": 7268,
    "storedc": 7269,
    "\u25810x10e8": 7270,
    "\u25810x120e": 7271,
    "\u25810x411a": 7272,
    "\u25810x4224": 7273,
    "\u25810x4241": 7274,
    "\u25810x4250": 7275,
    "\u25810x42e0": 7276,
    "\u25810x42e5": 7277,
    "\u25810x48d0": 7278,
    "\u25810x4910": 7279,
    "\u25810x4aa8": 7280,
    "\u25810x4f80": 7281,
    "\u25810x7200": 7282,
    "\u25810x7dc5": 7283,
    "\u25810x8110": 7284,
    "\u25810x8821": 7285,
    "\u25810x8824": 7286,
    "\u25810xff87": 7287,
    "\u2581savedc": 7288,
    "\u2581shbrow": 7289,
    "\u2581unhook": 7290,
    "\u25810x120ce": 7291,
    "\u2581seticon": 7292,
    "\u2581setmenu": 7293,
    "\u2581setrect": 7294,
    "processid": 7295,
    "\u25810x42b26c": 7296,
    "\u25810x46aba8": 7297,
    "\u25810x65f538": 7298,
    "\u2581services": 7299,
    "\u2581varianti": 7300,
    "\u25810x1210f60": 7301,
    "\u25810x1211858": 7302,
    "\u25810x1211df4": 7303,
    "\u2581globalget": 7304,
    "\u2581mapwindow": 7305,
    "\u2581rectangle": 7306,
    "\u2581restoredc": 7307,
    "\u25810xfeee0129": 7308,
    "\u25810xfeee012a": 7309,
    "\u25810xfeee012b": 7310,
    "\u25810xfeee012c": 7311,
    "\u25810xfeee012d": 7312,
    "\u25810xfeee012e": 7313,
    "\u25810xfeee0140": 7314,
    "\u2581shbrowsefor": 7315,
    "windowshookex": 7316,
    "\u2581getatomnamea": 7317,
    "\u2581setscrollpos": 7318,
    "threadprocessid": 7319,
    "\u2581charlowerbuffw": 7320,
    "\u2581createdibitmap": 7321,
    "\u2581defwindowprocw": 7322,
    "\u2581mapwindowpoints": 7323,
    "\u2581createdibsection": 7324,
    "\u2581unhookwindowshookex": 7325,
    "\u2581getwindowthreadprocessid": 7326,
    "od": 7327,
    "123": 7328,
    "2e4": 7329,
    "37b": 7330,
    "3e8": 7331,
    "550": 7332,
    "758": 7333,
    "7c6": 7334,
    "84c": 7335,
    "927": 7336,
    "950": 7337,
    "976": 7338,
    "9bc": 7339,
    "9c6": 7340,
    "9e2": 7341,
    "b02": 7342,
    "bea": 7343,
    "db6": 7344,
    "de5": 7345,
    "e4d": 7346,
    "e76": 7347,
    "ed2": 7348,
    "f6c": 7349,
    "f8b": 7350,
    "fbc": 7351,
    "op2": 7352,
    "94d0": 7353,
    "acqu": 7354,
    "amer": 7355,
    "snot": 7356,
    "clear": 7357,
    "secon": 7358,
    "acquir": 7359,
    "hookex": 7360,
    "snotan": 7361,
    "zspeci": 7362,
    "\u25810x150": 7363,
    "\u25810x1f8": 7364,
    "\u25810x28c": 7365,
    "\u25810x425": 7366,
    "\u25810x7a8": 7367,
    "\u2581excep": 7368,
    "\u2581sendd": 7369,
    "patcher": 7370,
    "\u25810x40e9": 7371,
    "\u25810x4242": 7372,
    "\u25810x457c": 7373,
    "\u25810x46a4": 7374,
    "\u25810x46c5": 7375,
    "\u25810x4850": 7376,
    "\u25810x485f": 7377,
    "\u25810x4a10": 7378,
    "\u25810x4b20": 7379,
    "\u25810x4df1": 7380,
    "\u25810x8825": 7381,
    "\u25810x8829": 7382,
    "\u25810x882c": 7383,
    "\u25810x882d": 7384,
    "\u25810x8b70": 7385,
    "\u25810x97b0": 7386,
    "\u2581framer": 7387,
    "\u2581queryd": 7388,
    "\u2581scroll": 7389,
    "\u2581strcat": 7390,
    "leasecon": 7391,
    "\u25810x50130": 7392,
    "\u25810x52662": 7393,
    "\u2581appdata": 7394,
    "\u2581getdrag": 7395,
    "zspecific": 7396,
    "\u25810x100092": 7397,
    "\u25810x107568": 7398,
    "\u25810x1210f7": 7399,
    "\u25810x415ed0": 7400,
    "\u25810x41e000": 7401,
    "\u25810x422dd4": 7402,
    "\u25810x42a6a0": 7403,
    "\u25810x43a290": 7404,
    "\u25810x44d400": 7405,
    "\u25810x44e4d0": 7406,
    "\u25810x44e4e8": 7407,
    "\u25810x46b1b8": 7408,
    "\u2581callnext": 7409,
    "acquirecon": 7410,
    "incorrecte": 7411,
    "\u25810x1210e30": 7412,
    "\u25810x1211788": 7413,
    "\u25810x1211a08": 7414,
    "\u25810x1211c9c": 7415,
    "\u25810x1211d74": 7416,
    "\u2581findatoma": 7417,
    "queryvaluea": 7418,
    "snotanarray": 7419,
    "\u25810x54400000": 7420,
    "\u25810xfeee0155": 7421,
    "\u2581setcapture": 7422,
    "\u2581senddlgitem": 7423,
    "\u2581getdragimage": 7424,
    "\u2581variantarray": 7425,
    "\u2581getscrollinfo": 7426,
    "\u2581callnexthookex": 7427,
    "\u2581enablemenuitem": 7428,
    "\u2581querydosdevice": 7429,
    "\u2581setwindoworgex": 7430,
    "\u2581cryptacquirecon": 7431,
    "\u2581regqueryinfokeyw": 7432,
    "\u2581globalgetatomnamea": 7433,
    "\u2581getfileversioninfoa": 7434,
    "\u2581variantisnotanarray": 7435,
    "\u2581errorcreatingvariantarray": 7436,
    "\u2581variantarrayindexoutofbounds": 7437,
    "tw": 7438,
    "103": 7439,
    "138": 7440,
    "141": 7441,
    "154": 7442,
    "443": 7443,
    "449": 7444,
    "586": 7445,
    "a41": 7446,
    "a70": 7447,
    "ade": 7448,
    "ave": 7449,
    "bbf": 7450,
    "beb": 7451,
    "d80": 7452,
    "dc2": 7453,
    "e8b": 7454,
    "ef2": 7455,
    "f8f": 7456,
    "ify": 7457,
    "61a0": 7458,
    "7198": 7459,
    "dacl": 7460,
    "fill": 7461,
    "inta": 7462,
    "page": 7463,
    "rypt": 7464,
    "ignal": 7465,
    "namet": 7466,
    "propw": 7467,
    "verts": 7468,
    "header": 7469,
    "python": 7470,
    "ymonit": 7471,
    "\u25810x43d": 7472,
    "\u25810x4b8": 7473,
    "\u25810x4cc": 7474,
    "\u25810x4f4": 7475,
    "\u25810x535": 7476,
    "\u25810x580": 7477,
    "\u25810x593": 7478,
    "\u25810x606": 7479,
    "\u25810x701": 7480,
    "enabled": 7481,
    "\u25810x4011": 7482,
    "\u25810x4031": 7483,
    "\u25810x4158": 7484,
    "\u25810x4164": 7485,
    "\u25810x4220": 7486,
    "\u25810x4230": 7487,
    "\u25810x4239": 7488,
    "\u25810x43fb": 7489,
    "\u25810x4445": 7490,
    "\u25810x4497": 7491,
    "\u25810x44a7": 7492,
    "\u25810x44c0": 7493,
    "\u25810x48bf": 7494,
    "\u25810x4a58": 7495,
    "\u25810x4da0": 7496,
    "\u25810x61f0": 7497,
    "\u25810x7950": 7498,
    "\u25810x7b20": 7499,
    "\u25810x8040": 7500,
    "\u25810x8660": 7501,
    "\u25810x8a20": 7502,
    "\u25810x9810": 7503,
    "\u2581myarg2": 7504,
    "00000000": 7505,
    "registry": 7506,
    "\u25810x2e7f4": 7507,
    "\u25810x60000": 7508,
    "ymonitors": 7509,
    "\u25810x3f4000": 7510,
    "\u25810x403000": 7511,
    "\u25810x40aca0": 7512,
    "\u25810x40d4f0": 7513,
    "\u25810x414af8": 7514,
    "\u25810x41e070": 7515,
    "\u25810x435024": 7516,
    "\u25810x435026": 7517,
    "\u25810x435032": 7518,
    "\u25810x437800": 7519,
    "\u25810x450af0": 7520,
    "\u25810x466b40": 7521,
    "\u25810x466b88": 7522,
    "\u25810x478770": 7523,
    "\u25810x4f98d8": 7524,
    "\u25810x5c2af0": 7525,
    "\u25810x684110": 7526,
    "\u25810xb33300": 7527,
    "\u2581lockfile": 7528,
    "\u2581settings": 7529,
    "\u2581shcreate": 7530,
    "\u25810x1210d90": 7531,
    "\u25810x1210f50": 7532,
    "\u25810x1210f54": 7533,
    "\u25810x1211584": 7534,
    "\u25810x1211888": 7535,
    "\u25810x1211da8": 7536,
    "\u25810x1211e10": 7537,
    "\u25810x1211fe0": 7538,
    "\u25810x2000000": 7539,
    "\u2581errorcode": 7540,
    "\u25810xfeee012f": 7541,
    "\u25810xfeee0130": 7542,
    "\u25810xfeee0131": 7543,
    "\u25810xfeee0132": 7544,
    "\u25810xfeee0133": 7545,
    "\u25810xfeee0134": 7546,
    "\u25810xfeee0135": 7547,
    "\u25810xfeee0136": 7548,
    "\u25810xfeee0137": 7549,
    "\u25810xfeee0138": 7550,
    "\u25810xfeee0139": 7551,
    "\u25810xfeee013a": 7552,
    "\u25810xfeee013b": 7553,
    "\u25810xfeee013c": 7554,
    "\u25810xfeee013d": 7555,
    "\u25810xfeee013e": 7556,
    "\u25810xfeee013f": 7557,
    "\u25810xfeee0144": 7558,
    "\u25810xfeee0147": 7559,
    "\u25810xfffffffe": 7560,
    "\u2581createicon": 7561,
    "\u2581unlockfile": 7562,
    "\u2581getkeystate": 7563,
    "\u2581getusernamew": 7564,
    "\u2581startservice": 7565,
    "\u2581setscrollinfo": 7566,
    "\u2581gettimeformatw": 7567,
    "\u2581openscmanagera": 7568,
    "\u2581setwindowtextw": 7569,
    "\u2581iswindowenabled": 7570,
    "\u2581enumdisplaymonitors": 7571,
    "securitydescriptordacl": 7572,
    "\u2581getprivateprofilestringw": 7573,
    "drl6660drl6660drl6660drl6660drl6660drl6660drl6660drl6660drl6660": 7574,
    "mt": 7575,
    "1a0": 7576,
    "262": 7577,
    "265": 7578,
    "39b": 7579,
    "726": 7580,
    "7fc": 7581,
    "90c": 7582,
    "97c": 7583,
    "a38": 7584,
    "a40": 7585,
    "abb": 7586,
    "ad6": 7587,
    "bb2": 7588,
    "bce": 7589,
    "bin": 7590,
    "ce6": 7591,
    "d16": 7592,
    "d1a": 7593,
    "d43": 7594,
    "daa": 7595,
    "dup": 7596,
    "e1c": 7597,
    "e20": 7598,
    "e84": 7599,
    "ee7": 7600,
    "ef5": 7601,
    "f24": 7602,
    "f3c": 7603,
    "tex": 7604,
    "\u258114": 7605,
    "\u2581zu": 7606,
    "a4d0": 7607,
    "b260": 7608,
    "wait": 7609,
    "nativ": 7610,
    "teert": 7611,
    "\u25810x114": 7612,
    "\u25810x47a": 7613,
    "\u25810x484": 7614,
    "\u25810x565": 7615,
    "\u2581setac": 7616,
    "account": 7617,
    "codeptr": 7618,
    "\u25810x4078": 7619,
    "\u25810x4092": 7620,
    "\u25810x409f": 7621,
    "\u25810x40d9": 7622,
    "\u25810x4104": 7623,
    "\u25810x4112": 7624,
    "\u25810x423a": 7625,
    "\u25810x4311": 7626,
    "\u25810x4396": 7627,
    "\u25810x460c": 7628,
    "\u25810x4873": 7629,
    "\u25810x4bc0": 7630,
    "\u25810x4f60": 7631,
    "\u25810x576b": 7632,
    "\u25810x70b0": 7633,
    "\u25810x80a0": 7634,
    "\u25810x9690": 7635,
    "\u25810x99d0": 7636,
    "\u2581signal": 7637,
    "location": 7638,
    "uthority": 7639,
    "\u25810x40400": 7640,
    "\u25810x4356c": 7641,
    "\u25810x44780": 7642,
    "\u2581msgwait": 7643,
    "\u2581realize": 7644,
    "\u2581strcpyw": 7645,
    "ustwindow": 7646,
    "\u25810x2d053e": 7647,
    "\u25810x401310": 7648,
    "\u25810x40a540": 7649,
    "\u25810x57380c": 7650,
    "\u25810x57480c": 7651,
    "\u2581genteert": 7652,
    "\u2581getnativ": 7653,
    "\u25810x1211a28": 7654,
    "\u25810x1211d24": 7655,
    "\u25810xfeee0145": 7656,
    "\u25810xfeee0146": 7657,
    "\u25810xfeee0148": 7658,
    "\u25810xfeee0149": 7659,
    "\u25810xfeee014a": 7660,
    "\u25810xfeee014b": 7661,
    "\u25810xfeee014c": 7662,
    "\u25810xfeee0154": 7663,
    "\u2581createbrush": 7664,
    "\u2581isbadcodeptr": 7665,
    "\u2581setvieworgex": 7666,
    "\u2581dllgetversion": 7667,
    "\u2581selectpalette": 7668,
    "\u2581realizepalette": 7669,
    "\u2581createpopupmenu": 7670,
    "\u2581dialogboxparama": 7671,
    "\u2581getnativesystem": 7672,
    "\u2581setactivewindow": 7673,
    "\u2581createdialogparama": 7674,
    "\u2581createbrushindirect": 7675,
    "\u2581msgwaitformultipleob": 7676,
    "ew": 7677,
    "ft": 7678,
    "117": 7679,
    "134": 7680,
    "1b8": 7681,
    "368": 7682,
    "3cd": 7683,
    "3e3": 7684,
    "706": 7685,
    "73c": 7686,
    "761": 7687,
    "7b6": 7688,
    "7e4": 7689,
    "935": 7690,
    "9e3": 7691,
    "a09": 7692,
    "abe": 7693,
    "b06": 7694,
    "b60": 7695,
    "b93": 7696,
    "b94": 7697,
    "c0c": 7698,
    "d47": 7699,
    "d98": 7700,
    "e55": 7701,
    "ff6": 7702,
    "ien": 7703,
    "ivq": 7704,
    "lyn": 7705,
    "9e00": 7706,
    "\u2581log": 7707,
    "\u2581msi": 7708,
    "22008": 7709,
    "disys": 7710,
    "logon": 7711,
    "lynom": 7712,
    "rectex": 7713,
    "\u25810x218": 7714,
    "\u25810x43e": 7715,
    "\u25810x491": 7716,
    "\u25810x498": 7717,
    "\u25810x4cb": 7718,
    "\u25810x4cd": 7719,
    "\u2581htons": 7720,
    "atching": 7721,
    "station": 7722,
    "\u25810x12a1": 7723,
    "\u25810x3f20": 7724,
    "\u25810x4072": 7725,
    "\u25810x4114": 7726,
    "\u25810x4318": 7727,
    "\u25810x43a0": 7728,
    "\u25810x4564": 7729,
    "\u25810x47f9": 7730,
    "\u25810x4950": 7731,
    "\u25810x4d90": 7732,
    "\u25810x4e3a": 7733,
    "\u25810x4f50": 7734,
    "\u25810x4fa0": 7735,
    "\u25810x5b50": 7736,
    "\u25810x7a84": 7737,
    "\u25810x7fc0": 7738,
    "\u25810x8490": 7739,
    "\u25810x8838": 7740,
    "\u25810x8ec0": 7741,
    "\u25810x8f10": 7742,
    "\u25810x9090": 7743,
    "\u25810x90e0": 7744,
    "\u2581lowest": 7745,
    "\u2581verify": 7746,
    "econtrol": 7747,
    "temdisys": 7748,
    "\u25810x141ec": 7749,
    "\u25810x52664": 7750,
    "\u2581thereis": 7751,
    "\u25810x40a40c": 7752,
    "\u25810x40e540": 7753,
    "\u25810x419a88": 7754,
    "\u25810x41ecf0": 7755,
    "\u25810x42c2f8": 7756,
    "\u25810x443bf0": 7757,
    "\u25810x44e8e0": 7758,
    "\u25810x7ee01a": 7759,
    "\u25810x7f8000": 7760,
    "\u2581createdc": 7761,
    "namedpipea": 7762,
    "\u25810x1210ed0": 7763,
    "\u25810x121166c": 7764,
    "\u25810x1211684": 7765,
    "\u25810x12117ec": 7766,
    "\u25810x121185c": 7767,
    "\u25810x12119b8": 7768,
    "\u25810x1211c24": 7769,
    "\u25810x5265c3c": 7770,
    "otzspecific": 7771,
    "\u25810x10020750": 7772,
    "\u25810x10022008": 7773,
    "\u25810x10022050": 7774,
    "\u25810x10022068": 7775,
    "\u25810x10022080": 7776,
    "\u25810xfeee014d": 7777,
    "\u25810xfeee014e": 7778,
    "\u25810xfeee014f": 7779,
    "\u25810xfeee0150": 7780,
    "\u25810xfeee0151": 7781,
    "\u25810xfeee0152": 7782,
    "\u25810xfeee0157": 7783,
    "\u25810xfeee01a0": 7784,
    "currentlynom": 7785,
    "supedversion": 7786,
    "\u2581rectvisible": 7787,
    "temdisysaccel": 7788,
    "atchingversion": 7789,
    "\u2581verifyversion": 7790,
    "ustwindowrectex": 7791,
    "\u2581regqueryvaluea": 7792,
    "\u2581enumresourcename": 7793,
    "\u2581lowestsupedversion": 7794,
    "otzspecificlocaltime": 7795,
    "\u2581thereiscurrentlynom": 7796,
    "\u2581translatemdisysaccel": 7797,
    "\u2581gettextextentpoint32a": 7798,
    "\u2581systemparametersinfow": 7799,
    "\u2581getprivateprofilesection": 7800,
    "\u2581getsystemdefaultuilanguage": 7801,
    "\u2581systemtimetotzspecificlocaltime": 7802,
    "\u2581thereiscurrentlynomatchingversion": 7803,
    "32b": 7804,
    "332": 7805,
    "641": 7806,
    "6c8": 7807,
    "728": 7808,
    "924": 7809,
    "953": 7810,
    "960": 7811,
    "97d": 7812,
    "994": 7813,
    "a02": 7814,
    "b56": 7815,
    "b9c": 7816,
    "clu": 7817,
    "e0b": 7818,
    "e60": 7819,
    "2232": 7820,
    "95cc": 7821,
    "ante": 7822,
    "ecor": 7823,
    "ecut": 7824,
    "ffra": 7825,
    "lsid": 7826,
    "mpty": 7827,
    "star": 7828,
    "d2dre": 7829,
    "flott": 7830,
    "icode": 7831,
    "\u2581addr": 7832,
    "fframe": 7833,
    "ubmenu": 7834,
    "\u25810x116": 7835,
    "\u25810x477": 7836,
    "\u25810x50c": 7837,
    "\u25810x5c3": 7838,
    "\u25810xd00": 7839,
    "\u2581exclu": 7840,
    "loading": 7841,
    "sources": 7842,
    "\u25810x1828": 7843,
    "\u25810x4046": 7844,
    "\u25810x40d8": 7845,
    "\u25810x4227": 7846,
    "\u25810x43b2": 7847,
    "\u25810x4415": 7848,
    "\u25810x4810": 7849,
    "\u25810x4be0": 7850,
    "\u25810x50db": 7851,
    "\u25810x6855": 7852,
    "\u25810x7130": 7853,
    "\u25810x80f0": 7854,
    "\u25810x8831": 7855,
    "\u25810x8834": 7856,
    "\u25810x8835": 7857,
    "\u25810x8a00": 7858,
    "\u25810x8de0": 7859,
    "\u25810x8fc0": 7860,
    "\u25810x9850": 7861,
    "\u25810xfeed": 7862,
    "\u2581draw2d": 7863,
    "\u2581lclose": 7864,
    "\u2581please": 7865,
    "localesw": 7866,
    "\u25810x19448": 7867,
    "\u2581getopen": 7868,
    "\u2581ischild": 7869,
    "windowsex": 7870,
    "\u25810x107538": 7871,
    "\u25810x150000": 7872,
    "\u25810x40f0d0": 7873,
    "\u25810x41e06c": 7874,
    "\u25810x41efb0": 7875,
    "\u25810x41efe8": 7876,
    "\u25810x43a260": 7877,
    "\u25810x442804": 7878,
    "\u25810x442820": 7879,
    "\u25810x4606d0": 7880,
    "\u25810x47a000": 7881,
    "\u25810x484002": 7882,
    "\u25810x484010": 7883,
    "\u2581defframe": 7884,
    "\u2581recreate": 7885,
    "ecorrupted": 7886,
    "messagepos": 7887,
    "releasecon": 7888,
    "\u25810x1207498": 7889,
    "\u25810x120f8f6": 7890,
    "\u25810x1210d07": 7891,
    "\u25810x12116ec": 7892,
    "\u25810x121195c": 7893,
    "\u25810x1211a40": 7894,
    "\u25810x1211d78": 7895,
    "\u25810x1211ee8": 7896,
    "\u2581installer": 7897,
    "\u2581setsystem": 7898,
    "\u25810x56500000": 7899,
    "\u2581charupperw": 7900,
    "\u2581getsubmenu": 7901,
    "\u2581regconnect": 7902,
    "d2dresources": 7903,
    "directoryexw": 7904,
    "\u2581loadbitmapa": 7905,
    "\u2581errorloading": 7906,
    "releasecontext": 7907,
    "\u2581destroycursor": 7908,
    "\u2581exitwindowsex": 7909,
    "\u2581getmessagepos": 7910,
    "\u2581regenumvaluew": 7911,
    "\u2581unregisterclassa": 7912,
    "\u2581regconnectregistry": 7913,
    "\u2581recreated2dresources": 7914,
    "\u2581shcreatedirectoryexw": 7915,
    "\u2581shgetspecialfolderlocation": 7916,
    "ln": 7917,
    "150": 7918,
    "264": 7919,
    "310": 7920,
    "357": 7921,
    "374": 7922,
    "3a5": 7923,
    "560": 7924,
    "610": 7925,
    "78a": 7926,
    "961": 7927,
    "9f6": 7928,
    "a12": 7929,
    "b3c": 7930,
    "ba4": 7931,
    "c01": 7932,
    "d21": 7933,
    "d58": 7934,
    "d8f": 7935,
    "da4": 7936,
    "e34": 7937,
    "e3a": 7938,
    "e44": 7939,
    "ee3": 7940,
    "f16": 7941,
    "f93": 7942,
    "\u258113": 7943,
    "\u2581dc": 7944,
    "3500": 7945,
    "3560": 7946,
    "axpa": 7947,
    "d408": 7948,
    "ectw": 7949,
    "f5c8": 7950,
    "fcc0": 7951,
    "fram": 7952,
    "mdic": 7953,
    "tain": 7954,
    "\u2581and": 7955,
    "\u2581ldr": 7956,
    "\u2581pat": 7957,
    "\u2581pur": 7958,
    "notin": 7959,
    "\u2581adob": 7960,
    "\u2581time": 7961,
    "ectsex": 7962,
    "\u25810x10f": 7963,
    "\u25810x1fc": 7964,
    "\u25810x27c": 7965,
    "\u25810x41a": 7966,
    "\u25810x607": 7967,
    "\u2581lsass": 7968,
    "\u25810x3f28": 7969,
    "\u25810x40f2": 7970,
    "\u25810x40f8": 7971,
    "\u25810x4463": 7972,
    "\u25810x451e": 7973,
    "\u25810x4af4": 7974,
    "\u25810x4d20": 7975,
    "\u25810x4e20": 7976,
    "\u25810x505c": 7977,
    "\u25810x7140": 7978,
    "\u25810x7170": 7979,
    "\u25810x7e30": 7980,
    "\u25810x8839": 7981,
    "\u25810x8a70": 7982,
    "\u25810x99e0": 7983,
    "\u2581loader": 7984,
    "\u2581patblt": 7985,
    "mdichild": 7986,
    "nametext": 7987,
    "\u25810x120ef": 7988,
    "\u25810x15392": 7989,
    "\u2581getsave": 7990,
    "procedure": 7991,
    "pythondll": 7992,
    "\u25810x100088": 7993,
    "\u25810x40aba1": 7994,
    "\u25810x427dc0": 7995,
    "\u25810x435013": 7996,
    "\u25810x435019": 7997,
    "\u25810x43fb54": 7998,
    "\u25810x457440": 7999,
    "\u25810x47707c": 8000,
    "\u25810x4cfcc0": 8001,
    "\u25810x5c3f08": 8002,
    "\u25810x685528": 8003,
    "\u2581ptinrect": 8004,
    "\u25810x1211934": 8005,
    "\u25810x1211ad0": 8006,
    "\u25810x1211d90": 8007,
    "\u2581offsetrect": 8008,
    "\u2581defmdichild": 8009,
    "\u2581destroymenu": 8010,
    "windowstation": 8011,
    "\u2581variantclear": 8012,
    "\u2581setbrushorgex": 8013,
    "\u2581getkeynametext": 8014,
    "\u2581setconsolemode": 8015,
    "\u2581callwindowproca": 8016,
    "\u2581setdlgitemtexta": 8017,
    "\u2581windowfrompoint": 8018,
    "\u2581isdialogmessagea": 8019,
    "\u2581shgetfromidlista": 8020,
    "\u2581enumsystemlocalesw": 8021,
    "\u2581errorloadingpythondll": 8022,
    "cl": 8023,
    "122": 8024,
    "1cc": 8025,
    "243": 8026,
    "345": 8027,
    "3a8": 8028,
    "51c": 8029,
    "541": 8030,
    "564": 8031,
    "5b2": 8032,
    "5db": 8033,
    "737": 8034,
[...]
