{
    "<pad>": 0,
    "<unk>": 1,
    "<mask>": 2,
    "\u25810": 3,
    "\u25810x": 4,
    "00": 5,
    "er": 6,
    "ne": 7,
    "32": 8,
    "\u2581k": 9,
    "l32": 10,
    "erne": 11,
    "ernel32": 12,
    "\u2581kernel32": 13,
    "\u25810x0": 14,
    "et": 15,
    "\u25810x1": 16,
    "get": 17,
    "al": 18,
    "ee": 19,
    "ti": 20,
    "\u25810x4": 21,
    "\u2581get": 22,
    "in": 23,
    "ec": 24,
    "\u25810xf": 25,
    "0000": 26,
    "\u25810x7": 27,
    "oc": 28,
    "ad": 29,
    "re": 30,
    "st": 31,
    "iti": 32,
    "eee": 33,
    "\u25810xfeee": 34,
    "000": 35,
    "on": 36,
    "ss": 37,
    "one": 38,
    "ue": 39,
    "pr": 40,
    "le": 41,
    "proc": 42,
    "cal": 43,
    "sec": 44,
    "\u2581getproc": 45,
    "secti": 46,
    "riti": 47,
    "ritical": 48,
    "riticalsecti": 49,
    "\u25810x2": 50,
    "en": 51,
    "add": 52,
    "ress": 53,
    "address": 54,
    "\u2581getprocaddress": 55,
    "val": 56,
    "\u25810x12": 57,
    "\u25810x77": 58,
    "us": 59,
    "ls": 60,
    "value": 61,
    "\u2581n": 62,
    "\u2581none": 63,
    "getvalue": 64,
    "lsgetvalue": 65,
    "loc": 66,
    "\u25810x121": 67,
    "\u2581in": 68,
    "000000": 69,
    "\u25810xfeee000": 70,
    "ter": 71,
    "or": 72,
    "ecriticalsecti": 73,
    "ap": 74,
    "ff": 75,
    "user": 76,
    "co": 77,
    "\u25810x77000000": 78,
    "\u2581user": 79,
    "de": 80,
    "48": 81,
    "ar": 82,
    "\u2581user32": 83,
    "\u25810x1211": 84,
    "43": 85,
    "\u2581s": 86,
    "\u25810x46": 87,
    "an": 88,
    "\u25810xfeee00": 89,
    "948": 90,
    "\u25810x243": 91,
    "\u25810x243948": 92,
    "f0": 93,
    "\u2581f": 94,
    "\u2581t": 95,
    "a0": 96,
    "at": 97,
    "he": 98,
    "iz": 99,
    "\u2581c": 100,
    "aliz": 101,
    "la": 102,
    "itializ": 103,
    "\u2581initializ": 104,
    "err": 105,
    "\u2581initializecriticalsecti": 106,
    "error": 107,
    "heap": 108,
    "last": 109,
    "lasterror": 110,
    "\u2581en": 111,
    "\u25810xfeee0001": 112,
    "\u2581l": 113,
    "\u2581d": 114,
    "\u25810x8": 115,
    "po": 116,
    "\u2581tlsgetvalue": 117,
    "\u2581heap": 118,
    "str": 119,
    "alloc": 120,
    "\u2581m": 121,
    "inf": 122,
    "\u25810xfa0": 123,
    "poin": 124,
    "\u25810x5": 125,
    "info": 126,
    "pointer": 127,
    "depointer": 128,
    "and": 129,
    "90": 130,
    "\u25810x40": 131,
    "\u2581set": 132,
    "har": 133,
    "ex": 134,
    "\u2581flsgetvalue": 135,
    "ing": 136,
    "onex": 137,
    "00000": 138,
    "\u25810x100": 139,
    "string": 140,
    "d0": 141,
    "em": 142,
    "\u2581initializecriticalsectionex": 143,
    "dec": 144,
    "ac": 145,
    "li": 146,
    "oad": 147,
    "nt": 148,
    "\u2581load": 149,
    "\u2581heapalloc": 150,
    "lea": 151,
    "\u2581w": 152,
    "it": 153,
    "ab": 154,
    "\u2581getc": 155,
    "ow": 156,
    "\u25810x10": 157,
    "ent": 158,
    "local": 159,
    "mp": 160,
    "\u25810x45": 161,
    "fi": 162,
    "\u2581enco": 163,
    "\u2581encodepointer": 164,
    "\u2581getlasterror": 165,
    "\u25810xc": 166,
    "\u25810x3": 167,
    "10": 168,
    "rt": 169,
    "let": 170,
    "tion": 171,
    "om": 172,
    "is": 173,
    "\u2581setlasterror": 174,
    "by": 175,
    "xt": 176,
    "\u25810x400000": 177,
    "40": 178,
    "\u25810x1000": 179,
    "tr": 180,
    "ecriticalsection": 181,
    "read": 182,
    "ffff": 183,
    "e4": 184,
    "byt": 185,
    "leav": 186,
    "\u2581leav": 187,
    "\u2581leavecriticalsection": 188,
    "next": 189,
    "pinfo": 190,
    "\u2581enter": 191,
    "hand": 192,
    "criticalsecti": 193,
    "criticalsection": 194,
    "\u2581entercriticalsection": 195,
    "\u25810x46d0": 196,
    "\u25810x45f0": 197,
    "ess": 198,
    "\u2581char": 199,
    "\u2581charnext": 200,
    "locale": 201,
    "\u25810x43": 202,
    "\u25810x41": 203,
    "\u2581loadstring": 204,
    "exw": 205,
    "f8": 206,
    "unt": 207,
    "ion": 208,
    "ind": 209,
    "ul": 210,
    "eco": 211,
    "count": 212,
    "\u2581getcpinfo": 213,
    "vi": 214,
    "\u2581initializecriticalsection": 215,
    "c0": 216,
    "mo": 217,
    "\u25810x4e4": 218,
    "a5": 219,
    "ur": 220,
    "\u25810xc000": 221,
    "\u2581ms": 222,
    "\u25810x6": 223,
    "70": 224,
    "\u2581is": 225,
    "20": 226,
    "able": 227,
    "du": 228,
    "\u25810x7e": 229,
    "dco": 230,
    "\u25810xff": 231,
    "localeinfo": 232,
    "\u2581getlocaleinfo": 233,
    "\u2581init": 234,
    "stat": 235,
    "78": 236,
    "\u25810x78": 237,
    "dule": 238,
    "ed": 239,
    "indow": 240,
    "ulti": 241,
    "module": 242,
    "idec": 243,
    "ultibyt": 244,
    "idechar": 245,
    "stem": 246,
    "ll": 247,
    "handle": 248,
    "ans": 249,
    "\u2581getmodule": 250,
    "ystem": 251,
    "status": 252,
    "\u25810x7d": 253,
    "10000": 254,
    "que": 255,
    "\u25810x46f0": 256,
    "atom": 257,
    "lient": 258,
    "\u2581getcpinfoexw": 259,
    "\u25810x243948c": 260,
    "dcomp": 261,
    "action": 262,
    "table": 263,
    "queue": 264,
    "30": 265,
    "trans": 266,
    "letion": 267,
    "queuedcomp": 268,
    "letionstatus": 269,
    "queuedcompletionstatus": 270,
    "\u2581ddec": 271,
    "\u2581getqueuedcompletionstatus": 272,
    "transaction": 273,
    "\u2581ddeclient": 274,
    "\u2581ddeclienttransaction": 275,
    "atomtable": 276,
    "\u25810x2439480": 277,
    "\u25810x2439484": 278,
    "\u25810x2439488": 279,
    "\u2581initatomtable": 280,
    "18": 281,
    "\u25810x42": 282,
    "\u2581deco": 283,
    "\u2581decodepointer": 284,
    "vc": 285,
    "50": 286,
    "\u2581msvc": 287,
    "op": 288,
    "file": 289,
    "\u25810xfeee001": 290,
    "\u2581msvcrt": 291,
    "\u2581dll": 292,
    "me": 293,
    "\u25810x40a5": 294,
    "bc": 295,
    "fr": 296,
    "reat": 297,
    "\u25810x1211c": 298,
    "\u25810x4690": 299,
    "sp": 300,
    "process": 301,
    "98": 302,
    "e0": 303,
    "\u25810x1211f": 304,
    "indows": 305,
    "93": 306,
    "28": 307,
    "60": 308,
    "spin": 309,
    "spincount": 310,
    "andspincount": 311,
    "\u2581initializecriticalsectionandspincount": 312,
    "\u2581windows": 313,
    "\u2581charnextw": 314,
    "hread": 315,
    "yp": 316,
    "b0": 317,
    "\u2581creat": 318,
    "\u25810x1210": 319,
    "\u25810xfffff": 320,
    "rent": 321,
    "urrent": 322,
    "ey": 323,
    "\u25810xfffffff": 324,
    "\u25810x10c": 325,
    "ce": 326,
    "ge": 327,
    "id": 328,
    "\u2581loadstringw": 329,
    "\u25810x4c": 330,
    "cmp": 331,
    "\u25810xf00": 332,
    "br": 333,
    "ment": 334,
    "free": 335,
    "ary": 336,
    "ual": 337,
    "\u2581multibyt": 338,
    "etow": 339,
    "etowidechar": 340,
    "\u2581multibytetowidechar": 341,
    "virt": 342,
    "virtual": 343,
    "26": 344,
    "brary": 345,
    "\u2581system": 346,
    "80": 347,
    "\u2581loadstringa": 348,
    "age": 349,
    "\u2581getst": 350,
    "\u2581system32": 351,
    "\u2581charnexta": 352,
    "d10000": 353,
    "\u25810x77d10000": 354,
    "var": 355,
    "\u2581mem": 356,
    "key": 357,
    "7c": 358,
    "ect": 359,
    "42": 360,
    "d8": 361,
    "\u2581memcmp": 362,
    "lo": 363,
    "thread": 364,
    "un": 365,
    "58": 366,
    "\u25810x41f0": 367,
    "\u25810x41f040": 368,
    "hi": 369,
    "64": 370,
    "\u2581getlocaleinfow": 371,
    "map": 372,
    "\u2581virtual": 373,
    "cc": 374,
    "lock": 375,
    "\u25810x9": 376,
    "di": 377,
    "\u25810x44": 378,
    "ype": 379,
    "\u2581getcurrent": 380,
    "b8": 381,
    "\u25810x4093": 382,
    "a8": 383,
    "\u2581p": 384,
    "\u2581g": 385,
    "\u2581create": 386,
    "library": 387,
    "38": 388,
    "\u2581getlocaleinfoa": 389,
    "qu": 390,
    "def": 391,
    "68": 392,
    "\u2581re": 393,
    "\u2581heapfree": 394,
    "ut": 395,
    "filet": 396,
    "\u2581lc": 397,
    "34": 398,
    "\u25810x47": 399,
    "\u2581lcmap": 400,
    "\u2581lcmapstring": 401,
    "sle": 402,
    "handlew": 403,
    "dbc": 404,
    "open": 405,
    "\u2581getti": 406,
    "14": 407,
    "rst": 408,
    "ol": 409,
    "na": 410,
    "\u2581getmodulehandlew": 411,
    "d4": 412,
    "adbyt": 413,
    "dbcsle": 414,
    "\u2581isdbcsle": 415,
    "\u2581isdbcsleadbyt": 416,
    "\u2581isdbcsleadbyte": 417,
    "12": 418,
    "so": 419,
    "ck": 420,
    "\u25810x90": 421,
    "ers": 422,
    "dc": 423,
    "\u25810xffffffff": 424,
    "\u2581ap": 425,
    "ckcount": 426,
    "\u2581gettickcount": 427,
    "94": 428,
    "\u2581loadlibrary": 429,
    "\u2581inter": 430,
    "\u25810x5f8": 431,
    "\u25810x5f800000": 432,
    "\u2581var": 433,
    "\u2581gets": 434,
    "quer": 435,
    "56": 436,
    "e8": 437,
    "\u25810x70": 438,
    "\u2581interlock": 439,
    "\u25810x526": 440,
    "orm": 441,
    "2c": 442,
    "71": 443,
    "\u25810x20": 444,
    "tom": 445,
    "ultibyte": 446,
    "\u2581widechar": 447,
    "tomultibyte": 448,
    "\u2581widechartomultibyte": 449,
    "ch": 450,
    "wa": 451,
    "vw": 452,
    "abc": 453,
    "5c": 454,
    "\u25810x7de": 455,
    "a4": 456,
    "\u2581interlocked": 457,
    "mm": 458,
    "\u25810x12117": 459,
    "rement": 460,
    "ic": 461,
    "lm": 462,
    "\u2581ex": 463,
    "xy": 464,
    "xyz": 465,
    "\u2581abc": 466,
    "ghi": 467,
    "klm": 468,
    "nop": 469,
    "uvw": 470,
    "qrst": 471,
    "uvwxyz": 472,
    "nopqrst": 473,
    "defghi": 474,
    "nopqrstuvwxyz": 475,
    "\u2581abcdefghi": 476,
    "klmnopqrstuvwxyz": 477,
    "\u2581co": 478,
    "\u2581reg": 479,
    "f4": 480,
    "\u25810x78000000": 481,
    "\u2581getsystem": 482,
    "1c": 483,
    "\u25810xfeee002": 484,
    "7b": 485,
    "fc": 486,
    "\u25810x400": 487,
    "69": 488,
    "bad": 489,
    "\u25810x1211e": 490,
    "name": 491,
    "rit": 492,
    "\u2581local": 493,
    "\u25810xa": 494,
    "rite": 495,
    "74": 496,
    "\u25810x18": 497,
    "\u2581read": 498,
    "da": 499,
    "es": 500,
    "\u25810xfeee0004": 501,
    "ft": 502,
    "9c": 503,
    "75": 504,
    "\u25810x4c42": 505,
    "66": 506,
    "\u2581getfilet": 507,
    "ptr": 508,
    "\u2581isbad": 509,
    "\u25810x3f": 510,
    "\u2581getfiletype": 511,
    "\u25810x1211d": 512,
    "art": 513,
    "readptr": 514,
    "\u2581isbadreadptr": 515,
    "emp": 516,
    "\u2581getmodulehand": 517,
    "91": 518,
    "rect": 519,
    "dhandle": 520,
    "sset": 521,
    "\u25810x4610": 522,
    "\u25810x200": 523,
    "\u2581h": 524,
    "vers": 525,
    "\u2581getmodulehandlea": 526,
    "\u2581getstdhandle": 527,
    "3c": 528,
    "\u25811": 529,
    "\u25810xfeee008": 530,
    "\u25810x79": 531,
    "fe": 532,
    "lsset": 533,
    "lssetvalue": 534,
    "ron": 535,
    "\u25810x12119": 536,
    "\u25810x1c": 537,
    "viron": 538,
    "\u25810xfeee005": 539,
    "\u2581fls": 540,
    "b4": 541,
    "vironment": 542,
    "\u25810xf001": 543,
    "\u25810x7d90": 544,
    "\u25810x4378": 545,
    "6c": 546,
    "\u2581a": 547,
    "\u2581se": 548,
    "\u25810xfeee004": 549,
    "\u2581b": 550,
    "\u25810x7e70": 551,
    "filename": 552,
    "rector": 553,
    "\u25810xfeee0002": 554,
    "\u25810x54": 555,
    "artu": 556,
    "\u25810x48": 557,
    "\u25810x1210e": 558,
    "\u2581open": 559,
    "ware": 560,
    "\u25810x8c": 561,
    "los": 562,
    "inc": 563,
    "\u25810xfeee0000": 564,
    "\u2581fr": 565,
    "\u2581hkey": 566,
    "ftware": 567,
    "\u2581so": 568,
    "\u2581lcmapstringw": 569,
    "increment": 570,
    "\u2581interlockedincrement": 571,
    "\u25810xfeee003": 572,
    "54": 573,
    "\u2581getcurrentthread": 574,
    "strings": 575,
    "\u2581software": 576,
    "\u2581getmodulefilename": 577,
    "\u25810xcd": 578,
    "artupinfo": 579,
    "\u2581getstartupinfo": 580,
    "\u25810x800": 581,
    "iv": 582,
    "\u25810x77e": 583,
    "\u25810x77e10000": 584,
    "form": 585,
    "api": 586,
    "\u2581temp": 587,
    "\u25810x104": 588,
    "comm": 589,
    "line": 590,
    "\u2581getcurrentthreadid": 591,
    "ation": 592,
    "\u25810x80": 593,
    "res": 594,
    "andline": 595,
    "24": 596,
    "\u25810xfeee0003": 597,
    "aa": 598,
    "time": 599,
    "f5": 600,
    "query": 601,
    "\u2581getcomm": 602,
    "\u2581getprocess": 603,
    "\u2581lstr": 604,
    "\u2581getcommandline": 605,
    "\u25810x78c": 606,
    "\u25810xfff": 607,
    "\u25810x78c00000": 608,
    "\u2581flssetvalue": 609,
    "pool": 610,
    "list": 611,
    "write": 612,
    "\u2581virtualalloc": 613,
    "\u2581apis": 614,
    "vironmentstrings": 615,
    "\u25810x1211c98": 616,
    "db": 617,
    "\u2581flsalloc": 618,
    "arch": 619,
    "up": 620,
    "15": 621,
    "\u2581ad": 622,
    "rectory": 623,
    "ile": 624,
    "\u2581getprocessheap": 625,
    "96": 626,
    "api32": 627,
    "\u2581virtualquery": 628,
    "\u2581lcmapstringex": 629,
    "eex": 630,
    "window": 631,
    "\u2581current": 632,
    "onso": 633,
    "\u2581adv": 634,
    "\u2581advapi32": 635,
    "\u25810xfeee0005": 636,
    "\u25810xffb": 637,
    "vironmentstringsw": 638,
    "onsole": 639,
    "\u25810xfeee006": 640,
    "\u2581getcurrentprocess": 641,
    "88": 642,
    "as": 643,
    "\u2581localalloc": 644,
    "f6": 645,
    "\u25810xf003": 646,
    "\u2581page": 647,
    "valid": 648,
    "\u25810xf002": 649,
    "\u25810x88": 650,
    "1a": 651,
    "\u2581de": 652,
    "9a": 653,
    "\u25810x7b": 654,
    "locales": 655,
    "\u2581gdi": 656,
    "tin": 657,
    "fa": 658,
    "\u2581getvers": 659,
    "3d": 660,
    "7a": 661,
    "\u2581x": 662,
    "dr": 663,
    "vari": 664,
    "76": 665,
    "essage": 666,
    "\u2581readwrite": 667,
    "\u25810x1211c18": 668,
    "789": 669,
    "08": 670,
    "ethread": 671,
    "ot": 672,
    "\u2581search": 673,
    "cep": 674,
    "f9": 675,
    "\u2581loadlibrarya": 676,
    "filew": 677,
    "\u2581gdi32": 678,
    "bo": 679,
    "eb": 680,
    "\u25810x14": 681,
    "d2": 682,
    "\u2581find": 683,
    "\u2581clos": 684,
    "from": 685,
    "\u2581win": 686,
    "\u2581loadlibraryexw": 687,
    "\u25812": 688,
    "1234": 689,
    "56789": 690,
    "\u258101234": 691,
    "\u25810123456789": 692,
    "ob": 693,
    "\u2581ws": 694,
    "c8": 695,
    "16": 696,
    "\u25810x4670": 697,
    "ive": 698,
    "79": 699,
    "ad0": 700,
    "yper": 701,
    "forman": 702,
    "\u2581quer": 703,
    "\u2581queryper": 704,
    "\u2581queryperforman": 705,
    "ate": 706,
    "f1": 707,
    "\u2581locales": 708,
    "7e": 709,
    "d6": 710,
    "\u2581sl": 711,
    "eep": 712,
    "\u25810x73": 713,
    "\u2581getconsole": 714,
    "um": 715,
    "72": 716,
    "\u2581l1": 717,
    "\u2581sleep": 718,
    "type": 719,
    "ception": 720,
    "unter": 721,
    "\u25810x8000": 722,
    "\u25810x4c42c0": 723,
    "3e": 724,
    "ceco": 725,
    "cecounter": 726,
    "\u2581queryperformancecounter": 727,
    "\u25810x43b": 728,
    "a2": 729,
    "\u25810x8a": 730,
    "\u25810x7c": 731,
    "processor": 732,
    "pres": 733,
    "present": 734,
    "processlist": 735,
    "\u2581getconsoleprocesslist": 736,
    "\u25810x7de0": 737,
    "\u25810xfeee0006": 738,
    "message": 739,
    "11": 740,
    "7d": 741,
    "\u2581api": 742,
    "e5": 743,
    "\u2581regopen": 744,
    "\u2581regopenkey": 745,
    "ock": 746,
    "exa": 747,
    "95": 748,
    "ction": 749,
    "ting": 750,
    "\u2581geten": 751,
    "\u25810xb": 752,
    "ime": 753,
    "44": 754,
    "73": 755,
    "a6": 756,
    "dex": 757,
    "ure": 758,
    "directory": 759,
    "\u2581li": 760,
    "fb": 761,
    "ab0": 762,
    "\u25810x7000": 763,
    "69b": 764,
    "filetime": 765,
    "92": 766,
    "\u25810x71": 767,
    "\u2581o": 768,
    "\u2581invalid": 769,
    "\u2581getsystemtime": 770,
    "\u25810x7f": 771,
    "\u2581getstring": 772,
    "\u25810xfeee0007": 773,
    "ble": 774,
    "to": 775,
    "\u25810x7e71": 776,
    "\u2581getstringtype": 777,
    "\u2581core": 778,
    "ature": 779,
    "feature": 780,
    "\u2581isprocessor": 781,
    "featurepresent": 782,
    "\u2581isprocessorfeaturepresent": 783,
    "\u2581lstrle": 784,
    "ra": 785,
    "\u2581getthread": 786,
    "35": 787,
    "1b": 788,
    "\u25810x5266": 789,
    "ant": 790,
    "\u2581getmodulefilenamew": 791,
    "e6": 792,
    "dd": 793,
    "4c": 794,
    "9b": 795,
    "\u25810x7a": 796,
    "lob": 797,
    "f10000": 798,
    "\u25810x7d91": 799,
    "\u2581glob": 800,
    "1000": 801,
    "\u2581getstringtypew": 802,
    "int": 803,
    "\u25810xffc": 804,
    "25": 805,
    "\u25810x77f10000": 806,
    "\u25810xe": 807,
    "\u25810xd": 808,
    "ack": 809,
    "asfiletime": 810,
    "\u25810x70cc": 811,
    "\u25810x7890": 812,
    "tim": 813,
    "9e": 814,
    "py": 815,
    "\u25810x50": 816,
    "icon": 817,
    "sour": 818,
    "\u25810x1210f": 819,
    "fil": 820,
    "inform": 821,
    "\u2581sh": 822,
    "\u2581getac": 823,
    "ib": 824,
    "\u25810x56": 825,
    "\u25810x102": 826,
    "\u2581library": 827,
    "acc": 828,
    "\u25810x4c43": 829,
    "\u25810x12115": 830,
    "\u2581getacp": 831,
    "\u25810x12116": 832,
    "b5": 833,
    "\u2581getsystemtimeasfiletime": 834,
    "information": 835,
    "source": 836,
    "ethreadpool": 837,
    "8c": 838,
    "\u2581getstartupinfow": 839,
    "\u25810x75": 840,
    "\u25810x770": 841,
    "timer": 842,
    "ecut": 843,
    "\u25810xfeee0": 844,
    "3f": 845,
    "gu": 846,
    "hel": 847,
    "d1": 848,
    "d5": 849,
    "\u25810x7ec": 850,
    "\u25810x40a": 851,
    "\u25810x76": 852,
    "\u25810x7e8": 853,
    "df": 854,
    "\u25810x1211e0": 855,
    "\u2581regi": 856,
    "\u2581pf": 857,
    "\u2581getcurrentprocessid": 858,
    "stru": 859,
    "\u2581r": 860,
    "\u25810x4b": 861,
    "con": 862,
    "struction": 863,
    "eexw": 864,
    "\u2581getstartupinfoa": 865,
    "\u2581delet": 866,
    "19": 867,
    "dexception": 868,
    "filter": 869,
    "\u25810x8d": 870,
    "unhandle": 871,
    "dexceptionfilter": 872,
    "unhandledexceptionfilter": 873,
    "\u25810x30": 874,
    "\u2581map": 875,
    "ai": 876,
    "22": 877,
    "ber": 878,
    "lus": 879,
    "messagea": 880,
    "\u2581getcommandlinea": 881,
    "\u25810x120": 882,
    "\u25810x13": 883,
    "\u25810x74": 884,
    "\u25810x4e": 885,
    "\u25810x69": 886,
    "\u2581key": 887,
    "utes": 888,
    "decrement": 889,
    "\u2581interlockeddecrement": 890,
    "ecute": 891,
    "a1": 892,
    "\u2581setfile": 893,
    "\u2581getcommandlinew": 894,
    "7f": 895,
    "ervi": 896,
    "\u25810x72": 897,
    "hine": 898,
    "\u2581mac": 899,
    "\u2581machine": 900,
    "access": 901,
    "\u2581bor": 902,
    "\u2581write": 903,
    "1e": 904,
    "day": 905,
    "\u25810x58": 906,
    "\u25810x33": 907,
    "handl": 908,
    "ionex": 909,
    "\u2581free": 910,
    "\u2581getversionex": 911,
    "\u25810x4a": 912,
    "eeen": 913,
    "\u2581freeen": 914,
    "36": 915,
    "vai": 916,
    "vaila": 917,
    "vailable": 918,
    "\u25810x220": 919,
    "\u2581borl": 920,
    "3b": 921,
    "\u2581getmodulefilenamea": 922,
    "55": 923,
    "\u25810x4350": 924,
    "version": 925,
    "\u2581setunhandledexceptionfilter": 926,
    "ating": 927,
    "af": 928,
    "keyw": 929,
    "\u2581str": 930,
    "\u2581available": 931,
    "l66": 932,
    "\u2581borland": 933,
    "\u25810x8ad0": 934,
    "\u2581setthread": 935,
    "a9": 936,
    "\u2581getenvironmentstringsw": 937,
    "\u2581global": 938,
    "\u2581freeenvironmentstringsw": 939,
    "sc": 940,
    "\u25810x47b0": 941,
    "77": 942,
    "\u2581instruction": 943,
    "e1": 944,
    "l6660": 945,
    "i64": 946,
    "\u2581instructions": 947,
    "\u2581xmm": 948,
    "\u2581xmmi64": 949,
    "fromstr": 950,
    "\u2581regopenkeyexw": 951,
    "\u25810x7f8": 952,
    "\u2581mapvirtual": 953,
    "directoryw": 954,
    "\u25810x4d": 955,
    "filea": 956,
    "\u2581mapvirtualkeyw": 957,
    "il": 958,
    "\u25810xfffffff6": 959,
    "\u25810x1211dc0": 960,
    "\u25810xfffffff5": 961,
    "\u25810xfffffff4": 962,
    "\u25810x2a": 963,
    "ies": 964,
    "\u2581wa": 965,
    "\u25810x1211c7c": 966,
    "ult": 967,
    "\u25810x9000": 968,
    "\u25810x1211b": 969,
    "defa": 970,
    "eric": 971,
    "default": 972,
    "e7": 973,
    "b9": 974,
    "c4": 975,
    "variable": 976,
    "date": 977,
    "00c": 978,
    "\u2581getfile": 979,
    "\u25810x435": 980,
    "drl6660": 981,
    "27": 982,
    "\u2581getthreadlocale": 983,
    "99": 984,
    "all": 985,
    "ro": 986,
    "dep": 987,
    "\u25810x7ee": 988,
    "urs": 989,
    "\u25810x8b": 990,
    "106": 991,
    "\u2581regist": 992,
    "b3": 993,
    "num": 994,
    "iled": 995,
    "41": 996,
    "nw": 997,
    "bu": 998,
    "ition": 999,
    "\u25810x32": 1000,
    "dition": 1001,
    "\u25810x4c4308": 1002,
    "\u2581i": 1003,
    "\u25810x4750": 1004,
    "\u25810x8810": 1005,
    "\u2581execute": 1006,
    "ehandle": 1007,
    "first": 1008,
    "e2": 1009,
    "\u25810x4ab0": 1010,
    "\u25810x42c": 1011,
    "\u25810x7de1": 1012,
    "31": 1013,
    "wait": 1014,
    "f2": 1015,
    "fd": 1016,
    "\u25810x12116d8": 1017,
    "rw": 1018,
    "\u2581closehandle": 1019,
    "men": 1020,
    "\u25810x5265c": 1021,
    "97": 1022,
    "drl6660drl6660": 1023,
    "dll": 1024,
    "loating": 1025,
    "\u25810x69000000": 1026,
    "\u2581getversion": 1027,
    "lic": 1028,
    "\u25810x1211918": 1029,
    "boar": 1030,
    "bd": 1031,
    "\u2581createfilew": 1032,
    "b2": 1033,
    "lor": 1034,
    "menu": 1035,
    "creat": 1036,
    "print": 1037,
    "\u25810x1211758": 1038,
    "leas": 1039,
    "908": 1040,
    "\u25810x1211e04": 1041,
    "\u2581creates": 1042,
    "9d": 1043,
    "\u25810xf0019": 1044,
    "\u25810x437": 1045,
    "ys": 1046,
    "db10": 1047,
    "ef": 1048,
    "\u25810x1211c90": 1049,
    "gi": 1050,
    "84": 1051,
    "17": 1052,
    "\u25810x422": 1053,
    "\u25810x437b": 1054,
    "ity": 1055,
    "\u25810x53": 1056,
    "\u2581gen": 1057,
    "mode": 1058,
    "\u2581shel": 1059,
    "ervice": 1060,
    "\u2581process": 1061,
    "vali": 1062,
    "db10106": 1063,
    "\u25810x1db10106": 1064,
    "cec": 1065,
    "\u25810x42a": 1066,
    "ov": 1067,
    "\u2581access": 1068,
    "aps": 1069,
    "end": 1070,
    "validco": 1071,
    "\u25810x50000": 1072,
    "33": 1073,
    "create": 1074,
    "wor": 1075,
    "\u2581fa": 1076,
    "\u2581generic": 1077,
    "met": 1078,
    "b6": 1079,
    "\u25810x105": 1080,
    "rwlock": 1081,
    "depage": 1082,
    "\u25810xfeee0008": 1083,
    "\u25817": 1084,
    "\u2581isvalidco": 1085,
    "\u2581isvalidcodepage": 1086,
    "\u25810x7f800": 1087,
    "\u2581process32": 1088,
    "lass": 1089,
    "\u25810x49": 1090,
    "\u25810x3394": 1091,
    "\u25810x4000": 1092,
    "\u25810xfeee0009": 1093,
    "\u25810xfeee000a": 1094,
    "ith": 1095,
    "\u25810xfeee000b": 1096,
    "\u2581register": 1097,
    "\u25810x82": 1098,
    "\u25810xfeee000c": 1099,
    "mpa": 1100,
    "low": 1101,
    "e9": 1102,
    "\u25810xfeee000d": 1103,
    "\u25810xfeee000e": 1104,
    "color": 1105,
    "\u25810xfeee000f": 1106,
    "\u25810x169b": 1107,
    "point": 1108,
    "work": 1109,
    "ors": 1110,
    "\u25810x44f8": 1111,
    "\u25810xfeee0014": 1112,
    "\u2581al": 1113,
    "\u25810x2c": 1114,
    "lose": 1115,
    "51": 1116,
    "\u25810xfeee0010": 1117,
    "\u25810x5265": 1118,
    "resource": 1119,
    "\u25810xfeee0015": 1120,
    "\u2581exit": 1121,
    "\u25810xfeee0013": 1122,
    "\u25810xfeee0012": 1123,
    "\u25810xfeee0016": 1124,
    "\u25810xfeee0011": 1125,
    "board": 1126,
    "\u2581freelibrary": 1127,
    "ursor": 1128,
    "2000": 1129,
    "be": 1130,
    "\u2581dr": 1131,
    "\u2581failed": 1132,
    "menuinfo": 1133,
    "close": 1134,
    "\u25810x420": 1135,
    "\u2581tr": 1136,
    "ip": 1137,
    "b1": 1138,
    "set": 1139,
    "\u2581getuser": 1140,
    "\u2581lstrlena": 1141,
    "d3": 1142,
    "not": 1143,
    "\u25810x4600": 1144,
    "\u2581tls": 1145,
    "\u2581drive": 1146,
    "\u2581setmenuinfo": 1147,
    "\u2581vari": 1148,
    "ae": 1149,
    "edc": 1150,
    "\u2581heapcreate": 1151,
    "\u2581lstrlenw": 1152,
    "ub": 1153,
    "f3": 1154,
    "a3": 1155,
    "clus": 1156,
    "clusive": 1157,
    "rwlockex": 1158,
    "rwlockexclusive": 1159,
    "attr": 1160,
    "attrib": 1161,
    "cpy": 1162,
    "\u25810x43780": 1163,
    "term": 1164,
    "\u2581releas": 1165,
    "\u25810x12114": 1166,
    "\u25810x3000": 1167,
    "\u2581floating": 1168,
    "2e": 1169,
    "attributes": 1170,
    "und": 1171,
    "\u25810x28": 1172,
    "erf": 1173,
    "yo": 1174,
    "\u25810x569b": 1175,
    "9f": 1176,
    "ame": 1177,
    "cursor": 1178,
    "put": 1179,
    "soft": 1180,
    "erflow": 1181,
    "\u2581wsprint": 1182,
    "\u25817z": 1183,
    "f7": 1184,
    "net": 1185,
    "\u25810xfeee0017": 1186,
    "a7": 1187,
    "d9": 1188,
    "icro": 1189,
    "\u25810x11": 1190,
    "icrosoft": 1191,
    "\u25810xfeee0018": 1192,
    "eek": 1193,
    "angu": 1194,
    "\u25810xfeee0019": 1195,
    "\u2581flsfree": 1196,
    "anguage": 1197,
    "\u25810x1e": 1198,
    "\u2581tlssetvalue": 1199,
    "\u25810x429": 1200,
    "\u25810x40a5ce": 1201,
    "\u25810x40a5d0": 1202,
    "\u25810x40a5d2": 1203,
    "\u25810x40a5d4": 1204,
    "\u25810x40a5d6": 1205,
    "\u25810x40a5d8": 1206,
    "\u25810x40a5da": 1207,
    "\u2581microsoft": 1208,
    "\u2581loadcursor": 1209,
    "45": 1210,
    "ilanguage": 1211,
    "condition": 1212,
    "ecount": 1213,
    "\u2581loadicon": 1214,
    "off": 1215,
    "\u25810x1211cf8": 1216,
    "\u25810x1f4": 1217,
    "\u2581tlsalloc": 1218,
    "edi": 1219,
    "\u25810x19": 1220,
    "\u25810x410": 1221,
    "\u25810x43b7b": 1222,
    "qui": 1223,
    "\u2581delete": 1224,
    "\u2581closethreadpool": 1225,
    "\u2581createthreadpool": 1226,
    "\u2581getsystemdirectoryw": 1227,
    "508": 1228,
    "ock32": 1229,
    "\u2581wsock32": 1230,
    "eg": 1231,
    "\u2581lread": 1232,
    "\u2581strn": 1233,
    "\u258120": 1234,
    "handlecount": 1235,
    "\u25810x21000": 1236,
    "e3": 1237,
    "\u2581sethandlecount": 1238,
    "63": 1239,
    "\u25810x7810": 1240,
    "\u25810x64": 1241,
    "308": 1242,
    "acqui": 1243,
    "\u25810x4371": 1244,
    "\u25810x1f400": 1245,
    "format": 1246,
    "2b": 1247,
    "280": 1248,
    "c08": 1249,
    "\u2581currentversion": 1250,
    "\u25810x7f00": 1251,
    "realloc": 1252,
    "offile": 1253,
    "220": 1254,
    "call": 1255,
    "\u2581gett": 1256,
    "\u25810x7830": 1257,
    "\u2581st": 1258,
    "urity": 1259,
    "sub": 1260,
    "acquires": 1261,
    "acquiresrwlockexclusive": 1262,
    "erw": 1263,
    "\u2581strncmp": 1264,
    "security": 1265,
    "yn": 1266,
    "number": 1267,
    "class": 1268,
    "lip": 1269,
    "\u2581file": 1270,
    "13": 1271,
    "\u25810xfeee001a": 1272,
    "\u25810x1211908": 1273,
    "ag": 1274,
    "\u25810x60": 1275,
    "\u25810x12114b8": 1276,
    "\u25810x2e": 1277,
    "\u2581pr": 1278,
    "\u25810x3f75": 1279,
    "\u25810x38": 1280,
    "\u25810x1075": 1281,
    "\u2581gettemp": 1282,
    "\u2581getversionexw": 1283,
    "back": 1284,
    "edirectory": 1285,
    "ord": 1286,
    "\u2581th": 1287,
    "\u25810x1211718": 1288,
    "\u25810x7ec0": 1289,
    "\u2581wait": 1290,
    "\u25810xa0": 1291,
    "ename": 1292,
    "\u25810x496": 1293,
    "ynch": 1294,
    "bb": 1295,
    "\u25810x1211948": 1296,
    "ea": 1297,
    "65": 1298,
    "\u25810x1211728": 1299,
    "\u2581ole": 1300,
    "\u2581with": 1301,
    "\u25810xfeee001c": 1302,
    "\u2581synch": 1303,
    "\u2581regopenkeyexa": 1304,
    "ont": 1305,
    "\u25810x1211e2c": 1306,
    "callback": 1307,
    "dc8": 1308,
    "\u25810xfeee001b": 1309,
    "\u2581wc": 1310,
    "\u2581setup": 1311,
    "pooltimer": 1312,
    "tered": 1313,
    "\u2581altered": 1314,
    "\u25810x7930": 1315,
    "\u2581heaprealloc": 1316,
    "\u25810x460": 1317,
    "\u2581dra": 1318,
    "ed8": 1319,
    "\u25810x5265c14": 1320,
    "\u25810x1a": 1321,
    "\u2581setfilepointer": 1322,
    "lect": 1323,
    "\u25810x44f9": 1324,
    "ero": 1325,
    "rectories": 1326,
    "ba": 1327,
    "fw": 1328,
    "\u2581code": 1329,
    "\u2581shell32": 1330,
    "de9": 1331,
    "\u2581wsprintfw": 1332,
    "\u25810x1211dcc": 1333,
    "\u2581peek": 1334,
    "div": 1335,
    "\u2581getdc": 1336,
    "\u2581exitprocess": 1337,
    "ett": 1338,
    "\u2581con": 1339,
    "pal": 1340,
    "palett": 1341,
    "\u25810xfeee001d": 1342,
    "\u25810x4630": 1343,
    "directories": 1344,
    "\u25810x4967": 1345,
    "780": 1346,
    "23": 1347,
    "ockob": 1348,
    "\u2581getstockob": 1349,
    "b7": 1350,
    "oper": 1351,
    "ay": 1352,
    "\u2581waitf": 1353,
    "\u25810x5f5": 1354,
    "\u2581variant": 1355,
    "gear": 1356,
    "\u25810x569b00": 1357,
    "\u25810x700c": 1358,
    "\u2581codegear": 1359,
    "scr": 1360,
    "180": 1361,
    "ee0": 1362,
    "\u25810x46b0": 1363,
    "\u2581setdefault": 1364,
    "ision": 1365,
    "\u2581findfirst": 1366,
    "\u2581peekmessagea": 1367,
    "dlldirectories": 1368,
    "\u2581setdefaultdlldirectories": 1369,
    "ember": 1370,
    "\u25810x1211528": 1371,
    "variant": 1372,
    "esource": 1373,
    "\u2581virtualfree": 1374,
    "\u2581readfile": 1375,
    "\u25810x2000": 1376,
    "scrip": 1377,
    "400": 1378,
    "\u25810x198": 1379,
    "\u25810x704c": 1380,
    "\u25810x708c": 1381,
    "62": 1382,
    "100": 1383,
    "\u2581select": 1384,
    "script": 1385,
    "1d": 1386,
    "operation": 1387,
    "\u25810x12118": 1388,
    "52": 1389,
    "informationby": 1390,
    "6d": 1391,
    "\u25810x19a": 1392,
    "descript": 1393,
    "securitydescript": 1394,
    "\u2581lstrcpy": 1395,
    "gical": 1396,
    "logical": 1397,
    "\u2581getlogical": 1398,
    "\u2581wnet": 1399,
    "\u2581findclose": 1400,
    "dater": 1401,
    "bstr": 1402,
    "bstrfrom": 1403,
    "\u2581varbstrfrom": 1404,
    "\u25810x1b": 1405,
    "\u25810xfeee01": 1406,
    "\u25810xfeee001e": 1407,
    "ho": 1408,
    "\u25810xfeee008b": 1409,
    "\u25810x22": 1410,
    "\u25810x79f0": 1411,
    "\u25810xa000": 1412,
    "\u2581writefile": 1413,
    "\u25810xfeee001f": 1414,
    "\u2581compa": 1415,
    "\u2581compare": 1416,
    "\u25810x8a40": 1417,
    "ext": 1418,
    "\u25810x16": 1419,
    "\u2581try": 1420,
    "ata": 1421,
    "\u25810xfeee0020": 1422,
    "devi": 1423,
    "\u25810x1211f8": 1424,
    "localename": 1425,
    "vie": 1426,
    "initializ": 1427,
    "\u25810x1f": 1428,
    "3a": 1429,
    "\u25810x7910": 1430,
    "dateresource": 1431,
    "\u25810xfde9": 1432,
    "\u2581up": 1433,
    "isting": 1434,
    "\u2581tryacquiresrwlockexclusive": 1435,
    "prot": 1436,
    "\u25810x8f": 1437,
    "c6": 1438,
    "ics": 1439,
    "of": 1440,
    "\u2581comparestring": 1441,
    "oct": 1442,
    "\u2581createdirectory": 1443,
    "588": 1444,
    "pa": 1445,
    "\u2581error": 1446,
    "\u2581process32next": 1447,
    "metr": 1448,
    "\u25810x68": 1449,
    "service": 1450,
    "metrics": 1451,
    "39": 1452,
    "\u25810x15": 1453,
    "bit": 1454,
    "\u2581txt": 1455,
    "\u2581crt": 1456,
    "\u2581getenvironment": 1457,
    "\u25810x3c": 1458,
    "\u2581getdevi": 1459,
    "\u25810x1211dd4": 1460,
    "pre": 1461,
    "lp": 1462,
    "cecaps": 1463,
    "\u2581getdevicecaps": 1464,
    "1f": 1465,
    "5e": 1466,
    "\u2581getsystemmetrics": 1467,
    "protect": 1468,
    "sti": 1469,
    "300": 1470,
    "\u25810x17": 1471,
    "\u25810x7aa0": 1472,
    "\u2581fib": 1473,
    "\u2581fibers": 1474,
    "\u2581existing": 1475,
    "480": 1476,
    "\u25810x3e": 1477,
    "\u25810x8cc0": 1478,
    "\u2581beg": 1479,
    "formatex": 1480,
    "lipboard": 1481,
    "yscolor": 1482,
    "\u2581getsyscolor": 1483,
    "econ": 1484,
    "\u25810x2f": 1485,
    "\u2581virtualprotect": 1486,
    "\u25810x12117f8": 1487,
    "\u25810x79d0": 1488,
    "\u2581globalalloc": 1489,
    "\u25810x44f8e0": 1490,
    "\u2581e": 1491,
    "22030": 1492,
    "\u25812022030": 1493,
    "\u2581mon": 1494,
    "bug": 1495,
    "\u25813": 1496,
    "\u25810x7850": 1497,
    "\u25810x408": 1498,
    "olf": 1499,
    "\u2581ch": 1500,
    "5f": 1501,
    "emap": 1502,
    "61": 1503,
    "\u2581begin": 1504,
    "6b": 1505,
    "\u25810x5f500000": 1506,
    "\u2581registerclass": 1507,
    "\u2581font": 1508,
    "\u25810x4c32": 1509,
    "stit": 1510,
    "lphi": 1511,
    "\u2581delphi": 1512,
    "directorya": 1513,
    "substit": 1514,
    "substitutes": 1515,
    "\u2581fontsubstitutes": 1516,
    "\u25810x48f8": 1517,
    "\u25810x180": 1518,
    "2a": 1519,
    "\u25810x437a": 1520,
    "\u25810x25": 1521,
    "chan": 1522,
    "debug": 1523,
    "\u25810x101": 1524,
    "\u25810x42a40": 1525,
    "900": 1526,
    "\u25810x1211d0": 1527,
    "\u25810x1211f64": 1528,
    "adwork": 1529,
    "46": 1530,
    "input": 1531,
    "attributesw": 1532,
    "fo": 1533,
    "eto": 1534,
    "\u2581app": 1535,
    "help": 1536,
    "8a": 1537,
    "variab": 1538,
    "mem": 1539,
    "lush": 1540,
    "\u2581initterm": 1541,
    "\u2581releasedc": 1542,
    "\u25810x7ad0": 1543,
    "old": 1544,
    "37": 1545,
    "\u25810xfeee005f": 1546,
    "320": 1547,
    "c2": 1548,
    "\u2581getsysteminfo": 1549,
    "\u25810x188": 1550,
    "\u2581createsemap": 1551,
    "\u25810x409": 1552,
    "fer": 1553,
    "\u25810x1211fd8": 1554,
    "5b": 1555,
    "\u25810x84": 1556,
    "eck": 1557,
    "ct": 1558,
    "\u25810x1211f28": 1559,
    "ocket": 1560,
    "\u25810x6b": 1561,
    "cy": 1562,
    "\u2581getkey": 1563,
    "\u25810x1211fd0": 1564,
    "og": 1565,
    "21": 1566,
    "\u25810x430": 1567,
    "arg": 1568,
    "\u25810x99": 1569,
    "buff": 1570,
    "\u25810x40933d": 1571,
    "\u25810x40933e": 1572,
    "\u25810x40933f": 1573,
    "\u25810x409340": 1574,
    "\u25810x409341": 1575,
    "\u25810x409342": 1576,
    "\u2581findfirstfilew": 1577,
    "\u25810x409343": 1578,
    "\u25810x1211f7c": 1579,
    "210": 1580,
    "53": 1581,
    "\u25810x771": 1582,
    "paint": 1583,
    "4d": 1584,
    "ory": 1585,
    "\u25810x67": 1586,
    "\u25810x51a": 1587,
    "dis": 1588,
    "\u25810x423": 1589,
    "\u2581createa": 1590,
    "\u25810x4c42d8": 1591,
    "\u25810x4c42f0": 1592,
    "\u2581nt": 1593,
    "\u25810x169bf": 1594,
    "zero": 1595,
    "view": 1596,
    "\u2581createfilea": 1597,
    "\u25810x1211cc0": 1598,
    "\u25810x12119c0": 1599,
    "\u2581deletecriticalsection": 1600,
    "\u2581malloc": 1601,
    "trac": 1602,
    "\u25810x1211748": 1603,
    "\u2581getm": 1604,
    "\u25810x43b7c": 1605,
    "0000000": 1606,
    "\u2581loadcursora": 1607,
    "prefer": 1608,
    "localtime": 1609,
    "conditionvariable": 1610,
    "\u2581gettempw": 1611,
    "drl6660drl6660drl6660drl6660": 1612,
    "\u25810xa9": 1613,
    "\u2581out": 1614,
    "29": 1615,
    "\u2581flush": 1616,
    "\u25810x1211958": 1617,
    "5000": 1618,
    "\u25810x1211dc8": 1619,
    "\u25810x4f": 1620,
    "allock": 1621,
    "own": 1622,
    "\u2581wak": 1623,
    "ntr": 1624,
    "\u2581extrac": 1625,
    "770": 1626,
    "ilanguages": 1627,
    "\u25810x8af0": 1628,
    "redu": 1629,
    "preferredu": 1630,
    "preferreduilanguages": 1631,
    "\u2581getversionexa": 1632,
    "\u2581getlocaltime": 1633,
    "\u2581loadicona": 1634,
    "ray": 1635,
    "59": 1636,
    "\u25810x8a80": 1637,
    "c04": 1638,
    "2d": 1639,
    "\u25810x29": 1640,
    "\u2581copy": 1641,
    "load": 1642,
    "trl": 1643,
    "text": 1644,
    "array": 1645,
    "\u25810x24": 1646,
    "windowexa": 1647,
    "\u25810x1211508": 1648,
    "\u25810x1211fcc": 1649,
    "\u2581ini": 1650,
    "\u25810x43500": 1651,
    "\u2581globallock": 1652,
    "mage": 1653,
    "\u2581exe": 1654,
    "ink": 1655,
    "eentr": 1656,
    "\u25810x527": 1657,
    "\u25810x214": 1658,
    "state": 1659,
    "\u25810x8e": 1660,
    "\u25810x1211f2c": 1661,
    "a04": 1662,
    "\u25810xcc": 1663,
    "3000": 1664,
    "\u25810x527ed8": 1665,
    "sup": 1666,
    "\u2581sat": 1667,
    "cb": 1668,
    "dateresourcea": 1669,
    "\u25810x98": 1670,
    "\u25810x1211928": 1671,
    "\u2581nov": 1672,
    "buffers": 1673,
    "sn": 1674,
    "\u2581sep": 1675,
    "afe": 1676,
    "e44": 1677,
    "\u25810x5a": 1678,
    "\u2581start": 1679,
    "\u2581windowsnt": 1680,
    "\u2581au": 1681,
    "\u2581oct": 1682,
    "\u25810x23": 1683,
    "\u2581apr": 1684,
    "hot": 1685,
    "\u25810x4428": 1686,
    "\u25810x34": 1687,
    "\u2581dec": 1688,
    "stry": 1689,
    "\u25810x437880": 1690,
    "\u2581dis": 1691,
    "\u2581sun": 1692,
    "\u2581golf": 1693,
    "\u25810x5b": 1694,
    "eentries": 1695,
    "paletteentries": 1696,
    "uary": 1697,
    "\u2581may": 1698,
    "sday": 1699,
    "\u2581tue": 1700,
    "\u2581wed": 1701,
    "\u2581loadlibraryw": 1702,
    "\u2581com": 1703,
    "430": 1704,
    "fold": 1705,
    "\u25810x4bc": 1706,
    "5d": 1707,
    "\u25810x4790": 1708,
    "suped": 1709,
    "6a": 1710,
    "\u2581getsystempaletteentries": 1711,
    "ace": 1712,
    "\u25810x1211cdc": 1713,
    "c1": 1714,
    "b04": 1715,
    "\u25810x1211ec": 1716,
    "\u2581floatingpoint": 1717,
    "\u2581invalidvariant": 1718,
    "overflow": 1719,
    "byzero": 1720,
    "isionbyzero": 1721,
    "bf": 1722,
    "730": 1723,
    "\u2581createw": 1724,
    "6e": 1725,
    "\u25810x7e80": 1726,
    "etool": 1727,
    "apshot": 1728,
    "\u25810x94": 1729,
    "help32": 1730,
    "\u2581createtool": 1731,
    "help32sn": 1732,
    "help32snapshot": 1733,
    "\u2581createtoolhelp32snapshot": 1734,
    "bool": 1735,
    "link": 1736,
    "\u2581un": 1737,
    "\u2581varr": 1738,
    "4fromstr": 1739,
    "\u2581draw": 1740,
    "afearray": 1741,
    "hor": 1742,
    "drive": 1743,
    "a50": 1744,
    "9000": 1745,
    "\u25810x7e74": 1746,
    "\u25810x7e75": 1747,
    "ass": 1748,
    "emut": 1749,
    "2f": 1750,
    "\u2581initializes": 1751,
    "clipboard": 1752,
    "\u25810x7e78": 1753,
    "\u25810x7e79": 1754,
    "\u2581getuserdefault": 1755,
    "system": 1756,
    "\u25810x7e7c": 1757,
    "\u25810x7e7d": 1758,
    "\u2581send": 1759,
    "188": 1760,
    "\u25810x1211fd4": 1761,
    "\u25810x1d": 1762,
    "\u25810x1211e08": 1763,
    "\u25810xfeee0040": 1764,
    "640": 1765,
    "\u25810x7cd0": 1766,
    "\u25810x85": 1767,
    "\u25810xfeee007c": 1768,
    "\u25810x7e81": 1769,
    "\u25810xfeee0027": 1770,
    "your": 1771,
    "d7": 1772,
    "\u2581contr": 1773,
    "\u25810x40a5dc": 1774,
    "\u25810x40a5cc": 1775,
    "\u25810x3f75f": 1776,
    "atch": 1777,
    "86": 1778,
    "\u25810xfeee0021": 1779,
    "\u25810x1211578": 1780,
    "\u25810xfeee0026": 1781,
    "\u2581rec": 1782,
    "\u25810x4015": 1783,
    "orsafearray": 1784,
    "\u25810xffff": 1785,
    "\u25810x1211308": 1786,
    "\u25810xfeee0022": 1787,
    "\u25810x7e85": 1788,
    "variablew": 1789,
    "\u25810x7e84": 1790,
    "viewoffile": 1791,
    "4e": 1792,
    "de0": 1793,
    "\u25810x4710": 1794,
    "208": 1795,
    "\u2581process32first": 1796,
    "c5": 1797,
    "ast": 1798,
    "\u25810x42c588": 1799,
    "\u25810x4e5": 1800,
    "\u25810x2d4": 1801,
    "\u25810xfeee0023": 1802,
    "\u25810xfeee009a": 1803,
    "\u25810xfeee0024": 1804,
    "ym": 1805,
    "\u25810xfeee0025": 1806,
    "ns": 1807,
    "82": 1808,
    "\u2581createprocess": 1809,
    "a256": 1810,
    "wh": 1811,
    "\u25810x1211ef0": 1812,
    "\u25810xe0": 1813,
    "\u2581ole32": 1814,
    "\u2581sha256": 1815,
    "inal": 1816,
    "\u2581run": 1817,
    "\u25810x57": 1818,
    "\u2581enum": 1819,
    "94c": 1820,
    "se": 1821,
    "files": 1822,
    "\u25810x1211f30": 1823,
    "ac0": 1824,
    "ow64": 1825,
    "\u2581getw": 1826,
    "\u2581image": 1827,
    "\u25810x5f": 1828,
    "spec": 1829,
    "\u25810xfeee005d": 1830,
    "\u25810x83": 1831,
    "\u2581rt": 1832,
    "\u25810x9c": 1833,
    "\u25810x1210d": 1834,
    "oy": 1835,
    "\u2581comparestringex": 1836,
    "\u2581getlocaleinfoex": 1837,
    "\u2581rtl": 1838,
    "\u25810x1804": 1839,
    "stroy": 1840,
    "\u25810x1211bc0": 1841,
    "linkw": 1842,
    "\u2581gettime": 1843,
    "5a": 1844,
    "\u25810xfeee0072": 1845,
    "patch": 1846,
    "67": 1847,
    "eall": 1848,
    "\u25810x58de": 1849,
    "\u25810x1211a": 1850,
    "\u2581process32nextw": 1851,
    "\u2581registry": 1852,
    "\u25810x10000": 1853,
    "wow64": 1854,
    "new": 1855,
    "\u25810x7d10": 1856,
    "\u25810x2b": 1857,
    "\u2581isvalid": 1858,
    "93c": 1859,
    "ackage": 1860,
    "ated": 1861,
    "ervicec": 1862,
    "\u2581wakeall": 1863,
    "\u2581wakeallconditionvariable": 1864,
    "\u2581closes": 1865,
    "\u25810x7ec1": 1866,
    "\u2581imagelist": 1867,
    "\u25810x2d": 1868,
    "\u25810x44f928": 1869,
    "\u25810x1211ee0": 1870,
    "688": 1871,
    "\u25810xfeee0028": 1872,
    "4b": 1873,
    "ordinal": 1874,
    "\u25810x7ee00": 1875,
    "ervicectrl": 1876,
    "ret": 1877,
    "\u2581ordinal": 1878,
    "\u2581update": 1879,
    "package": 1880,
    "yarg": 1881,
    "\u25810x1211d04": 1882,
    "\u25810x48f898": 1883,
    "ymbo": 1884,
    "ymbolic": 1885,
    "\u2581recv": 1886,
    "\u2581show": 1887,
    "ymboliclinkw": 1888,
    "\u2581createsymboliclinkw": 1889,
    "\u25810x364": 1890,
    "packageid": 1891,
    "\u2581getcurrentpackageid": 1892,
    "when": 1893,
    "938": 1894,
    "leob": 1895,
    "\u25810x12119ac": 1896,
    "ca": 1897,
    "\u25810x1211780": 1898,
    "\u25810xfeee0046": 1899,
    "c7": 1900,
    "ton": 1901,
    "errormode": 1902,
    "lex": 1903,
    "\u2581seterrormode": 1904,
    "\u25810x525": 1905,
    "\u25810x428": 1906,
    "\u25810x40f6": 1907,
    "\u25810x1211f48": 1908,
    "\u2581waitfor": 1909,
    "\u25810x107568": 1910,
    "\u2581iswow64": 1911,
    "\u2581iswow64process": 1912,
    "\u25810x40152c": 1913,
    "drivestrings": 1914,
    "\u2581getlogicaldrivestrings": 1915,
    "\u25810x58c0": 1916,
    "\u25810x1211c04": 1917,
    "mpati": 1918,
    "\u2581createco": 1919,
    "ofc": 1920,
    "bits": 1921,
    "een": 1922,
    "\u25810xa1": 1923,
    "\u25810x36": 1924,
    "servicew": 1925,
    "retur": 1926,
    "horeexw": 1927,
    "ornumber": 1928,
    "poolwait": 1929,
    "callbacks": 1930,
    "processwrite": 1931,
    "\u2581waitforthread": 1932,
    "pooltimercallbacks": 1933,
    "\u2581flushprocesswrite": 1934,
    "\u2581setthreadpoolwait": 1935,
    "\u2581createsemaphoreexw": 1936,
    "\u2581setthreadpooltimer": 1937,
    "\u2581closethreadpoolwait": 1938,
    "\u2581closethreadpooltimer": 1939,
    "\u2581createthreadpoolwait": 1940,
    "\u2581createthreadpooltimer": 1941,
    "\u2581flushprocesswritebuffers": 1942,
    "\u2581getcurrentprocessornumber": 1943,
    "\u2581waitforthreadpooltimercallbacks": 1944,
    "returns": 1945,
    "whencallback": 1946,
    "whencallbackreturns": 1947,
    "\u2581freelibrarywhencallbackreturns": 1948,
    "conne": 1949,
    "\u2581lstrcmp": 1950,
    "\u25810x1211a04": 1951,
    "mpatible": 1952,
    "\u25810x5c": 1953,
    "termin": 1954,
    "6f": 1955,
    "\u25810x92": 1956,
    "\u25810x4800": 1957,
    "\u2581createcompatible": 1958,
    "ask": 1959,
    "\u2581getenvironmentvariablew": 1960,
    "\u25810x42c5": 1961,
    "ush": 1962,
    "\u25810xfeee0029": 1963,
    "uilanguage": 1964,
    "\u2581termin": 1965,
    "\u2581getkeyboard": 1966,
    "lation": 1967,
    "\u2581loadiconw": 1968,
    "\u2581createthread": 1969,
    "\u25810x80000000": 1970,
    "\u2581getusername": 1971,
    "\u25810x7de4": 1972,
    "\u25810x7de5": 1973,
    "\u25810x3b": 1974,
    "oci": 1975,
    "\u25810x7700": 1976,
    "memory": 1977,
    "cd": 1978,
    "\u25810x1211f20": 1979,
    "mov": 1980,
    "\u258132": 1981,
    "\u25810x1211f0": 1982,
    "\u2581getfileinformationby": 1983,
    "ull": 1984,
    "b40": 1985,
    "\u2581getfileattributesw": 1986,
    "\u2581failedto": 1987,
    "\u25810xfeee002c": 1988,
    "\u2581shellex": 1989,
    "acl": 1990,
    "\u2581loadcursorw": 1991,
    "0x": 1992,
    "\u2581error0x": 1993,
    "\u2581getdate": 1994,
    "\u25810x3f2000": 1995,
    "32c": 1996,
    "\u25810x52": 1997,
    "\u25810x8230": 1998,
    "\u25810x429e": 1999,
    "ab8": 2000,
    "\u25810x43540": 2001,
    "speci": 2002,
    "\u25810x7ee0": 2003,
    "\u25810xfeee002a": 2004,
    "\u25810x1211f00": 2005,
    "57": 2006,
    "47": 2007,
    "\u2581registerclassexa": 2008,
    "\u25810x5d": 2009,
    "\u25810x437c": 2010,
    "\u2581q": 2011,
    "\u25810xfeee002b": 2012,
    "ill": 2013,
    "brush": 2014,
    "\u2581shget": 2015,
    "\u25810xfeee002d": 2016,
    "\u25810xfeee002f": 2017,
    "\u2581createdirectoryw": 2018,
    "\u2581getnumber": 2019,
    "econdition": 2020,
    "\u25810x437ad": 2021,
    "econditionvariable": 2022,
    "\u25810x437bc": 2023,
    "ofconsole": 2024,
    "\u25810x4371e6": 2025,
    "\u25810x4371e7": 2026,
    "\u2581getnumberofconsole": 2027,
    "89": 2028,
    "\u25810x43b7": 2029,
    "\u2581initialize": 2030,
    "messagew": 2031,
    "\u25810x1211b04": 2032,
    "securitydescriptor": 2033,
    "orsing": 2034,
    "\u25810x43b7b9": 2035,
    "orsingleob": 2036,
    "\u25810x43b7c3": 2037,
    "937": 2038,
    "\u25810x61": 2039,
    "980": 2040,
    "\u2581getfileinformationbyhandl": 2041,
    "\u25810x7540": 2042,
    "\u25810xfeee002e": 2043,
    "\u25810x419c": 2044,
    "\u2581hton": 2045,
    "\u25810x1211fc8": 2046,
    "\u25810x1210f8": 2047,
    "associ": 2048,
    "\u2581gettickcount64": 2049,
    "\u2581extract": 2050,
    "resourcew": 2051,
    "fac": 2052,
    "\u2581waitforsingleob": 2053,
    "\u25810xfeee0045": 2054,
    "head": 2055,
    "ordacl": 2056,
    "securitydescriptordacl": 2057,
    "\u2581initializesecuritydescriptor": 2058,
    "change": 2059,
    "variablea": 2060,
    "2w": 2061,
    "connection": 2062,
    "app": 2063,
    "\u25810x46b3": 2064,
    "connection2w": 2065,
    "e08": 2066,
    "ken": 2067,
    "inputs": 2068,
    "\u2581getnumberofconsoleinputs": 2069,
    "\u25810x35": 2070,
    "\u2581createwindowexa": 2071,
    "\u2581setsecuritydescriptordacl": 2072,
    "\u25814": 2073,
    "\u25810x37": 2074,
    "\u25810xfeee0030": 2075,
    "\u2581setfileinformationby": 2076,
    "vol": 2077,
    "\u2581createexw": 2078,
    "\u2581enumsystem": 2079,
    "\u2581findnext": 2080,
    "\u2581enumsystemlocales": 2081,
    "\u2581setc": 2082,
    "\u25810x410770": 2083,
    "\u25810x53000": 2084,
    "\u25810x181b": 2085,
    "\u2581showwindow": 2086,
    "ut32": 2087,
    "\u2581olea": 2088,
    "\u2581oleaut32": 2089,
    "\u25810x31": 2090,
    "pro": 2091,
    "\u25810xfeee0031": 2092,
    "slen": 2093,
    "\u2581wcslen": 2094,
    "\u25810x4620": 2095,
    "\u2581golfinfo": 2096,
    "\u25810xfeee0044": 2097,
    "atedicon": 2098,
    "associatedicon": 2099,
    "\u2581extractassociatedicon": 2100,
    "valu": 2101,
    "\u25810x88a0": 2102,
    "\u25810xb8": 2103,
    "\u25810x4393": 2104,
    "ivi": 2105,
    "\u25810x1211cec": 2106,
    "stringa": 2107,
    "\u25810x8811": 2108,
    "listhead": 2109,
    "\u2581initializeslisthead": 2110,
    "cf": 2111,
    "\u2581to": 2112,
    "aaaa": 2113,
    "b08": 2114,
    "section": 2115,
    "\u2581beginup": 2116,
    "\u25810xfeee005e": 2117,
    "ivile": 2118,
    "ec0": 2119,
    "ume": 2120,
    "\u2581int": 2121,
    "\u2581gb": 2122,
    "\u25810x1210e8": 2123,
    "\u2581interlocke": 2124,
    "out": 2125,
    "volume": 2126,
    "\u2581getmessagea": 2127,
    "\u25810x3d": 2128,
    "\u2581updatewindow": 2129,
    "\u25810x40f": 2130,
    "\u2581new": 2131,
    "\u25810x3a": 2132,
    "\u25810x39": 2133,
    "down": 2134,
    "438": 2135,
    "ryp": 2136,
    "008": 2137,
    "\u25810xfeee0043": 2138,
    "host": 2139,
    "nex": 2140,
    "\u25810xfeee0047": 2141,
    "full": 2142,
    "\u2581deletefilea": 2143,
    "\u2581deletefilew": 2144,
    "\u25810x7d95": 2145,
    "\u25818": 2146,
    "\u2581end": 2147,
    "cel": 2148,
    "\u2581globalfree": 2149,
    "\u25810xfeee0048": 2150,
    "rypt": 2151,
    "\u25810x21": 2152,
    "\u25810x46e0": 2153,
    "\u25810x86": 2154,
    "\u25810x40a3": 2155,
    "\u25810xfeee003b": 2156,
    "\u25810xfeee0033": 2157,
    "\u25810xfeee0035": 2158,
    "\u25810x63": 2159,
    "\u25810xfeee0032": 2160,
    "endoffile": 2161,
    "\u25810x6c": 2162,
    "4f": 2163,
    "\u2581getuserdefaultlocalename": 2164,
    "\u25810xfeee0034": 2165,
    "\u25810x7d94": 2166,
    "am": 2167,
    "\u25810x91": 2168,
    "\u25810x6b9": 2169,
    "\u25810xfeee0049": 2170,
    "\u2581isvalidlocalename": 2171,
    "\u25810x7bd0": 2172,
    "\u2581getdateformatex": 2173,
    "\u2581enumsystemlocalesex": 2174,
    "\u2581gettimeformatex": 2175,
    "\u25810xfeee0036": 2176,
    "ain": 2177,
    "\u25810xfeee0037": 2178,
    "eext": 2179,
    "volumeinformation": 2180,
    "\u2581getvolumeinformation": 2181,
    "388": 2182,
    "268": 2183,
    "\u25810xfeee0038": 2184,
    "\u25810xfeee0039": 2185,
    "9c8": 2186,
    "\u25810x210": 2187,
    "\u25810x4c32c0": 2188,
    "\u2581getthreadpreferreduilanguages": 2189,
    "\u2581wcsc": 2190,
    "\u25810xfeee0041": 2191,
    "\u25810x8cf0": 2192,
    "attributesa": 2193,
    "ong": 2194,
    "\u25810x416": 2195,
    "\u25810xfeee003f": 2196,
    "ed4": 2197,
    "\u25810x4393f8": 2198,
    "808": 2199,
    "\u2581wcscpy": 2200,
    "\u2581control": 2201,
    "\u25810xfeee0042": 2202,
    "ee8": 2203,
    "\u25810xfeee0062": 2204,
    "allocate": 2205,
    "mapp": 2206,
    "c9": 2207,
    "mask": 2208,
    "\u25810xfeee003a": 2209,
    "\u25810xfeee003d": 2210,
    "\u2581v": 2211,
    "ctl32": 2212,
    "\u2581comctl32": 2213,
    "mapping": 2214,
    "filemapping": 2215,
    "\u25810x1211f88": 2216,
    "\u25810xfeee003e": 2217,
    "\u25810xfeee003c": 2218,
    "nal": 2219,
    "\u2581loc": 2220,
    "\u25810x52660": 2221,
    "\u2581crypt": 2222,
    "\u2581localiz": 2223,
    "\u2581localization": 2224,
    "\u25810x1211f34": 2225,
    "\u25810x7df0": 2226,
    "\u25810x6d": 2227,
    "vio": 2228,
    "\u25810x1211c80": 2229,
    "heck": 2230,
    "5c8": 2231,
    "ger": 2232,
    "\u25810x1210900": 2233,
    "c3": 2234,
    "\u25810x7d00": 2235,
    "\u25810x7ab0": 2236,
    "\u2581ac": 2237,
    "708": 2238,
    "ang": 2239,
    "\u25810xfeee0053": 2240,
    "\u25810xfeee0060": 2241,
    "b000": 2242,
    "\u25810xfeee0065": 2243,
    "\u25810xfeee005c": 2244,
    "\u25810x1211fc4": 2245,
    "\u25810xfeee004a": 2246,
    "\u25810x1212000": 2247,
    "\u25810xfeee0066": 2248,
    "\u25810xfeee0067": 2249,
    "f0000": 2250,
    "\u25810x41d1": 2251,
    "\u25810x4317": 2252,
    "988": 2253,
    "\u2581po": 2254,
    "\u25810xa4": 2255,
    "\u25810xfeee0061": 2256,
    "\u25810xfeee005a": 2257,
    "\u25810xfeee004d": 2258,
    "\u2581createdirectorya": 2259,
    "bc8": 2260,
    "disk": 2261,
    "\u25810xfeee004b": 2262,
    "\u25810xfeee004c": 2263,
    "\u25810x40b": 2264,
    "\u25810xfeee005b": 2265,
    "\u25810x78f0": 2266,
    "\u2581drag": 2267,
    "\u25810x58c01c": 2268,
    "\u25810x1211e28": 2269,
    "\u25810x1211f38": 2270,
    "\u25810xfeee0063": 2271,
    "\u25810xfeee0050": 2272,
    "\u25810x6b9c08": 2273,
    "\u25810xfeee0055": 2274,
    "\u2581z": 2275,
    "\u2581inst": 2276,
    "\u25810xfeee004e": 2277,
    "\u25810xfeee0054": 2278,
    "a81": 2279,
    "7000": 2280,
    "freesp": 2281,
    "\u2581getdisk": 2282,
    "\u2581getdiskfreesp": 2283,
    "\u25810xfeee004f": 2284,
    "\u25810x4238": 2285,
    "\u25810xfeee0051": 2286,
    "\u25810xfeee0052": 2287,
    "\u25810xfeee0068": 2288,
    "\u25810x3bc": 2289,
    "9c1": 2290,
    "328": 2291,
    "\u25810xfeee0056": 2292,
    "\u25810xfeee0057": 2293,
    "\u25810xfeee0058": 2294,
    "\u25810xfeee0059": 2295,
    "\u25810x7a80": 2296,
    "004": 2297,
    "\u25810x7de8": 2298,
    "\u2581createfilemapping": 2299,
    "\u25810x7150": 2300,
    "any": 2301,
    "\u25810x7de9": 2302,
    "violation": 2303,
    "anag": 2304,
    "eextra": 2305,
    "\u25810x73f0": 2306,
    "stack": 2307,
    "\u25810x72a0": 2308,
    "guar": 2309,
    "\u25810x47c0": 2310,
    "\u2581getlogicalprocessor": 2311,
    "\u25810xfeee008e": 2312,
    "\u25810x40a5a0": 2313,
    "\u2581getlogicalprocessorinformation": 2314,
    "antee": 2315,
    "guarantee": 2316,
    "stackguarantee": 2317,
    "\u2581setthreadstackguarantee": 2318,
    "\u2581mul": 2319,
    "\u2581muldiv": 2320,
    "f08": 2321,
    "\u25810xfeee0064": 2322,
    "\u25810x7d50": 2323,
    "\u25810x1211dfc": 2324,
    "bar": 2325,
    "\u2581u": 2326,
    "\u25810xa2": 2327,
    "\u25810x7690": 2328,
    "\u2581getmess": 2329,
    "\u25810x1211e44": 2330,
    "\u2581err": 2331,
    "\u25810x5265d": 2332,
    "\u25810x566": 2333,
    "pos": 2334,
    "\u25810x77e0": 2335,
    "\u25810xff8": 2336,
    "\u25810x496760": 2337,
    "\u25810x20019": 2338,
    "windowproc": 2339,
    "\u25810x7dec": 2340,
    "\u25810x7ded": 2341,
    "\u25810xc00": 2342,
    "\u25810x51": 2343,
    "with": 2344,
    "lec": 2345,
    "\u2581def": 2346,
    "ageextra": 2347,
    "ageextrainfo": 2348,
    "\u2581getmessageextrainfo": 2349,
    "\u2581msvcr": 2350,
    "\u25810x7c70": 2351,
    "\u25810x55": 2352,
    "cadwork": 2353,
    "\u25810x40a59e": 2354,
    "\u25810x8d80": 2355,
    "\u25810x40a5a2": 2356,
    "\u25810x40a5a4": 2357,
    "\u25810x40a5a6": 2358,
    "\u25810x40a5a8": 2359,
    "\u25810x40a5aa": 2360,
    "\u25810x52662": 2361,
    "\u25810x9b": 2362,
    "\u25810x40933c": 2363,
    "\u25810x59": 2364,
    "\u2581getdiskfreespac": 2365,
    "a40": 2366,
    "\u25810x4400": 2367,
    "token": 2368,
    "lat": 2369,
    "\u25810x1211690": 2370,
    "\u25810x409344": 2371,
    "\u25810x107": 2372,
    "las": 2373,
    "\u2581remov": 2374,
    "\u25810x1211efc": 2375,
    "ssp": 2376,
    "\u2581beginpaint": 2377,
    "\u2581createfilemappinga": 2378,
    "\u25810x46b5": 2379,
    "\u25810x121193c": 2380,
    "\u2581ls": 2381,
    "\u25810x97": 2382,
    "\u25810x120f8": 2383,
    "\u25810x7090": 2384,
    "\u25810x4418": 2385,
    "quit": 2386,
    "\u2581endpaint": 2387,
    "f62": 2388,
    "\u25810x4d70": 2389,
    "enum": 2390,
    "\u2581destroy": 2391,
    "\u25810xfeee006f": 2392,
    "\u2581defwindowproc": 2393,
    "\u25810xfeee0069": 2394,
    "a000": 2395,
    "\u25810x1211e1c": 2396,
    "\u25810x7be0": 2397,
    "\u25810xa7": 2398,
    "d08": 2399,
    "\u2581accessviolation": 2400,
    "\u25810xfeee006b": 2401,
    "\u25810x4528": 2402,
    "\u25810xfeee006a": 2403,
    "49": 2404,
    "\u25810x121194c": 2405,
    "\u2581lstrcpynw": 2406,
    "\u25810x1076": 2407,
    "\u25810x1211f6c": 2408,
    "\u25810x2100": 2409,
    "closekey": 2410,
    "\u2581regclosekey": 2411,
    "\u25810x43640": 2412,
    "\u25810xfeee006e": 2413,
    "6c8": 2414,
    "\u25810x7df1": 2415,
    "\u25810x43b6": 2416,
    "e88": 2417,
    "\u2581comm": 2418,
    "\u25810xfeee006c": 2419,
    "\u25810x4229": 2420,
    "\u2581type": 2421,
    "palette": 2422,
    "\u25810x26": 2423,
    "folder": 2424,
    "\u25810x4094": 2425,
    "\u25810x423d": 2426,
    "instruction": 2427,
    "\u25810xfeee007f": 2428,
    "\u2581trans": 2429,
    "\u25810x8280": 2430,
    "\u25810x9a": 2431,
    "\u25810x52666": 2432,
    "\u2581getthreaduilanguage": 2433,
    "\u2581ass": 2434,
    "\u25810x1211fc0": 2435,
    "\u2581getenvironmentvariablea": 2436,
    "\u25810x52663": 2437,
    "\u2581fe": 2438,
    "\u25810xfeee0071": 2439,
    "\u25810xfeee0074": 2440,
    "\u25810x4730": 2441,
    "2f8": 2442,
    "ternal": 2443,
    "ist": 2444,
    "\u25810x41e1": 2445,
    "\u25810xfeee006d": 2446,
    "\u25810xfeee0073": 2447,
    "d000": 2448,
    "\u2581getwindows": 2449,
    "\u25810x12117a4": 2450,
    "\u25810x121157c": 2451,
    "\u2581registerwindow": 2452,
    "\u25810xfeee0070": 2453,
    "\u25810x42b40": 2454,
    "debugger": 2455,
    "you": 2456,
    "debuggerpresent": 2457,
    "echeck": 2458,
    "\u2581mar": 2459,
    "a88": 2460,
    "\u25810x80e0": 2461,
    "\u2581exception": 2462,
    "\u25810x120fa": 2463,
    "typ": 2464,
    "\u2581point": 2465,
    "\u25810x188e": 2466,
    "\u2581prec": 2467,
    "\u2581errata": 2468,
    "\u2581precision": 2469,
    "\u25810xfeee008c": 2470,
    "\u25810x7300": 2471,
    "\u25810x78a0": 2472,
    "\u25810x5265e": 2473,
    "\u2581output": 2474,
    "\u2581outputdebug": 2475,
    "bitmap": 2476,
    "\u25810xfeee008a": 2477,
    "\u25810x7cc0": 2478,
    "\u25810x181c": 2479,
    "\u25810x1210ec": 2480,
    "inst": 2481,
    "\u25810x46b4": 2482,
    "\u25810x48400": 2483,
    "\u25810x52661": 2484,
    "\u25810x8c70": 2485,
    "\u25810xfeee008d": 2486,
    "\u2581isdebuggerpresent": 2487,
    "\u25810x508": 2488,
    "\u25810xfeee0077": 2489,
    "\u2581outof": 2490,
    "\u2581createmut": 2491,
    "\u25810xfeee0075": 2492,
    "\u25810x8c60": 2493,
    "\u25810xfeee0079": 2494,
    "\u25810x7900": 2495,
    "\u25810x4228": 2496,
    "\u25810xfeee0078": 2497,
    "\u25810xfeee0076": 2498,
    "\u25810xfeee007a": 2499,
    "\u25810x5638": 2500,
    "th": 2501,
    "cre": 2502,
    "\u25810x12119f0": 2503,
    "ecall": 2504,
    "\u25810x519": 2505,
    "failed": 2506,
    "\u25810x8aa0": 2507,
    "cad": 2508,
    "\u25810x1211fdc": 2509,
    "aw": 2510,
    "\u25810x65": 2511,
    "\u25810x7e89": 2512,
    "\u25810x67000000": 2513,
    "\u25810xffe1": 2514,
    "e4c": 2515,
    "ins": 2516,
    "\u25810x7e88": 2517,
    "\u25810xfeee0095": 2518,
    "\u2581feb": 2519,
    "\u25810x40b8": 2520,
    "\u25810xffe0": 2521,
    "\u2581regset": 2522,
    "\u25810xfeee007b": 2523,
    "\u25810xffe4": 2524,
    "gument": 2525,
    "\u25810xfffe": 2526,
    "\u25810x4317e0": 2527,
    "\u25810xfeee007d": 2528,
    "\u25810x1211e34": 2529,
    "\u25810xfeee007e": 2530,
    "\u25810x1009": 2531,
    "une": 2532,
    "\u2581check": 2533,
    "ied": 2534,
    "\u25810xa6": 2535,
    "\u25810x417b": 2536,
    "argument": 2537,
    "\u25810xfeee008f": 2538,
    "\u2581runtime": 2539,
    "\u2581sept": 2540,
    "\u25810x8c90": 2541,
    "\u25810xfeee0090": 2542,
    "manag": 2543,
    "\u2581setwindow": 2544,
    "\u2581initializeconditionvariable": 2545,
    "\u25810x1005": 2546,
    "gro": 2547,
    "creating": 2548,
    "\u25810xfeee0080": 2549,
    "\u25810x8ab0": 2550,
    "\u2581febr": 2551,
    "\u25810xffbb": 2552,
    "\u25810xffba": 2553,
    "\u25810xffbe": 2554,
    "\u25810xffbc": 2555,
    "\u25810xffbd": 2556,
    "ober": 2557,
    "\u2581regsetvalu": 2558,
    "740": 2559,
    "gust": 2560,
    "\u2581aug": 2561,
    "\u2581april": 2562,
    "\u2581august": 2563,
    "\u2581november": 2564,
    "\u2581september": 2565,
    "ged": 2566,
    "\u2581wi": 2567,
    "\u25810xffb7": 2568,
    "\u25810xffb8": 2569,
    "\u25810xfffd": 2570,
    "\u25810xffb9": 2571,
    "\u25810xffbf": 2572,
    "\u25810x435088": 2573,
    "box": 2574,
    "\u2581div": 2575,
    "\u25810x4c4": 2576,
    "bound": 2577,
    "\u25810xfffc": 2578,
    "\u25810xfeee0087": 2579,
    "\u25810x1211f04": 2580,
    "\u2581outofmemory": 2581,
    "eexa": 2582,
    "\u2581mapviewoffile": 2583,
    "\u25810xfeee0088": 2584,
    "\u2581setfileattributesa": 2585,
    "\u25810xffa0": 2586,
    "anuary": 2587,
    "\u2581march": 2588,
    "\u2581february": 2589,
    "ce8": 2590,
    "uly": 2591,
    "\u2581december": 2592,
    "\u2581october": 2593,
    "\u2581thu": 2594,
    "nesday": 2595,
    "\u2581monday": 2596,
    "\u2581sunday": 2597,
    "\u2581tuesday": 2598,
    "\u2581wednesday": 2599,
    "\u25810xffa1": 2600,
    "\u25810xffa2": 2601,
    "ursday": 2602,
    "\u2581thursday": 2603,
    "\u2581fri": 2604,
    "\u25810x8c30": 2605,
    "\u25810xffb6": 2606,
    "index": 2607,
    "iday": 2608,
    "urday": 2609,
    "\u25810x8bd0": 2610,
    "\u2581friday": 2611,
    "\u2581saturday": 2612,
    "\u25810xffa3": 2613,
    "exception": 2614,
    "\u25810x8d20": 2615,
    "\u25810xfeee0081": 2616,
    "licen": 2617,
    "sspace": 2618,
    "\u25810xffa4": 2619,
    "\u2581isspace": 2620,
    "\u2581createpalette": 2621,
    "\u25810xfffb": 2622,
    "\u2581post": 2623,
    "\u25810x8d00": 2624,
    "\u25810x58de20": 2625,
    "lw": 2626,
    "afecall": 2627,
    "cef": 2628,
    "\u25810xffa7": 2629,
    "\u25810x95": 2630,
    "\u25810xffcd": 2631,
    "\u25810xffa5": 2632,
    "\u25810xffa6": 2633,
    "3c8": 2634,
    "ond": 2635,
    "den": 2636,
    "facen": 2637,
    "\u2581interfacen": 2638,
    "cept": 2639,
    "lication": 2640,
    "found": 2641,
    "\u2581asser": 2642,
    "\u2581copyfilea": 2643,
    "\u25810x8c10": 2644,
    "7c8": 2645,
    "aff": 2646,
    "long": 2647,
    "\u25810xffb5": 2648,
    "\u2581sn": 2649,
    "\u2581stack": 2650,
    "\u2581external": 2651,
    "alog": 2652,
    "\u2581findwindow": 2653,
    "texta": 2654,
    "\u25810x7bf0": 2655,
    "\u25810xffa8": 2656,
    "\u2581privile": 2657,
    "\u25810xfeee0082": 2658,
    "bas": 2659,
    "\u25810x4394": 2660,
    "\u25810x8ba0": 2661,
    "\u25810xffa9": 2662,
    "\u2581assertion": 2663,
    "eger": 2664,
    "\u2581integer": 2665,
    "\u25810xfeee0083": 2666,
    "styp": 2667,
    "\u25810x7b90": 2668,
    "\u25810xfeee0084": 2669,
    "\u25810xfeee0086": 2670,
    "insafecall": 2671,
    "\u2581exceptioninsafecall": 2672,
    "lecs": 2673,
    "variablecs": 2674,
    "\u25810xfeee0089": 2675,
    "\u2581sleepcondition": 2676,
    "\u2581sleepconditionvariablecs": 2677,
    "\u25810xfeee0085": 2678,
    "\u2581disk": 2679,
    "\u25810xfffa": 2680,
    "\u25810x1211f4c": 2681,
    "calls": 2682,
    "initialize": 2683,
    "bl": 2684,
    "\u25810x655": 2685,
    "changet": 2686,
    "\u2581variantchanget": 2687,
    "\u2581getcurrentdirectoryw": 2688,
    "\u25810x567a": 2689,
    "108": 2690,
    "notfound": 2691,
    "ty": 2692,
    "\u25810x1210e0": 2693,
    "\u2581ws2": 2694,
    "\u25810xffaa": 2695,
    "ecast": 2696,
    "underflow": 2697,
    "\u25810xffe6": 2698,
    "driv": 2699,
    "denied": 2700,
    "accessdenied": 2701,
    "\u2581assertionfailed": 2702,
    "bounds": 2703,
    "verflow": 2704,
    "\u2581lstrcpyna": 2705,
    "\u2581privileged": 2706,
    "\u2581em": 2707,
    "clas": 2708,
    "\u2581chit": 2709,
    "otsuped": 2710,
    "\u25810xffb4": 2711,
    "classtyp": 2712,
    "indexout": 2713,
    "notsuped": 2714,
    "classtypecast": 2715,
    "\u2581externalexception": 2716,
    "\u2581interfacenotsuped": 2717,
    "\u2581rang": 2718,
    "ofbounds": 2719,
    "\u2581rangecheck": 2720,
    "callsnotsuped": 2721,
    "\u2581errorcreating": 2722,
    "indexoutofbounds": 2723,
    "\u2581errorcreatingvariant": 2724,
    "\u2581invalidclasstypecast": 2725,
    "\u2581variantcallsnotsuped": 2726,
    "\u2581floatingpointunderflow": 2727,
    "mod": 2728,
    "typecon": 2729,
    "typeconversion": 2730,
    "\u2581stackoverflow": 2731,
    "pointeroperation": 2732,
    "\u2581privilegedinstruction": 2733,
    "\u2581invalidvariantoperation": 2734,
    "\u2581invalidvarianttypeconversion": 2735,
    "pointo": 2736,
    "\u25810xffce": 2737,
    "pointoverflow": 2738,
    "divisionbyzero": 2739,
    "\u2581floatingpointoverflow": 2740,
    "\u2581floatingpointdivisionbyzero": 2741,
    "floating": 2742,
    "\u2581getmain": 2743,
    "floatingpoint": 2744,
    "\u2581divisionbyzero": 2745,
    "\u2581integeroverflow": 2746,
    "\u2581rangecheckerror": 2747,
    "\u2581invalidfloatingpoint": 2748,
    "\u2581invalidpointeroperation": 2749,
    "\u2581invalidfloatingpointoperation": 2750,
    "bey": 2751,
    "omany": 2752,
    "beyond": 2753,
    "numeric": 2754,
    "\u2581toomany": 2755,
    "openfiles": 2756,
    "\u2581diskfull": 2757,
    "\u2581readbeyond": 2758,
    "numericinput": 2759,
    "\u2581invalidfilename": 2760,
    "\u2581toomanyopenfiles": 2761,
    "\u2581invalidnumericinput": 2762,
    "\u2581readbeyondendoffile": 2763,
    "\u2581fileaccessdenied": 2764,
    "a08": 2765,
    "\u25810x8ca0": 2766,
    "\u25810x1210f0": 2767,
    "\u2581setfileinformationbyhandlew": 2768,
    "\u2581getfileinformationbyhandleexw": 2769,
    "comp": 2770,
    "\u25810x8001": 2771,
    "fe8": 2772,
    "afdi": 2773,
    "\u25810x4a20": 2774,
    "\u25810x8be0": 2775,
    "\u25810x8cd0": 2776,
    "\u2581wsafdi": 2777,
    "\u25810x40a3d": 2778,
    "\u2581wsafdisset": 2779,
    "unlock": 2780,
    "\u25810x8bb0": 2781,
    "\u2581defwindowproca": 2782,
    "once": 2783,
    "\u25810x8c40": 2784,
    "f80": 2785,
    "\u25810xffcf": 2786,
    "\u25810x100300": 2787,
    "f00": 2788,
    "\u2581varbstrfrombool": 2789,
    "ypeex": 2790,
    "\u2581variantchangetypeex": 2791,
    "\u25810x8c00": 2792,
    "\u25810xffe5": 2793,
    "neg": 2794,
    "\u2581lock": 2795,
    "\u2581fmode": 2796,
    "lwapi": 2797,
    "\u2581shlwapi": 2798,
    "\u2581the": 2799,
    "\u25810x44280": 2800,
    "\u2581varadd": 2801,
    "\u2581varneg": 2802,
    "\u2581varnot": 2803,
    "\u2581varsub": 2804,
    "mul": 2805,
    "xor": 2806,
    "idiv": 2807,
    "\u2581varcy": 2808,
    "\u2581varor": 2809,
    "\u2581varr8": 2810,
    "\u2581varand": 2811,
    "\u2581varcmp": 2812,
    "\u2581vardiv": 2813,
    "\u2581varmod": 2814,
    "\u2581varmul": 2815,
    "\u2581varxor": 2816,
    "\u2581varbool": 2817,
    "\u2581vardate": 2818,
    "\u2581varidiv": 2819,
    "\u2581varcyfromstr": 2820,
    "\u2581vari4fromstr": 2821,
    "\u2581varr4fromstr": 2822,
    "\u2581varr8fromstr": 2823,
    "\u2581varbstrfromcy": 2824,
    "\u2581varboolfromstr": 2825,
    "\u2581vardatefromstr": 2826,
    "\u2581varbstrfromdate": 2827,
    "500000": 2828,
    "no": 2829,
    "draw": 2830,
    "788": 2831,
    "\u25816": 2832,
    "140": 2833,
    "\u25810x202": 2834,
    "\u2581createmutexa": 2835,
    "\u25810x417": 2836,
    "\u2581lstrcmpa": 2837,
    "infoa": 2838,
    "\u25810xffb0": 2839,
    "\u25810x4308": 2840,
    "\u25810x7270": 2841,
    "\u25810xfff9": 2842,
    "blt": 2843,
    "\u2581globalunlock": 2844,
    "\u2581accept": 2845,
    "\u25810x3f4": 2846,
    "\u25810x1211c08": 2847,
    "sid": 2848,
    "7a9": 2849,
    "\u25810x4615": 2850,
    "\u25810x42332": 2851,
    "\u25810x3e8": 2852,
    "\u25810xffb3": 2853,
    "ontin": 2854,
    "hore": 2855,
    "\u25810x65500000": 2856,
    "\u25810x437808": 2857,
    "\u25810x432": 2858,
    "\u25810xffb2": 2859,
    "902": 2860,
    "\u25810xffb1": 2861,
    "\u25810xfee": 2862,
    "\u25810x78d0": 2863,
    "\u25810x100000": 2864,
    "\u2581snap": 2865,
    "32cs": 2866,
    "\u2581th32cs": 2867,
    "\u25810x47a0": 2868,
    "\u25810xfeee0094": 2869,
    "\u25810xd0": 2870,
    "bk": 2871,
    "\u25810x51af": 2872,
    "\u25810x46b5d4": 2873,
    "\u25810x1211ed4": 2874,
    "\u2581invalidargument": 2875,
    "\u25810x8d60": 2876,
    "setinformation": 2877,
    "\u2581variantorsafearray": 2878,
    "\u2581errorcreatingvariantorsafearray": 2879,
    "\u2581variantorsafearrayindexoutofbounds": 2880,
    "\u25810x4df0": 2881,
    "\u25810xa9b0": 2882,
    "\u2581dispatch": 2883,
    "validate": 2884,
    "\u2581heapvalidate": 2885,
    "gine": 2886,
    "\u25810x7060": 2887,
    "207": 2888,
    "\u25810xfff8": 2889,
    "ebe": 2890,
    "de8": 2891,
    "\u2581process32firstw": 2892,
    "\u25810xfeee0091": 2893,
    "\u25810x53000000": 2894,
    "for": 2895,
    "\u2581deleteob": 2896,
    "\u25810x7f0": 2897,
    "\u25810x4bd0": 2898,
    "fff0": 2899,
    "\u25810xfeee0092": 2900,
    "\u25810x71b0": 2901,
    "\u25810xfff7": 2902,
    "\u25815": 2903,
    "6000": 2904,
    "\u25810x3f22": 2905,
    "cc8": 2906,
    "exto": 2907,
    "\u2581translat": 2908,
    "extout": 2909,
    "\u25810x7870": 2910,
    "\u25810x52664": 2911,
    "\u25810xfeee0099": 2912,
    "special": 2913,
    "\u2581shgetspecial": 2914,
    "barcad": 2915,
    "barcadero": 2916,
    "\u2581embarcadero": 2917,
    "\u25810xfeee0093": 2918,
    "\u25810x412": 2919,
    "\u2581heapsetinformation": 2920,
    "\u2581translatem": 2921,
    "\u25810xa5": 2922,
    "74c": 2923,
    "\u25810x80c0": 2924,
    "\u2581gettempa": 2925,
    "\u25810xfeee0098": 2926,
    "\u25810xfeee009b": 2927,
    "code": 2928,
    "\u25810xfeee0097": 2929,
    "\u25810x404": 2930,
    "\u25810xfeee009c": 2931,
    "\u25810x13fff0": 2932,
    "\u2581op": 2933,
    "\u25810x1210ee": 2934,
    "\u2581outputdebugstringa": 2935,
    "731": 2936,
    "\u25810xfeee0096": 2937,
    "\u2581createprocessa": 2938,
    "\u2581rand": 2939,
    "run": 2940,
    "dexchange": 2941,
    "\u2581interlockedexchange": 2942,
    "4a": 2943,
    "ows": 2944,
    "\u25810x41e": 2945,
    "folderw": 2946,
    "\u25810x7e0": 2947,
    "\u2581getlogicaldrivestringsa": 2948,
    "\u25810x1211e14": 2949,
    "\u2581translatemessage": 2950,
    "\u25810x448": 2951,
    "\u25810x8d50": 2952,
    "\u25810x7390": 2953,
    "ater": 2954,
    "\u2581res": 2955,
    "\u258103": 2956,
    "d3c": 2957,
    "\u25810x409a": 2958,
    "a58": 2959,
    "de4": 2960,
    "\u2581setfileattributesw": 2961,
    "\u25810x8d30": 2962,
    "yarg1": 2963,
    "\u25810xfff6": 2964,
    "\u2581registers": 2965,
    "ervicectrlhandl": 2966,
    "\u2581registerservicectrlhandl": 2967,
    "\u25810x563868": 2968,
    "\u2581findnextfilew": 2969,
    "ly": 2970,
    "drl6660drl6660drl6660drl6660drl6660drl6660drl6660drl6660": 2971,
    "artup": 2972,
    "\u25810x1211e30": 2973,
    "\u25810x567a40": 2974,
    "\u25810x7b40": 2975,
    "\u25810xaa": 2976,
    "\u2581closesocket": 2977,
    "\u2581sendmessagea": 2978,
    "extouta": 2979,
    "\u2581snapprocess": 2980,
    "\u2581resum": 2981,
    "\u25810x437806": 2982,
    "\u25810x43780a": 2983,
    "\u25810x43780c": 2984,
    "\u25810x43780e": 2985,
    "\u25810x437810": 2986,
    "\u25810x437812": 2987,
    "\u25810x437814": 2988,
    "\u25810x437816": 2989,
    "\u25810x437818": 2990,
    "\u25810x43781a": 2991,
    "\u25810x43781c": 2992,
    "\u25810x43781e": 2993,
    "\u2581resumethread": 2994,
    "\u25810xac": 2995,
    "\u25810x7b10": 2996,
    "7e0": 2997,
    "\u25810x1211f78": 2998,
    "\u25810x4e50": 2999,
    "\u25810x4f62": 3000,
    "\u25810x81": 3001,
    "bkcolor": 3002,
    "\u2581setthreadpreferreduilanguages": 3003,
    "\u2581drawtexta": 3004,
    "\u2581postquit": 3005,
    "\u2581createprocessw": 3006,
    "\u2581postquitmessage": 3007,
    "nexec": 3008,
    "emutex": 3009,
    "profile": 3010,
    "\u25810x5265f": 3011,
    "\u25810x1211f74": 3012,
    "\u2581releasemutex": 3013,
    "584": 3014,
    "fore": 3015,
    "\u25810xa8": 3016,
    "\u2581di": 3017,
    "\u25810x4c3": 3018,
    "\u25810x79c0": 3019,
    "xit": 3020,
    "\u25810xffd3": 3021,
    "ervicehandle": 3022,
    "\u2581closeservicehandle": 3023,
    "can": 3024,
    "\u25810x7030": 3025,
    "\u25810x93": 3026,
    "d88": 3027,
    "\u25810x418": 3028,
    "scmanag": 3029,
    "\u2581openscmanag": 3030,
    "\u25810x75d0": 3031,
    "\u25810xffc6": 3032,
    "\u2581exitthread": 3033,
    "servicestatus": 3034,
    "\u2581selectob": 3035,
    "758": 3036,
    "\u25810x71a0": 3037,
    "\u2581shgetspecialfolderw": 3038,
    "\u25810x89": 3039,
    "\u2581unmap": 3040,
    "\u25810x8090": 3041,
    "\u25810x48f894": 3042,
    "\u2581regsetvalueexw": 3043,
    "\u2581unmapviewoffile": 3044,
    "\u25810x1210f4": 3045,
    "\u25810x40f937": 3046,
    "\u25810x40a9": 3047,
    "atethread": 3048,
    "uter": 3049,
    "\u2581mpr": 3050,
    "\u25810x598": 3051,
    "tic": 3052,
    "\u25810x714": 3053,
    "\u2581shellexecute": 3054,
    "afile": 3055,
    "ground": 3056,
    "\u25810x20a": 3057,
    "\u25810x7a50": 3058,
    "\u2581textouta": 3059,
    "\u2581terminatethread": 3060,
    "\u25810x7d99": 3061,
    "\u25810x40c": 3062,
    "\u25810x7e4": 3063,
    "\u25810x71e0": 3064,
    "\u25810x7750": 3065,
    "search": 3066,
    "exit": 3067,
    "want": 3068,
    "\u2581winexec": 3069,
    "\u25810x1210fb": 3070,
    "searchmode": 3071,
    "\u2581setsearchmode": 3072,
    "\u25810x7db0": 3073,
    "\u25810x74e0": 3074,
    "\u25810x52665": 3075,
    "computer": 3076,
    "\u25810x7da0": 3077,
    "\u2581bit": 3078,
    "\u25810x7d98": 3079,
    "\u2581allocate": 3080,
    "dup": 3081,
    "\u25810x3f3000": 3082,
    "\u25810x1211f18": 3083,
    "\u25810x7cf0": 3084,
    "usp": 3085,
    "\u2581dispatchmessagea": 3086,
    "168": 3087,
    "\u25810x5e": 3088,
    "\u25810x7ae0": 3089,
    "\u2581openscmanagerw": 3090,
    "\u25810xffc5": 3091,
    "esid": 3092,
    "andinitializ": 3093,
    "andinitializesid": 3094,
    "\u2581allocateandinitializesid": 3095,
    "ff0": 3096,
    "\u2581getusernamea": 3097,
    "ols": 3098,
    "\u25810x7210": 3099,
    "ways": 3100,
    "\u2581always": 3101,
    "\u25810x72d0": 3102,
    "\u2581openservicew": 3103,
    "\u2581createservice": 3104,
    "fc8": 3105,
    "\u25810xfff5": 3106,
    "98c": 3107,
    "direct": 3108,
    "\u2581loadresource": 3109,
    "lid": 3110,
    "\u2581geticon": 3111,
    "\u25810xab": 3112,
    "\u2581starts": 3113,
    "dispatch": 3114,
    "\u2581startservicectrl": 3115,
    "\u2581createcompatibledc": 3116,
    "\u2581startservicectrldispatch": 3117,
    "408": 3118,
    "\u25810x7240": 3119,
    "\u2581bitblt": 3120,
    "\u2581setservicestatus": 3121,
    "\u25810x7600": 3122,
    "\u25810x7a20": 3123,
    "\u25810x7d9c": 3124,
    "\u25810x7d9d": 3125,
    "\u2581startservicew": 3126,
    "\u2581of": 3127,
    "f88": 3128,
    "lete": 3129,
    "\u2581localfree": 3130,
    "\u2581conne": 3131,
    "\u25810x75a0": 3132,
    "\u25810x44d4": 3133,
    "\u2581loadlibraryexa": 3134,
    "\u25810xffab": 3135,
    "\u2581startservicectrldispatcherw": 3136,
    "yarg2": 3137,
    "b88": 3138,
    "\u2581createservicew": 3139,
    "\u25810xc0": 3140,
    "\u25810x7180": 3141,
    "\u25810x7660": 3142,
    "\u25810x7720": 3143,
    "longa": 3144,
    "\u25810x7480": 3145,
    "\u2581getkeyboardtype": 3146,
    "\u25810x7ba0": 3147,
    "\u25810x7da1": 3148,
    "\u2581ntdll": 3149,
    "\u25810x70c0": 3150,
    "\u25810x7570": 3151,
    "2c8": 3152,
    "\u25810x7120": 3153,
    "\u25810x1211f40": 3154,
    "\u25810x7330": 3155,
    "\u25810x76c0": 3156,
    "\u25810x76f0": 3157,
    "the": 3158,
    "\u2581registerwindowmessagew": 3159,
    "9bf": 3160,
    "\u25810x7360": 3161,
    "\u25810x74b0": 3162,
    "001": 3163,
    "\u25810xffac": 3164,
    "ff8": 3165,
    "\u25810x7340": 3166,
    "\u25810x7840": 3167,
    "\u2581setbkcolor": 3168,
    "eengine": 3169,
    "\u25810x7960": 3170,
    "\u25810xffcc": 3171,
    "initializeengine": 3172,
    "\u2581createcompatiblebitmap": 3173,
    "\u2581failedtoinitializeengine": 3174,
    "\u25810x20000": 3175,
    "\u2581setprocess": 3176,
    "\u25810x7450": 3177,
    "\u25810x7510": 3178,
    "\u2581copyfilew": 3179,
    "\u2581findwindowa": 3180,
    "\u25810x4c51": 3181,
    "\u25810x77b0": 3182,
    "\u25810x70f0": 3183,
    "\u25810x7420": 3184,
    "\u25810x7990": 3185,
    "\u25810x73c0": 3186,
    "\u2581corexit": 3187,
    "\u2581corexitprocess": 3188,
    "contr": 3189,
    "\u2581no": 3190,
    "\u25810x28c": 3191,
    "ene": 3192,
    "\u25810xa3": 3193,
    "\u25810x7630": 3194,
    "enthread": 3195,
    "\u25810x1210f6": 3196,
    "opene": 3197,
    "\u25810x7c000000": 3198,
    "\u2581openthread": 3199,
    "\u2581createf": 3200,
    "ateprocess": 3201,
    "\u2581comparestringw": 3202,
    "1c8": 3203,
    "\u2581getwindowsdirectorya": 3204,
    "foreground": 3205,
    "foregroundwindow": 3206,
    "\u2581susp": 3207,
    "\u25810x7780": 3208,
    "\u2581getdi": 3209,
    "\u25810xffd0": 3210,
    "3c4": 3211,
    "ac8": 3212,
    "\u25810x7b70": 3213,
    "\u2581message": 3214,
    "\u2581getsystemdirectorya": 3215,
    "\u25810x1211738": 3216,
    "\u25810x7da4": 3217,
    "\u2581suspend": 3218,
    "\u2581deletedc": 3219,
    "\u25810x1211dd0": 3220,
    "\u2581suspendthread": 3221,
    "\u258117": 3222,
    "\u25810x40a582": 3223,
    "\u25810x40a584": 3224,
    "\u25810x40a586": 3225,
    "\u25810x40a588": 3226,
    "\u2581unhandledexceptionfilter": 3227,
    "\u25810x40a58a": 3228,
    "\u2581htons": 3229,
    "\u25810x40a580": 3230,
    "\u25810x40a57e": 3231,
    "\u25810x40a93": 3232,
    "\u2581freesid": 3233,
    "\u25810xcf0000": 3234,
    "\u2581acquiresrwlockexclusive": 3235,
    "\u2581socket": 3236,
    "\u25810x1210e4": 3237,
    "\u25810x9d": 3238,
    "f1b": 3239,
    "\u25810x1210ed": 3240,
    "\u25810x1211f10": 3241,
    "\u25810x51b": 3242,
    "\u2581getob": 3243,
    "\u25810x1210f5": 3244,
    "\u2581wsast": 3245,
    "\u2581wsastartup": 3246,
    "metafile": 3247,
    "ad4": 3248,
    "\u25810x7da5": 3249,
    "solid": 3250,
    "aterect": 3251,
    "488": 3252,
    "\u25810x41c0": 3253,
    "\u2581settimer": 3254,
    "\u2581messagebox": 3255,
    "\u25810x405": 3256,
    "a84": 3257,
    "\u2581msc": 3258,
    "\u2581created": 3259,
    "\u2581settext": 3260,
    "\u2581createdib": 3261,
    "\u2581wsprintfa": 3262,
    "ontindirect": 3263,
    "\u2581createfontindirect": 3264,
    "\u25810x3f75f60": 3265,
    "\u25810x4169": 3266,
    "287e": 3267,
    "\u2581setwindowpos": 3268,
    "\u2581connect": 3269,
    "solidbrush": 3270,
    "\u2581createsolidbrush": 3271,
    "ream": 3272,
    "licy": 3273,
    "\u25810x4967a8": 3274,
    "\u2581getusernamew": 3275,
    "policy": 3276,
    "utdown": 3277,
    "\u25810x4c4230": 3278,
    "\u25810x42a730": 3279,
    "\u25810x42a731": 3280,
    "\u25810x4c4248": 3281,
    "\u25810x4c4260": 3282,
    "\u25810x4c4278": 3283,
    "\u25810x4c4290": 3284,
    "\u25810x4c42a8": 3285,
    "\u25810x4c4320": 3286,
    "\u25810x4c4338": 3287,
    "\u25810x4c4350": 3288,
    "\u25810x4c4368": 3289,
    "\u2581createsemaphore": 3290,
    "\u25810x3f30": 3291,
    "\u25810x7db4": 3292,
    "\u25810x1211f70": 3293,
    "\u2581settextcolor": 3294,
    "\u25810x4de": 3295,
    "\u2581invalidaterect": 3296,
    "\u25810x7db5": 3297,
    "e10": 3298,
    "\u2581fill": 3299,
    "ccc": 3300,
    "\u25810x46b": 3301,
    "\u2581getdibits": 3302,
    "\u25810x434d": 3303,
    "120": 3304,
    "\u25810x429a81": 3305,
    "empty": 3306,
    "\u2581terminateprocess": 3307,
    "ust": 3308,
    "\u25810xfeee010": 3309,
    "\u25810x51000": 3310,
    "\u25810x437ae4": 3311,
    "\u2581getforegroundwindow": 3312,
    "\u25810x437207": 3313,
    "\u25810x437208": 3314,
    "\u25810x437ad2": 3315,
    "\u25810x437ad3": 3316,
    "\u25810x437ae3": 3317,
    "\u25810x437b63": 3318,
    "\u25810x437b64": 3319,
    "\u25810x437b7b": 3320,
    "\u25810x437b7c": 3321,
    "\u25810x437bbd": 3322,
    "\u25810x437bbe": 3323,
    "\u25810x437bce": 3324,
    "\u25810x437bcf": 3325,
    "\u25810x437c42": 3326,
    "\u25810x437c43": 3327,
    "\u2581ofresource": 3328,
    "40c": 3329,
    "\u2581getlogicaldrivestringsw": 3330,
    "\u2581hg": 3331,
    "\u2581gethost": 3332,
    "deppolicy": 3333,
    "\u25810x4c5158": 3334,
    "\u25810x42d4": 3335,
    "\u25810x429e2b": 3336,
    "\u25810x429e2c": 3337,
    "\u25810x434d1c": 3338,
    "\u25810x43b7a9": 3339,
    "\u25810x43b7aa": 3340,
    "a44": 3341,
    "\u25810x43b7b8": 3342,
    "\u2581bind": 3343,
    "\u25810x422ebe": 3344,
    "\u25810x43b7b3": 3345,
    "\u25810x43b7b4": 3346,
    "\u25810x43b7ba": 3347,
    "\u25810x43b7c4": 3348,
    "\u25810x1211ec8": 3349,
    "unction": 3350,
    "\u2581hgdraw": 3351,
    "lipboar": 3352,
    "openenum": 3353,
    "\u2581wnetopenenum": 3354,
    "\u25810x40e": 3355,
    "\u2581wnetopenenumw": 3356,
    "ernet": 3357,
    "\u2581findresourcew": 3358,
    "ddata": 3359,
    "\u25810x3f75f30": 3360,
    "lipboarddata": 3361,
    "\u2581setprocessdeppolicy": 3362,
    "\u2581destroyicon": 3363,
    "608": 3364,
    "b8c": 3365,
    "df0": 3366,
    "4005": 3367,
    "\u25810x4284": 3368,
    "\u25810x52000": 3369,
    "\u25810x12118f8": 3370,
    "\u25810x41a0": 3371,
    "\u25810xffd2": 3372,
    "d4c": 3373,
    "ecta": 3374,
    "byname": 3375,
    "\u2581createfontindirecta": 3376,
    "\u25810x4df": 3377,
    "\u25810x44f910": 3378,
    "\u2581gethostbyname": 3379,
    "\u25810x7da8": 3380,
    "\u25810x2ac": 3381,
    "d68": 3382,
    "hip": 3383,
    "bers": 3384,
    "504": 3385,
    "ownload": 3386,
    "members": 3387,
    "\u2581getkeyboardstate": 3388,
    "\u25810xb000": 3389,
    "\u25810x430880": 3390,
    "membership": 3391,
    "\u2581checktoken": 3392,
    "\u2581checktokenmembership": 3393,
    "f000": 3394,
    "\u2581wnetadd": 3395,
    "\u2581fillrect": 3396,
    "\u2581wnetaddconnection2w": 3397,
    "\u2581wnetenum": 3398,
    "\u25810x1211d08": 3399,
    "\u2581getkeystate": 3400,
    "\u2581wnetenumresourcew": 3401,
    "781": 3402,
    "\u25810x40a5ac": 3403,
    "\u25810xffad": 3404,
    "losec": 3405,
    "myarg2": 3406,
    "\u2581lockresource": 3407,
    "log": 3408,
    "\u2581getp": 3409,
    "\u2581createdibsection": 3410,
    "288": 3411,
    "infow": 3412,
    "\u25810x235": 3413,
    "licence": 3414,
    "\u25810x6a6": 3415,
    "\u25810x3f4000": 3416,
    "\u2581ra": 3417,
    "\u25810x27": 3418,
    "cancel": 3419,
    "\u25810x7da9": 3420,
    "controls": 3421,
    "\u25810xffef": 3422,
    "\u2581wnetcancel": 3423,
    "\u2581wnetcancelconnection2w": 3424,
    "d04": 3425,
    "\u25810x66": 3426,
    "\u25810x96": 3427,
    "yarg1myarg2": 3428,
    "\u25810x1e5": 3429,
    "\u25810x509": 3430,
    "\u2581do": 3431,
    "d98": 3432,
    "\u2581setclass": 3433,
    "\u25810x417c": 3434,
    "\u2581geticoninfo": 3435,
    "f8c": 3436,
    "\u25810x4e30": 3437,
    "application": 3438,
    "b44": 3439,
    "\u2581fi": 3440,
    "eexception": 3441,
    "meto": 3442,
    "\u2581drawicon": 3443,
    "\u25810x42c0": 3444,
    "\u25810x7eab": 3445,
    "\u2581openclipboard": 3446,
    "\u2581setclipboarddata": 3447,
    "imeto": 3448,
    "\u2581rais": 3449,
    "\u2581empty": 3450,
    "\u2581closec": 3451,
    "\u2581closeclipboard": 3452,
    "\u2581raiseexception": 3453,
    "\u25810xad": 3454,
    "\u25810x4c3308": 3455,
    "\u2581shellexecut": 3456,
    "\u2581emptyclipboard": 3457,
    "\u25810x4960": 3458,
    "\u25810x4470": 3459,
    "\u25810x4290": 3460,
    "emory": 3461,
    "\u2581releases": 3462,
    "inity": 3463,
    "\u25810x42990": 3464,
    "av": 3465,
    "ffc": 3466,
    "zer": 3467,
    "\u2581setclasslonga": 3468,
    "\u25810x2439f": 3469,
    "302": 3470,
    "\u25810x42992": 3471,
    "eer": 3472,
    "affinity": 3473,
    "affinitymask": 3474,
    "\u2581shellexecuteexw": 3475,
    "\u2581list": 3476,
    "\u2581extractassociatedicona": 3477,
    "\u2581extractassociatediconw": 3478,
    "\u2581getclass": 3479,
    "ts": 3480,
    "geo": 3481,
    "\u25810x7df4": 3482,
    "\u25810x11000": 3483,
    "zerom": 3484,
    "\u25810x4f5": 3485,
    "\u2581rtlzerom": 3486,
    "\u2581shutdown": 3487,
    "\u2581rtlzeromemory": 3488,
    "5c0": 3489,
    "sk": 3490,
    "\u25810xffc4": 3491,
    "\u2581findwindowexa": 3492,
    "160": 3493,
    "\u25810x7df5": 3494,
    "dateresourcew": 3495,
    "\u2581registerservicectrlhandlerw": 3496,
    "409": 3497,
    "\u2581endup": 3498,
    "\u2581updateresourcea": 3499,
    "\u2581endupdateresourcea": 3500,
    "\u2581beginupdateresourcea": 3501,
    "geoid": 3502,
    "\u25810x45f1": 3503,
    "\u2581getusergeoid": 3504,
    "\u2581htonl": 3505,
    "\u25810x43f0": 3506,
    "\u25810x2100210": 3507,
    "\u2581beginupdateresourcew": 3508,
    "stream": 3509,
    "888": 3510,
    "\u25810xffe3": 3511,
    "\u25810x1211e24": 3512,
    "184": 3513,
    "octls": 3514,
    "ticonex": 3515,
    "\u2581ioctls": 3516,
    "\u2581ioctlsocket": 3517,
    "\u2581extracticonex": 3518,
    "\u2581extracticonexw": 3519,
    "\u25810x4096": 3520,
    "\u25810x1e00000": 3521,
    "\u25810x1e50000": 3522,
    "\u2581ob": 3523,
    "\u25810x42fc": 3524,
    "\u25810x8260": 3525,
    "b60": 3526,
    "\u2581listen": 3527,
    "\u25810xffe2": 3528,
    "\u25810x100b": 3529,
    "\u2581getsyscolorbrush": 3530,
    "oree": 3531,
    "\u2581mscoree": 3532,
    "\u25810xb0000": 3533,
    "5c4": 3534,
    "\u25810x6a": 3535,
    "eername": 3536,
    "\u2581getpeername": 3537,
    "\u25810x46a0": 3538,
    "\u25810xffe7": 3539,
    "\u25810xffec": 3540,
    "environment": 3541,
    "8000": 3542,
    "fied": 3543,
    "904": 3544,
    "ram": 3545,
    "\u25810x1211518": 3546,
    "\u25810x1211ef8": 3547,
    "e8c": 3548,
    "\u25810x42e": 3549,
    "\u25810x2ac45": 3550,
    "\u25810x7b000": 3551,
    "\u25810x40287e": 3552,
    "a4c": 3553,
    "\u25810x4e80": 3554,
    "\u25810x1211ccc": 3555,
    "124": 3556,
    "\u25810x7dad": 3557,
    "\u2581getprocessaffinitymask": 3558,
    "\u25810x7dac": 3559,
    "\u25810xffae": 3560,
    "\u25810x1211f84": 3561,
    "\u25810x51c": 3562,
    "ec8": 3563,
    "bad8": 3564,
    "\u2581memcpy": 3565,
    "f4c": 3566,
    "\u25810x3f8": 3567,
    "sw": 3568,
    "\u25810x42900": 3569,
    "\u25810xffc2": 3570,
    "metafilebits": 3571,
    "\u25810xffaf": 3572,
    "e000": 3573,
    "\u25810x6f": 3574,
    "cp": 3575,
    "\u25810xf0": 3576,
    "\u25810x403": 3577,
    "dc0": 3578,
    "\u2581at": 3579,
    "\u25810x1211f24": 3580,
    "wind": 3581,
    "\u2581bat": 3582,
    "\u2581install": 3583,
    "\u25810xff90": 3584,
    "\u25810x4efd": 3585,
    "\u25810x12113": 3586,
    "\u25810x1211f80": 3587,
    "sto": 3588,
    "\u25810x7db1": 3589,
    "\u25810x56bad8": 3590,
    "\u25810x437820": 3591,
    "\u25810x1211de4": 3592,
    "\u25810x41d114": 3593,
    "\u25810x120f8c2": 3594,
    "\u2581registerclassexw": 3595,
    "\u25810x4700": 3596,
    "\u2581rtlun": 3597,
    "\u25810x40ab": 3598,
    "\u2581cadwork": 3599,
    "\u2581rtlunwind": 3600,
    "\u25810x20009": 3601,
    "\u25810x7dc8": 3602,
    "ok": 3603,
    "\u25810x58000": 3604,
    "\u25810x3f5000": 3605,
    "wantto": 3606,
    "a00": 3607,
    "f40": 3608,
    "start": 3609,
    "\u25810x59c1": 3610,
    "204": 3611,
    "\u25810xff91": 3612,
    "\u25810x49c8": 3613,
    "\u25810x59bf": 3614,
    "a10": 3615,
    "\u25810x416ed": 3616,
    "anf": 3617,
    "\u25810x46b3d0": 3618,
    "a70": 3619,
    "\u25810x401": 3620,
    "\u2581string": 3621,
    "anfdr": 3622,
    "\u25810x169": 3623,
    "\u2581sanfdr": 3624,
    "\u25810x4cb0": 3625,
    "\u25810x1211e20": 3626,
    "qa": 3627,
    "\u25810x1211f1c": 3628,
    "382": 3629,
    "printf": 3630,
    "\u25810x4010": 3631,
    "\u25810x140": 3632,
    "inmetafilebits": 3633,
    "684": 3634,
    "\u25810xae": 3635,
    "\u25810x419": 3636,
    "\u2581memset": 3637,
    "\u2581noaccess": 3638,
    "ogram": 3639,
    "\u25810x1210c": 3640,
    "delete": 3641,
    "\u25810x7a10": 3642,
    "f84": 3643,
    "\u25810xffc3": 3644,
    "26c": 3645,
    "\u2581golfset": 3646,
    "d44": 3647,
    "\u25810x6e": 3648,
    "\u25810x84b0": 3649,
    "748": 3650,
    "len": 3651,
    "12c": 3652,
    "\u25810xb0": 3653,
    "1a1": 3654,
    "\u25810x60c6": 3655,
    "248": 3656,
    "\u25810x1b25": 3657,
    "\u25810x8310": 3658,
    "\u2581tmp": 3659,
    "\u25810x44d4b8": 3660,
    "\u25810x4d50": 3661,
    "\u25810xfff4": 3662,
    "\u2581setcurrent": 3663,
    "718": 3664,
    "\u2581gdip": 3665,
    "\u25810x110": 3666,
    "\u2581setenvironment": 3667,
    "\u25810x7af0": 3668,
    "\u2581getwinmetafilebits": 3669,
    "\u25810x408c8": 3670,
    "919": 3671,
    "\u2581lstrcpya": 3672,
    "download": 3673,
    "9c2": 3674,
    "edit": 3675,
    "destroy": 3676,
    "278": 3677,
    "310": 3678,
    "544": 3679,
    "ivate": 3680,
    "\u25810x47f0": 3681,
    "\u25810x12117f4": 3682,
    "\u25810x2825": 3683,
    "\u25810x4201": 3684,
    "erat": 3685,
    "function": 3686,
    "\u25810x1211808": 3687,
    "\u2581getwindow": 3688,
    "\u25810x2200": 3689,
    "\u25810x7db9": 3690,
    "private": 3691,
    "\u25810x4088": 3692,
    "\u25810x406": 3693,
    "privateprofile": 3694,
    "\u2581getdiskfreespaceexw": 3695,
    "\u25810x4318": 3696,
    "\u2581wts": 3697,
    "\u25810x7db8": 3698,
    "\u25810x85d0": 3699,
    "ceex": 3700,
    "\u25810x30000": 3701,
    "\u2581202203040": 3702,
    "\u25810x9210": 3703,
    "\u25810x41a": 3704,
    "\u25810x53e4": 3705,
    "\u25810x12110": 3706,
    "fa2": 3707,
    "\u25810x3f24": 3708,
    "9c0": 3709,
    "\u25810x525b": 3710,
    "aaaaaaaa": 3711,
    "\u25810x45f2": 3712,
    "\u2581dragob": 3713,
    "\u25810x1211f97": 3714,
    "\u2581vc": 3715,
    "\u25810x4554": 3716,
    "\u2581download": 3717,
    "\u25810xffdd": 3718,
    "was": 3719,
    "\u25810x99a0": 3720,
    "\u25810x40a59c": 3721,
    "fromstream": 3722,
    "\u25810x8430": 3723,
    "\u25810x107538": 3724,
    "\u2581shfolder": 3725,
    "\u25810x60000": 3726,
    "798": 3727,
    "\u25810x480": 3728,
    "228": 3729,
    "ned": 3730,
    "\u25810x7dbc": 3731,
    "f58": 3732,
    "mit": 3733,
    "\u25810x1211f3c": 3734,
    "\u25810x437804": 3735,
    "if": 3736,
    "\u25810x7dbd": 3737,
    "240": 3738,
    "\u25810x7ff": 3739,
    "\u25810x416b": 3740,
    "\u2581version": 3741,
    "\u25810x4614": 3742,
    "728": 3743,
    "\u25810x502": 3744,
    "\u25810x107598": 3745,
    "itors": 3746,
    "\u25810x566a40": 3747,
    "e84": 3748,
    "\u25810x107658": 3749,
    "56c": 3750,
    "\u25810x455": 3751,
    "owned": 3752,
    "928": 3753,
    "\u25810x42ce": 3754,
    "\u25810x41c044": 3755,
    "\u25810x41de": 3756,
    "\u2581oleload": 3757,
    "\u2581oleloadfromstream": 3758,
    "\u25810x120faa8": 3759,
    "\u25810x54000": 3760,
    "\u25810x79a0": 3761,
    "ad8": 3762,
    "\u2581vers": 3763,
    "435": 3764,
    "ession": 3765,
    "\u2581setdll": 3766,
    "\u25810x10e9": 3767,
    "\u2581regquery": 3768,
    "d18": 3769,
    "\u25810x7dc0": 3770,
    "344": 3771,
    "\u25810x7ef0": 3772,
    "439": 3773,
    "69c": 3774,
    "\u2581log": 3775,
    "\u25810x107688": 3776,
    "\u25810x5265c28": 3777,
    "\u25810x1211f44": 3778,
    "284": 3779,
    "\u2581exed": 3780,
    "\u25810x78c0": 3781,
    "340": 3782,
    "\u25810x417d": 3783,
    "434": 3784,
    "884": 3785,
    "ee4": 3786,
    "70c": 3787,
    "a80": 3788,
    "\u2581exedows": 3789,
    "984": 3790,
    "\u2581crtdll": 3791,
    "\u25810x50850": 3792,
    "\u25810x169bf64": 3793,
    "\u2581y": 3794,
    "\u2581verset": 3795,
    "\u25810x1210f9": 3796,
    "conditionmask": 3797,
    "\u2581versetconditionmask": 3798,
    "data": 3799,
    "runtime": 3800,
    "\u25810x4828": 3801,
    "\u25810xffc7": 3802,
    "\u25810x4990": 3803,
    "notin": 3804,
    "\u25810xffc1": 3805,
    "\u2581regedit": 3806,
    "vchost": 3807,
    "\u2581oleinitialize": 3808,
    "\u25810x45f4": 3809,
    "\u2581svchost": 3810,
    "locknot": 3811,
    "\u25810x1210e78": 3812,
    "\u25810x1210e7c": 3813,
    "notinitializ": 3814,
    "olfp": 3815,
    "\u2581controlfp": 3816,
    "itorsup": 3817,
    "\u25810x47e0": 3818,
    "\u25810x4378c8": 3819,
    "ectlocknot": 3820,
    "\u2581monitorsup": 3821,
    "notinitialized": 3822,
    "ectlocknotowned": 3823,
    "\u2581monitorsupfunction": 3824,
    "\u2581monitorsupfunctionnotinitialized": 3825,
    "\u2581dw": 3826,
    "\u2581releasesrwlockexclusive": 3827,
    "runtime140": 3828,
    "\u2581vcruntime140": 3829,
    "370": 3830,
    "\u25810x4115": 3831,
    "101": 3832,
    "\u25819": 3833,
    "ise": 3834,
    "b0c": 3835,
    "\u25810x1211e18": 3836,
    "witht": 3837,
    "\u25810x169bf74": 3838,
    "efe8": 3839,
    "3c0": 3840,
    "filewas": 3841,
    "specified": 3842,
    "50000": 3843,
    "\u2581commode": 3844,
    "\u25810x4076": 3845,
    "\u2581thespecified": 3846,
    "filewasnotfound": 3847,
    "\u2581thespecifiedfilewasnotfound": 3848,
    "\u25810x8420": 3849,
    "\u25810x1075c8": 3850,
    "\u25810x1075f8": 3851,
    "\u25810x107628": 3852,
    "\u25810x41eb": 3853,
    "\u25810x188e00": 3854,
    "\u25810x1211db8": 3855,
    "720": 3856,
    "\u25810x644": 3857,
    "reque": 3858,
    "\u25812022": 3859,
    "\u2581mov": 3860,
    "\u2581findfirstfilea": 3861,
    "\u2581getcurrentdirectorya": 3862,
    "\u25810x414": 3863,
    "a0f": 3864,
    "\u25810x8814": 3865,
    "\u25810x4086": 3866,
    "\u25810x120fd": 3867,
    "will": 3868,
    "\u25810x3f6000": 3869,
    "\u25810x188d3c": 3870,
    "34c": 3871,
    "484": 3872,
    "68c": 3873,
    "\u25810x62": 3874,
    "dl": 3875,
    "437": 3876,
    "\u2581pleas": 3877,
    "\u2581createsemaphorew": 3878,
    "\u25810x418a": 3879,
    "\u25810x3f7000": 3880,
    "\u25810x3fb000": 3881,
    "sg": 3882,
    "\u2581createwindow": 3883,
    "\u25810xfc": 3884,
    "301": 3885,
    "\u2581createwindowexw": 3886,
    "\u25810x3f8000": 3887,
    "oem": 3888,
    "7a8": 3889,
    "\u25810x42c5d0": 3890,
    "794": 3891,
    "a41": 3892,
    "\u25810x423e": 3893,
    "\u25810x45fe": 3894,
    "1c4": 3895,
    "base": 3896,
    "\u25810x40ac": 3897,
    "\u25810x3fa000": 3898,
    "\u25810x44180": 3899,
    "\u25810x188e24": 3900,
    "\u25810x3f9000": 3901,
    "768": 3902,
    "\u25810x7dc1": 3903,
    "\u25810x63000000": 3904,
    "\u2581net": 3905,
    "\u2581initializesrwlock": 3906,
    "330": 3907,
    "\u25810x5c000": 3908,
    "\u25810x9020": 3909,
    "\u25810x44000": 3910,
    "a38": 3911,
    "a5c": 3912,
    "\u25810x7230": 3913,
    "\u25810x42efe8": 3914,
    "\u25810x45f3": 3915,
    "dat": 3916,
    "\u25810x45f5": 3917,
    "\u2581setdlldirectoryw": 3918,
    "\u25810x45fa": 3919,
    "\u25810xfeedf": 3920,
    "f46": 3921,
    "ver": 3922,
    "\u25810x8f70": 3923,
    "\u25810x45f8": 3924,
    "\u25810x401000": 3925,
    "\u25810x2439f74": 3926,
    "358": 3927,
    "f78": 3928,
    "1c0": 3929,
    "\u25810x45f6": 3930,
    "\u25810x4efd98": 3931,
    "60c": 3932,
    "\u2581aaa": 3933,
    "\u25810x9f": 3934,
    "ve": 3935,
    "namea": 3936,
    "\u25810x45f7": 3937,
    "\u25810x45f9": 3938,
    "43c": 3939,
    "\u2581yo": 3940,
    "\u2581initon": 3941,
    "ceexecute": 3942,
    "ceexecuteonce": 3943,
    "\u2581initonceexecuteonce": 3944,
    "264": 3945,
    "ac4": 3946,
    "\u25810x4111": 3947,
    "14c": 3948,
    "prec": 3949,
    "7cc": 3950,
    "\u25810x10e9bc": 3951,
    "\u25810x42168": 3952,
    "env": 3953,
    "\u2581are": 3954,
    "\u2581setfilepointerex": 3955,
    "d40": 3956,
    "\u2581e000": 3957,
    "80004005": 3958,
    "\u2581error0x80004005": 3959,
    "\u25810x7710": 3960,
    "\u25810xffde": 3961,
    "\u25810x1211ecc": 3962,
    "958": 3963,
    "d78": 3964,
    "\u25810x4232": 3965,
    "\u25810x22e": 3966,
    "\u2581getclassinfoa": 3967,
    "b4c": 3968,
    "\u25810x7e3000": 3969,
    "\u25810x7e4000": 3970,
    "\u25810x4601": 3971,
    "seek": 3972,
    "\u25810x45fd": 3973,
    "\u25810x42a0": 3974,
    "\u2581heapdestroy": 3975,
    "700": 3976,
    "accel": 3977,
    "heme": 3978,
    "\u25810x45ff": 3979,
    "\u25810x7070": 3980,
    "\u2581messageboxa": 3981,
    "ig": 3982,
    "\u2581sc": 3983,
    "\u2581uxt": 3984,
    "\u2581uxtheme": 3985,
    "mb": 3986,
    "\u25810xfeee012": 3987,
    "be8": 3988,
    "\u2581move": 3989,
    "\u25810x40b3": 3990,
    "\u25810x4189": 3991,
    "\u25810x4fc": 3992,
    "\u2581filet": 3993,
    "\u2581filetimeto": 3994,
    "\u25810x4112": 3995,
    "3a8": 3996,
    "\u25810x407": 3997,
    "\u25810x569": 3998,
    "\u25810x71000000": 3999,
    "528": 4000,
    "his": 4001,
    "pla": 4002,
    "precise": 4003,
    "\u25810x42b9": 4004,
    "preciseasfiletime": 4005,
    "\u2581getsystemtimepreciseasfiletime": 4006,
    "\u2581getfileinformationbyhandleex": 4007,
    "\u25810xa4a0": 4008,
    "\u25810x419c20": 4009,
    "1cc": 4010,
    "\u25810x70a8": 4011,
    "324": 4012,
    "\u25810x169bf94": 4013,
    "has": 4014,
    "\u2581remove": 4015,
    "d8c": 4016,
    "instal": 4017,
    "f70": 4018,
    "9c4": 4019,
    "\u2581getoem": 4020,
    "\u2581exem": 4021,
    "\u2581exemyarg1myarg2": 4022,
    "\u2581getoemcp": 4023,
    "\u25810x422a0": 4024,
    "\u25810x4208": 4025,
    "\u25810x46b400": 4026,
    "\u2581nto": 4027,
    "\u25810x7c40": 4028,
    "\u25810x60c690": 4029,
    "clipboardformat": 4030,
    "178": 4031,
    "3e6": 4032,
    "\u25810x3020": 4033,
    "2a0": 4034,
    "d84": 4035,
    "regi": 4036,
    "\u2581getdiskfreespaceexa": 4037,
    "\u25810x43400": 4038,
    "\u25810x1210f1": 4039,
    "fd0": 4040,
    "srw": 4041,
    "\u25810x3f2210": 4042,
    "conditionvariablesrw": 4043,
    "\u2581sleepconditionvariablesrw": 4044,
    "144": 4045,
    "\u25810x7708": 4046,
    "\u2581strcmp": 4047,
    "66c": 4048,
    "606": 4049,
    "\u25810x1211d30": 4050,
    "\u2581shellexecutew": 4051,
    "\u2581removedirectory": 4052,
    "118": 4053,
    "eec": 4054,
    "f20": 4055,
    "\u25810x42b964": 4056,
    "areex": 4057,
    "\u25810x7e00": 4058,
    "dcompareex": 4059,
    "dcompareexchange": 4060,
    "\u2581interlockedcompareexchange": 4061,
    "\u25810x4177": 4062,
    "accelerat": 4063,
    "\u25810x1210fa": 4064,
    "common": 4065,
    "db0": 4066,
    "e80": 4067,
    "\u2581initcommon": 4068,
    "\u2581initcommoncontrols": 4069,
    "936": 4070,
    "\u25810x4c97": 4071,
    "b00": 4072,
    "\u25810x41b0": 4073,
    "only": 4074,
    "\u25810x1fa": 4075,
    "\u25810x435000": 4076,
    "\u25810x41d": 4077,
    "\u25810x4cf": 4078,
    "\u2581registerclipboardformat": 4079,
    "\u25810x9730": 4080,
    "\u2581getvolumeinformationa": 4081,
    "\u25810x8815": 4082,
    "\u25810x423326": 4083,
    "\u25810x423327": 4084,
    "d50": 4085,
    "9f0": 4086,
    "704": 4087,
    "ab4": 4088,
    "\u25810x1860": 4089,
    "b84": 4090,
    "\u25810x164": 4091,
    "bc5": 4092,
    "\u25810x71c0": 4093,
    "3e0": 4094,
    "\u258112": 4095,
    "\u25810x7d20": 4096,
    "\u2581202203031": 4097,
    "ctype": 4098,
    "\u25810x440": 4099,
    "\u25810x417b50": 4100,
    "\u25810x9e": 4101,
    "\u25810x41c4": 4102,
    "\u25810x7f10": 4103,
    "cid": 4104,
    "\u25810x486d": 4105,
    "\u25810x1211f54": 4106,
    "d6c": 4107,
    "toc": 4108,
    "\u25810x3f20": 4109,
    "18c": 4110,
    "78c": 4111,
    "7b8": 4112,
    "\u25810x4030": 4113,
    "\u25810xa210": 4114,
    "\u25810x41cc": 4115,
    "resourcea": 4116,
    "pi": 4117,
    "93e": 4118,
    "565": 4119,
    "\u25810x4606": 4120,
    "e04": 4121,
    "onexit": 4122,
    "\u25810xffcb": 4123,
    "\u2581userenv": 4124,
    "\u2581setthreadlocale": 4125,
    "\u258128": 4126,
    "\u25810x7e5000": 4127,
    "ae0": 4128,
    "f30": 4129,
    "\u25810x9cc0": 4130,
    "\u2581wakeconditionvariable": 4131,
    "605": 4132,
    "dc4": 4133,
    "90c": 4134,
    "\u258126": 4135,
    "\u2581findresourcea": 4136,
    "\u25810x616": 4137,
    "\u25810xfff3": 4138,
    "\u25810x181b70": 4139,
    "\u25810x41a044": 4140,
    "\u2581sub": 4141,
    "\u25810x8a60": 4142,
    "\u25810x120ff": 4143,
    "\u25810x1211ee8": 4144,
    "atalog": 4145,
    "f0c": 4146,
    "vis": 4147,
    "\u25810x8250": 4148,
    "\u25810x1211c14": 4149,
    "7ec": 4150,
    "\u25810x500": 4151,
    "\u2581submit": 4152,
    "fa8": 4153,
    "poolwork": 4154,
    "\u2581flushfile": 4155,
    "\u2581submitthread": 4156,
    "\u2581flushfilebuffers": 4157,
    "\u2581closethreadpoolwork": 4158,
    "\u2581createthreadpoolwork": 4159,
    "\u2581submitthreadpoolwork": 4160,
    "\u2581setfileinformationbyhandle": 4161,
    "a02": 4162,
    "\u25810xd8": 4163,
    "\u25810x4093e8": 4164,
    "7e8": 4165,
    "b46": 4166,
    "\u25810x45fc": 4167,
    "\u25810x4093e5": 4168,
    "\u25810x4093e6": 4169,
    "\u25810x4093e7": 4170,
    "mapi": 4171,
    "\u25810x4227": 4172,
    "\u2581mso": 4173,
    "7d0": 4174,
    "internet": 4175,
    "1a0": 4176,
    "\u25810x4cf0": 4177,
    "\u25810x41e1d8": 4178,
    "plor": 4179,
    "\u25810xc8": 4180,
    "\u25810x4340": 4181,
    "\u25810x7460": 4182,
    "\u25810x74d0": 4183,
    "\u2581dwmapi": 4184,
    "rn": 4185,
    "150": 4186,
    "a48": 4187,
    "plorer": 4188,
    "\u25810xd2": 4189,
    "5e8": 4190,
    "\u2581cryptbase": 4191,
    "cc4": 4192,
    "ceb": 4193,
    "atalogs": 4194,
    "bd0": 4195,
    "rnl": 4196,
    "ansi": 4197,
    "145": 4198,
    "\u2581runonce": 4199,
    "\u25810x3b7": 4200,
    "15c": 4201,
    "92e": 4202,
    "apis": 4203,
    "\u25810x411b": 4204,
    "200": 4205,
    "\u2581msvcr90": 4206,
    "skrnl": 4207,
    "\u25810x4196": 4208,
    "\u2581tlsfree": 4209,
    "\u2581ntoskrnl": 4210,
    "15f": 4211,
    "\u258118": 4212,
    "\u2581filenotfound": 4213,
    "ded": 4214,
    "apisansi": 4215,
    "\u2581arefile": 4216,
    "\u25810x1211ce0": 4217,
    "\u2581arefileapisansi": 4218,
    "c8c": 4219,
    "f38": 4220,
    "950": 4221,
    "\u25810xffca": 4222,
    "985": 4223,
    "\u25810x6781": 4224,
    "7dc": 4225,
    "ef8": 4226,
    "940": 4227,
    "\u25810x7620": 4228,
    "\u25810x7cb0": 4229,
    "9d8": 4230,
    "b70": 4231,
    "7f0": 4232,
    "b10": 4233,
    "\u2581dup": 4234,
    "ae8": 4235,
    "738": 4236,
    "\u25810x438": 4237,
    "963": 4238,
    "\u25812d": 4239,
    "50c": 4240,
    "acd": 4241,
    "\u25810x4093e9": 4242,
    "\u25810x4093ea": 4243,
    "\u25810x4093eb": 4244,
    "\u2581getprivateprofile": 4245,
    "42c": 4246,
    "ethe": 4247,
    "\u25810x70e0": 4248,
    "54c": 4249,
    "\u2581shgetfile": 4250,
    "114": 4251,
    "5b0": 4252,
    "\u25810x41c": 4253,
    "\u25810xffc8": 4254,
    "par": 4255,
    "iserror": 4256,
    "\u25810x72d8": 4257,
    "\u25810x94f0": 4258,
    "ec4": 4259,
    "70000": 4260,
    "\u25810x7b60": 4261,
    "\u25810x1211e54": 4262,
    "\u25810x7718": 4263,
    "\u25810x771b": 4264,
    "9b5c": 4265,
    "bb8": 4266,
    "inter": 4267,
    "\u25810x7310": 4268,
    "130": 4269,
    "\u25810x7038": 4270,
    "\u25810xe00": 4271,
    "\u2581duplic": 4272,
    "920": 4273,
    "\u25810x71f8": 4274,
    "\u25810x598740": 4275,
    "9e0": 4276,
    "afc": 4277,
    "\u25810x208": 4278,
    "\u25810x7770": 4279,
    "lower": 4280,
    "\u25810x7380": 4281,
    "\u2581atexit": 4282,
    "00a": 4283,
    "\u25810x4e5c": 4284,
    "\u25810x409aa4": 4285,
    "vip": 4286,
    "\u258124": 4287,
    "\u2581ns": 4288,
    "\u25810x409aa5": 4289,
    "\u25810x4614d0": 4290,
    "\u2581prvip": 4291,
    "\u25810x75b0": 4292,
    "f48": 4293,
    "\u25810x40b4": 4294,
    "\u25810x42a1": 4295,
    "318": 4296,
    "\u2581getenvironmentstrings": 4297,
    "\u25810x40ef": 4298,
    "\u25810x40935d": 4299,
    "\u25810x40935e": 4300,
    "\u25810x40935f": 4301,
    "\u25810x409360": 4302,
    "\u25810x409361": 4303,
    "\u25810x409362": 4304,
    "\u25810x409363": 4305,
    "\u25810x1211768": 4306,
    "tp": 4307,
    "20c": 4308,
    "stringw": 4309,
    "youwantto": 4310,
    "\u25810xbc": 4311,
    "\u25810x424": 4312,
    "\u25810x534": 4313,
    "\u25810x45fb": 4314,
    "d28": 4315,
    "\u2581charpre": 4316,
    "\u2581nsiserror": 4317,
    "dac": 4318,
    "\u2581lstrc": 4319,
    "\u25810x8f20": 4320,
    "\u25810x1210e80": 4321,
    "core": 4322,
    "\u25810x7a48": 4323,
    "\u25810x4084": 4324,
    "\u25810x41f7": 4325,
    "\u25810x4c10": 4326,
    "\u2581lstrcmpi": 4327,
    "\u2581findnextfilea": 4328,
    "\u25810x53e498": 4329,
    "e1d": 4330,
    "\u25810xffc9": 4331,
    "7b4": 4332,
    "38c": 4333,
    "\u25810x7b98": 4334,
    "\u25810x569b48": 4335,
    "e58": 4336,
    "\u25810x7118": 4337,
    "3ff": 4338,
    "970": 4339,
    "\u25810x7268": 4340,
    "b48": 4341,
    "\u25810x7188": 4342,
    "\u25810x7428": 4343,
    "\u258110": 4344,
    "\u25810x7888": 4345,
    "\u25810x7f02": 4346,
    "3e8": 4347,
    "a64": 4348,
    "\u25810x7348": 4349,
    "\u2581pi": 4350,
    "\u25810x73b8": 4351,
    "\u25810x7578": 4352,
    "\u25810x4307e0": 4353,
    "\u25810x7498": 4354,
    "\u25810x7738": 4355,
    "\u25810x82c0": 4356,
    "\u25810xd3": 4357,
    "\u25810x7508": 4358,
    "\u25810x75e8": 4359,
    "withtag": 4360,
    "\u25810x78f8": 4361,
    "poolwithtag": 4362,
    "\u2581exallocate": 4363,
    "\u2581exallocatepoolwithtag": 4364,
    "\u25810x7658": 4365,
    "\u25810x7818": 4366,
    "\u2581cl": 4367,
    "\u2581sa": 4368,
    "\u2581sys": 4369,
    "\u25810x76c8": 4370,
    "1b0": 4371,
    "2c4": 4372,
    "77c": 4373,
    "\u25810x43a4": 4374,
    "\u25810x7968": 4375,
    "a69": 4376,
    "f28": 4377,
    "fdd": 4378,
    "\u25810x77a8": 4379,
    "1b8": 4380,
    "d83": 4381,
    "\u25810xb4": 4382,
    "\u25810x8f50": 4383,
    "\u25810x1211bfc": 4384,
    "\u25810x1211e80": 4385,
    "\u2581failedtoseek": 4386,
    "ab5": 4387,
    "\u25810x79d8": 4388,
    "\u25810x7ab8": 4389,
    "\u25810x7ce8": 4390,
    "\u25810x7c08": 4391,
    "ef0": 4392,
    "\u2581ndr": 4393,
    "tostart": 4394,
    "\u25810x7b28": 4395,
    "\u25810x7d58": 4396,
    "tostartoffile": 4397,
    "\u2581failedtoseektostartoffile": 4398,
    "\u25810x7c78": 4399,
    "\u2581strlen": 4400,
    "\u2581ndrd": 4401,
    "\u25810x169bc": 4402,
    "f85": 4403,
    "10c": 4404,
    "918": 4405,
    "ere": 4406,
    "ncy": 4407,
    "\u25810x47ee": 4408,
    "\u25810x7b80": 4409,
    "\u2581failedtoinitializeenginesection": 4410,
    "aa0": 4411,
    "\u25810x4298": 4412,
    "\u25810x70000": 4413,
    "hed": 4414,
    "\u25810x9940": 4415,
    "3b8": 4416,
    "d90": 4417,
    "\u25810xf8": 4418,
    "requency": 4419,
    "600": 4420,
    "d48": 4421,
    "\u25810x518": 4422,
    "\u25810x41aa": 4423,
    "\u2581failedtoinitializeenginestate": 4424,
    "etype": 4425,
    "cefrequency": 4426,
    "\u2581queryperformancefrequency": 4427,
    "\u2581form": 4428,
    "1e8": 4429,
    "\u2581cb": 4430,
    "71c": 4431,
    "bcc": 4432,
    "fad": 4433,
    "\u25810x1210e84": 4434,
    "db5": 4435,
    "\u25810x4902": 4436,
    "\u25810x411": 4437,
    "381": 4438,
    "71f": 4439,
    "\u25810x4c0": 4440,
    "\u25810x42eb": 4441,
    "d30": 4442,
    "\u25810x431f": 4443,
    "\u25810x4650": 4444,
    "\u25810x2200220": 4445,
    "\u25810x1211f50": 4446,
    "\u25810x130": 4447,
    "\u25810x560": 4448,
    "\u25810x4540": 4449,
    "\u25810x87": 4450,
    "\u2581setst": 4451,
    "\u25810x7712": 4452,
    "\u25810x7715": 4453,
    "\u25810x82f0": 4454,
    "\u25810x40a58c": 4455,
    "706": 4456,
    "\u25810x1211fbc": 4457,
    "\u25810x40a57c": 4458,
    "chr": 4459,
    "\u25810xffd4": 4460,
    "\u2581setstdhandle": 4461,
    "item": 4462,
    "\u2581duplicate": 4463,
    "\u2581isvalidlocale": 4464,
    "\u25810x415": 4465,
    "\u25810x5676": 4466,
    "\u25810xfeee011": 4467,
    "os": 4468,
    "d0c": 4469,
    "\u2581can": 4470,
    "sa": 4471,
    "e0c": 4472,
    "sb": 4473,
    "566": 4474,
    "436": 4475,
    "f8a": 4476,
    "\u25810x4607": 4477,
    "\u25810x1211fb8": 4478,
    "fec": 4479,
    "\u25810x7b00": 4480,
    "\u25810x1211b08": 4481,
    "604": 4482,
    "801": 4483,
    "\u25810x41d2": 4484,
    "\u25810x1210cf0": 4485,
    "\u25810x1211cfc": 4486,
    "a0000": 4487,
    "\u2581getdriv": 4488,
    "\u2581regqueryvalu": 4489,
    "64c": 4490,
    "install": 4491,
    "\u2581getdrivetype": 4492,
    "744": 4493,
    "\u25810x1211ef4": 4494,
    "\u2581duplicatehandle": 4495,
    "\u25810x1211dbc": 4496,
    "\u25810x1211ed8": 4497,
    "\u258130": 4498,
    "ecc": 4499,
    "\u25810x4095": 4500,
    "\u25810x64000": 4501,
    "\u25810x3f2420": 4502,
    "a54": 4503,
    "\u25810x7a2": 4504,
    "\u25810x1808": 4505,
    "\u25810x8fc0": 4506,
    "exist": 4507,
    "ready": 4508,
    "\u25810x488": 4509,
    "1e4": 4510,
    "\u2581isctype": 4511,
    "\u25810x200020": 4512,
    "\u25810x58de50": 4513,
    "\u2581setcurrentdirectorya": 4514,
    "7bc": 4515,
    "\u25810x4200": 4516,
    "580": 4517,
    "\u25810xfff2": 4518,
    "006": 4519,
    "\u25810x4bb0": 4520,
    "\u25810x1211438": 4521,
    "736": 4522,
    "\u25810x4168": 4523,
    "\u25810x68000": 4524,
    "\u258135": 4525,
    "\u25810x43f6": 4526,
    "\u25810x4240": 4527,
    "\u25810x90f0": 4528,
    "\u25810x4f6200": 4529,
    "d2c": 4530,
    "\u25810x9290": 4531,
    "\u25810xa6b0": 4532,
    "148": 4533,
    "\u2581wcs": 4534,
    "\u2581youm": 4535,
    "\u2581initcommoncontrolsex": 4536,
    "\u2581wm": 4537,
    "90000": 4538,
    "\u2581lstrcata": 4539,
    "7ac": 4540,
    "\u2581opena": 4541,
    "\u2581fil": 4542,
    "\u25810x2357b": 4543,
    "roll": 4544,
    "\u25810x4e5e": 4545,
    "\u25810x468": 4546,
    "\u2581format": 4547,
    "7c5": 4548,
    "fc2": 4549,
    "b0000": 4550,
    "d0000": 4551,
    "namew": 4552,
    "\u2581reset": 4553,
    "a8c": 4554,
    "\u25810x1211938": 4555,
    "fc0": 4556,
    "7ea": 4557,
    "bc0": 4558,
    "79b": 4559,
    "\u25810x6b9c": 4560,
    "\u25810x8b50": 4561,
    "\u2581af": 4562,
    "\u25810x4604": 4563,
    "96c": 4564,
    "erif": 4565,
    "\u25810xea": 4566,
    "\u2581commandline": 4567,
    "378": 4568,
    "cc6": 4569,
    "d38": 4570,
    "\u2581back": 4571,
    "\u25810x12112f8": 4572,
    "974": 4573,
    "\u25810x4d5": 4574,
    "argvw": 4575,
    "\u25810x450": 4576,
    "toargvw": 4577,
    "\u2581commandlinetoargvw": 4578,
    "\u25810x4605": 4579,
    "\u25810x7f8003": 4580,
    "\u25810x7f8004": 4581,
    "\u25810x7f8005": 4582,
    "\u25810x7f8006": 4583,
    "\u25810x7f8007": 4584,
    "\u25810x7f8008": 4585,
    "\u25810x7f8009": 4586,
    "\u25810x7f800a": 4587,
    "\u25810x7f800b": 4588,
    "\u25810x7f800c": 4589,
    "\u25810x7f800d": 4590,
    "\u2581removedirectorya": 4591,
    "ysi": 4592,
    "\u25810xa260": 4593,
    "d5c": 4594,
    "\u25810x9a60": 4595,
    "windows": 4596,
    "\u25810x7f800e": 4597,
    "\u2581security": 4598,
    "accelerators": 4599,
    "\u2581loadaccelerators": 4600,
    "\u25810x502dc": 4601,
    "360": 4602,
    "644": 4603,
    "nam": 4604,
    "\u25810x40e5": 4605,
    "\u25810x7f800f": 4606,
    "\u25810x1211584": 4607,
    "804": 4608,
    "934": 4609,
    "b98": 4610,
    "pri": 4611,
    "\u25810x50e10": 4612,
    "1d0": 4613,
    "d70": 4614,
    "\u25810x3010": 4615,
    "msg": 4616,
    "\u2581registerclassa": 4617,
    "im": 4618,
    "a45": 4619,
    "aa8": 4620,
    "a0c": 4621,
    "ority": 4622,
    "\u25810x44b7": 4623,
    "priority": 4624,
    "960": 4625,
    "laun": 4626,
    "\u25810x40ef1b": 4627,
    "\u25810x7714": 4628,
    "\u25810x7716": 4629,
    "\u25810x40ef1a": 4630,
    "\u25810x6781d8": 4631,
    "\u25810x522": 4632,
    "298": 4633,
    "ctrl": 4634,
    "\u25810x4608": 4635,
    "launch": 4636,
    "\u25810x4ec": 4637,
    "\u25810x5937": 4638,
    "f18": 4639,
    "\u2581your": 4640,
    "leasec": 4641,
    "b68": 4642,
    "hysi": 4643,
    "e40": 4644,
    "\u25810x41f": 4645,
    "66e": 4646,
    "d10": 4647,
    "0048": 4648,
    "\u25810x5f6": 4649,
    "\u25810x46c0": 4650,
    "\u25810x58c034": 4651,
    "\u25810x1211888": 4652,
    "9b4": 4653,
    "af4": 4654,
    "\u25810x134": 4655,
    "\u25810x9010": 4656,
    "424": 4657,
    "\u25810x8650": 4658,
    "vironmentstringsa": 4659,
    "\u25810xffdf": 4660,
    "\u2581writ": 4661,
    "3ac": 4662,
    "d60": 4663,
    "30000": 4664,
    "\u25810xbe": 4665,
    "\u2581setendoffile": 4666,
    "\u25810x4ad4": 4667,
    "\u25810x1211b74": 4668,
    "1f8": 4669,
    "\u2581writec": 4670,
    "406": 4671,
    "784": 4672,
    "\u2581getsystemtimes": 4673,
    "\u2581setenvironmentvariablea": 4674,
    "6c5": 4675,
    "906": 4676,
    "c0c": 4677,
    "applet": 4678,
    "privile": 4679,
    "\u2581shellexecutea": 4680,
    "\u25810x402": 4681,
    "\u2581instal": 4682,
    "7a0": 4683,
    "d58": 4684,
    "\u25810x4251": 4685,
    "eb8": 4686,
    "\u25810x7ed0": 4687,
    "\u2581environ": 4688,
    "2e8": 4689,
    "a20": 4690,
    "e0000": 4691,
    "\u25810x6970": 4692,
    "\u25810xa9a0": 4693,
    "listmsg": 4694,
    "\u2581commctrl": 4695,
    "\u2581draglistmsg": 4696,
    "\u25810x40f6a8": 4697,
    "\u25810x75500000": 4698,
    "716": 4699,
    "\u25810xffed": 4700,
    "\u25810x1211b50": 4701,
    "110": 4702,
    "onsolew": 4703,
    "\u25810x2012": 4704,
    "\u25810x416d": 4705,
    "903": 4706,
    "945": 4707,
    "e74": 4708,
    "\u2581aa": 4709,
    "\u25810x5265c3c": 4710,
    "\u2581physi": 4711,
    "\u25810x8554": 4712,
    "\u2581physical": 4713,
    "\u25810x1211f98": 4714,
    "9c24": 4715,
    "\u25810x41cb": 4716,
    "\u25810xff86": 4717,
    "\u25810x598758": 4718,
    "\u25810xfeee015": 4719,
    "\u25810x7bc": 4720,
    "\u25810x12117e8": 4721,
    "\u25810xffd1": 4722,
    "\u2581dialog": 4723,
    "\u25810x1210e30": 4724,
    "7c4": 4725,
    "\u25810x409c": 4726,
    "\u25810x1211790": 4727,
    "\u25810x12117fc": 4728,
    "f98": 4729,
    "\u25810x4919": 4730,
    "7de": 4731,
    "3d28": 4732,
    "199": 4733,
    "ning": 4734,
    "\u25810x1211fa0": 4735,
    "a6c": 4736,
    "f50": 4737,
    "\u25810x4602": 4738,
    "\u25810x40a3e": 4739,
    "\u25810x1211b54": 4740,
    "\u2581failedtoopen": 4741,
    "\u2581failedtoopenapplication": 4742,
    "\u2581failedtoopenapplicationlog": 4743,
    "\u25810x4a77": 4744,
    "\u25810x8660": 4745,
    "260": 4746,
    "ects": 4747,
    "\u25810x504": 4748,
    "\u25810xd000": 4749,
    "9b6": 4750,
    "\u2581qt": 4751,
    "\u25810x940000": 4752,
    "3e2": 4753,
    "\u25810x408478": 4754,
    "\u25814d5": 4755,
    "\u2581print": 4756,
    "\u25810x4041": 4757,
    "fc4": 4758,
    "\u25810x7f4": 4759,
    "\u25810x47a00": 4760,
    "a8f": 4761,
    "\u2581tow": 4762,
    "a90000": 4763,
    "\u25810xff69": 4764,
    "190": 4765,
    "\u25810x3f31": 4766,
    "a90": 4767,
    "\u25810x7ec4": 4768,
    "805": 4769,
    "80c": 4770,
    "\u25810x1211f5c": 4771,
    "\u25810x52668": 4772,
    "\u25810x188e4c": 4773,
    "\u25810xffe8": 4774,
    "db8": 4775,
    "led": 4776,
    "privilege": 4777,
    "\u25810x1211f0c": 4778,
    "2ac": 4779,
    "f60": 4780,
    "\u25810xfeee014": 4781,
    "723": 4782,
    "\u25810x46b3b8": 4783,
    "754": 4784,
    "enamew": 4785,
    "\u25810x461518": 4786,
    "are": 4787,
    "\u2581ps": 4788,
    "\u2581lib": 4789,
    "\u25810x4c30": 4790,
    "b58": 4791,
    "\u2581logme": 4792,
    "\u25810x4169c0": 4793,
    "\u25810x4169c1": 4794,
    "nexplorer": 4795,
    "\u2581getmodulehandl": 4796,
    "79c": 4797,
    "printer": 4798,
    "7d5": 4799,
    "e00": 4800,
    "\u25810x10a": 4801,
    "ons": 4802,
    "\u25810x434": 4803,
    "\u25810x8ce0": 4804,
    "\u25810x2d4df": 4805,
    "5f0": 4806,
    "7d8": 4807,
    "\u2581setupapi": 4808,
    "eed": 4809,
    "9260": 4810,
    "\u25810x56c": 4811,
    "\u25810x4af4": 4812,
    "\u25810x4b40": 4813,
    "58c": 4814,
    "932": 4815,
    "7170": 4816,
    "dff": 4817,
    "\u25810x4020": 4818,
    "778": 4819,
    "b14": 4820,
    "olec": 4821,
    "\u25810x6b6": 4822,
    "\u25810x740": 4823,
    "b28": 4824,
    "hook": 4825,
    "\u25810x4902e0": 4826,
    "750": 4827,
    "a78": 4828,
    "d05": 4829,
    "ffff0000": 4830,
    "\u25810x496790": 4831,
    "345": 4832,
    "youre": 4833,
    "002": 4834,
    "338": 4835,
    "348": 4836,
    "\u25810x3f27": 4837,
    "\u25810x7eaba8": 4838,
    "fc6": 4839,
    "9b8": 4840,
    "\u2581add": 4841,
    "\u25810x599b5c": 4842,
    "\u25810x599c24": 4843,
    "\u25810x59bf3c": 4844,
    "\u25810x59bf7c": 4845,
    "\u25810x59c120": 4846,
    "\u25810x59c138": 4847,
    "\u25810xfeee018": 4848,
    "374": 4849,
    "\u25810x416ed1": 4850,
    "560": 4851,
    "\u25810x416ed2": 4852,
    "\u25810x567678": 4853,
    "998": 4854,
    "\u25810x600": 4855,
    "\u25810x40d8": 4856,
    "238": 4857,
    "\u25810x1210ec0": 4858,
    "e4b8": 4859,
    "sys": 4860,
    "b50": 4861,
    "hash": 4862,
    "\u25810x435018": 4863,
    "\u25810x435002": 4864,
    "\u25810x435004": 4865,
    "\u25810x435006": 4866,
    "\u25810x435008": 4867,
    "\u25810x43500a": 4868,
    "\u25810x43500c": 4869,
    "\u25810x43500e": 4870,
    "\u25810x435010": 4871,
    "790": 4872,
    "9a8": 4873,
    "9dc": 4874,
    "f04": 4875,
    "\u25810x435014": 4876,
    "0068": 4877,
    "\u25810x7fb": 4878,
    "\u2581psapi": 4879,
    "\u2581program": 4880,
    "\u25810x435016": 4881,
    "\u25810xeb": 4882,
    "000000ffff0000": 4883,
    "7ce": 4884,
    "0070": 4885,
    "ame32": 4886,
    "\u2581prop": 4887,
    "\u25810x478": 4888,
    "\u25810x4106": 4889,
    "\u25810x44c2": 4890,
    "\u2581mame32": 4891,
    "\u2581oleacc": 4892,
    "\u25810x74000": 4893,
    "\u2581freeware": 4894,
    "4000000ffff0000": 4895,
    "zone": 4896,
    "\u2581apphelp": 4897,
    "698": 4898,
    "bcat": 4899,
    "\u25810x509e4": 4900,
    "\u2581regdelete": 4901,
    "9b9": 4902,
    "\u2581ric": 4903,
    "\u2581propsys": 4904,
    "ef4": 4905,
    "bcatq": 4906,
    "\u2581clbcatq": 4907,
    "\u25810xfeee016": 4908,
    "resc": 4909,
    "\u2581riched": 4910,
    "rescue": 4911,
    "\u25810x42d498": 4912,
    "1c6": 4913,
    "inrescue": 4914,
    "versioninfow": 4915,
    "\u2581logmeinrescue": 4916,
    "3a0": 4917,
    "fbc": 4918,
    "3a20": 4919,
    "\u2581getmessagew": 4920,
    "\u2581getmodulehandleexw": 4921,
    "\u2581getuserdefaultuilanguage": 4922,
    "e05": 4923,
    "\u2581logmeinrescueapplet": 4924,
    "\u25810x435012": 4925,
    "22c": 4926,
    "zoneinformation": 4927,
    "b94": 4928,
    "\u25810x42fb": 4929,
    "\u2581gettimezoneinformation": 4930,
    "354": 4931,
    "dd8": 4932,
    "\u25810x1211e0c": 4933,
    "\u2581openprocess": 4934,
    "218": 4935,
    "\u2581mo": 4936,
    "\u25810x173": 4937,
    "a900003": 4938,
    "\u25814d5a900003": 4939,
    "\u25814d5a9000030000000": 4940,
    "\u25814d5a90000300000004000000ffff0000": 4941,
    "\u258136": 4942,
    "program": 4943,
    "\u25810x7ec8": 4944,
    "\u25810x7ec5": 4945,
    "\u25810x40d": 4946,
    "\u2581getmodulebas": 4947,
    "b2c": 4948,
    "\u2581getwindowsdirectoryw": 4949,
    "1b4": 4950,
    "\u25810x3f23": 4951,
    "7a6": 4952,
    "\u25810xbd": 4953,
    "\u25810x6ba": 4954,
    "\u2581getmodulebasenamew": 4955,
    "profil": 4956,
    "\u25810x4c33": 4957,
    "bf0": 4958,
    "proces": 4959,
    "\u25810x4175": 4960,
    "\u25810x535": 4961,
    "\u25810x3020302": 4962,
    "bd7": 4963,
    "valuea": 4964,
    "2b0": 4965,
    "\u25810x424e": 4966,
    "1d4": 4967,
    "fb0": 4968,
    "ht": 4969,
    "\u25810x8d90": 4970,
    "\u25810x7bc00000": 4971,
    "erify": 4972,
    "\u25810x4760": 4973,
    "\u2581verify": 4974,
    "\u25810x5266c": 4975,
    "\u25810x4c32d8": 4976,
    "\u25810x4c32f0": 4977,
    "\u25810xcccc": 4978,
    "368": 4979,
    "b5c": 4980,
    "da0": 4981,
    "fic": 4982,
    "\u25810x42ce08": 4983,
    "ad6": 4984,
    "lcid": 4985,
    "334": 4986,
    "97c": 4987,
    "3cc": 4988,
    "df8": 4989,
    "7675": 4990,
    "\u25810x40a6": 4991,
    "\u258103t": 4992,
    "\u25810x9810": 4993,
    "\u25810x44f": 4994,
    "\u25810x408c8d": 4995,
    "\u25810x408c8e": 4996,
    "\u25810x1211e38": 4997,
    "\u2581regcreate": 4998,
    "b20": 4999,
    "\u2581getcomputer": 5000,
    "9a6": 5001,
    "\u25810x41a9": 5002,
    "\u258120220303": 5003,
    "9e4": 5004,
    "\u25810x97a0": 5005,
    "\u25810x418970": 5006,
    "\u25810x1211cb8": 5007,
    "9fc": 5008,
    "\u25810x423d38": 5009,
    "\u2581getsystemdefault": 5010,
    "\u25810xffe9": 5011,
    "\u25810x508d0": 5012,
    "buf": 5013,
    "\u25810xff92": 5014,
    "\u25810x509a8": 5015,
    "\u25810x3f75e88": 5016,
    "\u2581lcmapstringa": 5017,
    "\u25810x99e0": 5018,
    "\u25810x43501a": 5019,
    "eab": 5020,
    "atoma": 5021,
    "\u25810x41cc54": 5022,
    "\u25810x120f8a6": 5023,
    "944": 5024,
    "fd4": 5025,
    "per": 5026,
    "7038": 5027,
    "11c": 5028,
    "75a": 5029,
    "e6c": 5030,
    "\u25810x40969": 5031,
    "\u25810x181b48": 5032,
    "\u25810x423818": 5033,
    "\u25810xfeedf000": 5034,
    "6b6": 5035,
    "935": 5036,
    "\u25810x7f5": 5037,
    "\u25810x8de0": 5038,
    "f05": 5039,
    "\u2581getfileattributesa": 5040,
    "adc": 5041,
    "ff4": 5042,
    "\u25810x42ec": 5043,
    "\u2581ro": 5044,
    "\u2581registerwindowmessagea": 5045,
    "\u25810x8cb0": 5046,
    "\u25810x4c9778": 5047,
    "\u2581regcreatekey": 5048,
    "\u25810x4040": 5049,
    "\u25810x7edc": 5050,
    "dlg": 5051,
    "\u25810x4012": 5052,
    "\u25810x563a20": 5053,
    "ee2": 5054,
    "006a": 5055,
    "\u25810x771a": 5056,
    "\u2581launch": 5057,
    "\u25810x1211ec0": 5058,
    "pip": 5059,
    "\u25810x7c90": 5060,
    "\u25810x181b98": 5061,
    "\u25810x412e": 5062,
    "\u25810x4356": 5063,
    "\u2581append": 5064,
    "\u25810x8490": 5065,
    "\u25810xffd8": 5066,
    "485": 5067,
    "663": 5068,
    "aec": 5069,
    "304": 5070,
    "fa6": 5071,
    "\u25810x71a1": 5072,
    "\u25810x419ce0": 5073,
    "\u25810x43501c": 5074,
    "\u25810x43501e": 5075,
    "\u25810x435020": 5076,
    "\u25810x435022": 5077,
    "\u25810x435028": 5078,
    "\u25810x43502a": 5079,
    "\u25810x43502c": 5080,
    "\u25810x43502e": 5081,
    "\u25810x435030": 5082,
    "765": 5083,
    "b78": 5084,
    "\u25810x7ecc": 5085,
    "\u25810x41d1e0": 5086,
    "\u25810x1211eac": 5087,
    "f71": 5088,
    "blead": 5089,
    "\u2581ismb": 5090,
    "\u2581internet": 5091,
    "\u25810x1211a44": 5092,
    "\u2581ismbblead": 5093,
    "00e": 5094,
    "647": 5095,
    "a32": 5096,
    "amet": 5097,
    "\u2581getcursor": 5098,
    "\u2581getdrivetypea": 5099,
    "f10": 5100,
    "f90": 5101,
    "ceff": 5102,
    "\u25810x40e9": 5103,
    "inmodule": 5104,
    "\u25810x2b4": 5105,
    "\u25810x4d0": 5106,
    "\u25810x40d9": 5107,
    "\u25810x7500": 5108,
    "\u25810xe8": 5109,
    "\u25810x44c250": 5110,
    "\u2581physicaldriv": 5111,
    "7c6": 5112,
    "486": 5113,
    "\u2581regenum": 5114,
    "\u25810x1210e70": 5115,
    "\u25810x1211d44": 5116,
    "a60": 5117,
    "d35": 5118,
    "ed0": 5119,
    "orn": 5120,
    "handler": 5121,
    "\u25810x7ec9": 5122,
    "\u25810x513d28": 5123,
    "\u25810x421": 5124,
    "6d8": 5125,
    "\u25810x46b388": 5126,
    "376": 5127,
    "40d": 5128,
    "a74": 5129,
    "fal": 5130,
    "\u25810x40e7": 5131,
    "\u25810x7ed1": 5132,
    "\u25810x40a5b0": 5133,
    "\u25810x40a5b8": 5134,
    "\u25810xfeedf0": 5135,
    "\u2581physicaldrive0": 5136,
    "6c4": 5137,
    "929": 5138,
    "a06": 5139,
    "\u2581mai": 5140,
    "\u2581zip": 5141,
    "\u25810x484": 5142,
    "\u25810x1211ddc": 5143,
    "\u2581doyouwantto": 5144,
    "mi": 5145,
    "aab": 5146,
    "false": 5147,
    "\u25810x452": 5148,
    "\u25810xfffffffe": 5149,
    "da8": 5150,
    "\u2581fre": 5151,
    "running": 5152,
    "\u25810x2d4d": 5153,
    "\u25810x40a5b4": 5154,
    "1f0": 5155,
    "265": 5156,
    "\u2581vf": 5157,
    "init": 5158,
    "\u25810x40a5ae": 5159,
    "\u25810x40a5b2": 5160,
    "\u25810x40a5b6": 5161,
    "\u25810x40a5ba": 5162,
    "\u25810xfeee009d": 5163,
    "3ad": 5164,
    "404": 5165,
    "fb8": 5166,
    "1110": 5167,
    "strue": 5168,
    "\u25810x431828": 5169,
    "allyour": 5170,
    "onexist": 5171,
    "zeroorn": 5172,
    "\u2581istrue": 5173,
    "\u2581isexist": 5174,
    "\u2581isfalse": 5175,
    "\u2581iszeroorn": 5176,
    "\u2581openanexplorer": 5177,
    "\u2581iszeroornonexist": 5178,
    "d80": 5179,
    "df5": 5180,
    "\u25810x120f": 5181,
    "\u25810x1210df": 5182,
    "350": 5183,
    "d85": 5184,
    "dcc": 5185,
    "fcc": 5186,
    "\u25810x636": 5187,
    "\u25810x6f6": 5188,
    "\u2581lstrcmpia": 5189,
    "\u2581freeenvironmentstringsa": 5190,
    "gn": 5191,
    "75e": 5192,
    "ea0": 5193,
    "tili": 5194,
    "\u25810x7dc4": 5195,
    "\u25810x7e30": 5196,
    "frominternet": 5197,
    "cod": 5198,
    "dd0": 5199,
    "\u25810x2d4d9": 5200,
    "\u2581sprintf": 5201,
    "af0": 5202,
    "\u25810x4220": 5203,
    "\u25810x9ab0": 5204,
    "\u25810x4111d0": 5205,
    "dd4": 5206,
    "006c": 5207,
    "\u2581mso97": 5208,
    "\u25810xffdc": 5209,
    "ax": 5210,
    "1eb": 5211,
    "\u25810x8e90": 5212,
    "128": 5213,
    "dc3": 5214,
    "image": 5215,
    "\u25810x490": 5216,
    "\u25810x46a1": 5217,
    "\u25810x7dc5": 5218,
    "\u25810x439458": 5219,
    "\u25810x1210e34": 5220,
    "\u25810x1211f14": 5221,
    "\u25810x40a2": 5222,
    "2cc": 5223,
    "fe0": 5224,
    "ongle": 5225,
    "ecadwork": 5226,
    "\u25810x181c88": 5227,
    "\u25810x76500000": 5228,
    "5ec": 5229,
    "\u2581cp": 5230,
    "\u25810x42f": 5231,
    "\u25810x4233": 5232,
    "\u25810x42a4": 5233,
    "\u25810x6f00": 5234,
    "\u25810x1211edc": 5235,
    "33c": 5236,
    "91c": 5237,
    "ba0": 5238,
    "\u258114": 5239,
    "\u25810xdc": 5240,
    "\u25810x181c60": 5241,
    "\u25810x4f5320": 5242,
    "ce9": 5243,
    "update": 5244,
    "f68": 5245,
    "20000": 5246,
    "\u25810xba": 5247,
    "\u25810x2840": 5248,
    "3b6": 5249,
    "\u25810x3f26": 5250,
    "\u25810x7dd0": 5251,
    "\u25810x7f80": 5252,
    "\u25810x1211c94": 5253,
    "\u25810x2840284": 5254,
    "resour": 5255,
    "\u25810x4aa0": 5256,
    "7978": 5257,
    "\u25810x3e6c": 5258,
    "\u25810x16000": 5259,
    "104": 5260,
    "bbc": 5261,
    "\u25810x3820": 5262,
    "\u25810x4126": 5263,
    "\u25810x8410": 5264,
    "ld": 5265,
    "\u2581qt5": 5266,
    "7b0": 5267,
    "b34": 5268,
    "ower": 5269,
    "\u25810x7fe": 5270,
    "185": 5271,
    "620": 5272,
    "\u25810x4b80": 5273,
    "\u25810x1211e4c": 5274,
    "\u25810x144": 5275,
    "9b0": 5276,
    "50c0": 5277,
    "regist": 5278,
    "\u25810x5188": 5279,
    "\u25810x7f7e": 5280,
    "\u25810x419cb0": 5281,
    "\u2581getstringtypea": 5282,
    "\u2581verifyversioninfow": 5283,
    "6e8": 5284,
    "e48": 5285,
    "\u25810x4ed": 5286,
    "1cb": 5287,
    "3a4": 5288,
    "ore": 5289,
    "reate": 5290,
    "\u25810xffea": 5291,
    "\u2581please": 5292,
    "\u25810x6d006c": 5293,
    "f35": 5294,
    "429": 5295,
    "f3c": 5296,
    "fa0": 5297,
    "\u2581qa": 5298,
    "\u258104": 5299,
    "\u25810x4195": 5300,
    "\u25810x6f006e": 5301,
    "\u25810x710070": 5302,
    "\u25810x770076": 5303,
    "\u25810x790078": 5304,
    "\u25810xfffff8": 5305,
    "322": 5306,
    "\u25810x3810": 5307,
    "\u25810x455480": 5308,
    "\u25810x690068": 5309,
    "\u25810x6b006a": 5310,
    "\u25810x730072": 5311,
    "\u25810x750074": 5312,
    "\u25810x7b007a": 5313,
    "\u25810x7d007c": 5314,
    "\u25810x7f007e": 5315,
    "205": 5316,
    "\u25810x53d": 5317,
    "\u25810xa050": 5318,
    "\u2581strcpy": 5319,
    "mt": 5320,
    "\u25810x2280": 5321,
    "7e6": 5322,
    "idto": 5323,
    "\u25810x44c": 5324,
    "\u25810x7dd9": 5325,
    "bed": 5326,
    "\u25810x443": 5327,
    "\u25810x491": 5328,
    "\u25810x3f75f7c": 5329,
    "pc": 5330,
    "bd4": 5331,
    "\u25810x40b7": 5332,
    "\u25810x420fe8": 5333,
    "au": 5334,
    "3db": 5335,
    "4bb8": 5336,
    "tive": 5337,
    "ocreate": 5338,
    "e28": 5339,
    "6d73": 5340,
    "valuew": 5341,
    "\u25810x455468": 5342,
    "ffcb": 5343,
    "\u2581getfull": 5344,
    "\u25810x41a9f0": 5345,
    "\u25810x4f6230": 5346,
    "fox": 5347,
    "7540": 5348,
    "\u25810x7ed4": 5349,
    "\u25810x7ed5": 5350,
    "\u25810x1211ec4": 5351,
    "icen": 5352,
    "\u25810x7ecd": 5353,
    "\u2581appendw": 5354,
    "\u2581me": 5355,
    "\u25810x409c2c": 5356,
    "\u25810x3010301": 5357,
    "695": 5358,
    "f2c": 5359,
    "\u25810x7ed8": 5360,
    "\u25810x7ed9": 5361,
    "9bc": 5362,
    "coll": 5363,
    "\u2581for": 5364,
    "\u25810x42ab": 5365,
    "\u25810x9028": 5366,
    "da9": 5367,
    "\u258134": 5368,
    "9920": 5369,
    "\u25810x4a8": 5370,
    "158": 5371,
    "161": 5372,
    "422": 5373,
    "6f1": 5374,
    "da80": 5375,
    "\u25810x3f2": 5376,
    "\u2581getexit": 5377,
    "1a4": 5378,
    "f44": 5379,
    "\u25810x180c": 5380,
    "\u25810x9030": 5381,
    "398": 5382,
    "\u25810x1210d90": 5383,
    "\u2581setenvironmentvariablew": 5384,
    "3f0": 5385,
    "7c0": 5386,
    "964": 5387,
    "fd8": 5388,
    "ort": 5389,
    "3cf0": 5390,
    "\u25810x4b8": 5391,
    "filespec": 5392,
    "\u25810x3f75f84": 5393,
    "756": 5394,
    "\u25810x4300": 5395,
    "\u2581removefilespec": 5396,
    "4140": 5397,
    "\u25810x3f75f8c": 5398,
    "\u2581application": 5399,
    "\u2581shgetfileinfow": 5400,
    "685": 5401,
    "9e5": 5402,
    "aa4": 5403,
    "17a8": 5404,
    "\u25810x4491": 5405,
    "\u25810x6c000": 5406,
    "\u2581qt5core": 5407,
    "6564": 5408,
    "\u25810x5658": 5409,
    "\u2581gettempfilename": 5410,
    "00b": 5411,
    "\u25810x7711": 5412,
    "\u2581removefilespecw": 5413,
    "90e": 5414,
    "aut": 5415,
    "\u25810x1211788": 5416,
    "df4": 5417,
    "7d7c": 5418,
    "741": 5419,
    "bb0": 5420,
    "\u25810x415c": 5421,
    "\u25810x120ee": 5422,
    "\u25810x4e300": 5423,
    "\u2581loadacceleratorsw": 5424,
    "502": 5425,
    "\u25810x593": 5426,
    "\u25810x40a92e": 5427,
    "\u25810x40a930": 5428,
    "\u25810x40a932": 5429,
    "\u25810x40a934": 5430,
    "\u25810x40a936": 5431,
    "\u25810x40a938": 5432,
    "\u25810x40a93a": 5433,
    "\u25810x40b888": 5434,
    "\u25810x1211e88": 5435,
    "processmemory": 5436,
    "\u2581mb": 5437,
    "ass2": 5438,
    "\u25810xde": 5439,
    "\u2581meip": 5440,
    "\u25810x42d": 5441,
    "\u25810x4229c1": 5442,
    "\u2581meipass2": 5443,
    "00d": 5444,
    "767574": 5445,
    "\u25810x4420": 5446,
    "\u25810x7b7a": 5447,
    "\u25810x77767574": 5448,
    "a85": 5449,
    "dd3": 5450,
    "edb": 5451,
    "\u25810x47d0": 5452,
    "\u2581appdata": 5453,
    "move": 5454,
    "\u25810x8330": 5455,
    "\u25810x410acd": 5456,
    "\u25810x410ace": 5457,
    "\u25810x41e208": 5458,
    "\u25810x7b7a7978": 5459,
    "f4e4": 5460,
    "712": 5461,
    "\u2581ab": 5462,
    "\u25810x1b5": 5463,
    "\u25810x7f6": 5464,
    "\u25810x7edd": 5465,
    "9c6": 5466,
    "\u25810x431": 5467,
    "bd6": 5468,
    "\u25810x4bcc": 5469,
    "\u25810xa950": 5470,
    "00000000": 5471,
    "\u25810x452868": 5472,
    "\u25810xfeee01b": 5473,
    "\u2581registerclipboardformata": 5474,
    "7d6": 5475,
    "ae2": 5476,
    "d72": 5477,
    "fig": 5478,
    "\u25810x417c10": 5479,
    "1d8": 5480,
    "931": 5481,
    "\u25810x429260": 5482,
    "1e2": 5483,
    "9da": 5484,
    "\u25810x42b4": 5485,
    "fed": 5486,
    "\u25810xa290": 5487,
    "eresource": 5488,
    "\u2581writeconsolew": 5489,
    "\u2581lo": 5490,
    "26160": 5491,
    "\u2581fast": 5492,
    "\u25810x160": 5493,
    "\u25810x4603": 5494,
    "\u25810xae20": 5495,
    "\u2581onexit": 5496,
    "\u25810x1211f94": 5497,
    "727170": 5498,
    "\u25810x4343": 5499,
    "\u25810x7dc9": 5500,
    "\u25810xa710": 5501,
    "\u25810x417be0": 5502,
    "\u25810x420a0f": 5503,
    "\u25810x420a10": 5504,
    "\u25810x63626160": 5505,
    "\u25810x73727170": 5506,
    "a18": 5507,
    "\u25810x3001": 5508,
    "\u25810x40f5": 5509,
    "\u25810x6766": 5510,
    "a28": 5511,
    "d06": 5512,
    "\u25810x3f29": 5513,
    "795": 5514,
    "\u25810x67666564": 5515,
    "7f8": 5516,
    "de5": 5517,
    "ebc": 5518,
    "\u25810x7fc": 5519,
    "\u25810x9cf0": 5520,
    "processto": 5521,
    "\u2581coinitialize": 5522,
    "\u2581this": 5523,
    "\u2581freeresource": 5524,
    "198": 5525,
    "24c": 5526,
    "2c0": 5527,
    "72c": 5528,
    "a6968": 5529,
    "\u25810x154": 5530,
    "\u25810x6700": 5531,
    "\u25810x9520": 5532,
    "\u2581lstrcmpw": 5533,
    "\u25810x1210bd7": 5534,
    "\u25810x6b6a6968": 5535,
    "\u25810x1211684": 5536,
    "e2c": 5537,
    "\u25810x12116c0": 5538,
    "138": 5539,
    "b4a4": 5540,
    "\u25810x4154": 5541,
    "\u25810x52669": 5542,
    "60000": 5543,
    "e6d6c": 5544,
    "\u25810x1733c4": 5545,
    "processtoken": 5546,
    "\u2581openprocesstoken": 5547,
    "545": 5548,
    "905": 5549,
    "\u25810x40a0": 5550,
    "\u25810x4548": 5551,
    "menuitem": 5552,
    "\u25810x6f6e6d6c": 5553,
    "times": 5554,
    "\u25810x2e7": 5555,
    "\u25810x562": 5556,
    "\u2581command": 5557,
    "\u25810x7f7e7d7c": 5558,
    "\u2581getconsolemode": 5559,
    "ph": 5560,
    "123": 5561,
    "a43": 5562,
    "f51": 5563,
    "f74": 5564,
    "\u25810x92e0": 5565,
    "\u25810x44f850": 5566,
    "\u2581charprevw": 5567,
    "\u25810x120fb": 5568,
    "\u25810x40a540": 5569,
    "\u25810x429920": 5570,
    "3de": 5571,
    "dfc": 5572,
    "\u25810xdb": 5573,
    "\u25810x7f9": 5574,
    "\u25810x5617a8": 5575,
    "88c": 5576,
    "bd8": 5577,
    "ups": 5578,
    "0064": 5579,
    "\u2581cannot": 5580,
    "\u25810x42168c": 5581,
    "\u25810x44f868": 5582,
    "\u25810x1211d2c": 5583,
    "\u25810x1211e64": 5584,
    "e98": 5585,
    "\u2581ts": 5586,
    "ache": 5587,
    "\u25810x42168b": 5588,
    "\u25810x430fec": 5589,
    "\u25810x44f8c8": 5590,
    "\u2581towlower": 5591,
    "9f8": 5592,
    "fdc": 5593,
    "\u25810x44f880": 5594,
    "\u25810x44f898": 5595,
    "\u25810x44f8b0": 5596,
    "\u25810x3f28": 5597,
    "\u25810x40a544": 5598,
    "\u25810x430db0": 5599,
    "\u25810x44f8f8": 5600,
    "\u25810x44f940": 5601,
    "\u25810x44f958": 5602,
    "\u25810x44f970": 5603,
    "\u25810x44f988": 5604,
    "\u25810x1211e90": 5605,
    "\u25810x1211f68": 5606,
    "122": 5607,
    "\u25810x416c": 5608,
    "\u25810x6100": 5609,
    "\u25810x40a53a": 5610,
    "\u25810x40a53c": 5611,
    "\u25810x40a53e": 5612,
    "\u25810x40a542": 5613,
    "7b6": 5614,
    "7c58": 5615,
    "\u25810x40a546": 5616,
    "\u25810x41e93e": 5617,
    "\u25810x41ebfa": 5618,
    "\u25810x41ebfb": 5619,
    "3f8": 5620,
    "\u2581cal": 5621,
    "\u2581stri": 5622,
    "\u25810x407b": 5623,
    "\u25810x7ddd": 5624,
    "e5c": 5625,
    "\u25810x6300": 5626,
    "364": 5627,
    "a98": 5628,
    "\u25810x700": 5629,
    "\u25810x47b1": 5630,
    "\u25810x1211bd0": 5631,
    "\u2581systemtim": 5632,
    "\u2581messageboxw": 5633,
    "ce5": 5634,
    "d00": 5635,
    "\u25810x630062": 5636,
    "\u25810x650064": 5637,
    "\u25810x670066": 5638,
    "\u25810x610060": 5639,
    "\u25810x7ee000": 5640,
    "7be8": 5641,
    "\u25810x7e50": 5642,
    "\u25810xa010": 5643,
    "\u25810x7f8002": 5644,
    "\u2581om": 5645,
    "\u2581qae": 5646,
    "\u25810x350": 5647,
    "\u25810x41e2": 5648,
    "\u25810x7dcc": 5649,
    "\u25810x7df9": 5650,
    "\u25810x7ee4": 5651,
    "\u25810x4093e4": 5652,
    "\u25810x44e4b8": 5653,
    "\u25810x714d98": 5654,
    "710": 5655,
    "7f4": 5656,
    "b7c": 5657,
    "f5c": 5658,
    "\u25810x40ad": 5659,
    "f95": 5660,
    "arta": 5661,
    "\u25810xffeb": 5662,
    "\u25810x77000": 5663,
    "\u25810x7f8010": 5664,
    "\u25810x115": 5665,
    "\u25810x458": 5666,
    "270": 5667,
    "b42": 5668,
    "\u25810x4235": 5669,
    "\u25810x42db": 5670,
    "\u25810xa020": 5671,
    "\u25810x40f660": 5672,
    "\u25810x4228e1": 5673,
    "\u25810xbb": 5674,
    "\u25810xf1": 5675,
    "\u25810x40df": 5676,
    "\u25810x42a6": 5677,
    "\u25810x7df8": 5678,
    "390": 5679,
    "912": 5680,
    "\u25810x4ab": 5681,
    "\u25810x7dcd": 5682,
    "1ae": 5683,
    "pipe": 5684,
    "\u25810x422980": 5685,
    "3d4": 5686,
    "bf4": 5687,
    "fb5": 5688,
    "secor": 5689,
    "\u25810xec": 5690,
    "\u25810x3f25": 5691,
    "\u25810x7dd4": 5692,
    "\u2581omsecor": 5693,
    "\u25810x423cf0": 5694,
    "\u25810x42fc38": 5695,
    "734": 5696,
    "f42": 5697,
    "\u25810x8340": 5698,
    "\u25810x42286e": 5699,
    "\u25810x42286f": 5700,
    "\u25810x4228e2": 5701,
    "\u25810x422963": 5702,
    "\u25810x422964": 5703,
    "\u25810x42297f": 5704,
    "\u25810x4229c2": 5705,
    "\u25810x4229fa": 5706,
    "\u25810x4229fb": 5707,
    "\u25810x422a0d": 5708,
    "\u25810x422a0e": 5709,
    "\u25810x42329e": 5710,
    "\u25810x42329f": 5711,
    "\u25810x4233fc": 5712,
    "\u25810x423cef": 5713,
    "ualfox": 5714,
    "\u25810x411c": 5715,
    "controlset": 5716,
    "\u2581currentcontrolset": 5717,
    "\u2581ntm": 5718,
    "reated": 5719,
    "\u25810x40a4": 5720,
    "\u2581ntmarta": 5721,
    "7d4": 5722,
    "d7c": 5723,
    "eac": 5724,
    "lay": 5725,
    "6d7363": 5726,
    "\u25810x6ce": 5727,
    "session": 5728,
    "\u25810x7dd1": 5729,
    "\u25810x7dd5": 5730,
    "\u25810x7dd8": 5731,
    "\u2581pleasec": 5732,
    "\u25810x1211e40": 5733,
    "\u25810xe06d7363": 5734,
    "00f": 5735,
    "1d5": 5736,
    "9d6": 5737,
    "ally": 5738,
    "created": 5739,
    "9ac": 5740,
    "\u2581ie": 5741,
    "\u2581437": 5742,
    "\u25810x59c": 5743,
    "\u25810x771c": 5744,
    "\u25810x7e51": 5745,
    "\u25810x429903": 5746,
    "\u25810x434388": 5747,
    "\u25810x435228": 5748,
    "\u25810x435240": 5749,
    "\u25810x4378b0": 5750,
    "9d0": 5751,
    "ad2": 5752,
    "already": 5753,
    "\u25810x7ddc": 5754,
    "\u25810x429902": 5755,
    "\u25810x42990c": 5756,
    "\u25810x42990d": 5757,
    "\u25810x429921": 5758,
    "\u2581movefilew": 5759,
    "b3c": 5760,
    "\u25810xb6": 5761,
    "\u25810x46a": 5762,
    "\u25810x42992a": 5763,
    "\u25810x42992b": 5764,
    "aveb": 5765,
    "\u25810x4014": 5766,
    "youreally": 5767,
    "666": 5768,
    "\u2581stem": 5769,
    "\u2581stem32": 5770,
    "\u25810x1211d50": 5771,
    "\u25810x7f1": 5772,
    "\u25810x4034": 5773,
    "\u2581winapp": 5774,
    "ea20": 5775,
    "\u2581gdiplus": 5776,
    "713": 5777,
    "910": 5778,
    "96e": 5779,
    "etime": 5780,
    "\u25810x4ac": 5781,
    "a68": 5782,
    "older": 5783,
    "\u25810xc4": 5784,
    "eexist": 5785,
    "\u25810x42fbf0": 5786,
    "\u2581fileexist": 5787,
    "2ec": 5788,
    "3e3d": 5789,
    "\u2581lmi": 5790,
    "\u25810x40ca": 5791,
    "\u2581calloc": 5792,
    "174": 5793,
    "568": 5794,
    "5f4": 5795,
    "\u2581vie": 5796,
    "network": 5797,
    "7a4": 5798,
    "\u2581setcurrentdirectoryw": 5799,
    "244": 5800,
    "\u258150": 5801,
    "onsolec": 5802,
    "\u25810x44e9": 5803,
    "\u25810x4c41": 5804,
    "\u25810x97b0": 5805,
    "\u2581youmust": 5806,
    "\u2581getconsolec": 5807,
    "235": 5808,
    "ert": 5809,
    "\u2581evie": 5810,
    "\u25810x4060": 5811,
    "\u25810x6940": 5812,
    "\u25810x7ee1": 5813,
    "\u25810x4238a8": 5814,
    "\u25810x4238d8": 5815,
    "\u25810x1210e6f": 5816,
    "\u25810x1210e73": 5817,
    "\u25810x1210e74": 5818,
    "\u25810x1210e77": 5819,
    "\u25810x1210e7b": 5820,
    "\u2581getuserdefaultlcid": 5821,
    "beb": 5822,
    "sand": 5823,
    "\u2581psc": 5824,
    "\u25810x3f21": 5825,
    "\u25810x4444": 5826,
    "\u25810x423df8": 5827,
    "\u25810x1210f66": 5828,
    "\u25810x1210f6a": 5829,
    "126": 5830,
    "962": 5831,
    "\u25817z6": 5832,
    "\u25817z72": 5833,
    "\u25810x6b4": 5834,
    "37e": 5835,
    "find": 5836,
    "param": 5837,
    "\u2581mail": 5838,
    "\u25810x7ce0": 5839,
    "\u2581unlock": 5840,
    "\u25810x6ba3c8": 5841,
    "35c": 5842,
    "b18": 5843,
    "bdc": 5844,
    "fae": 5845,
    "\u2581cli": 5846,
    "\u25810x7d0": 5847,
    "resourc": 5848,
    "3e1": 5849,
    "\u25810x131a": 5850,
    "\u25810x411555": 5851,
    "\u25810x411556": 5852,
    "\u25810x169bc9c": 5853,
    "1f4": 5854,
    "7ee": 5855,
    "bc4": 5856,
    "\u2581exp": 5857,
    "\u25810x103": 5858,
    "630": 5859,
    "b7e": 5860,
    "\u25810x57c": 5861,
    "\u25810x5b5": 5862,
    "\u25810x42c5a0": 5863,
    "\u25810x42c5b8": 5864,
    "\u25810x439440": 5865,
    "\u25810x1211180": 5866,
    "\u2581getconsolecp": 5867,
    "774": 5868,
    "688b": 5869,
    "\u25810x442": 5870,
    "\u25810x406c": 5871,
    "\u2581202203032": 5872,
    "641": 5873,
    "a30": 5874,
    "e94": 5875,
    "vert": 5876,
    "\u25810x42abc0": 5877,
    "1c2": 5878,
    "540": 5879,
    "1ef0": 5880,
    "2d0": 5881,
    "be0": 5882,
    "\u25810x8028": 5883,
    "\u25810x7c000": 5884,
    "\u2581getprivateprofilestringa": 5885,
    "\u25810x43a": 5886,
    "\u25810x99d0": 5887,
    "\u25810x423dc8": 5888,
    "\u25810x4210": 5889,
    "66d": 5890,
    "\u2581tsl": 5891,
    "\u25810x40935c": 5892,
    "\u25810x4093ec": 5893,
    "\u25810x411218": 5894,
    "\u2581myarg1myarg2": 5895,
    "sd": 5896,
    "e42": 5897,
    "\u25810xffd5": 5898,
    "aad": 5899,
    "f7a8": 5900,
    "play": 5901,
    "\u25810x412f": 5902,
    "\u25810xffc0": 5903,
    "\u25810x3b7fb": 5904,
    "1e0": 5905,
    "bfc": 5906,
    "\u25810x572": 5907,
    "\u25810x42c570": 5908,
    "systemtime": 5909,
    "\u25810x1211e98": 5910,
    "e4f": 5911,
    "fde": 5912,
    "\u2581dat": 5913,
    "\u25810x45d1": 5914,
    "\u2581session": 5915,
    "5bc": 5916,
    "9cc": 5917,
    "a31": 5918,
    "\u2581884": 5919,
    "option": 5920,
    "\u25810x1e0": 5921,
    "\u2581registerclipboardformatw": 5922,
    "f7b": 5923,
    "\u25810x4966": 5924,
    "\u25810x486d18": 5925,
    "\u25810x131aac0": 5926,
    "1b1": 5927,
    "646": 5928,
    "trol": 5929,
    "\u25810x2b2": 5930,
    "\u25810x515": 5931,
    "\u25810x1010": 5932,
    "\u25810x1210f64": 5933,
    "e68": 5934,
    "fb4": 5935,
    "1918": 5936,
    "drl66": 5937,
    "\u25810x41688a": 5938,
    "\u25810x41688b": 5939,
    "\u2581tsldrl66": 5940,
    "315": 5941,
    "325": 5942,
    "ce6": 5943,
    "4000": 5944,
    "103": 5945,
    "421": 5946,
    "tiv": 5947,
    "\u25810x4066": 5948,
    "\u2581afx": 5949,
    "\u25810x40c7": 5950,
    "\u2581createsemaphorea": 5951,
    "5c6": 5952,
    "769": 5953,
    "\u25810x5040": 5954,
    "\u25810x7e20": 5955,
    "245": 5956,
    "9e8": 5957,
    "pop": 5958,
    "\u25810xff87": 5959,
    "ry": 5960,
    "772": 5961,
    "\u2581oem": 5962,
    "930": 5963,
    "b82": 5964,
    "e20": 5965,
    "\u25810x824": 5966,
    "\u25810x4012db": 5967,
    "\u25810x42cd78": 5968,
    "\u25810x42ce38": 5969,
    "ce1": 5970,
    "3cf8": 5971,
    "tochar": 5972,
    "\u25810x7ee5": 5973,
    "\u25810x7ee8": 5974,
    "\u25810x120ce": 5975,
    "\u2581oemtochar": 5976,
    "b64": 5977,
    "\u25810x4eb": 5978,
    "\u25810x482854": 5979,
    "\u25810x482870": 5980,
    "48c": 5981,
    "\u2581fput": 5982,
    "363": 5983,
    "\u25810x9110": 5984,
    "\u25810xfeee009e": 5985,
    "3b0": 5986,
    "751": 5987,
    "eb0": 5988,
    "dfe8": 5989,
    "\u25810x4e39": 5990,
    "550": 5991,
    "d1ff": 5992,
    "1ac": 5993,
    "5ac": 5994,
    "\u25810xb1": 5995,
    "\u25810x10b": 5996,
    "\u25810x238": 5997,
    "installed": 5998,
    "\u25810x4bc298": 5999,
    "77b": 6000,
    "\u25810x7a40": 6001,
    "\u25810x42a190": 6002,
    "\u25810x232": 6003,
    "\u25810x604": 6004,
    "\u25810x10005c": 6005,
    "\u25810x2825ef8": 6006,
    "36b": 6007,
    "this": 6008,
    "formatw": 6009,
    "510": 6010,
    "77f": 6011,
    "\u25810x41f6": 6012,
    "\u25810x4529": 6013,
    "\u25810x77000723": 6014,
    "kg": 6015,
    "dc2": 6016,
    "\u25810x40b5": 6017,
    "6c00": 6018,
    "\u2581cqa": 6019,
    "\u25810xd4": 6020,
    "\u2581scqa": 6021,
    "\u25810x474": 6022,
    "\u2581pscqa": 6023,
    "\u25810x4522": 6024,
    "\u25810x40300": 6025,
    "\u25810x1211e8c": 6026,
    "bec": 6027,
    "\u2581sr": 6028,
    "\u25810x698": 6029,
    "384": 6030,
    "7df": 6031,
    "a24": 6032,
    "f92": 6033,
    "aler": 6034,
    "\u25810x409e": 6035,
    "\u25810x100fdd": 6036,
    "\u25810x4bc328": 6037,
    "\u25810x4bc358": 6038,
    "\u25810x12119a0": 6039,
    "uld": 6040,
    "95000": 6041,
    "\u25810x7eec": 6042,
    "1a6": 6043,
    "7a5": 6044,
    "dio": 6045,
    "fef": 6046,
    "ablet": 6047,
    "\u2581module": 6048,
    "imetofiletime": 6049,
    "90b": 6050,
    "9a0": 6051,
    "e7b": 6052,
    "0036": 6053,
    "vice": 6054,
    "391": 6055,
    "978": 6056,
    "\u25810x4770": 6057,
    "\u25810xffee": 6058,
    "\u2581oemtochara": 6059,
    "3130": 6060,
    "\u25810x46b5fc": 6061,
    "\u25810xfeee00a0": 6062,
    "115": 6063,
    "0012": 6064,
    "\u2581lmir": 6065,
    "\u25810x6e6": 6066,
    "\u25810x5f3b": 6067,
    "\u25810xffda": 6068,
    "\u25810x442806": 6069,
    "762": 6070,
    "a83": 6071,
    "\u25810x409364": 6072,
    "\u25810x4a40": 6073,
    "\u25810x442808": 6074,
    "d14": 6075,
    "e0b": 6076,
    "\u258108": 6077,
    "f1a0": 6078,
    "\u258104t": 6079,
    "\u25810x44280a": 6080,
    "\u25810x44280c": 6081,
    "\u25810x44280e": 6082,
    "\u25810x442810": 6083,
    "\u25810x442812": 6084,
    "\u25810x442814": 6085,
    "\u25810x442816": 6086,
    "\u25810x442818": 6087,
    "\u25810x44281a": 6088,
    "\u25810x44281c": 6089,
    "\u25810x44281e": 6090,
    "\u25810x1211fe4": 6091,
    "\u2581filetimetosystemtime": 6092,
    "312": 6093,
    "\u25810x42b": 6094,
    "\u25810x43f": 6095,
    "\u2581dllonexit": 6096,
    "230": 6097,
    "fe5": 6098,
    "\u25810x4a80": 6099,
    "\u25810x454bb8": 6100,
    "\u25810x1211d14": 6101,
    "da4": 6102,
    "\u2581stdio": 6103,
    "152": 6104,
    "\u25810x1810": 6105,
    "\u25810x7730": 6106,
    "e50": 6107,
    "\u2581tol": 6108,
    "\u2581tolower": 6109,
    "\u25810x412565": 6110,
    "b80": 6111,
    "a4c4": 6112,
    "\u2581b2ac": 6113,
    "l6660d": 6114,
    "\u25810x44e": 6115,
    "\u25810x42b7": 6116,
    "\u25810x412566": 6117,
    "335": 6118,
    "\u25810x88c0": 6119,
    "\u2581b2acb2": 6120,
    "\u2581wtsapi32": 6121,
    "\u2581userprofil": 6122,
    "gex": 6123,
    "7d571f": 6124,
    "\u25810x28fd0": 6125,
    "\u25810x40a3f": 6126,
    "\u25810xd27d571f": 6127,
    "\u2581ur": 6128,
    "\u25810xffdb": 6129,
    "\u25810x42dfe8": 6130,
    "\u25810x4528b0": 6131,
    "\u25810x483cf8": 6132,
    "\u25810x1010101": 6133,
    "\u2581regqueryvalueexa": 6134,
    "692": 6135,
    "004c": 6136,
    "ible": 6137,
    "\u2581files": 6138,
    "\u25810x4178": 6139,
    "\u25810x4342": 6140,
    "\u2581module32": 6141,
    "drl6660drl6660drl6660drl6660drl6660": 6142,
    "66a": 6143,
    "e55": 6144,
    "\u25810x4155": 6145,
    "\u25810x4ec0": 6146,
    "\u25810x437116": 6147,
    "\u25810x437117": 6148,
    "\u25810x120fd64": 6149,
    "\u25810x1211e00": 6150,
    "735": 6151,
    "7dd": 6152,
    "b45": 6153,
    "\u25810x4153": 6154,
    "\u25810xa030": 6155,
    "75c": 6156,
    "d26": 6157,
    "dd5": 6158,
    "f91": 6159,
    "scroll": 6160,
    "\u25810x4061": 6161,
    "\u25810x41ab": 6162,
    "\u25810x40000": 6163,
    "30c": 6164,
    "99e": 6165,
    "\u25810x405c": 6166,
    "\u25810x43b6e9": 6167,
    "7c7": 6168,
    "5410": 6169,
    "ange": 6170,
    "\u25810x4043": 6171,
    "\u25810x43b6f3": 6172,
    "\u2581msvcr100": 6173,
    "dad": 6174,
    "f9e": 6175,
    "okup": 6176,
    "\u25810x5258": 6177,
    "\u25810x7ee9": 6178,
    "40b": 6179,
    "541": 6180,
    "586": 6181,
    "\u25810x40c4": 6182,
    "fc5": 6183,
    "\u2581all": 6184,
    "\u25810x41db": 6185,
    "\u2581lookup": 6186,
    "\u25810x4ee0": 6187,
    "\u2581localrealloc": 6188,
    "fb6": 6189,
    "indi": 6190,
    "\u25810xb7": 6191,
    "\u25810x49a": 6192,
    "\u25810x7d51": 6193,
    "\u25810x2000000": 6194,
    "743": 6195,
    "3bd0": 6196,
    "llow": 6197,
    "\u25810x4f60": 6198,
    "\u25810x94c0": 6199,
    "396": 6200,
    "block": 6201,
    "driver": 6202,
    "\u25810x12117c8": 6203,
    "\u25810x1211d60": 6204,
    "\u25810x6ce0000": 6205,
    "\u2581findwindoww": 6206,
    "a0e": 6207,
    "c01": 6208,
    "69c0": 6209,
    "\u25810x118": 6210,
    "\u25810x10000000": 6211,
    "aaaaaaaaaaaaaaaa": 6212,
    "f47": 6213,
    "xfr": 6214,
    "\u25810xef": 6215,
    "\u2581updat": 6216,
    "emaphore": 6217,
    "\u25810x1211a4c": 6218,
    "fail": 6219,
    "sion": 6220,
    "\u2581task": 6221,
    "\u25810x1211e58": 6222,
    "etofiletime": 6223,
    "\u25810x54500000": 6224,
    "\u2581systemtimetofiletime": 6225,
    "ab6": 6226,
    "\u25810xfe": 6227,
    "\u25810x2f2": 6228,
    "ataddress": 6229,
    "\u25810x1211b38": 6230,
    "lot": 6231,
    "\u25810x1211f58": 6232,
    "\u2581accessviolationataddress": 6233,
    "wc": 6234,
    "b25": 6235,
    "\u25810x4070": 6236,
    "\u25810x4156": 6237,
    "\u2581fastfail": 6238,
    "db4": 6239,
    "\u25810x770c": 6240,
    "\u25810x120fb48": 6241,
    "771": 6242,
    "a34": 6243,
    "our": 6244,
    "4444": 6245,
    "5655": 6246,
    "\u25810x53c": 6247,
    "\u25810x41b1": 6248,
    "\u25810x41d0": 6249,
    "\u25810x4c40": 6250,
    "software": 6251,
    "\u25810x41e1c0": 6252,
    "\u25810xd3da80": 6253,
    "3e5": 6254,
    "a7b": 6255,
    "e06": 6256,
    "\u25810x567": 6257,
    "\u25810x4176": 6258,
    "\u25810x491994": 6259,
    "\u2581riched20": 6260,
    "9fe": 6261,
    "desk": 6262,
    "ffd1ff": 6263,
    "\u25810x4048": 6264,
    "\u25810x1211878": 6265,
    "18a": 6266,
    "283": 6267,
    "294": 6268,
    "77e": 6269,
    "aa6": 6270,
    "ddc0": 6271,
    "\u25810xe4": 6272,
    "\u25810x510": 6273,
    "\u25810x40b9": 6274,
    "\u25810x8e60": 6275,
    "a9e": 6276,
    "b90": 6277,
    "b9b": 6278,
    "ontrol": 6279,
    "\u25810x413": 6280,
    "96d": 6281,
    "b93": 6282,
    "2838": 6283,
    "\u25810x4780": 6284,
    "\u25810x1211850": 6285,
    "dos": 6286,
    "medi": 6287,
    "entin": 6288,
    "9d1": 6289,
    "9ec": 6290,
    "\u25810x4fc2c8": 6291,
    "201": 6292,
    "enh": 6293,
    "place": 6294,
    "\u25810x423a": 6295,
    "\u25810xa980": 6296,
    "\u25810x41de00": 6297,
    "localfiletime": 6298,
    "\u2581filetimetolocalfiletime": 6299,
    "9ce": 6300,
    "e31": 6301,
    "f3e": 6302,
    "\u25810x41bc": 6303,
    "\u25810x4033e6": 6304,
    "\u25810x4093a5": 6305,
    "\u25810x4093a6": 6306,
    "\u25810x4093a7": 6307,
    "\u25810x4093a8": 6308,
    "\u25810x4093a9": 6309,
    "\u25810x4093aa": 6310,
    "\u25810x4093ab": 6311,
    "\u25810x41e190": 6312,
    "\u25810xfeee009f": 6313,
    "xf": 6314,
    "releas": 6315,
    "\u25810x3b3": 6316,
    "\u25810x1814": 6317,
    "\u25810x4521": 6318,
    "194": 6319,
    "ba8": 6320,
    "dca": 6321,
    "det": 6322,
    "lack": 6323,
    "ontext": 6324,
    "\u25810x40015f": 6325,
    "initializeex": 6326,
    "\u2581coinitializeex": 6327,
    "165": 6328,
    "7f9": 6329,
    "\u25810xf4": 6330,
    "\u25810xe9a": 6331,
    "\u25810x1104": 6332,
    "pdf": 6333,
    "othe": 6334,
    "\u2581ftp": 6335,
    "\u25810xb2": 6336,
    "\u25810x5ab": 6337,
    "306": 6338,
    "5c5": 6339,
    "\u25810x1f1": 6340,
    "\u25810x4ef": 6341,
    "\u25810x1211fb0": 6342,
    "\u2581formatmessagea": 6343,
    "bc6": 6344,
    "1514": 6345,
    "\u25810x461548": 6346,
    "f24": 6347,
    "andar": 6348,
    "latsb": 6349,
    "tinue": 6350,
    "\u25810x4b0": 6351,
    "\u25810x4108": 6352,
    "\u2581taskbar": 6353,
    "\u25810x1211d3c": 6354,
    "\u2581directory": 6355,
    "yourcomputer": 6356,
    "380": 6357,
    "rey": 6358,
    "days": 6359,
    "main": 6360,
    "\u2581ext": 6361,
    "eyour": 6362,
    "haveb": 6363,
    "\u2581bord": 6364,
    "dealer": 6365,
    "mediat": 6366,
    "\u25811days": 6367,
    "ontinue": 6368,
    "\u25810x40b0": 6369,
    "\u25810x5000": 6370,
    "catalogs": 6371,
    "allcadwork": 6372,
    "\u2581doyoureally": 6373,
    "\u2581intermediat": 6374,
    "\u2581getcursorpos": 6375,
    "\u2581getcomputernamea": 6376,
    "28c": 6377,
    "enter": 6378,
    "\u25810x532": 6379,
    "\u25810x2439": 6380,
    "34b": 6381,
    "76c": 6382,
    "win": 6383,
    "a5958": 6384,
    "ultip": 6385,
    "\u25810x1824": 6386,
    "\u25810x40e4": 6387,
    "\u25810x45d0": 6388,
    "\u25810x9230": 6389,
    "\u25810xf000": 6390,
    "formultip": 6391,
    "2625": 6392,
    "fileex": 6393,
    "tility": 6394,
    "\u25810x565848": 6395,
    "formultipleob": 6396,
    "170": 6397,
    "696": 6398,
    "990": 6399,
    "cons": 6400,
    "instan": 6401,
    "\u25810x4218": 6402,
    "\u25810x80000": 6403,
    "\u2581taskbarcreated": 6404,
    "764": 6405,
    "f64": 6406,
    "dfdc": 6407,
    "\u2581sig": 6408,
    "\u25810xe6": 6409,
    "client": 6410,
    "\u25810x7eed": 6411,
    "\u25810xff50": 6412,
    "\u25810x12000": 6413,
    "\u25810x42a408": 6414,
    "186": 6415,
    "3ef0": 6416,
    "88a8": 6417,
    "\u25810x40b840": 6418,
    "\u25810x697070": 6419,
    "546": 6420,
    "726": 6421,
    "3534": 6422,
    "fication": 6423,
    "gs": 6424,
    "3dc": 6425,
    "ede": 6426,
    "\u2581from": 6427,
    "a00000": 6428,
    "\u25810x1211984": 6429,
    "285": 6430,
    "2d8": 6431,
    "786": 6432,
    "\u25810x1211f08": 6433,
    "\u2581fileexistsw": 6434,
    "7f2": 6435,
    "a65": 6436,
    "e14": 6437,
    "keya": 6438,
    "e5d5c": 6439,
    "\u25810x1002": 6440,
    "\u25810x7e8c": 6441,
    "\u25810x4540e0": 6442,
    "\u25810x1211834": 6443,
    "\u25810x5b5a5958": 6444,
    "\u25810x5f5e5d5c": 6445,
    "d20": 6446,
    "\u25810x7a4": 6447,
    "\u25810x42a403": 6448,
    "\u25810x42a404": 6449,
    "\u25810x42a405": 6450,
    "\u25810x42a406": 6451,
    "\u25810x42a407": 6452,
    "\u25810x42a409": 6453,
    "\u25810x42a40a": 6454,
    "\u25810x42a40b": 6455,
    "\u25810x42a40c": 6456,
    "\u25810x42a40d": 6457,
    "\u25810x42a40e": 6458,
    "\u25810x42a40f": 6459,
    "\u25810x1211ea8": 6460,
    "\u2581comparestringa": 6461,
    "225": 6462,
    "3f4": 6463,
    "af8": 6464,
    "\u25810x447": 6465,
    "\u2581class": 6466,
    "\u25810x46c4": 6467,
    "\u25810x1211f60": 6468,
    "nd": 6469,
    "bf8": 6470,
    "e70": 6471,
    "\u25810xe1": 6472,
    "\u25810x100098": 6473,
    "\u25810x416b50": 6474,
    "\u2581regsetvalueexa": 6475,
    "\u25810x8e50": 6476,
    "licences": 6477,
    "b91": 6478,
    "001a": 6479,
    "reen": 6480,
    "\u25810x4dfb": 6481,
    "\u2581getthreadpriority": 6482,
    "\u25810x434c": 6483,
    "\u2581if": 6484,
    "\u25810x457c": 6485,
    "\u2581registerservicectrlhandler": 6486,
    "e90": 6487,
    "3a08": 6488,
    "sessionid": 6489,
    "\u25810x4153a0": 6490,
    "\u2581getwindowdc": 6491,
    "582": 6492,
    "7eb": 6493,
    "9640": 6494,
    "\u2581device": 6495,
    "\u25810x419638": 6496,
    "\u25810x714d68": 6497,
    "\u25810x1211de8": 6498,
    "\u25810x5265c50": 6499,
    "632": 6500,
    "760": 6501,
    "f65": 6502,
    "\u25810xe2": 6503,
    "\u25810xfd": 6504,
    "\u25810x798": 6505,
    "\u2581signal": 6506,
    "bb4": 6507,
    "\u25810x4139": 6508,
    "\u25810x7eac": 6509,
    "\u25810x44ea20": 6510,
    "vb": 6511,
    "ftime": 6512,
    "\u25810x181": 6513,
    "\u25810x40c8": 6514,
    "\u25810x3820382": 6515,
    "37c": 6516,
    "1740": 6517,
    "imer": 6518,
    "\u25810x1818": 6519,
    "\u25810x4051": 6520,
    "\u25810x4445": 6521,
    "\u25810x9070": 6522,
    "\u25810x9170": 6523,
    "visualfox": 6524,
    "\u25810x2d4ddc0": 6525,
    "2f5": 6526,
    "356": 6527,
    "eb4": 6528,
    "\u25810x1211a00": 6529,
    "\u25810x3810381": 6530,
    "\u2581regqueryvalueexw": 6531,
    "20c0": 6532,
    "\u2581vfp": 6533,
    "orrect": 6534,
    "\u25810x4b4a4": 6535,
    "visualfoxpro": 6536,
    "64000": 6537,
    "\u25810x698b8c": 6538,
    "670": 6539,
    "97b": 6540,
    "e60": 6541,
    "ails": 6542,
    "\u25810x150": 6543,
    "f4e4d4c": 6544,
    "\u25810x4d80": 6545,
    "\u25810x4c50c0": 6546,
    "\u25810x1210f8c": 6547,
    "\u25810x4b4a4948": 6548,
    "\u25810x4f4e4d4c": 6549,
    "994": 6550,
    "a2c": 6551,
    "d9b": 6552,
    "3f00": 6553,
    "\u25810xb5": 6554,
    "565554": 6555,
    "\u25810x3332": 6556,
    "\u25810x51af8": 6557,
    "\u25810x181bc0": 6558,
    "\u25810x57565554": 6559,
    "752": 6560,
    "f96": 6561,
    "xfrm": 6562,
    "\u2581unget": 6563,
    "\u25810x51af1": 6564,
    "\u25810x562838": 6565,
    "\u25810x563888": 6566,
    "\u25810x563a08": 6567,
    "\u25810x569b30": 6568,
    "uninitialize": 6569,
    "1b5": 6570,
    "95c": 6571,
    "9ae": 6572,
    "a96": 6573,
    "red": 6574,
    "75000": 6575,
    "\u25810x184c": 6576,
    "\u25810x412b": 6577,
    "\u25810x2280228": 6578,
    "va": 6579,
    "d34": 6580,
    "d45": 6581,
    "ea2": 6582,
    "row": 6583,
    "656c": 6584,
    "64544": 6585,
    "e1d1c": 6586,
    "named": 6587,
    "3e3d3c": 6588,
    "\u25810x4379": 6589,
    "\u25810x120f9": 6590,
    "\u25810x120fe": 6591,
    "\u25810x3f3e3d3c": 6592,
    "\u25810x43424140": 6593,
    "\u25810x47464544": 6594,
    "\u2581writeprocessmemory": 6595,
    "b24": 6596,
    "b47c": 6597,
    "\u25810x5b2": 6598,
    "\u25810x1848": 6599,
    "\u25810x3736": 6600,
    "\u25810x8a41": 6601,
    "\u25810x2f2e2": 6602,
    "lientrect": 6603,
    "\u2581getclientrect": 6604,
    "a71": 6605,
    "d43": 6606,
    "afcdff": 6607,
    "7161514": 6608,
    "\u25810xfff1": 6609,
    "afcdffceff": 6610,
    "\u25810x17161514": 6611,
    "\u25810x37363534": 6612,
    "\u2581b2acb2afcdffceff": 6613,
    "2fc": 6614,
    "48d": 6615,
    "9a4": 6616,
    "d55": 6617,
    "22120": 6618,
    "a2928": 6619,
    "a3938": 6620,
    "1a1918": 6621,
    "\u25810x1828": 6622,
    "\u25810x1838": 6623,
    "\u25810x1840": 6624,
    "\u25810x573c": 6625,
    "\u25810x8e40": 6626,
    "writeptr": 6627,
    "\u25810x40e500": 6628,
    "\u25810x1b1a1918": 6629,
    "\u25810x1f1e1d1c": 6630,
    "\u25810x23222120": 6631,
    "\u25810x2f2e2d2c": 6632,
    "\u25810x33323130": 6633,
    "\u25810x3b3a3938": 6634,
    "\u25810xfeee00a1": 6635,
    "installation": 6636,
    "\u2581isbadwriteptr": 6637,
    "916": 6638,
    "ac5": 6639,
    "bf6": 6640,
    "d1a": 6641,
    "e38": 6642,
    "etw": 6643,
    "\u2581xz": 6644,
    "entr": 6645,
    "mple": 6646,
    "91000": 6647,
    "\u25810xda": 6648,
    "262524": 6649,
    "\u25810x1820": 6650,
    "\u25810x1830": 6651,
    "\u25810x4820": 6652,
    "\u25810x27262524": 6653,
    "\u25810x2b2a2928": 6654,
    "7e3": 6655,
    "ioc": 6656,
    "b880": 6657,
    "b8a8": 6658,
    "\u2581cpp": 6659,
    "25150": 6660,
    "\u25810xabc0": 6661,
    "\u25810x53525150": 6662,
    "\u25810xfeee00a2": 6663,
    "506": 6664,
    "gcc": 6665,
    "\u25810xed": 6666,
    "\u25810xba8": 6667,
    "\u25810x183c": 6668,
    "\u2581libgcc": 6669,
    "\u25810x42513f": 6670,
    "\u25810x425140": 6671,
    "\u25810x4285c0": 6672,
    "\u2581charlower": 6673,
    "\u2581cau": 6674,
    "gistry": 6675,
    "\u25810x240": 6676,
    "\u25810x1844": 6677,
    "\u25810x4100": 6678,
    "\u2581caution": 6679,
    "debughook": 6680,
    "\u2581cocreate": 6681,
    "\u2581cppdebughook": 6682,
    "111": 6683,
    "146": 6684,
    "b6c": 6685,
    "\u2581ff": 6686,
    "\u25810x10e": 6687,
    "3d6": 6688,
    "922": 6689,
    "cho": 6690,
    "wit": 6691,
    "upper": 6692,
    "\u25810x1fe": 6693,
    "\u25810x7fa": 6694,
    "\u25810x182c": 6695,
    "\u25810x120e6": 6696,
    "745": 6697,
    "7ff": 6698,
    "dfe": 6699,
    "\u25810xd6": 6700,
    "\u2581date": 6701,
    "\u25810x448ad0": 6702,
    "19b": 6703,
    "a12": 6704,
    "7a00": 6705,
    "output": 6706,
    "connect": 6707,
    "\u25810x4105": 6708,
    "\u2581memmove": 6709,
    "\u25810x1211ebc": 6710,
    "fc1": 6711,
    "14c8": 6712,
    "hell": 6713,
    "7d000": 6714,
    "\u25810xa26": 6715,
    "\u25810x1834": 6716,
    "\u25810x1858": 6717,
    "\u25810x1878": 6718,
    "\u25810x1211ca4": 6719,
    "\u2581movefilea": 6720,
    "\u2581writeprivateprofile": 6721,
    "d24": 6722,
    "e3a": 6723,
    "f02": 6724,
    "\u25810x1854": 6725,
    "\u25810x4c78": 6726,
    "\u25810x90c0": 6727,
    "\u25810x1211708": 6728,
    "\u2581getthreadtimes": 6729,
    "6e0": 6730,
    "a73": 6731,
    "d310": 6732,
    "\u25810x112": 6733,
    "\u25810x43c": 6734,
    "\u25810x185c": 6735,
    "\u25810x1868": 6736,
    "\u2581202203030": 6737,
    "\u2581outputdebugstringw": 6738,
    "796": 6739,
    "a94": 6740,
    "b05": 6741,
    "\u2581x0": 6742,
    "bea8": 6743,
    "\u25810x366": 6744,
    "\u25810x53e0": 6745,
    "\u25810x4208e0": 6746,
    "forcadwork": 6747,
    "d15": 6748,
    "roniz": 6749,
    "\u25810x9c8": 6750,
    "\u25810x1850": 6751,
    "\u25810x4609": 6752,
    "\u25810x40a3d1": 6753,
    "\u25810x40a3d2": 6754,
    "\u25810x40a3d3": 6755,
    "fdb": 6756,
    "\u25810xc5": 6757,
    "\u25810x1312": 6758,
    "\u25810x46b430": 6759,
    "\u25810x1211dd8": 6760,
    "\u25810x2050000": 6761,
    "\u2581synchroniz": 6762,
    "7f6": 6763,
    "\u25810xd1": 6764,
    "\u25810x436": 6765,
    "\u25810x1874": 6766,
    "\u25810x187c": 6767,
    "\u25810x44d5": 6768,
    "\u25810x4720": 6769,
    "\u25810x42c070": 6770,
    "\u25810x47ee08": 6771,
    "5678": 6772,
    "\u25810x186c": 6773,
    "\u25810x1211fb4": 6774,
    "\u25810xfeee00a3": 6775,
    "\u2581regopenkeya": 6776,
    "te": 6777,
    "2c6": 6778,
    "79000": 6779,
    "ecode": 6780,
    "\u25810x1211a14": 6781,
    "tokeninformation": 6782,
    "f82": 6783,
    "anden": 6784,
    "\u25810x132": 6785,
    "\u25810x1211eb4": 6786,
    "\u2581charpreva": 6787,
    "etween": 6788,
    "\u25810xfeee00a4": 6789,
    "\u25810xfeee00a5": 6790,
    "501": 6791,
    "9a5": 6792,
    "d46": 6793,
    "e1c": 6794,
    "e85": 6795,
    "gen": 6796,
    "\u25810x1864": 6797,
    "\u25810x1870": 6798,
    "\u25810x4740": 6799,
    "\u25810x8850": 6800,
    "\u25810x593748": 6801,
    "25c": 6802,
    "f34": 6803,
    "cache": 6804,
    "\u25810xdd": 6805,
    "\u25810x288": 6806,
    "\u25810x4f00": 6807,
    "\u2581expanden": 6808,
    "\u2581cocreateinstan": 6809,
    "b38": 6810,
    "\u25810xebad": 6811,
    "\u2581ntquery": 6812,
    "\u2581setscroll": 6813,
    "\u2581shgetfileinfoa": 6814,
    "a03": 6815,
    "f76": 6816,
    "f084": 6817,
    "\u25810x483d": 6818,
    "\u25810x8640": 6819,
    "\u25810x41d210": 6820,
    "\u25810x1211b58": 6821,
    "\u25810x1211ba4": 6822,
    "\u2581defwindowprocw": 6823,
    "\u2581sldrl6660drl6660drl6660drl6660drl6660drl6660drl6660drl6660": 6824,
    "0032": 6825,
    "\u2581arg": 6826,
    "dcode": 6827,
    "\u25810x4f0": 6828,
    "c7ffd1ff": 6829,
    "\u2581service": 6830,
    "c7ffd1ffca": 6831,
    "\u25810x12117b0": 6832,
    "\u2581waitformultipleob": 6833,
    "sh": 6834,
    "3a1": 6835,
    "f7c": 6836,
    "ddf8": 6837,
    "\u2581line": 6838,
    "\u2581vfp6": 6839,
    "ffcbff": 6840,
    "\u2581strcpyw": 6841,
    "\u25810xfeee00a6": 6842,
    "c7ffd1ffcaffcbff": 6843,
    "\u2581b2acb2afcdffceffc7ffd1ffcaffcbff": 6844,
    "763": 6845,
    "d6b": 6846,
    "\u2581wh": 6847,
    "35000": 6848,
    "frame": 6849,
    "author": 6850,
    "\u25810x5718": 6851,
    "\u2581msvcr71": 6852,
    "\u25810x1211568": 6853,
    "ece": 6854,
    "52e8": 6855,
    "972c": 6856,
    "\u25810x3f2b": 6857,
    "\u25810x4055": 6858,
    "\u25810x40a3d4": 6859,
    "a3c": 6860,
    "\u25810x47ed": 6861,
    "\u25810x7713": 6862,
    "\u25810x7719": 6863,
    "\u25810x5607a8": 6864,
    "\u2581localfilet": 6865,
    "\u2581gettokeninformation": 6866,
    "\u2581localfiletimetofiletime": 6867,
    "3b2": 6868,
    "b445": 6869,
    "ongles": 6870,
    "uldnot": 6871,
    "\u25810x71c": 6872,
    "\u25810x1211e94": 6873,
    "14f": 6874,
    "1a3": 6875,
    "ati": 6876,
    "d22": 6877,
    "ff5": 6878,
    "3c54": 6879,
    "dbc0": 6880,
    "ffa0": 6881,
    "utton": 6882,
    "682": 6883,
    "791": 6884,
    "914": 6885,
    "ed2": 6886,
    "\u25810x4140": 6887,
    "\u25810x43f00": 6888,
    "\u25810xebad74": 6889,
    "\u25810x1153ef0": 6890,
    "ak": 6891,
    "709": 6892,
    "b71": 6893,
    "d3d": 6894,
    "urn": 6895,
    "fbf8": 6896,
    "\u2581cle": 6897,
    "\u2581iob": 6898,
    "ection": 6899,
    "\u2581winht": 6900,
    "\u25810x4160": 6901,
    "\u25810x43b4": 6902,
    "\u2581myarg1": 6903,
    "\u25810x2d4d918": 6904,
    "\u25810x7ba00000": 6905,
    "946": 6906,
    "71000": 6907,
    "\u25810x42d0": 6908,
    "\u25810x409ab4": 6909,
    "\u25810x409ab5": 6910,
    "\u25810x4208df": 6911,
    "\u25810x7a22f8": 6912,
    "\u25810x1211dc4": 6913,
    "\u25810x1211ebf": 6914,
    "\u25810x1211ec3": 6915,
    "\u2581lookupprivilege": 6916,
    "961": 6917,
    "dee": 6918,
    "3030": 6919,
    "\u25810x4a4": 6920,
    "\u25810x418a00": 6921,
    "\u25810x418a30": 6922,
    "\u25810x4af460": 6923,
    "686": 6924,
    "9df": 6925,
    "aaa": 6926,
    "c06": 6927,
    "\u25810mb": 6928,
    "\u25810xee": 6929,
    "\u25810x226": 6930,
    "\u25810x8e20": 6931,
    "\u25810x1211df8": 6932,
    "401": 6933,
    "779": 6934,
    "f6fc": 6935,
    "\u25810x1e4": 6936,
    "\u25810x4016": 6937,
    "\u25810x4031": 6938,
    "\u25810x40f1": 6939,
    "\u25810x419d": 6940,
    "\u25810x8cd8": 6941,
    "73c": 6942,
    "7b5": 6943,
    "f79": 6944,
    "3c24": 6945,
    "\u25810xc2": 6946,
    "config": 6947,
    "\u25810x459": 6948,
    "\u25810x48b0": 6949,
    "\u25810x7e8d": 6950,
    "125": 6951,
    "371": 6952,
    "ave": 6953,
    "\u25810x4640": 6954,
    "\u25810x5375": 6955,
    "usttoken": 6956,
    "372": 6957,
    "70e": 6958,
    "d73": 6959,
    "5648": 6960,
    "\u25810x4450": 6961,
    "\u25810x452b": 6962,
    "privileges": 6963,
    "\u25810x1210f88": 6964,
    "\u2581applicationerror": 6965,
    "usttokenprivileges": 6966,
    "274": 6967,
    "95b": 6968,
    "9aa": 6969,
    "e9a": 6970,
    "\u25810x1900": 6971,
    "\u25810x40bd": 6972,
    "\u25810x4718": 6973,
    "\u25810x7e90": 6974,
    "\u2581flatsb": 6975,
    "7f1": 6976,
    "\u258131": 6977,
    "\u2581default": 6978,
    "\u25810x40a3d5": 6979,
    "\u25810x40a3d6": 6980,
    "\u25810x40a3d7": 6981,
    "\u25810x417d20": 6982,
    "\u25810x1211b84": 6983,
    "\u2581globaladd": 6984,
    "dc6": 6985,
    "f54": 6986,
    "d6d8": 6987,
    "\u25810x5ec": 6988,
    "\u25810x419b": 6989,
    "\u25810x45cd": 6990,
    "\u25810x7d40": 6991,
    "\u25810x1210f80": 6992,
    "\u25810xfeee00a7": 6993,
    "3d8": 6994,
    "ivq": 6995,
    "\u25810x44ed": 6996,
    "\u25810x447088": 6997,
    "\u258120220304": 6998,
    "\u25810xfeee00a8": 6999,
    "76e": 7000,
    "7fc": 7001,
    "ff2": 7002,
    "\u25810x244": 7003,
    "\u2581memchr": 7004,
    "\u2581stricmp": 7005,
    "db6": 7006,
    "brows": 7007,
    "\u25810x498": 7008,
    "\u25810x412d": 7009,
    "\u25810x4de8": 7010,
    "1dd": 7011,
    "433": 7012,
    "9eb": 7013,
    "f45": 7014,
    "pkg": 7015,
    "\u25810xc6": 7016,
    "\u25810x47c": 7017,
    "\u25810x412c": 7018,
    "\u25810x4de9": 7019,
    "\u25810x406698": 7020,
    "\u25810x12118e8": 7021,
    "\u2581releasesemaphore": 7022,
    "316": 7023,
    "9ee": 7024,
    "b30": 7025,
    "0010": 7026,
    "24ac": 7027,
    "65a0": 7028,
    "orary": 7029,
    "\u25810x1211fe8": 7030,
    "\u25810xfeee00a9": 7031,
    "\u25810xfeee00bc": 7032,
    "cc5": 7033,
    "ddc": 7034,
    "wer": 7035,
    "\u2581he": 7036,
    "9228": 7037,
    "a448": 7038,
    "e054": 7039,
    "pass": 7040,
    "\u25810x4078": 7041,
    "\u25810x40ea": 7042,
    "\u25810x423e08": 7043,
    "\u25810x7eab78": 7044,
    "1a8": 7045,
    "\u258100": 7046,
    "7c80": 7047,
    "d250": 7048,
    "69000": 7049,
    "\u2581srand": 7050,
    "\u2581users": 7051,
    "\u25810x447040": 7052,
    "\u2581formatmessagew": 7053,
    "925": 7054,
    "a1c": 7055,
    "ea4": 7056,
    "\u25810x51a0": 7057,
    "\u2581lcidto": 7058,
    "\u25810x181be8": 7059,
    "\u2581regcreatekeyexa": 7060,
    "\u2581lcidtolocalename": 7061,
    "f9c": 7062,
    "c018": 7063,
    "d678": 7064,
    "\u25817z2": 7065,
    "\u25817z8": 7066,
    "\u25817z30": 7067,
    "\u25810x5670": 7068,
    "outputcp": 7069,
    "\u25810x1211ad4": 7070,
    "\u25810x1211f8c": 7071,
    "\u25810xfeee00aa": 7072,
    "\u25810xfeee00ae": 7073,
    "ik": 7074,
    "14b": 7075,
    "766": 7076,
    "99c": 7077,
    "180f": 7078,
    "\u25810x41b": 7079,
    "\u25810x4e2": 7080,
    "\u25810x4011": 7081,
    "\u25810xfeee00ac": 7082,
    "\u2581getfileattributes": 7083,
    "3d2": 7084,
    "75b": 7085,
    "\u25811c": 7086,
    "001e": 7087,
    "bea4": 7088,
    "\u258102a": 7089,
    "\u25810x1861": 7090,
    "\u25810x4013": 7091,
    "\u25810x9850": 7092,
    "\u25810x103ff": 7093,
    "\u2581classes": 7094,
    "\u2581convert": 7095,
    "\u25810x181c10": 7096,
    "\u25810xfeee00ab": 7097,
    "\u2581destroywindow": 7098,
    "3ea": 7099,
    "3fc": 7100,
    "7ae": 7101,
    "d93": 7102,
    "copy": 7103,
    "\u25810x59e": 7104,
    "\u25810x120ff74": 7105,
    "\u25810x1211b34": 7106,
    "\u25810xfeee00ad": 7107,
    "\u2581installonly": 7108,
    "365": 7109,
    "793": 7110,
    "anew": 7111,
    "yourpc": 7112,
    "\u25810x4150": 7113,
    "\u25810x437038": 7114,
    "\u25810xfffffffc": 7115,
    "\u2581getconsoleoutputcp": 7116,
    "7c1": 7117,
    "ae6": 7118,
    "b12": 7119,
    "\u2581msvcr80": 7120,
    "\u25810x4540b0": 7121,
    "\u25810x1211a38": 7122,
    "fs": 7123,
    "290": 7124,
    "305": 7125,
    "bde": 7126,
    "bcd4": 7127,
    "efore": 7128,
    "\u25810x470": 7129,
    "\u25810x4025": 7130,
    "\u25810x7e91": 7131,
    "\u2581replace": 7132,
    "\u25810x181c38": 7133,
    "\u25810x1211d8c": 7134,
    "155": 7135,
    "31c": 7136,
    "d65": 7137,
    "ecd": 7138,
    "\u25810x6978": 7139,
    "\u25810xffd6": 7140,
    "\u25810xffd9": 7141,
    "\u25810x4af478": 7142,
    "39c": 7143,
    "431": 7144,
    "adm": 7145,
    "ec5": 7146,
    "b9770": 7147,
    "olcid": 7148,
    "enamet": 7149,
    "\u25810x8258": 7150,
    "\u25810x43a4c8": 7151,
    "\u25810x455438": 7152,
    "enametolcid": 7153,
    "\u2581localenametolcid": 7154,
    "b74": 7155,
    "bf5": 7156,
    "f14": 7157,
    "\u25810x4b00": 7158,
    "\u25810x40f690": 7159,
    "vm": 7160,
    "7f5": 7161,
    "a55": 7162,
    "upd": 7163,
    "005c": 7164,
    "\u2581cho": 7165,
    "drawing": 7166,
    "\u25810x45b1": 7167,
    "\u25810x437800": 7168,
    "\u2581setfiletime": 7169,
    "e32": 7170,
    "e49": 7171,
    "emo": 7172,
    "e014": 7173,
    "\u2581max": 7174,
    "\u25810x1d4": 7175,
    "\u25810x48c0": 7176,
    "eforeyou": 7177,
    "\u25810x5f3b5c": 7178,
    "\u25810x5f3c24": 7179,
    "\u25810x5f5f30": 7180,
    "\u25810x5f5f70": 7181,
    "\u25810x5f6114": 7182,
    "\u25810x5f612c": 7183,
    "3fb": 7184,
    "faa": 7185,
    "2022": 7186,
    "\u25810x42ed": 7187,
    "\u25810x12108": 7188,
    "\u25810x42180f": 7189,
    "\u25810x421810": 7190,
    "\u25810x46b3e8": 7191,
    "\u25810x2d4d6d8": 7192,
    "\u2581findresourc": 7193,
    "332": 7194,
    "7e5": 7195,
    "9f4": 7196,
    "f3d": 7197,
    "f77": 7198,
    "bb20": 7199,
    "\u2581full": 7200,
    "\u25810x1211cbc": 7201,
    "0054": 7202,
    "285c": 7203,
    "bcb8": 7204,
    "\u25810xc7": 7205,
    "\u25810x7e94": 7206,
    "\u25810x416dd3": 7207,
    "\u25810x416dd4": 7208,
    "\u25810x42a0a4": 7209,
    "2c2": 7210,
    "35b": 7211,
    "18d5": 7212,
    "9a9c": 7213,
    "dialog": 7214,
    "\u25810x7d27": 7215,
    "\u25810x7e95": 7216,
    "\u25810x1211d4c": 7217,
    "\u25810x1211e50": 7218,
    "a7c": 7219,
    "99b9": 7220,
    "lotter": 7221,
    "\u25810x108": 7222,
    "\u25810x413b": 7223,
    "\u25810x40400": 7224,
    "\u25810x1210f35": 7225,
    "\u25810x1211eb0": 7226,
    "fd6": 7227,
    "\u25810xe5": 7228,
    "\u25810x40f4": 7229,
    "\u25810x6ab8": 7230,
    "\u25810x9050": 7231,
    "\u25810x40b3a0": 7232,
    "\u25810x42b778": 7233,
    "\u25810x1211d7c": 7234,
    "\u25810xfeee00af": 7235,
    "\u2581charlowerbuff": 7236,
    "143": 7237,
    "725": 7238,
    "f6c": 7239,
    "updated": 7240,
    "\u25810x120ce80": 7241,
    "\u2581getsystemdefaultuilanguage": 7242,
    "2fe": 7243,
    "803": 7244,
    "a7d": 7245,
    "\u2581os": 7246,
    "bd10": 7247,
    "d193": 7248,
    "3d000": 7249,
    "\u25810x426": 7250,
    "\u25810x435024": 7251,
    "\u25810x4e2de0": 7252,
    "\u25810x12119e0": 7253,
    "\u25810x134ddf8": 7254,
    "\u25810xfeee00b0": 7255,
    "\u25810xfeee00b1": 7256,
    "13a": 7257,
    "ableto": 7258,
    "\u2581licen": 7259,
    "\u2581query": 7260,
    "\u25810x435026": 7261,
    "\u25810x435032": 7262,
    "dddc": 7263,
    "\u2581wor": 7264,
    "ssetup": 7265,
    "\u25810x190": 7266,
    "\u25810x5ab0": 7267,
    "available": 7268,
    "\u25810x3f22a0": 7269,
    "\u25810x1211ad0": 7270,
    "13d": 7271,
    "3f6": 7272,
    "bb5": 7273,
    "d69": 7274,
    "eb6": 7275,
    "fee": 7276,
    "web": 7277,
    "9d50": 7278,
    "\u25810xfb": 7279,
    "\u25810xac0": 7280,
    "\u25810x4cb00": 7281,
    "005": 7282,
    "3c5": 7283,
    "952": 7284,
    "ba6": 7285,
    "chi": 7286,
    "f94": 7287,
    "tob": 7288,
    "zip": 7289,
    "febc": 7290,
    "follow": 7291,
    "\u25810x1bc": 7292,
    "\u25810x464": 7293,
    "\u25810x725": 7294,
    "\u2581shell": 7295,
    "request": 7296,
    "\u25810x9240": 7297,
    "following": 7298,
    "\u25810x41aa80": 7299,
    "b1b": 7300,
    "ed6": 7301,
    "26e0": 7302,
    "\u25810x414f": 7303,
    "\u25810x4a60": 7304,
    "\u25810x8a70": 7305,
    "\u25810x9820": 7306,
    "\u25810x41aab0": 7307,
    "\u25810x12117ec": 7308,
    "\u2581getvolumeinformationw": 7309,
    "now": 7310,
    "98e0": 7311,
    "word": 7312,
    "\u25810x236": 7313,
    "\u25810x465": 7314,
    "\u25810x8ef0": 7315,
    "\u2581change": 7316,
    "informati": 7317,
    "wil": 7318,
    "30ec": 7319,
    "adc0": 7320,
    "\u25810x4324": 7321,
    "\u25810x81a0": 7322,
    "\u25810x40300c": 7323,
    "\u25810x1210f84": 7324,
    "\u2581dialogbox": 7325,
    "\u2581thisprogram": 7326,
    "73e": 7327,
    "a86": 7328,
    "d9c": 7329,
    "e35": 7330,
    "503c": 7331,
    "d4b8": 7332,
    "\u25810x414e": 7333,
    "\u25810x4194": 7334,
    "\u25810x4500": 7335,
    "\u25810x4e00": 7336,
    "\u25810x431f38": 7337,
    "\u25810x461500": 7338,
    "\u25810x58de68": 7339,
    "\u25810x6a7be8": 7340,
    "\u25810x6b4be8": 7341,
    "deleteatom": 7342,
    "\u2581globaldeleteatom": 7343,
    "9be": 7344,
    "a42": 7345,
    "d0b": 7346,
    "dc67": 7347,
    "sthe": 7348,
    "\u2581comp": 7349,
    "\u25810x13c": 7350,
    "\u25810x4ad": 7351,
    "\u25810x40a5bc": 7352,
    "\u25810xfeee00b3": 7353,
    "\u2581installation": 7354,
    "b06": 7355,
    "\u2581cod": 7356,
    "groun": 7357,
    "onthe": 7358,
    "\u25810x9090": 7359,
    "\u25810xfeee00b2": 7360,
    "\u25810xfeee00b4": 7361,
    "926": 7362,
    "itis": 7363,
    "\u2581dir": 7364,
    "eexpi": 7365,
    "remov": 7366,
    "\u2581demo": 7367,
    "\u25810x28c3": 7368,
    "iocontrol": 7369,
    "isalready": 7370,
    "\u25810x12119f4": 7371,
    "\u25810x1211e6c": 7372,
    "a1a": 7373,
    "005a": 7374,
    "14de": 7375,
    "4010": 7376,
    "4330": 7377,
    "433a": 7378,
    "artn": 7379,
    "\u25813a5": 7380,
    "acode": 7381,
    "advis": 7382,
    "\u2581itis": 7383,
    "dblack": 7384,
    "fromth": 7385,
    "inting": 7386,
    "stries": 7387,
    "\u2581strto": 7388,
    "edfiles": 7389,
    "withthi": 7390,
    "\u25810x7ea0": 7391,
    "\u2581prints": 7392,
    "continue": 7393,
    "havebeen": 7394,
    "numberis": 7395,
    "swindows": 7396,
    "ofcadwork": 7397,
    "\u25810x4a7540": 7398,
    "\u2581clientin": 7399,
    "abletoquit": 7400,
    "informatik": 7401,
    "sbeforeyou": 7402,
    "\u25810x1211a30": 7403,
    "\u2581backgroun": 7404,
    "\u2581itisadvis": 7405,
    "\u2581startfile": 7406,
    "\u2581pleasecheck": 7407,
    "withthissetup": 7408,
    "allyourrunning": 7409,
    "\u2581doyouwanttore": 7410,
    "\u2581dialogswindows": 7411,
    "\u2581backgroundblack": 7412,
    "\u2581openanexploreron": 7413,
    "sbeforeyoucontinue": 7414,
    "\u2581doyoureallywantto": 7415,
    "\u2581itisadvisabletoquit": 7416,
    "allyourrunningapplication": 7417,
    "sbeforeyoucontinuewiththissetup": 7418,
    "\u2581itisadvisabletoquitallyourrunningapplication": 7419,
    "715": 7420,
    "9de": 7421,
    "a76": 7422,
    "0056": 7423,
    "2c82": 7424,
    "39fa2": 7425,
    "\u25810xcb": 7426,
    "\u25810x47a": 7427,
    "\u25810x409f": 7428,
    "\u25810x40de": 7429,
    "\u25810x452134": 7430,
    "\u25810x121192f": 7431,
    "\u25810xfeee00b5": 7432,
    "\u2581findresourceexw": 7433,
    "\u2581isdbcsleadbyteex": 7434,
    "79e": 7435,
    "bef": 7436,
    "bcac": 7437,
    "a5000": 7438,
    "\u2581work": 7439,
    "\u25810x5d2": 7440,
    "\u25810xa0f0": 7441,
    "\u25810xf003f": 7442,
    "edownload": 7443,
    "filesfrom": 7444,
    "\u25810x431ef0": 7445,
    "\u25810x1210e2b": 7446,
    "\u25810x1211894": 7447,
    "\u25810x12119b0": 7448,
    "19d": 7449,
    "250": 7450,
    "a9c": 7451,
    "\u258133": 7452,
    "5234": 7453,
    "\u25810x83e014": 7454,
    "\u25810x1210d1b": 7455,
    "\u25810x1210dec": 7456,
    "\u25810x1210f28": 7457,
    "\u2581deviceiocontrol": 7458,
    "a4d": 7459,
    "dda": 7460,
    "005e": 7461,
    "e4c0": 7462,
    "\u25810x41ce": 7463,
    "\u25810x4a30": 7464,
    "\u25810x4b20": 7465,
    "\u25810x442804": 7466,
    "\u25810x1211b8c": 7467,
    "558": 7468,
    "b1c": 7469,
    "d7b": 7470,
    "qstring": 7471,
    "\u25810x4171": 7472,
    "\u25810x4551": 7473,
    "\u25810x49b0": 7474,
    "\u25810x12110d8": 7475,
    "do": 7476,
    "74e": 7477,
    "941": 7478,
    "d9a": 7479,
    "enu": 7480,
    "erg": 7481,
    "0014": 7482,
    "\u2581tra": 7483,
    "70656": 7484,
    "d0a64": 7485,
    "\u25810xb9": 7486,
    "\u25810xef4": 7487,
    "\u25810x57eb": 7488,
    "\u25810x9a90": 7489,
    "\u25813a5265": 7490,
    "\u2581folder": 7491,
    "2022433a": 7492,
    "1740d0a64": 7493,
    "\u25810x442820": 7494,
    "\u25810x1210e10": 7495,
    "656c2022433a": 7496,
    "\u25813a526570656": 7497,
    "1740d0a64656c2022433a": 7498,
    "\u25813a5265706561740d0a64656c2022433a": 7499,
    "714": 7500,
    "w32": 7501,
    "\u2581us": 7502,
    "1a80": 7503,
    "a4a1": 7504,
    "laser": 7505,
    "\u25810xc3": 7506,
    "\u25810xce": 7507,
    "\u25810x1b2": 7508,
    "\u25810x4a5": 7509,
    "\u25810xea6": 7510,
    "\u25810x1211338": 7511,
    "\u25810x169b758": 7512,
    "memorystatus": 7513,
    "\u2581globalmemorystatus": 7514,
    "1b2": 7515,
    "53c": 7516,
    "9ab": 7517,
    "d91": 7518,
    "f43": 7519,
    "7578": 7520,
    "f0f9": 7521,
    "\u25810x101c": 7522,
    "\u25810x41ac": 7523,
    "\u25810x41dd": 7524,
    "\u25810x8ee0": 7525,
    "\u2581gettext": 7526,
    "\u25810xfeee00b7": 7527,
    "ah": 7528,
    "b54": 7529,
    "b7b": 7530,
    "d51": 7531,
    "ff40": 7532,
    "inki": 7533,
    "ad000": 7534,
    "croll": 7535,
    "dec5b": 7536,
    "manager": 7537,
    "\u25810x4364": 7538,
    "\u25810xa7a0": 7539,
    "\u25810x121189c": 7540,
    "\u2581getscroll": 7541,
    "\u25810xfeee00b8": 7542,
    "7ca": 7543,
    "92c": 7544,
    "\u25810xd5": 7545,
    "\u25810x2300": 7546,
    "\u25810x4047": 7547,
    "\u25810x7dfc": 7548,
    "\u25810x1211bf4": 7549,
    "\u25810x1211fa8": 7550,
    "73d": 7551,
    "755": 7552,
    "dfa": 7553,
    "f8b": 7554,
    "68c8": 7555,
    "cc000": 7556,
    "endar": 7557,
    "dified": 7558,
    "onthis": 7559,
    "\u25810x91a0": 7560,
    "calendar": 7561,
    "\u2581getfullnamew": 7562,
    "\u2581couninitialize": 7563,
    "\u2581gettempfilenamea": 7564,
    "bff": 7565,
    "edu": 7566,
    "nel": 7567,
    "\u2581dx": 7568,
    "6925": 7569,
    "edcc": 7570,
    "procedu": 7571,
    "\u25810x7dfd": 7572,
    "\u25810x40938": 7573,
    "\u2581msvcr120": 7574,
    "\u2581readonly": 7575,
    "\u25810x1211e84": 7576,
    "\u25810x169b948": 7577,
    "\u25810x169be04": 7578,
    "\u25810xfeee00b6": 7579,
    "\u25810xfeee00b9": 7580,
    "1ab": 7581,
    "d99": 7582,
    "0016": 7583,
    "002c": 7584,
    "11bc": 7585,
    "56c8": 7586,
    "dfor": 7587,
    "\u2581sfc": 7588,
    "\u25810x4cb": 7589,
    "\u25810x42d3": 7590,
    "procedure": 7591,
    "\u25810x42fc68": 7592,
    "\u25810x430a80": 7593,
    "\u2581iswindow": 7594,
    "618": 7595,
    "d86": 7596,
    "001c": 7597,
    "\u2581inf": 7598,
    "\u25810x10020": 7599,
    "\u25810x8c000": 7600,
    "\u25810x417d50": 7601,
    "codeprocess": 7602,
    "\u2581getexitcodeprocess": 7603,
    "3d0": 7604,
    "d52": 7605,
    "eff": 7606,
    "40a3": 7607,
    "90058": 7608,
    "\u25810x830": 7609,
    "\u25810x7c91": 7610,
    "\u25810xc0000": 7611,
    "\u25810x4175f4": 7612,
    "\u25810x5265c64": 7613,
    "\u25810xfeedf200": 7614,
    "\u25810xfeee00bb": 7615,
    "\u25810xfffff862": 7616,
    "\u25810xfffff8f8": 7617,
    "git": 7618,
    "\u2581ldr": 7619,
    "\u25810x31d": 7620,
    "\u25810x4680": 7621,
    "\u25810x230022": 7622,
    "\u25810x40a230": 7623,
    "\u25810x550054": 7624,
    "\u25810x570056": 7625,
    "\u25810x590058": 7626,
    "\u25810x5b005a": 7627,
    "\u25810x5d005c": 7628,
    "\u25810x5f005e": 7629,
    "\u25810x1211df4": 7630,
    "28d": 7631,
    "3ce": 7632,
    "64e": 7633,
    "d82": 7634,
    "c000": 7635,
    "icli": 7636,
    "\u2581ssp": 7637,
    "\u2581hels": 7638,
    "\u2581lmir0": 7639,
    "\u25810x4032": 7640,
    "\u25810x4358": 7641,
    "\u25810x8570": 7642,
    "\u2581sspicli": 7643,
    "\u25810x401324": 7644,
    "\u25810x401468": 7645,
    "\u2581helsinki": 7646,
    "\u25810x169b728": 7647,
    "362": 7648,
    "3c6": 7649,
    "3ec": 7650,
    "e3d": 7651,
    "da26": 7652,
    "\u25810xc9": 7653,
    "\u25810x516": 7654,
    "\u25810x2900": 7655,
    "\u25810x415a": 7656,
    "\u25810x77002": 7657,
    "\u25810x3f30b0": 7658,
    "\u25810x439470": 7659,
    "\u25810x120f7a8": 7660,
    "\u25810xfeee00ba": 7661,
    "97f": 7662,
    "bd74": 7663,
    "15000": 7664,
    "\u25810x606": 7665,
    "\u25810x7aa": 7666,
    "\u25810x40b6": 7667,
    "\u25810x4c00": 7668,
    "\u25810x8c20": 7669,
    "\u25810x421708": 7670,
    "\u25810x1210f30": 7671,
    "ke": 7672,
    "732": 7673,
    "7b2": 7674,
    "99b": 7675,
    "a52": 7676,
    "bee": 7677,
    "db2": 7678,
    "f6e": 7679,
    "93a8": 7680,
    "a590": 7681,
    "\u25810x1074": 7682,
    "\u25810x572c": 7683,
    "\u25810x120f6": 7684,
    "\u25810x12118d8": 7685,
    "b16": 7686,
    "0026": 7687,
    "a064": 7688,
    "\u25810xaf": 7689,
    "\u2581clean": 7690,
    "\u2581fopen": 7691,
    "\u25810x8f90": 7692,
    "\u25810x2357b78": 7693,
    "3b5": 7694,
    "d1c": 7695,
    "\u25813d": 7696,
    "2c3c": 7697,
    "50f4": 7698,
    "7d38": 7699,
    "\u25810x4239": 7700,
    "\u25810x429d": 7701,
    "\u25810x9c000": 7702,
    "\u2581network": 7703,
    "\u25810x4528e0": 7704,
    "\u25810x500000": 7705,
    "\u25810x1211cf0": 7706,
    "ci": 7707,
    "13e": 7708,
    "b73": 7709,
    "\u2581call": 7710,
    "anager": 7711,
    "\u25810x44d": 7712,
    "\u25810x40f0": 7713,
    "\u25810x423f": 7714,
    "\u25810x7e01": 7715,
    "\u25810x1210fe0": 7716,
    "\u2581lstrcmpiw": 7717,
    "\u25810xfeee00bd": 7718,
    "105": 7719,
    "1fc": 7720,
    "23d": 7721,
    "31b": 7722,
    "bab": 7723,
    "d94": 7724,
    "003c": 7725,
    "f3ed": 7726,
    "\u2581ifyou": 7727,
    "located": 7728,
    "\u25810x457e": 7729,
    "\u25810x4ad0": 7730,
    "\u25810x79b0": 7731,
    "\u25810x97c0": 7732,
    "willinstall": 7733,
    "\u25810xfeee00be": 7734,
    "bac": 7735,
    "d95": 7736,
    "\u25810xf2": 7737,
    "\u25810xf6": 7738,
    "\u25810x41d5": 7739,
    "\u25810x4533": 7740,
    "belocated": 7741,
    "\u25810x1210ee0": 7742,
    "b3b": 7743,
    "e69": 7744,
    "e78": 7745,
    "34b8": 7746,
    "7e000": 7747,
    "ension": 7748,
    "\u25810x7704": 7749,
    "\u25810x3f30e0": 7750,
    "\u25810x46b188": 7751,
    "\u25810x5718f0": 7752,
    "\u25810x1211904": 7753,
    "\u25810xfeee00bf": 7754,
    "\u2581globalrealloc": 7755,
    "915": 7756,
    "0052": 7757,
    "\u25810x40e8": 7758,
    "\u25810x42bc": 7759,
    "\u25810x81a1": 7760,
    "\u25810x42cdf0": 7761,
    "\u25810x42ce20": 7762,
    "585": 7763,
    "7e4": 7764,
    "c84": 7765,
    "0024": 7766,
    "003e": 7767,
    "54000": 7768,
    "b0cbc": 7769,
    "toyour": 7770,
    "\u25810x4336": 7771,
    "\u25810x7ce1": 7772,
    "\u25810x8e30": 7773,
    "\u25810x9bb0": 7774,
    "getversion": 7775,
    "\u25810x1211a6c": 7776,
    "\u25810xfeee00c0": 7777,
    "7d2": 7778,
    "972": 7779,
    "dc5": 7780,
    "f69": 7781,
    "\u2581mfc": 7782,
    "\u25810x492": 7783,
    "lection": 7784,
    "\u25810x41d8": 7785,
    "\u25810x42ea": 7786,
    "\u25810x4530": 7787,
    "\u25810xd8000": 7788,
    "\u2581strncpy": 7789,
    "\u25810x40a92c": 7790,
    "\u25810x40a93c": 7791,
    "\u25810x1211b80": 7792,
    "\u25810x1211d00": 7793,
    "\u25810x1211e74": 7794,
    "\u25812022030310": 7795,
    "40a": 7796,
    "bf3c": 7797,
    "f7f0": 7798,
    "\u25810x6e7": 7799,
    "\u25810x4660": 7800,
    "\u25810x3f3140": 7801,
    "\u25810x410040": 7802,
    "tification": 7803,
    "\u25810xfeee00c1": 7804,
    "164": 7805,
    "3f2": 7806,
    "est": 7807,
    "lang": 7808,
    "prop": 7809,
    "\u25810x3c0": 7810,
    "\u25810x59d": 7811,
    "rl6660d": 7812,
    "\u25810x4197": 7813,
    "\u25810x4346": 7814,
    "\u25810xac000": 7815,
    "\u25810x3f3110": 7816,
    "\u25810x424e4f": 7817,
    "\u25810x424e50": 7818,
    "\u25810xfeee00c2": 7819,
    "08c": 7820,
    "d74": 7821,
    "db3": 7822,
    "top": 7823,
    "dcc0": 7824,
    "f8e7": 7825,
    "uset": 7826,
    "\u2581rsa": 7827,
    "textw": 7828,
    "\u2581dxgi": 7829,
    "\u2581rsaenh": 7830,
    "selection": 7831,
    "codethread": 7832,
    "\u25810x1210f50": 7833,
    "\u25810x1211a48": 7834,
    "\u25810x1211d24": 7835,
    "\u25810x2825f40": 7836,
    "\u2581getfullnamea": 7837,
    "\u2581getexitcodethread": 7838,
    "bin": 7839,
    "004a": 7840,
    "6c42": 7841,
    "\u2581url": 7842,
    "\u25810x2b00": 7843,
    "\u25810x4151": 7844,
    "\u25810x5100": 7845,
    "\u25810x7e04": 7846,
    "\u25810xb8000": 7847,
    "\u25810xc8000": 7848,
    "\u25810x110010": 7849,
    "\u2581lstrcpyw": 7850,
    "\u2581dxgidebug": 7851,
    "\u25810xfeee00d7": 7852,
    "\u2581globalfind": 7853,
    "d12": 7854,
    "f32": 7855,
    "002e": 7856,
    "\u25810xbf": 7857,
    "\u2581obso": 7858,
    "win32c": 7859,
    "\u2581initi": 7860,
    "formata": 7861,
    "\u25810x415e": 7862,
    "\u25810x4644": 7863,
    "\u25810x7e05": 7864,
    "\u25810x40a538": 7865,
    "\u2581datetime": 7866,
    "\u2581obsolete": 7867,
    "\u25810x1210e90": 7868,
    "\u25810x1210f70": 7869,
    "\u25810x12116fc": 7870,
    "\u25810x1211d88": 7871,
    "win32client": 7872,
    "\u25810xfeee00c3": 7873,
    "\u2581setthreadpriority": 7874,
    "373": 7875,
    "37f": 7876,
    "405": 7877,
    "556": 7878,
    "7a2": 7879,
    "e34": 7880,
    "e76": 7881,
    "6a68": 7882,
    "ac18": 7883,
    "dd48": 7884,
    "eral": 7885,
    "f738": 7886,
    "langid": 7887,
    "\u25810x1a0": 7888,
    "\u25810x454": 7889,
    "\u25810x40ee": 7890,
    "\u25810xd000c": 7891,
    "\u25810xf000e": 7892,
    "\u25810x130012": 7893,
    "\u25810x150014": 7894,
    "\u25810x170016": 7895,
    "\u25810x190018": 7896,
    "\u25810x1b001a": 7897,
    "\u25810x1d001c": 7898,
    "\u25810x1f001e": 7899,
    "\u25810x210020": 7900,
    "\u25810x250024": 7901,
    "\u25810x270026": 7902,
    "\u25810x3d003c": 7903,
    "\u25810x3f003e": 7904,
    "\u25810x3f3030": 7905,
    "\u25810x430042": 7906,
    "\u25810x450044": 7907,
    "\u25810x470046": 7908,
    "\u25810x490048": 7909,
    "\u25810x4b004a": 7910,
    "\u25810x4d004c": 7911,
    "\u25810x4f004e": 7912,
    "\u25810x510050": 7913,
    "\u25810x530052": 7914,
    "\u25810x6b9c50": 7915,
    "\u25810x1210ceb": 7916,
    "\u25810x1210fc0": 7917,
    "\u2581getfileex": 7918,
    "ep": 7919,
    "282": 7920,
    "efc": 7921,
    "1f60": 7922,
    "3828": 7923,
    "9053": 7924,
    "atic": 7925,
    "e100": 7926,
    "updat": 7927,
    "\u25810x5cc": 7928,
    "context": 7929,
    "\u25810x4205": 7930,
    "\u25810x290028": 7931,
    "\u25810x2b002a": 7932,
    "\u25810x2d002c": 7933,
    "\u25810x2f002e": 7934,
    "\u25810xfeee00c4": 7935,
    "instructioncache": 7936,
    "f0b": 7937,
    "f5b": 7938,
    "9448": 7939,
    "ec43": 7940,
    "enti": 7941,
    "ocus": 7942,
    "select": 7943,
    "\u25810x8e70": 7944,
    "\u25810x98a0": 7945,
    "\u25810x41d1c8": 7946,
    "\u25810x1210fa0": 7947,
    "hs": 7948,
    "776": 7949,
    "f062": 7950,
    "\u25810x427": 7951,
    "\u25810x40b2": 7952,
    "\u25810x49d0": 7953,
    "\u25810x42c0e0": 7954,
    "\u25810x1211ed0": 7955,
    "\u2581urldownload": 7956,
    "425": 7957,
    "45a2": 7958,
    "93c0": 7959,
    "9918": 7960,
    "b5b4": 7961,
    "\u2581std": 7962,
    "\u25810x7e10": 7963,
    "\u25810x83e6": 7964,
    "\u25810x8ae0": 7965,
    "\u25810x14475": 7966,
    "\u2581winmain": 7967,
    "\u25810x1211760": 7968,
    "c89": 7969,
    "a6fb": 7970,
    "feb8": 7971,
    "\u25810x990": 7972,
    "\u25810x4042": 7973,
    "\u25810xc0000409": 7974,
    "\u2581regenumkey": 7975,
    "162": 7976,
    "ea8": 7977,
    "f33": 7978,
    "2218": 7979,
    "536c": 7980,
    "9e28": 7981,
    "\u25810xb3": 7982,
    "\u25810x514": 7983,
    "\u25810x44c4": 7984,
    "\u25810x4561": 7985,
    "\u25810x40a548": 7986,
    "\u25810x1211eb8": 7987,
    "15e": 7988,
    "20a": 7989,
    "80e": 7990,
    "969": 7991,
    "d64": 7992,
    "\u2581fd": 7993,
    "1168": 7994,
    "2468": 7995,
    "\u25810x22c": 7996,
    "\u25810x45d3": 7997,
    "\u25810x9870": 7998,
    "\u25810x4ec2a0": 7999,
    "\u25810xfeee00c6": 8000,
    "lu": 8001,
    "ba5": 8002,
    "ff42": 8003,
    "\u25810xca": 8004,
    "e749fc": 8005,
    "\u25810x444": 8006,
    "\u25810x571": 8007,
    "\u25810x4a50": 8008,
    "\u25810x44b7b0": 8009,
    "\u25810x120faac": 8010,
    "\u25810x12115c4": 8011,
    "\u25810xfeee00c7": 8012,
    "1e5": 8013,
    "311": 8014,
    "3da": 8015,
    "602": 8016,
    "a25": 8017,
    "e0e": 8018,
    "f75": 8019,
    "49c0": 8020,
    "7064": 8021,
    "fc1b": 8022,
    "\u25810xa040": 8023,
    "\u25810x41d198": 8024,
    "\u25810x1210e40": 8025,
    "\u25810xfeee00c5": 8026,
    "\u2581getprofile": 8027,
    "\u2581flushinstructioncache": 8028,
    "943": 8029,
    "aa1": 8030,
    "c0b": 8031,
    "ec6": 8032,
    "\u25810xdf": 8033,
    "\u25810x6a8": 8034,
    "\u25810x4377": 8035,
    "\u25810x40f688": 8036,
    "\u25810x41f750": 8037,
    "\u2581gettempfilenamew": 8038,
    "314": 8039,
    "30c4": 8040,
    "drag": 8041,
    "\u2581sof": 8042,
    "activ": 8043,
    "focus": 8044,
    "\u2581burn": 8045,
    "\u2581room": 8046,
    "\u25810x457": 8047,
    "\u25810x4212": 8048,
    "\u25810x4226": 8049,
    "\u25810x4370": 8050,
    "\u25810x4908": 8051,
    "\u25810x8ec0": 8052,
    "\u25810x9350": 8053,
    "eservice": 8054,
    "\u25810x42f1a0": 8055,
    "\u25810x1211910": 8056,
    "\u25810x56500000": 8057,
    "\u25810xfeee00ca": 8058,
    "\u2581deleteservice": 8059,
    "\u2581removedirectoryw": 8060,
    "til": 8061,
    "1312": 8062,
    "1848": 8063,
    "a84f1": 8064,
    "\u25810x17a": 8065,
    "\u25810x4122": 8066,
    "registry": 8067,
    "\u25810x42a402": 8068,
    "\u25810x42a410": 8069,
    "\u25810xfeee00c8": 8070,
    "3be8": 8071,
    "a1a0": 8072,
    "fd000": 8073,
    "\u25810xfa": 8074,
    "\u25810x46ae": 8075,
    "\u25810x489d": 8076,
    "\u25810x7c16": 8077,
    "\u25810x42f188": 8078,
    "\u25810x100fdd58": 8079,
    "\u2581sofaddress": 8080,
    "oi": 8081,
    "179": 8082,
    "7e2": 8083,
    "\u2581uc": 8084,
    "3811": 8085,
    "fff3": 8086,
    "rchr": 8087,
    "\u25810x6e4": 8088,
    "\u2581common": 8089,
    "\u25810x41f6c0": 8090,
    "\u25810x7ee001": 8091,
    "\u25810x7ee002": 8092,
    "\u25810x7ee003": 8093,
    "\u25810x7ee004": 8094,
    "\u25810x7ee005": 8095,
    "\u25810x7ee006": 8096,
    "\u25810x7ee007": 8097,
    "\u25810x7ee008": 8098,
    "\u25810x7ee009": 8099,
    "\u25810x7ee00a": 8100,
    "\u25810x7ee00b": 8101,
    "\u25810x7ee00c": 8102,
    "\u25810x7ee00d": 8103,
    "\u25810x7ee00e": 8104,
    "\u25810x7ee00f": 8105,
    "\u25810x7ee010": 8106,
    "\u25810x7ee011": 8107,
    "\u25810x7ee012": 8108,
    "\u25810x7ee013": 8109,
    "\u25810x7ee014": 8110,
    "\u25810x7ee015": 8111,
    "\u25810x7ee016": 8112,
    "\u25810x7ee017": 8113,
    "\u25810x7ee018": 8114,
    "\u25810x7ee019": 8115,
    "\u25810x1211cd0": 8116,
    "154": 8117,
    "1ed": 8118,
    "56b": 8119,
    "79a": 8120,
    "mut": 8121,
    "96d8": 8122,
    "anual": 8123,
    "\u25810x3cc": 8124,
    "register": 8125,
    "\u25810x30002": 8126,
    "\u25810x50004": 8127,
    "\u25810x41f780": 8128,
    "\u25810xe9a1c0": 8129,
    "\u2581riched32": 8130,
    "366": 8131,
    "548": 8132,
    "d4d": 8133,
    "sel": 8134,
    "0034": 8135,
    "43e5": 8136,
    "\u2581sdl": 8137,
    "\u25810x4179": 8138,
    "\u25810x41b8": 8139,
    "\u25810x4a70": 8140,
    "\u25810x7e08": 8141,
    "\u25810x70006": 8142,
    "\u25810x90008": 8143,
    "\u25810xb000a": 8144,
    "\u25810x42e388": 8145,
    "\u25810x431810": 8146,
    "\u25810x452bf8": 8147,
    "\u25810x4554b0": 8148,
    "\u25810xba8b68": 8149,
    "\u25810x1211854": 8150,
    "\u25810xfeee00c9": 8151,
    "\u25810xfeee00cb": 8152,
    "a91": 8153,
    "f12": 8154,
    "1800": 8155,
    "1cb0": 8156,
    "4d24": 8157,
    "f5fb": 8158,
    "\u2581nar": 8159,
    "based": 8160,
    "flush": 8161,
    "\u2581ucrt": 8162,
    "\u25810x4a6": 8163,
    "\u25810x40b1": 8164,
    "\u25810x4880": 8165,
    "\u25810x5936": 8166,
    "\u2581enable": 8167,
    "\u25810x1210f00": 8168,
    "\u2581ucrtbased": 8169,
    "\u25810x80004005": 8170,
    "3230": 8171,
    "43d4": 8172,
    "\u25810x4c5": 8173,
    "fileexw": 8174,
    "\u25810x4130": 8175,
    "\u25810x88d0": 8176,
    "\u2581narrow": 8177,
    "18e": 8178,
    "806": 8179,
    "9c5": 8180,
    "a3f": 8181,
    "bda": 8182,
    "ial": 8183,
    "bdf0": 8184,
    "f844": 8185,
    "\u25810x403b": 8186,
    "\u25810x414b": 8187,
    "\u25810x419a": 8188,
    "\u2581licence": 8189,
    "\u25810x4e39b4": 8190,
    "\u25810x121185c": 8191,
    "1a5": 8192,
    "246": 8193,
    "30e": 8194,
    "3ed": 8195,
    "ee43": 8196,
    "lear": 8197,
    "\u25810x4830": 8198,
    "\u25810x99b0": 8199,
    "\u25810x1211af4": 8200,
    "1de": 8201,
    "206": 8202,
    "\u25812db": 8203,
    "\u25810x3f2c": 8204,
    "\u25810x51b6": 8205,
    "\u25810x9040": 8206,
    "\u2581getdateformatw": 8207,
    "55c": 8208,
    "a14": 8209,
    "a89": 8210,
    "ade": 8211,
    "5060": 8212,
    "f8e4": 8213,
    "ccc2b": 8214,
    "\u25810x178": 8215,
    "\u25810x439": 8216,
    "\u25810x584d24": 8217,
    "40f": 8218,
    "e92": 8219,
    "\u2581cf": 8220,
    "3bd2": 8221,
    "9380": 8222,
    "da1c": 8223,
    "dlg32": 8224,
    "\u25810x614": 8225,
    "\u25810x4073": 8226,
    "\u25810x4900": 8227,
    "\u25810x8f00": 8228,
    "\u25810x503a8": 8229,
    "cc2": 8230,
    "e18": 8231,
    "lib": 8232,
    "64c6": 8233,
    "b354": 8234,
    "\u25810x40e6": 8235,
    "\u25810x8180": 8236,
    "indirect": 8237,
    "\u25810x51b68": 8238,
    "\u25810x121178c": 8239,
    "\u25810x1211960": 8240,
    "xe": 8241,
    "1d1": 8242,
    "1ee": 8243,
    "b66": 8244,
    "d63": 8245,
    "e93": 8246,
    "5fb0": 8247,
    "lsid": 8248,
    "\u258104t0": 8249,
    "\u25810xf5": 8250,
    "\u25810x5d0": 8251,
    "\u25810x920": 8252,
    "\u25810x40a8": 8253,
    "\u25810x42e4": 8254,
    "\u25810x8ed0": 8255,
    "\u25810x8f30": 8256,
    "\u2581comdlg32": 8257,
    "\u25810x5265c78": 8258,
    "965": 8259,
    "9f2": 8260,
    "9fa": 8261,
    "ed24": 8262,
    "\u2581atoi": 8263,
    "\u25810x40d6": 8264,
    "\u25810x7eb9": 8265,
    "\u25810x1211ea0": 8266,
    "42d": 8267,
    "9d4": 8268,
    "32f1": 8269,
    "98c0": 8270,
    "a7b0": 8271,
    "alle": 8272,
    "console": 8273,
    "\u25810x4241": 8274,
    "\u25810x54a8": 8275,
    "\u25810x7541": 8276,
    "\u25810x7e09": 8277,
    "\u2581cancel": 8278,
    "\u25810x78000": 8279,
    "\u2581selectan": 8280,
    "\u25810x1211994": 8281,
    "\u25810xfeee01c": 8282,
    "\u25810xfeee00cc": 8283,
    "ri": 8284,
    "aee": 8285,
    "ich": 8286,
    "a088": 8287,
    "add8": 8288,
    "\u2581pass": 8289,
    "\u25810x16c": 8290,
    "\u25810x4f8": 8291,
    "\u2581abort": 8292,
    "\u25810x7e98": 8293,
    "\u2581openmut": 8294,
    "ln": 8295,
    "yd": 8296,
    "1ec": 8297,
    "5c2": 8298,
    "izn": 8299,
    "b820": 8300,
    "pies": 8301,
    "stow": 8302,
    "ac000": 8303,
    "iznadm": 8304,
    "\u25810x47b": 8305,
    "\u25810x6a0": 8306,
    "\u25810x42b0": 8307,
    "\u25810x53df00": 8308,
    "\u25810x567a88": 8309,
    "\u2581triznadm": 8310,
    "a46": 8311,
    "d3b": 8312,
    "uni": 8313,
    "a4e8": 8314,
    "d591": 8315,
    "\u25813db": 8316,
    "60577": 8317,
    "\u25810x40c6": 8318,
    "\u25810x47ab": 8319,
    "\u25810x7e99": 8320,
    "\u25810x9910": 8321,
    "\u25810xa0c0": 8322,
    "\u2581ldrget": 8323,
    "\u2581sample": 8324,
    "\u25810x519dd": 8325,
    "\u2581openlog": 8326,
    "\u25810x419c98": 8327,
    "\u25810x58000000": 8328,
    "\u25810xfeee00cd": 8329,
    "\u2581environment": 8330,
    "procedureaddress": 8331,
    "\u2581ldrgetprocedureaddress": 8332,
    "48ee": 8333,
    "9d000": 8334,
    "popup": 8335,
    "\u25810xe3": 8336,
    "\u25810x570": 8337,
    "\u25810x5d5": 8338,
    "formation": 8339,
    "\u25810x4188a8": 8340,
    "\u25810x419cc8": 8341,
    "16c": 8342,
    "\u25810x4f3": 8343,
    "\u25810x409414": 8344,
    "\u25810x409415": 8345,
    "\u25810xfeee00ce": 8346,
    "\u25810xd7": 8347,
    "\u25810xf3": 8348,
    "\u25810x5265cc8": 8349,
    "\u25810xfeee00cf": 8350,
    "ui": 8351,
    "266": 8352,
    "e9d": 8353,
    "f07": 8354,
    "fab": 8355,
    "\u258115": 8356,
    "f8e6": 8357,
    "\u2581pro": 8358,
    "\u25810x711": 8359,
    "\u25810x3f2a": 8360,
    "\u25810x12106": 8361,
    "\u25810x435403": 8362,
    "\u25810x435404": 8363,
    "\u25810x435405": 8364,
    "\u25810x435406": 8365,
    "\u25810x441806": 8366,
    "\u25810x441808": 8367,
    "\u25810x44180a": 8368,
    "\u25810x537500": 8369,
    "\u25810x6e7ab8": 8370,
    "\u2581openlogw": 8371,
    "\u25810x1210ed0": 8372,
    "\u25810x1211504": 8373,
    "\u25810x5265c8c": 8374,
    "\u25810x5265ca0": 8375,
    "\u25810x5265cb4": 8376,
    "\u25810x5265cdc": 8377,
    "a56": 8378,
    "ae1": 8379,
    "\u2581pb": 8380,
    "lipr": 8381,
    "fc360": 8382,
    "\u25810x52c": 8383,
    "\u25810x3100": 8384,
    "\u25810x7e9c": 8385,
    "\u25810x7e9d": 8386,
    "namedpipe": 8387,
    "\u25810x409411": 8388,
    "\u25810x1211784": 8389,
    "5cc": 8390,
    "7c2": 8391,
    "apt": 8392,
    "\u2581cre": 8393,
    "\u2581fmt": 8394,
    "stina": 8395,
    "\u25810x503": 8396,
    "\u25810x1880": 8397,
    "\u25810x40aa": 8398,
    "\u25810x42e8": 8399,
    "\u25810x4847": 8400,
    "\u25810x4aac": 8401,
    "\u25810x8820": 8402,
    "\u25810x8830": 8403,
    "\u25810x3b7fc": 8404,
    "\u2581manager": 8405,
    "stination": 8406,
    "\u25810x403000": 8407,
    "\u25810x409412": 8408,
    "\u25810x409413": 8409,
    "\u25810x409416": 8410,
    "\u25810x409417": 8411,
    "\u25810x40a3e9": 8412,
    "\u25810x40a3ea": 8413,
    "\u25810x40a3eb": 8414,
    "\u25810x40a3ec": 8415,
    "\u25810x40a3ed": 8416,
    "\u25810x40a3ee": 8417,
    "\u25810x40a3ef": 8418,
    "\u25810x417cd8": 8419,
    "\u25810x42d4b0": 8420,
    "\u25810x44180c": 8421,
    "\u25810x7a2328": 8422,
    "\u25810x1000130": 8423,
    "\u2581tsldrl666": 8424,
    "su": 8425,
    "18f": 8426,
    "7ab": 8427,
    "e75": 8428,
    "003a": 8429,
    "433b": 8430,
    "7868": 8431,
    "7fd8": 8432,
    "e69b": 8433,
    "\u25810xc1": 8434,
    "\u25810xf9": 8435,
    "\u25810x1f0": 8436,
    "\u25810x4a7": 8437,
    "\u25810x3f32": 8438,
    "\u25810x23533": 8439,
    "\u25810x40b870": 8440,
    "\u25810x435407": 8441,
    "\u25810x1211e5c": 8442,
    "\u25810x1211f7a": 8443,
    "\u2581getmenuitem": 8444,
    "\u2581sessionmanager": 8445,
    "2d5": 8446,
    "e30": 8447,
    "e71": 8448,
    "37ad": 8449,
    "bc20": 8450,
    "\u2581tim": 8451,
    "\u25810x8f10": 8452,
    "\u2581screen": 8453,
    "\u25810x12114bc": 8454,
    "701": 8455,
    "d0a": 8456,
[...]
