{
    "<pad>": 0,
    "<unk>": 1,
    "<mask>": 2,
    "\u25810": 3,
    "\u25810x": 4,
    "00": 5,
    "er": 6,
    "ne": 7,
    "32": 8,
    "\u25810x0": 9,
    "\u2581k": 10,
    "l32": 11,
    "erne": 12,
    "ernel32": 13,
    "\u2581kernel32": 14,
    "et": 15,
    "\u25810x1": 16,
    "get": 17,
    "al": 18,
    "ee": 19,
    "\u25810x4": 20,
    "ti": 21,
    "in": 22,
    "\u2581get": 23,
    "ec": 24,
    "\u25810xf": 25,
    "0000": 26,
    "oc": 27,
    "\u25810x7": 28,
    "st": 29,
    "ad": 30,
    "re": 31,
    "000": 32,
    "eee": 33,
    "iti": 34,
    "\u25810xfeee": 35,
    "ue": 36,
    "on": 37,
    "le": 38,
    "\u25810x2": 39,
    "one": 40,
    "us": 41,
    "ss": 42,
    "pr": 43,
    "\u25810x12": 44,
    "proc": 45,
    "val": 46,
    "en": 47,
    "ls": 48,
    "48": 49,
    "value": 50,
    "cal": 51,
    "sec": 52,
    "tion": 53,
    "43": 54,
    "riti": 55,
    "calsec": 56,
    "riticalsec": 57,
    "user": 58,
    "getvalue": 59,
    "lsgetvalue": 60,
    "\u2581user": 61,
    "\u25810x121": 62,
    "\u2581getproc": 63,
    "\u2581n": 64,
    "\u2581user32": 65,
    "948": 66,
    "add": 67,
    "\u2581in": 68,
    "\u25810x243": 69,
    "\u25810x77": 70,
    "\u2581none": 71,
    "\u25810x243948": 72,
    "ress": 73,
    "address": 74,
    "\u2581getprocaddress": 75,
    "\u25810xfeee000": 76,
    "or": 77,
    "loc": 78,
    "ar": 79,
    "co": 80,
    "ff": 81,
    "ter": 82,
    "000000": 83,
    "an": 84,
    "\u25810x1211": 85,
    "\u2581s": 86,
    "de": 87,
    "ecriticalsec": 88,
    "ap": 89,
    "\u25810x77000000": 90,
    "at": 91,
    "\u25810x46": 92,
    "\u2581t": 93,
    "\u2581c": 94,
    "\u2581f": 95,
    "f0": 96,
    "la": 97,
    "err": 98,
    "error": 99,
    "\u2581d": 100,
    "last": 101,
    "lasterror": 102,
    "a0": 103,
    "\u25810xfeee0001": 104,
    "\u2581m": 105,
    "\u2581l": 106,
    "\u25810xfeee00": 107,
    "inf": 108,
    "iz": 109,
    "\u2581tlsgetvalue": 110,
    "aliz": 111,
    "\u25810x40": 112,
    "itializ": 113,
    "info": 114,
    "he": 115,
    "\u2581initializ": 116,
    "str": 117,
    "\u2581initializecriticalsec": 118,
    "\u25810x5": 119,
    "heap": 120,
    "\u2581en": 121,
    "har": 122,
    "po": 123,
    "\u25810x8": 124,
    "\u2581heap": 125,
    "90": 126,
    "and": 127,
    "alloc": 128,
    "mp": 129,
    "poin": 130,
    "\u25810xfa0": 131,
    "ex": 132,
    "li": 133,
    "\u2581set": 134,
    "pointer": 135,
    "dec": 136,
    "ac": 137,
    "ing": 138,
    "depointer": 139,
    "\u2581flsgetvalue": 140,
    "00000": 141,
    "string": 142,
    "\u25810x100": 143,
    "\u2581getc": 144,
    "it": 145,
    "oad": 146,
    "nt": 147,
    "ta": 148,
    "ent": 149,
    "\u2581load": 150,
    "em": 151,
    "d0": 152,
    "onex": 153,
    "om": 154,
    "nex": 155,
    "\u2581w": 156,
    "let": 157,
    "local": 158,
    "rt": 159,
    "lea": 160,
    "ow": 161,
    "tionex": 162,
    "\u2581initializecriticalsectionex": 163,
    "\u2581char": 164,
    "\u2581charnex": 165,
    "\u25810x45": 166,
    "tr": 167,
    "\u25810xc": 168,
    "40": 169,
    "pinfo": 170,
    "\u2581getlasterror": 171,
    "\u25810x10": 172,
    "\u25810x3": 173,
    "\u2581heapalloc": 174,
    "fi": 175,
    "is": 176,
    "\u2581setlasterror": 177,
    "10": 178,
    "\u25810x400000": 179,
    "by": 180,
    "exw": 181,
    "ion": 182,
    "byt": 183,
    "\u2581enco": 184,
    "\u2581encodepointer": 185,
    "\u2581getcpinfo": 186,
    "ble": 187,
    "\u25810x1000": 188,
    "\u25810x41": 189,
    "locale": 190,
    "bc": 191,
    "e4": 192,
    "ffff": 193,
    "hand": 194,
    "a5": 195,
    "\u2581loadstring": 196,
    "f8": 197,
    "unt": 198,
    "dco": 199,
    "ess": 200,
    "\u2581init": 201,
    "\u2581ms": 202,
    "read": 203,
    "tw": 204,
    "stat": 205,
    "\u25810x45f0": 206,
    "ecriticalsection": 207,
    "ans": 208,
    "count": 209,
    "status": 210,
    "atom": 211,
    "que": 212,
    "\u2581getcpinfoexw": 213,
    "\u25810x243948c": 214,
    "lient": 215,
    "dcomp": 216,
    "action": 217,
    "table": 218,
    "queue": 219,
    "trans": 220,
    "letion": 221,
    "queuedcomp": 222,
    "letionstatus": 223,
    "queuedcompletionstatus": 224,
    "\u2581ddec": 225,
    "\u2581getqueuedcompletionstatus": 226,
    "transaction": 227,
    "\u2581ddeclient": 228,
    "\u2581ddeclienttransaction": 229,
    "atomtable": 230,
    "\u25810x2439480": 231,
    "\u25810x2439484": 232,
    "\u25810x2439488": 233,
    "\u2581initatomtable": 234,
    "leav": 235,
    "\u2581leav": 236,
    "\u2581leavecriticalsection": 237,
    "\u2581enter": 238,
    "criticalsec": 239,
    "criticalsection": 240,
    "\u2581entercriticalsection": 241,
    "ind": 242,
    "mo": 243,
    "vc": 244,
    "\u25810xc000": 245,
    "ul": 246,
    "\u2581initializecriticalsection": 247,
    "\u2581msvc": 248,
    "\u2581is": 249,
    "\u2581msvcrt": 250,
    "vi": 251,
    "\u25810xff": 252,
    "\u25810x40a5": 253,
    "localeinfo": 254,
    "\u2581getlocaleinfo": 255,
    "eco": 256,
    "du": 257,
    "\u25810x43": 258,
    "\u25810x46d0": 259,
    "\u25810x4e4": 260,
    "70": 261,
    "\u25810x6": 262,
    "ur": 263,
    "18": 264,
    "dule": 265,
    "78": 266,
    "module": 267,
    "ll": 268,
    "yst": 269,
    "ed": 270,
    "\u2581getmodule": 271,
    "93": 272,
    "\u25810x4690": 273,
    "indow": 274,
    "\u2581charnextw": 275,
    "ystem": 276,
    "20": 277,
    "ulti": 278,
    "idec": 279,
    "ultibyt": 280,
    "idechar": 281,
    "c0": 282,
    "handle": 283,
    "50": 284,
    "30": 285,
    "\u25810x1210": 286,
    "b0": 287,
    "\u25810x7d": 288,
    "\u2581dll": 289,
    "98": 290,
    "\u25810x1211c": 291,
    "op": 292,
    "66": 293,
    "cmp": 294,
    "\u2581deco": 295,
    "\u2581decodepointer": 296,
    "sp": 297,
    "file": 298,
    "\u25810x42": 299,
    "fr": 300,
    "indows": 301,
    "process": 302,
    "\u25810x78": 303,
    "e0": 304,
    "28": 305,
    "\u25810x46f0": 306,
    "me": 307,
    "60": 308,
    "\u2581windows": 309,
    "spin": 310,
    "spincount": 311,
    "andspincount": 312,
    "\u2581initializecriticalsectionandspincount": 313,
    "\u2581loadstringa": 314,
    "\u2581charnexta": 315,
    "\u25810x1211f": 316,
    "\u2581mem": 317,
    "\u25810x7e": 318,
    "yp": 319,
    "\u2581memcmp": 320,
    "ce": 321,
    "\u25810xfeee001": 322,
    "\u25810x41f0": 323,
    "\u25810x41f040": 324,
    "\u25810xfffff": 325,
    "ey": 326,
    "10000": 327,
    "\u25810xfffffff": 328,
    "rent": 329,
    "urrent": 330,
    "reat": 331,
    "ge": 332,
    "ment": 333,
    "hread": 334,
    "\u25810x4093": 335,
    "id": 336,
    "\u25810xf00": 337,
    "ual": 338,
    "\u2581system": 339,
    "virt": 340,
    "virtual": 341,
    "\u25810x10c": 342,
    "\u2581system32": 343,
    "ary": 344,
    "free": 345,
    "\u2581getlocaleinfoa": 346,
    "br": 347,
    "d8": 348,
    "\u25810x44": 349,
    "a8": 350,
    "\u2581a": 351,
    "b8": 352,
    "\u2581loadstringw": 353,
    "sle": 354,
    "\u2581creat": 355,
    "\u2581multibyt": 356,
    "etow": 357,
    "etowidechar": 358,
    "\u2581multibytetowidechar": 359,
    "dbc": 360,
    "var": 361,
    "\u2581getst": 362,
    "brary": 363,
    "\u2581virtual": 364,
    "age": 365,
    "adbyt": 366,
    "dbcsle": 367,
    "\u2581isdbcsle": 368,
    "\u2581isdbcsleadbyt": 369,
    "\u2581isdbcsleadbyte": 370,
    "key": 371,
    "cc": 372,
    "ect": 373,
    "un": 374,
    "58": 375,
    "di": 376,
    "\u25810x52": 377,
    "\u2581getti": 378,
    "hi": 379,
    "38": 380,
    "68": 381,
    "\u25810x47": 382,
    "thread": 383,
    "ck": 384,
    "lo": 385,
    "64": 386,
    "ckcount": 387,
    "\u2581gettickcount": 388,
    "lock": 389,
    "\u2581p": 390,
    "qu": 391,
    "14": 392,
    "ype": 393,
    "d4": 394,
    "94": 395,
    "34": 396,
    "map": 397,
    "so": 398,
    "library": 399,
    "c8": 400,
    "\u2581getlocaleinfow": 401,
    "\u2581re": 402,
    "\u2581getcurrent": 403,
    "12": 404,
    "e8": 405,
    "quer": 406,
    "def": 407,
    "\u2581g": 408,
    "filet": 409,
    "\u25810x9": 410,
    "na": 411,
    "open": 412,
    "\u2581heapfree": 413,
    "\u2581inter": 414,
    "handlew": 415,
    "\u2581lc": 416,
    "rst": 417,
    "\u25810x7de": 418,
    "\u2581lcmap": 419,
    "\u2581lcmapstring": 420,
    "f4": 421,
    "d10000": 422,
    "\u25810x4c": 423,
    "\u25810x1211d": 424,
    "\u25810x5f8": 425,
    "\u25810x77d10000": 426,
    "\u25810x5f800000": 427,
    "\u2581var": 428,
    "\u2581getmodulehandlew": 429,
    "\u25810x400": 430,
    "\u25810x18": 431,
    "69": 432,
    "ut": 433,
    "\u2581interlock": 434,
    "\u25810xffffffff": 435,
    "a4": 436,
    "ers": 437,
    "2c": 438,
    "\u2581ap": 439,
    "\u2581loadlibrary": 440,
    "65": 441,
    "\u2581create": 442,
    "7c": 443,
    "ol": 444,
    "\u2581interlocked": 445,
    "\u2581gets": 446,
    "rement": 447,
    "\u25810x1211e": 448,
    "\u25810x90": 449,
    "of": 450,
    "tom": 451,
    "ultibyte": 452,
    "\u2581widechar": 453,
    "tomultibyte": 454,
    "\u2581widechartomultibyte": 455,
    "ch": 456,
    "\u25810x20": 457,
    "74": 458,
    "75": 459,
    "\u2581local": 460,
    "\u25810x1c": 461,
    "dc": 462,
    "\u2581getmodulehand": 463,
    "da": 464,
    "vw": 465,
    "\u2581reg": 466,
    "1c": 467,
    "\u2581getmodulehandlea": 468,
    "b4": 469,
    "lm": 470,
    "\u25810x12117": 471,
    "orm": 472,
    "xy": 473,
    "xyz": 474,
    "ghi": 475,
    "klm": 476,
    "nop": 477,
    "\u2581abc": 478,
    "uvw": 479,
    "qrst": 480,
    "uvwxyz": 481,
    "nopqrst": 482,
    "defghi": 483,
    "nopqrstuvwxyz": 484,
    "\u2581abcdefghi": 485,
    "klmnopqrstuvwxyz": 486,
    "mm": 487,
    "56": 488,
    "\u25810x70": 489,
    "\u2581co": 490,
    "19": 491,
    "are": 492,
    "\u25810xfeee0004": 493,
    "rect": 494,
    "name": 495,
    "\u25810x4610": 496,
    "vers": 497,
    "\u2581ex": 498,
    "\u2581getsystem": 499,
    "fc": 500,
    "\u2581read": 501,
    "\u25810xfeee002": 502,
    "3c": 503,
    "ic": 504,
    "\u2581h": 505,
    "42": 506,
    "bad": 507,
    "\u2581getfilet": 508,
    "es": 509,
    "\u2581getfiletype": 510,
    "aa": 511,
    "emp": 512,
    "\u25810x1210e": 513,
    "dhandle": 514,
    "9c": 515,
    "\u25811": 516,
    "art": 517,
    "query": 518,
    "fe": 519,
    "rit": 520,
    "\u25810x3f": 521,
    "rector": 522,
    "71": 523,
    "\u2581getstdhandle": 524,
    "rite": 525,
    "54": 526,
    "\u25810x1211c98": 527,
    "\u25810x4378": 528,
    "6c": 529,
    "\u25810x12119": 530,
    "91": 531,
    "\u25810x5266": 532,
    "\u25810xa": 533,
    "list": 534,
    "\u25810x78000000": 535,
    "ptr": 536,
    "\u2581isbad": 537,
    "onso": 538,
    "sset": 539,
    "ron": 540,
    "\u2581virtualquery": 541,
    "\u25810xcd": 542,
    "inc": 543,
    "readptr": 544,
    "\u2581isbadreadptr": 545,
    "viron": 546,
    "\u25810x54": 547,
    "\u2581lcmapstringw": 548,
    "\u25810x200": 549,
    "\u25810x48": 550,
    "onsole": 551,
    "\u2581hkey": 552,
    "tware": 553,
    "lsset": 554,
    "lssetvalue": 555,
    "f5": 556,
    "filename": 557,
    "\u2581interlockedinc": 558,
    "\u2581interlockedincrement": 559,
    "vironment": 560,
    "\u2581sof": 561,
    "\u2581se": 562,
    "\u2581software": 563,
    "\u25810xfeee0002": 564,
    "\u2581b": 565,
    "lsalloc": 566,
    "15": 567,
    "24": 568,
    "artu": 569,
    "b7": 570,
    "\u2581lstr": 571,
    "\u25810xfeee0000": 572,
    "\u2581open": 573,
    "\u25810x1211c18": 574,
    "\u25810x7d90": 575,
    "\u2581fr": 576,
    "67": 577,
    "artupinfo": 578,
    "\u2581getstartupinfo": 579,
    "\u25810xfff": 580,
    "\u25810x104": 581,
    "rectory": 582,
    "api": 583,
    "fa": 584,
    "3d": 585,
    "\u2581getmodulefilename": 586,
    "\u25810xfeee008": 587,
    "erf": 588,
    "1a": 589,
    "b5": 590,
    "comm": 591,
    "\u2581getcurrentthread": 592,
    "f9": 593,
    "line": 594,
    "strings": 595,
    "andline": 596,
    "\u25810xfeee0003": 597,
    "se": 598,
    "\u25810x79": 599,
    "d2": 600,
    "\u2581getcurrentthreadid": 601,
    "arch": 602,
    "\u2581getcomm": 603,
    "\u25810xfeee005": 604,
    "\u2581getcommandline": 605,
    "\u25810x800": 606,
    "\u2581apis": 607,
    "\u25810x80": 608,
    "\u2581getconsole": 609,
    "ation": 610,
    "\u2581localalloc": 611,
    "db": 612,
    "\u2581current": 613,
    "\u25810xfeee004": 614,
    "eex": 615,
    "3e": 616,
    "\u25810x4670": 617,
    "vironmentstrings": 618,
    "processlist": 619,
    "\u2581getconsoleprocesslist": 620,
    "dr": 621,
    "\u25810x1210f": 622,
    "\u2581ad": 623,
    "time": 624,
    "\u2581virtualalloc": 625,
    "version": 626,
    "e5": 627,
    "api32": 628,
    "88": 629,
    "35": 630,
    "\u25812": 631,
    "\u2581gdi": 632,
    "b2": 633,
    "valid": 634,
    "\u25810x49": 635,
    "write": 636,
    "\u2581adv": 637,
    "ot": 638,
    "\u25810xfeee0005": 639,
    "\u2581advapi32": 640,
    "bf": 641,
    "pre": 642,
    "\u25810x14": 643,
    "from": 644,
    "tin": 645,
    "locales": 646,
    "\u2581temp": 647,
    "\u2581flssetvalue": 648,
    "iv": 649,
    "vironmentstringsw": 650,
    "a2": 651,
    "\u25810x88": 652,
    "up": 653,
    "\u25810x5265": 654,
    "d6": 655,
    "b9": 656,
    "\u25810xf003": 657,
    "\u2581flsalloc": 658,
    "as": 659,
    "b6": 660,
    "\u2581de": 661,
    "\u25810x7de0": 662,
    "\u2581gdi32": 663,
    "\u25810xf002": 664,
    "44": 665,
    "\u25810xf001": 666,
    "\u2581search": 667,
    "16": 668,
    "72": 669,
    "\u2581getcurrentprocess": 670,
    "\u2581page": 671,
    "\u2581getprocess": 672,
    "\u2581find": 673,
    "\u25810x7f": 674,
    "mess": 675,
    "directory": 676,
    "789": 677,
    "3f": 678,
    "\u2581loadlibraryexw": 679,
    "\u2581locales": 680,
    "a9": 681,
    "\u25810x77e": 682,
    "\u25810x77e10000": 683,
    "ile": 684,
    "\u2581x": 685,
    "df": 686,
    "ate": 687,
    "cep": 688,
    "be": 689,
    "11": 690,
    "80": 691,
    "\u25810x7e70": 692,
    "\u25810x7b": 693,
    "window": 694,
    "\u2581readwrite": 695,
    "\u25810x8000": 696,
    "\u25810x8c": 697,
    "1234": 698,
    "\u2581o": 699,
    "7e": 700,
    "56789": 701,
    "\u258101234": 702,
    "\u25810123456789": 703,
    "ab": 704,
    "ception": 705,
    "vari": 706,
    "a6": 707,
    "79": 708,
    "erform": 709,
    "\u2581getprocessheap": 710,
    "erforman": 711,
    "\u2581quer": 712,
    "\u2581queryp": 713,
    "\u2581queryperforman": 714,
    "ting": 715,
    "type": 716,
    "76": 717,
    "\u25810x50": 718,
    "pool": 719,
    "\u2581sl": 720,
    "d5": 721,
    "eep": 722,
    "lose": 723,
    "\u2581regopen": 724,
    "\u2581regopenkey": 725,
    "d1": 726,
    "\u25810xe": 727,
    "\u2581loadlibrarya": 728,
    "unter": 729,
    "filew": 730,
    "\u2581lcmapstringex": 731,
    "bo": 732,
    "\u25810xfeee0": 733,
    "\u2581sleep": 734,
    "ceco": 735,
    "cecounter": 736,
    "\u2581queryperformancecounter": 737,
    "1000": 738,
    "to": 739,
    "95": 740,
    "1e": 741,
    "message": 742,
    "um": 743,
    "\u25810x73": 744,
    "\u25810xfeee0006": 745,
    "dex": 746,
    "\u2581win": 747,
    "exa": 748,
    "\u2581getthread": 749,
    "\u25810x7000": 750,
    "\u2581invalid": 751,
    "\u25810x71": 752,
    "b3": 753,
    "sent": 754,
    "present": 755,
    "\u2581lstrle": 756,
    "c4": 757,
    "f6": 758,
    "ime": 759,
    "\u25810x7c": 760,
    "\u25810x7a": 761,
    "ant": 762,
    "92": 763,
    "int": 764,
    "\u25810x4a": 765,
    "\u25810x40a": 766,
    "py": 767,
    "9a": 768,
    "ba": 769,
    "acc": 770,
    "filetime": 771,
    "\u2581getstring": 772,
    "ber": 773,
    "\u2581geten": 774,
    "\u2581l1": 775,
    "dd": 776,
    "processor": 777,
    "\u2581getstringtype": 778,
    "ure": 779,
    "f1": 780,
    "\u25810xfeee0007": 781,
    "\u2581getsystemtime": 782,
    "\u2581sh": 783,
    "62": 784,
    "\u25810xffc": 785,
    "l66": 786,
    "\u25810x33": 787,
    "lob": 788,
    "\u2581getstringtypew": 789,
    "\u25810x102": 790,
    "\u2581ws": 791,
    "ob": 792,
    "\u2581glob": 793,
    "ethread": 794,
    "\u25810x78c": 795,
    "\u2581getstartupinfoa": 796,
    "7b": 797,
    "\u25810x78c00000": 798,
    "\u2581li": 799,
    "fil": 800,
    "7a": 801,
    "l6660": 802,
    "\u2581api": 803,
    "\u25810x7f8": 804,
    "ction": 805,
    "bd": 806,
    "\u2581r": 807,
    "73": 808,
    "b1": 809,
    "\u2581core": 810,
    "\u2581getac": 811,
    "\u25810x12116": 812,
    "ature": 813,
    "\u25810x4c42": 814,
    "feature": 815,
    "\u2581isprocessor": 816,
    "featurepresent": 817,
    "\u2581isprocessorfeaturepresent": 818,
    "a40": 819,
    "4c": 820,
    "\u2581getacp": 821,
    "asfiletime": 822,
    "\u25810xfeee003": 823,
    "\u25810x120": 824,
    "9e": 825,
    "drl6660": 826,
    "\u2581getmodulefilenamew": 827,
    "\u25810x7d91": 828,
    "\u25810x75": 829,
    "ad0": 830,
    "22": 831,
    "ive": 832,
    "5c": 833,
    "\u2581bor": 834,
    "b00": 835,
    "\u2581interlockeddec": 836,
    "\u2581interlockeddecrement": 837,
    "08": 838,
    "63": 839,
    "\u2581key": 840,
    "\u2581getcommandlinea": 841,
    "sour": 842,
    "gu": 843,
    "access": 844,
    "messagea": 845,
    "\u25810x4e": 846,
    "\u2581str": 847,
    "2e": 848,
    "7d": 849,
    "day": 850,
    "\u2581getsystemtimeasfiletime": 851,
    "hel": 852,
    "\u25810x30": 853,
    "\u2581borl": 854,
    "\u25810xd": 855,
    "\u25810x12115": 856,
    "61": 857,
    "dexception": 858,
    "\u2581getmodulefilenamea": 859,
    "\u2581borland": 860,
    "filter": 861,
    "hine": 862,
    "\u2581mac": 863,
    "directoryw": 864,
    "unhandle": 865,
    "dexceptionfilter": 866,
    "unhandledexceptionfilter": 867,
    "\u2581machine": 868,
    "source": 869,
    "\u25810x13": 870,
    "drl6660drl6660": 871,
    "\u25810x4350": 872,
    "\u25810x435": 873,
    "\u25810x72": 874,
    "men": 875,
    "\u2581library": 876,
    "\u2581dr": 877,
    "7f": 878,
    "41": 879,
    "\u25810x4d": 880,
    "\u2581getcurrentprocessid": 881,
    "ating": 882,
    "\u2581getstartupinfow": 883,
    "inform": 884,
    "\u25810x7f800": 885,
    "ay": 886,
    "\u2581delet": 887,
    "menu": 888,
    "ait": 889,
    "\u2581regi": 890,
    "ib": 891,
    "il": 892,
    "\u25810xffe": 893,
    "8c": 894,
    "a1": 895,
    "\u25810x1211c90": 896,
    "cpy": 897,
    "ack": 898,
    "information": 899,
    "\u25810x7890": 900,
    "fd": 901,
    "\u25810x1211dc0": 902,
    "ock": 903,
    "fromstr": 904,
    "\u25810x7de1": 905,
    "\u25810x169": 906,
    "ae": 907,
    "99": 908,
    "55": 909,
    "\u2581pf": 910,
    "\u25810x74": 911,
    "handl": 912,
    "33": 913,
    "eeen": 914,
    "\u2581freeen": 915,
    "stru": 916,
    "utes": 917,
    "\u25810x32": 918,
    "\u25810x76": 919,
    "\u25810x1211e0": 920,
    "\u25810x47b0": 921,
    "ionex": 922,
    "\u2581getvers": 923,
    "\u2581getversionex": 924,
    "struction": 925,
    "con": 926,
    "\u25810x3394": 927,
    "\u2581getthreadlocale": 928,
    "\u25817": 929,
    "\u25810xb": 930,
    "\u2581getcommandlinew": 931,
    "icon": 932,
    "\u2581free": 933,
    "\u25810x569": 934,
    "106": 935,
    "\u2581global": 936,
    "f2": 937,
    "ith": 938,
    "\u2581setunhandledexceptionfilter": 939,
    "ies": 940,
    "print": 941,
    "all": 942,
    "\u25810x220": 943,
    "\u25810x422": 944,
    "84": 945,
    "mode": 946,
    "\u25810x44f8": 947,
    "\u25810x2a": 948,
    "\u2581getenvironmentstringsw": 949,
    "04": 950,
    "\u2581freeenvironmentstringsw": 951,
    "\u2581getversion": 952,
    "\u25810x69": 953,
    "\u25810x4000": 954,
    "filea": 955,
    "menuinfo": 956,
    "\u25810x70cc": 957,
    "tim": 958,
    "\u25810x4750": 959,
    "ai": 960,
    "\u25810x7ee": 961,
    "\u25810x5265c": 962,
    "\u25810xfffffff6": 963,
    "6e": 964,
    "first": 965,
    "\u2581setmenuinfo": 966,
    "\u2581regopenkeyexw": 967,
    "\u25810x12116d8": 968,
    "\u25810xfffffff5": 969,
    "db10": 970,
    "\u25810xfffffff4": 971,
    "\u2581setfile": 972,
    "loating": 973,
    "bu": 974,
    "f3": 975,
    "ork": 976,
    "\u25810x770": 977,
    "ult": 978,
    "\u25810x7e71": 979,
    "\u25810x1211918": 980,
    "eb": 981,
    "ro": 982,
    "creat": 983,
    "a3": 984,
    "db10106": 985,
    "\u25810x1db10106": 986,
    "77": 987,
    "00c": 988,
    "defa": 989,
    "ethreadpool": 990,
    "\u25810x56": 991,
    "default": 992,
    "908": 993,
    "yo": 994,
    "date": 995,
    "urs": 996,
    "\u2581al": 997,
    "\u25810x105": 998,
    "\u2581i": 999,
    "dep": 1000,
    "d3": 1001,
    "96": 1002,
    "\u25810x4b": 1003,
    "vai": 1004,
    "vaila": 1005,
    "vailable": 1006,
    "\u25810xf0019": 1007,
    "\u25817z": 1008,
    "\u25810x9000": 1009,
    "\u2581write": 1010,
    "lic": 1011,
    "num": 1012,
    "ov": 1013,
    "eexw": 1014,
    "9f": 1015,
    "\u2581process": 1016,
    "af": 1017,
    "\u2581lstrlena": 1018,
    "1b": 1019,
    "losehandle": 1020,
    "\u2581getfile": 1021,
    "timer": 1022,
    "nw": 1023,
    "\u2581closehandle": 1024,
    "\u25810x40a5ce": 1025,
    "\u25810x40a5d0": 1026,
    "\u25810x40a5d2": 1027,
    "\u25810x40a5d4": 1028,
    "\u25810x40a5d6": 1029,
    "\u25810x40a5d8": 1030,
    "\u25810x40a5da": 1031,
    "\u2581access": 1032,
    "dll": 1033,
    "\u2581available": 1034,
    "ag": 1035,
    "create": 1036,
    "97": 1037,
    "25": 1038,
    "\u2581process32": 1039,
    "\u25810x1f4": 1040,
    "13": 1041,
    "\u2581lread": 1042,
    "\u25810x1211cf8": 1043,
    "\u2581wsprint": 1044,
    "9d": 1045,
    "6d": 1046,
    "resource": 1047,
    "\u25810x53": 1048,
    "\u25810x21000": 1049,
    "ervi": 1050,
    "a7": 1051,
    "\u25810x50000": 1052,
    "\u2581strn": 1053,
    "\u25810x1f400": 1054,
    "bb": 1055,
    "eric": 1056,
    "point": 1057,
    "ecut": 1058,
    "\u2581instruction": 1059,
    "work": 1060,
    "f7": 1061,
    "i64": 1062,
    "\u2581xmm": 1063,
    "\u2581xmmi64": 1064,
    "\u2581instructions": 1065,
    "f10000": 1066,
    "low": 1067,
    "a80": 1068,
    "\u2581getsystemdirectoryw": 1069,
    "\u2581strncmp": 1070,
    "aps": 1071,
    "\u25810x77f10000": 1072,
    "put": 1073,
    "\u2581setthread": 1074,
    "able": 1075,
    "eek": 1076,
    "\u2581regist": 1077,
    "\u25810x43780": 1078,
    "e1": 1079,
    "900": 1080,
    "not": 1081,
    "\u25810x8810": 1082,
    "\u2581vari": 1083,
    "\u25810x3f75": 1084,
    "\u25810x82": 1085,
    "e9": 1086,
    "52": 1087,
    "met": 1088,
    "d9": 1089,
    "e7": 1090,
    "\u25810x12114": 1091,
    "\u25810x7830": 1092,
    "lass": 1093,
    "\u2581with": 1094,
    "\u2581floating": 1095,
    "\u2581heapcreate": 1096,
    "vali": 1097,
    "ors": 1098,
    "leas": 1099,
    "variable": 1100,
    "\u2581map": 1101,
    "\u2581alter": 1102,
    "\u2581altered": 1103,
    "\u25810x1211e2c": 1104,
    "ecute": 1105,
    "validco": 1106,
    "close": 1107,
    "\u25810x2c": 1108,
    "ition": 1109,
    "term": 1110,
    "dition": 1111,
    "sof": 1112,
    "\u25810x19": 1113,
    "edc": 1114,
    "erflow": 1115,
    "depage": 1116,
    "\u25810x8a": 1117,
    "\u2581isvalidco": 1118,
    "\u2581isvalidcodepage": 1119,
    "\u25810x44f9": 1120,
    "\u25810x1211dcc": 1121,
    "c2": 1122,
    "lus": 1123,
    "\u2581peek": 1124,
    "\u2581shel": 1125,
    "002": 1126,
    "\u2581ole": 1127,
    "ecount": 1128,
    "\u2581clo": 1129,
    "31": 1130,
    "\u25810x569b00": 1131,
    "cec": 1132,
    "itprocess": 1133,
    "set": 1134,
    "\u25810x46b0": 1135,
    "\u25810x7ec": 1136,
    "e2": 1137,
    "ity": 1138,
    "\u25810xfeee0008": 1139,
    "\u2581peekmessagea": 1140,
    "und": 1141,
    "ursor": 1142,
    "handlecount": 1143,
    "end": 1144,
    "\u25810x1211758": 1145,
    "\u2581sethandlecount": 1146,
    "\u2581tlssetvalue": 1147,
    "ub": 1148,
    "ea": 1149,
    "\u2581freelibrary": 1150,
    "bc0": 1151,
    "\u25810x4428": 1152,
    "\u25810x7810": 1153,
    "\u2581register": 1154,
    "lsfree": 1155,
    "45": 1156,
    "angu": 1157,
    "\u25810xfeee0009": 1158,
    "anguage": 1159,
    "soft": 1160,
    "\u2581tlsalloc": 1161,
    "\u2581th": 1162,
    "\u25810xfeee000a": 1163,
    "fw": 1164,
    "\u25810xfeee000b": 1165,
    "\u25810x28": 1166,
    "\u2581wsprintfw": 1167,
    "e6": 1168,
    "\u25810xfeee000c": 1169,
    "icro": 1170,
    "\u25810x4967": 1171,
    "icrosoft": 1172,
    "308": 1173,
    "\u2581file": 1174,
    "\u25810x60": 1175,
    "ilanguage": 1176,
    "\u25810xfeee000e": 1177,
    "\u25810xfeee000d": 1178,
    "\u25810x4630": 1179,
    "\u25810x410": 1180,
    "\u25810x1e": 1181,
    "\u2581gen": 1182,
    "\u25810xfeee000f": 1183,
    "17": 1184,
    "\u2581wc": 1185,
    "\u25810x4c42c0": 1186,
    "\u25810x8ad0": 1187,
    "\u25810x38": 1188,
    "\u2581lstrlenw": 1189,
    "\u2581regopenkeyexa": 1190,
    "\u2581microsoft": 1191,
    "\u25810x7f00": 1192,
    "keyw": 1193,
    "\u2581drive": 1194,
    "\u2581releas": 1195,
    "\u25810x460": 1196,
    "boar": 1197,
    "\u2581clos": 1198,
    "gi": 1199,
    "wait": 1200,
    "\u2581createfilew": 1201,
    "\u25810xfeee0010": 1202,
    "\u25810x8b": 1203,
    "\u2581generic": 1204,
    "\u25810xfeee0014": 1205,
    "lor": 1206,
    "\u25810xfeee01": 1207,
    "\u25810xfeee0015": 1208,
    "\u25810xfeee0013": 1209,
    "\u25810x69000000": 1210,
    "\u25810x1211908": 1211,
    "\u25810xfeee0012": 1212,
    "\u25810xfeee0016": 1213,
    "\u25810xfeee0011": 1214,
    "\u25810x1211e04": 1215,
    "\u25810x8d": 1216,
    "\u25810x11": 1217,
    "attr": 1218,
    "cursor": 1219,
    "sc": 1220,
    "\u25810x12114b8": 1221,
    "attrib": 1222,
    "edi": 1223,
    "6a": 1224,
    "iled": 1225,
    "ervice": 1226,
    "\u2581currentversion": 1227,
    "\u25810x1211718": 1228,
    "\u25810x1a": 1229,
    "attributes": 1230,
    "\u2581lstrcpy": 1231,
    "\u25810x5265c14": 1232,
    "realloc": 1233,
    "\u25810x22": 1234,
    "\u25810x1211dd4": 1235,
    "\u2581flsfree": 1236,
    "\u25810x1211b": 1237,
    "\u2581pr": 1238,
    "\u2581st": 1239,
    "\u25810x1075": 1240,
    "930": 1241,
    "number": 1242,
    "ero": 1243,
    "\u2581creates": 1244,
    "der": 1245,
    "\u25810x5f5": 1246,
    "ts": 1247,
    "\u25810x44f8e0": 1248,
    "\u25813": 1249,
    "6b": 1250,
    "\u2581con": 1251,
    "div": 1252,
    "\u25810x12117f8": 1253,
    "51": 1254,
    "ett": 1255,
    "\u2581mapvirtual": 1256,
    "alett": 1257,
    "fb": 1258,
    "\u2581loadcursor": 1259,
    "ame": 1260,
    "\u2581mapvirtualkeyw": 1261,
    "\u2581loadicon": 1262,
    "\u25810x7e8": 1263,
    "ip": 1264,
    "\u25810x17": 1265,
    "\u2581findfirst": 1266,
    "\u25810x1f": 1267,
    "\u25810x4c32": 1268,
    "\u2581variant": 1269,
    "\u2581sy": 1270,
    "ata": 1271,
    "\u2581virtualfree": 1272,
    "oper": 1273,
    "\u25810x15": 1274,
    "\u25810x2e": 1275,
    "39": 1276,
    "ision": 1277,
    "ember": 1278,
    "ockob": 1279,
    "\u2581getstockob": 1280,
    "\u25810x12118": 1281,
    "\u25810x42a40": 1282,
    "5e": 1283,
    "\u2581gett": 1284,
    "1d": 1285,
    "bug": 1286,
    "ord": 1287,
    "adwork": 1288,
    "variant": 1289,
    "ee0": 1290,
    "2000": 1291,
    "180": 1292,
    "\u25810x7aa0": 1293,
    "off": 1294,
    "de9": 1295,
    "directorya": 1296,
    "\u25810x2000": 1297,
    "operation": 1298,
    "\u25810x101": 1299,
    "6f": 1300,
    "\u25810x408": 1301,
    "\u25810x437": 1302,
    "\u25810x1211f8": 1303,
    "\u25810x79d0": 1304,
    "\u25810x429": 1305,
    "780": 1306,
    "\u2581findclose": 1307,
    "\u25810x5f500000": 1308,
    "5f": 1309,
    "debug": 1310,
    "edirectory": 1311,
    "\u25810xfeee0017": 1312,
    "\u2581execute": 1313,
    "\u25810xfeee0018": 1314,
    "\u25810x4ab0": 1315,
    "\u25810x40a58": 1316,
    "bstr": 1317,
    "bstrfrom": 1318,
    "\u2581varbstrfrom": 1319,
    "\u2581exitprocess": 1320,
    "\u25810xfeee0019": 1321,
    "\u2581shell32": 1322,
    "\u2581gettemp": 1323,
    "rectories": 1324,
    "color": 1325,
    "offile": 1326,
    "\u25810x40933d": 1327,
    "\u25810x40933e": 1328,
    "\u25810x40933f": 1329,
    "\u25810x409340": 1330,
    "\u25810x409341": 1331,
    "\u25810x409342": 1332,
    "\u25810x409343": 1333,
    "\u2581heaprealloc": 1334,
    "\u2581code": 1335,
    "\u2581delete": 1336,
    "\u2581process32nex": 1337,
    "400": 1338,
    "\u2581setfilepointer": 1339,
    "\u25810x51a": 1340,
    "directories": 1341,
    "\u25810x64": 1342,
    "input": 1343,
    "508": 1344,
    "class": 1345,
    "\u25810x4c43": 1346,
    "29": 1347,
    "\u25810x16": 1348,
    "\u25810x4e5": 1349,
    "\u2581app": 1350,
    "\u2581readfile": 1351,
    "480": 1352,
    "3a": 1353,
    "ditionvariable": 1354,
    "gear": 1355,
    "\u2581codegear": 1356,
    "\u2581setdefault": 1357,
    "\u2581getuser": 1358,
    "prot": 1359,
    "37": 1360,
    "lp": 1361,
    "dlldirectories": 1362,
    "\u2581setdefaultdlldirectories": 1363,
    "2a": 1364,
    "drl6660drl6660drl6660drl6660": 1365,
    "\u2581getdc": 1366,
    "older": 1367,
    "36": 1368,
    "\u2581getversionexw": 1369,
    "\u25810x1211dc8": 1370,
    "26": 1371,
    "og": 1372,
    "\u25810x409": 1373,
    "eg": 1374,
    "\u25810x68": 1375,
    "300": 1376,
    "\u25810x169bf": 1377,
    "\u25810x8f": 1378,
    "\u2581fa": 1379,
    "nch": 1380,
    "21": 1381,
    "board": 1382,
    "c6": 1383,
    "protect": 1384,
    "\u2581e": 1385,
    "form": 1386,
    "\u25810xfde9": 1387,
    "ho": 1388,
    "chan": 1389,
    "load": 1390,
    "\u2581synch": 1391,
    "c5": 1392,
    "280": 1393,
    "\u25810x3e": 1394,
    "lphi": 1395,
    "\u25810x700c": 1396,
    "\u2581delphi": 1397,
    "\u2581virtualprotect": 1398,
    "\u2581initterm": 1399,
    "ys": 1400,
    "\u25810x1211528": 1401,
    "e44": 1402,
    "devi": 1403,
    "ef": 1404,
    "\u25810x79f0": 1405,
    "rw": 1406,
    "\u2581mon": 1407,
    "arg": 1408,
    "\u25810xfeee001a": 1409,
    "27": 1410,
    "\u25810x58": 1411,
    "\u2581wait": 1412,
    "\u25810x67": 1413,
    "\u2581getversionexa": 1414,
    "help": 1415,
    "\u25810x3000": 1416,
    "\u25810x704c": 1417,
    "folder": 1418,
    "\u25810x708c": 1419,
    "fo": 1420,
    "2b": 1421,
    "\u2581deletecriticalsection": 1422,
    "\u25810x21": 1423,
    "eto": 1424,
    "\u2581out": 1425,
    "isting": 1426,
    "\u2581globalalloc": 1427,
    "e80": 1428,
    "\u2581closethreadpool": 1429,
    "\u2581createthreadpool": 1430,
    "cd": 1431,
    "\u25810x1211fd8": 1432,
    "\u2581getdevi": 1433,
    "econ": 1434,
    "cecaps": 1435,
    "\u2581getdevicecaps": 1436,
    "mage": 1437,
    "call": 1438,
    "for": 1439,
    "\u2581malloc": 1440,
    "23": 1441,
    "\u2581com": 1442,
    "\u25810x1211fd0": 1443,
    "sti": 1444,
    "\u2581writefile": 1445,
    "\u25810x25": 1446,
    "vie": 1447,
    "ename": 1448,
    "\u2581comp": 1449,
    "2d": 1450,
    "\u2581loadlibraryw": 1451,
    "\u25810xfeee001b": 1452,
    "urity": 1453,
    "\u25810x2f": 1454,
    "b04": 1455,
    "back": 1456,
    "hec": 1457,
    "\u25810x10000": 1458,
    "your": 1459,
    "\u2581existing": 1460,
    "\u25810x40a5dc": 1461,
    "\u2581findfirstfilew": 1462,
    "\u25810x40a5cc": 1463,
    "\u2581exe": 1464,
    "zero": 1465,
    "c08": 1466,
    "\u25810x3f75f": 1467,
    "isk": 1468,
    "trol": 1469,
    "\u25810x1211f7c": 1470,
    "\u2581releasedc": 1471,
    "\u25810x430": 1472,
    "\u25810xfeee001c": 1473,
    "\u25810xa0": 1474,
    "cy": 1475,
    "security": 1476,
    "\u25810x4015": 1477,
    "\u25810x3c": 1478,
    "bit": 1479,
    "5d": 1480,
    "\u25810xfeee005f": 1481,
    "53": 1482,
    "arr": 1483,
    "\u25810x5a": 1484,
    "\u25810x198": 1485,
    "ct": 1486,
    "\u2581failed": 1487,
    "onts": 1488,
    "am": 1489,
    "\u2581createa": 1490,
    "\u25810x7850": 1491,
    "\u2581fonts": 1492,
    "initializ": 1493,
    "stit": 1494,
    "\u258120": 1495,
    "\u25810x29": 1496,
    "\u2581up": 1497,
    "\u25810xfeee001d": 1498,
    "ntr": 1499,
    "9b": 1500,
    "\u25810x43500": 1501,
    "ubstit": 1502,
    "ubstitutes": 1503,
    "\u2581fontsubstitutes": 1504,
    "\u25810xfeee008b": 1505,
    "fer": 1506,
    "\u25810x1211ef0": 1507,
    "\u25810x4f": 1508,
    "\u25810x4710": 1509,
    "\u25810x19a": 1510,
    "\u2581compare": 1511,
    "xt": 1512,
    "mem": 1513,
    "c1": 1514,
    "\u2581createdirectory": 1515,
    "\u25810x1211cc0": 1516,
    "640": 1517,
    "\u25810x12119c0": 1518,
    "e3": 1519,
    "own": 1520,
    "\u2581nt": 1521,
    "array": 1522,
    "eentr": 1523,
    "afe": 1524,
    "\u25810x7930": 1525,
    "\u25810x43b7": 1526,
    "net": 1527,
    "\u2581registerclass": 1528,
    "\u2581process32nextw": 1529,
    "console": 1530,
    "sup": 1531,
    "\u2581sat": 1532,
    "aw": 1533,
    "heck": 1534,
    "inal": 1535,
    "rwlock": 1536,
    "\u2581fib": 1537,
    "\u2581fibers": 1538,
    "1f": 1539,
    "2f": 1540,
    "\u25810x214": 1541,
    "\u2581comparestring": 1542,
    "\u25810x24": 1543,
    "\u25810x44f928": 1544,
    "lip": 1545,
    "\u2581nov": 1546,
    "\u25810x84": 1547,
    "\u2581sep": 1548,
    "stry": 1549,
    "ystemp": 1550,
    "\u2581getw": 1551,
    "\u25810x567": 1552,
    "callback": 1553,
    "b40": 1554,
    "pa": 1555,
    "prefer": 1556,
    "\u2581setthreadpool": 1557,
    "\u2581au": 1558,
    "\u2581oc": 1559,
    "d7": 1560,
    "\u2581apr": 1561,
    "\u25810x4600": 1562,
    "\u2581dec": 1563,
    "\u2581image": 1564,
    "660": 1565,
    "\u25810xfeee001e": 1566,
    "\u25810x1804": 1567,
    "\u2581sun": 1568,
    "59": 1569,
    "\u2581loadcursora": 1570,
    "eentries": 1571,
    "aletteentries": 1572,
    "uary": 1573,
    "\u25810x4790": 1574,
    "\u2581may": 1575,
    "sday": 1576,
    "\u2581tue": 1577,
    "\u2581wed": 1578,
    "\u2581createfilea": 1579,
    "\u2581error": 1580,
    "\u25810x188": 1581,
    "\u2581control": 1582,
    "files": 1583,
    "\u25810x1b": 1584,
    "\u2581ole32": 1585,
    "\u25810x40152c": 1586,
    "atex": 1587,
    "\u25810x1211948": 1588,
    "ilanguages": 1589,
    "informationby": 1590,
    "redu": 1591,
    "tex": 1592,
    "\u25810x34": 1593,
    "\u25810xcc": 1594,
    "\u2581setup": 1595,
    "preferredu": 1596,
    "preferreduilanguages": 1597,
    "ory": 1598,
    "\u25810x1211f48": 1599,
    "\u25810xa000": 1600,
    "\u25810xfeee001f": 1601,
    "hot": 1602,
    "suped": 1603,
    "\u25810x8a40": 1604,
    "variab": 1605,
    "ordinal": 1606,
    "\u2581getsystemp": 1607,
    "\u2581getsystempaletteentries": 1608,
    "\u25810xfeee0020": 1609,
    "\u2581ordinal": 1610,
    "yarg": 1611,
    "46": 1612,
    "\u25810x23": 1613,
    "\u2581imagelist": 1614,
    "c7": 1615,
    "\u25810x1211f30": 1616,
    "\u2581floatingpoint": 1617,
    "ics": 1618,
    "c3": 1619,
    "\u25810x1d": 1620,
    "\u25810x1211728": 1621,
    "\u2581invalidvariant": 1622,
    "overflow": 1623,
    "\u25810x1211d0": 1624,
    "byzero": 1625,
    "isionbyzero": 1626,
    "430": 1627,
    "\u25810x1211748": 1628,
    "attributesw": 1629,
    "errormode": 1630,
    "\u2581seterrormode": 1631,
    "938": 1632,
    "metr": 1633,
    "\u2581getsysteminfo": 1634,
    "metrics": 1635,
    "\u25810x7ee00": 1636,
    "\u2581crt": 1637,
    "\u25810x94": 1638,
    "spec": 1639,
    "sn": 1640,
    "bool": 1641,
    "\u25810x4c4308": 1642,
    "\u25810x85": 1643,
    "afearray": 1644,
    "\u2581varr": 1645,
    "4fromstr": 1646,
    "\u2581loadicona": 1647,
    "\u25810x423": 1648,
    "\u25810xffff": 1649,
    "5b": 1650,
    "\u25810x1211e08": 1651,
    "allock": 1652,
    "numberof": 1653,
    "\u25810x4371": 1654,
    "a50": 1655,
    "\u2581getsystemmetrics": 1656,
    "etool": 1657,
    "service": 1658,
    "help32": 1659,
    "\u2581createtool": 1660,
    "snaps": 1661,
    "help32snaps": 1662,
    "\u2581createtoolhelp32snaps": 1663,
    "ace": 1664,
    "\u2581globallock": 1665,
    "\u2581createtoolhelp32snapshot": 1666,
    "5000": 1667,
    "\u25810x43540": 1668,
    "lect": 1669,
    "\u2581getkey": 1670,
    "lush": 1671,
    "2030": 1672,
    "0000000": 1673,
    "57": 1674,
    "orsafearray": 1675,
    "de0": 1676,
    "\u25810x1211958": 1677,
    "\u25810x59": 1678,
    "\u25810x1211a": 1679,
    "\u2581getnumberof": 1680,
    "\u2581getnumberofconsole": 1681,
    "\u25810x1211b04": 1682,
    "emap": 1683,
    "b80": 1684,
    "\u25810x98": 1685,
    "\u2581lstrcmp": 1686,
    "\u25810x7d10": 1687,
    "\u2581tr": 1688,
    "pro": 1689,
    "\u25810x1210f8": 1690,
    "buff": 1691,
    "\u2581shget": 1692,
    "view": 1693,
    "scr": 1694,
    "gical": 1695,
    "logical": 1696,
    "\u2581getlogical": 1697,
    "\u25810x2d": 1698,
    "\u2581getenvironment": 1699,
    "\u25810x57": 1700,
    "100": 1701,
    "\u2581wcs": 1702,
    "mov": 1703,
    "inputs": 1704,
    "\u2581getnumberofconsoleinputs": 1705,
    "\u25810x1211bc0": 1706,
    "\u2581run": 1707,
    "\u25810x1211f28": 1708,
    "\u2581windowsnt": 1709,
    "94c": 1710,
    "\u2581process32first": 1711,
    "\u25810x7de4": 1712,
    "\u25810x7de5": 1713,
    "localename": 1714,
    "cf": 1715,
    "ac0": 1716,
    "\u25810x63": 1717,
    "\u2581registry": 1718,
    "yscolor": 1719,
    "\u2581getsyscolor": 1720,
    "\u25810x92": 1721,
    "\u25810x1211cec": 1722,
    "scrip": 1723,
    "3b": 1724,
    "esource": 1725,
    "\u25810x1211f64": 1726,
    "lation": 1727,
    "5a": 1728,
    "ak": 1729,
    "c9": 1730,
    "770": 1731,
    "aaaa": 1732,
    "\u2581select": 1733,
    "\u25810x1211f20": 1734,
    "\u25810x1210ec": 1735,
    "\u25810x8e": 1736,
    "stringa": 1737,
    "\u25810x1211ee0": 1738,
    "\u25810x41d1": 1739,
    "script": 1740,
    "438": 1741,
    "\u25810xfeee0040": 1742,
    "\u25810x1210d": 1743,
    "clus": 1744,
    "\u25810x8cc0": 1745,
    "\u25810x7ee0": 1746,
    "\u2581un": 1747,
    "a04": 1748,
    "49": 1749,
    "\u25810x83": 1750,
    "\u25810x437a": 1751,
    "clusive": 1752,
    "rwlockex": 1753,
    "rwlockexclusive": 1754,
    "b08": 1755,
    "slen": 1756,
    "\u2581beg": 1757,
    "\u2581wcslen": 1758,
    "\u25810x1211578": 1759,
    "\u25810x1211308": 1760,
    "\u2581flush": 1761,
    "\u2581createsemap": 1762,
    "c04": 1763,
    "\u25810x99": 1764,
    "ial": 1765,
    "\u25810x40f6": 1766,
    "erw": 1767,
    "descript": 1768,
    "securitydescript": 1769,
    "\u25810x12119ac": 1770,
    "\u2581initializes": 1771,
    "\u2581copy": 1772,
    "a256": 1773,
    "e08": 1774,
    "\u2581sha256": 1775,
    "4e": 1776,
    "\u25810x771": 1777,
    "paint": 1778,
    "memory": 1779,
    "320": 1780,
    "ownload": 1781,
    "\u2581createw": 1782,
    "cadwork": 1783,
    "\u2581gettempw": 1784,
    "\u25810x4c32c0": 1785,
    "cb": 1786,
    "\u2581wnet": 1787,
    "formatex": 1788,
    "\u2581wcscpy": 1789,
    "\u25810xfeee0072": 1790,
    "ull": 1791,
    "\u25810x2b": 1792,
    "208": 1793,
    "eextr": 1794,
    "93c": 1795,
    "3000": 1796,
    "\u2581begin": 1797,
    "ca": 1798,
    "\u25810x36": 1799,
    "dater": 1800,
    "\u25810x7910": 1801,
    "\u25810x52660": 1802,
    "\u25810x52662": 1803,
    "ire": 1804,
    "\u25810x1210900": 1805,
    "uilanguage": 1806,
    "ctl32": 1807,
    "\u25810x7ad0": 1808,
    "\u2581createwindow": 1809,
    "een": 1810,
    "\u2581comctl32": 1811,
    "\u25810x7cd0": 1812,
    "clip": 1813,
    "change": 1814,
    "\u25810x2d4": 1815,
    "\u2581start": 1816,
    "ee8": 1817,
    "\u25810x7ec0": 1818,
    "32c": 1819,
    "d80": 1820,
    "47": 1821,
    "f08": 1822,
    "conditionvariable": 1823,
    "ink": 1824,
    "\u25810x46e0": 1825,
    "\u25810x4238": 1826,
    "fac": 1827,
    "\u25810x1211fcc": 1828,
    "buffers": 1829,
    "708": 1830,
    "next": 1831,
    "\u25810x35": 1832,
    "\u25810x181b": 1833,
    "\u2581inst": 1834,
    "\u25810x37": 1835,
    "\u25810x80000000": 1836,
    "988": 1837,
    "bits": 1838,
    "eextra": 1839,
    "\u2581wak": 1840,
    "\u25810x5c": 1841,
    "rtl": 1842,
    "ask": 1843,
    "ast": 1844,
    "\u25810x40a5a0": 1845,
    "\u2581rtl": 1846,
    "\u25810xfeee0021": 1847,
    "\u25810x7d00": 1848,
    "\u25810x1211fd4": 1849,
    "\u25810x4418": 1850,
    "\u25810x1211780": 1851,
    "\u2581interlocke": 1852,
    "ger": 1853,
    "lec": 1854,
    "\u2581to": 1855,
    "\u2581getmess": 1856,
    "\u25810xfeee0022": 1857,
    "\u25810x1211f2c": 1858,
    "localtime": 1859,
    "\u25810x1211e44": 1860,
    "\u25810x47c0": 1861,
    "dateresource": 1862,
    "oy": 1863,
    "\u25810xfeee0027": 1864,
    "\u25810x31": 1865,
    "\u2581int": 1866,
    "\u25810x5265d": 1867,
    "\u25810x1212000": 1868,
    "system": 1869,
    "stroy": 1870,
    "\u25810x409a": 1871,
    "ageextra": 1872,
    "ageextrainfo": 1873,
    "\u2581getmessageextrainfo": 1874,
    "ryp": 1875,
    "9000": 1876,
    "\u25810xfeee0026": 1877,
    "\u2581txt": 1878,
    "9c1": 1879,
    "\u25818": 1880,
    "\u25810x40a59e": 1881,
    "\u25810x40a5a2": 1882,
    "\u25810x40a5a4": 1883,
    "\u25810x40a5a6": 1884,
    "\u25810x40a5a8": 1885,
    "\u25810x40a5aa": 1886,
    "\u25810x52661": 1887,
    "\u25810x40933c": 1888,
    "\u25810x3d": 1889,
    "isp": 1890,
    "a00": 1891,
    "leob": 1892,
    "trl": 1893,
    "\u25810x4bc": 1894,
    "\u2581getuserdefault": 1895,
    "\u25810xfeee0023": 1896,
    "\u2581ac": 1897,
    "ivi": 1898,
    "\u25810xfeee0024": 1899,
    "\u2581getkeyboard": 1900,
    "\u2581update": 1901,
    "\u25810x409344": 1902,
    "full": 1903,
    "\u25810xfeee0025": 1904,
    "688": 1905,
    "\u2581show": 1906,
    "ivile": 1907,
    "threadpool": 1908,
    "980": 1909,
    "essage": 1910,
    "ut32": 1911,
    "\u2581olea": 1912,
    "\u2581oleaut32": 1913,
    "rypt": 1914,
    "e88": 1915,
    "740": 1916,
    "\u2581ini": 1917,
    "\u2581getlocaltime": 1918,
    "hor": 1919,
    "\u2581findresource": 1920,
    "out": 1921,
    "ati": 1922,
    "with": 1923,
    "ain": 1924,
    "ow64": 1925,
    "\u25810x4528": 1926,
    "\u2581ch": 1927,
    "\u25810xfeee0046": 1928,
    "\u2581getd": 1929,
    "\u2581202": 1930,
    "\u25810x43640": 1931,
    "drive": 1932,
    "\u25810x39": 1933,
    "\u25810x4229": 1934,
    "\u25810x43b6": 1935,
    "termin": 1936,
    "\u25810x4800": 1937,
    "\u25810x496760": 1938,
    "328": 1939,
    "\u2581remov": 1940,
    "\u25810xa2": 1941,
    "you": 1942,
    "\u25810x420": 1943,
    "188": 1944,
    "\u2581enum": 1945,
    "\u25810x107568": 1946,
    "\u25810x7de8": 1947,
    "4b": 1948,
    "endoffile": 1949,
    "\u25810x41e1": 1950,
    "\u25810x7de9": 1951,
    "\u25810x88a0": 1952,
    "bc8": 1953,
    "ill": 1954,
    "\u2581crypt": 1955,
    "\u25810x3b": 1956,
    "\u25810x42b40": 1957,
    "vio": 1958,
    "\u25810x8a80": 1959,
    "th": 1960,
    "\u2581getfileattributesw": 1961,
    "mask": 1962,
    "\u25810x519": 1963,
    "\u25810xb8": 1964,
    "4f": 1965,
    "\u2581termin": 1966,
    "\u25810x7540": 1967,
    "\u25810x7df0": 1968,
    "\u25810x1211e28": 1969,
    "ock32": 1970,
    "\u25810x40a3": 1971,
    "\u2581wsock32": 1972,
    "\u25810xe0": 1973,
    "link": 1974,
    "\u25810x3a": 1975,
    "\u25810x4d70": 1976,
    "880": 1977,
    "f04": 1978,
    "\u25810x8230": 1979,
    "\u25810x1210e8": 1980,
    "\u2581gettime": 1981,
    "\u25812022030": 1982,
    "ang": 1983,
    "f00": 1984,
    "380": 1985,
    "ist": 1986,
    "emut": 1987,
    "\u25810x7dec": 1988,
    "\u25810x7ded": 1989,
    "\u25810x91": 1990,
    "wow64": 1991,
    "\u25810x4094": 1992,
    "108": 1993,
    "\u25810x5638": 1994,
    "ires": 1995,
    "\u2581gol": 1996,
    "state": 1997,
    "\u25810x1211f00": 1998,
    "\u2581golf": 1999,
    "\u25810x4228": 2000,
    "\u25810x4400": 2001,
    "\u25810xa9": 2002,
    "\u25810x51af": 2003,
    "\u2581getwindows": 2004,
    "\u2581output": 2005,
    "\u2581outputdebug": 2006,
    "\u2581drag": 2007,
    "hen": 2008,
    "\u2581z": 2009,
    "\u25810xfeee0028": 2010,
    "\u2581draw": 2011,
    "\u25810x8811": 2012,
    "\u25810x1211f88": 2013,
    "ec0": 2014,
    "\u25810x8af0": 2015,
    "head": 2016,
    "freesp": 2017,
    "\u2581getdisk": 2018,
    "\u2581getdiskfreesp": 2019,
    "viewoffile": 2020,
    "\u25810x1211508": 2021,
    "\u25810x1211e34": 2022,
    "any": 2023,
    "fors": 2024,
    "inst": 2025,
    "\u25810x97": 2026,
    "violation": 2027,
    "\u25814": 2028,
    "ec8": 2029,
    "\u25810x5b": 2030,
    "937": 2031,
    "atch": 2032,
    "trac": 2033,
    "\u258132": 2034,
    "b000": 2035,
    "new": 2036,
    "debugger": 2037,
    "vol": 2038,
    "ocket": 2039,
    "debuggerpresent": 2040,
    "\u25810x41e": 2041,
    "\u25810x1211efc": 2042,
    "variablew": 2043,
    "\u2581q": 2044,
    "\u2581mul": 2045,
    "\u2581muldiv": 2046,
    "\u2581isvalid": 2047,
    "\u25810x48400": 2048,
    "\u25810x52666": 2049,
    "\u2581getthreadpreferreduilanguages": 2050,
    "\u2581msvcr": 2051,
    "\u25810x508": 2052,
    "licen": 2053,
    "\u2581loadiconw": 2054,
    "\u25810x67000000": 2055,
    "variablea": 2056,
    "\u25810x1211928": 2057,
    "\u25810x7df1": 2058,
    "econditionvariable": 2059,
    "\u25810x55": 2060,
    "\u2581isdebuggerpresent": 2061,
    "\u25810x52663": 2062,
    "\u25810xc00": 2063,
    "\u25810x7d95": 2064,
    "messagew": 2065,
    "4d": 2066,
    "main": 2067,
    "the": 2068,
    "eexa": 2069,
    "forsing": 2070,
    "\u2581iswow64": 2071,
    "forsingleob": 2072,
    "\u2581iswow64process": 2073,
    "\u25810xfeee0029": 2074,
    "f0000": 2075,
    "\u25810x5d": 2076,
    "\u25810xff8": 2077,
    "\u25810x1210e0": 2078,
    "\u2581createdirectoryw": 2079,
    "\u2581sn": 2080,
    "\u2581createprocess": 2081,
    "\u2581v": 2082,
    "aff": 2083,
    "\u2581getdiskfreespac": 2084,
    "\u2581createp": 2085,
    "\u25810x40a3d": 2086,
    "\u2581u": 2087,
    "app": 2088,
    "\u2581extrac": 2089,
    "listhead": 2090,
    "\u2581initializeslisthead": 2091,
    "volu": 2092,
    "nal": 2093,
    "comp": 2094,
    "\u2581lstrcpyna": 2095,
    "\u25810x7d94": 2096,
    "volume": 2097,
    "\u2581waitforsingleob": 2098,
    "las": 2099,
    "\u25810x40f": 2100,
    "condition": 2101,
    "\u25810x9c": 2102,
    "quires": 2103,
    "ym": 2104,
    "d08": 2105,
    "\u25810x20019": 2106,
    "\u25810x5265e": 2107,
    "\u2581comparestringex": 2108,
    "\u2581getlocaleinfoex": 2109,
    "\u25810x40b": 2110,
    "ken": 2111,
    "\u25810x48f8": 2112,
    "\u25810x6c": 2113,
    "\u25810x120fa": 2114,
    "lex": 2115,
    "\u2581send": 2116,
    "quiresrwlockexclusive": 2117,
    "\u25810x4615": 2118,
    "c80": 2119,
    "788": 2120,
    "\u2581registerclassexa": 2121,
    "\u25810x42332": 2122,
    "\u2581err": 2123,
    "\u2581accessviolation": 2124,
    "lw": 2125,
    "infoa": 2126,
    "\u25810x7090": 2127,
    "\u25810x42990": 2128,
    "\u25810x6d": 2129,
    "\u2581type": 2130,
    "\u25810x202": 2131,
    "\u25810x7bd0": 2132,
    "\u25810x1210ed": 2133,
    "\u25810x4df": 2134,
    "\u2581lstrcpynw": 2135,
    "box": 2136,
    "\u25810x4df0": 2137,
    "\u25810x51": 2138,
    "\u25810xfeee0045": 2139,
    "\u25810x8001": 2140,
    "b7c": 2141,
    "\u25810x1211d04": 2142,
    "\u25810xfeee002d": 2143,
    "\u2581snap": 2144,
    "alette": 2145,
    "32cs": 2146,
    "pack": 2147,
    "ervicec": 2148,
    "\u2581th32cs": 2149,
    "\u25810x1211c04": 2150,
    "\u25810xfeee002c": 2151,
    "\u25810xfeee002f": 2152,
    "008": 2153,
    "urn": 2154,
    "\u25810xfeee002a": 2155,
    "host": 2156,
    "ated": 2157,
    "\u2581lstrcmpa": 2158,
    "b5c": 2159,
    "eall": 2160,
    "\u25810x65": 2161,
    "\u2581globalfree": 2162,
    "\u25810x3e8": 2163,
    "validate": 2164,
    "\u2581heapvalidate": 2165,
    "\u2581loadcursorw": 2166,
    "fe8": 2167,
    "\u25810x52664": 2168,
    "\u25810x52665": 2169,
    "\u2581findnext": 2170,
    "\u25810xfeee005d": 2171,
    "\u25810x1211fc4": 2172,
    "\u25810xfeee002b": 2173,
    "\u25810x4730": 2174,
    "668": 2175,
    "\u2581deletefilea": 2176,
    "\u2581ass": 2177,
    "\u25810x1211a04": 2178,
    "instruction": 2179,
    "580": 2180,
    "\u25810xa1": 2181,
    "ret": 2182,
    "\u25810x1210f4": 2183,
    "d000": 2184,
    "valu": 2185,
    "volumeinformation": 2186,
    "\u2581getvolumeinformation": 2187,
    "\u25810x1210f0": 2188,
    "\u2581fe": 2189,
    "\u25810xfeee002e": 2190,
    "\u25810x437b": 2191,
    "\u25810x1210ee": 2192,
    "cad": 2193,
    "linkw": 2194,
    "\u25810x4de": 2195,
    "\u25810x7d50": 2196,
    "\u2581process32firstw": 2197,
    "4a": 2198,
    "\u25810x40b8": 2199,
    "namea": 2200,
    "lwapi": 2201,
    "\u2581shlwapi": 2202,
    "bar": 2203,
    "e4c": 2204,
    "\u2581lock": 2205,
    "de4": 2206,
    "echeck": 2207,
    "special": 2208,
    "specialfolder": 2209,
    "\u2581shgetspecialfolder": 2210,
    "\u2581createthread": 2211,
    "\u2581wakeall": 2212,
    "\u2581wakeallconditionvariable": 2213,
    "\u25810x3f2000": 2214,
    "\u2581mar": 2215,
    "\u2581outputdebugstringa": 2216,
    "\u25810x47a0": 2217,
    "\u25810x1211fc8": 2218,
    "allocate": 2219,
    "when": 2220,
    "\u2581point": 2221,
    "\u2581exception": 2222,
    "388": 2223,
    "\u2581showwindow": 2224,
    "\u25810x7ed": 2225,
    "\u2581prec": 2226,
    "\u2581errata": 2227,
    "ervicectrl": 2228,
    "\u2581precision": 2229,
    "dateresourcea": 2230,
    "\u25810x121193c": 2231,
    "\u2581rand": 2232,
    "initialize": 2233,
    "attributesa": 2234,
    "package": 2235,
    "\u25810x7300": 2236,
    "ispatch": 2237,
    "\u25810x410770": 2238,
    "\u2581getfileinformationby": 2239,
    "408": 2240,
    "typ": 2241,
    "\u2581findwindow": 2242,
    "\u25810x4620": 2243,
    "\u2581loc": 2244,
    "\u25810x7e80": 2245,
    "\u25810xfeee0030": 2246,
    "\u25810xfeee0044": 2247,
    "\u25810x569b": 2248,
    "\u25810x563868": 2249,
    "\u2581outof": 2250,
    "\u2581createwindowexa": 2251,
    "\u2581localiz": 2252,
    "\u2581localization": 2253,
    "\u25810xfee": 2254,
    "\u25810x53000000": 2255,
    "drl6660drl6660drl6660drl6660drl6660drl6660drl6660drl6660": 2256,
    "\u2581fmode": 2257,
    "mapp": 2258,
    "\u25810x7700": 2259,
    "packageid": 2260,
    "\u2581getcurrentpackageid": 2261,
    "\u25810x40a9": 2262,
    "\u25810x7900": 2263,
    "cre": 2264,
    "\u25810x437808": 2265,
    "ecall": 2266,
    "mapping": 2267,
    "filemapping": 2268,
    "\u25810x437806": 2269,
    "\u25810x43780a": 2270,
    "\u25810x43780c": 2271,
    "\u25810x43780e": 2272,
    "\u25810x437810": 2273,
    "\u25810x437812": 2274,
    "\u25810x437814": 2275,
    "\u25810x437816": 2276,
    "\u25810x437818": 2277,
    "\u25810x43781a": 2278,
    "\u25810x43781c": 2279,
    "\u25810x43781e": 2280,
    "a88": 2281,
    "\u25810x567a40": 2282,
    "failed": 2283,
    "\u25810xfeee0031": 2284,
    "f80": 2285,
    "ternal": 2286,
    "\u2581getmain": 2287,
    "ymbo": 2288,
    "ymbolic": 2289,
    "ins": 2290,
    "\u25810x364": 2291,
    "\u25810xffe1": 2292,
    "ymboliclinkw": 2293,
    "\u2581createsymboliclinkw": 2294,
    "74c": 2295,
    "a08": 2296,
    "\u25810xffe0": 2297,
    "\u2581feb": 2298,
    "\u25810x1211e30": 2299,
    "\u25810x432": 2300,
    "\u2581waitfor": 2301,
    "ong": 2302,
    "\u25810xffe4": 2303,
    "\u2581snapprocess": 2304,
    "\u25810xfffe": 2305,
    "\u25810x1009": 2306,
    "code": 2307,
    "\u25810x61": 2308,
    "c88": 2309,
    "\u25810x42900": 2310,
    "gument": 2311,
    "\u25810x7e74": 2312,
    "\u25810x7e75": 2313,
    "ied": 2314,
    "\u25810x40c": 2315,
    "\u2581getdate": 2316,
    "\u2581updatewindow": 2317,
    "\u25810x7a80": 2318,
    "\u2581sept": 2319,
    "\u25810x7e78": 2320,
    "c8c": 2321,
    "\u25810x7e79": 2322,
    "ton": 2323,
    "argument": 2324,
    "une": 2325,
    "\u25810x7150": 2326,
    "creating": 2327,
    "return": 2328,
    "ornumber": 2329,
    "processwrite": 2330,
    "\u2581flushprocesswrite": 2331,
    "\u2581setthreadpoolwait": 2332,
    "\u2581closethreadpoolwait": 2333,
    "\u2581shgetspecialfolderw": 2334,
    "\u2581createthreadpoolwait": 2335,
    "\u2581flushprocesswritebuffers": 2336,
    "\u2581getcurrentprocessornumber": 2337,
    "returns": 2338,
    "\u25810x7e7c": 2339,
    "whencallback": 2340,
    "whencallbackreturns": 2341,
    "\u2581freelibrarywhencallbackreturns": 2342,
    "callbacks": 2343,
    "timercallbacks": 2344,
    "\u2581waitforthreadpool": 2345,
    "\u2581setthreadpooltimer": 2346,
    "\u2581closethreadpooltimer": 2347,
    "\u2581createthreadpooltimer": 2348,
    "\u2581waitforthreadpooltimercallbacks": 2349,
    "horeexw": 2350,
    "\u25810x1005": 2351,
    "\u25810x7e7d": 2352,
    "\u2581createsemaphoreexw": 2353,
    "\u25810x78a0": 2354,
    "\u25810xffbb": 2355,
    "\u25810x1210f5": 2356,
    "ush": 2357,
    "\u2581oct": 2358,
    "\u25810x7be0": 2359,
    "\u25810xffbe": 2360,
    "\u25810xffba": 2361,
    "\u25810xffbc": 2362,
    "\u25810xffbd": 2363,
    "cc8": 2364,
    "\u2581febr": 2365,
    "gust": 2366,
    "\u2581aug": 2367,
    "tober": 2368,
    "\u2581april": 2369,
    "\u25810x73f0": 2370,
    "\u25810x7ab0": 2371,
    "\u25810xffb8": 2372,
    "\u2581august": 2373,
    "\u2581november": 2374,
    "\u2581september": 2375,
    "ecomp": 2376,
    "\u25810xffb7": 2377,
    "\u25810xfffd": 2378,
    "\u25810xffb9": 2379,
    "\u25810xffbf": 2380,
    "588": 2381,
    "\u25810x72a0": 2382,
    "\u25810xfffc": 2383,
    "\u2581em": 2384,
    "\u25810x26": 2385,
    "bound": 2386,
    "\u25810x4c3": 2387,
    "ged": 2388,
    "\u25810x598": 2389,
    "ly": 2390,
    "den": 2391,
    "afile": 2392,
    "\u25810x121194c": 2393,
    "index": 2394,
    "\u2581div": 2395,
    "\u2581end": 2396,
    "\u25810x418": 2397,
    "drivestrings": 2398,
    "\u2581outofmemory": 2399,
    "\u2581getlogicaldrivestrings": 2400,
    "\u2581getthreaduilanguage": 2401,
    "\u25810x1211c08": 2402,
    "want": 2403,
    "\u25810x44280": 2404,
    "\u25810xffa0": 2405,
    "once": 2406,
    "anuary": 2407,
    "\u2581march": 2408,
    "\u2581february": 2409,
    "uly": 2410,
    "\u25810xd0": 2411,
    "\u25810x7e81": 2412,
    "\u2581december": 2413,
    "\u2581october": 2414,
    "\u25810xfeee0043": 2415,
    "\u2581sunday": 2416,
    "\u2581thu": 2417,
    "nesday": 2418,
    "\u2581monday": 2419,
    "\u2581tuesday": 2420,
    "\u2581wednesday": 2421,
    "ursday": 2422,
    "\u25810xffa1": 2423,
    "\u25810xffa2": 2424,
    "\u25810xffb6": 2425,
    "\u2581thursday": 2426,
    "\u2581fri": 2427,
    "yarg1": 2428,
    "iday": 2429,
    "urday": 2430,
    "\u2581friday": 2431,
    "\u2581saturday": 2432,
    "\u25810x448": 2433,
    "\u25810x655": 2434,
    "servicew": 2435,
    "\u25810x7690": 2436,
    "\u25810xffa3": 2437,
    "\u25810xfeee0047": 2438,
    "\u2581createpalette": 2439,
    "\u2581getmessagea": 2440,
    "\u25810xfffb": 2441,
    "\u25810xffa4": 2442,
    "584": 2443,
    "ond": 2444,
    "uter": 2445,
    "\u25810xffcd": 2446,
    "exception": 2447,
    "found": 2448,
    "afecall": 2449,
    "licence": 2450,
    "\u25810xffa7": 2451,
    "\u25810x404": 2452,
    "\u25810x4bd0": 2453,
    "\u25810xffa5": 2454,
    "\u25810xffa6": 2455,
    "facen": 2456,
    "\u2581interfacen": 2457,
    "profile": 2458,
    "\u25810x77e0": 2459,
    "driv": 2460,
    "\u25810xffb5": 2461,
    "\u2581asser": 2462,
    "\u25810xfeee0048": 2463,
    "\u2581external": 2464,
    "anag": 2465,
    "\u2581stack": 2466,
    "\u2581privile": 2467,
    "\u25810xffa8": 2468,
    "\u2581assertion": 2469,
    "\u2581shellex": 2470,
    "eger": 2471,
    "styp": 2472,
    "\u25810xffa9": 2473,
    "\u2581integer": 2474,
    "ols": 2475,
    "computer": 2476,
    "\u25810x44d4": 2477,
    "\u2581createfilemapping": 2478,
    "\u25810xfffa": 2479,
    "\u25810x100000": 2480,
    "680": 2481,
    "insafecall": 2482,
    "\u2581exceptioninsafecall": 2483,
    "\u25810x7e85": 2484,
    "\u2581disk": 2485,
    "00210": 2486,
    "calls": 2487,
    "\u25810x80c0": 2488,
    "\u25810x7e84": 2489,
    "\u2581getfileinformationbyhandl": 2490,
    "conne": 2491,
    "changet": 2492,
    "\u2581variantchanget": 2493,
    "notfound": 2494,
    "\u2581deletefilew": 2495,
    "sub": 2496,
    "\u25810xa4": 2497,
    "\u25810xfeee003b": 2498,
    "ecast": 2499,
    "underflow": 2500,
    "\u25810xffaa": 2501,
    "\u2581closes": 2502,
    "\u25810x71a0": 2503,
    "denied": 2504,
    "\u25810xffe6": 2505,
    "accessdenied": 2506,
    "\u2581assertionfailed": 2507,
    "bounds": 2508,
    "\u25810x405": 2509,
    "verflow": 2510,
    "\u25810xffb4": 2511,
    "\u25810x121157c": 2512,
    "\u2581privileged": 2513,
    "clas": 2514,
    "\u2581chit": 2515,
    "otsuped": 2516,
    "classtyp": 2517,
    "indexout": 2518,
    "notsuped": 2519,
    "classtypecast": 2520,
    "\u2581externalexception": 2521,
    "\u2581interfacenotsuped": 2522,
    "\u2581rang": 2523,
    "ofbounds": 2524,
    "\u2581rangecheck": 2525,
    "callsnotsuped": 2526,
    "\u2581errorcreating": 2527,
    "indexoutofbounds": 2528,
    "\u2581errorcreatingvariant": 2529,
    "\u2581invalidclasstypecast": 2530,
    "\u2581variantcallsnotsuped": 2531,
    "\u2581floatingpointunderflow": 2532,
    "typecon": 2533,
    "\u25810xffce": 2534,
    "\u25810x12117a4": 2535,
    "typeconversion": 2536,
    "\u2581stackoverflow": 2537,
    "pointeroperation": 2538,
    "\u2581getkeyboardtype": 2539,
    "\u2581privilegedinstruction": 2540,
    "\u2581invalidvariantoperation": 2541,
    "\u2581invalidvarianttypeconversion": 2542,
    "pointo": 2543,
    "pointoverflow": 2544,
    "divisionbyzero": 2545,
    "\u2581floatingpointoverflow": 2546,
    "\u2581floatingpointdivisionbyzero": 2547,
    "floating": 2548,
    "floatingpoint": 2549,
    "\u2581divisionbyzero": 2550,
    "\u2581integeroverflow": 2551,
    "\u2581rangecheckerror": 2552,
    "\u2581invalidfloatingpoint": 2553,
    "\u2581invalidpointeroperation": 2554,
    "\u2581invalidfloatingpointoperation": 2555,
    "bey": 2556,
    "omany": 2557,
    "beyond": 2558,
    "numeric": 2559,
    "\u2581toomany": 2560,
    "openfiles": 2561,
    "\u2581diskfull": 2562,
    "\u2581readbeyond": 2563,
    "numericinput": 2564,
    "\u2581invalidfilename": 2565,
    "\u2581toomanyopenfiles": 2566,
    "\u2581invalidnumericinput": 2567,
    "\u2581readbeyondendoffile": 2568,
    "\u2581fileaccessdenied": 2569,
    "\u25810x65500000": 2570,
    "mod": 2571,
    "\u25810xfeee0049": 2572,
    "b88": 2573,
    "\u25810xffcc": 2574,
    "atible": 2575,
    "\u2581createdirectorya": 2576,
    "104": 2577,
    "\u25810xaa": 2578,
    "\u2581gettickcount64": 2579,
    "\u25810x100300": 2580,
    "\u25810x1211dfc": 2581,
    "\u2581getenvironmentvariablew": 2582,
    "\u25810xffcf": 2583,
    "\u25810xfeee0033": 2584,
    "\u25810x181c": 2585,
    "\u25810xfeee0035": 2586,
    "cef": 2587,
    "ypeex": 2588,
    "\u25810x120f8": 2589,
    "\u25810xfeee0032": 2590,
    "\u2581variantchangetypeex": 2591,
    "\u25810xffe5": 2592,
    "\u2581varbstrfrombool": 2593,
    "e00": 2594,
    "f0c": 2595,
    "neg": 2596,
    "\u25810x8280": 2597,
    "\u2581varadd": 2598,
    "\u2581varneg": 2599,
    "\u2581varnot": 2600,
    "\u2581varsub": 2601,
    "\u25810xfeee0062": 2602,
    "mul": 2603,
    "xor": 2604,
    "idiv": 2605,
    "\u2581varcy": 2606,
    "\u2581varor": 2607,
    "\u2581varr8": 2608,
    "\u2581varand": 2609,
    "\u2581varcmp": 2610,
    "\u2581vardiv": 2611,
    "\u2581varmod": 2612,
    "\u2581varmul": 2613,
    "\u2581varxor": 2614,
    "\u2581varbool": 2615,
    "\u2581vardate": 2616,
    "\u2581varidiv": 2617,
    "\u2581varcyfromstr": 2618,
    "\u2581vari4fromstr": 2619,
    "\u2581varr4fromstr": 2620,
    "\u2581varr8fromstr": 2621,
    "\u2581varbstrfromcy": 2622,
    "\u2581varboolfromstr": 2623,
    "\u2581vardatefromstr": 2624,
    "\u2581varbstrfromdate": 2625,
    "ecompatible": 2626,
    "\u25810xfeee0039": 2627,
    "\u2581createcompatible": 2628,
    "\u2581localfree": 2629,
    "\u25810xfeee0034": 2630,
    "\u25810xfeee0041": 2631,
    "\u25810xfeee003f": 2632,
    "\u25810x40a582": 2633,
    "\u25810x40a584": 2634,
    "\u25810x40a586": 2635,
    "\u25810x40a588": 2636,
    "\u25810x40a58a": 2637,
    "\u25810x1211dd0": 2638,
    "\u25810xfeee0042": 2639,
    "\u25810x40a580": 2640,
    "yarg2": 2641,
    "search": 2642,
    "\u25810x40a57e": 2643,
    "\u2581no": 2644,
    "\u25810xffb0": 2645,
    "searchmode": 2646,
    "\u2581setsearchmode": 2647,
    "\u25810x40a93": 2648,
    "\u25810xfeee0036": 2649,
    "\u25810xfeee0037": 2650,
    "f88": 2651,
    "dexchange": 2652,
    "\u2581interlockedexchange": 2653,
    "\u2581the": 2654,
    "\u25810xfff9": 2655,
    "a000": 2656,
    "\u25810x1210e4": 2657,
    "\u25810x1211f78": 2658,
    "7000": 2659,
    "barcad": 2660,
    "barcadero": 2661,
    "\u2581embarcadero": 2662,
    "\u2581gettempa": 2663,
    "\u25810xfeee0038": 2664,
    "cel": 2665,
    "\u25810x7340": 2666,
    "\u25810x419c": 2667,
    "\u25810xffb3": 2668,
    "\u25810x81": 2669,
    "\u25810x421": 2670,
    "\u25810xfeee003d": 2671,
    "\u25810xffb2": 2672,
    "\u25810xfeee003a": 2673,
    "d88": 2674,
    "metafile": 2675,
    "\u25810xffb1": 2676,
    "\u25810x1076": 2677,
    "\u25810x7270": 2678,
    "\u25810xfeee003e": 2679,
    "\u25810x41c0": 2680,
    "\u25810x1211f74": 2681,
    "\u2581getwindowsdirectorya": 2682,
    "\u25810x80e0": 2683,
    "\u25810xfeee003c": 2684,
    "\u25810x3f75f60": 2685,
    "\u2581loadresource": 2686,
    "\u2581corex": 2687,
    "\u25810xa7": 2688,
    "av": 2689,
    "a84": 2690,
    "\u2581po": 2691,
    "\u2581setc": 2692,
    "ce8": 2693,
    "\u25810x4169": 2694,
    "\u2581corexitprocess": 2695,
    "\u2581setfileinformationby": 2696,
    "\u2581of": 2697,
    "\u2581createexw": 2698,
    "\u2581invalidargument": 2699,
    "\u2581variantorsafearray": 2700,
    "\u2581errorcreatingvariantorsafearray": 2701,
    "\u2581variantorsafearrayindexoutofbounds": 2702,
    "\u2581enumsystem": 2703,
    "184": 2704,
    "brush": 2705,
    "\u2581enumsystemlocales": 2706,
    "488": 2707,
    "\u25810xfff8": 2708,
    "b8c": 2709,
    "lication": 2710,
    "setinformation": 2711,
    "\u25810x5265f": 2712,
    "\u258117": 2713,
    "lete": 2714,
    "\u2581setprocess": 2715,
    "98c": 2716,
    "pos": 2717,
    "\u2581createfilemappinga": 2718,
    "\u25810x1211f18": 2719,
    "\u2581loadlibraryexa": 2720,
    "\u25810x4e50": 2721,
    "\u2581getsystemdirectorya": 2722,
    "no": 2723,
    "\u2581msc": 2724,
    "\u25810xfff7": 2725,
    "\u25815": 2726,
    "\u2581comm": 2727,
    "\u25810xfeee0065": 2728,
    "\u25810x7060": 2729,
    "\u25810x3f75f30": 2730,
    "\u2581golfinfo": 2731,
    "contr": 2732,
    "\u25810x86": 2733,
    "\u25810xfeee005e": 2734,
    "\u25810x44f910": 2735,
    "\u25810xfeee0053": 2736,
    "\u25810xfeee0066": 2737,
    "\u25810xffd2": 2738,
    "tos": 2739,
    "\u25810xfeee0067": 2740,
    "b60": 2741,
    "\u25810x95": 2742,
    "\u25810x235": 2743,
    "token": 2744,
    "\u25810xfeee0060": 2745,
    "\u25810x430880": 2746,
    "\u2581heapsetinformation": 2747,
    "\u25810xfeee004a": 2748,
    "\u25810x42d4": 2749,
    "\u25810x71b0": 2750,
    "\u25810x7870": 2751,
    "\u2581rec": 2752,
    "\u25810x40a5ac": 2753,
    "\u25810x1211fc0": 2754,
    "\u25810xfeee0061": 2755,
    "\u25810x9a": 2756,
    "\u25810xfeee005c": 2757,
    "288": 2758,
    "\u25810x78d0": 2759,
    "\u2581wsprintfa": 2760,
    "ed8": 2761,
    "licy": 2762,
    "\u25810xffef": 2763,
    "policy": 2764,
    "3c4": 2765,
    "504": 2766,
    "\u25810xfeee005a": 2767,
    "\u2581message": 2768,
    "fp": 2769,
    "004": 2770,
    "\u25810xfeee004d": 2771,
    "\u25810xfeee0063": 2772,
    "\u25810x4e30": 2773,
    "\u2581do": 2774,
    "\u25810x1211f70": 2775,
    "68c": 2776,
    "\u2581destroy": 2777,
    "\u25810xfeee004b": 2778,
    "\u25810xfeee005b": 2779,
    "\u25810xfeee004c": 2780,
    "ernet": 2781,
    "\u25810x169b": 2782,
    "deppolicy": 2783,
    "\u25810x4c3308": 2784,
    "controls": 2785,
    "\u25810xfeee0068": 2786,
    "\u25810xfeee0050": 2787,
    "\u25810x4967a8": 2788,
    "\u25810xfeee0055": 2789,
    "\u2581setprocessdeppolicy": 2790,
    "\u25810x1211f04": 2791,
    "\u25810xfeee004e": 2792,
    "\u2581exit": 2793,
    "\u25810xfeee0054": 2794,
    "\u25810x42992": 2795,
    "oci": 2796,
    "\u25810x1211f10": 2797,
    "inity": 2798,
    "\u25810xfeee004f": 2799,
    "\u25810x4960": 2800,
    "text": 2801,
    "section": 2802,
    "\u25810xfeee0051": 2803,
    "\u25810xfeee0052": 2804,
    "\u25810xfeee008e": 2805,
    "\u25810x509": 2806,
    "ream": 2807,
    "\u25810x7bf0": 2808,
    "\u25810x4290": 2809,
    "\u25810x7b90": 2810,
    "affinity": 2811,
    "\u2581messagebox": 2812,
    "affinitymask": 2813,
    "myarg2": 2814,
    "\u25810x12118f8": 2815,
    "\u25810xfeee0056": 2816,
    "\u25810xfeee0057": 2817,
    "\u25810xfeee0058": 2818,
    "\u25810x6a": 2819,
    "\u25810xfff6": 2820,
    "enum": 2821,
    "\u25810x2439f": 2822,
    "fff0": 2823,
    "\u25810xfeee0059": 2824,
    "\u25810x3f4": 2825,
    "\u25810x2100210": 2826,
    "\u25810x43f0": 2827,
    "\u25810x1210f9": 2828,
    "\u25810x42c": 2829,
    "namew": 2830,
    "\u2581ofresource": 2831,
    "ateprocess": 2832,
    "\u25810x1211e24": 2833,
    "yarg1myarg2": 2834,
    "40c": 2835,
    "acl": 2836,
    "\u2581unhandledexceptionfilter": 2837,
    "\u2581registerwindow": 2838,
    "run": 2839,
    "\u25810xffe3": 2840,
    "\u25810x4c42d8": 2841,
    "\u25810x4c42f0": 2842,
    "\u25810x502": 2843,
    "\u25810x13fff0": 2844,
    "\u25810x6e": 2845,
    "\u25810x403": 2846,
    "quit": 2847,
    "\u2581getclass": 2848,
    "\u2581findresourcew": 2849,
    "\u2581initializeconditionvariable": 2850,
    "\u25810x5f": 2851,
    "\u25810xfeee0064": 2852,
    "\u2581initialize": 2853,
    "securitydescriptor": 2854,
    "\u25810xffec": 2855,
    "closekey": 2856,
    "\u2581regclosekey": 2857,
    "\u2581runtime": 2858,
    "a44": 2859,
    "\u25810x7e0": 2860,
    "\u25810x7b10": 2861,
    "\u25810x7390": 2862,
    "\u25810x1211ccc": 2863,
    "d3c": 2864,
    "\u2581ntdll": 2865,
    "\u25810xfeee0069": 2866,
    "\u25810x1b2": 2867,
    "\u25810x7b40": 2868,
    "\u2581getprocessaffinitymask": 2869,
    "808": 2870,
    "bad8": 2871,
    "\u25810xffd3": 2872,
    "\u25810x41a0": 2873,
    "\u2581hton": 2874,
    "\u25810x51c": 2875,
    "metafilebits": 2876,
    "120": 2877,
    "ecta": 2878,
    "\u2581lockresource": 2879,
    "ac8": 2880,
    "fa2": 2881,
    "ffc": 2882,
    "904": 2883,
    "\u25810x40e": 2884,
    "\u25810x89": 2885,
    "d4c": 2886,
    "oree": 2887,
    "\u25810xffc6": 2888,
    "\u2581mscoree": 2889,
    "\u2581beginpaint": 2890,
    "\u25810x79c0": 2891,
    "\u25810xfeee006a": 2892,
    "windowproc": 2893,
    "\u25810x1211f40": 2894,
    "6000": 2895,
    "0x": 2896,
    "\u25810x4efd": 2897,
    "\u2581error0x": 2898,
    "608": 2899,
    "be8": 2900,
    "\u2581getenvironmentvariablea": 2901,
    "ff8": 2902,
    "\u25810x56bad8": 2903,
    "\u2581install": 2904,
    "\u25810x7030": 2905,
    "\u25810x41d114": 2906,
    "\u25810x120f8c2": 2907,
    "\u25810x93": 2908,
    "a81": 2909,
    "\u2581cadwork": 2910,
    "de8": 2911,
    "ordacl": 2912,
    "\u25810x75d0": 2913,
    "\u25810x43b7c": 2914,
    "securitydescriptordacl": 2915,
    "\u2581endpaint": 2916,
    "\u2581getuserdefaultlocalename": 2917,
    "\u2581def": 2918,
    "\u25810x1211e14": 2919,
    "\u25810x8090": 2920,
    "\u2581terminateprocess": 2921,
    "lat": 2922,
    "ust": 2923,
    "\u2581getdateformatex": 2924,
    "\u2581isvalidlocalename": 2925,
    "\u2581enumsystemlocalesex": 2926,
    "\u2581gettimeformatex": 2927,
    "\u2581initializesecuritydescriptor": 2928,
    "\u25810x1211de4": 2929,
    "\u25810x58000": 2930,
    "\u25810xfeee006c": 2931,
    "\u2581new": 2932,
    "stream": 2933,
    "wantto": 2934,
    "2w": 2935,
    "ais": 2936,
    "connection": 2937,
    "\u25810x401": 2938,
    "\u25810x49c8": 2939,
    "\u25810x59bf": 2940,
    "\u25810x59c1": 2941,
    "\u25810x4e80": 2942,
    "\u25810x45f1": 2943,
    "connection2w": 2944,
    "hore": 2945,
    "\u25810x7a50": 2946,
    "\u25810xfeee010": 2947,
    "\u25810xfeee0074": 2948,
    "\u25810x1211f34": 2949,
    "\u25810x419": 2950,
    "clipboar": 2951,
    "\u25810x7750": 2952,
    "\u25810xffc5": 2953,
    "\u25810xfeee0073": 2954,
    "\u25810xfeee006b": 2955,
    "140": 2956,
    "\u25810x181": 2957,
    "\u25810x428": 2958,
    "\u25810x71e0": 2959,
    "\u25810x48f898": 2960,
    "\u25810x7ec1": 2961,
    "\u25810x1211e20": 2962,
    "qa": 2963,
    "\u25810x74e0": 2964,
    "\u25810xfff5": 2965,
    "\u2581check": 2966,
    "\u25810x1211ef8": 2967,
    "984": 2968,
    "environment": 2969,
    "alog": 2970,
    "meto": 2971,
    "\u25810x1211f84": 2972,
    "\u25810x7cf0": 2973,
    "\u25810xfeee006e": 2974,
    "\u2581setsecuritydescriptordacl": 2975,
    "f8c": 2976,
    "imeto": 2977,
    "\u25810x7ae0": 2978,
    "\u25810xfeee0071": 2979,
    "inmetafilebits": 2980,
    "manag": 2981,
    "\u25810xfeee0095": 2982,
    "ssp": 2983,
    "\u25810xfeee006d": 2984,
    "\u25810x4470": 2985,
    "\u25810x7210": 2986,
    "\u25810x8cf0": 2987,
    "gro": 2988,
    "\u2581setthreadpreferreduilanguages": 2989,
    "clipboard": 2990,
    "bd0": 2991,
    "ram": 2992,
    "\u25810x7f0": 2993,
    "\u25810x1211f1c": 2994,
    "\u25810x72d0": 2995,
    "\u2581createmut": 2996,
    "\u2581fi": 2997,
    "\u25810x406": 2998,
    "\u25810xffab": 2999,
    "\u25810xfeee008a": 3000,
    "484": 3001,
    "\u2581noaccess": 3002,
    "sto": 3003,
    "\u25810x4cb0": 3004,
    "382": 3005,
    "a58": 3006,
    "\u25810x7600": 3007,
    "768": 3008,
    "\u25810x7240": 3009,
    "\u25810x53000": 3010,
    "\u25810xfeee0070": 3011,
    "\u2581defwindowproc": 3012,
    "a4c": 3013,
    "\u25810x7df4": 3014,
    "\u25810x7df5": 3015,
    "\u25810xfeee008c": 3016,
    "\u25810x75a0": 3017,
    "544": 3018,
    "lecs": 3019,
    "\u25810x4700": 3020,
    "variablecs": 3021,
    "\u2581sleepcondition": 3022,
    "\u2581sleepconditionvariablecs": 3023,
    "\u2581trans": 3024,
    "bitmap": 3025,
    "\u25810x7660": 3026,
    "infow": 3027,
    "\u25810x44d4b8": 3028,
    "\u25810x7720": 3029,
    "\u25810x7ba0": 3030,
    "\u25810x7eab": 3031,
    "\u25810x7a20": 3032,
    "\u25810xffac": 3033,
    "\u25810xfff4": 3034,
    "\u25810xfeee006f": 3035,
    "\u25810x4d50": 3036,
    "\u25810x7180": 3037,
    "\u25810x7570": 3038,
    "\u25810x76f0": 3039,
    "\u2581setfileattributesa": 3040,
    "888": 3041,
    "\u25810x7480": 3042,
    "\u25810x76c0": 3043,
    "\u25810x7c70": 3044,
    "7a8": 3045,
    "\u25810x70c0": 3046,
    "\u25810x7120": 3047,
    "\u2581getwinmetafilebits": 3048,
    "ssoci": 3049,
    "\u25810x7330": 3050,
    "\u25810xfeee008d": 3051,
    "ad4": 3052,
    "\u25810x74b0": 3053,
    "\u25810x7840": 3054,
    "\u25810x8260": 3055,
    "\u25810x60c6": 3056,
    "\u25810x7360": 3057,
    "\u25810xfeee012": 3058,
    "\u25810x7960": 3059,
    "tassoci": 3060,
    "atedicon": 3061,
    "\u25810x1211d08": 3062,
    "\u25810xfeee0077": 3063,
    "\u25810xfeee0090": 3064,
    "\u2581extractassoci": 3065,
    "\u2581extractassociatedicon": 3066,
    "edit": 3067,
    "\u25810xfeee0075": 3068,
    "\u25810x408c8": 3069,
    "\u25810xac": 3070,
    "\u25810x7510": 3071,
    "\u25810x77b0": 3072,
    "\u25810x7990": 3073,
    "\u25810xfeee0079": 3074,
    "\u25816": 3075,
    "\u2581setwindow": 3076,
    "\u25810x7450": 3077,
    "\u25810x73c0": 3078,
    "\u25810xfeee0078": 3079,
    "b44": 3080,
    "delete": 3081,
    "\u25810x70f0": 3082,
    "\u25810x7420": 3083,
    "\u2581setcurrent": 3084,
    "\u2581mapviewoffile": 3085,
    "\u25810x78f0": 3086,
    "\u25810xfeee0076": 3087,
    "\u25810xfeee007a": 3088,
    "902": 3089,
    "\u25810xffd0": 3090,
    "\u25810xa8": 3091,
    "\u25810x7c000000": 3092,
    "a20": 3093,
    "\u25810x7630": 3094,
    "\u25810xa3": 3095,
    "\u25810x20a": 3096,
    "\u25810x210": 3097,
    "\u2581copyfilea": 3098,
    "\u2581regset": 3099,
    "fore": 3100,
    "\u2581lstrcpya": 3101,
    "\u25810x7780": 3102,
    "\u25810x1210c": 3103,
    "eexception": 3104,
    "434": 3105,
    "f4c": 3106,
    "\u2581rais": 3107,
    "\u25810x47f0": 3108,
    "\u2581raiseexception": 3109,
    "\u25810x7b70": 3110,
    "aaaaaaaa": 3111,
    "1a1": 3112,
    "wind": 3113,
    "\u2581beginup": 3114,
    "758": 3115,
    "\u2581dragob": 3116,
    "\u25810x1211f97": 3117,
    "texta": 3118,
    "download": 3119,
    "\u25810xfeee0087": 3120,
    "\u25810x46a0": 3121,
    "\u25810xfeee008f": 3122,
    "\u25810x3bc": 3123,
    "\u25810x4010": 3124,
    "\u2581download": 3125,
    "\u25810x4088": 3126,
    "\u25810x5e": 3127,
    "windows": 3128,
    "\u25810xfeee0088": 3129,
    "\u25810x40a59c": 3130,
    "\u2581shfolder": 3131,
    "\u25810xffdd": 3132,
    "ff0": 3133,
    "\u25810x45f2": 3134,
    "fromstream": 3135,
    "\u2581comparestringw": 3136,
    "\u25810x1211f6c": 3137,
    "\u2581rtlun": 3138,
    "\u25810xcf0000": 3139,
    "\u2581rtlunwind": 3140,
    "5c0": 3141,
    "\u2581tmp": 3142,
    "69c": 3143,
    "\u25810x42cd": 3144,
    "\u25810x437820": 3145,
    "\u25810xfeee007b": 3146,
    "\u25810x46b3": 3147,
    "\u25810x437804": 3148,
    "\u25810x1211f4c": 3149,
    "f84": 3150,
    "\u25810x7e4": 3151,
    "\u25810x4554": 3152,
    "ty": 3153,
    "d04": 3154,
    "\u25810x6b": 3155,
    "\u2581regsetvalu": 3156,
    "678": 3157,
    "ccc": 3158,
    "\u25810x4614": 3159,
    "\u25810xfeee007f": 3160,
    "\u25810xfeee007c": 3161,
    "stack": 3162,
    "409": 3163,
    "\u25810xad": 3164,
    "guar": 3165,
    "439": 3166,
    "\u25810x60000": 3167,
    "ogram": 3168,
    "\u2581version": 3169,
    "\u2581process32next": 3170,
    "bl": 3171,
    "\u25810xb000": 3172,
    "\u25810x41c044": 3173,
    "ivate": 3174,
    "\u2581oleload": 3175,
    "\u2581oleloadfromstream": 3176,
    "long": 3177,
    "antee": 3178,
    "guarantee": 3179,
    "stackguarantee": 3180,
    "\u2581setthreadstackguarantee": 3181,
    "\u2581wts": 3182,
    "\u2581getlogicalprocessor": 3183,
    "draw": 3184,
    "\u25810xfeee007d": 3185,
    "ee4": 3186,
    "\u2581gdip": 3187,
    "\u25810xfeee007e": 3188,
    "\u25810xfeee0081": 3189,
    "\u2581getlogicalprocessorinformation": 3190,
    "\u25810xf0": 3191,
    "\u25810x7ff": 3192,
    "\u25810xfeee0080": 3193,
    "\u25810x54000": 3194,
    "\u25810xfeee0082": 3195,
    "private": 3196,
    "privateprofile": 3197,
    "\u25810x42ce": 3198,
    "\u25810xfeee0083": 3199,
    "ows": 3200,
    "\u25810x455": 3201,
    "\u2581wi": 3202,
    "\u2581recv": 3203,
    "\u25810xfeee0086": 3204,
    "\u2581setenvironment": 3205,
    "\u25810xfeee0089": 3206,
    "\u25810xfeee0084": 3207,
    "\u25810xfeee0085": 3208,
    "cp": 3209,
    "\u25810xa6": 3210,
    "unlock": 3211,
    "\u25810x1211f80": 3212,
    "\u25810x50850": 3213,
    "\u2581aaa": 3214,
    "\u2581regedit": 3215,
    "\u25810x169bf64": 3216,
    "\u2581oleinitialize": 3217,
    "\u25810xffc1": 3218,
    "\u25810x1210fa": 3219,
    "\u25810xb0": 3220,
    "\u25810x1211f44": 3221,
    "\u25810x120faa8": 3222,
    "ontin": 3223,
    "15c": 3224,
    "\u2581dw": 3225,
    "\u25810x407": 3226,
    "\u25810x169bf74": 3227,
    "437": 3228,
    "9c2": 3229,
    "\u25810x1211f38": 3230,
    "\u2581log": 3231,
    "001": 3232,
    "ession": 3233,
    "284": 3234,
    "884": 3235,
    "sid": 3236,
    "f000": 3237,
    "\u25810xffad": 3238,
    "\u2581getcurrentdirectoryw": 3239,
    "\u25810xc8": 3240,
    "\u25810x1211f3c": 3241,
    "\u25810x412": 3242,
    "\u25810x4990": 3243,
    "will": 3244,
    "\u2581ws2": 3245,
    "\u25810x3b7": 3246,
    "\u2581getcurrentdirectorya": 3247,
    "blt": 3248,
    "\u2581getwindow": 3249,
    "\u25810x45f4": 3250,
    "\u2581createmutexa": 3251,
    "\u2581globalunlock": 3252,
    "\u25810x644": 3253,
    "1c0": 3254,
    "b14": 3255,
    "\u25810x41a": 3256,
    "vchost": 3257,
    "b70": 3258,
    "748": 3259,
    "\u2581svchost": 3260,
    "ec4": 3261,
    "len": 3262,
    "bk": 3263,
    "\u258112": 3264,
    "\u2581post": 3265,
    "ir": 3266,
    "\u25810x4096": 3267,
    "e8c": 3268,
    "\u25810xa5": 3269,
    "\u2581setdll": 3270,
    "base": 3271,
    "\u2581controlfp": 3272,
    "435": 3273,
    "\u25810x30000": 3274,
    "\u25810x5c000": 3275,
    "\u25810x44000": 3276,
    "\u25810xfeee0094": 3277,
    "df0": 3278,
    "\u25810x4828": 3279,
    "\u25810x8aa0": 3280,
    "6e0": 3281,
    "\u2581commode": 3282,
    "\u25810x45f5": 3283,
    "3c0": 3284,
    "\u2581acquiresrwlockexclusive": 3285,
    "794": 3286,
    "\u25810x45f3": 3287,
    "\u25810x2439f74": 3288,
    "500000": 3289,
    "\u25810x45fa": 3290,
    "\u25810x27": 3291,
    "\u25810xffc4": 3292,
    "\u25810x120fd": 3293,
    "\u25810x45f8": 3294,
    "\u25810x4efd98": 3295,
    "unction": 3296,
    "\u2581findfirstfilea": 3297,
    "\u2581yo": 3298,
    "ok": 3299,
    "344": 3300,
    "\u25810x45f6": 3301,
    "d18": 3302,
    "tou": 3303,
    "\u25810x8c60": 3304,
    "\u25810x45f7": 3305,
    "\u25810x45f9": 3306,
    "\u25810x3f3000": 3307,
    "tp": 3308,
    "ays": 3309,
    "ways": 3310,
    "\u25810x7cc0": 3311,
    "\u25810x7d99": 3312,
    "\u25810x7e89": 3313,
    "data": 3314,
    "ver": 3315,
    "env": 3316,
    "\u25810x7e88": 3317,
    "\u25810x12112": 3318,
    "\u2581deleteob": 3319,
    "b0c": 3320,
    "\u2581createsemaphore": 3321,
    "\u25810x45fe": 3322,
    "\u2581defwindowproca": 3323,
    "\u2581sc": 3324,
    "\u25810x417d": 3325,
    "\u25810x52667": 3326,
    "\u25810xfeee0091": 3327,
    "\u25810x563": 3328,
    "\u25810x4232": 3329,
    "\u2581getclassinfoa": 3330,
    "\u25810x4111": 3331,
    "\u2581regquery": 3332,
    "\u25810xfeee0092": 3333,
    "\u25810x45fd": 3334,
    "b964": 3335,
    "heme": 3336,
    "\u25810x416": 3337,
    "\u25810x4601": 3338,
    "\u25810x7da0": 3339,
    "dat": 3340,
    "\u25810x100b": 3341,
    "\u25810xffe2": 3342,
    "\u2581uxt": 3343,
    "\u2581uxtheme": 3344,
    "mb": 3345,
    "204": 3346,
    "\u2581ls": 3347,
    "\u25810x8f70": 3348,
    "\u25810x1211db8": 3349,
    "\u25810x1211f24": 3350,
    "\u25810x45ff": 3351,
    "dc0": 3352,
    "\u25810x1211e1c": 3353,
    "ad8": 3354,
    "fied": 3355,
    "\u25810x22e": 3356,
    "\u2581op": 3357,
    "\u2581plea": 3358,
    "\u2581releases": 3359,
    "\u25810x12119f0": 3360,
    "700": 3361,
    "\u25810x51b": 3362,
    "\u25810x7d98": 3363,
    "\u2581shellexecute": 3364,
    "\u25810xffe7": 3365,
    "670": 3366,
    "10c": 3367,
    "50000": 3368,
    "f58": 3369,
    "\u2581mov": 3370,
    "301": 3371,
    "\u25810xfeee0093": 3372,
    "\u25810x480": 3373,
    "\u25810x8c70": 3374,
    "\u25810x169bf94": 3375,
    "instal": 3376,
    "\u25810x417b": 3377,
    "60c": 3378,
    "bc5": 3379,
    "\u25810xc0": 3380,
    "\u25810x63000000": 3381,
    "\u25810xfeee0098": 3382,
    "\u25810xfeedf": 3383,
    "\u25810x8ab0": 3384,
    "\u25810x8d80": 3385,
    "\u25810x1210df": 3386,
    "\u25810x422a0": 3387,
    "\u2581setdlldirectoryw": 3388,
    "\u25810xfeee0097": 3389,
    "\u2581getlogicaldrivestringsa": 3390,
    "70c": 3391,
    "a02": 3392,
    "\u25810xffae": 3393,
    "\u25810x3f4000": 3394,
    "\u25810x8c90": 3395,
    "\u25810x60c690": 3396,
    "\u25810xffc2": 3397,
    "\u2581failedto": 3398,
    "if": 3399,
    "gine": 3400,
    "\u25810x7d9c": 3401,
    "\u25810x7d9d": 3402,
    "1c4": 3403,
    "sum": 3404,
    "330": 3405,
    "f1b": 3406,
    "acd": 3407,
    "\u2581remove": 3408,
    "278": 3409,
    "\u25810x4112": 3410,
    "\u25810x71000000": 3411,
    "\u2581try": 3412,
    "\u25810x1211d30": 3413,
    "\u25810xfeee0096": 3414,
    "\u2581getdiskfreespaceexa": 3415,
    "66c": 3416,
    "\u25810x43400": 3417,
    "\u25810xffaf": 3418,
    "\u25810x42b964": 3419,
    "\u25810x6f": 3420,
    "sspace": 3421,
    "\u25810x1211738": 3422,
    "\u2581isspace": 3423,
    "\u25810x22002": 3424,
    "ormat": 3425,
    "\u25810x40ac": 3426,
    "\u25810x7da1": 3427,
    "720": 3428,
    "\u25810x12117f4": 3429,
    "\u25810x1211808": 3430,
    "\u25810xfeee0099": 3431,
    "928": 3432,
    "\u2581createprocessa": 3433,
    "\u25810x435000": 3434,
    "\u2581registers": 3435,
    "ig": 3436,
    "ecc": 3437,
    "704": 3438,
    "\u25810x9d": 3439,
    "ervicectrlhandl": 3440,
    "\u2581registerservicectrlhandl": 3441,
    "\u25810x434": 3442,
    "\u25810x8bd0": 3443,
    "\u25810xff90": 3444,
    "\u25810x423326": 3445,
    "\u25810x423327": 3446,
    "d44": 3447,
    "only": 3448,
    "\u25810x429e": 3449,
    "\u2581getvolumeinformationa": 3450,
    "\u25810xfeee009a": 3451,
    "\u25810x20009": 3452,
    "f5c": 3453,
    "ater": 3454,
    "\u2581y": 3455,
    "iserror": 3456,
    "6e8": 3457,
    "a38": 3458,
    "common": 3459,
    "\u2581exem": 3460,
    "\u2581initcommon": 3461,
    "\u2581exemyarg1myarg2": 3462,
    "\u2581initcommoncontrols": 3463,
    "34c": 3464,
    "\u25810x8d20": 3465,
    "\u2581dispatch": 3466,
    "\u2581ob": 3467,
    "touta": 3468,
    "958": 3469,
    "\u25810x8c30": 3470,
    "\u25810x1860": 3471,
    "ed4": 3472,
    "\u25810x41b0": 3473,
    "\u25810x41f7": 3474,
    "application": 3475,
    "\u2581findnextfilew": 3476,
    "\u25810x62": 3477,
    "\u25810x8c10": 3478,
    "\u25810x46b4": 3479,
    "\u25810x4c4": 3480,
    "\u25810x11000": 3481,
    "f6e": 3482,
    "\u25810x40b3": 3483,
    "324": 3484,
    "124": 3485,
    "\u25810x7e00": 3486,
    "\u25810xfeee009b": 3487,
    "\u25810x140": 3488,
    "\u2581resum": 3489,
    "\u25810xfeee014": 3490,
    "\u2581resumethread": 3491,
    "d5c": 3492,
    "\u25810x169bc": 3493,
    "\u2581filet": 3494,
    "\u25810xff91": 3495,
    "\u2581filetimeto": 3496,
    "d8c": 3497,
    "\u25810x8ba0": 3498,
    "\u25810x8d00": 3499,
    "\u25810xfeee009c": 3500,
    "\u2581userenv": 3501,
    "oem": 3502,
    "\u25810x440": 3503,
    "\u25810x7da4": 3504,
    "\u2581move": 3505,
    "\u25810x4125": 3506,
    "e000": 3507,
    "toc": 3508,
    "\u25810xffcb": 3509,
    "\u2581translat": 3510,
    "d40": 3511,
    "regi": 3512,
    "atalog": 3513,
    "\u25810x7db4": 3514,
    "\u25810x7db5": 3515,
    "\u2581findresourcea": 3516,
    "\u2581tex": 3517,
    "\u25810x181b70": 3518,
    "798": 3519,
    "\u25810x1211ee8": 3520,
    "\u2581sendmessagea": 3521,
    "\u2581setfileattributesw": 3522,
    "artup": 3523,
    "\u25810xae": 3524,
    "93e": 3525,
    "684": 3526,
    "bb8": 3527,
    "ervicehandle": 3528,
    "\u2581closeservicehandle": 3529,
    "b10": 3530,
    "\u25810x4cf": 3531,
    "bkcolor": 3532,
    "118": 3533,
    "502": 3534,
    "\u25810x1211fdc": 3535,
    "\u25810x7db0": 3536,
    "\u25810x40a3e": 3537,
    "\u2581translatem": 3538,
    "ac4": 3539,
    "\u25810x4606": 3540,
    "\u25810x4e5d": 3541,
    "\u25810x4093e8": 3542,
    "\u25810x1211690": 3543,
    "\u2581removedirectory": 3544,
    "\u25810x87": 3545,
    "\u25810x44180": 3546,
    "\u2581messageboxa": 3547,
    "\u2581always": 3548,
    "\u25810x4093e5": 3549,
    "\u25810x4093e6": 3550,
    "\u25810x4093e7": 3551,
    "mapi": 3552,
    "\u25810x96": 3553,
    "ass": 3554,
    "scmanag": 3555,
    "\u25810x437c": 3556,
    "\u2581openscmanag": 3557,
    "\u2581setfileinformationbyhandlew": 3558,
    "\u2581getfileinformationbyhandleexw": 3559,
    "3e6": 3560,
    "78c": 3561,
    "920": 3562,
    "vis": 3563,
    "\u25810x41a044": 3564,
    "\u25810x41e1d8": 3565,
    "ned": 3566,
    "e24": 3567,
    "servicestatus": 3568,
    "b7b": 3569,
    "\u25810x8ca0": 3570,
    "internet": 3571,
    "b4c": 3572,
    "e05": 3573,
    "\u25810x7da5": 3574,
    "\u2581createprocessw": 3575,
    "\u25810x7dc8": 3576,
    "\u25810x8be0": 3577,
    "\u25810x4340": 3578,
    "\u25810x4cf0": 3579,
    "\u2581dwmapi": 3580,
    "rn": 3581,
    "\u25810xffc3": 3582,
    "emutex": 3583,
    "\u2581cryptbase": 3584,
    "\u25810x8bb0": 3585,
    "\u25810x437ad": 3586,
    "atalogs": 3587,
    "\u25810x7a10": 3588,
    "\u25810x437bc": 3589,
    "\u25810x4371e6": 3590,
    "\u25810x4371e7": 3591,
    "\u2581releasemutex": 3592,
    "destroy": 3593,
    "\u2581memset": 3594,
    "rnl": 3595,
    "\u25810x8cd0": 3596,
    "lay": 3597,
    "can": 3598,
    "ceex": 3599,
    "\u25810x46b5": 3600,
    "\u2581runonce": 3601,
    "dir": 3602,
    "\u2581exitthread": 3603,
    "\u25810x8c00": 3604,
    "\u25810x8c40": 3605,
    "plor": 3606,
    "nexec": 3607,
    "krnl": 3608,
    "\u2581ntos": 3609,
    "\u2581tryac": 3610,
    "\u2581ntoskrnl": 3611,
    "f60": 3612,
    "\u2581are": 3613,
    "\u2581tryacquiresrwlockexclusive": 3614,
    "mit": 3615,
    "\u25810x4076": 3616,
    "\u25810x43b7b9": 3617,
    "\u2581setfilepointerex": 3618,
    "plorer": 3619,
    "\u25810x6a6": 3620,
    "\u25810x43b7c3": 3621,
    "709": 3622,
    "340": 3623,
    "cc4": 3624,
    "\u25819": 3625,
    "\u2581unmap": 3626,
    "\u2581unmapviewoffile": 3627,
    "fd0": 3628,
    "\u2581textouta": 3629,
    "ef0": 3630,
    "\u2581filenotfound": 3631,
    "\u25810x85d0": 3632,
    "reque": 3633,
    "\u25810x1fa": 3634,
    "\u2581memcpy": 3635,
    "\u25810xffca": 3636,
    "atethread": 3637,
    "ground": 3638,
    "\u25810x40ab": 3639,
    "9c0": 3640,
    "3e0": 3641,
    "985": 3642,
    "\u2581translatemessage": 3643,
    "1d8": 3644,
    "e84": 3645,
    "\u2581mpr": 3646,
    "f40": 3647,
    "\u25810x5937": 3648,
    "\u25810x12110": 3649,
    "\u25810x616": 3650,
    "\u25810x45fc": 3651,
    "\u25810x401000": 3652,
    "\u25810x4093e9": 3653,
    "\u25810x4093ea": 3654,
    "\u25810x4093eb": 3655,
    "ethe": 3656,
    "\u25810x1211ec8": 3657,
    "6c4": 3658,
    "log": 3659,
    "\u25810x66": 3660,
    "\u25810x8814": 3661,
    "ba0": 3662,
    "\u258103": 3663,
    "\u2581dup": 3664,
    "\u25810x4030": 3665,
    "\u25810x7da8": 3666,
    "\u2581shgetfile": 3667,
    "dl": 3668,
    "f8a": 3669,
    "\u2581terminatethread": 3670,
    "9c4": 3671,
    "\u2581getoem": 3672,
    "\u2581selectob": 3673,
    "tag": 3674,
    "\u25810xffc8": 3675,
    "\u25810x1211e54": 3676,
    "areex": 3677,
    "\u2581strcmp": 3678,
    "\u2581getoemcp": 3679,
    "dcompareex": 3680,
    "dcompareexchange": 3681,
    "\u2581interlockedcompareexchange": 3682,
    "103": 3683,
    "\u25810x107": 3684,
    "\u2581drawtexta": 3685,
    "1cc": 3686,
    "130": 3687,
    "\u25810xd8": 3688,
    "\u25810x598740": 3689,
    "\u2581openscmanagerw": 3690,
    "\u25812d": 3691,
    "b7a": 3692,
    "ded": 3693,
    "\u2581ns": 3694,
    "\u25810x3f5000": 3695,
    "\u25810x409aa4": 3696,
    "\u2581registerclassexw": 3697,
    "\u258128": 3698,
    "\u25810x409aa5": 3699,
    "\u25810x4614d0": 3700,
    "\u2581allocate": 3701,
    "\u25810x534": 3702,
    "a5c": 3703,
    "f48": 3704,
    "esid": 3705,
    "inter": 3706,
    "andinitializ": 3707,
    "andinitializesid": 3708,
    "\u2581allocateandinitializesid": 3709,
    "90c": 3710,
    "\u25810x40935d": 3711,
    "\u25810x40935e": 3712,
    "\u25810x40935f": 3713,
    "\u25810x409360": 3714,
    "\u25810x409361": 3715,
    "\u25810x409362": 3716,
    "\u25810x409363": 3717,
    "1b0": 3718,
    "\u2581openservicew": 3719,
    "\u2581createservice": 3720,
    "144": 3721,
    "74d": 3722,
    "\u2581duplic": 3723,
    "\u2581charpre": 3724,
    "\u2581nsiserror": 3725,
    "\u2581registerwindowmessagew": 3726,
    "fa8": 3727,
    "youwantto": 3728,
    "\u2581getdiskfreespaceexw": 3729,
    "\u25810x7af0": 3730,
    "\u2581starts": 3731,
    "dispatch": 3732,
    "function": 3733,
    "\u2581startservicectrl": 3734,
    "\u2581startservicectrldispatch": 3735,
    "\u2581setservicestatus": 3736,
    "usp": 3737,
    "\u25810x7da9": 3738,
    "\u25810x40b4": 3739,
    "\u25810x41de": 3740,
    "\u258130": 3741,
    "b84": 3742,
    "\u25810x565": 3743,
    "\u2581msvcr90": 3744,
    "\u25810x569b48": 3745,
    "speci": 3746,
    "\u2581startservicew": 3747,
    "\u25810x47e0": 3748,
    "\u25810x8d60": 3749,
    "sw": 3750,
    "1e4": 3751,
    "b48": 3752,
    "\u258118": 3753,
    "738": 3754,
    "has": 3755,
    "\u2581bit": 3756,
    "\u25810xffc9": 3757,
    "\u2581winexec": 3758,
    "1a0": 3759,
    "\u2581startservicectrldispatcherw": 3760,
    "bcc": 3761,
    "tiv": 3762,
    "withtag": 3763,
    "\u25810x43a4": 3764,
    "poolwithtag": 3765,
    "\u2581exallocate": 3766,
    "\u2581exallocatepoolwithtag": 3767,
    "e10": 3768,
    "f85": 3769,
    "\u2581pi": 3770,
    "\u2581lstrc": 3771,
    "\u25810x417c": 3772,
    "\u2581createservicew": 3773,
    "\u2581regsetvalueexw": 3774,
    "b98": 3775,
    "\u25810x4c10": 3776,
    "\u25810x107538": 3777,
    "\u25810xfc": 3778,
    "3a8": 3779,
    "a70": 3780,
    "\u2581geticon": 3781,
    "\u2581getusernamea": 3782,
    "\u25810x28c": 3783,
    "\u25810x566": 3784,
    "f28": 3785,
    "lid": 3786,
    "\u2581releasesrwlockexclusive": 3787,
    "f46": 3788,
    "\u2581cl": 3789,
    "\u2581ndr": 3790,
    "\u25810x3f8": 3791,
    "\u25810x41f": 3792,
    "\u2581ndrd": 3793,
    "\u2581postquit": 3794,
    "\u2581postquitmessage": 3795,
    "\u25810x1211e80": 3796,
    "ab8": 3797,
    "d28": 3798,
    "\u2581conne": 3799,
    "\u25810x42c0": 3800,
    "\u2581getprivateprofile": 3801,
    "\u2581createcompatibledc": 3802,
    "erat": 3803,
    "228": 3804,
    "7dc": 3805,
    "\u25810x47ee": 3806,
    "\u25810x70000": 3807,
    "\u25810x468": 3808,
    "\u25810x4607": 3809,
    "\u25810x417": 3810,
    "728": 3811,
    "\u2581bitblt": 3812,
    "\u25810x107598": 3813,
    "\u2581setthreadlocale": 3814,
    "950": 3815,
    "a69": 3816,
    "a48": 3817,
    "\u258124": 3818,
    "\u25810x47a00": 3819,
    "\u2581findnextfilea": 3820,
    "\u25810x42a1": 3821,
    "\u2581findwindowa": 3822,
    "5b0": 3823,
    "cid": 3824,
    "itors": 3825,
    "\u25810x2200220": 3826,
    "9d8": 3827,
    "\u25810x107658": 3828,
    "b20": 3829,
    "\u25810x4540": 3830,
    "\u2581setbkcolor": 3831,
    "744": 3832,
    "cept": 3833,
    "\u25810x4e5e": 3834,
    "\u25810x40a58c": 3835,
    "148": 3836,
    "printf": 3837,
    "etype": 3838,
    "\u25810x45fb": 3839,
    "\u2581dispatchmessagea": 3840,
    "1b8": 3841,
    "\u25810x41aa": 3842,
    "\u25810x40a57c": 3843,
    "\u2581copyfilew": 3844,
    "61c": 3845,
    "7b8": 3846,
    "longa": 3847,
    "\u25810x8430": 3848,
    "enthread": 3849,
    "\u2581createwindowexw": 3850,
    "3b8": 3851,
    "ere": 3852,
    "owned": 3853,
    "ope": 3854,
    "\u2581openthread": 3855,
    "5e8": 3856,
    "\u25810x414": 3857,
    "\u2581lstrcmpi": 3858,
    "102": 3859,
    "718": 3860,
    "d83": 3861,
    "\u2581createf": 3862,
    "2c4": 3863,
    "970": 3864,
    "9f0": 3865,
    "c84": 3866,
    "c8b": 3867,
    "\u25810x561": 3868,
    "605": 3869,
    "e0c": 3870,
    "start": 3871,
    "\u25810x5265c28": 3872,
    "\u2581getenvironmentstrings": 3873,
    "3ff": 3874,
    "\u2581sys": 3875,
    "\u2581flushfile": 3876,
    "\u2581flushfilebuffers": 3877,
    "\u2581can": 3878,
    "onexit": 3879,
    "\u2581createcompatiblebitmap": 3880,
    "\u25810x1211b08": 3881,
    "\u2581duplicate": 3882,
    "\u25810x107688": 3883,
    "\u25810x1210cf0": 3884,
    "bf0": 3885,
    "\u25810x20000": 3886,
    "foreground": 3887,
    "foregroundwindow": 3888,
    "\u25810x8420": 3889,
    "\u25810xa9b0": 3890,
    "\u25810x40ef": 3891,
    "\u25810x7dac": 3892,
    "\u25810x7dad": 3893,
    "6c5": 3894,
    "664": 3895,
    "\u25810x10e9": 3896,
    "\u25810x44b7": 3897,
    "43c": 3898,
    "e04": 3899,
    "exist": 3900,
    "\u25810x200020": 3901,
    "ready": 3902,
    "\u2581susp": 3903,
    "\u25810x64000": 3904,
    "hed": 3905,
    "\u25810x42a": 3906,
    "\u2581htons": 3907,
    "\u25810xfff2": 3908,
    "d68": 3909,
    "\u25810x41d2": 3910,
    "\u25810x1211438": 3911,
    "install": 3912,
    "\u25810x3f30": 3913,
    "\u2581getdriv": 3914,
    "\u2581duplicatehandle": 3915,
    "\u2581setcurrentdirectorya": 3916,
    "7d0": 3917,
    "7f0": 3918,
    "d84": 3919,
    "\u2581freesid": 3920,
    "\u25810x1808": 3921,
    "\u2581getdrivetype": 3922,
    "1e2": 3923,
    "370": 3924,
    "\u2581youm": 3925,
    "00a": 3926,
    "beb": 3927,
    "934": 3928,
    "utd": 3929,
    "\u25810x53e4": 3930,
    "\u25810xffc7": 3931,
    "\u2581socket": 3932,
    "bas": 3933,
    "notin": 3934,
    "\u2581suspend": 3935,
    "\u2581suspendthread": 3936,
    "\u25810x68000": 3937,
    "d50": 3938,
    "e58": 3939,
    "998": 3940,
    "\u25810xf8": 3941,
    "\u25810x500": 3942,
    "\u25810x7b00": 3943,
    "784": 3944,
    "\u2581getdi": 3945,
    "notinitializ": 3946,
    "locknot": 3947,
    "\u2581initon": 3948,
    "ceexecute": 3949,
    "ceexecuteonce": 3950,
    "\u2581initonceexecuteonce": 3951,
    "itorsup": 3952,
    "ectlocknot": 3953,
    "\u2581monitorsup": 3954,
    "notinitialized": 3955,
    "ectlocknotowned": 3956,
    "\u2581monitorsupfunction": 3957,
    "\u2581monitorsupfunctionnotinitialized": 3958,
    "145": 3959,
    "\u2581initcommoncontrolsex": 3960,
    "150": 3961,
    "207": 3962,
    "35c": 3963,
    "\u25810x4c0": 3964,
    "\u2581vc": 3965,
    "prec": 3966,
    "\u25810xb3": 3967,
    "\u2581getob": 3968,
    "\u2581heapdestroy": 3969,
    "\u258119": 3970,
    "netw": 3971,
    "sa": 3972,
    "b2c": 3973,
    "\u2581back": 3974,
    "filewas": 3975,
    "\u25810x8a60": 3976,
    "\u2581security": 3977,
    "\u25810x1211cdc": 3978,
    "specified": 3979,
    "\u2581deletedc": 3980,
    "\u2581lstrcata": 3981,
    "solid": 3982,
    "\u25810x4605": 3983,
    "\u25810x7f8003": 3984,
    "\u25810x7f8004": 3985,
    "\u25810x7f8005": 3986,
    "\u25810x7f8006": 3987,
    "\u25810x7f8007": 3988,
    "\u25810x7f8008": 3989,
    "\u25810x7f8009": 3990,
    "\u25810x7f800a": 3991,
    "\u25810x7f800b": 3992,
    "\u25810x7f800c": 3993,
    "\u25810x7f800d": 3994,
    "\u25810x1211f50": 3995,
    "\u25810x1075c8": 3996,
    "\u25810x1075f8": 3997,
    "\u25810x107628": 3998,
    "\u2581thespecified": 3999,
    "filewasnotfound": 4000,
    "\u2581thespecifiedfilewasnotfound": 4001,
    "item": 4002,
    "\u25810x7db1": 4003,
    "\u25810x188e00": 4004,
    "\u25810x1211dbc": 4005,
    "\u25810x1211fbc": 4006,
    "381": 4007,
    "\u25810x4604": 4008,
    "\u25810x7f800e": 4009,
    "\u2581created": 4010,
    "\u25810xfeee015": 4011,
    "318": 4012,
    "network": 4013,
    "\u2581createdib": 4014,
    "dup": 4015,
    "70000": 4016,
    "stringw": 4017,
    "\u25810x3f22": 4018,
    "\u25810x7f800f": 4019,
    "\u2581settimer": 4020,
    "im": 4021,
    "\u25810x8815": 4022,
    "aterect": 4023,
    "\u25810x4650": 4024,
    "ontindir": 4025,
    "\u25810x502dc": 4026,
    "\u2581createfontindir": 4027,
    "a64": 4028,
    "\u2581opena": 4029,
    "ae8": 4030,
    "eed": 4031,
    "\u2581vers": 4032,
    "\u25810x7f4": 4033,
    "\u2581settext": 4034,
    "6c8": 4035,
    "b0000": 4036,
    "\u25810x3010": 4037,
    "\u25810x120ff": 4038,
    "\u25810x40ef1b": 4039,
    "\u2581initializesrwlock": 4040,
    "\u25810x8d50": 4041,
    "\u25810x188d3c": 4042,
    "\u2581gb": 4043,
    "\u25810x4d5": 4044,
    "\u2581wsast": 4045,
    "\u2581wsastartup": 4046,
    "310": 4047,
    "eec": 4048,
    "\u25810x40ef1a": 4049,
    "solidbrush": 4050,
    "\u2581createsolidbrush": 4051,
    "7e8": 4052,
    "\u25810x1211fb8": 4053,
    "\u2581setwindowpos": 4054,
    "b18": 4055,
    "bd7": 4056,
    "ise": 4057,
    "287e": 4058,
    "ce9": 4059,
    "eengine": 4060,
    "\u25810x1211584": 4061,
    "\u2581createsemaphorew": 4062,
    "\u2581your": 4063,
    "\u2581getfileinformationbyhandleex": 4064,
    "fad": 4065,
    "fc2": 4066,
    "\u25810x42e": 4067,
    "initializeengine": 4068,
    "\u2581failedtoinitializeengine": 4069,
    "54c": 4070,
    "730": 4071,
    "\u2581reset": 4072,
    "\u25810x4608": 4073,
    "\u2581accept": 4074,
    "precise": 4075,
    "preciseasfiletime": 4076,
    "\u2581getsystemtimepreciseasfiletime": 4077,
    "a0000": 4078,
    "\u25810x46b": 4079,
    "unch": 4080,
    "358": 4081,
    "\u2581sa": 4082,
    "\u25810x130": 4083,
    "\u25810x79a0": 4084,
    "launch": 4085,
    "1d0": 4086,
    "68b": 4087,
    "\u25810x415": 4088,
    "\u25810x8d30": 4089,
    "\u25810x1211888": 4090,
    "\u25810x1211b74": 4091,
    "7ac": 4092,
    "\u25810xffdf": 4093,
    "0048": 4094,
    "\u25810xbe": 4095,
    "\u2581getusernamew": 4096,
    "fec": 4097,
    "this": 4098,
    "a730": 4099,
    "applet": 4100,
    "\u25810x41c": 4101,
    "\u2581settextcolor": 4102,
    "\u2581connect": 4103,
    "\u2581closesocket": 4104,
    "66e": 4105,
    "\u2581verset": 4106,
    "conditionmask": 4107,
    "\u2581versetconditionmask": 4108,
    "19e": 4109,
    "600": 4110,
    "d05": 4111,
    "\u2581getsystemtimes": 4112,
    "3ac": 4113,
    "90e": 4114,
    "db0": 4115,
    "\u2581hg": 4116,
    "\u2581invalidaterect": 4117,
    "\u25810x40e5": 4118,
    "178": 4119,
    "\u25810x40b7": 4120,
    "\u2581instal": 4121,
    "pri": 4122,
    "\u2581fill": 4123,
    "\u2581getp": 4124,
    "utdown": 4125,
    "runtime": 4126,
    "9c8": 4127,
    "\u25810x46c0": 4128,
    "\u25810x6970": 4129,
    "nam": 4130,
    "\u25810x402": 4131,
    "ority": 4132,
    "\u25810x411": 4133,
    "priority": 4134,
    "\u2581hgdraw": 4135,
    "\u25810x1211b50": 4136,
    "srw": 4137,
    "\u258135": 4138,
    "conditionvariablesrw": 4139,
    "\u2581sleepconditionvariablesrw": 4140,
    "a0c": 4141,
    "roll": 4142,
    "empty": 4143,
    "\u25810x51000": 4144,
    "64c": 4145,
    "\u258134": 4146,
    "\u25810x8554": 4147,
    "\u25810xfeee018": 4148,
    "\u25810x488": 4149,
    "\u25810x40f6a8": 4150,
    "\u25810x598758": 4151,
    "runtime140": 4152,
    "\u2581vcruntime140": 4153,
    "\u25810x180": 4154,
    "\u25810x169b7": 4155,
    "\u2581gethost": 4156,
    "\u2581getforegroundwindow": 4157,
    "f38": 4158,
    "exit": 4159,
    "\u25810xff86": 4160,
    "\u2581registerclassa": 4161,
    "bfb": 4162,
    "\u25810x188e24": 4163,
    "\u25810x1210e30": 4164,
    "\u2581getsyscolorbrush": 4165,
    "\u2581format": 4166,
    "644": 4167,
    "ware": 4168,
    "350": 4169,
    "\u2581bind": 4170,
    "\u25810x42a0": 4171,
    "\u2581isvalidlocale": 4172,
    "406": 4173,
    "7bc": 4174,
    "\u25810x40a3f": 4175,
    "\u25810x1211790": 4176,
    "\u25810x84b0": 4177,
    "\u2581ma": 4178,
    "9c24": 4179,
    "nenum": 4180,
    "\u25810x4bb0": 4181,
    "\u2581getlogicaldrivestringsw": 4182,
    "360": 4183,
    "\u25810x1211b54": 4184,
    "ning": 4185,
    "\u25810x4919": 4186,
    "\u2581getdibits": 4187,
    "\u2581setenvironmentvariablea": 4188,
    "7d8": 4189,
    "fb0": 4190,
    "\u25810x4602": 4191,
    "ddata": 4192,
    "\u25810x940000": 4193,
    "ceb": 4194,
    "openenum": 4195,
    "\u2581wnetopenenum": 4196,
    "248": 4197,
    "\u2581atex": 4198,
    "\u2581atexit": 4199,
    "\u2581wnetopenenumw": 4200,
    "7c5": 4201,
    "\u25810x46b5d4": 4202,
    "\u2581destroyicon": 4203,
    "\u2581regqueryvalu": 4204,
    "20c": 4205,
    "\u25810x4196": 4206,
    "90000": 4207,
    "accel": 4208,
    "\u25810xbc": 4209,
    "\u2581createfontindirecta": 4210,
    "byname": 4211,
    "\u25810x7230": 4212,
    "\u25810xff69": 4213,
    "b50": 4214,
    "\u25810x52000": 4215,
    "655": 4216,
    "\u25810x599": 4217,
    "\u25810x8310": 4218,
    "\u2581gethostbyname": 4219,
    "\u2581removedirectorya": 4220,
    "\u25810x10e9bc": 4221,
    "1b4": 4222,
    "hip": 4223,
    "bers": 4224,
    "\u25810x411b": 4225,
    "sg": 4226,
    "378": 4227,
    "bd4": 4228,
    "\u2581tlsfree": 4229,
    "\u25810x188e4c": 4230,
    "vironmentstringsa": 4231,
    "\u25810xd3d": 4232,
    "members": 4233,
    "\u25810x2100": 4234,
    "\u25810x461518": 4235,
    "\u2581setst": 4236,
    "membership": 4237,
    "\u2581checktoken": 4238,
    "\u2581checktokenmembership": 4239,
    "led": 4240,
    "\u2581logme": 4241,
    "\u25810x4169c0": 4242,
    "\u25810x4169c1": 4243,
    "a8f": 4244,
    "nexplorer": 4245,
    "clipboardf": 4246,
    "\u25810xb7": 4247,
    "\u25810xffde": 4248,
    "1e8": 4249,
    "960": 4250,
    "d0c": 4251,
    "printer": 4252,
    "778": 4253,
    "\u2581setstdhandle": 4254,
    "bb0": 4255,
    "\u25810x4af4": 4256,
    "eb8": 4257,
    "7170": 4258,
    "ialog": 4259,
    "\u25810x486d": 4260,
    "\u2581getkeystate": 4261,
    "\u25810xffe8": 4262,
    "\u2581setupapi": 4263,
    "\u25810x2ac": 4264,
    "\u2581wnetadd": 4265,
    "resourcew": 4266,
    "b30": 4267,
    "d70": 4268,
    "\u2581fillrect": 4269,
    "\u2581wnetenum": 4270,
    "\u2581wnetenumresourcew": 4271,
    "\u2581wnetaddconnection2w": 4272,
    "d85": 4273,
    "ects": 4274,
    "\u25810x4041": 4275,
    "\u25810x78c0": 4276,
    "15f": 4277,
    "620": 4278,
    "a41": 4279,
    "fdd": 4280,
    "youre": 4281,
    "enamew": 4282,
    "\u25810x4e5c": 4283,
    "\u2581dialog": 4284,
    "\u25810x75500000": 4285,
    "\u2581createdibsection": 4286,
    "663": 4287,
    "\u25810x41d": 4288,
    "\u25810x4b40": 4289,
    "\u25810x7eaba8": 4290,
    "\u25810x599b5c": 4291,
    "\u25810x599c24": 4292,
    "\u25810x59bf3c": 4293,
    "\u25810x59bf7c": 4294,
    "\u25810x59c120": 4295,
    "\u25810x59c138": 4296,
    "\u25810x1211c14": 4297,
    "\u25810x1211f0c": 4298,
    "\u2581ps": 4299,
    "\u25810x567678": 4300,
    "6cd": 4301,
    "e48": 4302,
    "\u2581bat": 4303,
    "\u25810x44c2": 4304,
    "\u25810x1210ec0": 4305,
    "b78": 4306,
    "\u25810x4b7": 4307,
    "\u25810x42eb": 4308,
    "\u25810x40d8": 4309,
    "\u2581golfset": 4310,
    "afc": 4311,
    "\u25810x435018": 4312,
    "7ec": 4313,
    "sys": 4314,
    "\u2581lib": 4315,
    "\u25810x435002": 4316,
    "\u25810x435004": 4317,
    "\u25810x435006": 4318,
    "\u25810x435008": 4319,
    "\u25810x43500a": 4320,
    "\u25810x43500c": 4321,
    "\u25810x43500e": 4322,
    "\u25810x435010": 4323,
    "\u25810x48f894": 4324,
    "ansi": 4325,
    "cancel": 4326,
    "\u25810x7bc": 4327,
    "\u25810x40f937": 4328,
    "\u25810x435014": 4329,
    "\u2581strlen": 4330,
    "lipboard": 4331,
    "\u25810x435016": 4332,
    "\u25810xfeee011": 4333,
    "731": 4334,
    "e4b8": 4335,
    "ame32": 4336,
    "\u2581prop": 4337,
    "\u2581mame32": 4338,
    "\u2581oleacc": 4339,
    "\u25810x74000": 4340,
    "\u2581freeware": 4341,
    "\u2581wnetcancel": 4342,
    "\u2581wnetcancelconnection2w": 4343,
    "218": 4344,
    "716": 4345,
    "7cc": 4346,
    "7ce": 4347,
    "\u25810x134": 4348,
    "\u2581apphelp": 4349,
    "\u2581registerclipboardf": 4350,
    "9260": 4351,
    "bcat": 4352,
    "\u2581propsys": 4353,
    "200": 4354,
    "scue": 4355,
    "bcatq": 4356,
    "\u25810x509e4": 4357,
    "\u2581clbcatq": 4358,
    "932": 4359,
    "\u25810x120f": 4360,
    "\u25810x7dc0": 4361,
    "\u25810x8250": 4362,
    "rescue": 4363,
    "\u2581getkeyboardstate": 4364,
    "\u2581print": 4365,
    "\u25810x42d498": 4366,
    "\u2581wakeconditionvariable": 4367,
    "\u2581mso": 4368,
    "\u25810x10a": 4369,
    "inrescue": 4370,
    "\u2581setclass": 4371,
    "\u2581logmeinrescue": 4372,
    "apis": 4373,
    "\u25810x4c30": 4374,
    "apisansi": 4375,
    "\u2581arefile": 4376,
    "\u2581geticoninfo": 4377,
    "\u2581arefileapisansi": 4378,
    "\u2581logmeinrescueapplet": 4379,
    "903": 4380,
    "a8c": 4381,
    "\u25810x450": 4382,
    "\u25810x56c": 4383,
    "accelerat": 4384,
    "\u25810x435012": 4385,
    "\u25810x1211f54": 4386,
    "fe0": 4387,
    "\u25810x7070": 4388,
    "7ea": 4389,
    "f90": 4390,
    "0070": 4391,
    "\u2581sub": 4392,
    "\u2581drawicon": 4393,
    "528": 4394,
    "\u25810x1e5": 4395,
    "403": 4396,
    "7e0": 4397,
    "\u25810x43f6": 4398,
    "\u2581openclipboard": 4399,
    "\u25810x110": 4400,
    "\u2581setclipboar": 4401,
    "\u2581setclipboarddata": 4402,
    "a45": 4403,
    "d58": 4404,
    "e5c": 4405,
    "20000": 4406,
    "\u25810xbb": 4407,
    "\u2581psapi": 4408,
    "\u2581empty": 4409,
    "program": 4410,
    "\u2581closec": 4411,
    "\u2581closeclipboard": 4412,
    "3cc": 4413,
    "\u2581submit": 4414,
    "\u25810x3f6000": 4415,
    "645": 4416,
    "ef4": 4417,
    "fc0": 4418,
    "tic": 4419,
    "\u25810x478": 4420,
    "\u25810x7c40": 4421,
    "\u25810x9210": 4422,
    "\u2581shellexecut": 4423,
    "\u2581emptyclipboard": 4424,
    "7c8": 4425,
    "20302": 4426,
    "\u25810x4086": 4427,
    "\u25810x70a8": 4428,
    "\u25810x99a0": 4429,
    "emory": 4430,
    "\u2581string": 4431,
    "threadpoolwork": 4432,
    "\u2581shellexecutew": 4433,
    "\u2581closethreadpoolwork": 4434,
    "\u2581createthreadpoolwork": 4435,
    "\u2581submitthreadpoolwork": 4436,
    "\u2581setfileinformationbyhandle": 4437,
    "60000": 4438,
    "profil": 4439,
    "\u25810x438": 4440,
    "14c": 4441,
    "d0000": 4442,
    "\u25810x7ef0": 4443,
    "\u25810x3020302": 4444,
    "698": 4445,
    "aa0": 4446,
    "\u25810x4c33": 4447,
    "\u2581setclasslonga": 4448,
    "\u25810x1211518": 4449,
    "7e6": 4450,
    "eer": 4451,
    "\u25810x3fb000": 4452,
    "\u2581wm": 4453,
    "\u25810x42a00": 4454,
    "\u25810x52668": 4455,
    "\u25810x5266c": 4456,
    "\u25810x4c32d8": 4457,
    "\u25810x4c32f0": 4458,
    "\u25810x208": 4459,
    "\u25810x535": 4460,
    "\u25810x40969": 4461,
    "\u25810x3f7000": 4462,
    "190": 4463,
    "56c": 4464,
    "a54": 4465,
    "\u2581add": 4466,
    "902e0": 4467,
    "valuea": 4468,
    "\u25810xcccc": 4469,
    "\u25810x4902e0": 4470,
    "\u25810x42ce08": 4471,
    "\u25810x496790": 4472,
    "\u258108": 4473,
    "hook": 4474,
    "\u25810x3f8000": 4475,
    "\u2581getmodulebas": 4476,
    "\u2581setendoffile": 4477,
    "\u2581extractassociatedicona": 4478,
    "\u2581extractassociatediconw": 4479,
    "zer": 4480,
    "\u2581shellexecuteexw": 4481,
    "736": 4482,
    "cca": 4483,
    "\u25810x41c4": 4484,
    "\u2581getmodulebasenamew": 4485,
    "db5": 4486,
    "\u2581list": 4487,
    "\u25810x41a9": 4488,
    "\u25810xd2": 4489,
    "geo": 4490,
    "\u25810x408c8d": 4491,
    "\u25810x408c8e": 4492,
    "anf": 4493,
    "image": 4494,
    "zerom": 4495,
    "\u2581rtlzerom": 4496,
    "\u2581rtlzeromemory": 4497,
    "220": 4498,
    "\u25810x44f": 4499,
    "\u25810x7db8": 4500,
    "\u25810x77002": 4501,
    "\u2581regdelete": 4502,
    "974": 4503,
    "\u258114": 4504,
    "4005": 4505,
    "\u2581shutdown": 4506,
    "ht": 4507,
    "9e8": 4508,
    "f18": 4509,
    "\u25810xb4": 4510,
    "\u2581findwindowexa": 4511,
    "9b4": 4512,
    "7675": 4513,
    "\u25810x508d0": 4514,
    "\u25810x43501a": 4515,
    "\u25810x3f75e88": 4516,
    "dateresourcew": 4517,
    "1d4": 4518,
    "zone": 4519,
    "\u25810x173": 4520,
    "\u25810x509a8": 4521,
    "\u2581registerservicectrlhandlerw": 4522,
    "ncy": 4523,
    "\u25810x7fc": 4524,
    "\u2581endup": 4525,
    "\u25810x7db9": 4526,
    "7a0": 4527,
    "\u2581ric": 4528,
    "\u25810xbd": 4529,
    "5cc": 4530,
    "940": 4531,
    "\u25810x423818": 4532,
    "\u2581updateresourcea": 4533,
    "\u2581endupdateresourcea": 4534,
    "\u2581beginupdateresourcea": 4535,
    "af4": 4536,
    "geoid": 4537,
    "\u25810x7f5": 4538,
    "\u2581riched": 4539,
    "\u25810x3f9000": 4540,
    "\u25810x3fa000": 4541,
    "\u2581getusergeoid": 4542,
    "304": 4543,
    "oct": 4544,
    "privile": 4545,
    "atoma": 4546,
    "\u2581getmodulehandl": 4547,
    "cefreque": 4548,
    "cefrequency": 4549,
    "\u2581beginupdateresourcew": 4550,
    "\u2581queryperformancefrequency": 4551,
    "9b0": 4552,
    "bb4": 4553,
    "anfdr": 4554,
    "\u2581htonl": 4555,
    "\u2581sanfdr": 4556,
    "\u25810x181b48": 4557,
    "zoneinformation": 4558,
    "3e2": 4559,
    "a10": 4560,
    "\u25810x4095": 4561,
    "\u25810x1211f98": 4562,
    "\u25810xfeee019": 4563,
    "\u2581gettimezoneinformation": 4564,
    "ae0": 4565,
    "\u2581af": 4566,
    "f78": 4567,
    "octls": 4568,
    "ticonex": 4569,
    "\u2581ioctls": 4570,
    "\u25810x563a20": 4571,
    "\u2581ioctlsocket": 4572,
    "\u2581extracticonex": 4573,
    "\u25810xffe9": 4574,
    "\u2581extracticonexw": 4575,
    "do": 4576,
    "122": 4577,
    "\u25810x41eb": 4578,
    "936": 4579,
    "\u25810x7f9": 4580,
    "235": 4581,
    "6b6": 4582,
    "ec9": 4583,
    "\u25810x9e": 4584,
    "\u25810x1e00000": 4585,
    "\u25810x1e50000": 4586,
    "\u2581aa": 4587,
    "7038": 4588,
    "\u25810x4020": 4589,
    "\u25810x71a1": 4590,
    "\u25810x43501c": 4591,
    "\u25810x43501e": 4592,
    "\u25810x435020": 4593,
    "\u25810x435022": 4594,
    "\u25810x435028": 4595,
    "\u25810x43502a": 4596,
    "\u25810x43502c": 4597,
    "\u25810x43502e": 4598,
    "\u25810x435030": 4599,
    "11c": 4600,
    "\u2581launch": 4601,
    "\u2581listen": 4602,
    "\u25810x181b98": 4603,
    "\u25810x41d1e0": 4604,
    "\u2581getwindowsdirectoryw": 4605,
    "2c8": 4606,
    "625": 4607,
    "b58": 4608,
    "blead": 4609,
    "\u2581ismb": 4610,
    "\u2581ismbblead": 4611,
    "723": 4612,
    "\u25810x4012": 4613,
    "\u25810x41e2": 4614,
    "\u25810xffd8": 4615,
    "7c4": 4616,
    "30000": 4617,
    "\u25810x678": 4618,
    "\u25810xb0000": 4619,
    "\u2581getdrivetypea": 4620,
    "\u2581mo": 4621,
    "econsole": 4622,
    "\u25810x7500": 4623,
    "inmodule": 4624,
    "\u25810x44c250": 4625,
    "\u2581getsystemdefault": 4626,
    "006": 4627,
    "79c": 4628,
    "erif": 4629,
    "\u25810x7d20": 4630,
    "404": 4631,
    "\u25810x7dbc": 4632,
    "\u25810x1211a44": 4633,
    "des": 4634,
    "7f4": 4635,
    "orn": 4636,
    "\u25810x3f2": 4637,
    "eername": 4638,
    "\u25810x71c0": 4639,
    "\u25810x7e3000": 4640,
    "\u25810x7e4000": 4641,
    "\u2581getpeername": 4642,
    "bfc": 4643,
    "format": 4644,
    "\u25810x1211eac": 4645,
    "alse": 4646,
    "\u25810x765": 4647,
    "\u25810x40a5b0": 4648,
    "\u25810x40a5b8": 4649,
    "\u2581regcreate": 4650,
    "1ac": 4651,
    "754": 4652,
    "b63": 4653,
    "\u2581zip": 4654,
    "\u25810x7c90": 4655,
    "b68": 4656,
    "d24": 4657,
    "false": 4658,
    "\u25810x7710": 4659,
    "\u25810x7bc00000": 4660,
    "\u2581di": 4661,
    "\u25810x2b4": 4662,
    "\u25810x7708": 4663,
    "\u25810x9020": 4664,
    "\u25810x40a5b4": 4665,
    "\u25810x7dbd": 4666,
    "\u25810x40a5ae": 4667,
    "\u25810x40a5b2": 4668,
    "\u25810x40a5b6": 4669,
    "\u25810x40a5ba": 4670,
    "\u25810x1211f5c": 4671,
    "strue": 4672,
    "running": 4673,
    "\u25810xfeedf0": 4674,
    "\u2581doyouwantto": 4675,
    "9a8": 4676,
    "f50": 4677,
    "par": 4678,
    "allyour": 4679,
    "onexist": 4680,
    "zeroorn": 4681,
    "\u25810x40e7": 4682,
    "\u2581istrue": 4683,
    "\u2581isexist": 4684,
    "\u2581isfalse": 4685,
    "\u2581iszeroorn": 4686,
    "\u2581openanexplorer": 4687,
    "\u2581iszeroornonexist": 4688,
    "d72": 4689,
    "\u2581fil": 4690,
    "\u25810x4760": 4691,
    "\u2581append": 4692,
    "433": 4693,
    "67e": 4694,
    "944": 4695,
    "\u2581environ": 4696,
    "\u2581getcomputer": 4697,
    "dc2": 4698,
    "frominternet": 4699,
    "arta": 4700,
    "\u25810x40e9": 4701,
    "\u2581getmodulehandleexw": 4702,
    "\u25810x2ac45": 4703,
    "\u25810x7b000": 4704,
    "\u25810x40287e": 4705,
    "\u25810x4111d0": 4706,
    "f35": 4707,
    "tili": 4708,
    "privilege": 4709,
    "\u25810xfffffffe": 4710,
    "238": 4711,
    "\u25810x7e5000": 4712,
    "\u25810x1210e34": 4713,
    "\u25810x4040": 4714,
    "\u25810x2357b": 4715,
    "9fb": 4716,
    "ongle": 4717,
    "onsolec": 4718,
    "\u25810x76500000": 4719,
    "\u2581regcreatekey": 4720,
    "\u25810x42a4": 4721,
    "\u25810xffdc": 4722,
    "\u25810xfff3": 4723,
    "270": 4724,
    "6b2": 4725,
    "\u25810x4220": 4726,
    "0068": 4727,
    "\u25810x6f00": 4728,
    "006c": 4729,
    "em32": 4730,
    "\u25810x2840": 4731,
    "\u25810x181c88": 4732,
    "\u2581mso97": 4733,
    "\u25810x3f20": 4734,
    "\u25810x4233": 4735,
    "\u25810x7dc1": 4736,
    "\u25810x8cb0": 4737,
    "\u25810x2840284": 4738,
    "\u2581registerwindowmessagea": 4739,
    "gn": 4740,
    "\u25810x4b00": 4741,
    "\u25810x181c60": 4742,
    "9e4": 4743,
    "\u25810x1211fa0": 4744,
    "fed": 4745,
    "\u25810x3f24": 4746,
    "\u25810x4aa0": 4747,
    "\u25810x7f80": 4748,
    "160": 4749,
    "6d8": 4750,
    "update": 4751,
    "\u25810x3820": 4752,
    "\u25810x7e30": 4753,
    "\u25810x1211c94": 4754,
    "\u25810xbf": 4755,
    "\u25810x1211cb8": 4756,
    "\u2581getfileattributesa": 4757,
    "128": 4758,
    "b90": 4759,
    "\u25810x4c51": 4760,
    "7978": 4761,
    "\u25810x1211e4c": 4762,
    "\u2581writ": 4763,
    "\u25810x4175": 4764,
    "\u25810x7f7e": 4765,
    "edp": 4766,
    "\u25810x4b80": 4767,
    "96c": 4768,
    "dc3": 4769,
    "\u25810x7fe": 4770,
    "\u2581regenum": 4771,
    "\u25810x6d006c": 4772,
    "a63": 4773,
    "\u25810x7f10": 4774,
    "71f": 4775,
    "dfd": 4776,
    "1110": 4777,
    "6160": 4778,
    "handler": 4779,
    "\u25810x90f0": 4780,
    "\u2581crtdll": 4781,
    "\u2581getcursor": 4782,
    "962": 4783,
    "\u25810x6f006e": 4784,
    "\u25810x710070": 4785,
    "\u25810x770076": 4786,
    "\u25810x790078": 4787,
    "\u25810x1211ef4": 4788,
    "f20": 4789,
    "b006a": 4790,
    "\u25810x164": 4791,
    "\u25810x4195": 4792,
    "\u25810x690068": 4793,
    "\u25810x6b006a": 4794,
    "\u25810x730072": 4795,
    "\u25810x750074": 4796,
    "\u25810x7b007a": 4797,
    "\u25810x7d007c": 4798,
    "\u25810x7f007e": 4799,
    "\u25810x1211edc": 4800,
    "ld": 4801,
    "a90": 4802,
    "\u25810x40d9": 4803,
    "695": 4804,
    "918": 4805,
    "6564": 4806,
    "\u2581strcpy": 4807,
    "d00": 4808,
    "fd4": 4809,
    "\u25810x2280": 4810,
    "\u2581openprocess": 4811,
    "\u2581getuserdefaultuilanguage": 4812,
    "\u25810x4a20": 4813,
    "\u25810x420fe8": 4814,
    "\u25810x1211ddc": 4815,
    "\u25810x3f75f7c": 4816,
    "\u2581charlow": 4817,
    "205": 4818,
    "a28": 4819,
    "b5e": 4820,
    "\u25810x443": 4821,
    "\u2581internet": 4822,
    "\u25810x1211bfc": 4823,
    "338": 4824,
    "965": 4825,
    "9bc": 4826,
    "50c0": 4827,
    "proces": 4828,
    "\u25810x41a9f0": 4829,
    "\u258110": 4830,
    "\u25810x40f5": 4831,
    "\u25810x455480": 4832,
    "9e0": 4833,
    "icen": 4834,
    "\u25810x3e6c": 4835,
    "\u2581commandline": 4836,
    "98d": 4837,
    "a78": 4838,
    "\u25810x7712": 4839,
    "\u2581please": 4840,
    "\u2581me": 4841,
    "lcid": 4842,
    "\u25810x7718": 4843,
    "298": 4844,
    "d1b": 4845,
    "4bb8": 4846,
    "argvw": 4847,
    "\u25810x6b6": 4848,
    "toargvw": 4849,
    "\u25810x3010301": 4850,
    "\u2581commandlinetoargvw": 4851,
    "core": 4852,
    "647": 4853,
    "e6c": 4854,
    "\u25810x600": 4855,
    "\u25810x5199": 4856,
    "\u25810x455468": 4857,
    "\u25810x1210d90": 4858,
    "33c": 4859,
    "\u25810x458": 4860,
    "\u2581for": 4861,
    "\u2581pleas": 4862,
    "\u25810x9028": 4863,
    "\u2581program": 4864,
    "\u25810x3f75f84": 4865,
    "\u25810x3f75f8c": 4866,
    "6f1": 4867,
    "d34": 4868,
    "\u25810x7460": 4869,
    "e0000": 4870,
    "\u25810x5658": 4871,
    "\u25810x74d0": 4872,
    "\u2581shgetfileinfow": 4873,
    "6fc": 4874,
    "fic": 4875,
    "\u25810x6c000": 4876,
    "322": 4877,
    "af0": 4878,
    "\u25810x120ee": 4879,
    "\u2581freeenvironmentstringsa": 4880,
    "filespec": 4881,
    "\u2581appendw": 4882,
    "fbc": 4883,
    "\u25810x4e300": 4884,
    "\u25810x40a92e": 4885,
    "\u25810x40a930": 4886,
    "\u25810x40a932": 4887,
    "\u25810x40a934": 4888,
    "\u25810x40a936": 4889,
    "\u25810x40a938": 4890,
    "\u25810x40a93a": 4891,
    "\u2581getmessagew": 4892,
    "\u2581removefilespec": 4893,
    "110": 4894,
    "50c": 4895,
    "3cf0": 4896,
    "ass2": 4897,
    "\u2581meip": 4898,
    "\u25810x4b8": 4899,
    "\u25810x4229c1": 4900,
    "\u2581meipass2": 4901,
    "302": 4902,
    "d38": 4903,
    "fb8": 4904,
    "767574": 4905,
    "\u25810x7b7a": 4906,
    "\u25810xffea": 4907,
    "\u25810x77767574": 4908,
    "\u2581application": 4909,
    "pc": 4910,
    "\u25810x180c": 4911,
    "\u25810x1211f14": 4912,
    "\u25810xfeedf000": 4913,
    "642": 4914,
    "\u25810x40a2": 4915,
    "\u25810x410acd": 4916,
    "\u25810x410ace": 4917,
    "\u25810x41e208": 4918,
    "\u25810x7b7a7978": 4919,
    "\u2581removefilespecw": 4920,
    "e69": 4921,
    "f81": 4922,
    "\u2581getfull": 4923,
    "201": 4924,
    "chr": 4925,
    "\u2581gdiplus": 4926,
    "b28": 4927,
    "f03": 4928,
    "f4e4": 4929,
    "\u2581lstrcmpia": 4930,
    "ipe": 4931,
    "7d7c": 4932,
    "afdi": 4933,
    "resour": 4934,
    "\u25810x491": 4935,
    "\u2581wsafdi": 4936,
    "\u2581appdata": 4937,
    "\u2581getexit": 4938,
    "\u25810x452868": 4939,
    "\u25810x1211788": 4940,
    "\u2581wsafdisset": 4941,
    "fox": 4942,
    "\u25810x4529": 4943,
    "\u25810x429260": 4944,
    "75c": 4945,
    "6d6c": 4946,
    "\u25810x42b4": 4947,
    "aa4": 4948,
    "df5": 4949,
    "ee2": 4950,
    "626160": 4951,
    "727170": 4952,
    "\u25810x4bcc": 4953,
    "\u25810x4cb00": 4954,
    "\u25810x63626160": 4955,
    "\u25810x73727170": 4956,
    "pp": 4957,
    "374": 4958,
    "75a": 4959,
    "\u25810x6766": 4960,
    "\u25810x6f6e": 4961,
    "dc4": 4962,
    "\u25810x144": 4963,
    "\u25810x4b4": 4964,
    "\u25810x4603": 4965,
    "\u2581exed": 4966,
    "\u25810x43f": 4967,
    "\u25810x67666564": 4968,
    "\u25812022": 4969,
    "d60": 4970,
    "ff4": 4971,
    "\u25810x7dc4": 4972,
    "\u25810x5265c3c": 4973,
    "a6968": 4974,
    "\u25810x1210bd7": 4975,
    "\u25810x6b6a6968": 4976,
    "\u25810x504": 4977,
    "6c0": 4978,
    "7de": 4979,
    "fig": 4980,
    "4140": 4981,
    "9920": 4982,
    "\u25810x7dc5": 4983,
    "24c": 4984,
    "75e": 4985,
    "f71": 4986,
    "init": 4987,
    "\u2581exedows": 4988,
    "au": 4989,
    "19c": 4990,
    "\u25810x47d0": 4991,
    "\u25810x419c20": 4992,
    "\u25810x12116c0": 4993,
    "\u25810x6f6e6d6c": 4994,
    "0064": 4995,
    "\u25810x4548": 4996,
    "\u2581charprevw": 4997,
    "\u25810x7f7e7d7c": 4998,
    "560": 4999,
    "5bc": 5000,
    "376": 5001,
    "38c": 5002,
    "\u25810x7cb0": 5003,
    "\u25810x7dd0": 5004,
    "\u25810x40a540": 5005,
    "\u25810x562": 5006,
    "\u25810x1733c4": 5007,
    "\u25810x44f850": 5008,
    "\u25810x5617a8": 5009,
    "\u2581cannot": 5010,
    "e74": 5011,
    "\u25810x82f0": 5012,
    "\u25810x430fec": 5013,
    "\u25810x44f8c8": 5014,
    "\u25810x1211d2c": 5015,
    "\u25810x1211e64": 5016,
    "\u2581ts": 5017,
    "\u25810xba": 5018,
    "\u25810x7620": 5019,
    "\u25810x42168c": 5020,
    "\u25810x44f868": 5021,
    "\u25810x44f880": 5022,
    "\u25810x44f898": 5023,
    "\u25810x44f8b0": 5024,
    "ups": 5025,
    "\u25810x422e": 5026,
    "\u25810x8410": 5027,
    "\u25810x40a544": 5028,
    "\u25810x42168b": 5029,
    "\u25810x430db0": 5030,
    "\u25810x44f8f8": 5031,
    "\u25810x44f940": 5032,
    "\u25810x44f958": 5033,
    "\u25810x44f970": 5034,
    "\u25810x44f988": 5035,
    "b94": 5036,
    "0066": 5037,
    "\u25810x40a53a": 5038,
    "\u25810x40a53c": 5039,
    "\u25810x40a53e": 5040,
    "\u25810x40a542": 5041,
    "1f0": 5042,
    "\u25810x40a546": 5043,
    "\u25810x41e93e": 5044,
    "\u25810x41ebfa": 5045,
    "\u25810x41ebfb": 5046,
    "\u25810x1b5": 5047,
    "\u25810x4c41": 5048,
    "22c": 5049,
    "a6c": 5050,
    "f74": 5051,
    "\u25810x6300": 5052,
    "485": 5053,
    "10060": 5054,
    "\u25810x4356": 5055,
    "\u25810x47b1": 5056,
    "\u25810x1211cfc": 5057,
    "\u2581lcmapstringa": 5058,
    "cc6": 5059,
    "\u25810x630062": 5060,
    "\u25810x650064": 5061,
    "\u25810x670066": 5062,
    "905": 5063,
    "c0c": 5064,
    "c4c": 5065,
    "reate": 5066,
    "regist": 5067,
    "\u25810x610060": 5068,
    "\u25810x7ee000": 5069,
    "\u25810xfeee016": 5070,
    "7c58": 5071,
    "\u25810x40a0": 5072,
    "\u25810x7f8002": 5073,
    "3f0": 5074,
    "\u2581om": 5075,
    "\u25810x169be": 5076,
    "\u25810x4093e4": 5077,
    "\u25810x44e4b8": 5078,
    "12c": 5079,
    "our": 5080,
    "\u25810x42ec": 5081,
    "\u25810x8f20": 5082,
    "9fc": 5083,
    "a74": 5084,
    "53a0": 5085,
    "\u25810x7b60": 5086,
    "menuitem": 5087,
    "\u25810x77000": 5088,
    "\u25810x7f8010": 5089,
    "\u25810x1211768": 5090,
    "\u2581this": 5091,
    "\u25810x70e0": 5092,
    "bec": 5093,
    "ormata": 5094,
    "\u25810x7dd9": 5095,
    "\u25810x7e50": 5096,
    "\u25810x4228e1": 5097,
    "a03": 5098,
    "\u25810x4ed": 5099,
    "f19": 5100,
    "\u25810x57c": 5101,
    "\u25810x42a6": 5102,
    "\u2581gettempfilename": 5103,
    "00e": 5104,
    "654": 5105,
    "ocreate": 5106,
    "\u25810x50e10": 5107,
    "\u25810x40f660": 5108,
    "\u25810x422980": 5109,
    "ab0": 5110,
    "bed": 5111,
    "dbd": 5112,
    "f51": 5113,
    "\u2581fre": 5114,
    "secor": 5115,
    "\u2581omsecor": 5116,
    "\u25810x423cf0": 5117,
    "6d6": 5118,
    "978": 5119,
    "a67": 5120,
    "\u25810x40a4": 5121,
    "\u25810x42286e": 5122,
    "\u25810x42286f": 5123,
    "\u25810x4228e2": 5124,
    "\u25810x422963": 5125,
    "\u25810x422964": 5126,
    "\u25810x42297f": 5127,
    "\u25810x4229c2": 5128,
    "\u25810x4229fa": 5129,
    "\u25810x4229fb": 5130,
    "\u25810x422a0d": 5131,
    "\u25810x422a0e": 5132,
    "\u25810x42329e": 5133,
    "\u25810x42329f": 5134,
    "\u25810x4233fc": 5135,
    "\u25810x423cef": 5136,
    "\u25810x1211e90": 5137,
    "c87": 5138,
    "ualfox": 5139,
    "dfc": 5140,
    "ed0": 5141,
    "\u2581ntm": 5142,
    "\u2581ntmarta": 5143,
    "152": 5144,
    "1c2": 5145,
    "adc": 5146,
    "\u2581pleasec": 5147,
    "controlset": 5148,
    "\u2581currentcontrolset": 5149,
    "6a4": 5150,
    "per": 5151,
    "ally": 5152,
    "\u25810x7310": 5153,
    "5ac": 5154,
    "b64": 5155,
    "\u2581437": 5156,
    "\u25810x4300": 5157,
    "\u25810xffeb": 5158,
    "\u25810x429903": 5159,
    "\u2581messageboxw": 5160,
    "\u25810x429902": 5161,
    "\u25810x42990c": 5162,
    "\u25810x42990d": 5163,
    "\u25810x429920": 5164,
    "\u25810x429921": 5165,
    "\u2581registerclipboardformata": 5166,
    "\u2581ie": 5167,
    "already": 5168,
    "\u25810x42992a": 5169,
    "\u25810x42992b": 5170,
    "3d7": 5171,
    "931": 5172,
    "9c3": 5173,
    "aveb": 5174,
    "\u25810xe00": 5175,
    "avebeen": 5176,
    "\u25810x40b9": 5177,
    "\u25810x7e51": 5178,
    "youreally": 5179,
    "\u25810x417b50": 5180,
    "\u2581openanexploreron": 5181,
    "7c2": 5182,
    "\u2581lm": 5183,
    "52e8": 5184,
    "\u2581stem32": 5185,
    "\u25810x1211d50": 5186,
    "\u25810x350": 5187,
    "\u25810x71f8": 5188,
    "fd8": 5189,
    "\u25810xf1": 5190,
    "\u25810x7380": 5191,
    "amet": 5192,
    "\u25810xdf": 5193,
    "\u25810x40d": 5194,
    "\u25810x6b4": 5195,
    "\u25810x75b0": 5196,
    "\u25810x46b3d0": 5197,
    "713": 5198,
    "\u25813d": 5199,
    "7be8": 5200,
    "\u25810x6ce": 5201,
    "\u25810x7770": 5202,
    "2b0": 5203,
    "2ed": 5204,
    "7b4": 5205,
    "\u25810x572": 5206,
    "3a5": 5207,
    "bd8": 5208,
    "\u25810x44e9": 5209,
    "\u2581youmust": 5210,
    "\u2581202203031": 5211,
    "b73": 5212,
    "hash": 5213,
    "\u2581vie": 5214,
    "\u2581evie": 5215,
    "ecadwork": 5216,
    "\u25810x4238a8": 5217,
    "\u25810x4238d8": 5218,
    "325": 5219,
    "e2c": 5220,
    "fa0": 5221,
    "ea20": 5222,
    "sand": 5223,
    "\u2581psc": 5224,
    "\u25810xde": 5225,
    "\u25810x7a48": 5226,
    "\u2581movefilew": 5227,
    "634": 5228,
    "f2c": 5229,
    "\u25817z6": 5230,
    "\u25810xdc": 5231,
    "\u25817z72": 5232,
    "\u25810xa210": 5233,
    "\u25810x4c4230": 5234,
    "1c7": 5235,
    "752": 5236,
    "ave": 5237,
    "\u2581mail": 5238,
    "\u25810x8330": 5239,
    "\u25810x42a730": 5240,
    "\u25810x42a731": 5241,
    "\u25810x4c4248": 5242,
    "\u25810x4c4260": 5243,
    "\u25810x4c4278": 5244,
    "\u25810x4c4290": 5245,
    "\u25810x4c42a8": 5246,
    "\u25810x4c4320": 5247,
    "\u25810x4c4338": 5248,
    "\u25810x4c4350": 5249,
    "\u25810x4c4368": 5250,
    "1a4": 5251,
    "\u2581cli": 5252,
    "\u25810x4444": 5253,
    "\u25810x8f50": 5254,
    "\u25810x2d4df": 5255,
    "6e5": 5256,
    "a30": 5257,
    "baa": 5258,
    "3e3d": 5259,
    "\u25810x8fc0": 5260,
    "\u25810x169bc9c": 5261,
    "3e8": 5262,
    "d98": 5263,
    "\u25810x7b98": 5264,
    "\u25810x82c0": 5265,
    "1f8": 5266,
    "a85": 5267,
    "dac": 5268,
    "68c8": 5269,
    "3f4": 5270,
    "\u25810x754": 5271,
    "\u25810x4106": 5272,
    "\u25810x4235": 5273,
    "\u25810x4ad4": 5274,
    "\u25810x4060": 5275,
    "\u25810x409e": 5276,
    "\u258133": 5277,
    "\u25810x7038": 5278,
    "\u25810x7714": 5279,
    "processmemory": 5280,
    "fc8": 5281,
    "pla": 5282,
    "\u25810x40c7": 5283,
    "\u25810x7715": 5284,
    "\u25810x7719": 5285,
    "\u2581net": 5286,
    "\u25810xe8": 5287,
    "\u25810x154": 5288,
    "\u25810x4084": 5289,
    "\u25810x7c000": 5290,
    "364": 5291,
    "66d": 5292,
    "bc9": 5293,
    "\u25810x160": 5294,
    "\u25810x1211e0c": 5295,
    "503": 5296,
    "ae2": 5297,
    "erify": 5298,
    "\u25810x434d": 5299,
    "\u2581verify": 5300,
    "\u25810x1211180": 5301,
    "95c": 5302,
    "9ac": 5303,
    "dd4": 5304,
    "\u2581lo": 5305,
    "\u2581tsl": 5306,
    "\u25810x7dc9": 5307,
    "\u25810x40935c": 5308,
    "\u25810x4093ec": 5309,
    "\u25810x40b888": 5310,
    "\u25810x1211e40": 5311,
    "versioninfow": 5312,
    "aut": 5313,
    "\u25810x4210": 5314,
    "\u25810x7118": 5315,
    "\u25810x7428": 5316,
    "\u25810x429a81": 5317,
    "3de": 5318,
    "9d3": 5319,
    "ce2": 5320,
    "\u2581884": 5321,
    "\u25810x4066": 5322,
    "\u25810x7888": 5323,
    "\u25810x8028": 5324,
    "\u2581setenvironmentvariablew": 5325,
    "1a7": 5326,
    "58c": 5327,
    "\u2581qa": 5328,
    "\u2581exp": 5329,
    "\u25810x115": 5330,
    "\u25810x411218": 5331,
    "accelerators": 5332,
    "\u2581loadaccelerators": 5333,
    "2d0": 5334,
    "cod": 5335,
    "\u25810x7188": 5336,
    "\u25810x7738": 5337,
    "processto": 5338,
    "123": 5339,
    "ert": 5340,
    "8000": 5341,
    "\u25810xb5": 5342,
    "\u25810x407b": 5343,
    "\u25810x7348": 5344,
    "\u25810x7578": 5345,
    "\u25810x78f8": 5346,
    "\u2581session": 5347,
    "\u2581setcurrentdirectoryw": 5348,
    "424": 5349,
    "6b0": 5350,
    "\u25810x42db": 5351,
    "\u25810x7268": 5352,
    "\u25810x72d8": 5353,
    "\u25810x73b8": 5354,
    "\u25810x7498": 5355,
    "\u25810x1211e98": 5356,
    "65c": 5357,
    "f30": 5358,
    "his": 5359,
    "\u25810x43a": 5360,
    "\u25810x7508": 5361,
    "\u25810x7818": 5362,
    "\u25810xffc0": 5363,
    "\u25810xfeee013": 5364,
    "d78": 5365,
    "valuew": 5366,
    "\u25810x75e8": 5367,
    "\u25810x7658": 5368,
    "\u25810x76c8": 5369,
    "\u25810xffd5": 5370,
    "\u2581getprivateprofilestringa": 5371,
    "1cb": 5372,
    "\u2581isc": 5373,
    "\u25810x45d1": 5374,
    "\u25810x7968": 5375,
    "\u25810x7ce8": 5376,
    "\u25810x437ae4": 5377,
    "\u25810x1210f64": 5378,
    "processtoken": 5379,
    "\u2581myarg1myarg2": 5380,
    "\u2581openprocesstoken": 5381,
    "drl66": 5382,
    "\u2581e000": 5383,
    "\u25810x44e": 5384,
    "\u25810x77a8": 5385,
    "\u25810x7ab8": 5386,
    "\u25810x7c08": 5387,
    "\u25810x437207": 5388,
    "\u25810x437208": 5389,
    "\u25810x437ad2": 5390,
    "\u25810x437ad3": 5391,
    "\u25810x437ae3": 5392,
    "\u25810x437b63": 5393,
    "\u25810x437b64": 5394,
    "\u25810x437b7b": 5395,
    "\u25810x437b7c": 5396,
    "\u25810x437bbd": 5397,
    "\u25810x437bbe": 5398,
    "\u25810x437bce": 5399,
    "\u25810x437bcf": 5400,
    "\u25810x437c42": 5401,
    "\u25810x437c43": 5402,
    "\u25810x53e498": 5403,
    "\u2581tsldrl66": 5404,
    "672": 5405,
    "750": 5406,
    "945": 5407,
    "\u25810x7d58": 5408,
    "80004005": 5409,
    "\u2581error0x80004005": 5410,
    "f3c": 5411,
    "6d73": 5412,
    "\u25810x79d8": 5413,
    "\u25810x7b28": 5414,
    "\u25810x7c78": 5415,
    "bc4": 5416,
    "\u25810x7fa": 5417,
    "d14": 5418,
    "find": 5419,
    "\u25810x4c5158": 5420,
    "\u25810x5040": 5421,
    "\u25810x8b50": 5422,
    "\u25810x429e2b": 5423,
    "\u25810x429e2c": 5424,
    "\u25810x434d1c": 5425,
    "\u25810x43b7a9": 5426,
    "\u25810x43b7aa": 5427,
    "70e": 5428,
    "910": 5429,
    "91c": 5430,
    "d10": 5431,
    "\u25810xb2": 5432,
    "\u25810x8e90": 5433,
    "\u2581unlock": 5434,
    "\u25810x43b7b8": 5435,
    "\u2581ro": 5436,
    "f7a8": 5437,
    "\u25810x44c": 5438,
    "\u25810x484": 5439,
    "\u25810x422ebe": 5440,
    "\u25810x43b7b3": 5441,
    "\u25810x43b7b4": 5442,
    "\u25810x43b7ba": 5443,
    "\u25810x43b7c4": 5444,
    "138": 5445,
    "1c8": 5446,
    "son": 5447,
    "option": 5448,
    "\u25810x4014": 5449,
    "\u25810x1211938": 5450,
    "ry": 5451,
    "sb": 5452,
    "\u25810x4491": 5453,
    "\u25810x2b2": 5454,
    "\u25810x4012db": 5455,
    "\u25810x42cd78": 5456,
    "\u25810x42ce38": 5457,
    "\u2581getstringtypea": 5458,
    "628": 5459,
    "712": 5460,
    "fae": 5461,
    "bbc": 5462,
    "df8": 5463,
    "\u25810xb9": 5464,
    "dcc": 5465,
    "\u25810x824": 5466,
    "1f4": 5467,
    "b82": 5468,
    "ower": 5469,
    "\u2581oem": 5470,
    "\u25810x5b5": 5471,
    "\u25810xfffff8": 5472,
    "578": 5473,
    "5f0": 5474,
    "3cf8": 5475,
    "hara": 5476,
    "\u2581oemtoc": 5477,
    "\u25810x169bd": 5478,
    "\u2581writeconsole": 5479,
    "7b7": 5480,
    "9f8": 5481,
    "activ": 5482,
    "\u25810x4e39": 5483,
    "df4": 5484,
    "installed": 5485,
    "710": 5486,
    "af6": 5487,
    "1918": 5488,
    "\u25810x9010": 5489,
    "\u25810x120ce": 5490,
    "3ce": 5491,
    "\u25810x411c": 5492,
    "\u25810x7dcc": 5493,
    "ph": 5494,
    "3a0": 5495,
    "790": 5496,
    "b1c": 5497,
    "da2": 5498,
    "\u25810x604": 5499,
    "\u25810x97a0": 5500,
    "7ad": 5501,
    "db2": 5502,
    "f79": 5503,
    "\u25810x415c": 5504,
    "\u25810x7df9": 5505,
    "\u25810x10005c": 5506,
    "\u25810x77000723": 5507,
    "b34": 5508,
    "\u25810x40b5": 5509,
    "18c": 5510,
    "368": 5511,
    "\u2581cqa": 5512,
    "\u2581scqa": 5513,
    "\u2581pscqa": 5514,
    "\u25810x8650": 5515,
    "\u25810x3b7fb": 5516,
    "741": 5517,
    "f68": 5518,
    "\u25810xb6": 5519,
    "\u25810x7dcd": 5520,
    "\u25810x8340": 5521,
    "964": 5522,
    "b3c": 5523,
    "bf4": 5524,
    "\u2581fast": 5525,
    "\u25810x3001": 5526,
    "\u25810x100fdd": 5527,
    "\u25810x12119a0": 5528,
    "dff": 5529,
    "\u25810xb1": 5530,
    "\u25810xf2": 5531,
    "\u25810xfe": 5532,
    "resourc": 5533,
    "\u25810x4522": 5534,
    "\u25810x7dd4": 5535,
    "\u25810xd000": 5536,
    "3e1": 5537,
    "aad": 5538,
    "bdc": 5539,
    "eresource": 5540,
    "648": 5541,
    "edu": 5542,
    "3130": 5543,
    "\u25810x474": 5544,
    "procedu": 5545,
    "\u25810x10b": 5546,
    "\u25810x4034": 5547,
    "\u25810x4966": 5548,
    "3a4": 5549,
    "c89": 5550,
    "dd0": 5551,
    "aler": 5552,
    "\u25810x7dd1": 5553,
    "\u25810x7dd5": 5554,
    "\u25810x7dd8": 5555,
    "\u25810x40300": 5556,
    "\u2581writeconsolew": 5557,
    "9c7": 5558,
    "e94": 5559,
    "fab": 5560,
    "ablet": 5561,
    "\u2581lmir": 5562,
    "\u25810x442806": 5563,
    "f5e": 5564,
    "pop": 5565,
    "\u25810x7704": 5566,
    "\u25810x409364": 5567,
    "\u25810x1211e8c": 5568,
    "\u25810x442808": 5569,
    "\u2581oemtochara": 5570,
    "\u25810x4ac": 5571,
    "\u25810x7a40": 5572,
    "\u25810x7df8": 5573,
    "\u25810x94f0": 5574,
    "\u25810x44280a": 5575,
    "\u25810x44280c": 5576,
    "\u25810x44280e": 5577,
    "\u25810x442810": 5578,
    "\u25810x442812": 5579,
    "\u25810x442814": 5580,
    "\u25810x442816": 5581,
    "\u25810x442818": 5582,
    "\u25810x44281a": 5583,
    "\u25810x44281c": 5584,
    "\u25810x44281e": 5585,
    "\u2581freeresource": 5586,
    "\u2581getconsolemode": 5587,
    "0012": 5588,
    "5234": 5589,
    "\u25810x7ddc": 5590,
    "\u25810x7ddd": 5591,
    "630": 5592,
    "aa8": 5593,
    "bd2": 5594,
    "6c00": 5595,
    "created": 5596,
    "\u25810x7f02": 5597,
    "\u25810x8de0": 5598,
    "692": 5599,
    "7d4": 5600,
    "b54": 5601,
    "\u25810x232": 5602,
    "\u25810x7e20": 5603,
    "\u25810xffd4": 5604,
    "\u25810xffda": 5605,
    "\u25810xffee": 5606,
    "\u2581module": 5607,
    "e28": 5608,
    "\u25810x2e7": 5609,
    "632": 5610,
    "685": 5611,
    "a43": 5612,
    "uld": 5613,
    "\u25810x1810": 5614,
    "\u25810x412e": 5615,
    "\u25810x41f6": 5616,
    "\u25810x412565": 5617,
    "385": 5618,
    "6d7363": 5619,
    "l6660d": 5620,
    "\u25810x42b7": 5621,
    "\u25810x412566": 5622,
    "\u25810x12117e8": 5623,
    "\u25810xe06d7363": 5624,
    "682": 5625,
    "gex": 5626,
    "\u25810x40938": 5627,
    "\u25810x1211f68": 5628,
    "\u2581userprofil": 5629,
    "15e": 5630,
    "b46": 5631,
    "\u25810x169b9": 5632,
    "aab": 5633,
    "\u258150": 5634,
    "formatw": 5635,
    "\u2581conver": 5636,
    "\u25810x454bb8": 5637,
    "\u25810x12117fc": 5638,
    "\u25810x1211d44": 5639,
    "su": 5640,
    "a0e": 5641,
    "\u25810x28fd0": 5642,
    "\u25810x4528b0": 5643,
    "\u25810x483cf8": 5644,
    "240": 5645,
    "7c0": 5646,
    "9d0": 5647,
    "\u25810x698": 5648,
    "\u25810x9810": 5649,
    "\u2581module32": 5650,
    "drl6660drl6660drl6660drl6660drl6660": 5651,
    "a24": 5652,
    "\u25810x437116": 5653,
    "\u25810x437117": 5654,
    "\u25810x482854": 5655,
    "\u25810x482870": 5656,
    "\u25810x120fd64": 5657,
    "384": 5658,
    "9fe": 5659,
    "\u25810xa4a0": 5660,
    "\u25810xffdb": 5661,
    "eexist": 5662,
    "\u25810x88c0": 5663,
    "\u2581fileexist": 5664,
    "383": 5665,
    "766": 5666,
    "d30": 5667,
    "f9e": 5668,
    "\u25810x40c4": 5669,
    "\u25810x4342": 5670,
    "\u25810x43b6e9": 5671,
    "\u25810xfeee00a0": 5672,
    "5b2": 5673,
    "db8": 5674,
    "\u25810x9730": 5675,
    "00000000": 5676,
    "\u25810x43f00": 5677,
    "\u25810x43b6f3": 5678,
    "pk": 5679,
    "6f0": 5680,
    "\u25810xd3": 5681,
    "\u25810x238": 5682,
    "ab7": 5683,
    "\u25810xd1": 5684,
    "1d5": 5685,
    "604": 5686,
    "a9c": 5687,
    "ad2": 5688,
    "f45": 5689,
    "\u2581all": 5690,
    "\u25810x1211ed4": 5691,
    "\u2581dllonexit": 5692,
    "a31": 5693,
    "f10": 5694,
    "f95": 5695,
    "\u25810x272": 5696,
    "210": 5697,
    "dlg": 5698,
    "e14": 5699,
    "f47": 5700,
    "ible": 5701,
    "158": 5702,
    "389": 5703,
    "99b9": 5704,
    "\u25810xec": 5705,
    "\u25810x12117c8": 5706,
    "\u25810x2000000": 5707,
    "\u25810x6ce0000": 5708,
    "\u2581getuserdefaultlcid": 5709,
    "219": 5710,
    "a83": 5711,
    "\u25810xd7": 5712,
    "\u25810x4770": 5713,
    "aaaaaaaaaaaaaaaa": 5714,
    "142": 5715,
    "935": 5716,
    "a60": 5717,
    "\u25810x59c": 5718,
    "\u25810x10000000": 5719,
    "\u25810x490": 5720,
    "\u2581files": 5721,
    "\u2581updat": 5722,
    "\u25810x1211a4c": 5723,
    "dd8": 5724,
    "\u25810x8660": 5725,
    "software": 5726,
    "\u25810x1211e58": 5727,
    "\u25810x41b1": 5728,
    "\u25810x483d": 5729,
    "\u25810x1211d60": 5730,
    "e42": 5731,
    "block": 5732,
    "\u25810x40000": 5733,
    "be0": 5734,
    "\u25810x447": 5735,
    "\u2581systemtim": 5736,
    "4444": 5737,
    "ataddress": 5738,
    "\u25810x41e1c0": 5739,
    "\u25810xd3da80": 5740,
    "\u2581wtsapi32": 5741,
    "driver": 5742,
    "\u25810x575": 5743,
    "\u25810x41d0": 5744,
    "systemtime": 5745,
    "\u2581verifyversioninfow": 5746,
    "\u2581accessviolationataddress": 5747,
    "402": 5748,
    "det": 5749,
    "f83": 5750,
    "\u25810x1211878": 5751,
    "\u2581regqueryvalueexa": 5752,
    "260": 5753,
    "7d5": 5754,
    "e90": 5755,
    "f91": 5756,
    "ysi": 5757,
    "times": 5758,
    "666": 5759,
    "bf3": 5760,
    "d15": 5761,
    "f70": 5762,
    "\u2581sr": 5763,
    "\u2581command": 5764,
    "\u25810x46b400": 5765,
    "\u25810x491994": 5766,
    "sh": 5767,
    "f69": 5768,
    "fc6": 5769,
    "lot": 5770,
    "ange": 5771,
    "\u2581shellexecutea": 5772,
    "a19": 5773,
    "medi": 5774,
    "entin": 5775,
    "\u25810x4c40": 5776,
    "\u25810x3f2210": 5777,
    "147": 5778,
    "indi": 5779,
    "llow": 5780,
    "sion": 5781,
    "etime": 5782,
    "\u25810x4048": 5783,
    "\u25810x412f": 5784,
    "\u25810x41de00": 5785,
    "mt": 5786,
    "348": 5787,
    "401": 5788,
    "\u25810x53d": 5789,
    "\u25810x4033e6": 5790,
    "\u25810x4093a5": 5791,
    "\u25810x4093a6": 5792,
    "\u25810x4093a7": 5793,
    "\u25810x4093a8": 5794,
    "\u25810x4093a9": 5795,
    "\u25810x4093aa": 5796,
    "\u25810x4093ab": 5797,
    "\u25810x41e190": 5798,
    "xf": 5799,
    "enh": 5800,
    "thi": 5801,
    "\u25810x40ad": 5802,
    "\u25810x4a40": 5803,
    "\u25810x1210e78": 5804,
    "\u25810x1210e7c": 5805,
    "now": 5806,
    "lack": 5807,
    "\u25810xef": 5808,
    "\u25810x1814": 5809,
    "\u2581coinitialize": 5810,
    "a32": 5811,
    "msg": 5812,
    "66a": 5813,
    "b9f": 5814,
    "dd1": 5815,
    "e40": 5816,
    "pdf": 5817,
    "othe": 5818,
    "\u2581ftp": 5819,
    "1ab": 5820,
    "3534": 5821,
    "\u25810xc4": 5822,
    "183": 5823,
    "f02": 5824,
    "\u25810x700": 5825,
    "\u25810x771a": 5826,
    "\u25810x461548": 5827,
    "\u25810x1211ed8": 5828,
    "\u2581at": 5829,
    "\u2581qt": 5830,
    "move": 5831,
    "tinue": 5832,
    "\u25810x4ef": 5833,
    "\u25810x4521": 5834,
    "\u2581directory": 5835,
    "yourcomputer": 5836,
    "rey": 5837,
    "days": 5838,
    "eyour": 5839,
    "dealer": 5840,
    "\u25811days": 5841,
    "ontinue": 5842,
    "\u2581border": 5843,
    "catalogs": 5844,
    "havebeen": 5845,
    "\u25810x42a190": 5846,
    "allcadwork": 5847,
    "\u2581intermedi": 5848,
    "\u2581doyoureally": 5849,
    "\u25810x1824": 5850,
    "\u25810x4043": 5851,
    "forcadwork": 5852,
    "650": 5853,
    "a34": 5854,
    "b71": 5855,
    "edb": 5856,
    "a5958": 5857,
    "\u25810x7a4": 5858,
    "\u2581findwindoww": 5859,
    "354": 5860,
    "765": 5861,
    "ea4": 5862,
    "andar": 5863,
    "\u25810x1104": 5864,
    "\u25810x565848": 5865,
    "\u2581getconsolec": 5866,
    "527": 5867,
    "20c0": 5868,
    "scroll": 5869,
    "\u25810x602": 5870,
    "\u25810x1211d3c": 5871,
    "114": 5872,
    "1e0": 5873,
    "2838": 5874,
    "edcc": 5875,
    "\u25810x42a408": 5876,
    "b3a3": 5877,
    "hysi": 5878,
    "\u25810x8490": 5879,
    "\u25810x697070": 5880,
    "003": 5881,
    "e89": 5882,
    "tility": 5883,
    "3ad": 5884,
    "40d": 5885,
    "62c": 5886,
    "804": 5887,
    "b43": 5888,
    "f3e": 5889,
    "ort": 5890,
    "1514": 5891,
    "\u25814d5": 5892,
    "param": 5893,
    "a00000": 5894,
    "\u25810x42d": 5895,
    "\u25810x131a": 5896,
    "\u25810x406c": 5897,
    "ctrl": 5898,
    "\u25810x80000": 5899,
    "7b0": 5900,
    "a33": 5901,
    "\u2581isctype": 5902,
    "localfiletime": 5903,
    "\u2581localrealloc": 5904,
    "\u2581filetimetolocalfiletime": 5905,
    "d35": 5906,
    "1d1c": 5907,
    "e5d5c": 5908,
    "a90000": 5909,
    "\u2581onexit": 5910,
    "\u25810x4540e0": 5911,
    "\u25810x5b5a5958": 5912,
    "\u25810x5f5e5d5c": 5913,
    "1b2": 5914,
    "\u25810x2439": 5915,
    "\u25810x3020": 5916,
    "\u25810x42a403": 5917,
    "\u25810x42a404": 5918,
    "\u25810x42a405": 5919,
    "\u25810x42a406": 5920,
    "\u25810x42a407": 5921,
    "\u25810x42a409": 5922,
    "\u25810x42a40a": 5923,
    "\u25810x42a40b": 5924,
    "\u25810x42a40c": 5925,
    "\u25810x42a40d": 5926,
    "\u25810x42a40e": 5927,
    "\u25810x42a40f": 5928,
    "\u2581getconsolecp": 5929,
    "\u2581cal": 5930,
    "frame": 5931,
    "6a0": 5932,
    "a52": 5933,
    "ef8": 5934,
    "69c0": 5935,
    "\u25810x5b2": 5936,
    "\u25810x41db": 5937,
    "\u25810x100098": 5938,
    "e100": 5939,
    "client": 5940,
    "\u25810x1818": 5941,
    "b7e": 5942,
    "\u25810x457c": 5943,
    "\u25810x45d0": 5944,
    "\u25810x5000": 5945,
    "\u25810x1211e88": 5946,
    "\u25810xfeee009d": 5947,
    "9ce": 5948,
    "2d2c": 5949,
    "reen": 5950,
    "\u25810xc5": 5951,
    "\u25810x9110": 5952,
    "3c8": 5953,
    "583": 5954,
    "\u25810x9940": 5955,
    "510": 5956,
    "7e5": 5957,
    "bff": 5958,
    "\u2581ext": 5959,
    "toseek": 5960,
    "\u25810x4153a0": 5961,
    "\u25810x6781d8": 5962,
    "\u2581failedtoseek": 5963,
    "\u2581filetimetosystemtime": 5964,
    "\u2581registerservicectrlhandler": 5965,
    "b93": 5966,
    "\u2581if": 5967,
    "\u25810xba8": 5968,
    "\u25810x419638": 5969,
    "\u25810x44ea20": 5970,
    "\u25810x1211fe4": 5971,
    "40f": 5972,
    "fc4": 5973,
    "3ef0": 5974,
    "\u25810xe1": 5975,
    "tostart": 5976,
    "tostartoffile": 5977,
    "\u2581failedtoseektostartoffile": 5978,
    "18e": 5979,
    "3d4": 5980,
    "b74": 5981,
    "6808": 5982,
    "essionid": 5983,
    "\u25810x3820382": 5984,
    "48c": 5985,
    "711": 5986,
    "743": 5987,
    "place": 5988,
    "\u25810x423a": 5989,
    "\u25810x4a80": 5990,
    "\u25810x7ec4": 5991,
    "visualfox": 5992,
    "\u2581failedtoinitializeenginesection": 5993,
    "\u2581ol": 5994,
    "10381": 5995,
    "orrect": 5996,
    "\u2581riched20": 5997,
    "\u25810x1211ea8": 5998,
    "\u25810x3810381": 5999,
    "\u25810x5265c50": 6000,
    "b45": 6001,
    "\u2581vfp": 6002,
    "65554": 6003,
    "enter": 6004,
    "ultip": 6005,
    "\u25810x4b4a4": 6006,
    "formultip": 6007,
    "visualfoxpro": 6008,
    "\u2581ur": 6009,
    "\u25810x1e0": 6010,
    "\u25810x7ce0": 6011,
    "\u25810x698b8c": 6012,
    "\u25810x1211684": 6013,
    "formultipleob": 6014,
    "\u2581failedtoinitializeenginestate": 6015,
    "14a": 6016,
    "230": 6017,
    "7f7": 6018,
    "b38": 6019,
    "f44": 6020,
    "imer": 6021,
    "\u25810xe9a": 6022,
    "f4e4d4c": 6023,
    "listmsg": 6024,
    "\u25810x7eac": 6025,
    "\u25810x8ce0": 6026,
    "\u25810x4c50c0": 6027,
    "\u2581commctrl": 6028,
    "\u25810x1210f8c": 6029,
    "\u25810x4b4a4948": 6030,
    "\u25810x4f4e4d4c": 6031,
    "\u25810xfeee009e": 6032,
    "\u2581draglistmsg": 6033,
    "\u2581getthreadpriority": 6034,
    "9cc": 6035,
    "c01": 6036,
    "\u25810x3332": 6037,
    "\u25810x4445": 6038,
    "\u25810x519dd": 6039,
    "\u25810x1211984": 6040,
    "\u25810x57565554": 6041,
    "69e": 6042,
    "b9e": 6043,
    "ache": 6044,
    "keya": 6045,
    "\u25810x562838": 6046,
    "\u25810x563888": 6047,
    "\u25810x563a08": 6048,
    "\u25810x569b30": 6049,
    "2d1": 6050,
    "915": 6051,
    "943": 6052,
    "9e5": 6053,
    "desk": 6054,
    "\u25810x522": 6055,
    "\u25810x798": 6056,
    "\u25810x181bc0": 6057,
    "\u25810x2280228": 6058,
    "bf8": 6059,
    "fcc": 6060,
    "64544": 6061,
    "lease": 6062,
    "3e3d3c": 6063,
    "\u25810x40e4": 6064,
    "\u25810x4780": 6065,
    "\u25810x3f3e3d3c": 6066,
    "\u25810x43424140": 6067,
    "\u25810x47464544": 6068,
    "268": 6069,
    "715": 6070,
    "72c": 6071,
    "\u25810x1848": 6072,
    "\u25810x184c": 6073,
    "\u25810x3736": 6074,
    "\u25810x4d80": 6075,
    "\u25810x2d4d9": 6076,
    "\u2581202203040": 6077,
    "244": 6078,
    "618": 6079,
    "0026": 6080,
    "\u2581dat": 6081,
    "\u25810x2f2e": 6082,
    "\u25810x37363534": 6083,
    "\u2581formatmessagea": 6084,
    "115": 6085,
    "929": 6086,
    "b65": 6087,
    "\u2581physi": 6088,
    "7161514": 6089,
    "b3a3938": 6090,
    "\u25810x3f28": 6091,
    "\u25810x7ed0": 6092,
    "\u25810xfff1": 6093,
    "writeptr": 6094,
    "\u2581physical": 6095,
    "\u25810x17161514": 6096,
    "\u25810x2f2e2d2c": 6097,
    "\u25810x33323130": 6098,
    "\u25810x3b3a3938": 6099,
    "installation": 6100,
    "\u2581isbadwriteptr": 6101,
    "\u2581getcomputernamea": 6102,
    "3e5": 6103,
    "ce1": 6104,
    "d48": 6105,
    "etw": 6106,
    "okup": 6107,
    "22120": 6108,
    "62524": 6109,
    "a2928": 6110,
    "1a1918": 6111,
    "1e1d1c": 6112,
    "\u25810x1828": 6113,
    "\u25810x1830": 6114,
    "\u25810x2012": 6115,
    "\u25810x1b1a1918": 6116,
    "\u25810x1f1e1d1c": 6117,
    "\u25810x23222120": 6118,
    "\u25810x27262524": 6119,
    "\u25810x2b2a2928": 6120,
    "\u25810xfeee009f": 6121,
    "va": 6122,
    "9b6": 6123,
    "fc5": 6124,
    "25150": 6125,
    "\u25810x1820": 6126,
    "\u25810x1838": 6127,
    "ffff0000": 6128,
    "\u25810x53525150": 6129,
    "ff40": 6130,
    "\u2581calloc": 6131,
    "\u2581lookup": 6132,
    "\u25810x40e500": 6133,
    "\u25810x4285c0": 6134,
    "\u25810x1210e80": 6135,
    "\u2581getcursorpos": 6136,
    "fb6": 6137,
    "\u2581cau": 6138,
    "gistry": 6139,
    "\u25810x183c": 6140,
    "\u25810x3f31": 6141,
    "\u2581caution": 6142,
    "\u25810x1211de8": 6143,
    "\u2581fileexistsw": 6144,
    "c85": 6145,
    "ext": 6146,
    "5648": 6147,
    "\u25810x452": 6148,
    "\u25810x1840": 6149,
    "\u25810x12000": 6150,
    "cho": 6151,
    "ebc": 6152,
    "\u25810x4ec": 6153,
    "\u25810x57e": 6154,
    "\u25810x1844": 6155,
    "\u25810x7b80": 6156,
    "\u25810x9030": 6157,
    "\u25810x1211ec0": 6158,
    "12a": 6159,
    "225": 6160,
    "7a5": 6161,
    "f43": 6162,
    "\u25810x4ee0": 6163,
    "\u25810x9230": 6164,
    "9ec": 6165,
    "b47c": 6166,
    "\u25810xd4": 6167,
    "\u25810xf4": 6168,
    "\u2581regsetvalueexa": 6169,
    "\u25810x1834": 6170,
    "\u25810x1878": 6171,
    "\u25810x40c8": 6172,
    "\u25810x54500000": 6173,
    "\u25810x1858": 6174,
    "\u25810x40df": 6175,
    "\u25810x7716": 6176,
    "\u2581charlower": 6177,
    "imetofiletime": 6178,
    "658": 6179,
    "b8a": 6180,
    "\u25810x182c": 6181,
    "\u25810x4420": 6182,
    "\u25810x4c78": 6183,
    "\u25810x4086e": 6184,
    "558": 6185,
    "ails": 6186,
    "\u2581date": 6187,
    "\u25810x1854": 6188,
    "\u25810x185c": 6189,
    "\u25810x3f27": 6190,
    "168": 6191,
    "3ae": 6192,
    "6b5": 6193,
    "gcc": 6194,
    "roniz": 6195,
    "\u25810x1850": 6196,
    "\u2581libgcc": 6197,
    "\u25810x40a3d1": 6198,
    "\u25810x40a3d2": 6199,
    "\u25810x40a3d3": 6200,
    "\u25810x448ad0": 6201,
    "\u25810x1868": 6202,
    "\u25810x7e8c": 6203,
    "\u2581lstrcmpw": 6204,
    "\u2581synchroniz": 6205,
    "2ac": 6206,
    "a7c": 6207,
    "7ab8": 6208,
    "\u25810x9c8": 6209,
    "\u25810x1874": 6210,
    "\u25810x187c": 6211,
    "\u25810x44d5": 6212,
    "\u25810x4609": 6213,
    "\u25810x47ee08": 6214,
    "\u25810x1211dd8": 6215,
    "745": 6216,
    "b8a8": 6217,
    "\u25810x186c": 6218,
    "\u25810x2050000": 6219,
    "134": 6220,
    "ecode": 6221,
    "\u2581from": 6222,
    "\u25810x1211fb0": 6223,
    "networklicence": 6224,
    "6b8": 6225,
    "1848": 6226,
    "mple": 6227,
    "isplay": 6228,
    "4000000": 6229,
    "\u25810x40ea": 6230,
    "\u2581charpreva": 6231,
    "4000000ffff0000": 6232,
    "etween": 6233,
    "\u25810x118": 6234,
    "\u25810xa6b0": 6235,
    "\u25810x5266e": 6236,
    "\u25810xfeee00a1": 6237,
    "\u2581comparestringa": 6238,
    "f14": 6239,
    "hell": 6240,
    "latsb": 6241,
    "\u25810x1864": 6242,
    "\u25810x1870": 6243,
    "\u25810x593748": 6244,
    "\u25810xfeee00a2": 6245,
    "990": 6246,
    "ba4": 6247,
    "7a00": 6248,
    "drag": 6249,
    "\u25810x2d4d": 6250,
    "\u25810x1210e70": 6251,
    "f1e": 6252,
    "\u25810x532": 6253,
    "\u25810xebad": 6254,
    "initializeex": 6255,
    "\u2581coinitializeex": 6256,
    "\u2581shgetfileinfoa": 6257,
    "vb": 6258,
    "63c": 6259,
    "db4": 6260,
    "wit": 6261,
    "\u25810x3f29": 6262,
    "\u25810x4ec0": 6263,
    "\u2581sprintf": 6264,
    "\u25810x41d210": 6265,
    "\u2581sldrl6660drl6660drl6660drl6660drl6660drl6660drl6660drl6660": 6266,
    "3f2": 6267,
    "64e": 6268,
    "ba8": 6269,
    "dos": 6270,
    "\u2581service": 6271,
    "\u2581strcpyw": 6272,
    "\u2581writeprivateprofile": 6273,
    "b5b4": 6274,
    "\u2581vfp6": 6275,
    "\u25810xffed": 6276,
    "b91": 6277,
    "f98": 6278,
    "\u25810x5718": 6279,
    "\u25810x1211ba4": 6280,
    "ff2": 6281,
    "c018": 6282,
    "\u25810x4055": 6283,
    "\u25810x40a3d4": 6284,
    "37c": 6285,
    "d55": 6286,
    "\u25810x51c3": 6287,
    "\u25810x1211eb4": 6288,
    "993": 6289,
    "eb6": 6290,
    "ongles": 6291,
    "\u25810x7730": 6292,
    "13e": 6293,
    "ea0": 6294,
    "972c": 6295,
    "anden": 6296,
    "\u25810xe4": 6297,
    "\u25810x4100": 6298,
    "\u25810x4f00": 6299,
    "\u25810x9070": 6300,
    "\u25810x1211ebc": 6301,
    "994": 6302,
    "9e2": 6303,
    "a98": 6304,
    "\u2581cb": 6305,
    "\u25810xea": 6306,
    "\u25810x43b4": 6307,
    "\u25810x40b840": 6308,
    "\u25810xebad74": 6309,
    "\u25810x1153ef0": 6310,
    "\u25810x1211e00": 6311,
    "\u25810x1211e94": 6312,
    "75d": 6313,
    "b72": 6314,
    "d13": 6315,
    "ontrol": 6316,
    "\u2581winht": 6317,
    "\u25810x16000": 6318,
    "\u2581expanden": 6319,
    "\u25810x7ba00000": 6320,
    "923": 6321,
    "f42": 6322,
    "f64": 6323,
    "\u25810x288": 6324,
    "\u25810x584": 6325,
    "\u25810x5375": 6326,
    "\u25810x409ab4": 6327,
    "\u25810x409ab5": 6328,
    "\u25810x1211dc4": 6329,
    "b05": 6330,
    "\u25810xc2": 6331,
    "\u25810xfd": 6332,
    "ection": 6333,
    "\u2581class": 6334,
    "\u25810x134dd": 6335,
    "\u25810x4af460": 6336,
    "\u25810xfeee00a3": 6337,
    "\u2581regopenkeya": 6338,
    "2f2": 6339,
    "a66": 6340,
    "\u25810mb": 6341,
    "a900003": 6342,
    "\u25810x1900": 6343,
    "\u25810x3f21": 6344,
    "\u25814d5a900003": 6345,
    "\u25814d5a9000030000000": 6346,
    "\u25814d5a90000300000004000000ffff0000": 6347,
    "545": 6348,
    "fbf": 6349,
    "25c": 6350,
    "58a": 6351,
    "6d4": 6352,
    "bb5": 6353,
    "f72": 6354,
    "instan": 6355,
    "\u25810x71c": 6356,
    "\u25810xffd1": 6357,
    "\u25810xfeee00a4": 6358,
    "\u25810xfeee00a5": 6359,
    "345": 6360,
    "b23": 6361,
    "fail": 6362,
    "fileex": 6363,
    "\u25810x4139": 6364,
    "\u25810xa9a0": 6365,
    "\u25810xda": 6366,
    "\u25810x43c": 6367,
    "\u25810x8850": 6368,
    "\u2581fastfail": 6369,
    "\u25810x1210f88": 6370,
    "126": 6371,
    "398": 6372,
    "f05": 6373,
    "6cbe": 6374,
    "a4c4": 6375,
    "utton": 6376,
    "\u25810x41ab": 6377,
    "tokeninformation": 6378,
    "\u2581outputdebugstringw": 6379,
    "175": 6380,
    "ffa0": 6381,
    "\u25810x40a3d5": 6382,
    "\u25810x40a3d6": 6383,
    "\u25810x40a3d7": 6384,
    "\u25810x417d20": 6385,
    "13d": 6386,
    "3b0": 6387,
    "99c": 6388,
    "\u25810x103": 6389,
    "\u25810xa260": 6390,
    "\u25810x1210f80": 6391,
    "\u25810x12117b0": 6392,
    "\u25810x1211b84": 6393,
    "\u2581applicationerror": 6394,
    "161": 6395,
    "3c5": 6396,
    "3f00": 6397,
    "vice": 6398,
    "\u2581cpp": 6399,
    "\u2581qt5": 6400,
    "uldnot": 6401,
    "\u25810x8cd8": 6402,
    "\u25810xfeee00a6": 6403,
    "14f": 6404,
    "675": 6405,
    "b92": 6406,
    "d46": 6407,
    "7a90": 6408,
    "\u25810x4a77": 6409,
    "debughook": 6410,
    "\u2581msvcr100": 6411,
    "\u2581cppdebughook": 6412,
    "656": 6413,
    "dio": 6414,
    "config": 6415,
    "\u25810x42d0": 6416,
    "\u25810x99e0": 6417,
    "\u25810x408478": 6418,
    "etofiletime": 6419,
    "\u2581systemtimetofiletime": 6420,
    "362": 6421,
    "598": 6422,
    "74f": 6423,
    "dfe": 6424,
    "fdf": 6425,
    "\u25810x1e4": 6426,
    "\u25810x6e6": 6427,
    "\u25810x3f25": 6428,
    "\u25810x45cd": 6429,
    "\u25810x7ec8": 6430,
    "\u25810x9cc0": 6431,
    "\u25810x406698": 6432,
    "\u25810x419ce0": 6433,
    "67a": 6434,
    "e09": 6435,
    "d1b4": 6436,
    "orary": 6437,
    "orgex": 6438,
    "\u25810x4ab": 6439,
    "\u25810x40b0": 6440,
    "fdc": 6441,
    "\u25810x4070": 6442,
    "\u25810x7d40": 6443,
    "\u25810x7ec5": 6444,
    "\u25810x9290": 6445,
    "\u2581default": 6446,
    "\u25810x7eab78": 6447,
    "\u2581waitformultipleob": 6448,
    "3b6": 6449,
    "\u2581afx": 6450,
    "\u25810xd5": 6451,
    "\u25810xe2": 6452,
    "\u2581users": 6453,
    "\u25810x4051": 6454,
    "\u25810x99d0": 6455,
    "fication": 6456,
    "\u25810x1210e84": 6457,
    "7ee": 6458,
    "3030": 6459,
    "pass": 6460,
    "\u25810x4f60": 6461,
    "\u25810x51a0": 6462,
    "\u25810x8d90": 6463,
    "\u2581loadacceleratorsw": 6464,
    "b95": 6465,
    "\u25817z7": 6466,
    "\u25817z8": 6467,
    "\u25817z2e": 6468,
    "\u25817z30": 6469,
    "edpipe": 6470,
    "\u25810x5670": 6471,
    "\u25810x486d18": 6472,
    "\u2581createsemaphorea": 6473,
    "\u2581gettokeninformation": 6474,
    "wer": 6475,
    "\u2581x0": 6476,
    "\u25810x4e2": 6477,
    "\u25810x4078": 6478,
    "\u25810x120ff74": 6479,
    "\u25810xfeee01a": 6480,
    "abc": 6481,
    "d2c": 6482,
    "\u25810x44ed": 6483,
    "\u25810x181be8": 6484,
    "68d": 6485,
    "ece": 6486,
    "\u25811c": 6487,
    "\u25810x4a4": 6488,
    "\u25810x40aa": 6489,
    "f8f": 6490,
    "001e": 6491,
    "anew": 6492,
    "dbc0": 6493,
    "yourpc": 6494,
    "\u25810x4450": 6495,
    "\u25810x181c10": 6496,
    "\u25810x437038": 6497,
    "198": 6498,
    "705": 6499,
    "9a0": 6500,
    "a75": 6501,
    "copy": 6502,
    "b9770": 6503,
    "\u25810x4540b0": 6504,
    "\u25810x1211a38": 6505,
    "\u2581setscroll": 6506,
    "\u25810x6978": 6507,
    "774": 6508,
    "b12": 6509,
    "eb0": 6510,
    "\u25810xc7": 6511,
    "\u25810x4f0": 6512,
    "\u25810x7ea": 6513,
    "\u25810x4af478": 6514,
    "242": 6515,
    "28c": 6516,
    "97c": 6517,
    "b6c": 6518,
    "bcd4": 6519,
    "d250": 6520,
    "\u25810x8258": 6521,
    "\u25810x90c0": 6522,
    "\u25810x181c38": 6523,
    "\u25810x43a4c8": 6524,
    "\u25810x1211f58": 6525,
    "2c2": 6526,
    "6ed": 6527,
    "77c": 6528,
    "a94": 6529,
    "\u25810x1d4": 6530,
    "\u25810x1861": 6531,
    "\u2581charup": 6532,
    "\u25810x103ff": 6533,
    "\u25810xfeee00a7": 6534,
    "\u25810xfffffffc": 6535,
    "b81c": 6536,
    "drawing": 6537,
    "\u25810x452b": 6538,
    "\u25810xffd6": 6539,
    "\u25810x437800": 6540,
    "\u25810x1211ad4": 6541,
    "\u25810x1211d8c": 6542,
    "\u25810xfeee00a8": 6543,
    "\u2581installonly": 6544,
    "7b2": 6545,
    "9dc": 6546,
    "e82": 6547,
    "emo": 6548,
    "a448": 6549,
    "\u25810xdb": 6550,
    "\u25810x59e": 6551,
    "\u25810x56b8": 6552,
    "\u25810x2d4dd": 6553,
    "\u2581globaladd": 6554,
    "hs": 6555,
    "20e": 6556,
    "5a7": 6557,
    "6aa": 6558,
    "upd": 6559,
    "24ac": 6560,
    "e054": 6561,
    "\u25810x4140": 6562,
    "\u25810x41cb": 6563,
    "\u25810x40f690": 6564,
    "\u25810x1211f8c": 6565,
    "6d0": 6566,
    "b7f": 6567,
    "0054": 6568,
    "9228": 6569,
    "\u25810x412d": 6570,
    "\u25810x9a60": 6571,
    "\u25810x455438": 6572,
    "9a6": 6573,
    "b42": 6574,
    "c26": 6575,
    "d63": 6576,
    "f76": 6577,
    "18d5": 6578,
    "\u25810x4be": 6579,
    "\u25810x45b1": 6580,
    "\u25810x97b0": 6581,
    "\u2581qt5core": 6582,
    "\u25810x1211cbc": 6583,
    "\u25810x131aac0": 6584,
    "\u25810xfeee00a9": 6585,
    "\u25810xfeee00bc": 6586,
    "\u2581getwindowdc": 6587,
    "7ca": 6588,
    "b9c": 6589,
    "hoo": 6590,
    "\u2581choo": 6591,
    "\u25810x7d27": 6592,
    "10d": 6593,
    "772": 6594,
    "7df": 6595,
    "cli": 6596,
    "\u2581qae": 6597,
    "\u2581tol": 6598,
    "lotter": 6599,
    "\u25810x771c": 6600,
    "\u25810xffd9": 6601,
    "\u25810x1b25d": 6602,
    "\u2581tolower": 6603,
    "\u25810x120ce80": 6604,
    "vm": 6605,
    "274": 6606,
    "\u25810x6ab8": 6607,
    "\u25810x3f2420": 6608,
    "\u25810x42b778": 6609,
    "\u25810x1211d7c": 6610,
    "\u2581regcreatekeyexa": 6611,
    "245": 6612,
    "6178": 6613,
    "bcb8": 6614,
    "e014": 6615,
    "\u25810x53e0": 6616,
    "\u25810x40abf": 6617,
    "\u25810xfeee00aa": 6618,
    "\u25810xfeee00ae": 6619,
    "da9": 6620,
    "9d50": 6621,
    "\u25810x71e": 6622,
    "\u25810x4013": 6623,
    "\u25810x48b0": 6624,
    "\u25810x435024": 6625,
    "\u25810x4e2de0": 6626,
    "\u25810x134ddf8": 6627,
    "\u25810xfeee00ac": 6628,
    "\u2581getfileattributes": 6629,
    "pkg": 6630,
    "bb20": 6631,
    "ffcb": 6632,
    "ableto": 6633,
    "\u2581licen": 6634,
    "\u2581stdio": 6635,
    "updated": 6636,
    "\u25810x48c0": 6637,
    "\u25810x435026": 6638,
    "\u25810x435032": 6639,
    "\u25810x1211e38": 6640,
    "\u25810xfeee00ab": 6641,
    "de2": 6642,
    "node": 6643,
    "\u25810xf000": 6644,
    "\u25810xfeee00ad": 6645,
    "582": 6646,
    "005c": 6647,
    "dddc": 6648,
    "\u258103t": 6649,
    "\u25810xed": 6650,
    "ssetup": 6651,
    "\u25810x4016": 6652,
    "\u2581ntquery": 6653,
    "gs": 6654,
    "f34": 6655,
    "zip": 6656,
    "75000": 6657,
    "\u25810xc3": 6658,
    "follow": 6659,
    "following": 6660,
    "\u25810x41aa80": 6661,
    "\u2581cocreate": 6662,
    "\u25810x1211708": 6663,
    "\u25810x1211eb0": 6664,
    "\u2581writeprocessmemory": 6665,
    "2d5": 6666,
    "d3d": 6667,
    "727c": 6668,
    "40000": 6669,
    "\u25810x42ed": 6670,
    "\u25810x4640": 6671,
    "\u25810x7e8d": 6672,
    "\u25810x10021": 6673,
    "\u25810x41aab0": 6674,
    "\u2581charlowerbuff": 6675,
    "a5e": 6676,
    "de5": 6677,
    "web": 6678,
    "\u2581cod": 6679,
    "\u25810x7e90": 6680,
    "\u25810x12108": 6681,
    "wil": 6682,
    "30ec": 6683,
    "\u2581replace": 6684,
    "\u25810x1210f84": 6685,
    "\u25810x1211d4c": 6686,
    "\u2581thisprogram": 6687,
    "6f8": 6688,
    "ba9": 6689,
    "dc67": 6690,
    "\u25810x150": 6691,
    "\u25810x413": 6692,
    "\u25810x503": 6693,
    "\u25810x4500": 6694,
    "\u25810x4de9": 6695,
    "\u25810x461500": 6696,
    "\u25810x6a7be8": 6697,
    "\u25810x6b4be8": 6698,
    "sthe": 6699,
    "word": 6700,
    "before": 6701,
    "\u25810x132": 6702,
    "\u25810x4031": 6703,
    "\u25810x412b": 6704,
    "\u2581msvcr71": 6705,
    "\u25810x40a5bc": 6706,
    "\u2581installation": 6707,
    "111": 6708,
    "258": 6709,
    "99e": 6710,
    "4010": 6711,
    "eexp": 6712,
    "groun": 6713,
    "remov": 6714,
    "\u25810x1fe": 6715,
    "\u25810x244": 6716,
    "\u25810x4194": 6717,
    "\u2581formatmessagew": 6718,
    "760": 6719,
    "dfa": 6720,
    "fax": 6721,
    "ioc": 6722,
    "itis": 6723,
    "advis": 6724,
    "\u2581demo": 6725,
    "\u25810x4197": 6726,
    "\u25810x4551": 6727,
    "beforeyou": 6728,
    "\u25810x40300c": 6729,
    "\u25810x1211ec4": 6730,
    "\u2581regqueryvalueexw": 6731,
    "2fe": 6732,
    "002c": 6733,
    "3880": 6734,
    "artn": 6735,
    "atik": 6736,
    "edby": 6737,
    "pire": 6738,
    "acode": 6739,
    "\u2581itis": 6740,
    "dblack": 6741,
    "inting": 6742,
    "releas": 6743,
    "stries": 6744,
    "edfiles": 6745,
    "withthi": 6746,
    "\u25810x5ab0": 6747,
    "\u25810x81a0": 6748,
    "\u25810x8a70": 6749,
    "\u2581prints": 6750,
    "continue": 6751,
    "swindows": 6752,
    "isalready": 6753,
    "ofcadwork": 6754,
    "\u2581clientin": 6755,
    "abletoquit": 6756,
    "informatik": 6757,
    "sbeforeyou": 6758,
    "\u2581backgroun": 6759,
    "\u2581itisadvis": 6760,
    "\u2581startfile": 6761,
    "clientnumber": 6762,
    "\u2581pleasecheck": 6763,
    "withthissetup": 6764,
    "allyourrunning": 6765,
    "\u2581doyouwanttore": 6766,
    "\u2581dialogswindows": 6767,
    "\u2581backgroundblack": 6768,
    "sbeforeyoucontinue": 6769,
    "\u2581doyoureallywantto": 6770,
    "\u2581itisadvisabletoquit": 6771,
    "allyourrunningapplication": 6772,
    "\u2581getsystemdefaultuilanguage": 6773,
    "sbeforeyoucontinuewiththissetup": 6774,
    "\u2581itisadvisabletoquitallyourrunningapplication": 6775,
    "9da": 6776,
    "b67": 6777,
    "adc0": 6778,
    "35000": 6779,
    "39fa2": 6780,
    "\u2581shell": 6781,
    "\u25810x7edc": 6782,
    "\u25810x452134": 6783,
    "19d": 6784,
    "bac": 6785,
    "e7e": 6786,
    "ec5": 6787,
    "\u2581mb": 6788,
    "\u25810x46a1": 6789,
    "filesfrom": 6790,
    "\u258120220303": 6791,
    "\u25810x1210e2b": 6792,
    "\u25810x1211e50": 6793,
    "405": 6794,
    "555": 6795,
    "ff5": 6796,
    "bcac": 6797,
    "f0f9": 6798,
    "69000": 6799,
    "\u25810xe5": 6800,
    "\u25810x464": 6801,
    "\u25810x4b6": 6802,
    "available": 6803,
    "\u25810x83e014": 6804,
    "\u25810x1210d1b": 6805,
    "\u25810x1210f28": 6806,
    "\u25810x12119f4": 6807,
    "\u25810x1211a30": 6808,
    "\u2581cocreateinstan": 6809,
    "a79": 6810,
    "b2e": 6811,
    "b56": 6812,
    "\u25810x5d2": 6813,
    "\u25810x3f23": 6814,
    "\u25810x40a6": 6815,
    "\u25810x4de8": 6816,
    "\u25810x442804": 6817,
    "\u25810x1210dec": 6818,
    "\u25810x12119b0": 6819,
    "\u25810xfeee00af": 6820,
    "ix": 6821,
    "9df": 6822,
    "b75": 6823,
    "fe4": 6824,
    "79000": 6825,
    "\u25810xce": 6826,
    "\u25810x4ad0": 6827,
    "\u25810x6940": 6828,
    "\u25810x7e94": 6829,
    "\u2581flatsb": 6830,
    "\u25810x447088": 6831,
    "\u25810x121192f": 6832,
    "638": 6833,
    "bde": 6834,
    "d1e": 6835,
    "0010": 6836,
    "lear": 6837,
    "\u25810x41ce": 6838,
    "\u25810x4720": 6839,
    "\u25810x442820": 6840,
    "\u25810x1210e10": 6841,
    "\u25810xfeee00b0": 6842,
    "\u25810xfeee00b1": 6843,
    "thiscomputer": 6844,
    "a1a": 6845,
    "\u2581os": 6846,
    "laser": 6847,
    "\u25810x498": 6848,
    "\u25810x7e95": 6849,
    "\u2581convert": 6850,
    "\u25810x447040": 6851,
    "\u2581getvolumeinformationw": 6852,
    "612": 6853,
    "adm": 6854,
    "d65": 6855,
    "w32": 6856,
    "6574": 6857,
    "c0f0": 6858,
    "f084": 6859,
    "\u25810x4a60": 6860,
    "lientrect": 6861,
    "\u25810x1211b8c": 6862,
    "\u2581getclientrect": 6863,
    "390": 6864,
    "74e": 6865,
    "ab5": 6866,
    "d69": 6867,
    "0056": 6868,
    "4330": 6869,
    "b445": 6870,
    "dec5b": 6871,
    "\u25810x4b2": 6872,
    "\u25810x40b2": 6873,
    "\u25810x5f00": 6874,
    "\u25810x7ea0": 6875,
    "\u25810x419cb0": 6876,
    "\u25810x1211df8": 6877,
    "1e9": 6878,
    "f3d": 6879,
    "0014": 6880,
    "\u25810x112": 6881,
    "\u25810x424": 6882,
    "request": 6883,
    "\u25810x2300": 6884,
    "\u25810x4b20": 6885,
    "\u25810x573c": 6886,
    "usttoken": 6887,
    "ep": 6888,
    "7fc": 6889,
    "bda": 6890,
    "d42": 6891,
    "f33": 6892,
    "11bc": 6893,
    "54ba": 6894,
    "d6ec": 6895,
    "\u25810xee": 6896,
    "dified": 6897,
    "\u25810x7e91": 6898,
    "privileges": 6899,
    "\u25810x1211894": 6900,
    "usttokenprivileges": 6901,
    "1dd": 6902,
    "48e": 6903,
    "aaa": 6904,
    "af8": 6905,
    "6925": 6906,
    "entr": 6907,
    "\u25810x4d0": 6908,
    "\u2581srand": 6909,
    "\u25810x4680": 6910,
    "\u25810x4a30": 6911,
    "\u2581change": 6912,
    "\u2581readonly": 6913,
    "\u2581movefilea": 6914,
    "\u2581findresourc": 6915,
    "6c2": 6916,
    "7a2": 6917,
    "b26": 6918,
    "enu": 6919,
    "dfor": 6920,
    "\u25810xd6": 6921,
    "\u25810x1bc": 6922,
    "\u25810xea6": 6923,
    "\u25810x4364": 6924,
    "\u25810x49b0": 6925,
    "\u2581device": 6926,
    "\u25810x40943": 6927,
    "\u25810x4bc298": 6928,
    "\u25810x12117ec": 6929,
    "2c1": 6930,
    "a4a1": 6931,
    "\u25810xdd": 6932,
    "\u25810x465": 6933,
    "\u25810xac0": 6934,
    "\u25810x40ca": 6935,
    "\u25810x7ecc": 6936,
    "\u25810x8c000": 6937,
    "\u25810x417d50": 6938,
    "\u2581destroywindow": 6939,
    "ba5": 6940,
    "da5": 6941,
    "\u2581query": 6942,
    "\u25810x10020": 6943,
    "\u25810x4175f4": 6944,
    "\u25810x4bc328": 6945,
    "\u25810x4bc358": 6946,
    "licenceson": 6947,
    "\u25810xfeedf200": 6948,
    "\u25810xfeee00b3": 6949,
    "uninitialize": 6950,
    "76e": 6951,
    "d6b": 6952,
    "\u2581dx": 6953,
    "004c": 6954,
    "90058": 6955,
    "b005a": 6956,
    "standar": 6957,
    "\u25810x41ac": 6958,
    "procedure": 6959,
    "\u25810x230022": 6960,
    "\u25810x550054": 6961,
    "\u25810x570056": 6962,
    "\u25810x590058": 6963,
    "\u25810x5b005a": 6964,
    "\u25810x5d005c": 6965,
    "\u25810x5f005e": 6966,
    "deleteatom": 6967,
    "\u25810xfeee00b2": 6968,
    "\u25810xfeee00b4": 6969,
    "\u2581lookupprivilege": 6970,
    "\u2581globaldeleteatom": 6971,
    "cc2": 6972,
    "icli": 6973,
    "\u2581inf": 6974,
    "\u2581sfc": 6975,
    "\u2581ssp": 6976,
    "65000": 6977,
    "manager": 6978,
    "\u2581sspicli": 6979,
    "\u25810x401324": 6980,
    "\u25810x401468": 6981,
    "\u25810x40a230": 6982,
    "\u25810x5265c64": 6983,
    "bf5": 6984,
    "dce": 6985,
    "ddc": 6986,
    "\u2581us": 6987,
    "7d000": 6988,
    "\u25810x120f7a8": 6989,
    "\u2581gettempfilenamea": 6990,
    "7ff": 6991,
    "e9a": 6992,
    "idto": 6993,
    "\u25810x7aa": 6994,
    "\u2581folder": 6995,
    "\u2581classes": 6996,
    "\u25810x421708": 6997,
    "\u25810x1210f30": 6998,
    "\u25810x1211f94": 6999,
    "\u25810xfeee00b5": 7000,
    "174": 7001,
    "98e": 7002,
    "ab4": 7003,
    "001c": 7004,
    "40a3": 7005,
    "\u2581ldr": 7006,
    "youwant": 7007,
    "\u25810x4c00": 7008,
    "\u25810x4e00": 7009,
    "\u25810x1211f08": 7010,
    "codeprocess": 7011,
    "\u2581getexitcodeprocess": 7012,
    "793": 7013,
    "003c": 7014,
    "a064": 7015,
    "\u25810x470": 7016,
    "\u25810x830": 7017,
    "\u25810x4740": 7018,
    "\u25810x7d51": 7019,
    "\u25810x169b948": 7020,
    "\u25810x169be04": 7021,
    "\u25810x2357b78": 7022,
    "81": 7023,
    "0016": 7024,
    "2aa8": 7025,
    "7578": 7026,
    "fbf8": 7027,
    "\u25810xef4": 7028,
    "\u25810x2900": 7029,
    "\u25810x40f4": 7030,
    "\u25810x429d": 7031,
    "\u25810x7711": 7032,
    "\u25810x7713": 7033,
    "\u2581myarg1": 7034,
    "emaphore": 7035,
    "\u25810x9c000": 7036,
    "\u25810x4528e0": 7037,
    "\u2581iswindow": 7038,
    "\u2581setfiletime": 7039,
    "6cc": 7040,
    "912": 7041,
    "a12": 7042,
    "bd5": 7043,
    "e03": 7044,
    "fdb": 7045,
    "2c3c": 7046,
    "6088": 7047,
    "\u25810x40e8": 7048,
    "\u25810x414f": 7049,
    "\u25810x9ab0": 7050,
    "\u25810x1210fe0": 7051,
    "\u2581physicaldriv": 7052,
    "540": 7053,
    "\u25810x1b00": 7054,
    "\u25810x415e": 7055,
    "willinstall": 7056,
    "332": 7057,
    "6b3": 7058,
    "res": 7059,
    "4000": 7060,
    "bf3c": 7061,
    "\u2581lmir0": 7062,
    "\u25810x3f26": 7063,
    "\u25810x4042": 7064,
    "\u25810x7ec9": 7065,
    "\u25810xa020": 7066,
    "\u25810x1210ee0": 7067,
    "7e3": 7068,
    "f24": 7069,
    "0024": 7070,
    "003e": 7071,
    "a9a8": 7072,
    "\u25810x4561": 7073,
    "\u25810x7c91": 7074,
    "\u25810x14475": 7075,
    "\u25810x40400": 7076,
    "\u25810x5718f0": 7077,
    "791": 7078,
    "a25": 7079,
    "d20": 7080,
    "9448": 7081,
    "textw": 7082,
    "\u25810x4105": 7083,
    "\u25810x5300": 7084,
    "\u25810x81a1": 7085,
    "\u25810x42cdf0": 7086,
    "\u25810x42ce20": 7087,
    "\u25810x1211904": 7088,
    "\u2581lstrcmpiw": 7089,
    "\u25810xfeee00b7": 7090,
    "memorystatus": 7091,
    "\u2581globalmemorystatus": 7092,
    "27e": 7093,
    "ac5": 7094,
    "be2": 7095,
    "f96": 7096,
    "fb4": 7097,
    "0032": 7098,
    "fa61": 7099,
    "71000": 7100,
    "b0cbc": 7101,
    "anager": 7102,
    "dialog": 7103,
    "toyour": 7104,
    "\u25810x4533": 7105,
    "\u25810xf003f": 7106,
    "\u25810x1211a6c": 7107,
    "\u25810x1211b80": 7108,
    "\u25810xfeee00b8": 7109,
    "334": 7110,
    "7f8": 7111,
    "asy": 7112,
    "dda": 7113,
    "lection": 7114,
    "\u25810x4239": 7115,
    "\u25810x572c": 7116,
    "\u25810x40a92c": 7117,
    "\u25810x40a93c": 7118,
    "\u25810x169b728": 7119,
    "bf9": 7120,
    "95000": 7121,
    "namedpipe": 7122,
    "\u25810x410040": 7123,
    "\u25810xfeee00b6": 7124,
    "ke": 7125,
    "35e": 7126,
    "7f5": 7127,
    "002e": 7128,
    "74f9": 7129,
    "7bc0": 7130,
    "b2c0": 7131,
    "\u2581call": 7132,
    "\u25810x4b0": 7133,
    "rl6660d": 7134,
    "\u25810x9050": 7135,
    "\u25810xac000": 7136,
    "\u25810x1211e84": 7137,
    "\u25810xfeee00b9": 7138,
    "\u2581getfullnamew": 7139,
    "1a8": 7140,
    "1fc": 7141,
    "3dc": 7142,
    "982": 7143,
    "aec": 7144,
    "d26": 7145,
    "93a8": 7146,
    "f062": 7147,
    "fcec": 7148,
    "uset": 7149,
    "\u2581rsa": 7150,
    "\u25810xfb": 7151,
    "author": 7152,
    "\u25810x510": 7153,
    "\u25810x59d": 7154,
    "connect": 7155,
    "\u25810x4820": 7156,
    "\u25810xa010": 7157,
    "\u2581rsaenh": 7158,
    "selection": 7159,
    "\u25810x1210f50": 7160,
    "\u2581physicaldrive0": 7161,
    "\u2581findresourceexw": 7162,
    "353": 7163,
    "3d2": 7164,
    "617f": 7165,
    "\u25810xf3": 7166,
    "\u2581dxgi": 7167,
    "\u25810x4692": 7168,
    "\u25810x5100": 7169,
    "\u25810xb8000": 7170,
    "\u25810xc8000": 7171,
    "\u25810xd8000": 7172,
    "\u25810x110010": 7173,
    "\u25810x417c10": 7174,
    "\u25810x46b3b8": 7175,
    "\u25810x1211a48": 7176,
    "\u2581dxgidebug": 7177,
    "\u25810xfeee00bb": 7178,
    "d64": 7179,
    "ddf": 7180,
    "50f4": 7181,
    "7d38": 7182,
    "bd10": 7183,
    "croll": 7184,
    "\u25810x2b00": 7185,
    "\u25810x40a538": 7186,
    "\u25810x1210e90": 7187,
    "\u25810x1210f70": 7188,
    "\u2581getscroll": 7189,
    "1d1": 7190,
    "7c1": 7191,
    "d73": 7192,
    "endar": 7193,
    "\u25810x515": 7194,
    "\u25810x40bd": 7195,
    "\u25810x457e": 7196,
    "\u25810x8f90": 7197,
    "calendar": 7198,
    "\u25810xd000c": 7199,
    "\u25810xf000e": 7200,
    "\u25810x130012": 7201,
    "\u25810x150014": 7202,
    "\u25810x170016": 7203,
    "\u25810x190018": 7204,
    "\u25810x1b001a": 7205,
    "\u25810x1d001c": 7206,
    "\u25810x1f001e": 7207,
    "\u25810x210020": 7208,
    "\u25810x250024": 7209,
    "\u25810x270026": 7210,
    "\u25810x3d003c": 7211,
    "\u25810x3f003e": 7212,
    "\u25810x430042": 7213,
    "\u25810x450044": 7214,
    "\u25810x470046": 7215,
    "\u25810x490048": 7216,
    "\u25810x4b004a": 7217,
    "\u25810x4d004c": 7218,
    "\u25810x4f004e": 7219,
    "\u25810x510050": 7220,
    "\u25810x530052": 7221,
    "\u25810x1210ceb": 7222,
    "\u25810x1210fc0": 7223,
    "\u25810x1211d24": 7224,
    "\u2581globalrealloc": 7225,
    "aa6": 7226,
    "bc1": 7227,
    "d1a": 7228,
    "da4": 7229,
    "\u2581164": 7230,
    "brows": 7231,
    "updat": 7232,
    "ension": 7233,
    "\u25810x46a": 7234,
    "\u25810x7d0": 7235,
    "located": 7236,
    "\u25810x4644": 7237,
    "\u25810x290028": 7238,
    "\u25810x2b002a": 7239,
    "\u25810x2d002c": 7240,
    "\u25810x2f002e": 7241,
    "\u25810x417be0": 7242,
    "\u25810x12116fc": 7243,
    "\u25810xfeee00ba": 7244,
    "\u2581failedtoopen": 7245,
    "\u2581getfullnamea": 7246,
    "applicationlog": 7247,
    "\u2581failedtoopenapplicationlog": 7248,
    "ve": 7249,
    "40e": 7250,
    "56c8": 7251,
    "a4e8": 7252,
    "f8e7": 7253,
    "\u25810x854": 7254,
    "belocated": 7255,
    "\u25810x41d1c8": 7256,
    "\u25810x1210fa0": 7257,
    "\u2581dialogbox": 7258,
    "ce5": 7259,
    "ore": 7260,
    "\u258104": 7261,
    "6a68": 7262,
    "b414": 7263,
    "lang": 7264,
    "select": 7265,
    "\u25810xea3": 7266,
    "\u25810x4122": 7267,
    "\u25810x42c0e0": 7268,
    "\u25810x1211e74": 7269,
    "162": 7270,
    "73e": 7271,
    "9a4": 7272,
    "9b8": 7273,
    "bin": 7274,
    "est": 7275,
    "45a2": 7276,
    "beae": 7277,
    "enti": 7278,
    "sing": 7279,
    "\u25810x439": 7280,
    "\u25810x44d": 7281,
    "context": 7282,
    "\u25810x409c": 7283,
    "\u25810x40015f": 7284,
    "\u2581lstrcpyw": 7285,
    "\u25810x12112f8": 7286,
    "\u25810x1211760": 7287,
    "1c6": 7288,
    "661": 7289,
    "bb7": 7290,
    "e8f": 7291,
    "deee": 7292,
    "\u25810x108": 7293,
    "\u25810x4032": 7294,
    "\u25810x45d3": 7295,
    "\u25810x8ef0": 7296,
    "\u25810xa050": 7297,
    "105": 7298,
    "a2c": 7299,
    "9053": 7300,
    "\u25810x41b8": 7301,
    "\u25810x8ae0": 7302,
    "\u2581choose": 7303,
    "\u2581msvcr80": 7304,
    "\u25810x40a548": 7305,
    "\u25810xfeee00bd": 7306,
    "\u2581localfilet": 7307,
    "\u2581localfiletimetofiletime": 7308,
    "7e68": 7309,
    "langid": 7310,
    "output": 7311,
    "\u25810x457": 7312,
    "\u25810x40f0": 7313,
    "\u25810x44c4": 7314,
    "\u25810x9090": 7315,
    "\u25810x40b3a0": 7316,
    "\u25810xfeee00be": 7317,
    "d25": 7318,
    "f32": 7319,
    "f8e": 7320,
    "\u2581he": 7321,
    "49c0": 7322,
    "ec43": 7323,
    "\u25810xca": 7324,
    "\u25810x1074": 7325,
    "\u25810x4150": 7326,
    "\u25810x7ed1": 7327,
    "\u25810x44b7b0": 7328,
    "\u25810x12115c4": 7329,
    "919": 7330,
    "1312": 7331,
    "\u25810xc6": 7332,
    "\u25810xcb": 7333,
    "\u25810x22c": 7334,
    "\u25810x593": 7335,
    "\u25810x41d8": 7336,
    "\u25810x41d198": 7337,
    "\u25810x46b188": 7338,
    "\u25810x1210e40": 7339,
    "\u25810x1211d14": 7340,
    "\u25810x1211df4": 7341,
    "1e5": 7342,
    "gen": 7343,
    "\u25810xf7": 7344,
    "\u25810x40f688": 7345,
    "\u25810x41f750": 7346,
    "\u25810xfeee00bf": 7347,
    "125": 7348,
    "68e": 7349,
    "a22": 7350,
    "a1a0": 7351,
    "b354": 7352,
    "fff3": 7353,
    "\u25810x409f": 7354,
    "\u25810x42ea": 7355,
    "eservice": 7356,
    "codethread": 7357,
    "\u25810x1211850": 7358,
    "\u2581deleteservice": 7359,
    "\u2581getexitcodethread": 7360,
    "917": 7361,
    "e0e": 7362,
    "a84f1": 7363,
    "\u25810x49d0": 7364,
    "\u25810x79b0": 7365,
    "\u25810x9170": 7366,
    "\u25810x42a402": 7367,
    "\u25810x42a410": 7368,
    "195": 7369,
    "1a6": 7370,
    "2a9": 7371,
    "40a": 7372,
    "9aa": 7373,
    "bba": 7374,
    "16a0": 7375,
    "1cb0": 7376,
    "ocus": 7377,
    "prop": 7378,
    "\u25810x53c": 7379,
    "formata": 7380,
    "\u25810x419a": 7381,
    "\u25810x42bc": 7382,
    "\u25810x121189c": 7383,
    "\u25810x100fdd58": 7384,
    "\u25810xfeee00d7": 7385,
    "d90": 7386,
    "sel": 7387,
    "\u25810x12e": 7388,
    "\u25810x83e6": 7389,
    "\u25810x8640": 7390,
    "\u25810x41f6c0": 7391,
    "\u25810x7ee001": 7392,
    "\u25810x7ee002": 7393,
    "\u25810x7ee003": 7394,
    "\u25810x7ee004": 7395,
    "\u25810x7ee005": 7396,
    "\u25810x7ee006": 7397,
    "\u25810x7ee007": 7398,
    "\u25810x7ee008": 7399,
    "\u25810x7ee009": 7400,
    "\u25810x7ee00a": 7401,
    "\u25810x7ee00b": 7402,
    "\u25810x7ee00c": 7403,
    "\u25810x7ee00d": 7404,
    "\u25810x7ee00e": 7405,
    "\u25810x7ee00f": 7406,
    "\u25810x7ee010": 7407,
    "\u25810x7ee011": 7408,
    "\u25810x7ee012": 7409,
    "\u25810x7ee013": 7410,
    "\u25810x7ee014": 7411,
    "\u25810x7ee015": 7412,
    "\u25810x7ee016": 7413,
    "\u25810x7ee017": 7414,
    "\u25810x7ee018": 7415,
    "\u25810x7ee019": 7416,
    "\u25810xfeee00c0": 7417,
    "\u25810xfeee00c1": 7418,
    "194": 7419,
    "23d": 7420,
    "dd48": 7421,
    "anual": 7422,
    "\u25810x9f": 7423,
    "\u25810x30002": 7424,
    "\u25810x50004": 7425,
    "\u25810xc0000": 7426,
    "\u25810x41f780": 7427,
    "\u25810xe9a1c0": 7428,
    "\u25810x1211bf4": 7429,
    "\u2581setthreadpriority": 7430,
    "132": 7431,
    "b66": 7432,
    "\u25810x3c0": 7433,
    "\u25810x4108": 7434,
    "\u25810x8e50": 7435,
    "\u25810x70006": 7436,
    "\u25810x90008": 7437,
    "\u25810xb000a": 7438,
    "\u25810x300175": 7439,
    "\u25810x452bf8": 7440,
    "\u25810xba8b68": 7441,
    "\u25810x169b758": 7442,
    "\u25810xfeee00c2": 7443,
    "\u2581sofaddress": 7444,
    "30c4": 7445,
    "6a6c": 7446,
    "cache": 7447,
    "alicen": 7448,
    "\u25810x518": 7449,
    "\u25810x1210f00": 7450,
    "\u25810x1211ecc": 7451,
    "\u25810x56500000": 7452,
    "\u25810xfeee00c3": 7453,
    "1ae": 7454,
    "77e": 7455,
    "7064": 7456,
    "\u25810x6a8": 7457,
    "\u2581globalfind": 7458,
    "14d": 7459,
    "17c": 7460,
    "315": 7461,
    "3ba": 7462,
    "til": 7463,
    "\u258100": 7464,
    "0034": 7465,
    "bc20": 7466,
    "\u2581dir": 7467,
    "3d1cc": 7468,
    "between": 7469,
    "\u2581licence": 7470,
    "\u25810x4e39b4": 7471,
    "\u25810x121185c": 7472,
    "\u25810x1211eb8": 7473,
    "\u25810xfeee00c4": 7474,
    "24e": 7475,
    "a1c": 7476,
    "buf": 7477,
    "d12": 7478,
    "her": 7479,
    "9918": 7480,
    "f844": 7481,
    "ba104": 7482,
    "order": 7483,
    "\u25810x990": 7484,
    "\u25810x412c": 7485,
    "\u25810x7dfd": 7486,
    "\u25810x4554b0": 7487,
    "\u25810x1211cd0": 7488,
    "\u2581regenumkey": 7489,
    "914": 7490,
    "968": 7491,
    "afd": 7492,
    "5410": 7493,
    "ee43": 7494,
    "19000": 7495,
    "\u25810x45c": 7496,
    "\u25810x4530": 7497,
    "\u25810x51b5": 7498,
    "\u25810x9820": 7499,
    "\u2581riched32": 7500,
    "55c": 7501,
    "6dd": 7502,
    "a68": 7503,
    "d95": 7504,
    "e60": 7505,
    "1168": 7506,
    "4e9c": 7507,
    "f8e4": 7508,
    "\u2581sdl": 7509,
    "\u25810xaf": 7510,
    "\u25810xe6": 7511,
    "\u25810xfa": 7512,
    "\u25810x570": 7513,
    "\u25810x2825": 7514,
    "\u25810x584d24": 7515,
    "\u25810x1211af4": 7516,
    "d82": 7517,
    "d94": 7518,
    "3d000": 7519,
    "71de0": 7520,
    "flush": 7521,
    "\u25810x4a70": 7522,
    "\u25810x51b6": 7523,
    "\u25810x7dfc": 7524,
    "registry": 7525,
    "\u25810x503a8": 7526,
    "4a7": 7527,
    "7d2": 7528,
    "303c": 7529,
    "36ac": 7530,
    "3828": 7531,
    "da1c": 7532,
    "\u25810x4222": 7533,
    "\u25810x4880": 7534,
    "\u25810x8180": 7535,
    "\u2581lcidto": 7536,
    "\u25810x51af1": 7537,
    "\u25810x51af5": 7538,
    "\u25810x51b56": 7539,
    "\u25810x1211f60": 7540,
    "\u2581lcidtolocalename": 7541,
    "\u2581removedirectoryw": 7542,
    "7dd": 7543,
    "f9f": 7544,
    "1800": 7545,
    "43e5": 7546,
    "fileexw": 7547,
    "\u25810x54a8": 7548,
    "\u25810x121178c": 7549,
    "\u25810xfeee00c6": 7550,
    "instructioncache": 7551,
    "\u2581flushinstructioncache": 7552,
    "2fc": 7553,
    "bab": 7554,
    "cc3": 7555,
    "faa": 7556,
    "2468": 7557,
    "focus": 7558,
    "\u2581work": 7559,
    "\u25810x1be": 7560,
    "\u25810x571": 7561,
    "\u25810x614": 7562,
    "\u25810x4072": 7563,
    "\u25810xa710": 7564,
    "\u25810x1211ea0": 7565,
    "\u25810xfeee00c7": 7566,
    "30e": 7567,
    "735": 7568,
    "73c": 7569,
    "7c6": 7570,
    "972": 7571,
    "d91": 7572,
    "fc7": 7573,
    "3811": 7574,
    "alle": 7575,
    "cc000": 7576,
    "\u25810x7541": 7577,
    "\u25810x78000": 7578,
    "\u2581selectan": 7579,
    "\u25810x1211994": 7580,
    "\u25810x5265c78": 7581,
    "\u25810xfeee00c5": 7582,
    "c82": 7583,
    "nel": 7584,
    "tac": 7585,
    "5fb0": 7586,
    "bfba": 7587,
    "\u25810xe3": 7588,
    "\u2581pass": 7589,
    "\u25810x2269": 7590,
    "\u25810x40de": 7591,
    "\u2581cancel": 7592,
    "\u25810x1b25f": 7593,
    "\u2581getthreadtimes": 7594,
    "2ec": 7595,
    "501": 7596,
    "pies": 7597,
    "\u25810xcf": 7598,
    "\u25810x5ab": 7599,
    "\u25810x4908": 7600,
    "\u25810x49a9": 7601,
    "\u25810xa290": 7602,
    "\u25810x567a88": 7603,
    "48d": 7604,
    "b24": 7605,
    "3230": 7606,
    "37ad": 7607,
    "76c8": 7608,
    "9640": 7609,
    "a7b0": 7610,
    "60577": 7611,
    "64000": 7612,
    "lecta": 7613,
    "\u25810xf5": 7614,
    "\u25810x7e01": 7615,
    "\u2581ldrget": 7616,
    "\u25810x58000000": 7617,
    "\u25810xfeee00c8": 7618,
    "procedureaddress": 7619,
    "\u2581ldrgetprocedureaddress": 7620,
    "57a9": 7621,
    "\u25812db": 7622,
    "\u2581tow": 7623,
    "ec97c": 7624,
    "aramet": 7625,
    "\u25810x300": 7626,
    "\u25810x5d0": 7627,
    "\u25810x7eb9": 7628,
    "\u25810x2d4ddc0": 7629,
    "\u25810xfeee00ca": 7630,
    "ax": 7631,
    "5c5": 7632,
    "679": 7633,
    "f82": 7634,
    "\u2581ab": 7635,
    "d591": 7636,
    "inki": 7637,
    "\u25810x444": 7638,
    "\u25810x40c5": 7639,
    "\u25810xff92": 7640,
    "outputcp": 7641,
    "\u25810x409414": 7642,
    "\u25810x409415": 7643,
    "202": 7644,
    "7f9": 7645,
    "f8b": 7646,
    "6c10": 7647,
    "olcid": 7648,
    "enamet": 7649,
    "\u25810x5ec": 7650,
    "setting": 7651,
    "\u25810x40b6": 7652,
    "\u25810x40d6": 7653,
    "\u25810x88d0": 7654,
    "\u25810xd27d5": 7655,
    "\u25810x1211d88": 7656,
    "enametolcid": 7657,
    "\u2581getprofile": 7658,
    "\u2581localenametolcid": 7659,
    "ci": 7660,
    "54a": 7661,
    "779": 7662,
    "e49": 7663,
    "f5f0": 7664,
    "feb8": 7665,
    "\u25810x3cc": 7666,
    "\u25810x40f1": 7667,
    "\u25810x4155": 7668,
    "formation": 7669,
    "\u25810x435403": 7670,
    "\u25810x435404": 7671,
    "\u25810x435405": 7672,
    "\u25810x435406": 7673,
    "\u25810x441806": 7674,
    "\u25810x441808": 7675,
    "\u25810x44180a": 7676,
    "\u25810x537500": 7677,
    "\u25810x6e7ab8": 7678,
    "\u25810xfeee00c9": 7679,
    "\u25810xfeee00cb": 7680,
    "\u2581getdateformatw": 7681,
    "32a": 7682,
    "5ec": 7683,
    "602": 7684,
    "spon": 7685,
    "a5000": 7686,
    "fc360": 7687,
    "\u25810x9b": 7688,
    "\u25810x3700": 7689,
    "indirect": 7690,
    "\u25810x409411": 7691,
    "\u25810x1210ed0": 7692,
    "\u25810x1211784": 7693,
    "\u25810x5265cc8": 7694,
    "643": 7695,
    "845": 7696,
    "d17": 7697,
    "dlg32": 7698,
    "stina": 7699,
    "\u25810x1880": 7700,
    "\u25810x8c20": 7701,
    "\u2581manager": 7702,
    "stination": 7703,
    "\u25810x409412": 7704,
    "\u25810x409413": 7705,
    "\u25810x409416": 7706,
    "\u25810x409417": 7707,
    "\u25810x40a3e9": 7708,
    "\u25810x40a3ea": 7709,
    "\u25810x40a3eb": 7710,
    "\u25810x40a3ec": 7711,
    "\u25810x40a3ed": 7712,
    "\u25810x40a3ee": 7713,
    "\u25810x40a3ef": 7714,
    "\u25810x417cd8": 7715,
    "\u25810x42d4b0": 7716,
    "\u25810x44180c": 7717,
    "\u25810x1000130": 7718,
    "\u25810x12118d8": 7719,
    "\u25810x5265c8c": 7720,
    "\u25810x5265ca0": 7721,
    "\u25810x5265cb4": 7722,
    "\u25810x5265cdc": 7723,
    "\u2581getconsoleoutputcp": 7724,
    "335": 7725,
    "da8": 7726,
    "fee": 7727,
    "9464": 7728,
    "a088": 7729,
    "\u2581mfc": 7730,
    "b5000": 7731,
    "\u2581line": 7732,
    "\u25810x23533": 7733,
    "\u25810x435407": 7734,
    "\u25810x1211f7a": 7735,
    "\u2581sessionmanager": 7736,
    "72e": 7737,
    "762": 7738,
    "9d4": 7739,
    "ec80": 7740,
    "\u2581tim": 7741,
    "\u25810xf6": 7742,
    "\u25810x605": 7743,
    "\u25810x7e98": 7744,
    "\u25810xa030": 7745,
    "\u2581sample": 7746,
    "\u2581comdlg32": 7747,
    "585": 7748,
    "9f4": 7749,
    "12a3": 7750,
    "bd000": 7751,
    "\u25810x190": 7752,
    "\u25810x6e4": 7753,
    "\u25810x3100": 7754,
    "\u25810x4117": 7755,
    "\u25810x7ecd": 7756,
    "\u25810x9520": 7757,
    "\u2581screen": 7758,
    "\u2581thefile": 7759,
    "\u25810x44180e": 7760,
    "\u25810x1211834": 7761,
    "af2": 7762,
    "\u2581cre": 7763,
    "91000": 7764,
    "\u25810xc1": 7765,
    "\u2581hels": 7766,
    "\u2581next": 7767,
    "\u25810x4336": 7768,
    "\u25810x7e04": 7769,
    "\u25810x7e99": 7770,
    "\u25810x7ed8": 7771,
    "\u25810x94c0": 7772,
    "\u25810x435408": 7773,
    "\u25810x435409": 7774,
    "\u25810x43540a": 7775,
    "\u25810x43540b": 7776,
    "\u25810x43540c": 7777,
    "\u25810x441810": 7778,
    "\u25810x441812": 7779,
    "\u25810x441814": 7780,
    "\u25810x441816": 7781,
    "\u25810x4efde0": 7782,
    "\u2581helsinki": 7783,
    "\u25810x12114bc": 7784,
    "\u25810x1211db0": 7785,
    "\u25810xc0000409": 7786,
    "005": 7787,
    "3f3": 7788,
    "b2d": 7789,
    "b32": 7790,
    "drb": 7791,
    "fc1": 7792,
    "vip": 7793,
    "48ee": 7794,
    "b028": 7795,
    "\u25813db": 7796,
    "popup": 7797,
    "\u25812drb": 7798,
    "\u25812dvb": 7799,
    "\u25810x41cc": 7800,
    "\u25810x5049": 7801,
    "\u25810x7e05": 7802,
    "\u2581enable": 7803,
    "register": 7804,
    "\u25810x120fb": 7805,
    "\u25810x1210e6f": 7806,
    "\u25810x1210e73": 7807,
    "\u25810x1210e74": 7808,
    "\u25810x1210e77": 7809,
    "\u25810x1210e7b": 7810,
    "\u2581deviceioc": 7811,
    "\u2581defwindowprocw": 7812,
    "l6660drl6660drl6660drl6660drl6660drl6660drl6660drl6660drl6660": 7813,
    "io": 7814,
    "lg": 7815,
    "6ad": 7816,
    "e55": 7817,
    "bbbb": 7818,
    "ceff": 7819,
    "\u2581bak": 7820,
    "\u2581url": 7821,
    "idtos": 7822,
    "\u25810xe9": 7823,
    "\u2581when": 7824,
    "\u2581prvip": 7825,
    "\u25810x3b00": 7826,
    "\u25810x4325": 7827,
    "\u25810x7e10": 7828,
    "\u25810x41b0b8": 7829,
    "\u25810x429000": 7830,
    "\u25810x42d4e0": 7831,
    "\u25810x1210eb0": 7832,
    "\u25810x1210f66": 7833,
    "\u25810x1210f6a": 7834,
    "\u25810x1211960": 7835,
    "\u25810x1211e5c": 7836,
    "\u2581globaladdatoma": 7837,
    "316": 7838,
    "356": 7839,
    "aa2": 7840,
    "blem": 7841,
    "90038": 7842,
    "ewindow": 7843,
    "problem": 7844,
    "\u25810x1312": 7845,
    "\u25810x4164": 7846,
    "\u25810x350034": 7847,
    "\u25810x370036": 7848,
    "\u25810x43540d": 7849,
    "\u25810x441818": 7850,
    "\u25810x1210f35": 7851,
    "133": 7852,
    "3ed": 7853,
    "6d5": 7854,
    "b16": 7855,
    "f8d": 7856,
    "f9c": 7857,
    "fd000": 7858,
    "\u25810xf9": 7859,
    "\u25810x4370": 7860,
    "\u25810x47ab": 7861,
    "\u25810x5267": 7862,
    "\u25810x8830": 7863,
    "\u25810x100220": 7864,
    "\u25810x390038": 7865,
    "\u25810x3b003a": 7866,
    "\u25810x43a4b0": 7867,
    "\u25810x5265cf0": 7868,
    "\u25810x5265d04": 7869,
    "\u25810x5265d18": 7870,
    "\u25810x5265d2c": 7871,
    "\u25810x5265d40": 7872,
    "\u2581deviceiocontrol": 7873,
    "690": 7874,
    "ces": 7875,
    "78a2": 7876,
    "\u2581sig": 7877,
    "\u25810x45e": 7878,
    "\u25810x4a5": 7879,
    "\u25810x920": 7880,
    "\u25810x7e9c": 7881,
    "\u25810x7e9d": 7882,
    "\u25810x310030": 7883,
    "\u25810x330032": 7884,
    "\u25810x855478": 7885,
    "\u25810x5265d54": 7886,
    "\u25810xfeee00cc": 7887,
    "b39": 7888,
    "ich": 7889,
    "64c6": 7890,
    "d874": 7891,
    "eab8": 7892,
    "\u2581pro": 7893,
    "\u25810x4224": 7894,
    "\u25810x43540e": 7895,
    "\u25810x43540f": 7896,
    "\u25810x44181a": 7897,
    "\u25810x44181c": 7898,
    "\u25810x44181e": 7899,
    "\u25810x4df006": 7900,
    "\u25810x4df008": 7901,
    "\u25810x4df00a": 7902,
    "\u25810x4df00c": 7903,
    "\u25810x4df00e": 7904,
    "\u25810x4df010": 7905,
    "\u25810x4df012": 7906,
    "\u25810x4df014": 7907,
    "\u25810x4df016": 7908,
    "\u25810xfeee00cd": 7909,
    "\u2581getmenuitem": 7910,
    "6dc": 7911,
    "76c": 7912,
    "d0b": 7913,
    "4648": 7914,
    "c000": 7915,
    "etimer": 7916,
    "\u25810x4047": 7917,
    "\u25810x4050": 7918,
    "\u25810x4c79": 7919,
    "\u25810x7ea4": 7920,
    "\u2581winhttp": 7921,
    "\u25810x1211954": 7922,
    "\u25810x2100302": 7923,
    "\u25810x2200210": 7924,
    "\u2581urldownload": 7925,
    "3b5": 7926,
    "734": 7927,
    "a91": 7928,
    "fb9": 7929,
    "rchr": 7930,
    "clear": 7931,
    "\u25810x3ac": 7932,
    "display": 7933,
    "\u25810x405c": 7934,
    "\u25810x42e4": 7935,
    "stringlen": 7936,
    "\u25810x1210e20": 7937,
    "\u25810xfeee00ce": 7938,
    "\u25810xfffff862": 7939,
    "\u25810xfffff8f8": 7940,
    "610": 7941,
    "bae": 7942,
    "dc8": 7943,
    "fa3": 7944,
    "ixe": 7945,
    "9380": 7946,
    "e0c0": 7947,
    "e600": 7948,
    "\u25810x40d4": 7949,
    "\u25810x4555": 7950,
    "\u25810xf874": 7951,
    "\u25810x4df018": 7952,
    "\u25810x5265d68": 7953,
    "\u25810x5265d7c": 7954,
    "\u25810x5265d90": 7955,
    "\u25810xfeee00cf": 7956,
    "185": 7957,
    "641": 7958,
    "933": 7959,
    "apt": 7960,
    "cut": 7961,
    "d8e": 7962,
    "14ec": 7963,
    "50ee": 7964,
    "78e8": 7965,
    "ad000": 7966,
    "\u25810x240": 7967,
    "\u25810x4d4": 7968,
    "\u25810x4126": 7969,
    "\u25810x4ba0": 7970,
    "\u25810x522a": 7971,
    "\u25810x7ea5": 7972,
    "\u25810x7ead": 7973,
    "\u25810x92e0": 7974,
    "password": 7975,
    "\u25810x47ee50": 7976,
    "\u25810x566f18": 7977,
    "\u25810x1210f94": 7978,
    "\u25810x5265da4": 7979,
    "\u25810x5265db8": 7980,
    "\u25810x5265dcc": 7981,
    "\u25810x5265de0": 7982,
    "\u25810x5265df4": 7983,
    "\u25810x5265e08": 7984,
    "\u25810x5265e1c": 7985,
    "\u25810x5265e30": 7986,
    "\u25810x5265e44": 7987,
    "\u25810x5265e58": 7988,
    "\u25810x5265e6c": 7989,
    "\u25810x5265e80": 7990,
    "\u25810x5265e94": 7991,
    "\u25810x5265ea8": 7992,
    "\u25810x5265ebc": 7993,
    "\u25810x5265ed0": 7994,
    "\u25810x5265ee4": 7995,
    "\u25810x5265ef8": 7996,
    "\u25810x5265f0c": 7997,
    "\u25810x5265f20": 7998,
    "\u25810x5265f34": 7999,
    "\u25810x5265f48": 8000,
    "\u2581registerservicectrlhandlerexw": 8001,
    "16c": 8002,
    "234": 8003,
    "a3f": 8004,
    "a99": 8005,
    "b55": 8006,
    "chi": 8007,
    "2c55": 8008,
    "5678": 8009,
    "58c6": 8010,
    "7f48": 8011,
    "f83d": 8012,
    "\u25810x40d5": 8013,
    "\u2581memmove": 8014,
    "\u25810x403000": 8015,
    "\u25810x1210e2c": 8016,
    "\u25810x1211cf0": 8017,
    "\u25810x5265f5c": 8018,
    "\u25810x5265f70": 8019,
    "\u25810x5265f84": 8020,
    "\u25810x5265f98": 8021,
    "\u25810x5265fac": 8022,
    "\u25810x5265fc0": 8023,
    "\u25810x5265fd4": 8024,
    "\u25810x5265fe8": 8025,
    "\u25810x5265ffc": 8026,
    "\u25810x5266010": 8027,
    "\u25810x5266024": 8028,
    "\u25810x5266038": 8029,
    "\u25810x526604c": 8030,
    "\u25810x5266060": 8031,
    "\u25810x5266074": 8032,
    "\u25810x5266088": 8033,
    "\u25810x526609c": 8034,
    "\u25810x52660b0": 8035,
    "\u25810x52660c4": 8036,
    "\u25810x52660d8": 8037,
    "\u25810x52660ec": 8038,
    "\u25810x5266100": 8039,
    "\u25810x5266114": 8040,
    "\u25810x5266128": 8041,
    "\u25810x526613c": 8042,
    "\u25810x5266150": 8043,
    "\u25810x5266164": 8044,
    "\u25810x5266178": 8045,
    "\u25810x526618c": 8046,
    "\u25810x52661a0": 8047,
    "\u25810x52661b4": 8048,
    "\u25810x52661c8": 8049,
    "\u25810x52661dc": 8050,
    "\u25810x52661f0": 8051,
    "\u25810x5266204": 8052,
    "\u25810x5266218": 8053,
    "\u25810x526622c": 8054,
    "\u25810x5266240": 8055,
    "\u25810x5266254": 8056,
    "\u25810x5266268": 8057,
    "\u25810x526627c": 8058,
    "\u25810x5266290": 8059,
    "\u25810x52662a4": 8060,
    "\u25810x52662b8": 8061,
    "\u25810x52662cc": 8062,
    "\u25810x52662e0": 8063,
    "\u25810x52662f4": 8064,
    "\u25810x5266308": 8065,
    "\u25810x526631c": 8066,
    "\u25810x5266330": 8067,
    "\u25810x5266344": 8068,
    "\u25810x5266358": 8069,
    "\u25810x526636c": 8070,
    "\u25810x5266380": 8071,
    "\u25810x5266394": 8072,
    "idtosessionid": 8073,
    "\u2581processidtosessionid": 8074,
    "\u2581sp": 8075,
    "9fb0": 8076,
    "febc": 8077,
    "\u25810x13c": 8078,
    "\u25810x1a0": 8079,
    "\u25810x70ac": 8080,
    "\u25810x8a41": 8081,
    "\u25810x8e40": 8082,
    "\u25810x24397": 8083,
    "\u25810x4df01a": 8084,
    "\u25810x4df01c": 8085,
    "\u25810x4df01e": 8086,
    "sk": 8087,
    "te": 8088,
    "wh": 8089,
    "13c": 8090,
    "155": 8091,
    "30c": 8092,
    "468": 8093,
    "615": 8094,
    "693": 8095,
    "bb2": 8096,
    "e31": 8097,
    "\u258167": 8098,
    "94a8": 8099,
    "b2b1": 8100,
    "bce6": 8101,
    "d1ff": 8102,
    "38358": 8103,
    "b9000": 8104,
    "\u25810x436": 8105,
    "\u2581short": 8106,
    "\u25810x4660": 8107,
    "\u25810x9258": 8108,
    "\u25810x47b158": 8109,
    "\u2581gettempfilenamew": 8110,
    "40b": 8111,
    "d1c": 8112,
    "da0": 8113,
    "f6c": 8114,
    "rap": 8115,
    "\u2581pre": 8116,
    "\u25810xab": 8117,
    "\u25810x5cc": 8118,
    "\u25810x40b1": 8119,
    "\u25810x403004": 8120,
    "\u25810x440000": 8121,
    "\u25810x4e5d48": 8122,
    "\u2581shortcut": 8123,
    "ah": 8124,
    "755": 8125,
    "bd6": 8126,
    "ofa": 8127,
    "etch": 8128,
    "ryto": 8129,
    "\u2581arg": 8130,
    "\u25810x4069": 8131,
    "\u25810x414b": 8132,
    "\u25810x4154": 8133,
    "\u25810x7ea8": 8134,
    "\u25810x850000": 8135,
    "\u25810x1210f90": 8136,
    "\u2581variantclear": 8137,
    "36e": 8138,
    "91a": 8139,
    "e68": 8140,
    "1a64": 8141,
    "3f20": 8142,
    "a880": 8143,
    "b820": 8144,
    "f6fc": 8145,
    "ustom": 8146,
    "\u2581pack": 8147,
    "\u25810x1f0": 8148,
    "\u25810x5d3": 8149,
    "current": 8150,
    "uration": 8151,
    "\u25810x8aa8": 8152,
    "\u25810x8f30": 8153,
    "\u25810x46b388": 8154,
    "164": 8155,
    "3d6": 8156,
    "3fc": 8157,
    "ec3": 8158,
    "ite": 8159,
    "9d28": 8160,
    "been": 8161,
    "f538": 8162,
    "15000": 8163,
    "\u25810x4f3": 8164,
    "\u25810x413a": 8165,
    "\u25810x54a4c4": 8166,
    "\u25810x1211e18": 8167,
    "\u25810xfeee00d6": 8168,
    "372": 8169,
    "926": 8170,
    "fa6": 8171,
    "11d8": 8172,
    "d8c8": 8173,
    "92000": 8174,
    "button": 8175,
    "\u25810x47f": 8176,
    "\u25810x403008": 8177,
    "\u25810xea3bd0": 8178,
    "\u25810x120fd60": 8179,
    "\u25810xfeee00d5": 8180,
    "\u2581getfiletime": 8181,
    "1d3": 8182,
    "6418": 8183,
    "7a83": 8184,
    "hich": 8185,
    "\u2581you": 8186,
    "\u25810xc9": 8187,
    "apture": 8188,
    "hasbeen": 8189,
    "plotter": 8190,
    "\u25810x7320": 8191,
    "\u25810x8f10": 8192,
    "\u25810x9040": 8193,
    "\u25810x120fe": 8194,
    "88c": 8195,
    "a3c": 8196,
    "be3": 8197,
    "izn": 8198,
    "\u2581pb": 8199,
    "1960": 8200,
    "b4b8": 8201,
    "baf0": 8202,
    "omati": 8203,
    "\u25810xe7": 8204,
    "iznadm": 8205,
    "\u25810x740": 8206,
    "\u25810xbd4": 8207,
    "\u25810x4188": 8208,
    "\u25810x4368": 8209,
    "\u25810x7e08": 8210,
    "\u25810xb8ef": 8211,
    "\u25810x496808": 8212,
    "\u2581triznadm": 8213,
    "\u25810x1210ed8": 8214,
    "\u2581getfileex": 8215,
    "154": 8216,
    "d51": 8217,
    "d5e": 8218,
    "e70": 8219,
    "65a0": 8220,
    "7865": 8221,
    "b548": 8222,
    "\u25810xeb": 8223,
    "binary": 8224,
    "\u2581signal": 8225,
    "drawings": 8226,
    "\u25810x4096a0": 8227,
    "\u25810x40e9a0": 8228,
    "\u25810x482850": 8229,
    "\u25810x120fb48": 8230,
    "\u25810x1211884": 8231,
    "\u25810x13121110": 8232,
    "\u25810xd27d571f": 8233,
    "c49": 8234,
    "fda": 8235,
    "16a6": 8236,
    "78de": 8237,
    "7d24": 8238,
    "b6b0": 8239,
    "\u25810x38c": 8240,
    "\u25810x7020": 8241,
    "\u25810x40a79": 8242,
    "\u25810x409698": 8243,
    "\u2581readconsole": 8244,
    "96d": 8245,
    "ee5": 8246,
    "fd6": 8247,
    "fe5": 8248,
    "60e4": 8249,
    "6c40": 8250,
    "a440": 8251,
    "d96c": 8252,
    "adc0de": 8253,
    "\u25810x603": 8254,
    "\u25810x44d3": 8255,
    "\u25810x4929": 8256,
    "\u25810x4bc0": 8257,
    "\u25810x9850": 8258,
    "\u25810x425c0": 8259,
    "\u25810x40969e": 8260,
    "\u25810x437138": 8261,
    "\u25810x437aac": 8262,
    "\u25810x46b5fc": 8263,
    "\u25810x496718": 8264,
    "\u25810x4c3230": 8265,
    "\u25810x4c3248": 8266,
    "\u25810x4c3260": 8267,
    "\u25810x4c3278": 8268,
    "\u25810x4c3290": 8269,
    "\u25810x4c32a8": 8270,
    "\u25810x4c3320": 8271,
    "\u25810x4c3338": 8272,
    "\u25810x4c3350": 8273,
    "\u25810x4c3368": 8274,
    "\u25810x83e610": 8275,
    "\u25810x1211e68": 8276,
    "\u25810xdeadc0de": 8277,
    "7be": 8278,
    "9d9c": 8279,
    "b1d0": 8280,
    "bdf0": 8281,
    "dcc0": 8282,
    "ed60": 8283,
    "\u2581dw2": 8284,
    "\u25810x248": 8285,
    "\u25810x6a0": 8286,
    "\u25810x4174": 8287,
    "\u25810x120f5": 8288,
    "\u25810x409696": 8289,
    "\u25810x40969a": 8290,
    "\u25810x40969c": 8291,
    "\u25810x4096a2": 8292,
    "\u25810x40c86d": 8293,
    "\u25810x411c10": 8294,
    "\u25810x417a83": 8295,
    "\u25810x41f20e": 8296,
    "\u25810x425c07": 8297,
    "\u25810x4299c1": 8298,
    "\u25810x42a670": 8299,
    "\u25810x42a671": 8300,
    "\u25810x437137": 8301,
    "\u25810x437a02": 8302,
    "\u25810x437a03": 8303,
    "\u25810x437a13": 8304,
    "\u25810x437a14": 8305,
    "\u25810x437a93": 8306,
    "\u25810x437a94": 8307,
    "\u25810x437aab": 8308,
    "\u25810x437aed": 8309,
    "\u25810x437aee": 8310,
    "\u25810x437afe": 8311,
    "\u25810x437aff": 8312,
    "\u25810x437b72": 8313,
    "\u25810x437b73": 8314,
    "\u25810x44d250": 8315,
    "\u25810x4908bc": 8316,
    "\u25810x490970": 8317,
    "\u25810x4966d0": 8318,
    "\u25810x4966e8": 8319,
    "\u25810x496700": 8320,
    "\u25810x496730": 8321,
    "\u25810x496748": 8322,
    "\u25810x496778": 8323,
    "\u25810x4967c0": 8324,
    "\u25810x4967d8": 8325,
    "\u25810x4967f0": 8326,
    "\u25810x4c4158": 8327,
    "\u25810x7c16a0": 8328,
    "\u25810x120fd58": 8329,
    "\u25810x12105e8": 8330,
    "\u25810x1211424": 8331,
    "\u25810x1211923": 8332,
    "\u2581module32first": 8333,
    "1e3": 8334,
    "2e2": 8335,
    "586": 8336,
    "94a": 8337,
    "499e": 8338,
    "75c4": 8339,
    "def0": 8340,
    "imag": 8341,
    "\u25810xd9": 8342,
    "\u25810x40e6": 8343,
    "\u25810xae20": 8344,
    "\u25810x429d6b": 8345,
    "\u25810x429d6c": 8346,
    "\u25810x434c4c": 8347,
    "\u25810x43b6d9": 8348,
    "\u25810x43b6da": 8349,
    "\u25810x43b6e8": 8350,
    "gl": 8351,
    "323": 8352,
    "9c9": 8353,
    "ede": 8354,
    "f94": 8355,
    "64ec": 8356,
    "cc59": 8357,
    "anies": 8358,
    "\u25810x4fc": 8359,
    "\u25810x40c98c": 8360,
    "\u25810x422dfe": 8361,
    "\u25810x43b6e3": 8362,
    "\u25810x43b6e4": 8363,
    "\u25810x43b6ea": 8364,
    "\u25810x43b6f4": 8365,
    "\u25810x457e3c": 8366,
    "\u25810x545678": 8367,
    "\u25810x56c750": 8368,
    "3ea": 8369,
    "e35": 8370,
    "ivq": 8371,
    "0008": 8372,
    "2cb4": 8373,
    "6da0": 8374,
    "b4ad": 8375,
    "d478": 8376,
    "a9000": 8377,
    "\u25810x7e54": 8378,
    "\u25810x7e55": 8379,
    "\u25810x9cf0": 8380,
    "\u25810xa950": 8381,
    "datetime": 8382,
    "\u25810x120de": 8383,
    "\u25810x3b7fc": 8384,
    "configuration": 8385,
    "714": 8386,
    "93d": 8387,
    "a89": 8388,
    "f66": 8389,
    "\u2581sk": 8390,
    "\u25810x10e": 8391,
    "\u25810x4c5": 8392,
    "\u25810x5e0": 8393,
    "\u25810x67e": 8394,
    "\u25810x6b5": 8395,
    "\u25810x28c3": 8396,
    "\u25810x3b7f": 8397,
    "\u25810x88b0": 8398,
    "\u25810x8ec0": 8399,
    "\u2581crypt32": 8400,
    "\u25810x1211a00": 8401,
    "916": 8402,
    "ail": 8403,
    "e75": 8404,
    "f12": 8405,
    "79e8": 8406,
    "\u2581sup": 8407,
    "\u25810x706c": 8408,
    "\u25810x7e09": 8409,
    "\u25810x423890": 8410,
    "\u25810x4238c0": 8411,
    "\u25810x1211e60": 8412,
    "6d1": 8413,
    "eff": 8414,
    "f07": 8415,
    "f54": 8416,
    "b4f9": 8417,
    "49000": 8418,
    "\u25810xc3c": 8419,
    "aaaaaaa": 8420,
    "\u25810x4184": 8421,
    "\u2581getmenu": 8422,
    "\u25810x422798": 8423,
    "\u25810x121198c": 8424,
    "\u25810xfeee01c": 8425,
    "aaaaaaaaaaaaaaa": 8426,
    "\u2581aaaaaaaaaaaaaaaaa": 8427,
    "\u2581aaaaaaaaaaaaaaaaaaaaaaaaaaaaaaaa": 8428,
    "725": 8429,
    "eac": 8430,
    "f75": 8431,
    "mut": 8432,
    "b148": 8433,
    "orig": 8434,
    "\u2581not": 8435,
    "\u25810x358": 8436,
    "loading": 8437,
    "\u25810x7ce1": 8438,
    "\u25810x421030": 8439,
    "\u25810x7eabc0": 8440,
    "\u25810x1210f60": 8441,
[...]
