{
    "<pad>": 0,
    "<unk>": 1,
    "<mask>": 2,
    "\u25810": 3,
    "\u25810x": 4,
    "00": 5,
    "er": 6,
    "ne": 7,
    "32": 8,
    "\u2581k": 9,
    "l32": 10,
    "erne": 11,
    "ernel32": 12,
    "\u2581kernel32": 13,
    "\u25810x0": 14,
    "\u25810x1": 15,
    "et": 16,
    "al": 17,
    "ee": 18,
    "ti": 19,
    "ad": 20,
    "get": 21,
    "000": 22,
    "\u25810x7": 23,
    "ec": 24,
    "\u25810x4": 25,
    "re": 26,
    "\u25810xf": 27,
    "in": 28,
    "\u2581get": 29,
    "0000": 30,
    "oc": 31,
    "\u25810x77": 32,
    "iti": 33,
    "eee": 34,
    "\u25810xfeee": 35,
    "ter": 36,
    "tr": 37,
    "one": 38,
    "ss": 39,
    "on": 40,
    "pr": 41,
    "sec": 42,
    "cal": 43,
    "secti": 44,
    "proc": 45,
    "riti": 46,
    "ritical": 47,
    "riticalsecti": 48,
    "ue": 49,
    "le": 50,
    "is": 51,
    "read": 52,
    "\u2581getproc": 53,
    "add": 54,
    "ress": 55,
    "address": 56,
    "\u2581getprocaddress": 57,
    "en": 58,
    "ls": 59,
    "val": 60,
    "\u25810x1000": 61,
    "\u2581n": 62,
    "value": 63,
    "\u2581is": 64,
    "\u2581none": 65,
    "readp": 66,
    "getvalue": 67,
    "lsgetvalue": 68,
    "ecriticalsecti": 69,
    "000000": 70,
    "bad": 71,
    "\u2581isbad": 72,
    "readptr": 73,
    "\u2581isbadreadptr": 74,
    "\u2581in": 75,
    "\u25810xfeee000": 76,
    "\u25810x77000000": 77,
    "\u25810x12": 78,
    "ap": 79,
    "loc": 80,
    "or": 81,
    "de": 82,
    "co": 83,
    "11": 84,
    "\u25810xfeee00": 85,
    "\u25810x46": 86,
    "\u2581s": 87,
    "\u25810x2": 88,
    "ff": 89,
    "a0": 90,
    "f0": 91,
    "\u2581t": 92,
    "iz": 93,
    "aliz": 94,
    "itializ": 95,
    "\u2581initializ": 96,
    "\u2581f": 97,
    "an": 98,
    "\u25810x1211": 99,
    "\u2581initializecriticalsecti": 100,
    "us": 101,
    "ar": 102,
    "\u2581en": 103,
    "\u25810x8": 104,
    "te": 105,
    "he": 106,
    "as": 107,
    "\u25810xfa0": 108,
    "\u25810xfeee0001": 109,
    "heap": 110,
    "\u2581tlsgetvalue": 111,
    "ror": 112,
    "las": 113,
    "laster": 114,
    "lasterror": 115,
    "\u2581heap": 116,
    "po": 117,
    "\u2581c": 118,
    "user": 119,
    "poin": 120,
    "alloc": 121,
    "pointer": 122,
    "\u25810x770": 123,
    "\u2581user": 124,
    "dec": 125,
    "depointer": 126,
    "and": 127,
    "\u2581user32": 128,
    "48": 129,
    "39": 130,
    "onex": 131,
    "\u2581initializecriticalsectionex": 132,
    "\u2581l": 133,
    "\u2581flsgetvalue": 134,
    "\u2581set": 135,
    "ow": 136,
    "lea": 137,
    "10": 138,
    "ta": 139,
    "\u25810x24": 140,
    "\u25810x2439": 141,
    "d0": 142,
    "\u25810x243948": 143,
    "90": 144,
    "\u2581m": 145,
    "\u25810x5": 146,
    "\u2581heapalloc": 147,
    "str": 148,
    "nt": 149,
    "\u25810x771": 150,
    "\u25810x42": 151,
    "\u2581w": 152,
    "pin": 153,
    "\u25810x100": 154,
    "ing": 155,
    "ex": 156,
    "\u25810x10": 157,
    "terc": 158,
    "fi": 159,
    "har": 160,
    "ecriticalsection": 161,
    "\u2581enco": 162,
    "\u2581encodepointer": 163,
    "string": 164,
    "leav": 165,
    "\u2581leav": 166,
    "\u2581leavecriticalsection": 167,
    "riticalsection": 168,
    "tercriticalsection": 169,
    "\u2581entercriticalsection": 170,
    "\u2581d": 171,
    "00000": 172,
    "\u2581getlasterror": 173,
    "ent": 174,
    "ac": 175,
    "\u25810x40": 176,
    "mp": 177,
    "oad": 178,
    "\u25810x41": 179,
    "\u2581load": 180,
    "\u2581setlasterror": 181,
    "\u25810x46f0": 182,
    "\u25810x45": 183,
    "\u25810x46d0": 184,
    "e4": 185,
    "hand": 186,
    "fo": 187,
    "li": 188,
    "\u2581getc": 189,
    "\u25810x3": 190,
    "unt": 191,
    "by": 192,
    "tu": 193,
    "ffff": 194,
    "count": 195,
    "\u25810x43": 196,
    "\u25810x45f0": 197,
    "ind": 198,
    "\u2581initializecriticalsection": 199,
    "ess": 200,
    "let": 201,
    "\u25810x4e4": 202,
    "to": 203,
    "ul": 204,
    "\u25810xc": 205,
    "\u25810x7d": 206,
    "bc": 207,
    "local": 208,
    "40": 209,
    "ys": 210,
    "tion": 211,
    "\u25810x78": 212,
    "ll": 213,
    "mo": 214,
    "10000": 215,
    "handle": 216,
    "ed": 217,
    "indow": 218,
    "c0": 219,
    "b0": 220,
    "ate": 221,
    "du": 222,
    "\u2581dec": 223,
    "ulti": 224,
    "vi": 225,
    "idec": 226,
    "ultiby": 227,
    "idechar": 228,
    "\u2581deco": 229,
    "\u2581decodepointer": 230,
    "ur": 231,
    "\u25810x6": 232,
    "20": 233,
    "dule": 234,
    "module": 235,
    "\u2581getmodule": 236,
    "\u2581gets": 237,
    "\u25810x400000": 238,
    "f8": 239,
    "30": 240,
    "ands": 241,
    "pincount": 242,
    "\u2581initializecriticalsectionands": 243,
    "\u2581initializecriticalsectionandspincount": 244,
    "tem": 245,
    "50": 246,
    "ystem": 247,
    "tom": 248,
    "78": 249,
    "file": 250,
    "me": 251,
    "\u25810xfeee001": 252,
    "\u2581cre": 253,
    "70": 254,
    "nex": 255,
    "pinfo": 256,
    "ment": 257,
    "\u2581dll": 258,
    "exw": 259,
    "ble": 260,
    "op": 261,
    "tet": 262,
    "locale": 263,
    "indows": 264,
    "18": 265,
    "\u25810x10c": 266,
    "\u2581windows": 267,
    "\u2581char": 268,
    "e0": 269,
    "\u2581getcpinfo": 270,
    "\u2581charnex": 271,
    "\u2581loadstring": 272,
    "yp": 273,
    "\u25810x1211f": 274,
    "vir": 275,
    "d8": 276,
    "ion": 277,
    "fr": 278,
    "process": 279,
    "a5": 280,
    "\u2581ms": 281,
    "38": 282,
    "ri": 283,
    "28": 284,
    "d10000": 285,
    "\u25810x77d10000": 286,
    "\u25810x9": 287,
    "lock": 288,
    "\u2581create": 289,
    "id": 290,
    "rt": 291,
    "\u2581ini": 292,
    "cc": 293,
    "\u25810xf00": 294,
    "br": 295,
    "ce": 296,
    "\u2581multiby": 297,
    "tetow": 298,
    "tetowidechar": 299,
    "\u2581multibytetowidechar": 300,
    "60": 301,
    "tw": 302,
    "\u25810xfffff": 303,
    "98": 304,
    "map": 305,
    "\u25810x7e": 306,
    "\u25810xfffffff": 307,
    "ary": 308,
    "\u25810xc000": 309,
    "\u2581a": 310,
    "rent": 311,
    "urrent": 312,
    "comp": 313,
    "free": 314,
    "sta": 315,
    "brary": 316,
    "localein": 317,
    "\u2581getlocalein": 318,
    "ge": 319,
    "\u25810xff": 320,
    "\u25810x70": 321,
    "c4": 322,
    "34": 323,
    "a8": 324,
    "\u2581getst": 325,
    "\u2581inter": 326,
    "tus": 327,
    "ans": 328,
    "status": 329,
    "\u2581system": 330,
    "\u2581interlock": 331,
    "trans": 332,
    "th": 333,
    "\u2581system32": 334,
    "26": 335,
    "\u2581interlocked": 336,
    "\u2581g": 337,
    "que": 338,
    "lo": 339,
    "rement": 340,
    "\u2581getcpinfoexw": 341,
    "lient": 342,
    "\u25810x243948c": 343,
    "b8": 344,
    "action": 345,
    "table": 346,
    "queue": 347,
    "letion": 348,
    "dcomp": 349,
    "queuedcomp": 350,
    "letionstatus": 351,
    "queuedcompletionstatus": 352,
    "\u2581ddec": 353,
    "\u2581getqueuedcompletionstatus": 354,
    "transaction": 355,
    "\u2581ddeclient": 356,
    "\u2581ddeclienttransaction": 357,
    "tatom": 358,
    "\u2581initatom": 359,
    "\u25810x2439480": 360,
    "\u25810x2439484": 361,
    "\u25810x2439488": 362,
    "\u2581initatomtable": 363,
    "age": 364,
    "vc": 365,
    "ype": 366,
    "\u25810x88": 367,
    "64": 368,
    "\u25810x1211c": 369,
    "\u2581msvc": 370,
    "68": 371,
    "58": 372,
    "\u2581lc": 373,
    "\u2581lcmap": 374,
    "\u2581lcmapstring": 375,
    "\u2581msvcrt": 376,
    "filet": 377,
    "hi": 378,
    "def": 379,
    "di": 380,
    "69": 381,
    "\u25810x4690": 382,
    "ol": 383,
    "\u25810x40a5": 384,
    "\u25810xa": 385,
    "\u2581getcurrent": 386,
    "\u25810x90": 387,
    "library": 388,
    "\u25810x1210": 389,
    "it": 390,
    "un": 391,
    "ect": 392,
    "ey": 393,
    "virtu": 394,
    "virtual": 395,
    "handlew": 396,
    "\u2581heapfree": 397,
    "fow": 398,
    "c8": 399,
    "rs": 400,
    "\u2581getmodulehandlew": 401,
    "\u2581p": 402,
    "api": 403,
    "14": 404,
    "\u2581charnextw": 405,
    "1000": 406,
    "var": 407,
    "\u25810x47": 408,
    "ame": 409,
    "\u2581loadstringw": 410,
    "\u25810xfeee002": 411,
    "for": 412,
    "56": 413,
    "3000": 414,
    "\u2581re": 415,
    "rite": 416,
    "em": 417,
    "\u2581loadlibrary": 418,
    "open": 419,
    "d4": 420,
    "\u2581virtual": 421,
    "\u25810x12119": 422,
    "fe": 423,
    "cmp": 424,
    "\u25810xfeee007": 425,
    "qu": 426,
    "\u2581ex": 427,
    "ers": 428,
    "2000": 429,
    "b000": 430,
    "vw": 431,
    "key": 432,
    "lm": 433,
    "xy": 434,
    "xyz": 435,
    "\u2581abc": 436,
    "ghi": 437,
    "klm": 438,
    "qrs": 439,
    "nop": 440,
    "tuvw": 441,
    "tuvwxyz": 442,
    "nopqrs": 443,
    "defghi": 444,
    "nopqrstuvwxyz": 445,
    "\u2581abcdefghi": 446,
    "klmnopqrstuvwxyz": 447,
    "inc": 448,
    "thread": 449,
    "5000": 450,
    "mm": 451,
    "\u25810x3f": 452,
    "emp": 453,
    "\u25810x18": 454,
    "\u2581interlockedinc": 455,
    "\u2581interlockedincrement": 456,
    "\u25810x78000000": 457,
    "7c": 458,
    "ultibyte": 459,
    "\u2581widechar": 460,
    "tomultibyte": 461,
    "\u2581widechartomultibyte": 462,
    "ck": 463,
    "name": 464,
    "\u25810x409": 465,
    "12": 466,
    "\u25810x12117": 467,
    "\u2581getti": 468,
    "\u2581getfilet": 469,
    "\u2581getfiletype": 470,
    "a000": 471,
    "7000": 472,
    "\u2581temp": 473,
    "\u25810xfeee004": 474,
    "ch": 475,
    "\u25810xfeee0004": 476,
    "form": 477,
    "f000": 478,
    "\u25810x70cc": 479,
    "\u2581loadstringa": 480,
    "\u2581read": 481,
    "\u25810x79": 482,
    "\u25810x44": 483,
    "\u2581mem": 484,
    "\u2581charnexta": 485,
    "\u25810xfeee008": 486,
    "\u25810xffffffff": 487,
    "so": 488,
    "\u25810xfeee005": 489,
    "a4": 490,
    "sset": 491,
    "d000": 492,
    "dhandle": 493,
    "\u2581gettick": 494,
    "\u2581gettickcount": 495,
    "ic": 496,
    "\u25810x7d90": 497,
    "e8": 498,
    "6000": 499,
    "lsset": 500,
    "lssetvalue": 501,
    "ool": 502,
    "\u2581getstdhandle": 503,
    "\u2581memcmp": 504,
    "ad0": 505,
    "\u25810x20": 506,
    "9000": 507,
    "\u25810x200": 508,
    "\u2581getlocaleinfo": 509,
    "\u2581fls": 510,
    "\u25810x41f0": 511,
    "\u25810x80": 512,
    "\u25810x41f040": 513,
    "\u2581getlocaleinfow": 514,
    "5c": 515,
    "\u2581reg": 516,
    "\u2581getsystem": 517,
    "e000": 518,
    "sw": 519,
    "quer": 520,
    "b4": 521,
    "\u25810x526": 522,
    "los": 523,
    "viron": 524,
    "\u2581co": 525,
    "\u2581getmodulehand": 526,
    "da": 527,
    "\u25810xfeee006": 528,
    "vironment": 529,
    "91": 530,
    "\u2581getmodulehandlea": 531,
    "\u25810x78c": 532,
    "\u25810x78c00000": 533,
    "\u25810x1211d": 534,
    "f4": 535,
    "fc": 536,
    "3c": 537,
    "\u25810x5f8": 538,
    "dc": 539,
    "\u25810x104": 540,
    "\u25810x5f800000": 541,
    "\u2581getlocaleinfoa": 542,
    "\u25810x4c4": 543,
    "\u2581open": 544,
    "\u25810xfeee0002": 545,
    "e6": 546,
    "74": 547,
    "\u25810x4610": 548,
    "vers": 549,
    "readpool": 550,
    "\u25810x77e": 551,
    "\u25810x77e10000": 552,
    "rect": 553,
    "2c": 554,
    "\u25811": 555,
    "filename": 556,
    "3d": 557,
    "\u25810x7ec": 558,
    "24": 559,
    "\u25810x7de": 560,
    "ute": 561,
    "sle": 562,
    "\u25810x8ad0": 563,
    "dbc": 564,
    "\u2581lcmapstringw": 565,
    "\u25810xf001": 566,
    "\u2581flssetvalue": 567,
    "\u25810xfeee0000": 568,
    "94": 569,
    "54": 570,
    "9c": 571,
    "artu": 572,
    "eco": 573,
    "\u2581lcmapstringex": 574,
    "ve": 575,
    "\u2581getmodulefilename": 576,
    "\u25810xcd": 577,
    "\u25810xfeee0003": 578,
    "\u2581local": 579,
    "byte": 580,
    "slead": 581,
    "\u2581isdbc": 582,
    "\u2581isdbcslead": 583,
    "la": 584,
    "\u25810x54": 585,
    "\u2581isdbcsleadbyte": 586,
    "\u2581se": 587,
    "rector": 588,
    "\u2581ap": 589,
    "\u2581flsalloc": 590,
    "\u25810x800": 591,
    "vari": 592,
    "\u25810x7c": 593,
    "\u2581h": 594,
    "window": 595,
    "mmand": 596,
    "stringsw": 597,
    "line": 598,
    "\u2581getstartu": 599,
    "\u2581clos": 600,
    "\u2581getcurrentthread": 601,
    "mmandline": 602,
    "director": 603,
    "\u2581b": 604,
    "\u25810x1211e": 605,
    "1c": 606,
    "\u2581getco": 607,
    "\u2581getcommandline": 608,
    "b7": 609,
    "filew": 610,
    "res": 611,
    "\u25810xfeee0005": 612,
    "\u25810xfeee003": 613,
    "\u2581getcurrentthreadid": 614,
    "\u2581ad": 615,
    "valid": 616,
    "vironmentstringsw": 617,
    "80": 618,
    "api32": 619,
    "\u2581adv": 620,
    "\u2581advapi32": 621,
    "ation": 622,
    "\u25810x4600": 623,
    "e5": 624,
    "71": 625,
    "\u2581fr": 626,
    "b9": 627,
    "time": 628,
    "eex": 629,
    "es": 630,
    "are": 631,
    "\u2581apis": 632,
    "\u25810x400": 633,
    "\u25810x7b": 634,
    "75": 635,
    "\u25810xf003": 636,
    "\u25810xf002": 637,
    "\u25810x120": 638,
    "dll": 639,
    "processor": 640,
    "\u2581win": 641,
    "write": 642,
    "\u25810x8810": 643,
    "\u2581write": 644,
    "of": 645,
    "a9": 646,
    "\u25810x8a": 647,
    "\u25810x7700": 648,
    "info": 649,
    "\u2581loadlibrarya": 650,
    "arch": 651,
    "\u25810x4093": 652,
    "\u25810x4a": 653,
    "\u2581virtualalloc": 654,
    "789": 655,
    "\u25810x7a": 656,
    "\u2581l1": 657,
    "\u25810x7708": 658,
    "\u25810x7718": 659,
    "\u25810x7711": 660,
    "66": 661,
    "\u2581interlockeddec": 662,
    "\u2581interlockeddecrement": 663,
    "\u2581var": 664,
    "\u25810x1c": 665,
    "\u2581crea": 666,
    "\u2581de": 667,
    "\u25810x4c42": 668,
    "3456": 669,
    "\u25810x8c": 670,
    "\u2581api": 671,
    "\u2581012": 672,
    "3456789": 673,
    "\u25810123456789": 674,
    "\u2581getvers": 675,
    "a1": 676,
    "f1": 677,
    "\u25810x7710": 678,
    "ab": 679,
    "mess": 680,
    "\u25810x7704": 681,
    "\u25810x7714": 682,
    "\u25810x12115": 683,
    "6c": 684,
    "\u2581getprocess": 685,
    "cep": 686,
    "\u2581search": 687,
    "\u2581loadlibraryexw": 688,
    "tin": 689,
    "ai": 690,
    "directory": 691,
    "filea": 692,
    "ist": 693,
    "\u25810x4378": 694,
    "f3": 695,
    "a2": 696,
    "\u25810xfeee0006": 697,
    "\u2581page": 698,
    "b5": 699,
    "type": 700,
    "\u25810x48": 701,
    "\u2581getprocessheap": 702,
    "con": 703,
    "\u2581geten": 704,
    "message": 705,
    "\u2581x": 706,
    "\u2581readwrite": 707,
    "\u2581core": 708,
    "a6": 709,
    "\u25810x9000": 710,
    "\u2581localalloc": 711,
    "f5": 712,
    "f9": 713,
    "pres": 714,
    "mer": 715,
    "int": 716,
    "present": 717,
    "ait": 718,
    "\u25810x437": 719,
    "\u25810x14": 720,
    "\u25812": 721,
    "\u25810x7e70": 722,
    "db": 723,
    "\u25810x7d91": 724,
    "\u2581getcurrentprocess": 725,
    "ception": 726,
    "\u2581ls": 727,
    "\u2581fi": 728,
    "\u25810xfeee009": 729,
    "atu": 730,
    "\u2581sl": 731,
    "ime": 732,
    "\u2581getstring": 733,
    "\u2581hkey": 734,
    "oftw": 735,
    "ction": 736,
    "eep": 737,
    "\u2581getstringtype": 738,
    "oftware": 739,
    "\u2581quer": 740,
    "hreadpool": 741,
    "up": 742,
    "\u2581sleep": 743,
    "\u25810x771b": 744,
    "\u25810x770b": 745,
    "\u25810x7717": 746,
    "\u25810x7707": 747,
    "\u25810x7709": 748,
    "\u25810x7719": 749,
    "yper": 750,
    "\u2581software": 751,
    "forman": 752,
    "yperforman": 753,
    "\u2581queryperforman": 754,
    "ra": 755,
    "\u25810x8000": 756,
    "\u2581find": 757,
    "\u2581li": 758,
    "\u25810x73": 759,
    "filetime": 760,
    "\u2581getsystemtime": 761,
    "unter": 762,
    "\u25810x7000": 763,
    "ceco": 764,
    "cecounter": 765,
    "\u2581queryperformancecounter": 766,
    "\u2581getstringtypew": 767,
    "a7": 768,
    "rive": 769,
    "15": 770,
    "timer": 771,
    "bo": 772,
    "\u2581lstr": 773,
    "ature": 774,
    "feature": 775,
    "\u2581isprocessor": 776,
    "featurepresent": 777,
    "\u2581isprocessorfeaturepresent": 778,
    "\u25810x42c": 779,
    "um": 780,
    "dex": 781,
    "\u25810xfeee0007": 782,
    "list": 783,
    "\u2581library": 784,
    "\u25810x169": 785,
    "b2": 786,
    "ting": 787,
    "36": 788,
    "\u25810x770c": 789,
    "\u25810x7706": 790,
    "\u25810x7716": 791,
    "\u25810x7702": 792,
    "\u25810x7705": 793,
    "\u25810x770d": 794,
    "\u25810x7712": 795,
    "\u25810x7715": 796,
    "4c": 797,
    "asfiletime": 798,
    "bd": 799,
    "\u25810x102": 800,
    "\u25810x76": 801,
    "\u25810x42d": 802,
    "508": 803,
    "\u25810x416": 804,
    "\u2581gdi": 805,
    "\u2581getmodulefilenamew": 806,
    "\u25810x420": 807,
    "\u25810x47b0": 808,
    "aa": 809,
    "f6": 810,
    "fd": 811,
    "\u2581ws": 812,
    "pinfow": 813,
    "\u2581getstartupinfow": 814,
    "19": 815,
    "\u2581current": 816,
    "\u25810x75": 817,
    "\u25810x71": 818,
    "ecute": 819,
    "ener": 820,
    "\u2581gdi32": 821,
    "\u2581createt": 822,
    "fil": 823,
    "390": 824,
    "\u25810x7701": 825,
    "\u25810x7703": 826,
    "\u25810x770a": 827,
    "\u25810x770e": 828,
    "\u25810x770f": 829,
    "\u25810x7713": 830,
    "\u25810x771a": 831,
    "sour": 832,
    "\u2581getsystemtimeasfiletime": 833,
    "inform": 834,
    "\u25810xfff": 835,
    "query": 836,
    "\u2581gener": 837,
    "27": 838,
    "\u2581generic": 839,
    "hel": 840,
    "information": 841,
    "\u2581sh": 842,
    "b6": 843,
    "\u2581regis": 844,
    "lob": 845,
    "\u2581pf": 846,
    "55": 847,
    "\u2581glob": 848,
    "b1": 849,
    "\u25810x7ec0": 850,
    "\u2581getac": 851,
    "\u25810x74": 852,
    "icon": 853,
    "om": 854,
    "onso": 855,
    "temp": 856,
    "37": 857,
    "29": 858,
    "\u2581createfilew": 859,
    "\u2581getacp": 860,
    "locales": 861,
    "dexception": 862,
    "filter": 863,
    "ition": 864,
    "unhandle": 865,
    "dexceptionfilter": 866,
    "unhandledexceptionfilter": 867,
    "dition": 868,
    "\u25810x7de0": 869,
    "f7": 870,
    "onsole": 871,
    "ock": 872,
    "source": 873,
    "\u25810x4c": 874,
    "\u2581close": 875,
    "exa": 876,
    "\u25810x1210e": 877,
    "code": 878,
    "\u25810x1211c98": 879,
    "tdll": 880,
    "\u25810x430": 881,
    "\u2581closehandle": 882,
    "35": 883,
    "ot": 884,
    "3e": 885,
    "able": 886,
    "\u2581getcurrentprocessid": 887,
    "eexw": 888,
    "be": 889,
    "\u25810x220": 890,
    "stru": 891,
    "ut": 892,
    "67": 893,
    "struction": 894,
    "\u25810x72": 895,
    "\u25810x69": 896,
    "\u25810x7890": 897,
    "\u2581virtualquery": 898,
    "\u25810x4ab0": 899,
    "ob": 900,
    "\u25810x7f": 901,
    "\u2581ac": 902,
    "\u2581getcommandlinea": 903,
    "\u2581isvalid": 904,
    "\u25810x12116": 905,
    "\u2581delet": 906,
    "variable": 907,
    "dd": 908,
    "25": 909,
    "at": 910,
    "\u2581drive": 911,
    "88": 912,
    "eeen": 913,
    "\u2581freeen": 914,
    "\u25810x5265c": 915,
    "lus": 916,
    "ionex": 917,
    "31": 918,
    "\u2581getversionex": 919,
    "\u25810x435": 920,
    "\u25810x49": 921,
    "ack": 922,
    "ervi": 923,
    "print": 924,
    "aila": 925,
    "vaila": 926,
    "vailable": 927,
    "threadpool": 928,
    "\u2581setunhandledexceptionfilter": 929,
    "bf": 930,
    "\u2581crt": 931,
    "\u2581available": 932,
    "\u2581getcommandlinew": 933,
    "\u2581getenvironmentstringsw": 934,
    "4000": 935,
    "printf": 936,
    "\u2581freeenvironmentstringsw": 937,
    "\u2581instruction": 938,
    "i64": 939,
    "\u2581instructions": 940,
    "\u2581xmm": 941,
    "\u2581xmmi64": 942,
    "\u25810x19": 943,
    "\u2581regopen": 944,
    "\u2581regopenkey": 945,
    "from": 946,
    "\u25810xa4": 947,
    "\u2581getmodulefilenamea": 948,
    "\u25810x1211c18": 949,
    "\u25810x30": 950,
    "8c": 951,
    "tri": 952,
    "\u2581writefile": 953,
    "\u2581gettemp": 954,
    "ae": 955,
    "\u2581setfile": 956,
    "\u25810x4670": 957,
    "directoryw": 958,
    "d6": 959,
    "79": 960,
    "\u25810xfffffff6": 961,
    "\u2581getconsole": 962,
    "ity": 963,
    "handl": 964,
    "\u25810xfffffff5": 965,
    "\u25810xfffffff4": 966,
    "wait": 967,
    "cre": 968,
    "\u25810x7c000000": 969,
    "len": 970,
    "\u2581locales": 971,
    "\u2581execute": 972,
    "308": 973,
    "d2": 974,
    "b3": 975,
    "\u25810x1211dc0": 976,
    "lass": 977,
    "\u25810xe": 978,
    "lor": 979,
    "yn": 980,
    "ber": 981,
    "\u25810x50": 982,
    "\u25810x4fe": 983,
    "af": 984,
    "76": 985,
    "\u2581creates": 986,
    "\u25810x7ee": 987,
    "defa": 988,
    "\u25810x69000000": 989,
    "olf": 990,
    "defaul": 991,
    "\u2581free": 992,
    "\u2581o": 993,
    "\u25810x4c42c0": 994,
    "\u2581getstartupinfo": 995,
    "\u2581getstartupinfoa": 996,
    "urs": 997,
    "messagea": 998,
    "c000": 999,
    "st": 1000,
    "sc": 1001,
    "color": 1002,
    "\u2581global": 1003,
    "e2": 1004,
    "rw": 1005,
    "\u2581shel": 1006,
    "\u25810x4238": 1007,
    "\u25810x12116d8": 1008,
    "16": 1009,
    "44": 1010,
    "f2": 1011,
    "\u2581golf": 1012,
    "\u25810x1211918": 1013,
    "d5": 1014,
    "create": 1015,
    "\u2581invalid": 1016,
    "processlist": 1017,
    "\u2581getconsoleprocesslist": 1018,
    "e7": 1019,
    "cess": 1020,
    "\u25810x423d": 1021,
    "\u2581lstrlen": 1022,
    "\u2581getuser": 1023,
    "codep": 1024,
    "error": 1025,
    "e9": 1026,
    "condition": 1027,
    "a80": 1028,
    "ard": 1029,
    "17": 1030,
    "84": 1031,
    "\u25810x1211e0": 1032,
    "\u25810xd": 1033,
    "codepage": 1034,
    "board": 1035,
    "99": 1036,
    "ba": 1037,
    "\u2581isvalidcodepage": 1038,
    "urity": 1039,
    "\u25810x56": 1040,
    "22": 1041,
    "security": 1042,
    "\u25810x82": 1043,
    "\u25810x42e5": 1044,
    "tor": 1045,
    "\u2581process": 1046,
    "\u25810x7e71": 1047,
    "ursor": 1048,
    "\u25810x8af0": 1049,
    "\u25810xfeee0": 1050,
    "set": 1051,
    "\u2581r": 1052,
    "\u25810x436": 1053,
    "\u2581setfilepointer": 1054,
    "\u25810x4d": 1055,
    "\u25810x7910": 1056,
    "\u2581access": 1057,
    "\u25810x8811": 1058,
    "ton": 1059,
    "rwlock": 1060,
    "cursor": 1061,
    "ervice": 1062,
    "\u2581getsys": 1063,
    "00c": 1064,
    "\u2581loadicon": 1065,
    "908": 1066,
    "\u25810x1211f38": 1067,
    "8000": 1068,
    "3f": 1069,
    "gu": 1070,
    "\u25810x12114": 1071,
    "\u25810x418": 1072,
    "\u2581loadcursor": 1073,
    "ical": 1074,
    "\u25810xb": 1075,
    "section": 1076,
    "end": 1077,
    "e1": 1078,
    "\u25810x2a": 1079,
    "\u2581gettempw": 1080,
    "\u2581process32": 1081,
    "bu": 1082,
    "met": 1083,
    "f10000": 1084,
    "\u2581closet": 1085,
    "\u2581closethreadpool": 1086,
    "\u2581createthreadpool": 1087,
    "\u25810x40934": 1088,
    "\u2581heapcreate": 1089,
    "\u25810x77f10000": 1090,
    "\u25810x417": 1091,
    "\u2581al": 1092,
    "date": 1093,
    "\u25810x5265c14": 1094,
    "\u25810x5266": 1095,
    "\u25810xfeee0008": 1096,
    "95": 1097,
    "1a": 1098,
    "\u25810x7ed": 1099,
    "\u25810x41bc": 1100,
    "ork": 1101,
    "\u2581map": 1102,
    "\u2581crtdll": 1103,
    "isting": 1104,
    "top": 1105,
    "\u25810x3000": 1106,
    "33": 1107,
    "cs": 1108,
    "106": 1109,
    "\u25810x11": 1110,
    "\u2581existing": 1111,
    "d1": 1112,
    "hread": 1113,
    "\u25810xfeee0009": 1114,
    "ro": 1115,
    "\u25810xfeee000a": 1116,
    "\u25810xfeee000b": 1117,
    "\u25810x34": 1118,
    "\u25810xfeee000c": 1119,
    "call": 1120,
    "\u25810xfeee000d": 1121,
    "\u25810xfeee000e": 1122,
    "bb": 1123,
    "\u25810xfeee0014": 1124,
    "\u2581getversion": 1125,
    "py": 1126,
    "\u25810xfeee000f": 1127,
    "\u25810x771c": 1128,
    "d7": 1129,
    "realloc": 1130,
    "\u25810x8d": 1131,
    "num": 1132,
    "\u25810xfeee0010": 1133,
    "ynch": 1134,
    "\u25810xffc": 1135,
    "\u25810xfeee0015": 1136,
    "\u25810xfeee0013": 1137,
    "\u25810xfeee0012": 1138,
    "\u2581tls": 1139,
    "\u25810xfeee0016": 1140,
    "\u25810xfeee0011": 1141,
    "all": 1142,
    "1e": 1143,
    "\u2581synch": 1144,
    "\u2581getthread": 1145,
    "\u2581delete": 1146,
    "\u2581key": 1147,
    "\u2581flsfree": 1148,
    "cec": 1149,
    "\u25810x8a40": 1150,
    "97": 1151,
    "bc0": 1152,
    "fa": 1153,
    "day": 1154,
    "firs": 1155,
    "\u2581freelibrary": 1156,
    "back": 1157,
    "version": 1158,
    "vie": 1159,
    "\u2581exit": 1160,
    "lic": 1161,
    "\u25810x32": 1162,
    "\u25810x7810": 1163,
    "db10": 1164,
    "raw": 1165,
    "bute": 1166,
    "tribute": 1167,
    "\u25810x13": 1168,
    "bers": 1169,
    "ts": 1170,
    "\u25810x4750": 1171,
    "leas": 1172,
    "ttribute": 1173,
    "\u25810x43b7": 1174,
    "\u25810xfeee0017": 1175,
    "ive": 1176,
    "db10106": 1177,
    "\u25810x1db10106": 1178,
    "callback": 1179,
    "bd0": 1180,
    "\u25810xfeee0018": 1181,
    "\u25810x4305": 1182,
    "\u2581setthreadpool": 1183,
    "d9": 1184,
    "\u25810xfeee0019": 1185,
    "fileattribute": 1186,
    "\u2581regopenkeyexw": 1187,
    "\u2581heaprealloc": 1188,
    "fb": 1189,
    "\u2581ntdll": 1190,
    "sa": 1191,
    "\u25810x7ec1": 1192,
    "ating": 1193,
    "clus": 1194,
    "\u2581str": 1195,
    "aps": 1196,
    "clusive": 1197,
    "\u25810x42d4": 1198,
    "rwlockex": 1199,
    "rwlockexclusive": 1200,
    "lip": 1201,
    "try": 1202,
    "hine": 1203,
    "\u2581mac": 1204,
    "a3": 1205,
    "\u2581machine": 1206,
    "\u25810xfeee001c": 1207,
    "qui": 1208,
    "\u25817": 1209,
    "directorya": 1210,
    "\u2581rt": 1211,
    "\u25810x4e": 1212,
    "\u2581rtl": 1213,
    "\u2581registerc": 1214,
    "\u2581tlssetvalue": 1215,
    "view": 1216,
    "resource": 1217,
    "2e": 1218,
    "\u25810x1211e04": 1219,
    "\u2581tlsalloc": 1220,
    "\u25810x7f00": 1221,
    "\u2581readfile": 1222,
    "lipboard": 1223,
    "\u2581golfinfo": 1224,
    "\u25810xfeee001a": 1225,
    "a40": 1226,
    "\u25810x120e6": 1227,
    "\u25810x1211908": 1228,
    "\u25810x7de1": 1229,
    "\u2581bor": 1230,
    "ecount": 1231,
    "\u25810x1210f": 1232,
    "tex": 1233,
    "\u25810x64": 1234,
    "ant": 1235,
    "9d": 1236,
    "\u25810x428": 1237,
    "handlecount": 1238,
    "\u25810x58": 1239,
    "\u2581sethandlecount": 1240,
    "dr": 1241,
    "\u25810x50000": 1242,
    "\u25810x4feb": 1243,
    "lose": 1244,
    "21": 1245,
    "\u25810x12114b8": 1246,
    "7e": 1247,
    "\u2581getsyscolor": 1248,
    "\u25810x1211718": 1249,
    "men": 1250,
    "394": 1251,
    "close": 1252,
    "\u2581borl": 1253,
    "\u2581i": 1254,
    "\u25810xfeee001b": 1255,
    "\u25810x423": 1256,
    "log": 1257,
    "mode": 1258,
    "\u25810x7850": 1259,
    "\u25810x79f0": 1260,
    "keyw": 1261,
    "\u2581borland": 1262,
    "04": 1263,
    "9e": 1264,
    "ies": 1265,
    "\u2581registerclass": 1266,
    "work": 1267,
    "\u25810xa3": 1268,
    "\u2581releas": 1269,
    "mem": 1270,
    "780": 1271,
    "net": 1272,
    "b80": 1273,
    "esource": 1274,
    "b00": 1275,
    "77": 1276,
    "l66": 1277,
    "utex": 1278,
    "rip": 1279,
    "scrip": 1280,
    "erw": 1281,
    "\u2581wait": 1282,
    "51": 1283,
    "term": 1284,
    "\u25810x198": 1285,
    "descrip": 1286,
    "\u2581mapvirtual": 1287,
    "first": 1288,
    "menu": 1289,
    "280": 1290,
    "\u2581mapvirtualkeyw": 1291,
    "descriptor": 1292,
    "securitydescriptor": 1293,
    "c1": 1294,
    "\u25810xfeee0071": 1295,
    "dater": 1296,
    "\u2581shell32": 1297,
    "fromstr": 1298,
    "directories": 1299,
    "\u25810x19a": 1300,
    "\u25810x84": 1301,
    "\u2581wsprintf": 1302,
    "edc": 1303,
    "number": 1304,
    "\u25810xfeee001d": 1305,
    "ee0": 1306,
    "\u2581setdefaul": 1307,
    "loating": 1308,
    "45": 1309,
    "l6660": 1310,
    "\u25810x7f8": 1311,
    "\u2581setdefaultdll": 1312,
    "\u2581setdefaultdlldirectories": 1313,
    "\u25810x42c4": 1314,
    "\u2581getenvironment": 1315,
    "led": 1316,
    "ero": 1317,
    "dateresource": 1318,
    "\u2581waitfor": 1319,
    "\u25810x1211758": 1320,
    "il": 1321,
    "ename": 1322,
    "\u25810x700c": 1323,
    "c6": 1324,
    "1d": 1325,
    "\u25810x410": 1326,
    "og": 1327,
    "\u2581getfile": 1328,
    "metri": 1329,
    "\u25810x1211c7c": 1330,
    "metrics": 1331,
    "\u2581getsystemmetrics": 1332,
    "\u25810x704c": 1333,
    "\u2581getversionexw": 1334,
    "\u25810x708c": 1335,
    "\u2581fibers": 1336,
    "\u25810x1211528": 1337,
    "\u25810x1211958": 1338,
    "ffi": 1339,
    "ke": 1340,
    "logical": 1341,
    "\u2581getlogical": 1342,
    "quires": 1343,
    "2a": 1344,
    "next": 1345,
    "quiresrwlockexclusive": 1346,
    "\u2581getthreadlocale": 1347,
    "\u25810x7e8": 1348,
    "96": 1349,
    "drl6660": 1350,
    "\u25810x4350": 1351,
    "\u2581creat": 1352,
    "ffile": 1353,
    "\u25810x4f": 1354,
    "eg": 1355,
    "\u25810x99": 1356,
    "atex": 1357,
    "\u25810xfeee007e": 1358,
    "\u25810x4c4308": 1359,
    "ailed": 1360,
    "ea": 1361,
    "ink": 1362,
    "\u2581file": 1363,
    "\u2581wi": 1364,
    "econ": 1365,
    "variab": 1366,
    "\u25810x41de": 1367,
    "sof": 1368,
    "\u25810xa0": 1369,
    "\u2581wa": 1370,
    "\u25810x7930": 1371,
    "localename": 1372,
    "\u2581exitprocess": 1373,
    "\u2581beg": 1374,
    "pa": 1375,
    "\u25810xfeee001e": 1376,
    "\u25810x8cc0": 1377,
    "23": 1378,
    "eb": 1379,
    "emap": 1380,
    "emaph": 1381,
    "\u25810x4000": 1382,
    "\u2581sprintf": 1383,
    "\u25810xf0019": 1384,
    "\u2581begin": 1385,
    "\u25810x28": 1386,
    "drl6660drl6660": 1387,
    "\u25810x89": 1388,
    "\u25810x411": 1389,
    "7d": 1390,
    "\u25810x1211518": 1391,
    "soft": 1392,
    "icro": 1393,
    "\u25810x2c": 1394,
    "offile": 1395,
    "conditionvariable": 1396,
    "\u25810x1211728": 1397,
    "icrosoft": 1398,
    "formatex": 1399,
    "\u2581lstrlenw": 1400,
    "ub": 1401,
    "\u2581createfilea": 1402,
    "windowexa": 1403,
    "\u25810x1e": 1404,
    "\u2581createsemaph": 1405,
    "\u2581comp": 1406,
    "lec": 1407,
    "\u2581microsoft": 1408,
    "\u25810x105": 1409,
    "\u25810xfeee001f": 1410,
    "9f": 1411,
    "\u25810xfeee0020": 1412,
    "\u25810x1211748": 1413,
    "1f": 1414,
    "\u25810x4630": 1415,
    "lush": 1416,
    "\u25810x1211c90": 1417,
    "c08": 1418,
    "tun": 1419,
    "\u2581compare": 1420,
    "\u2581floating": 1421,
    "\u25810x1211b": 1422,
    "df": 1423,
    "trac": 1424,
    "\u25810x5265": 1425,
    "\u25810x8b": 1426,
    "\u2581virtualfree": 1427,
    "\u2581pr": 1428,
    "buff": 1429,
    "\u2581comparestring": 1430,
    "\u2581getversionexa": 1431,
    "72": 1432,
    "\u25810x8f": 1433,
    "1b": 1434,
    "\u2581wsprintfw": 1435,
    "fileattributesw": 1436,
    "bit": 1437,
    "ervicew": 1438,
    "08": 1439,
    "ld": 1440,
    "initializ": 1441,
    "low": 1442,
    "ver": 1443,
    "\u25810x7f800": 1444,
    "\u2581flush": 1445,
    "ocket": 1446,
    "\u25810x97": 1447,
    "2d": 1448,
    "\u2581up": 1449,
    "a256": 1450,
    "\u2581initializes": 1451,
    "\u2581con": 1452,
    "\u25810x169b": 1453,
    "3d8": 1454,
    "\u2581getsystemdirectoryw": 1455,
    "\u2581sha256": 1456,
    "\u25810x569": 1457,
    "\u25810x3394": 1458,
    "\u2581getdc": 1459,
    "c7": 1460,
    "\u25810x1211cf8": 1461,
    "memor": 1462,
    "59": 1463,
    "informationby": 1464,
    "\u25810x4b": 1465,
    "namea": 1466,
    "f35": 1467,
    "\u25810x42e5b0": 1468,
    "ockob": 1469,
    "\u2581getstockob": 1470,
    "\u25810x7ab0": 1471,
    "clipboard": 1472,
    "buffers": 1473,
    "\u25810x414": 1474,
    "\u25810x3f30": 1475,
    "angu": 1476,
    "\u2581setmenu": 1477,
    "anguage": 1478,
    "\u2581wnet": 1479,
    "\u2581extrac": 1480,
    "paint": 1481,
    "mutex": 1482,
    "\u25810xfeee00f1": 1483,
    "\u2581currentversion": 1484,
    "\u2581lstrlena": 1485,
    "ef": 1486,
    "\u25810x44f8": 1487,
    "\u2581register": 1488,
    "ilanguage": 1489,
    "wa": 1490,
    "\u2581failed": 1491,
    "ways": 1492,
    "dateresourcea": 1493,
    "\u25810x4336": 1494,
    "put": 1495,
    "3a": 1496,
    "de9": 1497,
    "\u2581loadicona": 1498,
    "\u2581always": 1499,
    "\u2581loadcursora": 1500,
    "\u25810x1211f64": 1501,
    "mutexa": 1502,
    "\u2581st": 1503,
    "\u25810xa000": 1504,
    "\u2581exe": 1505,
    "\u25810x67": 1506,
    "een": 1507,
    "\u25810x94": 1508,
    "\u25810x42a1": 1509,
    "\u25810x17": 1510,
    "\u25810x429": 1511,
    "\u2581vari": 1512,
    "oy": 1513,
    "eek": 1514,
    "\u2581setmenuinfo": 1515,
    "\u25810x42c508": 1516,
    "memory": 1517,
    "\u25810x2000": 1518,
    "\u25810x12119c0": 1519,
    "\u25810x4790": 1520,
    "180": 1521,
    "\u2581nt": 1522,
    "\u2581king": 1523,
    "mapview": 1524,
    "und": 1525,
    "\u2581findfirst": 1526,
    "\u25810x1211948": 1527,
    "\u2581try": 1528,
    "\u2581regopenkeyexa": 1529,
    "\u25810x4169": 1530,
    "300": 1531,
    "\u25810x436390": 1532,
    "\u25810x42d8": 1533,
    "\u2581loadiconw": 1534,
    "\u25810x1211fcc": 1535,
    "\u25810x88a0": 1536,
    "cp": 1537,
    "d3": 1538,
    "\u25810x42a190": 1539,
    "\u2581tryac": 1540,
    "\u2581tryacquiresrwlockexclusive": 1541,
    "link": 1542,
    "\u25810x1211738": 1543,
    "\u25810x42c4d8": 1544,
    "flow": 1545,
    "\u25810x439": 1546,
    "\u25810x1075": 1547,
    "\u25810x1211f7c": 1548,
    "\u2581globalalloc": 1549,
    "\u2581loadcursorw": 1550,
    "220": 1551,
    "\u2581getde": 1552,
    "sp": 1553,
    "0000000": 1554,
    "\u25810x38": 1555,
    "\u258120": 1556,
    "\u25810x1211fd8": 1557,
    "\u2581varb": 1558,
    "\u25817z": 1559,
    "\u25810x7aa0": 1560,
    "\u25810xfeee0027": 1561,
    "topen": 1562,
    "prot": 1563,
    "lex": 1564,
    "\u2581findclose": 1565,
    "\u25810x1211fd0": 1566,
    "isp": 1567,
    "\u25810xfeee0026": 1568,
    "\u2581ole": 1569,
    "\u25810x7830": 1570,
    "\u25810xfeee0021": 1571,
    "\u25810xfeee0022": 1572,
    "\u25810x1f4": 1573,
    "kar": 1574,
    "dac": 1575,
    "karton": 1576,
    "ision": 1577,
    "\u25810x1211a": 1578,
    "vicec": 1579,
    "\u25810xfeee0023": 1580,
    "\u25810xfeee0024": 1581,
    "vicecaps": 1582,
    "\u2581getdevicecaps": 1583,
    "2f": 1584,
    "\u2581kingkarton": 1585,
    "\u25810xfeee0025": 1586,
    "\u25810xfeee008b": 1587,
    "ackage": 1588,
    "\u2581wake": 1589,
    "\u2581wakeall": 1590,
    "\u2581wakeallconditionvariable": 1591,
    "65": 1592,
    "\u25810x1b": 1593,
    "ym": 1594,
    "\u25810x1211cc0": 1595,
    "protect": 1596,
    "\u25810x40a5ce": 1597,
    "\u25810x40a5d0": 1598,
    "\u25810x40a5d2": 1599,
    "\u25810x40a5d4": 1600,
    "\u25810x40a5d6": 1601,
    "\u25810x40a5d8": 1602,
    "\u25810x40a5da": 1603,
    "\u25810x1210f35": 1604,
    "wh": 1605,
    "\u25810x214": 1606,
    "linkw": 1607,
    "\u25810xfde9": 1608,
    "480": 1609,
    "package": 1610,
    "ga": 1611,
    "\u2581shellex": 1612,
    "\u25810x83": 1613,
    "packageid": 1614,
    "\u2581getcurrentpackageid": 1615,
    "\u2581virtualprotect": 1616,
    "\u25810x51": 1617,
    "\u25810x42d508": 1618,
    "\u2581ntopen": 1619,
    "\u2581ntopensection": 1620,
    "zero": 1621,
    "\u2581th": 1622,
    "\u2581copy": 1623,
    "atch": 1624,
    "646": 1625,
    "not": 1626,
    "ock32": 1627,
    "\u2581wsock32": 1628,
    "2f8": 1629,
    "allock": 1630,
    "\u2581strn": 1631,
    "\u2581lread": 1632,
    "\u25810x1f": 1633,
    "\u25810x4305b0": 1634,
    "ati": 1635,
    "\u25810x21000": 1636,
    "\u2581comparestringex": 1637,
    "\u2581getlocaleinfoex": 1638,
    "\u25810xfeee005f": 1639,
    "default": 1640,
    "urn": 1641,
    "econdition": 1642,
    "econditionvariable": 1643,
    "\u2581init": 1644,
    "gd": 1645,
    "help": 1646,
    "\u2581draw": 1647,
    "\u25810x1f400": 1648,
    "\u25810x42e": 1649,
    "ymbo": 1650,
    "ymbolic": 1651,
    "\u25810x60": 1652,
    "\u25810x3f34": 1653,
    "ymboliclinkw": 1654,
    "\u2581createsymboliclinkw": 1655,
    "\u25810x434": 1656,
    "\u25810x12118": 1657,
    "520": 1658,
    "ag": 1659,
    "\u2581star": 1660,
    "\u25810x1804": 1661,
    "\u25810x42d4d8": 1662,
    "\u25810x42b0": 1663,
    "ispatch": 1664,
    "\u25810x435390": 1665,
    "\u25810xcc": 1666,
    "3b": 1667,
    "ret": 1668,
    "\u2581strncmp": 1669,
    "\u25814": 1670,
    "\u2581createprocess": 1671,
    "ed8": 1672,
    "\u25810x4239": 1673,
    "\u2581send": 1674,
    "ush": 1675,
    "\u2581createwindowexa": 1676,
    "ace": 1677,
    "\u25810x21": 1678,
    "52": 1679,
    "cb": 1680,
    "\u25810x1211f8": 1681,
    "drive": 1682,
    "\u25810x9c": 1683,
    "ryp": 1684,
    "\u25810x1211e14": 1685,
    "\u2581globallock": 1686,
    "\u25810x43780": 1687,
    "when": 1688,
    "return": 1689,
    "processwrite": 1690,
    "processornumber": 1691,
    "\u2581flushprocesswrite": 1692,
    "\u2581flushprocesswritebuffers": 1693,
    "\u2581getcurrentprocessornumber": 1694,
    "returns": 1695,
    "whencallback": 1696,
    "whencallbackreturns": 1697,
    "\u2581closethreadpoolwait": 1698,
    "\u2581freelibrarywhencallbackreturns": 1699,
    "oreexw": 1700,
    "callbacks": 1701,
    "timercallbacks": 1702,
    "\u2581setthreadpoolwait": 1703,
    "\u2581waitforthreadpool": 1704,
    "\u2581createsemaphoreexw": 1705,
    "\u2581setthreadpooltimer": 1706,
    "\u2581closethreadpooltimer": 1707,
    "\u2581createthreadpoolwait": 1708,
    "\u2581createthreadpooltimer": 1709,
    "\u2581waitforthreadpooltimercallbacks": 1710,
    "tries": 1711,
    "\u2581peek": 1712,
    "\u25810x2e": 1713,
    "\u25810x16": 1714,
    "\u25810x678": 1715,
    "a04": 1716,
    "\u25810x98": 1717,
    "ca": 1718,
    "\u25810x3f75": 1719,
    "\u2581ch": 1720,
    "variablew": 1721,
    "\u25810x1a": 1722,
    "brush": 1723,
    "\u25810x4feba8": 1724,
    "stroy": 1725,
    "\u25810xfeee0028": 1726,
    "\u25810x7a80": 1727,
    "770": 1728,
    "\u25810x422": 1729,
    "tered": 1730,
    "\u2581code": 1731,
    "\u25810x8e": 1732,
    "eck": 1733,
    "yo": 1734,
    "320": 1735,
    "\u25810x8230": 1736,
    "\u25810x4371": 1737,
    "\u25810x364": 1738,
    "xt": 1739,
    "\u25810x1211bc0": 1740,
    "\u2581setup": 1741,
    "\u2581with": 1742,
    "\u25810x1211e2c": 1743,
    "\u2581peekmessagea": 1744,
    "2b": 1745,
    "\u25810x1211ee0": 1746,
    "gear": 1747,
    "\u2581codegear": 1748,
    "\u2581altered": 1749,
    "268": 1750,
    "\u2581hgd": 1751,
    "\u2581hgdraw": 1752,
    "e80": 1753,
    "ervicec": 1754,
    "\u25810x9a": 1755,
    "ecomp": 1756,
    "\u2581closes": 1757,
    "\u2581getlogicaldrive": 1758,
    "\u25810x12119ac": 1759,
    "ct": 1760,
    "61": 1761,
    "\u2581cryp": 1762,
    "\u2581deletefilew": 1763,
    "div": 1764,
    "ervicectr": 1765,
    "5f": 1766,
    "\u25810x44f9": 1767,
    "d04": 1768,
    "messagew": 1769,
    "atible": 1770,
    "\u25810x1211dcc": 1771,
    "\u25810xfeee0040": 1772,
    "57": 1773,
    "ecompatible": 1774,
    "\u2581createcompatible": 1775,
    "\u25810xfeee0072": 1776,
    "\u2581setthread": 1777,
    "alet": 1778,
    "conne": 1779,
    "\u25810x5f5": 1780,
    "92": 1781,
    "\u25810x437b": 1782,
    "\u25810xfeee0029": 1783,
    "\u25810x4967": 1784,
    "338": 1785,
    "system": 1786,
    "\u2581starts": 1787,
    "004": 1788,
    "6d": 1789,
    "\u25810x46b0": 1790,
    "\u2581getuserdefault": 1791,
    "\u2581getenvironmentvariablew": 1792,
    "\u25810x92": 1793,
    "\u25810x169bf": 1794,
    "588": 1795,
    "\u25810x569b00": 1796,
    "lp": 1797,
    "\u25810x1211fd4": 1798,
    "\u25810x437880": 1799,
    "hot": 1800,
    "\u25810x15": 1801,
    "\u25810x7540": 1802,
    "iate": 1803,
    "\u25810x53": 1804,
    "sn": 1805,
    "\u2581findfirstfilew": 1806,
    "\u2581app": 1807,
    "\u25810x1211f00": 1808,
    "point": 1809,
    "d80": 1810,
    "\u2581initterm": 1811,
    "\u25810xfeee002a": 1812,
    "\u25810xb8": 1813,
    "ssoc": 1814,
    "\u25810x78c0": 1815,
    "\u2581e": 1816,
    "bug": 1817,
    "\u2581releasedc": 1818,
    "\u25810xfeee005d": 1819,
    "5e": 1820,
    "eration": 1821,
    "\u2581createa": 1822,
    "\u25810x22": 1823,
    "d0a": 1824,
    "\u25810xa9": 1825,
    "head": 1826,
    "\u2581createdirectoryw": 1827,
    "own": 1828,
    "\u25810x101": 1829,
    "c04": 1830,
    "380": 1831,
    "help32": 1832,
    "oolhelp32": 1833,
    "snaps": 1834,
    "oolhelp32snaps": 1835,
    "\u2581createtoolhelp32snaps": 1836,
    "\u25810x7b80": 1837,
    "\u2581createtoolhelp32snapshot": 1838,
    "\u2581getfileattributesw": 1839,
    "\u25810xa429": 1840,
    "\u25810x419c": 1841,
    "\u2581enum": 1842,
    "696": 1843,
    "lect": 1844,
    "verflow": 1845,
    "\u2581initialize": 1846,
    "\u25810x12112f8": 1847,
    "f04": 1848,
    "ecta": 1849,
    "7b": 1850,
    "\u2581hton": 1851,
    "\u25810x85": 1852,
    "listhead": 1853,
    "\u2581initializeslisthead": 1854,
    "connection": 1855,
    "dacl": 1856,
    "\u2581gettime": 1857,
    "securitydescriptordacl": 1858,
    "strfrom": 1859,
    "\u2581varbstrfrom": 1860,
    "\u2581error": 1861,
    "ssociate": 1862,
    "\u2581initializesecuritydescriptor": 1863,
    "2w": 1864,
    "\u25810x7ad0": 1865,
    "debug": 1866,
    "e3": 1867,
    "\u2581process32next": 1868,
    "connection2w": 1869,
    "untime": 1870,
    "64000": 1871,
    "86": 1872,
    "\u2581golfset": 1873,
    "iv": 1874,
    "\u25810x25": 1875,
    "\u2581createmutexa": 1876,
    "\u25810x53000": 1877,
    "\u2581setsecuritydescriptordacl": 1878,
    "termin": 1879,
    "\u25810xa3a7": 1880,
    "tok": 1881,
    "chan": 1882,
    "\u25810xfeee0046": 1883,
    "\u2581no": 1884,
    "\u25810x6d": 1885,
    "c2": 1886,
    "\u25810x188": 1887,
    "dicon": 1888,
    "\u2581extracta": 1889,
    "ssociatedicon": 1890,
    "\u2581extractassociatedicon": 1891,
    "\u25810x416b": 1892,
    "\u25810x8920": 1893,
    "\u2581termin": 1894,
    "188": 1895,
    "token": 1896,
    "\u2581beginup": 1897,
    "ast": 1898,
    "53": 1899,
    "\u25810x2f": 1900,
    "\u2581select": 1901,
    "lecs": 1902,
    "variablecs": 1903,
    "\u2581sleepcondition": 1904,
    "\u2581sleepconditionvariablecs": 1905,
    "13": 1906,
    "\u25810x460": 1907,
    "\u25810xfeee007c": 1908,
    "\u2581deletecriticalsection": 1909,
    "\u25810xfeee002c": 1910,
    "\u25810x42b9": 1911,
    "de0": 1912,
    "\u25813": 1913,
    "\u25810x79d0": 1914,
    "\u25810x86": 1915,
    "9a": 1916,
    "408": 1917,
    "\u25810xfeee002b": 1918,
    "cel": 1919,
    "\u25810x3f2000": 1920,
    "c5": 1921,
    "\u25810xfeee002d": 1922,
    "\u2581un": 1923,
    "\u25810xfeee002f": 1924,
    "\u25810x5a": 1925,
    "\u25810x7bd0": 1926,
    "\u25810xfeee0074": 1927,
    "\u25810xfeee002e": 1928,
    "\u25810x6b": 1929,
    "\u25810x6781": 1930,
    "692": 1931,
    "\u2581wc": 1932,
    "\u25810x3c": 1933,
    "688": 1934,
    "\u25810x59": 1935,
    "\u2581getusernamea": 1936,
    "\u2581loc": 1937,
    "\u25810xfeee01": 1938,
    "\u25810x7990": 1939,
    "\u2581localiz": 1940,
    "\u2581localization": 1941,
    "\u25810xfeee006b": 1942,
    "e66": 1943,
    "\u25810x9030": 1944,
    "\u25810x1211f28": 1945,
    "\u25810xfeee006d": 1946,
    "\u2581txt": 1947,
    "tes": 1948,
    "\u2581update": 1949,
    "ec0": 1950,
    "\u25818": 1951,
    "118": 1952,
    "\u25810x7f0": 1953,
    "ain": 1954,
    "e6b": 1955,
    "ho": 1956,
    "valu": 1957,
    "reg": 1958,
    "\u25810xfeee0045": 1959,
    "\u2581ole32": 1960,
    "\u2581getdate": 1961,
    "\u25810x42a9": 1962,
    "\u25810x1211dd4": 1963,
    "\u25810xfeee0030": 1964,
    "\u25810x1211780": 1965,
    "62": 1966,
    "73": 1967,
    "\u25810x7150": 1968,
    "\u25810xfeee0031": 1969,
    "\u25810x7db0": 1970,
    "\u25810xfeee009a": 1971,
    "5d": 1972,
    "6f": 1973,
    "\u2581createthread": 1974,
    "ask": 1975,
    "\u25810x47c0": 1976,
    "\u25810x72a0": 1977,
    "\u25810x73f0": 1978,
    "\u258132": 1979,
    "fer": 1980,
    "\u25810xfeee0044": 1981,
    "ac000": 1982,
    "22030": 1983,
    "sup": 1984,
    "\u25812022030": 1985,
    "\u25810x7690": 1986,
    "3c000": 1987,
    "\u25810xfeee005e": 1988,
    "\u25810x12117f8": 1989,
    "\u2581mon": 1990,
    "\u25810x1211508": 1991,
    "39000": 1992,
    "ini": 1993,
    "\u25810x420c": 1994,
    "\u25810x77e0": 1995,
    "\u25810x567": 1996,
    "7a": 1997,
    "\u25810x42a9a0": 1998,
    "lphi": 1999,
    "\u2581delphi": 2000,
    "ysical": 2001,
    "hysical": 2002,
    "resourcew": 2003,
    "\u25810x48f8": 2004,
    "\u25810xfeee0043": 2005,
    "\u25810x44f8e0": 2006,
    "\u25810x41bc20": 2007,
    "\u25810xfeee0047": 2008,
    "\u25810x80000000": 2009,
    "cpyn": 2010,
    "\u2581lstrcpyn": 2011,
    "\u2581enumsystem": 2012,
    "\u2581physical": 2013,
    "\u25810xfeee0033": 2014,
    "\u25810xfeee0032": 2015,
    "\u25810x68": 2016,
    "\u2581po": 2017,
    "class": 2018,
    "\u25810x5f500000": 2019,
    "\u25810xfeee0035": 2020,
    "\u25810xfeee0048": 2021,
    "\u25810xfeee0034": 2022,
    "\u25810x4fec": 2023,
    "\u25810xfeee003b": 2024,
    "\u2581rec": 2025,
    "\u25810x1211928": 2026,
    "\u25810xfeee0036": 2027,
    "\u25810xfeee0037": 2028,
    "sti": 2029,
    "69000": 2030,
    "\u2581malloc": 2031,
    "refer": 2032,
    "a5000": 2033,
    "arg": 2034,
    "input": 2035,
    "\u25810xfeee0049": 2036,
    "\u2581sets": 2037,
    "\u2581fon": 2038,
    "fold": 2039,
    "\u2581fonts": 2040,
    "main": 2041,
    "\u25810x41dd": 2042,
    "\u25810xfeee0038": 2043,
    "\u2581show": 2044,
    "\u25810xfeee0039": 2045,
    "\u25810x412": 2046,
    "\u25810xe0": 2047,
    "\u25810xfeee0041": 2048,
    "\u25810xfeee003f": 2049,
    "ows": 2050,
    "\u25810x1211308": 2051,
    "\u25810xfeee0042": 2052,
    "\u25810x7d95": 2053,
    "54000": 2054,
    "ad000": 2055,
    "\u25810xfeee0062": 2056,
    "\u25810x1211578": 2057,
    "\u25810xfeee003a": 2058,
    "\u25810xfeee003d": 2059,
    "stitu": 2060,
    "ubstitu": 2061,
    "ubstitutes": 2062,
    "\u2581fontsubstitutes": 2063,
    "\u25810x4c32": 2064,
    "\u25810x7d94": 2065,
    "\u25810xfeee003e": 2066,
    "\u25810xfeee003c": 2067,
    "3c0": 2068,
    "c9": 2069,
    "\u25810x96": 2070,
    "\u25810x7d50": 2071,
    "\u2581createdirectorya": 2072,
    "\u25810x424": 2073,
    "110": 2074,
    "\u25810x7be0": 2075,
    "26000": 2076,
    "cad": 2077,
    "bc000": 2078,
    "icode": 2079,
    "\u25810xd0": 2080,
    "b8000": 2081,
    "\u25810xfeee0053": 2082,
    "\u25810xfeee0060": 2083,
    "\u2581getsysteminfo": 2084,
    "32000": 2085,
    "\u2581enumsystemlocales": 2086,
    "\u25810xfeee0065": 2087,
    "\u25810xfeee004a": 2088,
    "\u25810xfeee005c": 2089,
    "34000": 2090,
    "24000": 2091,
    "\u25810xfeee0066": 2092,
    "securityinfo": 2093,
    "6e": 2094,
    "allocate": 2095,
    "\u25810xfeee0067": 2096,
    "9c000": 2097,
    "48000": 2098,
    "\u25810x3e": 2099,
    "\u25810x40a": 2100,
    "a8000": 2101,
    "isk": 2102,
    "6c000": 2103,
    "7c000": 2104,
    "\u25810xfeee0061": 2105,
    "28000": 2106,
    "\u25810x42a40": 2107,
    "\u2581getuserdefaultlocalename": 2108,
    "56000": 2109,
    "74000": 2110,
    "\u25810x121193c": 2111,
    "\u25810xfeee004d": 2112,
    "a4000": 2113,
    "\u25810xfeee005a": 2114,
    "5c000": 2115,
    "38000": 2116,
    "\u25810xfeee004b": 2117,
    "icodestring": 2118,
    "\u25810xfeee004c": 2119,
    "b4000": 2120,
    "\u2581getdateformatex": 2121,
    "\u2581enumsystemlocalesex": 2122,
    "\u25810xfeee005b": 2123,
    "\u2581gettimeformatex": 2124,
    "\u2581isvalidlocalename": 2125,
    "\u25810xfeee0073": 2126,
    "mapviewof": 2127,
    "mapviewofsection": 2128,
    "ec8": 2129,
    "98000": 2130,
    "\u2581gettickcount64": 2131,
    "78000": 2132,
    "\u25810xfeee0050": 2133,
    "\u25810xfeee0063": 2134,
    "initun": 2135,
    "\u2581rtlinitun": 2136,
    "\u25810xfeee004e": 2137,
    "\u2581rtlinitunicodestring": 2138,
    "2c000": 2139,
    "c4000": 2140,
    "\u25810xfeee0055": 2141,
    "58000": 2142,
    "\u25810xfeee0054": 2143,
    "\u25810xfeee004f": 2144,
    "68000": 2145,
    "\u25810xfeee0051": 2146,
    "\u25810xfeee0052": 2147,
    "\u25810xfeee0068": 2148,
    "94000": 2149,
    "\u25810xfeee0056": 2150,
    "\u25810xfeee0057": 2151,
    "\u25810xfeee0058": 2152,
    "\u25810xfeee0059": 2153,
    "errormode": 2154,
    "\u25810x1211f2c": 2155,
    "\u2581seterrormode": 2156,
    "3696": 2157,
    "oct": 2158,
    "text": 2159,
    "\u25810x4340": 2160,
    "e44": 2161,
    "leob": 2162,
    "e6669": 2163,
    "\u25810d0a": 2164,
    "e6b692": 2165,
    "3696e6b692": 2166,
    "3696e6b692e6669": 2167,
    "\u2581end": 2168,
    "7f": 2169,
    "\u25810xfeee0064": 2170,
    "\u2581initializeconditionvariable": 2171,
    "\u25810xfeee0075": 2172,
    "\u25810xa1": 2173,
    "\u25810xfeee0070": 2174,
    "\u25810xfeee0081": 2175,
    "cy": 2176,
    "variablea": 2177,
    "63": 2178,
    "\u2581getmessagea": 2179,
    "e08": 2180,
    "\u2581windowsnt": 2181,
    "\u25810xfeee006c": 2182,
    "\u258110": 2183,
    "\u2581go": 2184,
    "\u25810x29": 2185,
    "windowproc": 2186,
    "\u25810x655": 2187,
    "980": 2188,
    "\u2581recv": 2189,
    "redu": 2190,
    "referredu": 2191,
    "referreduilanguage": 2192,
    "threadp": 2193,
    "threadpreferreduilanguage": 2194,
    "threadpreferreduilanguages": 2195,
    "\u25810xfeee006f": 2196,
    "\u2581q": 2197,
    "ord": 2198,
    "\u25810x7d10": 2199,
    "\u25810xfeee006e": 2200,
    "\u25810xfeee006a": 2201,
    "\u2581registerclassexa": 2202,
    "\u25810x23": 2203,
    "208": 2204,
    "\u25810x1211f34": 2205,
    "\u25810x39": 2206,
    "\u25810x3f34c0": 2207,
    "\u25810xfeee0069": 2208,
    "\u25810x1211fc8": 2209,
    "\u25810x7bf0": 2210,
    "\u25810x65500000": 2211,
    "a58": 2212,
    "sing": 2213,
    "\u25810x3bc": 2214,
    "\u25810x7b90": 2215,
    "\u2581findnext": 2216,
    "nextw": 2217,
    "5b": 2218,
    "keyboard": 2219,
    "\u25810x78f0": 2220,
    "bits": 2221,
    "\u25810x1211fc0": 2222,
    "\u25810x42b9a0": 2223,
    "\u2581goog": 2224,
    "\u2581google": 2225,
    "\u2581crypt": 2226,
    "\u2581getlogicalprocessor": 2227,
    "\u2581getlogicalprocessorinformation": 2228,
    "\u25810x7ee0": 2229,
    "\u25810xa2": 2230,
    "\u25810x4c42d8": 2231,
    "\u25810x4c42f0": 2232,
    "stack": 2233,
    "\u25810x1211dfc": 2234,
    "\u2581getkeyboard": 2235,
    "guar": 2236,
    "antee": 2237,
    "guarantee": 2238,
    "stackguarantee": 2239,
    "\u2581setthreadstackguarantee": 2240,
    "\u25810x42a": 2241,
    "\u25810x1211fc4": 2242,
    "\u2581def": 2243,
    "\u25810x7df0": 2244,
    "\u25810x4bc": 2245,
    "\u2581createw": 2246,
    "\u2581process32nextw": 2247,
    "\u25810x40a9": 2248,
    "valueexw": 2249,
    "data": 2250,
    "\u25810x40933d": 2251,
    "\u25810x40933e": 2252,
    "\u2581getfileinformationby": 2253,
    "\u25810x40933f": 2254,
    "\u25810x409340": 2255,
    "\u25810x409341": 2256,
    "\u25810x409342": 2257,
    "\u25810x409343": 2258,
    "\u2581deletefilea": 2259,
    "ac0": 2260,
    "\u25810x41f3": 2261,
    "\u2581showwindow": 2262,
    "\u2581bat": 2263,
    "mage": 2264,
    "\u25810x6781d8": 2265,
    "ray": 2266,
    "\u2581shellexecute": 2267,
    "\u2581defwindowproc": 2268,
    "\u25810x36": 2269,
    "378": 2270,
    "388": 2271,
    "\u25810xfeee0089": 2272,
    "singleob": 2273,
    "\u2581san": 2274,
    "\u25810x4208": 2275,
    "\u25810x1211d04": 2276,
    "\u25810xfeee008a": 2277,
    "e40": 2278,
    "localtime": 2279,
    "\u25810x6c": 2280,
    "\u2581waitforsingleob": 2281,
    "\u2581trans": 2282,
    "b04": 2283,
    "\u25810x7cd0": 2284,
    "008": 2285,
    "\u2581registry": 2286,
    "fdr": 2287,
    "\u2581loadlibraryw": 2288,
    "\u2581sanfdr": 2289,
    "ac6": 2290,
    "bitmap": 2291,
    "\u2581updatewindow": 2292,
    "\u25810x1211f4c": 2293,
    "\u2581getmain": 2294,
    "\u25810xfeee0078": 2295,
    "\u2581getfileinformationbyhandl": 2296,
    "\u25810xfeee0077": 2297,
    "\u25810x1211c04": 2298,
    "windows": 2299,
    "\u25810x120e": 2300,
    "\u25810xfeee0079": 2301,
    "\u25810xfeee0076": 2302,
    "\u25810x8280": 2303,
    "\u25810x42e0": 2304,
    "\u2581ma": 2305,
    "\u25810xfeee007a": 2306,
    "\u2581getd": 2307,
    "\u25810x433648": 2308,
    "vol": 2309,
    "\u25810x8a80": 2310,
    "\u25810x1211a04": 2311,
    "\u25810x80c4": 2312,
    "\u2581registerwindow": 2313,
    "drl6660drl6660drl6660drl6660": 2314,
    "\u2581getlocaltime": 2315,
    "pos": 2316,
    "\u25810xfeee007f": 2317,
    "\u2581beginpaint": 2318,
    "\u25810x1211dc8": 2319,
    "stringsa": 2320,
    "\u2581getsystemdirectorya": 2321,
    "e04": 2322,
    "cpy": 2323,
    "\u25810xa8": 2324,
    "\u2581destroy": 2325,
    "\u2581endpaint": 2326,
    "closekey": 2327,
    "\u2581regclosekey": 2328,
    "\u2581setfileinformationby": 2329,
    "\u2581createexw": 2330,
    "ume": 2331,
    "cd": 2332,
    "9b": 2333,
    "\u2581variant": 2334,
    "\u2581globalfree": 2335,
    "array": 2336,
    "volume": 2337,
    "\u25810x42c5": 2338,
    "load": 2339,
    "\u25810x527": 2340,
    "\u2581olea": 2341,
    "002": 2342,
    "\u25810x410770": 2343,
    "\u2581exed": 2344,
    "\u2581exedows": 2345,
    "fe8": 2346,
    "inal": 2347,
    "\u25810x1211f30": 2348,
    "\u25810x1211f20": 2349,
    "ed4": 2350,
    "\u25810x43b8": 2351,
    "\u25810x4800": 2352,
    "\u2581au": 2353,
    "quit": 2354,
    "\u25810x408": 2355,
    "\u25810x432": 2356,
    "\u2581post": 2357,
    "\u25810x8814": 2358,
    "\u25810xffff": 2359,
    "\u2581setwindow": 2360,
    "\u2581lstrcmp": 2361,
    "\u25810x404": 2362,
    "\u25810xfeee0080": 2363,
    "\u25810x1211768": 2364,
    "am": 2365,
    "\u25810x4330": 2366,
    "140": 2367,
    "\u25810x527ed8": 2368,
    "typ": 2369,
    "b40": 2370,
    "\u25810x418a": 2371,
    "580": 2372,
    "volumeinformation": 2373,
    "\u2581getvolumeinformation": 2374,
    "mask": 2375,
    "host": 2376,
    "\u2581nov": 2377,
    "\u2581sep": 2378,
    "tof": 2379,
    "\u2581com": 2380,
    "\u25810xfeee007d": 2381,
    "3f8": 2382,
    "\u25810xfeee0095": 2383,
    "\u2581tmp": 2384,
    "ce8": 2385,
    "10c": 2386,
    "\u25810x8815": 2387,
    "\u25810xfeee008e": 2388,
    "\u2581regset": 2389,
    "708": 2390,
    "state": 2391,
    "\u2581apr": 2392,
    "\u2581aug": 2393,
    "ember": 2394,
    "c80": 2395,
    "\u2581sun": 2396,
    "\u2581getenvironmentvariablea": 2397,
    "fileattributesa": 2398,
    "\u2581registerclassexw": 2399,
    "mappin": 2400,
    "filemappin": 2401,
    "\u25810x42fc": 2402,
    "\u25810xfeee0082": 2403,
    "uter": 2404,
    "\u25810x33": 2405,
    "\u25810x1d": 2406,
    "f8000": 2407,
    "ordinal": 2408,
    "uary": 2409,
    "\u2581may": 2410,
    "93": 2411,
    "\u2581ws2": 2412,
    "sday": 2413,
    "\u2581tue": 2414,
    "\u2581wed": 2415,
    "late": 2416,
    "\u2581fri": 2417,
    "\u2581translate": 2418,
    "computer": 2419,
    "teen": 2420,
    "aletteen": 2421,
    "aletteentries": 2422,
    "\u25810x423e": 2423,
    "\u2581ordinal": 2424,
    "lon": 2425,
    "\u25810x7e80": 2426,
    "5a": 2427,
    "\u25810xfeee008c": 2428,
    "utof": 2429,
    "spec": 2430,
    "\u2581conne": 2431,
    "\u25810x4340c8": 2432,
    "\u25810x1211e08": 2433,
    "texta": 2434,
    "e4000": 2435,
    "\u25810xfeee008d": 2436,
    "\u25810x7e74": 2437,
    "\u25810xfeee007b": 2438,
    "d08": 2439,
    "\u25810x7e75": 2440,
    "ysta": 2441,
    "\u25810xfeee0084": 2442,
    "\u25810x7e78": 2443,
    "\u25810x4620": 2444,
    "\u25810x7e79": 2445,
    "\u2581dispatch": 2446,
    "rag": 2447,
    "varian": 2448,
    "\u25810x7e7c": 2449,
    "\u25810x7e7d": 2450,
    "\u25810x9020": 2451,
    "suped": 2452,
    "\u25810x5b": 2453,
    "down": 2454,
    "\u2581getsystemp": 2455,
    "\u2581getsystempaletteentries": 2456,
    "108": 2457,
    "\u25810xa7": 2458,
    "368": 2459,
    "\u2581floatingpoin": 2460,
    "toperation": 2461,
    "byzero": 2462,
    "isionbyzero": 2463,
    "\u25810x4428": 2464,
    "\u25810x7e81": 2465,
    "\u2581createfilemappin": 2466,
    "\u25810x42d8c6": 2467,
    "\u25810x1211cdc": 2468,
    "\u25810x42c0": 2469,
    "atet": 2470,
    "\u2581shget": 2471,
    "b7c": 2472,
    "namew": 2473,
    "c3": 2474,
    "\u2581varr": 2475,
    "4fromstr": 2476,
    "\u25810x4e5": 2477,
    "\u25810x10000": 2478,
    "\u2581er": 2479,
    "\u25810x57": 2480,
    "\u2581contr": 2481,
    "\u25810x7e84": 2482,
    "\u25810x7e85": 2483,
    "fearray": 2484,
    "\u25810xfeee0087": 2485,
    "\u2581seten": 2486,
    "\u25810x37": 2487,
    "\u25810x80c0": 2488,
    "tou": 2489,
    "\u25810xfeee0088": 2490,
    "6a": 2491,
    "\u25810x2d4": 2492,
    "\u25810x431f": 2493,
    "\u25810x31": 2494,
    "\u2581gettempa": 2495,
    "\u25810x4710": 2496,
    "\u25810x4169c0": 2497,
    "\u25810x4169c1": 2498,
    "\u25810xfeee0083": 2499,
    "\u25810x9d": 2500,
    "\u25810xfeee0085": 2501,
    "anag": 2502,
    "\u25810xfeee0086": 2503,
    "\u25810x4227": 2504,
    "\u2581postquit": 2505,
    "\u2581postquitmessage": 2506,
    "sid": 2507,
    "\u2581createfilemappinga": 2508,
    "\u2581registerwindowmessagew": 2509,
    "ow64": 2510,
    "\u25810x2d": 2511,
    "your": 2512,
    "torsa": 2513,
    "\u25810xfeee008f": 2514,
    "torsafearray": 2515,
    "\u25810x3f75f": 2516,
    "\u25810x40a5dc": 2517,
    "\u25810x6a6": 2518,
    "\u25810x40a5cc": 2519,
    "\u25810x5265c28": 2520,
    "\u25810xfeee0090": 2521,
    "\u2581translatemessage": 2522,
    "\u25810x7d98": 2523,
    "\u25810x52": 2524,
    "\u25810x7d99": 2525,
    "\u2581check": 2526,
    "\u25810x4015": 2527,
    "\u2581image": 2528,
    "\u25810x42da": 2529,
    "\u25810x1210d": 2530,
    "\u25810x78a0": 2531,
    "\u25810x60000": 2532,
    "656": 2533,
    "bc8": 2534,
    "\u25810xa5": 2535,
    "\u25810x5f": 2536,
    "\u2581regsetvalueexw": 2537,
    "\u2581createprocessa": 2538,
    "\u25810x61": 2539,
    "\u25810x42ce": 2540,
    "\u25810x42c588": 2541,
    "\u25810x41678": 2542,
    "\u25810xfeee0092": 2543,
    "enum": 2544,
    "change": 2545,
    "\u2581getcurrentdirectoryw": 2546,
    "\u25810x42dac6": 2547,
    "\u25810x1211fdc": 2548,
    "ty": 2549,
    "00a": 2550,
    "\u25810x7da0": 2551,
    "114": 2552,
    "\u25810x169b9": 2553,
    "\u25810x4094": 2554,
    "\u25810x8cf0": 2555,
    "\u25810x42a0": 2556,
    "lw": 2557,
    "files": 2558,
    "\u25810x1211f3c": 2559,
    "900": 2560,
    "\u25810x7d9c": 2561,
    "350": 2562,
    "\u25810x7d9d": 2563,
    "round": 2564,
    "pro": 2565,
    "\u25810x1211ef0": 2566,
    "unlock": 2567,
    "726": 2568,
    "wow64": 2569,
    "\u25810x7da1": 2570,
    "a44": 2571,
    "vice": 2572,
    "\u2581point": 2573,
    "nal": 2574,
    "\u2581cb": 2575,
    "rata": 2576,
    "\u2581prec": 2577,
    "\u2581errata": 2578,
    "\u2581allocate": 2579,
    "\u2581precision": 2580,
    "\u25810xfeee0094": 2581,
    "\u25810x121194c": 2582,
    "initialize": 2583,
    "\u25810x4960": 2584,
    "\u25810x1211bd0": 2585,
    "bl": 2586,
    "yarg": 2587,
    "b08": 2588,
    "\u25810xc00": 2589,
    "\u25810x7db4": 2590,
    "\u25810xfeee0091": 2591,
    "\u2581globalunlock": 2592,
    "\u25810x7da4": 2593,
    "ad4": 2594,
    "\u25810x7db5": 2595,
    "\u2581mapview": 2596,
    "lwapi": 2597,
    "\u2581shlwapi": 2598,
    "\u2581defwindowproca": 2599,
    "\u25810x1211c14": 2600,
    "\u25810x7090": 2601,
    "\u2581getsyscolorbrush": 2602,
    "\u25810x4330c8": 2603,
    "lhandl": 2604,
    "\u2581res": 2605,
    "pe": 2606,
    "\u25810x7de4": 2607,
    "bk": 2608,
    "\u25810x7da5": 2609,
    "\u25810xfeee0093": 2610,
    "\u2581deleteob": 2611,
    "328": 2612,
    "cf": 2613,
    "\u25810x4d70": 2614,
    "new": 2615,
    "\u2581findwindow": 2616,
    "nexec": 2617,
    "\u2581mapviewoffile": 2618,
    "\u2581dispatchmessagea": 2619,
    "\u25810xfeee0098": 2620,
    "\u25810x7de5": 2621,
    "tob": 2622,
    "\u25810x12117a4": 2623,
    "\u25810x121157c": 2624,
    "\u25810x81": 2625,
    "ut32": 2626,
    "\u25810x7ae0": 2627,
    "\u2581oleaut32": 2628,
    "\u25810xfeee0099": 2629,
    "\u2581setfileattributesa": 2630,
    "\u25810x4bd0": 2631,
    "\u25810x58de": 2632,
    "cept": 2633,
    "manag": 2634,
    "\u25810xfeee0097": 2635,
    "b20": 2636,
    "\u25810xa42": 2637,
    "\u25810xfeee0096": 2638,
    "foreg": 2639,
    "foreground": 2640,
    "foregroundwindow": 2641,
    "\u25810xfeee009b": 2642,
    "ethread": 2643,
    "\u25810x7da8": 2644,
    "\u25810x80e0": 2645,
    "\u2581drag": 2646,
    "\u25810x84b0": 2647,
    "\u25810xfeee009c": 2648,
    "400": 2649,
    "ust": 2650,
    "\u2581copyfilea": 2651,
    "68c": 2652,
    "\u25810x8310": 2653,
    "\u2581imagelist": 2654,
    "\u2581winexec": 2655,
    "\u25810x48f898": 2656,
    "\u25810x41de20": 2657,
    "blt": 2658,
    "\u2581selec": 2659,
    "\u25810x4170": 2660,
    "ial": 2661,
    "\u25810x423818": 2662,
    "\u25810x7da9": 2663,
    "\u25810x1211f88": 2664,
    "ator": 2665,
    "ore": 2666,
    "\u25810x4255": 2667,
    "riv": 2668,
    "\u2581runtime": 2669,
    "\u25810x41ddd8": 2670,
    "\u25810x95": 2671,
    "\u25810x416ed": 2672,
    "box": 2673,
    "os": 2674,
    "\u25810x1211f04": 2675,
    "setinformation": 2676,
    "f0000": 2677,
    "\u2581op": 2678,
    "\u25810x44f928": 2679,
    "\u25810x120fb": 2680,
    "\u25810x35": 2681,
    "\u25810x4189": 2682,
    "\u25810x41f": 2683,
    "bkcolor": 2684,
    "\u2581accept": 2685,
    "once": 2686,
    "a18": 2687,
    "\u2581tex": 2688,
    "\u2581selectob": 2689,
    "\u25810x8d80": 2690,
    "\u2581textou": 2691,
    "\u25810x4e50": 2692,
    "\u2581heapsetinformation": 2693,
    "\u25810x12113": 2694,
    "f08": 2695,
    "\u25810x12110": 2696,
    "\u2581iswow64": 2697,
    "\u2581iswow64process": 2698,
    "\u25810x525": 2699,
    "\u2581setfileattributesw": 2700,
    "\u25810x7300": 2701,
    "\u2581u": 2702,
    "\u25810x7dac": 2703,
    "\u25810x7dad": 2704,
    "\u2581process32first": 2705,
    "e68": 2706,
    "104": 2707,
    "\u25810x45fc": 2708,
    "\u2581device": 2709,
    "\u25810x7900": 2710,
    "988": 2711,
    "\u25810x1211f48": 2712,
    "a0000": 2713,
    "\u25810x7db1": 2714,
    "\u25810x7390": 2715,
    "\u25810x4317": 2716,
    "ontin": 2717,
    "endoffile": 2718,
    "\u25810xa6": 2719,
    "\u25810x107568": 2720,
    "lid": 2721,
    "\u25810x1211938": 2722,
    "dir": 2723,
    "ger": 2724,
    "ystate": 2725,
    "\u25810x40152c": 2726,
    "\u2581getlogicaldrivestringsa": 2727,
    "\u25810x2b": 2728,
    "\u25810x40f6": 2729,
    "\u25810x58c0": 2730,
    "\u2581createprocessw": 2731,
    "\u25810x4270": 2732,
    "ofc": 2733,
    "\u2581setbkcolor": 2734,
    "artup": 2735,
    "can": 2736,
    "a17": 2737,
    "\u25810x97a0": 2738,
    "terect": 2739,
    "680": 2740,
    "\u2581findnextfilew": 2741,
    "\u2581deletedc": 2742,
    "\u2581registers": 2743,
    "\u25810x20000": 2744,
    "ervicectrlhandl": 2745,
    "\u2581registerservicectrlhandl": 2746,
    "\u2581tr": 2747,
    "\u2581getforegroundwindow": 2748,
    "\u25810x42cd": 2749,
    "\u25810x4febf0": 2750,
    "\u25810x519": 2751,
    "ceff": 2752,
    "\u2581opens": 2753,
    "\u2581resum": 2754,
    "\u2581resumethread": 2755,
    "\u25810xf0": 2756,
    "\u2581z": 2757,
    "\u2581sendmessagea": 2758,
    "\u2581closesocket": 2759,
    "\u25810x78d0": 2760,
    "\u25810x42d3d8": 2761,
    "emutex": 2762,
    "\u2581releasemutex": 2763,
    "a08": 2764,
    "ternal": 2765,
    "\u2581initializesrwlock": 2766,
    "\u2581drawtexta": 2767,
    "rand": 2768,
    "\u25810x3f4000": 2769,
    "788": 2770,
    "textcolor": 2771,
    "\u2581bit": 2772,
    "aterect": 2773,
    "bar": 2774,
    "ervicehandle": 2775,
    "\u2581closeservicehandle": 2776,
    "\u2581exitthread": 2777,
    "\u25810x5d": 2778,
    "\u25810x437a": 2779,
    "scmanag": 2780,
    "\u2581openscmanag": 2781,
    "\u2581setwindowpos": 2782,
    "ervicestatus": 2783,
    "ccc": 2784,
    "\u25810x3f3000": 2785,
    "\u2581getdi": 2786,
    "\u2581unmapview": 2787,
    "\u2581unmapviewoffile": 2788,
    "\u2581mpr": 2789,
    "\u2581createcompatibledc": 2790,
    "a88": 2791,
    "\u2581bitblt": 2792,
    "atethread": 2793,
    "\u25810x42d390": 2794,
    "\u2581settextcolor": 2795,
    "42": 2796,
    "6b": 2797,
    "wi": 2798,
    "der": 2799,
    "\u2581failedto": 2800,
    "\u2581registerclassa": 2801,
    "\u2581terminatethread": 2802,
    "\u25810x91": 2803,
    "\u25810x7db9": 2804,
    "\u2581textouta": 2805,
    "ee8": 2806,
    "\u25810x7db8": 2807,
    "\u25810x7f10": 2808,
    "cc8": 2809,
    "\u25810x40a58": 2810,
    "\u25810x42a7": 2811,
    "dup": 2812,
    "ull": 2813,
    "\u25810x7dc8": 2814,
    "\u2581createcompatiblebitmap": 2815,
    "usp": 2816,
    "esid": 2817,
    "andinitializ": 2818,
    "andinitializesid": 2819,
    "\u2581allocateandinitializesid": 2820,
    "0x": 2821,
    "\u25810x46e0": 2822,
    "\u2581error0x": 2823,
    "ldispatch": 2824,
    "\u2581startservicectr": 2825,
    "\u2581startservicectrldispatch": 2826,
    "\u25810x7dbc": 2827,
    "\u2581openscmanagerw": 2828,
    "\u25811646": 2829,
    "e61": 2830,
    "\u2581getke": 2831,
    "\u2581getkeystate": 2832,
    "\u2581geticon": 2833,
    "\u2581openservicew": 2834,
    "e6c": 2835,
    "\u25810x7dbd": 2836,
    "\u25810x7270": 2837,
    "\u2581startservicectrldispatcherw": 2838,
    "\u2581setservicestatus": 2839,
    "\u25810xb4": 2840,
    "\u25810x6b9": 2841,
    "\u2581startservicew": 2842,
    "\u2581ra": 2843,
    "\u2581createservicew": 2844,
    "\u25810x99e0": 2845,
    "\u2581acquiresrwlockexclusive": 2846,
    "longa": 2847,
    "\u2581createdi": 2848,
    "\u25810x437ad": 2849,
    "eexception": 2850,
    "\u2581copyfilew": 2851,
    "\u25810x437c4": 2852,
    "\u25810x437bc": 2853,
    "\u25810x4371e6": 2854,
    "\u25810x4371e7": 2855,
    "2ac": 2856,
    "\u2581rais": 2857,
    "\u2581raiseexception": 2858,
    "e88": 2859,
    "\u25810x43b7c": 2860,
    "\u25810xa42a": 2861,
    "\u25810x43b7b9": 2862,
    "\u25810x43b7c3": 2863,
    "\u2581findwindowa": 2864,
    "enthread": 2865,
    "\u25810x7060": 2866,
    "ene": 2867,
    "fac": 2868,
    "\u2581createf": 2869,
    "\u2581openthread": 2870,
    "\u25810x120e6d4": 2871,
    "\u2581susp": 2872,
    "\u25810x120ff": 2873,
    "\u2581freesid": 2874,
    "\u2581suspend": 2875,
    "\u2581getdibits": 2876,
    "\u2581suspendthread": 2877,
    "utput": 2878,
    "\u25810x4308": 2879,
    "\u2581for": 2880,
    "\u25810xb0": 2881,
    "\u25810x71b0": 2882,
    "\u2581htons": 2883,
    "\u25810x42e5f8": 2884,
    "\u25810x8d00": 2885,
    "46": 2886,
    "\u2581socket": 2887,
    "\u2581wsast": 2888,
    "\u2581wsastartup": 2889,
    "\u25810x7870": 2890,
    "\u25810x56bb": 2891,
    "\u25810x7dc1": 2892,
    "\u2581getob": 2893,
    "\u25810x3d": 2894,
    "\u2581getcomputer": 2895,
    "\u25810x67000000": 2896,
    "\u25810x4315": 2897,
    "ontindir": 2898,
    "\u25810x567a40": 2899,
    "\u2581createfontindir": 2900,
    "app": 2901,
    "b88": 2902,
    "solid": 2903,
    "\u2581settimer": 2904,
    "\u25810x3f22": 2905,
    "\u2581connect": 2906,
    "\u25810x2ac": 2907,
    "\u25810x51000": 2908,
    "utdown": 2909,
    "solidbrush": 2910,
    "\u2581createsolidbrush": 2911,
    "\u2581getusernamew": 2912,
    "\u25810x55": 2913,
    "\u25810x120e6d0": 2914,
    "\u2581getnumber": 2915,
    "\u2581invalidaterect": 2916,
    "ff8": 2917,
    "\u2581fill": 2918,
    "\u25810x79a0": 2919,
    "3a8": 2920,
    "ofconsole": 2921,
    "\u2581getnumberofconsole": 2922,
    "\u25810x421": 2923,
    "\u2581getlogicaldrivestringsw": 2924,
    "\u25810x1211b04": 2925,
    "\u2581gethost": 2926,
    "\u2581bind": 2927,
    "\u2581wne": 2928,
    "enenum": 2929,
    "\u25810x46b3": 2930,
    "\u2581wnetop": 2931,
    "\u2581wnetopenenum": 2932,
    "\u2581remo": 2933,
    "\u2581wnetopenenumw": 2934,
    "\u25810x7a10": 2935,
    "\u2581createfontindirecta": 2936,
    "\u25810x4319": 2937,
    "\u2581destroyicon": 2938,
    "\u25810x7dc0": 2939,
    "\u25810x52000": 2940,
    "byname": 2941,
    "tic": 2942,
    "hip": 2943,
    "\u2581gethostbyname": 2944,
    "members": 2945,
    "\u25810x9010": 2946,
    "\u2581createsemaphore": 2947,
    "membership": 2948,
    "\u25810x4168": 2949,
    "\u2581getkeyboardstate": 2950,
    "\u2581wnetadd": 2951,
    "\u2581checktoken": 2952,
    "\u2581checktokenmembership": 2953,
    "\u2581wnetaddconnection2w": 2954,
    "488": 2955,
    "\u2581wnetenum": 2956,
    "\u2581wnetenumresourcew": 2957,
    "\u2581fillrect": 2958,
    "\u25810x1210f8": 2959,
    "losec": 2960,
    "\u2581createdib": 2961,
    "\u25810x7b000": 2962,
    "ivi": 2963,
    "freesp": 2964,
    "\u25810x7af0": 2965,
    "\u25810x7b40": 2966,
    "\u2581getdisk": 2967,
    "\u2581getdiskfreesp": 2968,
    "\u25810x4028": 2969,
    "\u25810x4275": 2970,
    "\u25810x8260": 2971,
    "\u2581createdibsection": 2972,
    "cancel": 2973,
    "\u2581wnetcancel": 2974,
    "\u2581wnetcancelconnection2w": 2975,
    "41": 2976,
    "\u25810x7b10": 2977,
    "\u25810x1e5": 2978,
    "\u2581emp": 2979,
    "\u2581setclass": 2980,
    "\u25810x1211efc": 2981,
    "\u2581geticoninfo": 2982,
    "\u2581getthreadpreferreduilanguages": 2983,
    "a81": 2984,
    "\u2581setclipboard": 2985,
    "\u2581drawicon": 2986,
    "\u2581msvcr": 2987,
    "\u25810x7030": 2988,
    "\u2581openclipboard": 2989,
    "\u2581setclipboarddata": 2990,
    "b50": 2991,
    "\u2581empty": 2992,
    "\u2581closec": 2993,
    "\u2581closeclipboard": 2994,
    "\u25810x79c0": 2995,
    "ecut": 2996,
    "\u2581shellexecut": 2997,
    "\u2581emptyclipboard": 2998,
    "\u25810x41a": 2999,
    "\u25810x431998": 3000,
    "\u2581net": 3001,
    "\u25810x7c70": 3002,
    "\u2581setclasslonga": 3003,
    "\u25810x3a": 3004,
    "\u2581shellexecuteexw": 3005,
    "\u25810x75d0": 3006,
    "\u2581extractassociatedicona": 3007,
    "\u2581extractassociatediconw": 3008,
    "geo": 3009,
    "\u2581list": 3010,
    "\u25810x47a0": 3011,
    "\u2581shutdown": 3012,
    "\u2581rtlzero": 3013,
    "\u2581rtlzeromemory": 3014,
    "dateresourcew": 3015,
    "\u2581findwindowexa": 3016,
    "\u2581gb": 3017,
    "\u2581registerservicectrlhandlerw": 3018,
    "\u2581endup": 3019,
    "inputs": 3020,
    "\u2581getnumberofconsoleinputs": 3021,
    "\u2581updateresourcea": 3022,
    "\u2581endupdateresourcea": 3023,
    "\u2581beginupdateresourcea": 3024,
    "geoid": 3025,
    "\u2581getusergeoid": 3026,
    "\u2581htonl": 3027,
    "\u2581beginupdateresourcew": 3028,
    "\u25810x3410c": 3029,
    "\u2581releases": 3030,
    "octls": 3031,
    "ticonex": 3032,
    "\u2581ioctls": 3033,
    "\u2581ioctlsocket": 3034,
    "\u2581extracticonex": 3035,
    "\u25810x8090": 3036,
    "\u2581extracticonexw": 3037,
    "\u2581listen": 3038,
    "\u25810x26": 3039,
    "\u25810x71e0": 3040,
    "\u25810x4730": 3041,
    "debugger": 3042,
    "\u25810x7a50": 3043,
    "\u25810x1e00000": 3044,
    "\u25810x1e50000": 3045,
    "debuggerpresent": 3046,
    "\u25810x51a": 3047,
    "\u25810x40a3": 3048,
    "slen": 3049,
    "\u2581getpe": 3050,
    "ername": 3051,
    "\u2581getpeername": 3052,
    "\u2581wcslen": 3053,
    "\u25810xb0000": 3054,
    "\u25810x41c": 3055,
    "\u25810x41e2": 3056,
    "\u25810x7750": 3057,
    "\u25810x74e0": 3058,
    "\u25810x2ac45": 3059,
    "\u25810x7de8": 3060,
    "\u25810x40287e": 3061,
    "folder": 3062,
    "\u25810x3b": 3063,
    "\u25810x7210": 3064,
    "\u25810x28c": 3065,
    "\u25810x7cf0": 3066,
    "\u2581shellexecutew": 3067,
    "\u25810x72d0": 3068,
    "\u25810x7de9": 3069,
    "\u25810x169b7": 3070,
    "d8000": 3071,
    "dos": 3072,
    "f00": 3073,
    "\u25810x7240": 3074,
    "\u25810x1211cec": 3075,
    "\u25810x7600": 3076,
    "ivile": 3077,
    "\u25810x43540": 3078,
    "\u2581isdebuggerpresent": 3079,
    "\u25810x7a20": 3080,
    "\u25810x7dec": 3081,
    "\u25810x7180": 3082,
    "\u25810x7ef0": 3083,
    "\u25810x75a0": 3084,
    "\u25810x70c0": 3085,
    "\u25810x41bcb0": 3086,
    "\u25810x41bce0": 3087,
    "\u25810x7720": 3088,
    "\u25810x7570": 3089,
    "\u25810x7660": 3090,
    "\u25810x7120": 3091,
    "\u25810x7330": 3092,
    "\u25810x7840": 3093,
    "\u2581getdiskfreespac": 3094,
    "\u25810x7ba0": 3095,
    "\u25810x7480": 3096,
    "\u25810x76f0": 3097,
    "stringa": 3098,
    "\u25810x76c0": 3099,
    "\u25810x7360": 3100,
    "\u2581getcomputernamea": 3101,
    "\u25810x70f0": 3102,
    "\u2581new": 3103,
    "\u25810x74b0": 3104,
    "\u25810xaa": 3105,
    "\u25810x7450": 3106,
    "\u25810x7510": 3107,
    "\u25810x7d0": 3108,
    "\u25810x77b0": 3109,
    "\u25810x73c0": 3110,
    "aaaa": 3111,
    "\u25810x7230": 3112,
    "\u25810x7420": 3113,
    "\u25810x7960": 3114,
    "\u25810x1f000": 3115,
    "eed": 3116,
    "\u25810x4229": 3117,
    "\u25810x7630": 3118,
    "\u25810x4237": 3119,
    "\u25810x7780": 3120,
    "\u25810x7ded": 3121,
    "\u25810xad": 3122,
    "\u2581lock": 3123,
    "\u25810x7b70": 3124,
    "\u25810x5c": 3125,
    "\u25810x52660": 3126,
    "\u2581he": 3127,
    "afc": 3128,
    "\u25810x70a8": 3129,
    "\u25810x7070": 3130,
    "\u25810x491": 3131,
    "\u2581getmess": 3132,
    "full": 3133,
    "\u2581vers": 3134,
    "\u25810xa429c8": 3135,
    "\u25810x90f0": 3136,
    "\u2581srand": 3137,
    "adm": 3138,
    "\u2581verset": 3139,
    "conditionmask": 3140,
    "\u2581versetconditionmask": 3141,
    "330": 3142,
    "d4000": 3143,
    "ang": 3144,
    "\u25810x8a60": 3145,
    "e4c": 3146,
    "\u2581work": 3147,
    "\u25810x121": 3148,
    "\u25810x7d00": 3149,
    "584": 3150,
    "\u25810x7c40": 3151,
    "\u25810x42c520": 3152,
    "inki": 3153,
    "cc000": 3154,
    "\u25810x448": 3155,
    "\u2581mo": 3156,
    "ceex": 3157,
    "\u25810x7b00": 3158,
    "\u25810x4238a8": 3159,
    "\u25810x4238d8": 3160,
    "94c": 3161,
    "\u2581hels": 3162,
    "\u2581helsinki": 3163,
    "ateprocess": 3164,
    "\u258174": 3165,
    "driv": 3166,
    "\u25810xac": 3167,
    "\u25810x8250": 3168,
    "\u2581to": 3169,
    "\u25810x210": 3170,
    "querys": 3171,
    "\u2581physicaldriv": 3172,
    "\u25810x41e": 3173,
    "\u2581physicaldrive0": 3174,
    "\u25810x71c0": 3175,
    "\u25810x8420": 3176,
    "\u25810x416c": 3177,
    "tra": 3178,
    "\u25810x7cc0": 3179,
    "\u2581wcsc": 3180,
    "\u25810x4b80": 3181,
    "\u25815": 3182,
    "9c1": 3183,
    "\u25810x7d20": 3184,
    "izn": 3185,
    "iznadm": 3186,
    "\u2581triznadm": 3187,
    "\u2581unhandledexceptionfilter": 3188,
    "\u2581getwindows": 3189,
    "ctl32": 3190,
    "\u25810x416a17": 3191,
    "\u25810x416a18": 3192,
    "\u2581control": 3193,
    "\u2581comctl32": 3194,
    "ed000": 3195,
    "288": 3196,
    "5088": 3197,
    "\u25810x1210e8": 3198,
    "\u25810x4c32c0": 3199,
    "\u25810x12119f0": 3200,
    "querysystem": 3201,
    "f74": 3202,
    "\u25810x7df1": 3203,
    "querysysteminformation": 3204,
    "\u25810xc0": 3205,
    "\u25810x7460": 3206,
    "\u2581wcscpy": 3207,
    "\u25810x120e69": 3208,
    "\u25810x4393f8": 3209,
    "3b5": 3210,
    "\u2581terminateprocess": 3211,
    "gi": 3212,
    "\u25810x74d0": 3213,
    "\u25810x1212000": 3214,
    "inst": 3215,
    "\u25810x70e0": 3216,
    "\u25810x120fa": 3217,
    "\u25810x43b880": 3218,
    "\u25810x41a5": 3219,
    "\u25810xe00": 3220,
    "\u25810x7038": 3221,
    "c8000": 3222,
    "a41": 3223,
    "11000": 3224,
    "\u2581openmutexa": 3225,
    "\u2581inst": 3226,
    "\u25810x72d8": 3227,
    "\u25810x7620": 3228,
    "heck": 3229,
    "\u25810x71f8": 3230,
    "\u25810x7498": 3231,
    "\u25810x7cb0": 3232,
    "ce000": 3233,
    "\u25810x7310": 3234,
    "\u2581the": 3235,
    "\u25810x7b60": 3236,
    "\u2581releasesrwlockexclusive": 3237,
    "\u25810x7380": 3238,
    "\u25810x5265d": 3239,
    "\u25810x7f03": 3240,
    "\u25810x1211c80": 3241,
    "\u25810x1211e28": 3242,
    "\u2581ntquerysysteminformation": 3243,
    "\u2581sn": 3244,
    "firstw": 3245,
    "\u25810x75b0": 3246,
    "\u25810x7188": 3247,
    "\u25810x7118": 3248,
    "dc000": 3249,
    "\u25810x7770": 3250,
    "\u25810x1210900": 3251,
    "a84": 3252,
    "\u25810x7428": 3253,
    "26b2": 3254,
    "fc000": 3255,
    "\u25810x7268": 3256,
    "\u25810x7a48": 3257,
    "ise": 3258,
    "de000": 3259,
    "\u25810x435088": 3260,
    "\u25810x1f0001": 3261,
    "uilanguage": 3262,
    "e8000": 3263,
    "14000": 3264,
    "\u25810x7348": 3265,
    "essage": 3266,
    "\u25810x7b98": 3267,
    "ec000": 3268,
    "\u25810x7508": 3269,
    "\u25810x73b8": 3270,
    "\u25810x7578": 3271,
    "\u25810x75e8": 3272,
    "adwork": 3273,
    "\u25810x7658": 3274,
    "\u2581message": 3275,
    "\u25810x76c8": 3276,
    "\u25810x7888": 3277,
    "ec4": 3278,
    "18000": 3279,
    "\u2581getsecurityinfo": 3280,
    "\u25810x46b4": 3281,
    "\u25810x7818": 3282,
    "eextra": 3283,
    "\u25810x7738": 3284,
    "inac": 3285,
    "\u25810x77a8": 3286,
    "ff000": 3287,
    "\u25810x78f8": 3288,
    "triesinac": 3289,
    "\u2581setentriesinac": 3290,
    "\u25810x7968": 3291,
    "\u25810x7ce8": 3292,
    "\u25810x1211f18": 3293,
    "\u25810x79d8": 3294,
    "f4000": 3295,
    "\u25810x7c08": 3296,
    "\u25810x63": 3297,
    "\u25810x7b28": 3298,
    "\u25810x7ab8": 3299,
    "\u25810x7d58": 3300,
    "ee000": 3301,
    "\u25810x1211568": 3302,
    "\u2581form": 3303,
    "fe000": 3304,
    "\u2581createsemaphorew": 3305,
    "76f7": 3306,
    "\u25810x7c78": 3307,
    "1c000": 3308,
    "de4": 3309,
    "\u25810x7e0": 3310,
    "\u25810x52661": 3311,
    "\u2581setentriesinacla": 3312,
    "f20": 3313,
    "todos": 3314,
    "\u2581ntun": 3315,
    "\u2581ntunmapviewofsection": 3316,
    "ntstatus": 3317,
    "f80": 3318,
    "todoserror": 3319,
    "\u2581rtlntstatus": 3320,
    "\u2581rtlntstatustodoserror": 3321,
    "\u2581ntmapviewofsection": 3322,
    "504": 3323,
    "\u2581setsecurityinfo": 3324,
    "\u2581getwindow": 3325,
    "\u25810x94c0": 3326,
    "bb0": 3327,
    "\u2581messagebox": 3328,
    "\u25810xca0000": 3329,
    "\u25810x58c01c": 3330,
    "\u25810x77001000": 3331,
    "\u25810x77002000": 3332,
    "\u25810x77003000": 3333,
    "\u25810x77004000": 3334,
    "\u25810x77005000": 3335,
    "\u25810x77006000": 3336,
    "\u25810x77007000": 3337,
    "\u25810x77008000": 3338,
    "\u25810x77009000": 3339,
    "\u25810x7700a000": 3340,
    "\u25810x7700b000": 3341,
    "\u25810x7700c000": 3342,
    "\u25810x7700d000": 3343,
    "\u25810x7700e000": 3344,
    "\u25810x7700f000": 3345,
    "\u25810x77010000": 3346,
    "\u25810x77011000": 3347,
    "\u25810x77012000": 3348,
    "\u25810x77013000": 3349,
    "\u25810x77014000": 3350,
    "\u25810x77015000": 3351,
    "\u25810x77016000": 3352,
    "\u25810x77017000": 3353,
    "\u25810x77018000": 3354,
    "\u25810x77019000": 3355,
    "\u25810x7701a000": 3356,
    "\u25810x7701b000": 3357,
    "\u25810x7701c000": 3358,
    "\u25810x7701d000": 3359,
    "\u25810x7701e000": 3360,
    "\u25810x7701f000": 3361,
    "\u25810x77020000": 3362,
    "\u25810x77021000": 3363,
    "\u25810x77022000": 3364,
    "\u25810x77023000": 3365,
    "\u25810x77024000": 3366,
    "\u25810x77025000": 3367,
    "\u25810x77026000": 3368,
    "\u25810x77027000": 3369,
    "\u25810x77028000": 3370,
    "\u25810x77029000": 3371,
    "\u25810x7702a000": 3372,
    "\u25810x7702b000": 3373,
    "\u25810x7702c000": 3374,
    "\u25810x7702d000": 3375,
    "\u25810x7702e000": 3376,
    "\u25810x7702f000": 3377,
    "\u25810x77030000": 3378,
    "\u25810x77031000": 3379,
    "\u25810x77032000": 3380,
    "\u25810x77033000": 3381,
    "\u25810x77034000": 3382,
    "\u25810x77035000": 3383,
    "\u25810x77036000": 3384,
    "\u25810x77037000": 3385,
    "\u25810x77038000": 3386,
    "\u25810x77039000": 3387,
    "\u25810x7703a000": 3388,
    "\u25810x7703b000": 3389,
    "\u25810x7703c000": 3390,
    "\u25810x7703d000": 3391,
    "\u25810x7703e000": 3392,
    "\u25810x7703f000": 3393,
    "\u25810x77040000": 3394,
    "\u25810x77041000": 3395,
    "\u25810x77042000": 3396,
    "\u25810x77043000": 3397,
    "\u25810x77044000": 3398,
    "\u25810x77045000": 3399,
    "\u25810x77046000": 3400,
    "\u25810x77047000": 3401,
    "\u25810x77048000": 3402,
    "\u25810x77049000": 3403,
    "\u25810x7704a000": 3404,
    "\u25810x7704b000": 3405,
    "\u25810x7704c000": 3406,
    "\u25810x7704d000": 3407,
    "\u25810x7704e000": 3408,
    "\u25810x7704f000": 3409,
    "\u25810x77050000": 3410,
    "\u25810x77051000": 3411,
    "\u25810x77052000": 3412,
    "\u25810x77053000": 3413,
    "\u25810x77054000": 3414,
    "\u25810x77055000": 3415,
    "\u25810x77056000": 3416,
    "\u25810x77057000": 3417,
    "\u25810x77058000": 3418,
    "\u25810x77059000": 3419,
    "\u25810x7705a000": 3420,
    "\u25810x7705b000": 3421,
    "\u25810x7705c000": 3422,
    "\u25810x7705d000": 3423,
    "\u25810x7705e000": 3424,
    "\u25810x7705f000": 3425,
    "\u25810x77060000": 3426,
    "\u25810x77061000": 3427,
    "\u25810x77062000": 3428,
    "\u25810x77063000": 3429,
    "\u25810x77064000": 3430,
    "\u25810x77065000": 3431,
    "\u25810x77066000": 3432,
    "\u25810x77067000": 3433,
    "\u25810x77068000": 3434,
    "\u25810x77069000": 3435,
    "\u25810x7706a000": 3436,
    "\u25810x7706b000": 3437,
    "\u25810x7706c000": 3438,
    "\u25810x7706d000": 3439,
    "\u25810x7706e000": 3440,
    "\u25810x7706f000": 3441,
    "\u25810x77070000": 3442,
    "\u25810x77071000": 3443,
    "\u25810x77072000": 3444,
    "\u25810x77073000": 3445,
    "\u25810x77074000": 3446,
    "\u25810x77075000": 3447,
    "\u25810x77076000": 3448,
    "\u25810x77077000": 3449,
    "\u25810x77078000": 3450,
    "\u25810x77079000": 3451,
    "\u25810x7707a000": 3452,
    "\u25810x7707b000": 3453,
    "\u25810x7707c000": 3454,
    "\u25810x7707d000": 3455,
    "\u25810x7707e000": 3456,
    "\u25810x7707f000": 3457,
    "\u25810x77080000": 3458,
    "\u25810x77081000": 3459,
    "\u25810x77082000": 3460,
    "\u25810x77083000": 3461,
    "\u25810x77084000": 3462,
    "\u25810x77085000": 3463,
    "\u25810x77086000": 3464,
    "\u25810x77087000": 3465,
    "\u25810x77088000": 3466,
    "\u25810x77089000": 3467,
    "\u25810x7708a000": 3468,
    "\u25810x7708b000": 3469,
    "\u25810x7708c000": 3470,
    "\u25810x7708d000": 3471,
    "\u25810x7708e000": 3472,
    "\u25810x7708f000": 3473,
    "\u25810x77090000": 3474,
    "\u25810x77091000": 3475,
    "\u25810x77092000": 3476,
    "\u25810x77093000": 3477,
    "\u25810x77094000": 3478,
    "\u25810x77095000": 3479,
    "\u25810x77096000": 3480,
    "\u25810x77097000": 3481,
    "\u25810x77098000": 3482,
    "\u25810x77099000": 3483,
    "\u25810x7709a000": 3484,
    "\u25810x7709b000": 3485,
    "\u25810x7709c000": 3486,
    "\u25810x7709d000": 3487,
    "\u25810x7709e000": 3488,
    "\u25810x7709f000": 3489,
    "\u25810x770a0000": 3490,
    "\u25810x770a1000": 3491,
    "\u25810x770a2000": 3492,
    "\u25810x770a3000": 3493,
    "\u25810x770a4000": 3494,
    "\u25810x770a5000": 3495,
    "\u25810x770a6000": 3496,
    "\u25810x770a7000": 3497,
    "\u25810x770a8000": 3498,
    "\u25810x770a9000": 3499,
    "\u25810x770aa000": 3500,
    "\u25810x770ab000": 3501,
    "\u25810x770ac000": 3502,
    "\u25810x770ad000": 3503,
    "\u25810x770ae000": 3504,
    "\u25810x770af000": 3505,
    "\u25810x770b0000": 3506,
    "\u25810x770b1000": 3507,
    "\u25810x770b2000": 3508,
    "\u25810x770b3000": 3509,
    "\u25810x770b4000": 3510,
    "\u25810x770b5000": 3511,
    "\u25810x770b6000": 3512,
    "\u25810x770b7000": 3513,
    "\u25810x770b8000": 3514,
    "\u25810x770b9000": 3515,
    "\u25810x770ba000": 3516,
    "\u25810x770bb000": 3517,
    "\u25810x770bc000": 3518,
    "\u25810x770bd000": 3519,
    "\u25810x770be000": 3520,
    "\u25810x770bf000": 3521,
    "\u25810x770c0000": 3522,
    "\u25810x770c1000": 3523,
    "\u25810x770c2000": 3524,
    "\u25810x770c3000": 3525,
    "\u25810x770c4000": 3526,
    "\u25810x770c5000": 3527,
    "\u25810x770c6000": 3528,
    "\u25810x770c7000": 3529,
    "\u25810x770c8000": 3530,
    "\u25810x770c9000": 3531,
    "\u25810x770ca000": 3532,
    "\u25810x770cb000": 3533,
    "\u25810x770cc000": 3534,
    "\u25810x770cd000": 3535,
    "\u25810x770ce000": 3536,
    "\u25810x770cf000": 3537,
    "\u25810x770d0000": 3538,
    "\u25810x770d1000": 3539,
    "\u25810x770d2000": 3540,
    "\u25810x770d3000": 3541,
    "\u25810x770d4000": 3542,
    "\u25810x770d5000": 3543,
    "\u25810x770d6000": 3544,
    "\u25810x770d7000": 3545,
    "\u25810x770d8000": 3546,
    "\u25810x770d9000": 3547,
    "\u25810x770da000": 3548,
    "\u25810x770db000": 3549,
    "\u25810x770dc000": 3550,
    "\u25810x770dd000": 3551,
    "\u25810x770de000": 3552,
    "\u25810x770df000": 3553,
    "\u25810x770e0000": 3554,
    "\u25810x770e1000": 3555,
    "\u25810x770e2000": 3556,
    "\u25810x770e3000": 3557,
    "\u25810x770e4000": 3558,
    "\u25810x770e5000": 3559,
    "\u25810x770e6000": 3560,
    "\u25810x770e7000": 3561,
    "\u25810x770e8000": 3562,
    "\u25810x770e9000": 3563,
    "\u25810x770ea000": 3564,
    "\u25810x770eb000": 3565,
    "\u25810x770ec000": 3566,
    "\u25810x770ed000": 3567,
    "\u25810x770ee000": 3568,
    "\u25810x770ef000": 3569,
    "\u25810x770f0000": 3570,
    "\u25810x770f1000": 3571,
    "\u25810x770f2000": 3572,
    "\u25810x770f3000": 3573,
    "\u25810x770f4000": 3574,
    "\u25810x770f5000": 3575,
    "\u25810x770f6000": 3576,
    "\u25810x770f7000": 3577,
    "\u25810x770f8000": 3578,
    "\u25810x770f9000": 3579,
    "\u25810x770fa000": 3580,
    "\u25810x770fb000": 3581,
    "\u25810x770fc000": 3582,
    "\u25810x770fd000": 3583,
    "\u25810x770fe000": 3584,
    "\u25810x770ff000": 3585,
    "\u25810x77100000": 3586,
    "\u25810x77101000": 3587,
    "\u25810x77102000": 3588,
    "\u25810x77103000": 3589,
    "\u25810x77104000": 3590,
    "\u25810x77105000": 3591,
    "\u25810x77106000": 3592,
    "\u25810x77107000": 3593,
    "\u25810x77108000": 3594,
    "\u25810x77109000": 3595,
    "\u25810x7710a000": 3596,
    "\u25810x7710b000": 3597,
    "\u25810x7710c000": 3598,
    "\u25810x7710d000": 3599,
    "\u25810x7710e000": 3600,
    "\u25810x7710f000": 3601,
    "\u25810x77110000": 3602,
    "\u25810x77111000": 3603,
    "\u25810x77112000": 3604,
    "\u25810x77113000": 3605,
    "\u25810x77114000": 3606,
    "\u25810x77115000": 3607,
    "\u25810x77116000": 3608,
    "\u25810x77117000": 3609,
    "\u25810x77118000": 3610,
    "\u25810x77119000": 3611,
    "\u25810x7711a000": 3612,
    "\u25810x7711b000": 3613,
    "\u25810x7711c000": 3614,
    "\u25810x7711d000": 3615,
    "\u25810x7711e000": 3616,
    "\u25810x7711f000": 3617,
    "\u25810x77120000": 3618,
    "\u25810x77121000": 3619,
    "\u25810x77122000": 3620,
    "\u25810x77123000": 3621,
    "\u25810x77124000": 3622,
    "\u25810x77125000": 3623,
    "\u25810x77126000": 3624,
    "\u25810x77127000": 3625,
    "\u25810x77128000": 3626,
    "\u25810x77129000": 3627,
    "\u25810x7712a000": 3628,
    "\u25810x7712b000": 3629,
    "\u25810x7712c000": 3630,
    "\u25810x7712d000": 3631,
    "\u25810x7712e000": 3632,
    "\u25810x7712f000": 3633,
    "\u25810x77130000": 3634,
    "\u25810x77131000": 3635,
    "\u25810x77132000": 3636,
    "\u25810x77133000": 3637,
    "\u25810x77134000": 3638,
    "\u25810x77135000": 3639,
    "\u25810x77136000": 3640,
    "\u25810x77137000": 3641,
    "\u25810x77138000": 3642,
    "\u25810x77139000": 3643,
    "\u25810x7713a000": 3644,
    "\u25810x7713b000": 3645,
    "\u25810x7713c000": 3646,
    "\u25810x7713d000": 3647,
    "\u25810x7713e000": 3648,
    "\u25810x7713f000": 3649,
    "\u25810x77140000": 3650,
    "\u25810x77141000": 3651,
    "\u25810x77142000": 3652,
    "\u25810x77143000": 3653,
    "\u25810x77144000": 3654,
    "\u25810x77145000": 3655,
    "\u25810x77146000": 3656,
    "\u25810x77147000": 3657,
    "\u25810x77148000": 3658,
    "\u25810x77149000": 3659,
    "\u25810x7714a000": 3660,
    "\u25810x7714b000": 3661,
    "\u25810x7714c000": 3662,
    "\u25810x7714d000": 3663,
    "\u25810x7714e000": 3664,
    "\u25810x7714f000": 3665,
    "\u25810x77150000": 3666,
    "\u25810x77151000": 3667,
    "\u25810x77152000": 3668,
    "\u25810x77153000": 3669,
    "\u25810x77154000": 3670,
    "\u25810x77155000": 3671,
    "\u25810x77156000": 3672,
    "\u25810x77157000": 3673,
    "\u25810x77158000": 3674,
    "\u25810x77159000": 3675,
    "\u25810x7715a000": 3676,
    "\u25810x7715b000": 3677,
    "\u25810x7715c000": 3678,
    "\u25810x7715d000": 3679,
    "\u25810x7715e000": 3680,
    "\u25810x7715f000": 3681,
    "\u25810x77160000": 3682,
    "\u25810x77161000": 3683,
    "\u25810x77162000": 3684,
    "\u25810x77163000": 3685,
    "\u25810x77164000": 3686,
    "\u25810x77165000": 3687,
    "\u25810x77166000": 3688,
    "\u25810x77167000": 3689,
    "\u25810x77168000": 3690,
    "\u25810x77169000": 3691,
    "\u25810x7716a000": 3692,
    "\u25810x7716b000": 3693,
    "\u25810x7716c000": 3694,
    "\u25810x7716d000": 3695,
    "\u25810x7716e000": 3696,
    "\u25810x7716f000": 3697,
    "\u25810x77170000": 3698,
    "\u25810x77171000": 3699,
    "\u25810x77172000": 3700,
    "\u25810x77173000": 3701,
    "\u25810x77174000": 3702,
    "\u25810x77175000": 3703,
    "\u25810x77176000": 3704,
    "\u25810x77177000": 3705,
    "\u25810x77178000": 3706,
    "\u25810x77179000": 3707,
    "\u25810x7717a000": 3708,
    "\u25810x7717b000": 3709,
    "\u25810x7717c000": 3710,
    "\u25810x7717d000": 3711,
    "\u25810x7717e000": 3712,
    "\u25810x7717f000": 3713,
    "\u25810x77180000": 3714,
    "\u25810x77181000": 3715,
    "\u25810x77182000": 3716,
    "\u25810x77183000": 3717,
    "\u25810x77184000": 3718,
    "\u25810x77185000": 3719,
    "\u25810x77186000": 3720,
    "\u25810x77187000": 3721,
    "\u25810x77188000": 3722,
    "\u25810x77189000": 3723,
    "\u25810x7718a000": 3724,
    "\u25810x7718b000": 3725,
    "\u25810x7718c000": 3726,
    "\u25810x7718d000": 3727,
    "\u25810x7718e000": 3728,
    "\u25810x7718f000": 3729,
    "\u25810x77190000": 3730,
    "\u25810x77191000": 3731,
    "\u25810x77192000": 3732,
    "\u25810x77193000": 3733,
    "\u25810x77194000": 3734,
    "\u25810x77195000": 3735,
    "\u25810x77196000": 3736,
    "\u25810x77197000": 3737,
    "\u25810x77198000": 3738,
    "\u25810x77199000": 3739,
    "\u25810x7719a000": 3740,
    "\u25810x7719b000": 3741,
    "\u25810x7719c000": 3742,
    "\u25810x7719d000": 3743,
    "\u25810x7719e000": 3744,
    "\u25810x7719f000": 3745,
    "\u25810x771a0000": 3746,
    "\u25810x771a1000": 3747,
    "\u25810x771a2000": 3748,
    "\u25810x771a3000": 3749,
    "\u25810x771a4000": 3750,
    "\u25810x771a5000": 3751,
    "\u25810x771a6000": 3752,
    "\u25810x771a7000": 3753,
    "\u25810x771a8000": 3754,
    "\u25810x771a9000": 3755,
    "\u25810x771aa000": 3756,
    "\u25810x771ab000": 3757,
    "\u25810x771ac000": 3758,
    "\u25810x771ad000": 3759,
    "\u25810x771ae000": 3760,
    "\u25810x771af000": 3761,
    "\u25810x771b0000": 3762,
    "\u25810x771b1000": 3763,
    "\u25810x771b2000": 3764,
    "\u25810x771b3000": 3765,
    "\u25810x771b4000": 3766,
    "\u25810x771b5000": 3767,
    "\u25810x771b6000": 3768,
    "\u25810x771b7000": 3769,
    "\u25810x771b8000": 3770,
    "\u25810x771b9000": 3771,
    "\u25810x771ba000": 3772,
    "\u25810x771bb000": 3773,
    "\u25810x771bc000": 3774,
    "\u25810x771bd000": 3775,
    "\u25810x771be000": 3776,
    "\u25810x771bf000": 3777,
    "\u25810x771c0000": 3778,
    "\u25810x771c1000": 3779,
    "\u25810x771c2000": 3780,
    "\u25810x771c3000": 3781,
    "\u25810x771c4000": 3782,
    "\u25810x771c5000": 3783,
    "\u25810x771c6000": 3784,
    "\u2581physicalmemory": 3785,
    "\u25810x181b": 3786,
    "97a6": 3787,
    "viol": 3788,
    "646d7": 3789,
    "\u2581initon": 3790,
    "\u25810x6b9c08": 3791,
    "\u25810x52662": 3792,
    "\u2581getthreaduilanguage": 3793,
    "mit": 3794,
    "656c7": 3795,
    "ceexecute": 3796,
    "ceexecuteonce": 3797,
    "\u2581initonceexecuteonce": 3798,
    "\u258174726": 3799,
    "\u2581776f7": 3800,
    "26b2e68": 3801,
    "97a6e61": 3802,
    "26b2e68656c7": 3803,
    "97a6e61646d7": 3804,
    "\u25817472697a6e61646d7": 3805,
    "\u2581776f726b2e68656c7": 3806,
    "\u25817472697a6e61646d73696e6b692e6669": 3807,
    "\u2581776f726b2e68656c73696e6b692e6669": 3808,
    "violation": 3809,
    "\u25810x169bc": 3810,
    "\u2581process32firstw": 3811,
    "any": 3812,
    "prec": 3813,
    "\u25816": 3814,
    "\u25810x41d": 3815,
    "360": 3816,
    "\u25810xcf0000": 3817,
    "b30": 3818,
    "de8": 3819,
    "\u25810x20019": 3820,
    "\u25810x120f8": 3821,
    "windowexw": 3822,
    "\u2581createwindowexw": 3823,
    "3f0": 3824,
    "edex": 3825,
    "cadwork": 3826,
    "ageextra": 3827,
    "ageextrainfo": 3828,
    "\u2581getmessageextrainfo": 3829,
    "\u25810x42d520": 3830,
    "edexchange": 3831,
    "\u2581interlockedexchange": 3832,
    "\u25810x4317e0": 3833,
    "\u25810xff8": 3834,
    "be8": 3835,
    "\u25810x4418": 3836,
    "precise": 3837,
    "preciseasfiletime": 3838,
    "\u2581getsystemtimepreciseasfiletime": 3839,
    "\u2581getfileinformationbyhandleex": 3840,
    "ok": 3841,
    "\u2581snap": 3842,
    "32cs": 3843,
    "\u2581mul": 3844,
    "\u2581muldiv": 3845,
    "\u2581th32cs": 3846,
    "\u2581loadresource": 3847,
    "\u2581v": 3848,
    "\u25810x7ee00": 3849,
    "accel": 3850,
    "\u25810x40a5a0": 3851,
    "\u25810x41a0": 3852,
    "srw": 3853,
    "conditionvariablesrw": 3854,
    "\u2581sleepconditionvariablesrw": 3855,
    "\u2581of": 3856,
    "\u25810x41e218": 3857,
    "\u25810x1211e44": 3858,
    "\u25810x169be04": 3859,
    "b44": 3860,
    "the": 3861,
    "\u25810x566": 3862,
    "ram": 3863,
    "f62": 3864,
    "erator": 3865,
    "c8c": 3866,
    "accelerator": 3867,
    "\u25810x496760": 3868,
    "ac4": 3869,
    "ash": 3870,
    "wind": 3871,
    "\u25810x7ed0": 3872,
    "\u25810x1211690": 3873,
    "\u2581wak": 3874,
    "\u2581wakeconditionvariable": 3875,
    "\u25810x415": 3876,
    "\u2581rtlun": 3877,
    "destroy": 3878,
    "\u2581rtlunwind": 3879,
    "\u25810x419d": 3880,
    "dff": 3881,
    "d1ff": 3882,
    "\u25810x52666": 3883,
    "\u2581sub": 3884,
    "\u25810x46b5": 3885,
    "\u25810x3f20": 3886,
    "\u25810x7ec4": 3887,
    "\u2581createp": 3888,
    "\u25810x40a59e": 3889,
    "\u25810x40a5a2": 3890,
    "\u25810x40a5a4": 3891,
    "\u25810x40a5a6": 3892,
    "\u25810x40a5a8": 3893,
    "\u25810x40a5aa": 3894,
    "\u25810x7ec5": 3895,
    "\u2581submit": 3896,
    "\u25810x40933c": 3897,
    "\u2581setfileinformationbyhandle": 3898,
    "d1c": 3899,
    "threadpoolwork": 3900,
    "\u2581closethreadpoolwork": 3901,
    "\u2581createthreadpoolwork": 3902,
    "\u2581submitthreadpoolwork": 3903,
    "544": 3904,
    "\u2581type": 3905,
    "\u25810x85d0": 3906,
    "\u25810x4400": 3907,
    "\u25810x1211e1c": 3908,
    "\u25810x4284": 3909,
    "\u25810x1211f6c": 3910,
    "\u25810x40c": 3911,
    "\u2581wsprintfa": 3912,
    "\u25810x66": 3913,
    "\u25810x4f5": 3914,
    "\u25810x1211f74": 3915,
    "\u25810x65": 3916,
    "2acb2": 3917,
    "\u2581b2acb2": 3918,
    "\u25810x409344": 3919,
    "b190": 3920,
    "\u2581output": 3921,
    "\u25810x12110d8": 3922,
    "\u2581outputdebug": 3923,
    "folderw": 3924,
    "\u25810x1211338": 3925,
    "\u25810x4237d8": 3926,
    "\u25810x3f34e0": 3927,
    "\u2581vc": 3928,
    "\u25810xaf": 3929,
    "\u25810x3e8": 3930,
    "\u25810x7ec8": 3931,
    "\u25810x4305f8": 3932,
    "\u25810x7ec9": 3933,
    "\u2581accessviolation": 3934,
    "\u25810x71a0": 3935,
    "ssp": 3936,
    "infow": 3937,
    "\u25810xae": 3938,
    "\u2581findresourcew": 3939,
    "\u2581snapprocess": 3940,
    "\u2581ofresource": 3941,
    "\u25810x1076": 3942,
    "runtime": 3943,
    "ogram": 3944,
    "\u25810x423d18": 3945,
    "d88": 3946,
    "ffd1ff": 3947,
    "\u25810x4528": 3948,
    "\u2581lstrcpynw": 3949,
    "\u2581kk": 3950,
    "\u25810x1211f10": 3951,
    "6e8": 3952,
    "\u2581sat": 3953,
    "\u2581em": 3954,
    "variant": 3955,
    "bas": 3956,
    "\u2581fe": 3957,
    "ecc": 3958,
    "\u25810x8001": 3959,
    "aff": 3960,
    "a10": 3961,
    "\u25810x140": 3962,
    "c88": 3963,
    "special": 3964,
    "\u2581shgetspecial": 3965,
    "\u25810x7ecc": 3966,
    "\u25810x7edc": 3967,
    "\u2581lockresource": 3968,
    "ee4": 3969,
    "\u25810x7ecd": 3970,
    "alette": 3971,
    "instruction": 3972,
    "\u25810x417d": 3973,
    "\u25810x43b6": 3974,
    "\u25810x42b190": 3975,
    "\u25810x42eace": 3976,
    "aac": 3977,
    "\u25810x7ed1": 3978,
    "318": 3979,
    "\u25810xd000": 3980,
    "\u25810x7e88": 3981,
    "\u25810x41e1": 3982,
    "\u25810x8c70": 3983,
    "\u25810x419f": 3984,
    "ab8": 3985,
    "\u25810x7e89": 3986,
    "\u25810x8c60": 3987,
    "runtime140": 3988,
    "\u2581vcruntime140": 3989,
    "3c8": 3990,
    "3e8": 3991,
    "\u2581mar": 3992,
    "e00": 3993,
    "\u2581exception": 3994,
    "\u25810x7ed4": 3995,
    "b1f": 3996,
    "\u25810x419": 3997,
    "echeck": 3998,
    "b48": 3999,
    "\u25810x7ed5": 4000,
    "\u25810x7ed8": 4001,
    "7e0": 4002,
    "\u25810x7ed9": 4003,
    "no": 4004,
    "irector": 4005,
    "umer": 4006,
    "\u25810x8aa0": 4007,
    "\u25810x4363d8": 4008,
    "\u25810x1211ef8": 4009,
    "ins": 4010,
    "\u25810x4ad4": 4011,
    "\u25810x7edd": 4012,
    "\u25810x56bb00": 4013,
    "meto": 4014,
    "\u25810x100000": 4015,
    "\u25810x40e": 4016,
    "\u25810x423da8": 4017,
    "\u25810x423dd8": 4018,
    "b7b": 4019,
    "\u25810x169b958": 4020,
    "\u25810x52664": 4021,
    "\u25810x8c90": 4022,
    "\u25810x6f": 4023,
    "with": 4024,
    "\u25810x11000": 4025,
    "ecall": 4026,
    "\u25810x7ee4": 4027,
    "\u25810x508": 4028,
    "\u25810x7ee5": 4029,
    "\u25810x1211d14": 4030,
    "failed": 4031,
    "\u25810x423df8": 4032,
    "\u2581getclass": 4033,
    "found": 4034,
    "\u25810x42b": 4035,
    "\u25810x169b780": 4036,
    "barcad": 4037,
    "barcadero": 4038,
    "\u2581embarcadero": 4039,
    "\u25810x8ab0": 4040,
    "\u2581lstrcmpa": 4041,
    "\u25810x4228": 4042,
    "\u25810x7ee1": 4043,
    "\u25810xffe1": 4044,
    "\u25810x5638": 4045,
    "\u25810x409a": 4046,
    "\u25810x1009": 4047,
    "a5c": 4048,
    "\u2581feb": 4049,
    "gument": 4050,
    "\u25810xffe0": 4051,
    "\u25810xffe4": 4052,
    "\u25810xfffe": 4053,
    "oem": 4054,
    "\u2581comm": 4055,
    "argument": 4056,
    "\u258111": 4057,
    "ccess": 4058,
    "\u25810x8d20": 4059,
    "une": 4060,
    "\u25810x80c410": 4061,
    "\u25810x8c30": 4062,
    "\u2581openprocess": 4063,
    "49": 4064,
    "infoa": 4065,
    "\u2581oc": 4066,
    "\u25810x1005": 4067,
    "\u2581septem": 4068,
    "\u25810xfeee010": 4069,
    "ied": 4070,
    "\u25810x1211e34": 4071,
    "\u2581sta": 4072,
    "irectory": 4073,
    "\u25810x1211a00": 4074,
    "\u25810x8bd0": 4075,
    "creating": 4076,
    "tionfailed": 4077,
    "5c8": 4078,
    "index": 4079,
    "ged": 4080,
    "sser": 4081,
    "\u25810x43640": 4082,
    "\u2581febr": 4083,
    "\u25810x4090": 4084,
    "\u25810x44280": 4085,
    "lication": 4086,
    "\u25810xffba": 4087,
    "207": 4088,
    "\u2581oct": 4089,
    "\u25810xffb7": 4090,
    "\u2581april": 4091,
    "\u25810xffbb": 4092,
    "\u2581august": 4093,
    "\u2581september": 4094,
    "\u2581div": 4095,
    "tober": 4096,
    "\u2581november": 4097,
    "eexa": 4098,
    "\u25810xffb8": 4099,
    "\u25810xffbe": 4100,
    "operation": 4101,
    "\u25810xffbd": 4102,
    "\u25810xffb9": 4103,
    "\u25810xffbc": 4104,
    "\u25810x164": 4105,
    "\u25810xfffd": 4106,
    "\u25810x1211a14": 4107,
    "\u25810x1211c08": 4108,
    "bound": 4109,
    "\u2581outof": 4110,
    "\u25810x8ba0": 4111,
    "\u25810xffbf": 4112,
    "\u2581outofmemory": 4113,
    "f0c": 4114,
    "\u25810x3410c60": 4115,
    "\u25810x3f24": 4116,
    "\u25810x8c10": 4117,
    "9e00": 4118,
    "\u25810xfffc": 4119,
    "b60": 4120,
    "47": 4121,
    "\u2581varian": 4122,
    "f88": 4123,
    "exception": 4124,
    "anuary": 4125,
    "\u2581fmode": 4126,
    "\u2581march": 4127,
    "\u25810x40b8": 4128,
    "\u2581february": 4129,
    "uly": 4130,
    "ond": 4131,
    "\u2581december": 4132,
    "\u25810xffa0": 4133,
    "\u25810xffb6": 4134,
    "\u2581october": 4135,
    "\u2581thu": 4136,
    "nesday": 4137,
    "\u2581monday": 4138,
    "\u2581sunday": 4139,
    "\u2581tuesday": 4140,
    "\u2581wednesday": 4141,
    "ursday": 4142,
    "\u25810x82c0": 4143,
    "\u25810xffa2": 4144,
    "\u2581thursday": 4145,
    "atur": 4146,
    "\u2581satur": 4147,
    "\u25810xffa1": 4148,
    "\u2581friday": 4149,
    "\u2581saturday": 4150,
    "\u2581setfileinformationbyhandlew": 4151,
    "\u2581getfileinformationbyhandleexw": 4152,
    "\u25810xffa3": 4153,
    "\u25810x5265c3c": 4154,
    "den": 4155,
    "\u25810x4318": 4156,
    "\u2581loadaccelerator": 4157,
    "afecall": 4158,
    "\u25810xffa4": 4159,
    "\u25810x416b50": 4160,
    "\u2581chi": 4161,
    "\u25819": 4162,
    "\u25810xffa7": 4163,
    "ac8": 4164,
    "\u2581getoem": 4165,
    "\u25810xffa6": 4166,
    "facen": 4167,
    "\u25810xffa5": 4168,
    "\u2581interfacen": 4169,
    "\u2581getoemcp": 4170,
    "a90000": 4171,
    "\u2581createpalette": 4172,
    "\u25810x8ca0": 4173,
    "\u25810xfffb": 4174,
    "\u2581asser": 4175,
    "\u25810x714": 4176,
    "cef": 4177,
    "\u25810x9e": 4178,
    "\u2581inte": 4179,
    "\u25810x8c40": 4180,
    "\u25810x418970": 4181,
    "ffcb": 4182,
    "\u25814d5": 4183,
    "\u25810xffcd": 4184,
    "ms": 4185,
    "licen": 4186,
    "sspace": 4187,
    "\u2581stack": 4188,
    "\u2581external": 4189,
    "\u25810x8cd0": 4190,
    "\u25810xffb5": 4191,
    "\u25810x8be0": 4192,
    "\u25810xffa8": 4193,
    "\u2581isspace": 4194,
    "\u25810x42b40": 4195,
    "\u2581privile": 4196,
    "\u25810x8bb0": 4197,
    "\u25810xffa9": 4198,
    "\u25810x58de20": 4199,
    "398": 4200,
    "\u25810x42e2": 4201,
    "\u25810x4398": 4202,
    "\u25810x8820": 4203,
    "insafecall": 4204,
    "\u2581exceptioninsafecall": 4205,
    "\u25810x8c00": 4206,
    "\u25810x431d": 4207,
    "sub": 4208,
    "\u25810x7e90": 4209,
    "calls": 4210,
    "changet": 4211,
    "\u2581variantchanget": 4212,
    "\u2581disk": 4213,
    "228": 4214,
    "\u25810x4394": 4215,
    "\u25810x202": 4216,
    "\u25810xffaa": 4217,
    "\u2581getwindowsdirectorya": 4218,
    "\u25810xffe6": 4219,
    "ecast": 4220,
    "\u25810x53000000": 4221,
    "500000": 4222,
    "denied": 4223,
    "mod": 4224,
    "\u2581assertionfailed": 4225,
    "bounds": 4226,
    "264": 4227,
    "\u25810x41b9": 4228,
    "\u25810x41de50": 4229,
    "\u2581privileged": 4230,
    "\u2581chit": 4231,
    "indexo": 4232,
    "otsuped": 4233,
    "classtyp": 4234,
    "notsuped": 4235,
    "classtypecast": 4236,
    "\u2581externalexception": 4237,
    "\u2581interfacenotsuped": 4238,
    "\u2581rang": 4239,
    "tunder": 4240,
    "umeric": 4241,
    "\u25810xfffa": 4242,
    "ffff0000": 4243,
    "overflow": 4244,
    "indexoutof": 4245,
    "tunderflow": 4246,
    "\u2581rangecheck": 4247,
    "callsnotsuped": 4248,
    "\u2581errorcreating": 4249,
    "\u2581floatingpoint": 4250,
    "indexoutofbounds": 4251,
    "\u2581invalidclasstypecast": 4252,
    "\u2581variantcallsnotsuped": 4253,
    "\u2581floatingpointunderflow": 4254,
    "typecon": 4255,
    "typeconversion": 4256,
    "\u2581invalidvarian": 4257,
    "\u2581stackoverflow": 4258,
    "\u2581invalidvariant": 4259,
    "pointeroperation": 4260,
    "\u2581privilegedinstruction": 4261,
    "\u2581invalidvariantoperation": 4262,
    "\u2581invalidvarianttypeconversion": 4263,
    "\u2581integ": 4264,
    "leaccess": 4265,
    "toverflow": 4266,
    "divisionbyzero": 4267,
    "\u2581floatingpointoverflow": 4268,
    "\u2581floatingpointdivisionbyzero": 4269,
    "floating": 4270,
    "\u2581integero": 4271,
    "floatingpoin": 4272,
    "\u2581divisionbyzero": 4273,
    "\u2581integeroverflow": 4274,
    "\u2581rangecheckerror": 4275,
    "\u2581invalidfloatingpoin": 4276,
    "\u2581invalidpointeroperation": 4277,
    "\u2581invalidfloatingpointoperation": 4278,
    "904": 4279,
    "bey": 4280,
    "omany": 4281,
    "beyond": 4282,
    "numeric": 4283,
    "\u25810x4338": 4284,
    "\u25810xffb4": 4285,
    "\u2581toomany": 4286,
    "openfiles": 4287,
    "\u2581diskfull": 4288,
    "\u2581readbeyond": 4289,
    "numericinput": 4290,
    "\u2581invalidfilename": 4291,
    "\u2581toomanyopenfiles": 4292,
    "\u2581invalidnumericinput": 4293,
    "\u2581readbeyondendoffile": 4294,
    "\u2581fileaccess": 4295,
    "\u2581fileaccessdenied": 4296,
    "bool": 4297,
    "\u25810xffce": 4298,
    "\u2581varbstrfrombool": 4299,
    "\u25810x437808": 4300,
    "bb8": 4301,
    "\u2581string": 4302,
    "\u2581lstrcpyna": 4303,
    "\u25810x42e0f0": 4304,
    "\u25810x4a20": 4305,
    "\u25810xb000": 4306,
    "000000ffff0000": 4307,
    "\u25810x426": 4308,
    "ypeex": 4309,
    "\u2581variantchangetypeex": 4310,
    "74c": 4311,
    "\u25810x1210f4": 4312,
    "\u25810xffe5": 4313,
    "neg": 4314,
    "740": 4315,
    "\u25810xffcf": 4316,
    "\u2581varadd": 4317,
    "\u2581varneg": 4318,
    "\u2581varnot": 4319,
    "\u2581varsub": 4320,
    "mul": 4321,
    "xor": 4322,
    "idiv": 4323,
    "\u2581varcy": 4324,
    "\u2581varor": 4325,
    "\u2581varr8": 4326,
    "\u2581varand": 4327,
    "\u2581varcmp": 4328,
    "\u2581vardiv": 4329,
    "\u2581varmod": 4330,
    "\u2581varmul": 4331,
    "\u2581varxor": 4332,
    "\u25810x52665": 4333,
    "\u2581varbool": 4334,
    "\u2581vardate": 4335,
    "\u2581varidiv": 4336,
    "\u2581varcyfromstr": 4337,
    "\u2581vari4fromstr": 4338,
    "\u2581varr4fromstr": 4339,
    "\u2581varr8fromstr": 4340,
    "\u2581varbstrfromcy": 4341,
    "\u2581varboolfromstr": 4342,
    "\u2581vardatefromstr": 4343,
    "\u2581varbstrfromdate": 4344,
    "\u25810x100300": 4345,
    "afdi": 4346,
    "\u2581wsafdi": 4347,
    "\u25810x40a3d": 4348,
    "\u2581wsafdisset": 4349,
    "afcdff": 4350,
    "afcdffceff": 4351,
    "\u2581b2acb2afcdffceff": 4352,
    "tec": 4353,
    "4000000ffff0000": 4354,
    "\u25810x8f50": 4355,
    "\u25810x4299": 4356,
    "\u25810x7d40": 4357,
    "\u25810x8d60": 4358,
    "bf0": 4359,
    "\u25810x1211f78": 4360,
    "ctr": 4361,
    "\u2581flushfile": 4362,
    "\u2581flushfilebuffers": 4363,
    "\u25810x88e0": 4364,
    "fff0": 4365,
    "earch": 4366,
    "\u25810x7340": 4367,
    "b5c": 4368,
    "\u25810x120e6d8": 4369,
    "\u25810x417c": 4370,
    "earchmode": 4371,
    "\u2581setsearchmode": 4372,
    "808": 4373,
    "\u25810xa9b0": 4374,
    "a900003": 4375,
    "\u25810x4224": 4376,
    "\u25814d5a900003": 4377,
    "\u25814d5a9000030000000": 4378,
    "\u25814d5a90000300000004000000ffff0000": 4379,
    "\u2581setthreadpreferreduilanguages": 4380,
    "608": 4381,
    "\u25810x1211fb8": 4382,
    "\u25810xffb0": 4383,
    "\u25810xfff9": 4384,
    "\u25810x4187": 4385,
    "\u25810x9f": 4386,
    "\u25810x4353d8": 4387,
    "\u25810x40ee": 4388,
    "d3c": 4389,
    "\u25810xffb3": 4390,
    "184": 4391,
    "\u25810xb5": 4392,
    "\u25810x419d50": 4393,
    "yarg1": 4394,
    "\u25810x4615": 4395,
    "\u25810x42b020": 4396,
    "\u25810x46b5d4": 4397,
    "\u25810x409020": 4398,
    "\u25810x419e00": 4399,
    "c7ffd1ff": 4400,
    "\u25810x419f40": 4401,
    "\u25810x42a070": 4402,
    "\u25810x42b024": 4403,
    "\u25810x42b028": 4404,
    "c7ffd1ffca": 4405,
    "\u25810x343b5": 4406,
    "\u25810xffb2": 4407,
    "240": 4408,
    "ffcbff": 4409,
    "c7ffd1ffcaffcbff": 4410,
    "\u2581b2acb2afcdffceffc7ffd1ffcaffcbff": 4411,
    "684": 4412,
    "\u25810x42332": 4413,
    "e2b": 4414,
    "\u25810x13fff0": 4415,
    "\u25810x1211ec8": 4416,
    "\u25810xffb1": 4417,
    "ae3": 4418,
    "\u25810x8818": 4419,
    "\u2581invalidargument": 4420,
    "variantorsafearray": 4421,
    "\u2581variantorsafearray": 4422,
    "\u2581errorcreatingvariantorsafearray": 4423,
    "\u2581variantorsafearrayindexoutofbounds": 4424,
    "d44": 4425,
    "ff0": 4426,
    "gine": 4427,
    "\u25810x8819": 4428,
    "\u25810x42990": 4429,
    "\u2581localfree": 4430,
    "\u25810x42d408": 4431,
    "\u25810x881c": 4432,
    "validate": 4433,
    "558": 4434,
    "\u25810x1211ed4": 4435,
    "\u2581heapvalidate": 4436,
    "\u25810x4df0": 4437,
    "\u25810x881d": 4438,
    "\u25810x8821": 4439,
    "204": 4440,
    "\u25810x431e": 4441,
    "484": 4442,
    "b63": 4443,
    "\u25810xa39": 4444,
    "\u25810xfff8": 4445,
    "cc4": 4446,
    "ff4": 4447,
    "\u25810x46a0": 4448,
    "\u2581setprocess": 4449,
    "\u25810x4fec20": 4450,
    "\u25810x1b2": 4451,
    "\u2581are": 4452,
    "\u25810x8d50": 4453,
    "\u25810xfff7": 4454,
    "363": 4455,
    "\u25810x41678c": 4456,
    "\u25810x42e2f0": 4457,
    "\u25810x41678d": 4458,
    "\u25810x8f20": 4459,
    "\u25810xfeed": 4460,
    "\u25810x5265e": 4461,
    "\u25810x7f02": 4462,
    "\u25810x1211f24": 4463,
    "\u25810x1211e00": 4464,
    "\u25810x8430": 4465,
    "\u25810x1210e0": 4466,
    "\u25810x8d30": 4467,
    "\u25810x7c10": 4468,
    "\u2581outputdebugstringa": 4469,
    "dep": 4470,
    "\u25810x9cc0": 4471,
    "\u2581loadacceleratorsw": 4472,
    "vis": 4473,
    "\u25810x8650": 4474,
    "\u25810x51c": 4475,
    "\u25810xa42a10": 4476,
    "\u25810x3f5000": 4477,
    "\u25810x40f9": 4478,
    "xit": 4479,
    "\u2581rand": 4480,
    "\u2581setst": 4481,
    "\u25810x4225": 4482,
    "\u258103": 4483,
    "\u25810x42e6": 4484,
    "\u25810x8660": 4485,
    "700": 4486,
    "\u2581setstdhandle": 4487,
    "98c": 4488,
    "profile": 4489,
    "\u25810x3f3": 4490,
    "\u25810x4306": 4491,
    "\u25810x5e": 4492,
    "\u25810x109": 4493,
    "\u25810x190": 4494,
    "\u2581messageboxa": 4495,
    "\u25810x3f31": 4496,
    "be0": 4497,
    "\u25810x20a": 4498,
    "a70": 4499,
    "\u25810x4e80": 4500,
    "ef0": 4501,
    "licy": 4502,
    "policy": 4503,
    "\u25810xfff6": 4504,
    "\u25810x51af": 4505,
    "\u25810x7df4": 4506,
    "\u25810x563868": 4507,
    "\u2581shellexecutea": 4508,
    "\u2581move": 4509,
    "\u25810x110": 4510,
    "\u25810x1211f40": 4511,
    "eec": 4512,
    "\u25810x1211e30": 4513,
    "\u25810x8fc0": 4514,
    "\u25810x7df5": 4515,
    "\u2581loadlibraryexa": 4516,
    "a48": 4517,
    "drl6660drl6660drl6660drl6660drl6660drl6660drl6660drl6660": 4518,
    "\u2581heapdestroy": 4519,
    "\u25810x1211f5c": 4520,
    "deppolicy": 4521,
    "\u25810x48f894": 4522,
    "\u25810x40f937": 4523,
    "\u25810x12117f4": 4524,
    "56c": 4525,
    "\u25810x437806": 4526,
    "\u25810x43780a": 4527,
    "\u25810x43780c": 4528,
    "\u25810x43780e": 4529,
    "\u25810x437810": 4530,
    "\u25810x437812": 4531,
    "\u25810x437814": 4532,
    "\u25810x437816": 4533,
    "\u25810x437818": 4534,
    "\u25810x43781a": 4535,
    "\u25810x43781c": 4536,
    "\u25810x43781e": 4537,
    "d4c": 4538,
    "\u2581wri": 4539,
    "e10": 4540,
    "358": 4541,
    "msg": 4542,
    "win": 4543,
    "apis": 4544,
    "ou": 4545,
    "\u2581writec": 4546,
    "\u25810x4f62": 4547,
    "ad8": 4548,
    "c44": 4549,
    "ownload": 4550,
    "f48": 4551,
    "f84": 4552,
    "hash": 4553,
    "forma": 4554,
    "\u2581memcpy": 4555,
    "\u25810x416ed1": 4556,
    "\u25810xffd3": 4557,
    "\u25810x416ed2": 4558,
    "\u2581setprocessdeppolicy": 4559,
    "\u25810x8b50": 4560,
    "ctrl": 4561,
    "ansi": 4562,
    "\u25810x43500": 4563,
    "\u25810x488": 4564,
    "\u25810x52667": 4565,
    "\u2581regquery": 4566,
    "apisansi": 4567,
    "\u2581arefile": 4568,
    "\u2581arefileapisansi": 4569,
    "\u25810x42fb": 4570,
    "\u25810xffc6": 4571,
    "\u25810x4c3": 4572,
    "\u2581shgetspecialfolderw": 4573,
    "listmsg": 4574,
    "\u2581commctrl": 4575,
    "\u2581draglistmsg": 4576,
    "ved": 4577,
    "301": 4578,
    "\u25810x2012": 4579,
    "ols": 4580,
    "b8c": 4581,
    "cid": 4582,
    "\u2581corexit": 4583,
    "\u2581corexitprocess": 4584,
    "if": 4585,
    "\u25810x1210e4": 4586,
    "\u25810x1211dd0": 4587,
    "348": 4588,
    "\u2581memset": 4589,
    "\u25810x1210ec": 4590,
    "\u25810xbc": 4591,
    "d98": 4592,
    "\u2581lstrcpy": 4593,
    "\u25810xfeee0108": 4594,
    "\u25810x598": 4595,
    "unction": 4596,
    "c4c": 4597,
    "yarg2": 4598,
    "\u25810x181c": 4599,
    "\u25810x4300": 4600,
    "\u25810x1210f0": 4601,
    "afile": 4602,
    "\u25810x4332": 4603,
    "a4c": 4604,
    "\u25810x437390": 4605,
    "ernet": 4606,
    "\u25810x4378c8": 4607,
    "\u25810x8830": 4608,
    "\u25810x8ce0": 4609,
    "\u25810x99d0": 4610,
    "\u25810x120fb48": 4611,
    "\u25810x97b0": 4612,
    "\u25810x1211df4": 4613,
    "want": 4614,
    "\u25810x428a": 4615,
    "\u25810x4c51": 4616,
    "384": 4617,
    "\u2581program": 4618,
    "\u2581getdiskfreespaceexw": 4619,
    "100": 4620,
    "f70": 4621,
    "\u25810x500": 4622,
    "984": 4623,
    "\u25810xffc5": 4624,
    "784": 4625,
    "160": 4626,
    "\u25810x169b5": 4627,
    "ffc": 4628,
    "\u2581comparestringw": 4629,
    "\u25810x1211bfc": 4630,
    "a0f": 4631,
    "\u25810x4245": 4632,
    "\u258117": 4633,
    "\u25810xffab": 4634,
    "\u25810x490": 4635,
    "licence": 4636,
    "\u25810xfff5": 4637,
    "\u25810x120fd": 4638,
    "\u25810x3f2": 4639,
    "\u25810x480": 4640,
    "\u25810x8a41": 4641,
    "768": 4642,
    "alog": 4643,
    "\u25810xfc": 4644,
    "218": 4645,
    "\u25810x44d4": 4646,
    "\u25810x7ee9": 4647,
    "e24": 4648,
    "eengine": 4649,
    "initializeengine": 4650,
    "\u2581failedtoinitializeengine": 4651,
    "\u2581getkeyboardtype": 4652,
    "\u25810xffac": 4653,
    "se": 4654,
    "contr": 4655,
    "\u25810x429e": 4656,
    "928": 4657,
    "324": 4658,
    "00210": 4659,
    "ly": 4660,
    "124": 4661,
    "260": 4662,
    "f21": 4663,
    "imeto": 4664,
    "\u25810x406": 4665,
    "\u2581append": 4666,
    "\u25810xffcc": 4667,
    "resour": 4668,
    "\u25810x3f30b0": 4669,
    "\u25810x8d90": 4670,
    "\u25810x103": 4671,
    "\u25810x51c4": 4672,
    "\u25810x431d00": 4673,
    "344": 4674,
    "\u25810x3f30e0": 4675,
    "b10": 4676,
    "\u2581msc": 4677,
    "\u25810x3f3030": 4678,
    "\u25810x42f": 4679,
    "\u25810x3f3110": 4680,
    "\u25810x3f3140": 4681,
    "delet": 4682,
    "\u25810x41688": 4683,
    "\u25810x422e": 4684,
    "\u2581y": 4685,
    "\u25810x7ee8": 4686,
    "\u25810x3f6000": 4687,
    "556": 4688,
    "550": 4689,
    "\u25810x1210f6": 4690,
    "\u25810x12118f8": 4691,
    "\u2581cd": 4692,
    "\u25810x1211f70": 4693,
    "sk": 4694,
    "\u25810xffd0": 4695,
    "\u25810x3f7000": 4696,
    "\u2581as": 4697,
    "pi": 4698,
    "f8c": 4699,
    "\u25810x3fb000": 4700,
    "b70": 4701,
    "\u25810x3f8000": 4702,
    "ream": 4703,
    "\u25810x423d38": 4704,
    "b84": 4705,
    "leasec": 4706,
    "\u25810x4c4230": 4707,
    "\u25810x4c4260": 4708,
    "\u25810x4c42a8": 4709,
    "\u25810x42a730": 4710,
    "\u25810x42a731": 4711,
    "\u25810x4c4248": 4712,
    "\u25810x4c4278": 4713,
    "\u25810x4c4290": 4714,
    "\u25810x4c4320": 4715,
    "\u25810x4c4338": 4716,
    "\u25810x4c4350": 4717,
    "\u25810x4c4368": 4718,
    "\u25810x40a584": 4719,
    "\u25810x4196": 4720,
    "\u25810x40a582": 4721,
    "\u25810x40a586": 4722,
    "\u25810x40a588": 4723,
    "\u25810x40a58a": 4724,
    "\u25810x40a580": 4725,
    "\u25810x43ff": 4726,
    "\u25810x40a57e": 4727,
    "\u25810x429a81": 4728,
    "\u25810x3f9000": 4729,
    "\u25810x3fa000": 4730,
    "\u25810x41624": 4731,
    "bc4": 4732,
    "40c": 4733,
    "\u25810x8824": 4734,
    "\u25810x437ae4": 4735,
    "\u25810x437207": 4736,
    "\u25810x437208": 4737,
    "\u25810x437ad2": 4738,
    "\u25810x437ad3": 4739,
    "\u25810x437ae3": 4740,
    "\u25810x437b63": 4741,
    "\u25810x437b64": 4742,
    "\u25810x437b7b": 4743,
    "\u25810x437b7c": 4744,
    "\u25810x437bbd": 4745,
    "\u25810x437bbe": 4746,
    "\u25810x437bce": 4747,
    "\u25810x437bcf": 4748,
    "\u25810x437c42": 4749,
    "\u25810x437c43": 4750,
    "\u25810x1210e5": 4751,
    "\u25810x41c0": 4752,
    "\u25810x8825": 4753,
    "\u25810x4c5158": 4754,
    "\u25810x429e2b": 4755,
    "\u25810x429e2c": 4756,
    "\u25810x434d1c": 4757,
    "\u25810x43b7a9": 4758,
    "\u25810x43b7aa": 4759,
    "\u25810x1211f84": 4760,
    "\u25810x43b7b8": 4761,
    "\u25810x8828": 4762,
    "\u25810x422ebe": 4763,
    "\u25810x43b7b3": 4764,
    "\u25810x43b7b4": 4765,
    "\u25810x43b7ba": 4766,
    "\u25810x43b7c4": 4767,
    "\u2581run": 4768,
    "\u25810x1210ed": 4769,
    "d84": 4770,
    "a00": 4771,
    "\u25810x1210f5": 4772,
    "\u25810x433618": 4773,
    "202": 4774,
    "\u2581appendw": 4775,
    "metafile": 4776,
    "\u25810x1210f9": 4777,
    "\u25810x41b": 4778,
    "\u25810x1211d08": 4779,
    "\u25810x1211cfc": 4780,
    "\u25810x3f75f60": 4781,
    "you": 4782,
    "26c": 4783,
    "\u25810x8829": 4784,
    "\u2581gettempfilename": 4785,
    "\u25810x130": 4786,
    "\u25810x42ce10": 4787,
    "\u25810x48400": 4788,
    "\u25810x4315b0": 4789,
    "\u25810x882c": 4790,
    "\u25810x1211f80": 4791,
    "\u25810x882d": 4792,
    "744": 4793,
    "278": 4794,
    "704": 4795,
    "\u25810x8834": 4796,
    "\u25810x4967a8": 4797,
    "\u2581findfirstfilea": 4798,
    "\u25810x7e3000": 4799,
    "\u25810x7e4000": 4800,
    "144": 4801,
    "\u25810x509": 4802,
    "\u25810x8831": 4803,
    "\u25810x8835": 4804,
    "\u25810x41de08": 4805,
    "\u25810x4de": 4806,
    "\u25810x42fc38": 4807,
    "\u25810x1211968": 4808,
    "\u2581gum": 4809,
    "\u25810x11db": 4810,
    "\u25810x407": 4811,
    "access": 4812,
    "\u25810x420e": 4813,
    "application": 4814,
    "fa8": 4815,
    "dc0": 4816,
    "\u2581ob": 4817,
    "\u2581tlsfree": 4818,
    "\u25810x181": 4819,
    "\u25810x4470": 4820,
    "\u25810xffd2": 4821,
    "\u25810xfeee00f4": 4822,
    "\u25810x4554": 4823,
    "\u25810x431": 4824,
    "resourc": 4825,
    "item": 4826,
    "e84": 4827,
    "\u25810x423b20": 4828,
    "310": 4829,
    "\u25810x423b1f": 4830,
    "\u25810x3f75f30": 4831,
    "718": 4832,
    "\u25810xffad": 4833,
    "red": 4834,
    "\u25810x125": 4835,
    "controls": 4836,
    "\u25810x3f21": 4837,
    "b4c": 4838,
    "\u25810x4289": 4839,
    "\u25810x44f910": 4840,
    "570": 4841,
    "\u2581gut": 4842,
    "\u25810x41d1": 4843,
    "\u25810x42fbf0": 4844,
    "3d1": 4845,
    "\u25810x235": 4846,
    "c8d": 4847,
    "\u25810xffef": 4848,
    "284": 4849,
    "f50": 4850,
    "\u25810x423868": 4851,
    "\u25810x423898": 4852,
    "f4c": 4853,
    "\u25810x3f23": 4854,
    "\u25810x430880": 4855,
    "myarg2": 4856,
    "2e0": 4857,
    "\u25810x419c20": 4858,
    "66c": 4859,
    "7b0": 4860,
    "c0c": 4861,
    "ae8": 4862,
    "\u25810x40a5ac": 4863,
    "758": 4864,
    "d68": 4865,
    "\u25810x41bd": 4866,
    "oree": 4867,
    "\u2581mscoree": 4868,
    "current": 4869,
    "\u25810x1210e6": 4870,
    "\u25810x4e30": 4871,
    "yarg1myarg2": 4872,
    "\u25810x42ae": 4873,
    "\u25810xa41e": 4874,
    "par": 4875,
    "b18": 4876,
    "f40": 4877,
    "\u25810x30000": 4878,
    "\u25810x12117e8": 4879,
    "\u2581lcmapstringa": 4880,
    "a09": 4881,
    "bad8": 4882,
    "409": 4883,
    "3e0": 4884,
    "\u25810x12117fc": 4885,
    "\u25810x40ef1": 4886,
    "d40": 4887,
    "\u25810x4290": 4888,
    "fc8": 4889,
    "\u25810x169b7a4": 4890,
    "\u2581lstrcpya": 4891,
    "569": 4892,
    "inity": 4893,
    "\u25810x4c3308": 4894,
    "\u25810x169b57c": 4895,
    "\u25810x169b94c": 4896,
    "\u25810x1211ccc": 4897,
    "\u25810x1210c": 4898,
    "\u25810x343b570": 4899,
    "32c": 4900,
    "affinity": 4901,
    "affinitymask": 4902,
    "\u25810x7e5000": 4903,
    "\u25810x486d": 4904,
    "a45": 4905,
    "\u25810x42ea": 4906,
    "\u25810xffe3": 4907,
    "\u25810xffc4": 4908,
    "\u25810x4febd8": 4909,
    "9c2": 4910,
    "7f0": 4911,
    "\u2581sa": 4912,
    "\u25810xffe2": 4913,
    "\u25810x100b": 4914,
    "918": 4915,
    "\u25810x437820": 4916,
    "120": 4917,
    "\u25810x43f0": 4918,
    "\u25810x42d3c0": 4919,
    "\u25810x4244": 4920,
    "\u25810x1210ee": 4921,
    "\u25810x1210f1": 4922,
    "\u25810x1210f7": 4923,
    "\u25810x1211e24": 4924,
    "555": 4925,
    "\u2581removed": 4926,
    "\u25810xffe7": 4927,
    "\u25810x431f38": 4928,
    "\u25810x2100210": 4929,
    "ba0": 4930,
    "3f1c": 4931,
    "\u25810x180": 4932,
    "\u25810x4130": 4933,
    "\u2581cq": 4934,
    "\u25810x47e0": 4935,
    "\u2581getstringtypea": 4936,
    "\u25810xffec": 4937,
    "\u2581removedirectory": 4938,
    "atom": 4939,
    "\u25810xc4": 4940,
    "stream": 4941,
    "001": 4942,
    "2c8": 4943,
    "\u25810x40b": 4944,
    "\u2581asw": 4945,
    "\u25810x12106": 4946,
    "\u25810x42c1": 4947,
    "\u2581coinitialize": 4948,
    "302": 4949,
    "fied": 4950,
    "\u25810xffae": 4951,
    "\u25810x4fe2": 4952,
    "1d0": 4953,
    "\u25810x431ef0": 4954,
    "\u25810x4084": 4955,
    "b90": 4956,
    "404": 4957,
    "\u25810xffaf": 4958,
    "\u25810x41db": 4959,
    "\u25810x99a0": 4960,
    "db0": 4961,
    "\u25810x5004": 4962,
    "\u25810x7bc": 4963,
    "91c": 4964,
    "\u25810x3f25": 4965,
    "\u25810xa429f8": 4966,
    "\u25810x1211d00": 4967,
    "316": 4968,
    "\u2581getprocessaffinitymask": 4969,
    "d00": 4970,
    "541": 4971,
    "\u25810x4700": 4972,
    "\u25810x8930": 4973,
    "12c": 4974,
    "b78": 4975,
    "370": 4976,
    "tac": 4977,
    "\u25810xffc2": 4978,
    "\u2581format": 4979,
    "\u25810xff90": 4980,
    "reque": 4981,
    "ons": 4982,
    "d28": 4983,
    "60c": 4984,
    "\u25810x4010": 4985,
    "\u25810x4fe6e8": 4986,
    "metafilebits": 4987,
    "\u2581setenvironment": 4988,
    "\u25810x423dc8": 4989,
    "\u2581sys": 4990,
    "\u25810x41681a": 4991,
    "\u25810x41681b": 4992,
    "textw": 4993,
    "\u25810xbd": 4994,
    "\u2581remove": 4995,
    "\u25810x58000": 4996,
    "54c": 4997,
    "\u25810x421d": 4998,
    "\u25810x42bf": 4999,
    "fb0": 5000,
    "\u25810x1211ad0": 5001,
    "\u25810x4efd": 5002,
    "itor": 5003,
    "\u25810x8ec0": 5004,
    "resourceexw": 5005,
    "\u25810x20009": 5006,
    "\u2581findresourceexw": 5007,
    "\u25810x1211de4": 5008,
    "oyou": 5009,
    "\u25810x56bad8": 5010,
    "\u2581setendoffile": 5011,
    "\u25810x41a6": 5012,
    "\u25810x41d114": 5013,
    "\u25810x120f8c2": 5014,
    "\u25810x1211f1c": 5015,
    "b14": 5016,
    "\u25810xff91": 5017,
    "\u2581cadwork": 5018,
    "\u2581getmenu": 5019,
    "6d7": 5020,
    "4005": 5021,
    "\u25810x120e694": 5022,
    "\u25810x120e69c": 5023,
    "382": 5024,
    "\u25810x42e5c8": 5025,
    "\u25810x42e5e0": 5026,
    "\u25810x438": 5027,
    "\u25810x3f26": 5028,
    "\u25810x46b3d0": 5029,
    "\u25810x4cb0": 5030,
    "\u25810x418a00": 5031,
    "\u25810x418a30": 5032,
    "528": 5033,
    "defaultu": 5034,
    "defaultuilanguage": 5035,
    "wantto": 5036,
    "core": 5037,
    "\u25810x121188": 5038,
    "e28": 5039,
    "a28": 5040,
    "\u25810x118": 5041,
    "\u25810x49c8": 5042,
    "\u25810x4395c8": 5043,
    "\u25810x59c1": 5044,
    "\u25810x1211e20": 5045,
    "3b0": 5046,
    "f34": 5047,
    "\u25810x59bf": 5048,
    "\u25810x405": 5049,
    "\u25810x45f1": 5050,
    "\u25810x42e598": 5051,
    "\u25810x401": 5052,
    "190": 5053,
    "\u25810xfeee011": 5054,
    "\u25810x7bc00000": 5055,
    "mi": 5056,
    "c84": 5057,
    "f28": 5058,
    "\u25810xa3a8": 5059,
    "bf8": 5060,
    "fec": 5061,
    "numberis": 5062,
    "comm": 5063,
    "\u25810x7d51": 5064,
    "d48": 5065,
    "\u25810x107": 5066,
    "2dc": 5067,
    "\u2581ver": 5068,
    "lcid": 5069,
    "\u2581gdip": 5070,
    "\u25810x484": 5071,
    "644": 5072,
    "reate": 5073,
    "\u2581install": 5074,
    "\u25810x6e": 5075,
    "\u25810x1253f1c": 5076,
    "340": 5077,
    "olec": 5078,
    "ivate": 5079,
    "304": 5080,
    "\u25810x1211808": 5081,
    "a8a8": 5082,
    "\u2581noaccess": 5083,
    "fc0": 5084,
    "d0c": 5085,
    "\u2581wcs": 5086,
    "\u25810x4254": 5087,
    "\u25810x4aa0": 5088,
    "\u25810x9a90": 5089,
    "f44": 5090,
    "winmetafilebits": 5091,
    "strings": 5092,
    "\u25810xffc3": 5093,
    "private": 5094,
    "\u25810x5658": 5095,
    "f30": 5096,
    "210": 5097,
    "\u25810x4155": 5098,
    "990": 5099,
    "\u2581getenvironmentstrings": 5100,
    "a54": 5101,
    "\u25810x4307e0": 5102,
    "\u25810x419a": 5103,
    "\u25810x3f27": 5104,
    "\u25810x40ab": 5105,
    "privateprofile": 5106,
    "\u2581gettempfilenamew": 5107,
    "ority": 5108,
    "\u25810x87": 5109,
    "\u25810x41c4": 5110,
    "\u2581findnextfilea": 5111,
    "function": 5112,
    "\u2581setcurrent": 5113,
    "\u25810x4d50": 5114,
    "34c": 5115,
    "\u25810x60c6": 5116,
    "tokeninformation": 5117,
    "3b8": 5118,
    "\u25810x47f0": 5119,
    "\u25810x9210": 5120,
    "\u25810xfff4": 5121,
    "\u25810x44d4b8": 5122,
    "5c0": 5123,
    "\u25810x7eab": 5124,
    "\u25810x97c0": 5125,
    "a0e": 5126,
    "d18": 5127,
    "\u25810x42be": 5128,
    "3d0": 5129,
    "d50": 5130,
    "\u2581lstrcmpw": 5131,
    "\u2581gettokeninformation": 5132,
    "fd0": 5133,
    "\u2581getwinmetafilebits": 5134,
    "\u25810x401000": 5135,
    "\u2581setdll": 5136,
    "\u25810x1211ef4": 5137,
    "af4": 5138,
    "speci": 5139,
    "\u25810x2825": 5140,
    "\u25810x4088": 5141,
    "7a8": 5142,
    "d8c": 5143,
    "90c": 5144,
    "edit": 5145,
    "\u25810x9810": 5146,
    "\u25810x41a8a8": 5147,
    "\u25810x41bc98": 5148,
    "\u25810x41bcc8": 5149,
    "\u2581qt": 5150,
    "olfp": 5151,
    "\u2581controlfp": 5152,
    "dd4": 5153,
    "\u25810x42f3": 5154,
    "9c0": 5155,
    "inter": 5156,
    "baf": 5157,
    "asnot": 5158,
    "b98": 5159,
    "\u25810x27": 5160,
    "\u25810x80c": 5161,
    "3a4": 5162,
    "internal": 5163,
    "dc1": 5164,
    "\u25810x53e4": 5165,
    "fe0": 5166,
    "\u25810x3f3060": 5167,
    "tp": 5168,
    "\u25810x3f3010": 5169,
    "\u2581commode": 5170,
    "\u25810x82f0": 5171,
    "errornumberis": 5172,
    "\u2581programinternal": 5173,
    "\u2581programinternalerrornumberis": 5174,
    "base": 5175,
    "\u25810x12119d0": 5176,
    "b0c": 5177,
    "978": 5178,
    "b68": 5179,
    "\u25810x45f2": 5180,
    "aaaaaaaa": 5181,
    "\u25810x12115bc": 5182,
    "\u25810x42aa58": 5183,
    "3c4": 5184,
    "678": 5185,
    "\u2581dragob": 5186,
    "\u2581version": 5187,
    "\u25810x1211f97": 5188,
    "\u25810xffdd": 5189,
    "versioninfow": 5190,
    "\u25810x8ef0": 5191,
    "\u25810x107538": 5192,
    "\u25810x12115d0": 5193,
    "f46": 5194,
    "\u2581download": 5195,
    "794": 5196,
    "948": 5197,
    "\u25810x4bb0": 5198,
    "f78": 5199,
    "prop": 5200,
    "stringw": 5201,
    "fromstream": 5202,
    "d30": 5203,
    "\u25810x4096": 5204,
    "\u25810x4126": 5205,
    "f58": 5206,
    "\u25810x40a59c": 5207,
    "\u2581shfolder": 5208,
    "bd4": 5209,
    "\u25810x1211f44": 5210,
    "created": 5211,
    "\u25810x408478": 5212,
    "aad": 5213,
    "\u25810xa16": 5214,
    "\u25810x41f7": 5215,
    "\u25810x120faa8": 5216,
    "f18": 5217,
    "ned": 5218,
    "\u2581setfilepointerex": 5219,
    "\u25810x7e00": 5220,
    "quired": 5221,
    "\u25810x107598": 5222,
    "\u25810x120e690": 5223,
    "\u25810x120e698": 5224,
    "\u25810x437804": 5225,
    "\u25810x417b50": 5226,
    "\u25810x42c4f0": 5227,
    "star": 5228,
    "\u25810x40b3": 5229,
    "\u2581log": 5230,
    "fd4": 5231,
    "\u25810x4614": 5232,
    "gw": 5233,
    "ip": 5234,
    "hook": 5235,
    "\u2581wts": 5236,
    "owned": 5237,
    "\u25810x7f7": 5238,
    "\u25810x422798": 5239,
    "\u25810x423890": 5240,
    "\u25810x4238c0": 5241,
    "\u25810x1211900": 5242,
    "\u2581fil": 5243,
    "\u25810x42ae20": 5244,
    "69c": 5245,
    "ify": 5246,
    "ba8": 5247,
    "b58": 5248,
    "\u25810x107658": 5249,
    "\u2581verify": 5250,
    "\u25810x566a40": 5251,
    "e58": 5252,
    "\u25810x439880": 5253,
    "381": 5254,
    "acc": 5255,
    "\u25810x4310": 5256,
    "\u2581monitor": 5257,
    "\u2581getsystemtimes": 5258,
    "\u2581202203040": 5259,
    "a38": 5260,
    "fc4": 5261,
    "b28": 5262,
    "ession": 5263,
    "\u25810x41c044": 5264,
    "1cc": 5265,
    "\u25810x169bf64": 5266,
    "716": 5267,
    "param": 5268,
    "\u25810x10e9": 5269,
    "\u2581oleload": 5270,
    "\u2581oleloadfromstream": 5271,
    "\u25810x120f7": 5272,
    "\u25810xa42980": 5273,
    "\u2581removedirectorya": 5274,
    "2b0": 5275,
    "70c": 5276,
    "\u25810x54000": 5277,
    "\u25810x4a40": 5278,
    "\u25810x8ed0": 5279,
    "\u25810x3200a": 5280,
    "\u25810x7ff": 5281,
    "\u2581writeconsole": 5282,
    "reen": 5283,
    "944": 5284,
    "\u25810x5c000": 5285,
    "\u25810x4a80": 5286,
    "\u25810x40f": 5287,
    "\u25810x120e6cc": 5288,
    "\u2581dat": 5289,
    "11c": 5290,
    "\u25810x107688": 5291,
    "\u25810x42f318": 5292,
    "\u25810x4100": 5293,
    "notin": 5294,
    "\u25810x3b7": 5295,
    "mb": 5296,
    "\u25810x120f9": 5297,
    "\u2581writeconsolew": 5298,
    "\u25810x1210f3": 5299,
    "itialized": 5300,
    "notinitialized": 5301,
    "\u25810x4990": 5302,
    "vironmentstringsa": 5303,
    "\u25810xffc7": 5304,
    "ectlock": 5305,
    "\u25810x45f4": 5306,
    "notowned": 5307,
    "supfunction": 5308,
    "ectlocknotowned": 5309,
    "\u2581monitorsupfunction": 5310,
    "\u2581monitorsupfunctionnotinitialized": 5311,
    "\u25810x644": 5312,
    "\u25810xffc1": 5313,
    "\u25810x160": 5314,
    "\u25810x413": 5315,
    "\u2581setthreadlocale": 5316,
    "\u258124": 5317,
    "\u25810x4cf": 5318,
    "\u25810x4912": 5319,
    "\u2581coun": 5320,
    "\u25810x4828": 5321,
    "\u25810x50850": 5322,
    "e48": 5323,
    "vchost": 5324,
    "\u2581formal": 5325,
    "\u2581getconsolemode": 5326,
    "\u2581svchost": 5327,
    "ail": 5328,
    "\u2581dw": 5329,
    "\u2581oleinitialize": 5330,
    "d58": 5331,
    "\u2581regedit": 5332,
    "\u25810x423e08": 5333,
    "\u25812022": 5334,
    "compar": 5335,
    "\u25810x41cb": 5336,
    "248": 5337,
    "compareex": 5338,
    "compareexchange": 5339,
    "\u2581interlockedcompareexchange": 5340,
    "f85": 5341,
    "\u25810x1075c8": 5342,
    "\u25810xa42a40": 5343,
    "\u2581setdlldirectoryw": 5344,
    "d38": 5345,
    "\u25810x1210e78": 5346,
    "\u25810x1210e7c": 5347,
    "aa0": 5348,
    "a9c": 5349,
    "\u25810x8190": 5350,
    "\u25810xcb000": 5351,
    "ha": 5352,
    "\u25810x62": 5353,
    "specified": 5354,
    "\u25810x420a0f": 5355,
    "\u25810x420a10": 5356,
    "\u25810x433660": 5357,
    "\u25810x4179": 5358,
    "\u25810x42900": 5359,
    "\u25810x40a2": 5360,
    "\u25810x416be0": 5361,
    "asnotfound": 5362,
    "\u25810x1211e18": 5363,
    "\u2581thespecified": 5364,
    "filewasnotfound": 5365,
    "\u2581thespecifiedfilewasnotfound": 5366,
    "\u25810x169bf74": 5367,
    "\u25810x416c10": 5368,
    "6d7363": 5369,
    "\u25810xe06d7363": 5370,
    "f98": 5371,
    "lower": 5372,
    "e8c": 5373,
    "\u25810x1075f8": 5374,
    "\u25810x107628": 5375,
    "\u25810x1211db8": 5376,
    "\u2581tw": 5377,
    "\u25810x188e00": 5378,
    "958": 5379,
    "\u25810x88b0": 5380,
    "f51": 5381,
    "720": 5382,
    "\u25810x120f": 5383,
    "\u2581msvcr90": 5384,
    "\u2581getcurrentdirectorya": 5385,
    "\u2581verifyversioninfow": 5386,
    "a20": 5387,
    "\u2581movefilea": 5388,
    "728": 5389,
    "\u2581int": 5390,
    "\u25810x188d3c": 5391,
    "\u25810x169bc5c": 5392,
    "fd8": 5393,
    "f65": 5394,
    "10428": 5395,
    "onsolec": 5396,
    "\u25810x4086": 5397,
    "\u2581getconsolec": 5398,
    "\u2581strcmp": 5399,
    "ig": 5400,
    "1e8": 5401,
    "38c": 5402,
    "694": 5403,
    "\u25810x5000": 5404,
    "\u2581pleas": 5405,
    "116": 5406,
    "lsid": 5407,
    "\u2581required": 5408,
    "200": 5409,
    "\u2581tw10428": 5410,
    "dl": 5411,
    "\u2581getconsolecp": 5412,
    "568": 5413,
    "298": 5414,
    "\u25810x8410": 5415,
    "\u25810x8f70": 5416,
    "\u25810x42a6": 5417,
    "558f": 5418,
    "ae0": 5419,
    "\u25810x40ac": 5420,
    "\u258112": 5421,
    "\u25810x42d4f0": 5422,
    "\u25810x42c5d0": 5423,
    "\u25810x4200": 5424,
    "\u25810x42558f": 5425,
    "\u25810x425590": 5426,
    "\u25810x63000000": 5427,
    "\u2581getuserdefaultlcid": 5428,
    "3a0": 5429,
    "\u25810x5617": 5430,
    "2a0": 5431,
    "recon": 5432,
    "instal": 5433,
    "e20": 5434,
    "bb4": 5435,
    "d5c": 5436,
    "\u25810x412f": 5437,
    "\u25810x45fe": 5438,
    "\u25810x188e24": 5439,
    "dcc": 5440,
    "\u25810xb3": 5441,
    "\u25810x45f6": 5442,
    "\u25810x9af0": 5443,
    "\u25810x44000": 5444,
    "\u2581yo": 5445,
    "\u25810xc8": 5446,
    "\u25810xc94": 5447,
    "\u25810x42be20": 5448,
    "\u25810x45f3": 5449,
    "\u25810x45f5": 5450,
    "\u25810x9d10": 5451,
    "\u25810x42efe8": 5452,
    "\u2581e000": 5453,
    "aa4": 5454,
    "\u25810x45fa": 5455,
    "80004005": 5456,
    "\u2581error0x80004005": 5457,
    "bd8": 5458,
    "tacqui": 5459,
    "\u25810x45f7": 5460,
    "tacquirecon": 5461,
    "\u2581cryptacquirecon": 5462,
    "\u25810x413d": 5463,
    "\u25810xa4a0": 5464,
    "\u25810x8330": 5465,
    "\u25810x45f8": 5466,
    "321": 5467,
    "\u25810x2439f74": 5468,
    "604": 5469,
    "\u2581doyou": 5470,
    "\u25810x4134": 5471,
    "a7c": 5472,
    "env": 5473,
    "df8": 5474,
    "\u25810x4233": 5475,
    "\u25810xa3a768": 5476,
    "\u25810x4efd98": 5477,
    "\u2581filet": 5478,
    "\u25810x40b7": 5479,
    "\u2581filetimeto": 5480,
    "70e": 5481,
    "998": 5482,
    "\u2581clsid": 5483,
    "\u25810x45f9": 5484,
    "101": 5485,
    "a98": 5486,
    "798": 5487,
    "\u25810x9ad0": 5488,
    "\u25810x3e6c": 5489,
    "\u25810xffde": 5490,
    "leasecon": 5491,
    "f16": 5492,
    "seek": 5493,
    "\u25810x412e": 5494,
    "306": 5495,
    "\u25810x1211ecc": 5496,
    "748": 5497,
    "\u25810x9a70": 5498,
    "1e4": 5499,
    "\u25810x40a0": 5500,
    "\u25810x10e9bc": 5501,
    "5e8": 5502,
    "\u25810x42ba58": 5503,
    "releasecon": 5504,
    "\u25810xfeee012": 5505,
    "releasecontext": 5506,
    "su": 5507,
    "ef8": 5508,
    "onexit": 5509,
    "\u25810x46b": 5510,
    "\u2581defwindowprocw": 5511,
    "334": 5512,
    "\u25810x4184": 5513,
    "\u25810x9c30": 5514,
    "\u25810x3f2210": 5515,
    "pool": 5516,
    "\u25810x4fc": 5517,
    "\u25810xa3a7b0": 5518,
    "\u2581clsidfrom": 5519,
    "\u2581couninitialize": 5520,
    "bbc": 5521,
    "fed": 5522,
    "\u25810x4232": 5523,
    "sd": 5524,
    "lipboardforma": 5525,
    "\u2581cryptreleasecontext": 5526,
    "\u2581registerclipboardforma": 5527,
    "heme": 5528,
    "\u2581uxt": 5529,
    "\u25810x45fd": 5530,
    "\u2581uxtheme": 5531,
    "\u25810x1211c00": 5532,
    "\u2581getclassinfoa": 5533,
    "18c": 5534,
    "amet": 5535,
    "\u25810x1860": 5536,
    "\u25810x4601": 5537,
    "\u25810x120fb30": 5538,
    "\u25810x22e": 5539,
    "regis": 5540,
    "\u258128": 5541,
    "printer": 5542,
    "\u25810x45ff": 5543,
    "\u2581mso": 5544,
    "\u25810x51b": 5545,
    "\u25810x71000000": 5546,
    "1c0": 5547,
    "960": 5548,
    "a64": 5549,
    "trol": 5550,
    "d6c": 5551,
    "\u25810x150": 5552,
    "560": 5553,
    "common": 5554,
    "\u25810x46b400": 5555,
    "af0": 5556,
    "bcc": 5557,
    "d20": 5558,
    "\u2581openprocesstoken": 5559,
    "ab0": 5560,
    "\u258126": 5561,
    "\u25810x80c458": 5562,
    "\u25810x440": 5563,
    "9e0": 5564,
    "\u25810x4199": 5565,
    "\u25810x8340": 5566,
    "\u25810x5199": 5567,
    "\u25810x42759f": 5568,
    "\u25810x4275a0": 5569,
    "\u2581initcommon": 5570,
    "\u2581initcommoncontrols": 5571,
    "2c5": 5572,
    "\u25810x41af": 5573,
    "50c": 5574,
    "6d8": 5575,
    "\u25810x4df": 5576,
    "\u25810x9850": 5577,
    "\u25810x169bf94": 5578,
    "\u25810x423d90": 5579,
    "\u25810x423dc0": 5580,
    "delete": 5581,
    "update": 5582,
    "\u25810x43a4": 5583,
    "\u2581qt5": 5584,
    "\u25810x8900": 5585,
    "a69": 5586,
    "f17": 5587,
    "\u25810x4f60": 5588,
    "565": 5589,
    "emyarg1myarg2": 5590,
    "\u25810x42d8a2": 5591,
    "\u25810x42d8ab": 5592,
    "\u25810x42d8b4": 5593,
    "\u25810x42d8bd": 5594,
    "\u2581exemyarg1myarg2": 5595,
    "\u25810x208": 5596,
    "\u25810x40b4": 5597,
    "a90": 5598,
    "\u25810x3020": 5599,
    "\u2581getdiskfreespaceexa": 5600,
    "\u25810x50e10": 5601,
    "af8": 5602,
    "ocon": 5603,
    "\u25810xe8": 5604,
    "ocreate": 5605,
    "\u2581nto": 5606,
    "\u25810x4305c8": 5607,
    "\u25810x4305e0": 5608,
    "f90": 5609,
    "\u25810x41cc": 5610,
    "\u25810x9730": 5611,
    "\u25810x60c690": 5612,
    "14c": 5613,
    "acd": 5614,
    "\u25810x42aa": 5615,
    "\u25810x431828": 5616,
    "9d8": 5617,
    "\u25810x41ebf": 5618,
    "\u25810x1210f2": 5619,
    "c01": 5620,
    "3378": 5621,
    "\u25810x1211d30": 5622,
    "\u25810x68000": 5623,
    "\u2581freeenvironmentstringsa": 5624,
    "\u25810x9c80": 5625,
    "\u25810x411555": 5626,
    "\u25810x411556": 5627,
    "\u25810x1211e40": 5628,
    "985": 5629,
    "\u25810x4030": 5630,
    "\u25810x42b964": 5631,
    "download": 5632,
    "\u25810x42ebc0": 5633,
    "178": 5634,
    "\u25810x4298": 5635,
    "\u25810x430598": 5636,
    "33a": 5637,
    "\u25810x433860": 5638,
    "7978": 5639,
    "\u25810xdd": 5640,
    "\u25810x4179c": 5641,
    "ded": 5642,
    "\u25810x4c97": 5643,
    "738": 5644,
    "\u25810xa210": 5645,
    "db24": 5646,
    "\u2581sc": 5647,
    "only": 5648,
    "\u25810xf8": 5649,
    "\u25810x41b0": 5650,
    "\u25810x435000": 5651,
    "\u25810x99c0": 5652,
    "\u25810x41568c": 5653,
    "50000": 5654,
    "a8c": 5655,
    "f60": 5656,
    "\u2581getvolumeinformationa": 5657,
    "317": 5658,
    "974": 5659,
    "bfc": 5660,
    "e0c": 5661,
    "\u25810x423326": 5662,
    "\u25810x423327": 5663,
    "\u25810x1211f54": 5664,
    "au": 5665,
    "5b0": 5666,
    "fa4": 5667,
    "\u258118": 5668,
    "ialog": 5669,
    "iserror": 5670,
    "da9": 5671,
    "ible": 5672,
    "\u25810x9600": 5673,
    "\u2581qt5core": 5674,
    "\u25810x1211ce0": 5675,
    "ctype": 5676,
    "ph": 5677,
    "\u25810x4ec": 5678,
    "\u2581dialog": 5679,
    "resourcea": 5680,
    "\u25810x4139": 5681,
    "\u25810x120e68c": 5682,
    "\u25810x181b70": 5683,
    "3d4": 5684,
    "\u25810x434280": 5685,
    "\u25810x4363c0": 5686,
    "600": 5687,
    "ncy": 5688,
    "\u25810x433378": 5689,
    "\u25810x434268": 5690,
    "bd7": 5691,
    "\u25810x423baf": 5692,
    "\u25810x423bb0": 5693,
    "\u2581getuserdefaultuilanguage": 5694,
    "78c": 5695,
    "d60": 5696,
    "\u25810x41cbd0": 5697,
    "884": 5698,
    "\u25810xa6b0": 5699,
    "bc5": 5700,
    "requency": 5701,
    "\u2581connec": 5702,
    "\u2581lstrcmpi": 5703,
    "64c": 5704,
    "d90": 5705,
    "\u25810x4606": 5706,
    "\u25810x1211ee8": 5707,
    "\u2581findresourcea": 5708,
    "379": 5709,
    "\u25810x4650": 5710,
    "\u25810xffcb": 5711,
    "690": 5712,
    "d2c": 5713,
    "\u258114": 5714,
    "7e8": 5715,
    "d10": 5716,
    "\u25810x42daa2": 5717,
    "\u25810x42daab": 5718,
    "\u25810x42dab4": 5719,
    "\u25810x42dabd": 5720,
    "2c4": 5721,
    "\u25810x42b6": 5722,
    "\u25810x88f0": 5723,
    "\u2581userenv": 5724,
    "cefrequency": 5725,
    "\u2581queryperformancefrequency": 5726,
    "e100": 5727,
    "\u2581stor": 5728,
    "\u25810xa41": 5729,
    "\u25810xfff3": 5730,
    "\u2581storage": 5731,
    "48c": 5732,
    "pre": 5733,
    "\u2581connector": 5734,
    "\u2581filen": 5735,
    "\u25810x4079": 5736,
    "\u25810x4160": 5737,
    "\u25810x423de0": 5738,
    "244": 5739,
    "dc9": 5740,
    "\u25810x41a044": 5741,
    "bd04": 5742,
    "778": 5743,
    "\u25810x616": 5744,
    "\u2581getmodulehandl": 5745,
    "\u25810x4cf0": 5746,
    "749": 5747,
    "eb8": 5748,
    "\u25810x4feaac": 5749,
    "dc8": 5750,
    "atalog": 5751,
    "\u2581regqueryvalueexw": 5752,
    "a02": 5753,
    "f7c": 5754,
    "initializeex": 5755,
    "\u2581coinitializeex": 5756,
    "\u2581aaa": 5757,
    "extex": 5758,
    "39c": 5759,
    "20c": 5760,
    "\u25810x5f3": 5761,
    "mapi": 5762,
    "\u25810x534": 5763,
    "\u25810xfeee014": 5764,
    "bff": 5765,
    "\u25810x4201": 5766,
    "\u25810x4364": 5767,
    "\u25810xf000": 5768,
    "\u25810x40a3e": 5769,
    "\u25810x4d7978": 5770,
    "aa8": 5771,
    "\u25810x4b7": 5772,
    "305": 5773,
    "\u2581getprivateprofile": 5774,
    "\u25810xa260": 5775,
    "\u25810x4093e8": 5776,
    "\u25810x44180": 5777,
    "\u25810x4093e5": 5778,
    "\u25810x4093e6": 5779,
    "\u25810x4093e7": 5780,
    "fad": 5781,
    "\u25810x9a60": 5782,
    "\u2581qae": 5783,
    "\u2581tow": 5784,
    "\u25810x41e1d8": 5785,
    "\u25810x4ddb24": 5786,
    "\u25810x500410": 5787,
    "6c5": 5788,
    "plor": 5789,
    "tag": 5790,
    "internet": 5791,
    "\u25810x422470": 5792,
    "will": 5793,
    "otfound": 5794,
    "e50": 5795,
    "7d0": 5796,
    "fd3": 5797,
    "\u2581dwmapi": 5798,
    "rn": 5799,
    "plorer": 5800,
    "\u25810x560": 5801,
    "\u2581filenotfound": 5802,
    "994": 5803,
    "d78": 5804,
    "fb8": 5805,
    "\u25810x422788": 5806,
    "\u2581cryptbase": 5807,
    "3e4": 5808,
    "a78": 5809,
    "f68": 5810,
    "\u25810x4259": 5811,
    "\u25810x8490": 5812,
    "bec": 5813,
    "\u25810x454": 5814,
    "atalogs": 5815,
    "rnl": 5816,
    "\u25810x1211370": 5817,
    "e69": 5818,
    "\u25812d": 5819,
    "\u2581atex": 5820,
    "\u25810x4076": 5821,
    "\u2581atexit": 5822,
    "\u2581getmodulehandleexw": 5823,
    "\u25810x442": 5824,
    "\u2581runonce": 5825,
    "\u2581hdd": 5826,
    "regener": 5827,
    "\u25810x1bf9": 5828,
    "\u25810x41b8": 5829,
    "regenerator": 5830,
    "\u2581hddregenerator": 5831,
    "1740": 5832,
    "\u258134": 5833,
    "eexist": 5834,
    "\u25810x9230": 5835,
    "\u25810x678208": 5836,
    "\u2581fileexist": 5837,
    "aba": 5838,
    "skrnl": 5839,
    "\u25810x468": 5840,
    "\u2581ntoskrnl": 5841,
    "9bc": 5842,
    "\u25810x70000": 5843,
    "\u25810x423d78": 5844,
    "\u25810x423e38": 5845,
    "\u25810xa010": 5846,
    "a0c": 5847,
    "\u25810x42f1": 5848,
    "\u25810x94f0": 5849,
    "\u25810xffca": 5850,
    "\u25810x74000": 5851,
    "311": 5852,
    "715": 5853,
    "ed1": 5854,
    "2c6": 5855,
    "31c": 5856,
    "9c8": 5857,
    "270": 5858,
    "ef4": 5859,
    "\u2581cl": 5860,
    "\u25810xb7": 5861,
    "366": 5862,
    "\u2581dup": 5863,
    "397": 5864,
    "lay": 5865,
    "69e": 5866,
    "\u2581task": 5867,
    "2e8": 5868,
    "a50": 5869,
    "d24": 5870,
    "\u25810xffc8": 5871,
    "750": 5872,
    "d7c": 5873,
    "\u25810x169bc0": 5874,
    "\u2581shgetfile": 5875,
    "\u25810x42fc68": 5876,
    "\u25810x1211d44": 5877,
    "\u2581commandline": 5878,
    "\u25810x5937": 5879,
    "\u25810xa9a0": 5880,
    "\u2581isvalidlocale": 5881,
    "\u25810x52668": 5882,
    "\u2581lstrca": 5883,
    "\u25810x5617a8": 5884,
    "354": 5885,
    "argvw": 5886,
    "toargvw": 5887,
    "\u25810x4093e9": 5888,
    "\u25810x4093ea": 5889,
    "\u25810x4093eb": 5890,
    "\u2581commandlinetoargvw": 5891,
    "741": 5892,
    "qa": 5893,
    "\u25810x10e": 5894,
    "\u25810x455": 5895,
    "\u25810x41d8": 5896,
    "\u25810x4170d4": 5897,
    "\u25810x4170d5": 5898,
    "647": 5899,
    "\u2581ns": 5900,
    "\u25810x42c0a4": 5901,
    "130": 5902,
    "d05": 5903,
    "158": 5904,
    "\u25810x95d0": 5905,
    "\u25810x1211e54": 5906,
    "\u25810x1fa": 5907,
    "\u2581start": 5908,
    "\u25810x409c": 5909,
    "\u2581instal": 5910,
    "7b8": 5911,
    "910": 5912,
    "b34": 5913,
    "\u25810x131": 5914,
    "148": 5915,
    "7ac": 5916,
    "lien": 5917,
    "\u25810x1a0": 5918,
    "\u25810x16000": 5919,
    "66e": 5920,
    "b2c": 5921,
    "\u2581taskbar": 5922,
    "b0000": 5923,
    "314": 5924,
    "toc": 5925,
    "\u2581duplic": 5926,
    "\u25810x4ec0": 5927,
    "\u25810xa420": 5928,
    "\u2581pi": 5929,
    "\u25810x423d68": 5930,
    "\u25810x598740": 5931,
    "\u25810x518": 5932,
    "\u25810x423e28": 5933,
    "35c": 5934,
    "950": 5935,
    "ocontrol": 5936,
    "f5c": 5937,
    "iocontrol": 5938,
    "\u25810x409aa4": 5939,
    "3d6": 5940,
    "chr": 5941,
    "vip": 5942,
    "\u25810x409aa5": 5943,
    "\u25810x4350c8": 5944,
    "\u25810x4614d0": 5945,
    "\u25810x8000000": 5946,
    "\u2581ea": 5947,
    "\u2581prvip": 5948,
    "\u2581charpre": 5949,
    "376": 5950,
    "3e2": 5951,
    "\u25810x41aa": 5952,
    "\u25810xbe": 5953,
    "\u25810x4c10": 5954,
    "294": 5955,
    "\u25810x40935d": 5956,
    "\u25810x40935e": 5957,
    "\u25810x40935f": 5958,
    "\u25810x409360": 5959,
    "\u25810x409361": 5960,
    "\u25810x409362": 5961,
    "\u25810x409363": 5962,
    "\u2581deviceiocontrol": 5963,
    "\u25810xd8": 5964,
    "\u25810x40d": 5965,
    "\u25810x1211fbc": 5966,
    "a99": 5967,
    "fd9": 5968,
    "\u25810x419ce0": 5969,
    "\u2581nsiserror": 5970,
    "lation": 5971,
    "\u25810xffc9": 5972,
    "\u25810x432378": 5973,
    "\u25810x1210e80": 5974,
    "396": 5975,
    "bc6": 5976,
    "a60": 5977,
    "pass": 5978,
    "\u25810x422c": 5979,
    "instan": 5980,
    "\u25810x45fb": 5981,
    "70000": 5982,
    "\u25810x9940": 5983,
    "\u25810x4353c0": 5984,
    "\u25810x53e498": 5985,
    "d34": 5986,
    "seekto": 5987,
    "\u25810x1808": 5988,
    "\u25810x433268": 5989,
    "\u25810x433280": 5990,
    "\u25810x3200a48": 5991,
    "\u25810xfeee009d": 5992,
    "\u2581failedtoseekto": 5993,
    "\u25810x569b48": 5994,
    "\u25810x1211ebc": 5995,
    "61c": 5996,
    "\u25810x4240": 5997,
    "starto": 5998,
    "startoffile": 5999,
    "\u2581failedtoseektostartoffile": 6000,
    "351": 6001,
    "\u25810x169bf28": 6002,
    "a68": 6003,
    "a74": 6004,
    "\u25810x402": 6005,
    "\u25810x414c": 6006,
    "\u25810x430828": 6007,
    "58c": 6008,
    "\u25810x40f1": 6009,
    "\u2581oleacc": 6010,
    "150": 6011,
    "\u2581failedtoinitializeenginesection": 6012,
    "3a5": 6013,
    "\u25810x4217": 6014,
    "\u25810x4ee0": 6015,
    "bc9": 6016,
    "\u25810x4ac": 6017,
    "withtag": 6018,
    "\u25810x4208e0": 6019,
    "poolwithtag": 6020,
    "\u2581exallocate": 6021,
    "\u2581exallocatepoolwithtag": 6022,
    "5a0": 6023,
    "\u2581wm": 6024,
    "\u2581getmessagew": 6025,
    "a2c": 6026,
    "ters": 6027,
    "\u25810x46c0": 6028,
    "15c": 6029,
    "dfd": 6030,
    "f38": 6031,
    "\u2581failedtoinitializeenginestate": 6032,
    "ce1": 6033,
    "\u25810x134": 6034,
    "privile": 6035,
    "valueexa": 6036,
    "\u25810x1211e80": 6037,
    "\u25810x169ba04": 6038,
    "\u25810x2e7": 6039,
    "\u25810x1211f50": 6040,
    "\u25810x6ba": 6041,
    "\u25810x3f3080": 6042,
    "a526": 6043,
    "\u2581ndr": 6044,
    "\u2581strlen": 6045,
    "db8": 6046,
    "\u2581reset": 6047,
    "\u25810x2200": 6048,
    "538": 6049,
    "\u2581ndrd": 6050,
    "\u25810x4a77": 6051,
    "\u25810x424470": 6052,
    "\u25810xb2": 6053,
    "1a0": 6054,
    "\u25810x1211f98": 6055,
    "\u25810x169bd04": 6056,
    "mar": 6057,
    "\u25810x169bc04": 6058,
    "etype": 6059,
    "\u25810x8de0": 6060,
    "\u2581864000": 6061,
    "da8": 6062,
    "\u25810x39569": 6063,
    "\u25810x3f3040": 6064,
    "\u25810x431f68": 6065,
    "2d0": 6066,
    "\u25810x4335": 6067,
    "\u2581202203031": 6068,
    "\u2581formatmessagea": 6069,
    "22c": 6070,
    "df0": 6071,
    "\u2581af": 6072,
    "\u2581ol": 6073,
    "\u25810x4219": 6074,
    "\u25810x41688a": 6075,
    "\u25810x41688b": 6076,
    "\u25810x4208df": 6077,
    "1b4": 6078,
    "dd8": 6079,
    "this": 6080,
    "\u25810x4324": 6081,
    "\u25810x9290": 6082,
    "\u25810xa427": 6083,
    "\u2581cocreate": 6084,
    "a6c": 6085,
    "ba9": 6086,
    "\u25810x1210e84": 6087,
    "c8e": 6088,
    "\u25810x419cb0": 6089,
    "\u2581programinternalerrornumberis6": 6090,
    "9f0": 6091,
    "\u25810xa429b0": 6092,
    "\u258186400040": 6093,
    "374": 6094,
    "b38": 6095,
    "\u25810x4540": 6096,
    "\u25810x8838": 6097,
    "\u25810x1211ed8": 6098,
    "\u25810x1211f30h": 6099,
    "\u25810x3f2420": 6100,
    "3ac": 6101,
    "\u25810xffd4": 6102,
    "5ac": 6103,
    "3bc": 6104,
    "30000": 6105,
    "68b": 6106,
    "\u25810x8839": 6107,
    "9b4": 6108,
    "\u25810x2200220": 6109,
    "2d8": 6110,
    "312": 6111,
    "9d0": 6112,
    "d70": 6113,
    "d9f": 6114,
    "\u25810x4175": 6115,
    "20224": 6116,
    "utton": 6117,
    "\u25810x41d2": 6118,
    "\u25810x40a58c": 6119,
    "\u25810x9240": 6120,
    "\u2581initcommoncontrolsex": 6121,
    "ed0": 6122,
    "570656": 6123,
    "64656c": 6124,
    "\u25813a526": 6125,
    "1740d0a": 6126,
    "\u25810x4607": 6127,
    "2022433a": 6128,
    "\u25810x200020": 6129,
    "\u2581internet": 6130,
    "\u25813a526570656": 6131,
    "1740d0a64656c": 6132,
    "1740d0a64656c2022433a": 6133,
    "\u25813a5265706561740d0a64656c2022433a": 6134,
    "566": 6135,
    "exit": 6136,
    "\u25810x170": 6137,
    "\u25810x4718": 6138,
    "\u25810x40a57c": 6139,
    "\u2581duplicate": 6140,
    "org": 6141,
    "\u25810xba": 6142,
    "\u2581cocreateinstan": 6143,
    "a94": 6144,
    "a32": 6145,
    "f3e": 6146,
    "\u25810x144": 6147,
    "\u25810x7ac0": 6148,
    "\u25810x169b9c0": 6149,
    "privilege": 6150,
    "a06": 6151,
    "db5": 6152,
    "ready": 6153,
    "\u25810x40a7": 6154,
    "\u2581lstrcata": 6155,
    "\u2581can": 6156,
    "\u2581command": 6157,
    "ec9": 6158,
    "screen": 6159,
    "\u25810x4c0": 6160,
    "\u25810x41cba4": 6161,
    "gs": 6162,
    "3b9": 6163,
    "7c8": 6164,
    "adc": 6165,
    "\u25810x42b4": 6166,
    "\u25810xa3a790": 6167,
    "932": 6168,
    "ab5": 6169,
    "198": 6170,
    "bf4": 6171,
    "orgex": 6172,
    "\u25810x1211b08": 6173,
    "\u2581getdriv": 6174,
    "\u25810x12117ec": 6175,
    "\u2581setenvironmentvariablea": 6176,
    "lpapi": 6177,
    "\u25810x4258": 6178,
    "\u25810x1210cf0": 6179,
    "\u2581getdrivetype": 6180,
    "\u25810xfeee015": 6181,
    "\u25810xfeee00f3": 6182,
    "\u25810x1211fa0": 6183,
    "\u2581duplicatehandle": 6184,
    "3cc": 6185,
    "970": 6186,
    "ware": 6187,
    "\u25810x44b7": 6188,
    "\u25810xfeee00f2": 6189,
    "290": 6190,
    "336": 6191,
    "730": 6192,
    "\u25810x4354": 6193,
    "\u25810x1211dbc": 6194,
    "\u25810xb6": 6195,
    "\u25810x64000": 6196,
    "364": 6197,
    "fa2": 6198,
    "\u25810x450": 6199,
    "\u25810x413f": 6200,
    "\u25810x416b2": 6201,
    "\u25810x416c0": 6202,
    "\u25810x416242": 6203,
    "\u25810x416243": 6204,
    "\u25810x42a0a0": 6205,
    "roll": 6206,
    "\u2581mta": 6207,
    "\u2581setcurrentdirectorya": 6208,
    "7c5": 6209,
    "\u25810x43f6": 6210,
    "\u2581isctype": 6211,
    "\u25810x58de50": 6212,
    "315": 6213,
    "a24": 6214,
    "f69": 6215,
    "a87": 6216,
    "exist": 6217,
    "506": 6218,
    "\u25810xfff2": 6219,
    "\u25810x7e4": 6220,
    "\u25810x41ba": 6221,
    "\u25810x7eec": 6222,
    "\u25810x1211438": 6223,
    "\u25810x422778": 6224,
    "\u25810x120e6dc": 6225,
    "\u25810x120fe": 6226,
    "\u25810x4f6200": 6227,
    "\u2581youm": 6228,
    "\u2581opena": 6229,
    "1a4": 6230,
    "505": 6231,
    "658": 6232,
    "325": 6233,
    "3ad": 6234,
    "\u25810x7e30": 6235,
    "move": 6236,
    "\u25810x7eed": 6237,
    "238": 6238,
    "netw": 6239,
    "\u2581security": 6240,
    "7a0": 6241,
    "938": 6242,
    "a30": 6243,
    "\u25810x169bf04": 6244,
    "375": 6245,
    "\u25810xb1": 6246,
    "916": 6247,
    "\u25810x4604": 6248,
    "\u25810xa3a0": 6249,
    "\u2581destroywindow": 6250,
    "3b6": 6251,
    "\u25810x1211bf4": 6252,
    "fdc": 6253,
    "\u25810x169bf2c": 6254,
    "\u25810x75500000": 6255,
    "392": 6256,
    "9c4": 6257,
    "\u25810x7f4": 6258,
    "\u25810x7df9": 6259,
    "a34": 6260,
    "pl": 6261,
    "\u25810x7df8": 6262,
    "output": 6263,
    "\u25810x42eb": 6264,
    "75c8": 6265,
    "ystatus": 6266,
    "\u25810x8554": 6267,
    "\u25810x8d10": 6268,
    "memorystatus": 6269,
    "\u25810x4190": 6270,
    "\u2581globalmemorystatus": 6271,
    "ei": 6272,
    "7ce": 6273,
    "pri": 6274,
    "\u2581back": 6275,
    "network": 6276,
    "\u25810x40d8": 6277,
    "a76": 6278,
    "\u2581iph": 6279,
    "\u25810x2010": 6280,
    "\u2581iphlpapi": 6281,
    "\u25810x7f8003": 6282,
    "\u25810x7f8004": 6283,
    "\u25810x7f8005": 6284,
    "\u25810x7f8006": 6285,
    "\u25810x7f8007": 6286,
    "\u25810x7f8008": 6287,
    "\u25810x7f8009": 6288,
    "\u25810x7f800a": 6289,
    "\u25810x7f800b": 6290,
    "\u25810x7f800c": 6291,
    "\u25810x7f800d": 6292,
    "b96": 6293,
    "\u25810x4d5": 6294,
    "\u25810x3010": 6295,
    "be54": 6296,
    "\u25810x4176": 6297,
    "\u25810x41ac": 6298,
    "\u25810x5266c": 6299,
    "\u25810x7f800e": 6300,
    "\u25810x502dc": 6301,
    "\u25810x52669": 6302,
    "\u25810x169bec8": 6303,
    "\u25810x4020": 6304,
    "\u25810x426f": 6305,
    "940": 6306,
    "a86": 6307,
    "\u2581oa": 6308,
    "outputcp": 6309,
    "priority": 6310,
    "\u25810x40eeca": 6311,
    "\u25810x40eecb": 6312,
    "\u25810x7f800f": 6313,
    "605": 6314,
    "723": 6315,
    "unch": 6316,
    "\u25810x1211584": 6317,
    "\u25810x5f6": 6318,
    "117": 6319,
    "\u258104": 6320,
    "\u2581towlower": 6321,
    "\u2581getconsoleoutputcp": 6322,
    "1b0": 6323,
    "ook": 6324,
    "2d4": 6325,
    "be4": 6326,
    "\u25810x4605": 6327,
    "3a20": 6328,
    "longw": 6329,
    "install": 6330,
    "\u2581globalf": 6331,
    "\u25810x40ef1b": 6332,
    "\u2581fre": 6333,
    "2f5": 6334,
    "745": 6335,
    "3d28": 6336,
    "alse": 6337,
    "\u2581openw": 6338,
    "\u25810x4378b0": 6339,
    "\u25810x4608": 6340,
    "\u25810xffdf": 6341,
    "\u25810x40ef1a": 6342,
    "7d8": 6343,
    "times": 6344,
    "3d2": 6345,
    "\u25810xffed": 6346,
    "3ec": 6347,
    "a89": 6348,
    "\u2581aa": 6349,
    "\u2581your": 6350,
    "\u25810x1211b74": 6351,
    "\u25810x1211888": 6352,
    "\u25810xa710": 6353,
    "\u25810x41de80": 6354,
    "\u25810x600": 6355,
    "\u25810x6940": 6356,
    "bac": 6357,
    "\u25810x4218": 6358,
    "\u25810x58c034": 6359,
    "709": 6360,
    "\u25810x9460": 6361,
    "\u2581qa": 6362,
    "a0d": 6363,
    "\u25810x40c8": 6364,
    "\u25810x413b": 6365,
    "1b8": 6366,
    "7cc": 6367,
    "\u25810x42390": 6368,
    "\u25810x491288": 6369,
    "545": 6370,
    "7bc": 6371,
    "a85": 6372,
    "250": 6373,
    "9c24": 6374,
    "\u25810x7dc4": 6375,
    "fa0": 6376,
    "\u25810x5627": 6377,
    "\u25810xa41f": 6378,
    "\u2581regcreate": 6379,
    "\u25810x4c30": 6380,
    "\u2581environ": 6381,
    "applet": 6382,
    "\u25810xa0e6": 6383,
    "\u25810x500010": 6384,
    "\u2581getcursor": 6385,
    "a49": 6386,
    "\u25810x7ce0": 6387,
    "332": 6388,
    "3b4": 6389,
    "aec": 6390,
    "df5": 6391,
    "\u25810x4251": 6392,
    "\u25810xffd1": 6393,
    "\u25810x1906000": 6394,
    "bed": 6395,
    "bf1": 6396,
    "\u25810x43b8c8": 6397,
    "790": 6398,
    "2ec": 6399,
    "920": 6400,
    "b6c": 6401,
    "\u25810x4140": 6402,
    "\u25810x80be54": 6403,
    "f71": 6404,
    "\u25810x40e5": 6405,
    "\u25810x3fd00": 6406,
    "\u25810x414f20": 6407,
    "a5b": 6408,
    "\u25810x6970": 6409,
    "\u25810x7dd9": 6410,
    "\u25810xff86": 6411,
    "\u25810x640000": 6412,
    "fc6": 6413,
    "296": 6414,
    "ong": 6415,
    "conso": 6416,
    "\u25810x40f6a8": 6417,
    "\u25810x1211b50": 6418,
    "\u2581failedtoopen": 6419,
    "\u2581failedtoopenapplication": 6420,
    "e14": 6421,
    "2850": 6422,
    "\u25810x10a": 6423,
    "\u25810x2d4df": 6424,
    "\u2581failedtoopenapplicationlog": 6425,
    "1c4": 6426,
    "\u25810x42ec": 6427,
    "\u25810x7dc5": 6428,
    "\u25810x414f21": 6429,
    "b3c": 6430,
    "\u25810x7dd0": 6431,
    "\u25810x565868": 6432,
    "36c": 6433,
    "ba4": 6434,
    "che": 6435,
    "pop": 6436,
    "\u25810x599": 6437,
    "\u25810x4760": 6438,
    "\u25810x598758": 6439,
    "e38": 6440,
    "\u25810x4212": 6441,
    "\u25810xffe8": 6442,
    "\u2581regcreatekey": 6443,
    "16c": 6444,
    "\u25810x1b0": 6445,
    "ort": 6446,
    "\u25810x1210e30": 6447,
    "b1e": 6448,
    "adap": 6449,
    "ning": 6450,
    "f3f": 6451,
    "\u2581prop": 6452,
    "adapters": 6453,
    "\u25810x1211790": 6454,
    "\u25810x522": 6455,
    "\u25810x4054": 6456,
    "\u25810x740": 6457,
    "115": 6458,
    "2b8": 6459,
    "3e1": 6460,
    "been": 6461,
    "\u25810x417da0": 6462,
    "yd": 6463,
    "\u25810x420f2": 6464,
    "\u25810x42b0a0": 6465,
    "\u2581getadapters": 6466,
    "ad5": 6467,
    "\u25810x1211b54": 6468,
    "1c6": 6469,
    "ects": 6470,
    "\u25810x417d9f": 6471,
    "37c": 6472,
    "b94": 6473,
    "\u2581ri": 6474,
    "\u25810x4602": 6475,
    "20000": 6476,
    "place": 6477,
    "\u25810x2100": 6478,
    "\u2581messageboxw": 6479,
    "\u25810x1211f0c": 6480,
    "\u25810x41e9": 6481,
    "\u25810x940000": 6482,
    "fcc": 6483,
    "\u25810x4dc": 6484,
    "\u25810x46b3b8": 6485,
    "run": 6486,
    "\u25810x2d4d9": 6487,
    "33c": 6488,
    "30c": 6489,
    "f3c": 6490,
    "rap": 6491,
    "\u258108": 6492,
    "\u25810x4f53c8": 6493,
    "339": 6494,
    "698": 6495,
    "7170": 6496,
    "ally": 6497,
    "button": 6498,
    "\u25810xff69": 6499,
    "\u25810x1211cf4": 6500,
    "9e8": 6501,
    "sion": 6502,
    "\u25810x4316": 6503,
    "2ad": 6504,
    "f6c": 6505,
    "dec8": 6506,
    "\u2581lib": 6507,
    "enamew": 6508,
    "ea0": 6509,
    "\u25810x9520": 6510,
    "\u25810x188e4c": 6511,
    "\u25810x420818": 6512,
    "d49": 6513,
    "\u2581add": 6514,
    "\u25810x56c": 6515,
    "ds": 6516,
    "7c0": 6517,
    "7ec": 6518,
    "b33": 6519,
    "17f4": 6520,
    "\u25810x43400": 6521,
    "386": 6522,
    "dfc": 6523,
    "\u2581ps": 6524,
    "\u25810x5b5": 6525,
    "230": 6526,
    "\u25810x478": 6527,
    "\u25810x4b40": 6528,
    "f10": 6529,
    "\u25810x41d7": 6530,
    "235": 6531,
    "\u25810x4af4": 6532,
    "\u25810x4e5c": 6533,
    "\u25810x461518": 6534,
    "\u25810x1211c4c": 6535,
    "ae00": 6536,
    "eresource": 6537,
    "\u2581logme": 6538,
    "5cc": 6539,
    "e94": 6540,
    "hfd": 6541,
    "\u2581riche": 6542,
    "nexplorer": 6543,
    "\u25810x486d18": 6544,
    "\u25810x801000": 6545,
    "\u25810x1211e0c": 6546,
    "e4b8": 6547,
    "\u25810x1211f68": 6548,
    "image": 6549,
    "7f4": 6550,
    "b74": 6551,
    "\u25810x7f1": 6552,
    "a39": 6553,
    "b46": 6554,
    "gen": 6555,
    "\u25810x6b6": 6556,
    "\u2581setupapi": 6557,
    "\u25810xfeee018": 6558,
    "zone": 6559,
    "406": 6560,
    "eb2": 6561,
    "fa6": 6562,
    "\u2581freeresource": 6563,
    "578": 6564,
    "\u25810x42fc20": 6565,
    "\u25810x800000": 6566,
    "f76": 6567,
    "f24": 6568,
    "\u2581el": 6569,
    "\u2581la": 6570,
    "\u25810x42b7": 6571,
    "\u25810xa020": 6572,
    "\u25810x423db0": 6573,
    "bd6": 6574,
    "\u25810xe9": 6575,
    "\u25810x4902e0": 6576,
    "5f8": 6577,
    "river": 6578,
    "\u25810x496790": 6579,
    "bdc": 6580,
    "idto": 6581,
    "\u25810x423df0": 6582,
    "\u25810x7eaba8": 6583,
    "eb4": 6584,
    "\u2581regdelete": 6585,
    "919": 6586,
    "\u25810x423e20": 6587,
    "\u25810x599b5c": 6588,
    "\u25810x599c24": 6589,
    "\u25810x59bf3c": 6590,
    "\u25810x59bf7c": 6591,
    "\u25810x59c120": 6592,
    "\u25810x59c138": 6593,
    "5a8": 6594,
    "ab6": 6595,
    "ee2": 6596,
    "\u25810x427": 6597,
    "zoneinformation": 6598,
    "\u2581getwindowsdirectoryw": 6599,
    "5f0": 6600,
    "a3c": 6601,
    "\u25810x7f9": 6602,
    "b86": 6603,
    "\u25810x4255ef": 6604,
    "\u25810x4255f0": 6605,
    "\u25810x567678": 6606,
    "\u2581gettimezoneinformation": 6607,
    "71f": 6608,
    "ab7": 6609,
    "d0000": 6610,
    "\u25810x4011": 6611,
    "sys": 6612,
    "\u2581ro": 6613,
    "\u2581psapi": 6614,
    "\u25810x4137": 6615,
    "\u25810x7dc9": 6616,
    "\u25810x42e0a4": 6617,
    "\u2581systemti": 6618,
    "\u25810x120ff7c": 6619,
    "\u25810x1210ec0": 6620,
    "7dc": 6621,
    "fic": 6622,
    "0068": 6623,
    "\u25810x8e90": 6624,
    "\u25810x435018": 6625,
    "\u25810xfeedf000": 6626,
    "2fc": 6627,
    "3de": 6628,
    "\u2581print": 6629,
    "\u25810x407b": 6630,
    "\u25810x7ddd": 6631,
    "\u25810x419c54": 6632,
    "\u25810x435002": 6633,
    "\u25810x435004": 6634,
    "\u25810x435006": 6635,
    "\u25810x435008": 6636,
    "\u25810x43500a": 6637,
    "\u25810x43500c": 6638,
    "\u25810x43500e": 6639,
    "\u25810x435010": 6640,
    "29c": 6641,
    "d32": 6642,
    "e81": 6643,
    "\u25810x44c2": 6644,
    "\u25810x419c53": 6645,
    "\u25810x435014": 6646,
    "224": 6647,
    "f2c": 6648,
    "\u25810x435016": 6649,
    "ad6": 6650,
    "eb6": 6651,
    "ee08": 6652,
    "3e5": 6653,
    "ame32": 6654,
    "\u2581call": 6655,
    "\u2581mame32": 6656,
    "\u25810x42398": 6657,
    "\u2581freeware": 6658,
    "7f8": 6659,
    "96c": 6660,
    "fd5": 6661,
    "33c4": 6662,
    "\u2581apphelp": 6663,
    "\u2581iswindow": 6664,
    "bcat": 6665,
    "\u25810x4188": 6666,
    "\u25810x509e4": 6667,
    "v1": 6668,
    "\u25810x8e50": 6669,
    "\u2581propsys": 6670,
    "e74": 6671,
    "bcatq": 6672,
    "\u2581clbcatq": 6673,
    "119": 6674,
    "2c0": 6675,
    "543": 6676,
    "cue": 6677,
    "\u25810xe4": 6678,
    "rescue": 6679,
    "\u25810xc417f4": 6680,
    "\u25810x42d498": 6681,
    "inrescue": 6682,
    "\u25810x417c10": 6683,
    "\u2581logmeinrescue": 6684,
    "\u25810x6a": 6685,
    "\u25810xdc": 6686,
    "\u25810xa3a7d8": 6687,
    "60000": 6688,
    "\u25810x422750": 6689,
    "\u25810x423850": 6690,
    "\u25810x423880": 6691,
    "\u2581logmeinrescueapplet": 6692,
    "\u2581registerwindowmessagea": 6693,
    "b12": 6694,
    "\u258135": 6695,
    "\u25810x435012": 6696,
    "d55": 6697,
    "e05": 6698,
    "tive": 6699,
    "2f0": 6700,
    "f828": 6701,
    "\u25810xd4": 6702,
    "\u25810x7c000": 6703,
    "\u25810x417be0": 6704,
    "\u2581getconsolewindow": 6705,
    "9cc": 6706,
    "ce6": 6707,
    "\u258136": 6708,
    "\u25810x415c": 6709,
    "ht": 6710,
    "\u25810x44f": 6711,
    "\u2581getmodulebas": 6712,
    "program": 6713,
    "b39": 6714,
    "\u2581cp": 6715,
    "\u25810xff92": 6716,
    "aae": 6717,
    "55c8": 6718,
    "\u25810x3f29": 6719,
    "\u25810x7dcc": 6720,
    "d26": 6721,
    "per": 6722,
    "\u25810x535": 6723,
    "\u25810xffe9": 6724,
    "\u25810xfeee009e": 6725,
    "\u2581getmodulebasenamew": 6726,
    "2cc": 6727,
    "\u25810x4b4": 6728,
    "\u25810x7e20": 6729,
    "ad50": 6730,
    "\u25810xb9": 6731,
    "\u25810x2b4": 6732,
    "\u25810x8cb0": 6733,
    "\u25810xfeee00f0": 6734,
    "bc7": 6735,
    "profil": 6736,
    "\u25810x12000": 6737,
    "\u25810x431f20": 6738,
    "161": 6739,
    "valuea": 6740,
    "\u25810x447": 6741,
    "\u25810x5e9": 6742,
    "\u25810x1211e38": 6743,
    "\u25810x700": 6744,
    "console": 6745,
    "\u25810x4c33": 6746,
    "\u25810x7dd8": 6747,
    "\u25810x3020302": 6748,
    "\u25810xfeee00f5": 6749,
    "buf": 6750,
    "f14": 6751,
    "\u25810x9c50": 6752,
    "\u2581cocreateinstance": 6753,
    "df4": 6754,
    "\u25810x7dd1": 6755,
    "\u25810x4d0": 6756,
    "\u25810x4040": 6757,
    "\u25810x7dcd": 6758,
    "\u25810x7dd4": 6759,
    "\u25810xfeee00a0": 6760,
    "6e0": 6761,
    "9a8": 6762,
    "b24": 6763,
    "\u25810x7ddc": 6764,
    "\u25810x4c32d8": 6765,
    "\u25810x4c32f0": 6766,
    "319": 6767,
    "\u25810x41a9": 6768,
    "\u2581onexit": 6769,
    "f95": 6770,
    "\u25810x1b5": 6771,
    "\u25810x53d": 6772,
    "\u25810xcccc": 6773,
    "\u2581enable": 6774,
    "540": 6775,
    "606": 6776,
    "ae4": 6777,
    "\u25810x7100": 6778,
    "\u25810x42ce08": 6779,
    "d19": 6780,
    "e64": 6781,
    "\u25810x169b8": 6782,
    "\u25810x47a00": 6783,
    "\u25810x181b48": 6784,
    "\u25810x7dd5": 6785,
    "b16": 6786,
    "ed2": 6787,
    "\u25810x40d9": 6788,
    "\u25810x46a1": 6789,
    "b42": 6790,
    "\u25810x40a6": 6791,
    "mt": 6792,
    "168": 6793,
    "\u258103t": 6794,
    "\u25810x43f": 6795,
    "\u25810x7730": 6796,
    "\u25810x9b30": 6797,
    "\u25810x408c8d": 6798,
    "\u25810x408c8e": 6799,
    "\u25810x4254ef": 6800,
    "\u25810x4254f0": 6801,
    "\u25810x1211cb8": 6802,
    "\u2581getfileattributesa": 6803,
    "356": 6804,
    "3ff": 6805,
    "691": 6806,
    "b9c": 6807,
    "7675": 6808,
    "\u2581fast": 6809,
    "\u25810x8a44": 6810,
    "\u2581lstrcmpia": 6811,
    "2a4": 6812,
    "ad9": 6813,
    "e9c": 6814,
    "\u2581line": 6815,
    "\u25810x4012": 6816,
    "\u25810x1211eac": 6817,
    "erun": 6818,
    "trect": 6819,
    "\u25810x9ab0": 6820,
    "\u2581cryptget": 6821,
    "3fc": 6822,
    "586": 6823,
    "e70": 6824,
    "\u25810x115": 6825,
    "valuew": 6826,
    "\u25810x7f5": 6827,
    "\u25810x4106": 6828,
    "\u25810x508d0": 6829,
    "atoma": 6830,
    "\u25810x44c": 6831,
    "\u25810x458": 6832,
    "\u25810x9110": 6833,
    "\u25810x509a8": 6834,
    "\u25810x3f75e88": 6835,
    "\u25810x366": 6836,
    "onsolea": 6837,
    "\u25810x43501a": 6838,
    "\u2581writeconsolea": 6839,
    "propw": 6840,
    "\u25810x41cc54": 6841,
    "\u25810x120e6a0": 6842,
    "\u25810x120f8a6": 6843,
    "28c": 6844,
    "620": 6845,
    "\u25810x40e9": 6846,
    "\u25810xfeee019": 6847,
    "\u2581680": 6848,
    "300b": 6849,
    "\u25810x99f0": 6850,
    "\u25810x120f3": 6851,
    "\u25810x181b98": 6852,
    "\u2581cryptdestroy": 6853,
    "d14": 6854,
    "\u2581hi": 6855,
    "\u25810x677": 6856,
    "\u25810x77000": 6857,
    "\u25810x504": 6858,
    "\u2581launch": 6859,
    "\u25810x1211ec0": 6860,
    "b56": 6861,
    "bae": 6862,
    "\u25810x6b9c": 6863,
    "gn": 6864,
    "a33": 6865,
    "\u25810x7c90": 6866,
    "2a8": 6867,
    "\u2581stri": 6868,
    "\u25810x180c": 6869,
    "\u25810x40f4": 6870,
    "\u25810x41f9": 6871,
    "\u2581localrealloc": 6872,
    "777": 6873,
    "eac": 6874,
    "aac0": 6875,
    "\u25810x4c9778": 6876,
    "\u2581getmenuitem": 6877,
    "processmemory": 6878,
    "1ac": 6879,
    "fde": 6880,
    "\u25810x434388": 6881,
    "53a0": 6882,
    "\u25810xffd8": 6883,
    "\u25810x563a20": 6884,
    "\u25810x1210550": 6885,
    "5b4": 6886,
    "686": 6887,
    "0048": 6888,
    "fami": 6889,
    "blead": 6890,
    "\u2581ismb": 6891,
    "famili": 6892,
    "\u25810x9630": 6893,
    "\u25810x435228": 6894,
    "\u25810x435240": 6895,
    "\u2581ismbblead": 6896,
    "fn": 6897,
    "24c": 6898,
    "510": 6899,
    "f64": 6900,
    "ill": 6901,
    "\u25810xa050": 6902,
    "548": 6903,
    "\u2581pa": 6904,
    "\u25810x4ed": 6905,
    "\u25810x42eab0": 6906,
    "\u25810xa3a7e0": 6907,
    "134": 6908,
    "186": 6909,
    "a61": 6910,
    "a7d": 6911,
    "ender": 6912,
    "\u25810x474": 6913,
    "\u25810x40e7": 6914,
    "a9b": 6915,
    "\u25810x3f28": 6916,
    "fe4": 6917,
    "\u25810x71a1": 6918,
    "\u25810x43501c": 6919,
    "\u25810x43501e": 6920,
    "\u25810x435020": 6921,
    "\u25810x435022": 6922,
    "\u25810x435028": 6923,
    "\u25810x43502a": 6924,
    "\u25810x43502c": 6925,
    "\u25810x43502e": 6926,
    "\u25810x435030": 6927,
    "\u2581getthreadtimes": 6928,
    "dbd": 6929,
    "\u2581vf": 6930,
    "\u25810x636": 6931,
    "\u2581mso97": 6932,
    "911": 6933,
    "a43": 6934,
    "f39": 6935,
    "uti": 6936,
    "0074": 6937,
    "e0000": 6938,
    "\u25810x41d1e0": 6939,
    "\u25810x46b388": 6940,
    "\u25810xfffffffe": 6941,
    "af3": 6942,
    "sions": 6943,
    "\u25810xde": 6944,
    "\u25810xe6": 6945,
    "\u25810x40c5": 6946,
    "\u25810x1211a44": 6947,
    "\u2581shgetfolderw": 6948,
    "a9a": 6949,
    "\u25810x112": 6950,
    "\u25810x422a": 6951,
    "\u2581regenum": 6952,
    "\u2581getdrivetypea": 6953,
    "b26": 6954,
    "e90": 6955,
    "\u25810x422530": 6956,
    "\u25810x423e10": 6957,
    "f54": 6958,
    "\u25810x513d28": 6959,
    "\u2581setenvironmentvariablew": 6960,
    "\u25810xec": 6961,
    "\u25810x9890": 6962,
    "\u25810x1211800": 6963,
    "\u25810x1211f94": 6964,
    "225": 6965,
    "e2c": 6966,
    "\u2581xz": 6967,
    "006c": 6968,
    "icen": 6969,
    "\u25810x4375c8": 6970,
    "\u25810xfeedf0": 6971,
    "\u25810x1210e70": 6972,
    "5d0": 6973,
    "b64": 6974,
    "\u25810xa950": 6975,
    "\u25810x44c250": 6976,
    "f49": 6977,
    "\u25810x423c": 6978,
    "\u25810x80c488": 6979,
    "\u25810x1211c60": 6980,
    "d12": 6981,
    "\u25810x7fc": 6982,
    "5bc": 6983,
    "\u25810xd2": 6984,
    "\u25810xfeee009f": 6985,
    "imetofiletime": 6986,
    "263": 6987,
    "3008": 6988,
    "\u25810x47d0": 6989,
    "\u25810x8a45": 6990,
    "00000000": 6991,
    "\u25810x422500": 6992,
    "\u25810x4338a8": 6993,
    "\u25810x1211ddc": 6994,
    "\u25810x4220": 6995,
    "\u25810x40a5b8": 6996,
    "\u25810x1211f14": 6997,
    "orn": 6998,
    "running": 6999,
    "\u25810x40a5b0": 7000,
    "\u25810x42c020": 7001,
    "\u25810x1210e34": 7002,
    "\u25810x42c024": 7003,
    "\u25810x42c028": 7004,
    "\u2581doyouwantto": 7005,
    "274": 7006,
    "da0": 7007,
    "dd0": 7008,
    "false": 7009,
    "\u25810xa9d0": 7010,
    "\u25810x40a5b4": 7011,
    "\u25810xbf": 7012,
    "630": 7013,
    "9f8": 7014,
    "c43": 7015,
    "ea8": 7016,
    "row": 7017,
    "\u25810x80b": 7018,
    "filespec": 7019,
    "\u25810x40a5ae": 7020,
    "\u25810x40a5b2": 7021,
    "\u25810x40a5b6": 7022,
    "\u25810x40a5ba": 7023,
    "1d4": 7024,
    "a65": 7025,
    "d99": 7026,
    "\u25810x42d420": 7027,
    "\u25810x120e688": 7028,
    "\u2581removefilespec": 7029,
    "true": 7030,
    "thash": 7031,
    "allyour": 7032,
    "onexist": 7033,
    "zeroorn": 7034,
    "\u25810x2840": 7035,
    "\u25810x41d6": 7036,
    "\u25810x4356": 7037,
    "\u2581istrue": 7038,
    "\u2581isexist": 7039,
    "\u2581isfalse": 7040,
    "\u25810x4355c8": 7041,
    "\u25810x1211edc": 7042,
    "\u2581iszeroorn": 7043,
    "\u2581openanexplorer": 7044,
    "\u2581iszeroornonexist": 7045,
    "905": 7046,
    "eta": 7047,
    "\u25810x4c50": 7048,
    "\u25810x181c88": 7049,
    "1f8": 7050,
    "fe9": 7051,
    "atomw": 7052,
    "\u25810x4a50": 7053,
    "\u25810xffdc": 7054,
    "thashdata": 7055,
    "\u25810x41af40": 7056,
    "createhash": 7057,
    "b47": 7058,
    "\u25810x4b8": 7059,
    "\u25810x40a4": 7060,
    "\u25810x4b00": 7061,
    "\u25810x181c60": 7062,
    "\u25810x4189e8": 7063,
    "frominternet": 7064,
    "d94": 7065,
    "\u25810x4177b0": 7066,
    "\u25810x41ae00": 7067,
    "3c6": 7068,
    "486": 7069,
    "888": 7070,
    "fa5": 7071,
    "codeptr": 7072,
    "\u25810x41ff": 7073,
    "\u25810x40a020": 7074,
    "\u25810x4111d0": 7075,
    "\u25810x41ad50": 7076,
    "\u25810x42b070": 7077,
    "\u25810x42eaa6": 7078,
    "\u25810x42eaba": 7079,
    "\u25810x42eac4": 7080,
    "\u2581isbadcodeptr": 7081,
    "\u2581removefilespecw": 7082,
    "\u25810x40d5": 7083,
    "\u25810x80ba": 7084,
    "\u25810x418a18": 7085,
    "e49": 7086,
    "amed": 7087,
    "\u25810x406c": 7088,
    "\u25810x169be": 7089,
    "\u25810x120fd64": 7090,
    "\u25810x1211e4c": 7091,
    "0060": 7092,
    "\u25810x6f00": 7093,
    "\u25810x409c2c": 7094,
    "\u25810x439458": 7095,
    "\u2581mfn": 7096,
    "\u2581elvis": 7097,
    "\u25810x4095": 7098,
    "\u25810xffea": 7099,
    "\u2581gender": 7100,
    "\u25810x120e100": 7101,
    "\u2581crypthashdata": 7102,
    "\u2581cryptcreatehash": 7103,
    "\u2581shgetspecialfolder": 7104,
    "389": 7105,
    "7de": 7106,
    "ongle": 7107,
    "familiar": 7108,
    "\u25810x169bd": 7109,
    "\u25810x1211c94": 7110,
    "\u2581formality": 7111,
    "\u25810x76500000": 7112,
    "\u2581formalfamiliar": 7113,
    "ff5": 7114,
    "\u25810x4370": 7115,
    "\u25813d": 7116,
    "\u25810x4491": 7117,
    "\u25810x4f5320": 7118,
    "\u2581registerclipboardformata": 7119,
    "3f4": 7120,
    "641": 7121,
    "ual": 7122,
    "ocus": 7123,
    "dialog": 7124,
    "\u2581memmove": 7125,
    "\u2581cryptdestroyhash": 7126,
    "2bc": 7127,
    "df9": 7128,
    "\u25810x51a0": 7129,
    "775": 7130,
    "9b6": 7131,
    "a14": 7132,
    "\u25810x7f80": 7133,
    "\u25810x2840284": 7134,
    "\u2581cm": 7135,
    "\u25810x85c0": 7136,
    "pc": 7137,
    "754": 7138,
    "menuitem": 7139,
    "hashparam": 7140,
    "\u25810x1211e88": 7141,
    "964": 7142,
    "9b8": 7143,
    "a46": 7144,
    "bf6": 7145,
    "dee": 7146,
    "\u25810x132": 7147,
    "\u25810x154": 7148,
    "\u25810x7b7": 7149,
    "15f": 7150,
    "695": 7151,
    "ower": 7152,
    "\u25810x431a": 7153,
    "\u25810x4912d0": 7154,
    "234": 7155,
    "b91": 7156,
    "\u25810x42a670": 7157,
    "7c58": 7158,
    "\u25810x6f6": 7159,
    "\u25810x2280": 7160,
    "\u2581please": 7161,
    "\u25810x1211ba8": 7162,
    "\u2581cryptgethashparam": 7163,
    "b66": 7164,
    "focus": 7165,
    "ted": 7166,
    "\u25810x403": 7167,
    "visible": 7168,
    "\u25810x40f5": 7169,
    "metofiletime": 7170,
    "\u2581systemtimetofiletime": 7171,
    "\u25810x6b00": 7172,
    "ab4": 7173,
    "b9e": 7174,
    "\u2581ab": 7175,
    "\u25810x9050": 7176,
    "2de": 7177,
    "uld": 7178,
    "\u25810x8770": 7179,
    "\u25810x6d006c": 7180,
    "\u25810x169b7f4": 7181,
    "\u2581globalmemorystatusex": 7182,
    "\u25810xda": 7183,
    "\u2581cryptacquirecontexta": 7184,
    "cc5": 7185,
    "\u2581ext": 7186,
    "\u25810xa980": 7187,
    "\u2581strcpy": 7188,
    "\u25810x169bca4": 7189,
    "\u2581dialogbox": 7190,
    "121": 7191,
    "a96": 7192,
    "e55": 7193,
    "\u25810x3810": 7194,
    "\u25810x4156": 7195,
    "\u25810xa030": 7196,
    "\u25810xa290": 7197,
    "\u2581getfull": 7198,
    "\u25810x6f006e": 7199,
    "\u25810x710070": 7200,
    "\u25810x770076": 7201,
    "\u25810x790078": 7202,
    "ba1": 7203,
    "\u25810x9d30": 7204,
    "\u25810x455480": 7205,
    "\u25810x690068": 7206,
    "\u25810x6b006a": 7207,
    "\u25810x714d98": 7208,
    "\u25810x730072": 7209,
    "\u25810x750074": 7210,
    "\u25810x7b007a": 7211,
    "\u25810x7d007c": 7212,
    "\u25810x7f007e": 7213,
    "145": 7214,
    "\u25810xbcf2": 7215,
    "ere": 7216,
    "\u2581bo": 7217,
    "\u25810x1211ec4": 7218,
    "006": 7219,
    "e09": 7220,
    "\u25810xae20": 7221,
    "\u25810x419970": 7222,
    "\u25810x4bc298": 7223,
    "\u25810x3f75f7c": 7224,
    "\u25810xfeee00a1": 7225,
    "226": 7226,
    "a37": 7227,
    "df1": 7228,
    "\u2581this": 7229,
    "\u25810x420fe8": 7230,
    "7540": 7231,
    "\u25810x4a8": 7232,
    "\u25810x4f4": 7233,
    "lientrect": 7234,
    "\u2581getclientrect": 7235,
    "307": 7236,
    "9ac": 7237,
    "dio": 7238,
    "f06": 7239,
    "\u25810x405d": 7240,
    "\u25810x4195": 7241,
    "\u25810x9028": 7242,
    "\u25810xa3a2": 7243,
    "2b7": 7244,
    "\u25810x41a9f0": 7245,
    "\u25810x455468": 7246,
    "\u25810x4f6230": 7247,
    "\u25810xfeee00a2": 7248,
    "f47": 7249,
    "fox": 7250,
    "6564": 7251,
    "\u2581getexit": 7252,
    "windowshook": 7253,
    "\u25810x5ab": 7254,
    "3dc": 7255,
    "3f3": 7256,
    "db1": 7257,
    "27d5": 7258,
    "\u25810x4529": 7259,
    "\u25810x2357b": 7260,
    "\u25810x42559f": 7261,
    "\u25810x4255a0": 7262,
    "\u25810x3010301": 7263,
    "\u2581application": 7264,
    "d81": 7265,
    "1cd8": 7266,
    "\u25810xf4": 7267,
    "lu": 7268,
    "a56": 7269,
    "coll": 7270,
    "fileex": 7271,
    "\u2581shgetfileinfow": 7272,
    "ah": 7273,
    "3ae": 7274,
    "\u25810x5188": 7275,
    "79c": 7276,
    "b7e": 7277,
    "710": 7278,
    "f3a": 7279,
    "185": 7280,
    "e06": 7281,
    "\u2581a7": 7282,
    "\u2581mb": 7283,
    "\u25810x350": 7284,
    "\u25810x6b4": 7285,
    "\u25810x1210d90": 7286,
    "\u25810x77000723": 7287,
    "23d": 7288,
    "\u25810x9cf0": 7289,
    "\u25810x3f75f84": 7290,
    "9a0": 7291,
    "\u2581getsid": 7292,
    "installed": 7293,
    "77c": 7294,
    "efc": 7295,
    "\u25810x970": 7296,
    "\u25810x40b5": 7297,
    "\u25810x4aac": 7298,
    "\u2581winmain": 7299,
    "\u25810x3f75f8c": 7300,
    "ki": 7301,
    "e60": 7302,
    "f96": 7303,
    "\u25810x6c000": 7304,
    "1b5": 7305,
    "prog": 7306,
    "\u2581stdio": 7307,
    "bb9": 7308,
    "f75": 7309,
    "\u2581getdl": 7310,
    "\u2581appdata": 7311,
    "\u25810x169b834": 7312,
    "\u25810xfeee00a3": 7313,
    "a95": 7314,
    "b76": 7315,
    "\u25810x1211788": 7316,
    "\u25810x57c": 7317,
    "\u25810x59c": 7318,
    "qstring": 7319,
    "\u25810x92e0": 7320,
    "\u2581shgetspecialfoldera": 7321,
    "232": 7322,
    "395": 7323,
    "\u25810x1211d2c": 7324,
    "\u25810xfeee00a4": 7325,
    "\u25810xfeee00a5": 7326,
    "3f2": 7327,
    "\u258150": 7328,
    "thority": 7329,
    "\u25810x40a92e": 7330,
    "\u25810x40a930": 7331,
    "\u25810x40a932": 7332,
    "\u25810x40a934": 7333,
    "\u25810x40a936": 7334,
    "\u25810x40a938": 7335,
    "\u25810x40a93a": 7336,
    "\u25810x40b888": 7337,
    "\u25810x4208a8": 7338,
    "\u25810x4208d8": 7339,
    "005": 7340,
    "\u2581mei": 7341,
    "pass2": 7342,
    "\u25810x4229c1": 7343,
    "\u2581meipass2": 7344,
    "1c8": 7345,
    "7e7": 7346,
    "\u25810xed": 7347,
    "767574": 7348,
    "\u25810x4420": 7349,
    "\u25810x422790": 7350,
    "\u25810x77767574": 7351,
    "a7978": 7352,
    "128": 7353,
    "138": 7354,
    "b1c": 7355,
    "ee9": 7356,
    "\u25810x40c7": 7357,
    "\u25810x410acd": 7358,
    "\u25810x410ace": 7359,
    "\u25810x41e208": 7360,
    "\u25810x7b7a7978": 7361,
    "1d5": 7362,
    "2f6": 7363,
    "33e": 7364,
    "38a": 7365,
    "804": 7366,
    "da5": 7367,
    "ture": 7368,
    "\u25810xfeee00a6": 7369,
    "670": 7370,
    "\u25810x6ce": 7371,
    "\u25810x40af": 7372,
    "\u25810x424530": 7373,
    "685": 7374,
    "e98": 7375,
    "22c0": 7376,
    "session": 7377,
    "\u25810x4154": 7378,
    "\u25810x73a0": 7379,
    "\u25810xd27d5": 7380,
    "\u25810x424500": 7381,
    "progid": 7382,
    "\u25810x152": 7383,
    "\u25810x537": 7384,
    "\u25810x1733c4": 7385,
    "\u25810x4315f8": 7386,
    "\u25810x452868": 7387,
    "\u2581clsidfromprogid": 7388,
    "582": 7389,
    "\u2581std": 7390,
    "\u25810x42b778": 7391,
    "\u25810xfeee016": 7392,
    "\u2581clsidfromstring": 7393,
    "vec": 7394,
    "26160": 7395,
    "\u25810x42a4": 7396,
    "\u25810x4bcc": 7397,
    "licences": 7398,
    "\u25810x41b9f0": 7399,
    "\u25810x429260": 7400,
    "618": 7401,
    "a1c": 7402,
    "dd5": 7403,
    "\u25810x4014": 7404,
    "\u25810x6700": 7405,
    "\u25810xb4ec": 7406,
    "\u25810x1211684": 7407,
    "\u25810x1211c3c": 7408,
    "ee98": 7409,
    "\u25810x41ab": 7410,
    "\u25810x7372": 7411,
    "2d9": 7412,
    "d35": 7413,
    "\u2581cal": 7414,
    "\u25810x4603": 7415,
    "\u25810x41ddc0": 7416,
    "\u25810x42cdf8": 7417,
    "\u25810x4bc328": 7418,
    "\u25810x4bc358": 7419,
    "\u25810x63626160": 7420,
    "\u25810x73727170": 7421,
    "hd": 7422,
    "170": 7423,
    "6f0": 7424,
    "3da80": 7425,
    "\u25810x6766": 7426,
    "\u25810x41dda8": 7427,
    "\u25810x41ddf0": 7428,
    "\u25810x1211af0": 7429,
    "385": 7430,
    "beb": 7431,
    "0064": 7432,
    "\u25810x41be": 7433,
    "\u25810x41de38": 7434,
    "\u25810x41de68": 7435,
    "\u25810x42d480": 7436,
    "\u25810x1211e90": 7437,
    "\u2581fileexistsa": 7438,
    "bau": 7439,
    "b008": 7440,
    "\u25810x41de98": 7441,
    "\u25810x41deb0": 7442,
    "\u25810x67666564": 7443,
    "aab": 7444,
    "fa1": 7445,
    "subau": 7446,
    "\u25810x41dec8": 7447,
    "\u25810x42d468": 7448,
    "\u2581globaladd": 7449,
    "subauthority": 7450,
    "\u2581getsidsubauthority": 7451,
    "a6968": 7452,
    "\u25810x42d438": 7453,
    "\u25810x4548": 7454,
    "\u2581olerun": 7455,
    "vieworgex": 7456,
    "\u25810x42d450": 7457,
    "\u25810x1210bd7": 7458,
    "\u25810x12116c0": 7459,
    "\u25810x1211c28": 7460,
    "\u25810x6b6a6968": 7461,
    "154": 7462,
    "27c": 7463,
    "\u2581afx": 7464,
    "ectex": 7465,
    "\u25810x1e0": 7466,
    "\u2581getwindowdc": 7467,
    "\u2581cryptacquirecontextw": 7468,
    "295": 7469,
    "ba6": 7470,
    "ache": 7471,
    "\u25810x7fe": 7472,
    "\u25810xfeee00a7": 7473,
    "e7d7c": 7474,
    "\u25810xfeee00a8": 7475,
    "e6d6c": 7476,
    "\u25810x32000": 7477,
    "\u25810x429920": 7478,
    "1e0": 7479,
    "3ba": 7480,
    "b54": 7481,
    "\u25810x8ee0": 7482,
    "\u25810x433630": 7483,
    "\u25810x6f6e6d6c": 7484,
    "ups": 7485,
    "\u25810x4328": 7486,
    "\u25810x435408": 7487,
    "\u25810x1211180": 7488,
    "\u2581charprevw": 7489,
    "\u25810x7f7e7d7c": 7490,
    "164": 7491,
    "a66": 7492,
    "ce9": 7493,
    "3cf8": 7494,
    "ares": 7495,
    "\u25810xffeb": 7496,
    "\u25810x41db74": 7497,
    "\u25810x44f850": 7498,
    "\u25810xfeee00a9": 7499,
    "\u2581formatmessagew": 7500,
    "7c7": 7501,
    "\u25810x584": 7502,
    "\u25810x40b9": 7503,
    "\u25810x4127": 7504,
    "\u25810x40a540": 7505,
    "\u25810x41db9c": 7506,
    "\u25810x1211e64": 7507,
    "\u25810xfeee00bc": 7508,
    "\u25810xd5": 7509,
    "\u25810x2b2": 7510,
    "\u25810x4155a0": 7511,
    "3da": 7512,
    "bb7": 7513,
    "e78": 7514,
    "\u25810x405d54": 7515,
    "\u25810x42168c": 7516,
    "\u25810x44f868": 7517,
    "e1c": 7518,
    "ptr": 7519,
    "\u2581fa": 7520,
    "raphi": 7521,
    "\u25810x8d2": 7522,
    "\u25810x42168b": 7523,
    "\u25810x430fec": 7524,
    "\u25810x44f8c8": 7525,
    "\u25810xfeee00aa": 7526,
    "\u25810xfeee00ae": 7527,
    "\u25810xc2": 7528,
    "\u25810x108": 7529,
    "\u25810x238": 7530,
    "\u25810x6a7": 7531,
    "\u25810x40b0": 7532,
    "\u25810x44f880": 7533,
    "\u25810x44f898": 7534,
    "\u25810x44f8b0": 7535,
    "\u25810x1211bf0": 7536,
    "\u25810xfeee017": 7537,
    "\u25810xfeee00ac": 7538,
    "635": 7539,
    "e34": 7540,
    "\u2581fastf": 7541,
    "\u25810x40ad": 7542,
    "\u25810x40a544": 7543,
    "\u25810x430db0": 7544,
    "\u25810x44f8f8": 7545,
    "\u25810x44f940": 7546,
    "\u25810x44f958": 7547,
    "\u25810x44f970": 7548,
    "\u25810x44f988": 7549,
    "\u25810xfeee00ab": 7550,
    "6c4": 7551,
    "\u25810x4222": 7552,
    "\u25810x9980": 7553,
    "\u25810x40a53a": 7554,
    "\u25810x40a53c": 7555,
    "\u25810x40a53e": 7556,
    "\u25810x40a542": 7557,
    "\u25810x1211c44": 7558,
    "\u25810xfeee00ad": 7559,
    "\u25810x4a5c": 7560,
    "\u25810x6300": 7561,
    "\u25810x40a546": 7562,
    "\u25810x41e93e": 7563,
    "\u25810x41ebfa": 7564,
    "\u25810x41ebfb": 7565,
    "7b7": 7566,
    "eb0": 7567,
    "f45": 7568,
    "\u2581cs": 7569,
    "\u25810x4034": 7570,
    "\u25810x8026": 7571,
    "\u2581winapp": 7572,
    "\u25810x40a2d5": 7573,
    "765": 7574,
    "\u25810x47b1": 7575,
    "\u2581fastfail": 7576,
    "e1f": 7577,
    "\u2581om": 7578,
    "52e8": 7579,
    "random": 7580,
    "\u25810x7e50": 7581,
    "\u25810x630062": 7582,
    "\u25810x650064": 7583,
    "\u25810x670066": 7584,
    "746": 7585,
    "760": 7586,
    "bca": 7587,
    "\u25810x5619": 7588,
    "\u25810x418210": 7589,
    "\u25810x610060": 7590,
    "\u25810x7ee000": 7591,
    "146": 7592,
    "f94": 7593,
    "90000": 7594,
    "\u25810x1010": 7595,
    "\u25810x422964": 7596,
    "\u25810x7f8002": 7597,
    "\u25810x11dbef0": 7598,
    "\u25810x11dbf48": 7599,
    "\u2581getsidsubauthoritycount": 7600,
    "219": 7601,
    "tore": 7602,
    "topwindow": 7603,
    "\u25810x4093e4": 7604,
    "\u25810x44e4b8": 7605,
    "\u25810x11dbed4": 7606,
    "\u2581loadbitmap": 7607,
    "9b0": 7608,
    "e5c": 7609,
    "vider": 7610,
    "\u25810xa3a6": 7611,
    "\u25810x6781c0": 7612,
    "\u25810x6781f0": 7613,
    "7d6": 7614,
    "\u25810xf1": 7615,
    "\u25810x7f6": 7616,
    "genrandom": 7617,
    "\u25810x7f8010": 7618,
    "\u2581outputdebugstringw": 7619,
    "1dd": 7620,
    "7ee": 7621,
    "5400": 7622,
    "9da": 7623,
    "\u25810x4444": 7624,
    "\u25810x40f660": 7625,
    "\u25810x4228e1": 7626,
    "\u25810x431068": 7627,
    "\u25810x12117e0": 7628,
    "1f0": 7629,
    "25c": 7630,
    "666": 7631,
    "7e9": 7632,
    "bd5": 7633,
    "c85": 7634,
    "option": 7635,
    "371": 7636,
    "provider": 7637,
    "\u25810x41d838": 7638,
    "\u25810x422980": 7639,
    "\u25810xfeee00af": 7640,
    "lash": 7641,
    "\u25810x464": 7642,
    "\u25810xddf1": 7643,
    "\u25810x41300b": 7644,
    "\u25810x42ce24": 7645,
    "\u25810x436408": 7646,
    "\u25810x1211c5c": 7647,
    "\u2581isvalidsid": 7648,
    "af1": 7649,
    "ce5": 7650,
    "edu": 7651,
    "fb4": 7652,
    "secor": 7653,
    "textou": 7654,
    "\u25810x4033": 7655,
    "\u25810x9640": 7656,
    "\u2581omsecor": 7657,
    "\u25810x423cf0": 7658,
    "\u2581cryptgenrandom": 7659,
    "\u25810x4770": 7660,
    "\u25810xa424": 7661,
    "\u25810x41d6d0": 7662,
    "\u25810x41f828": 7663,
    "\u25810x42286e": 7664,
    "\u25810x42286f": 7665,
    "\u25810x4228e2": 7666,
    "\u25810x422963": 7667,
    "\u25810x42297f": 7668,
    "\u25810x4229c2": 7669,
    "\u25810x4229fa": 7670,
    "\u25810x4229fb": 7671,
    "\u25810x422a0d": 7672,
    "\u25810x422a0e": 7673,
    "\u25810x42329e": 7674,
    "\u25810x42329f": 7675,
    "\u25810x4233fc": 7676,
    "\u25810x423cef": 7677,
    "\u25810xfeee00b0": 7678,
    "\u25810xfeee00b1": 7679,
    "\u2581ts": 7680,
    "\u2581zip": 7681,
    "ualfox": 7682,
    "\u25810x8e70": 7683,
    "controlset": 7684,
    "\u2581currentcontrolset": 7685,
    "645": 7686,
    "f32": 7687,
    "\u2581437": 7688,
    "marta": 7689,
    "\u25810x698": 7690,
    "\u25810x40df": 7691,
    "\u25810x4210": 7692,
    "\u2581ntmarta": 7693,
    "\u25810x41d740": 7694,
    "\u2581movefilew": 7695,
    "\u2581localfilet": 7696,
    "\u2581localfiletimetofiletime": 7697,
    "e75": 7698,
    "\u2581ie": 7699,
    "3e3d": 7700,
    "graphi": 7701,
    "\u25810x41d708": 7702,
    "\u25810x42cdfc": 7703,
    "cod": 7704,
    "\u25810x4060": 7705,
    "\u25810x2d4dd": 7706,
    "\u25810x416bc8": 7707,
    "\u25810x4fecb0": 7708,
    "systemtime": 7709,
    "212": 7710,
    "ebc": 7711,
    "e667": 7712,
    "egis": 7713,
    "\u25810x426d": 7714,
    "\u25810x7e51": 7715,
    "\u2581calloc": 7716,
    "\u25810x120f6": 7717,
    "\u25810x429903": 7718,
    "\u25810x4922c0": 7719,
    "\u25810x4feb14": 7720,
    "\u25810x4feb78": 7721,
    "\u25810x4feb90": 7722,
    "\u2581setcurrentdirectoryw": 7723,
    "774": 7724,
    "aa5": 7725,
    "0050": 7726,
    "fore": 7727,
    "hide": 7728,
    "\u25810x1810": 7729,
    "\u25810x41b910": 7730,
    "\u25810x429902": 7731,
    "\u25810x42990c": 7732,
    "\u25810x42990d": 7733,
    "\u25810x429921": 7734,
    "\u25810x42d360": 7735,
    "\u25810x42d378": 7736,
    "\u25810x4febc0": 7737,
    "\u25810x4fec08": 7738,
    "\u25810x4fec38": 7739,
    "\u25810x4fec50": 7740,
    "\u25810x4fec68": 7741,
    "245": 7742,
    "\u2581oem": 7743,
    "tinue": 7744,
    "already": 7745,
    "\u2581myarg1": 7746,
    "\u25810x42992a": 7747,
    "\u25810x42992b": 7748,
    "\u25810x42d3f0": 7749,
    "\u25810x4fec80": 7750,
    "\u25810x4fec98": 7751,
    "\u2581getsystemwindows": 7752,
    "really": 7753,
    "vebeen": 7754,
    "\u25810x4a84": 7755,
    "\u2581pleasec": 7756,
    "\u25810x416bf8": 7757,
    "\u25810x42d3a8": 7758,
    "\u25810x431e28": 7759,
    "\u25810x4acbc0": 7760,
    "\u25810x1211d3c": 7761,
    "\u25810x1211d50": 7762,
    "\u2581openanexploreron": 7763,
    "tem32": 7764,
    "\u2581stem32": 7765,
    "\u25810x405461": 7766,
    "\u25810xfeee00b3": 7767,
    "\u2581getsystemwindowsdirectoryw": 7768,
    "a31": 7769,
    "d9c": 7770,
    "f1c": 7771,
    "eatom": 7772,
    "apture": 7773,
    "\u2581class": 7774,
    "\u25810x44e9": 7775,
    "deleteatom": 7776,
    "\u25810xfeee00b2": 7777,
    "\u25810xfeee00b4": 7778,
    "\u2581globaldeleteatom": 7779,
    "214": 7780,
    "2c1": 7781,
    "syd": 7782,
    "ahki": 7783,
    "dsgd": 7784,
    "lser": 7785,
    "trace": 7786,
    "whsyd": 7787,
    "\u25810xbb": 7788,
    "\u2581gdsgd": 7789,
    "\u2581boahki": 7790,
    "\u2581unlock": 7791,
    "\u2581boahkilser": 7792,
    "\u2581gdsgdwhsyd": 7793,
    "db7": 7794,
    "\u258120220304": 7795,
    "69d": 7796,
    "\u25810x41c6": 7797,
    "\u25810xfeee00b5": 7798,
    "\u2581dispatchmessagew": 7799,
    "2b5": 7800,
    "d01": 7801,
    "eb5": 7802,
    "our": 7803,
    "\u2581di": 7804,
    "\u2581lmi": 7805,
    "\u2581vie": 7806,
    "\u25810xee": 7807,
    "\u25810x40b1": 7808,
    "\u25810x8028": 7809,
    "addresses": 7810,
    "\u25810x412850": 7811,
    "955": 7812,
    "bf3": 7813,
    "\u25810x44ea": 7814,
    "\u25810x431a50": 7815,
    "\u25810x1211fe4": 7816,
    "\u2581getadaptersaddresses": 7817,
    "\u2581registerclipboardformatw": 7818,
    "bf7": 7819,
    "\u25810x6a09": 7820,
    "\u25810x7dfc": 7821,
    "7f9": 7822,
    "eto": 7823,
    "ails": 7824,
    "\u2581exp": 7825,
    "\u2581evie": 7826,
    "aramet": 7827,
    "\u25810x1210e6f": 7828,
    "\u25810x1210e73": 7829,
    "\u25810x1210e74": 7830,
    "\u25810x1210e77": 7831,
    "\u25810x1210e7b": 7832,
    "335": 7833,
    "b29": 7834,
    "\u2581psc": 7835,
    "\u25810x515": 7836,
    "\u2581youmust": 7837,
    "\u25810xa3a798": 7838,
    "\u25810x1210f66": 7839,
    "\u25810x1210f6a": 7840,
    "\u2581isbadwrite": 7841,
    "\u25817z6": 7842,
    "\u25810x7dfd": 7843,
    "\u25810xfeee00b7": 7844,
    "945": 7845,
    "b15": 7846,
    "\u2581mail": 7847,
    "splash": 7848,
    "graphic": 7849,
    "\u25810x6ba3c8": 7850,
    "\u25810xfeee00b8": 7851,
    "\u2581findwindoww": 7852,
    "3f5": 7853,
    "70f": 7854,
    "\u2581arg": 7855,
    "\u25810xffd5": 7856,
    "\u2581deallocate": 7857,
    "\u2581isbadwriteptr": 7858,
    "3f9": 7859,
    "aa1": 7860,
    "\u25810x169bc9c": 7861,
    "fb5": 7862,
    "3130": 7863,
    "rypto": 7864,
    "\u25810x4780": 7865,
    "\u25810xfeee00b6": 7866,
    "\u25810xfeee00b9": 7867,
    "7c4": 7868,
    "\u25810xffc0": 7869,
    "screenhide": 7870,
    "\u2581aswsplash": 7871,
    "buttoncreated": 7872,
    "\u2581aswsplashscreenhide": 7873,
    "\u2581taskbarbuttoncreated": 7874,
    "3b7": 7875,
    "711": 7876,
    "\u25810x4180": 7877,
    "\u2581msvcr71": 7878,
    "\u25810x42c5a0": 7879,
    "\u25810x42c5b8": 7880,
    "\u25810x439440": 7881,
    "365": 7882,
    "6f8": 7883,
    "baa": 7884,
    "ec5": 7885,
    "rio": 7886,
    "\u2581look": 7887,
    "\u25810x5b2": 7888,
    "\u25810x413972": 7889,
    "\u25810xfeee00bb": 7890,
    "\u2581getsystemdefault": 7891,
    "76c": 7892,
    "a72": 7893,
    "aha": 7894,
    "e89": 7895,
    "rty": 7896,
    "eyrio": 7897,
    "\u2581uhfd": 7898,
    "\u25810x824": 7899,
    "\u2581hiaha": 7900,
    "eyrioere": 7901,
    "\u25810x120ee": 7902,
    "\u2581uhfdrty": 7903,
    "viewextex": 7904,
    "\u25810x42abc0": 7905,
    "\u25810x42ca80": 7906,
    "\u25810x4f5390": 7907,
    "\u25810x4f5400": 7908,
    "\u25810x5003e8": 7909,
    "\u25810x1211e98": 7910,
    "\u2581uhfdrtyeyrioere": 7911,
    "\u2581getprivateprofilestringa": 7912,
    "\u25810x418c": 7913,
    "\u2581lookup": 7914,
    "\u25810x4fea28": 7915,
    "forcadwork": 7916,
    "577": 7917,
    "\u25810x9b50": 7918,
    "\u25810x4373d8": 7919,
    "\u25810x4718f0": 7920,
    "\u25810x4fe2c0": 7921,
    "\u25810x4fe2d8": 7922,
    "\u25810xfeee00ba": 7923,
    "\u2581myarg1myarg2": 7924,
    "c1b": 7925,
    "d15": 7926,
    "da4": 7927,
    "basec": 7928,
    "\u25810x7f3": 7929,
    "\u25810x489d": 7930,
    "\u25810x4fe2f0": 7931,
    "\u25810x4fe308": 7932,
    "\u25810x4fe320": 7933,
    "\u25810x4fe338": 7934,
    "\u25810x4fe350": 7935,
    "\u25810x4fe368": 7936,
    "\u25810x4fea80": 7937,
    "7b5": 7938,
    "draw": 7939,
    "\u2581884": 7940,
    "\u25810x40ae": 7941,
    "\u25810x7e01": 7942,
    "\u25810x42c570": 7943,
    "\u25810x42ca2c": 7944,
    "basecrypto": 7945,
    "providerv1": 7946,
    "basecryptographic": 7947,
    "basecryptographicproviderv1": 7948,
    "\u2581microsoftbasecryptographicproviderv1": 7949,
    "201": 7950,
    "dc4": 7951,
    "\u2581tsl": 7952,
    "0000040": 7953,
    "\u25810x4093d": 7954,
    "\u25810x40935c": 7955,
    "\u25810x4093ec": 7956,
    "\u25810x411218": 7957,
    "\u25810x42ca44": 7958,
    "ef9": 7959,
    "\u25810x444": 7960,
    "\u25810x7e04": 7961,
    "\u25810x42cdd0": 7962,
    "kg": 7963,
    "lete": 7964,
    "\u25810x604": 7965,
    "\u25810x684": 7966,
    "\u25810x42c170": 7967,
    "\u25810x42c1a8": 7968,
    "\u25810x42c1e0": 7969,
    "\u25810xf0000040": 7970,
    "\u25810xfeee00bd": 7971,
    "\u2581createsemaphorea": 7972,
    "fee": 7973,
    "\u2581a7k": 7974,
    "toyour": 7975,
    "\u25810x42db": 7976,
    "\u25810x500448": 7977,
    "\u25810x6a09e667": 7978,
    "\u25810xfeee00be": 7979,
    "\u25810x510": 7980,
    "7d4": 7981,
    "bb5": 7982,
    "ea2": 7983,
    "\u25810x4066": 7984,
    "\u2581session": 7985,
    "\u25810xfeee00bf": 7986,
    "3ce": 7987,
    "\u2581nar": 7988,
    "\u25810x5040": 7989,
    "\u25810x9870": 7990,
    "\u25810x1211368": 7991,
    "d61": 7992,
    "\u25810x232": 7993,
    "\u25810x4966": 7994,
    "\u25810xff87": 7995,
    "\u2581narrow": 7996,
    "\u25810x436378": 7997,
    "\u25810x131aac0": 7998,
    "\u25810xfeee00c0": 7999,
    "ea4": 8000,
    "\u25810x4151": 8001,
    "\u25810x3f22a0": 8002,
    "\u25810x42e0c0": 8003,
    "d37": 8004,
    "ebd": 8005,
    "\u25810x40c4": 8006,
    "\u25810x427520": 8007,
    "\u25810x1210f64": 8008,
    "\u25810xfeee00c1": 8009,
    "\u2581globalrealloc": 8010,
    "3b2": 8011,
    "756": 8012,
    "e3d": 8013,
    "drl66": 8014,
    "\u25810x7dc": 8015,
    "\u25810x4235": 8016,
    "\u25810x4640": 8017,
    "\u25810x42751f": 8018,
    "\u2581tsldrl66": 8019,
    "\u25810xfeee00c2": 8020,
    "712": 8021,
    "\u25810x7e05": 8022,
    "\u25810x8e60": 8023,
    "b32": 8024,
    "b37": 8025,
    "\u25810x532": 8026,
    "\u25810x1814": 8027,
    "\u25810x410b20": 8028,
    "\u25810x1010101": 8029,
    "\u25810xfeee00d7": 8030,
    "\u2581filetimetosystemtime": 8031,
    "\u25810x42e658": 8032,
    "\u25810x1211268": 8033,
    "\u25810xfeee00c3": 8034,
    "db4": 8035,
    "ddc": 8036,
    "eaa": 8037,
    "ethe": 8038,
    "\u25810xc9": 8039,
    "\u25810x40b6": 8040,
    "\u25810x45d1": 8041,
    "\u25810x1211478": 8042,
    "\u2581globalfind": 8043,
    "a93": 8044,
    "b09": 8045,
    "e11": 8046,
    "ron": 8047,
    "\u25810x7e10": 8048,
    "\u25810x42e520": 8049,
    "\u25810xfeee00c4": 8050,
    "648": 8051,
    "36d8": 8052,
    "\u25810x571": 8053,
    "\u25810x7a40": 8054,
    "\u25810xffee": 8055,
    "\u25810x42e0a8": 8056,
    "3b1": 8057,
    "764": 8058,
    "f99": 8059,
    "ten": 8060,
    "\u25810xdf": 8061,
    "\u2581date": 8062,
    "\u25810xa040": 8063,
    "\u25810x412e39": 8064,
    "\u25810x413f64": 8065,
    "\u25810x413f65": 8066,
    "\u25810x42c990": 8067,
    "\u25810x42ca48": 8068,
    "\u25810x42e538": 8069,
    "\u25810x42e550": 8070,
    "\u25810x42e568": 8071,
    "\u25810x42e580": 8072,
    "\u25810x42e610": 8073,
    "\u25810x42e628": 8074,
    "\u25810x42e640": 8075,
    "126": 8076,
    "943": 8077,
    "ae1": 8078,
    "\u25810x46a": 8079,
    "\u25810x4e39": 8080,
    "\u25810x8f30": 8081,
    "\u25810xd27d571f": 8082,
    "9c6": 8083,
    "ba5": 8084,
    "paramw": 8085,
    "\u25810x8640": 8086,
    "\u25810x120ce": 8087,
    "\u25810x80c440": 8088,
    "5b2": 8089,
    "3534": 8090,
    "\u25810x4720": 8091,
    "\u25810x47ee": 8092,
    "\u25810x4df00": 8093,
    "\u25810x4012db": 8094,
    "\u25810x4259af": 8095,
    "\u25810x4259b0": 8096,
    "\u25810x42cd78": 8097,
    "\u25810x42ce38": 8098,
    "21c": 8099,
    "705": 8100,
    "f55": 8101,
    "hara": 8102,
    "\u25810x1824": 8103,
    "\u2581oemtoc": 8104,
    "\u25810x1211cf0": 8105,
    "\u25810xfeee00c6": 8106,
    "formatw": 8107,
    "\u25810x411c": 8108,
    "\u25810x7d54": 8109,
    "\u25810x482854": 8110,
    "\u25810x482870": 8111,
    "\u25810xfeee00c7": 8112,
    "fd1": 8113,
    "\u258104t": 8114,
    "\u25810x1b1": 8115,
    "\u25810x40e4": 8116,
    "\u25810xfeee00c5": 8117,
    "e18": 8118,
    "e32": 8119,
    "\u25810x7e08": 8120,
    "\u25810x42e090": 8121,
    "\u2581202203032": 8122,
    "0036": 8123,
    "\u25810x40ea": 8124,
    "\u25810x4820": 8125,
    "\u25810x42e0d8": 8126,
    "\u25810xfeee00ca": 8127,
    "13d": 8128,
    "bd2": 8129,
    "bde": 8130,
    "e54": 8131,
    "\u25810xffda": 8132,
    "\u25810xfeee00c8": 8133,
    "e4f": 8134,
    "\u25810x10b": 8135,
    "\u25810x7e8c": 8136,
    "\u2581module": 8137,
    "\u25810x420c30": 8138,
    "\u25810x1211e8c": 8139,
    "266": 8140,
    "a4c4": 8141,
    "remo": 8142,
    "\u25810xd6": 8143,
    "\u25810x88c0": 8144,
    "\u25810x9070": 8145,
    "\u25810x420c00": 8146,
    "\u25810x7d55": 8147,
    "\u25810x90c0": 8148,
    "\u25810x10005c": 8149,
    "\u25810x413dd6": 8150,
    "\u25810x413dd7": 8151,
    "\u25810x4170f5": 8152,
    "\u25810x4170f6": 8153,
    "\u25810x4179b4": 8154,
    "\u25810x4179b5": 8155,
    "\u25810x4179c5": 8156,
    "\u25810x4179c6": 8157,
    "\u25810x417a43": 8158,
    "\u25810x417a44": 8159,
    "\u25810x417a5b": 8160,
    "\u25810x417a5c": 8161,
    "\u25810x417a9b": 8162,
    "\u25810x417a9c": 8163,
    "\u25810x417aac": 8164,
    "\u25810x417aad": 8165,
    "\u25810x417b1e": 8166,
    "\u25810x417b1f": 8167,
    "\u25810x420c2f": 8168,
    "\u25810x46b5fc": 8169,
    "\u25810x2825ef8": 8170,
    "254": 8171,
    "db6": 8172,
    "5234": 8173,
    "\u2581scal": 8174,
    "\u2581virtu": 8175,
    "\u25810x420bf0": 8176,
    "\u25810x420bf1": 8177,
    "\u25810x420c01": 8178,
    "\u25810x420c10": 8179,
    "\u25810x420c11": 8180,
    "\u25810x420c1b": 8181,
    "\u25810x420c1c": 8182,
    "\u25810x420c25": 8183,
    "\u25810x420c26": 8184,
    "\u25810x420c39": 8185,
    "\u25810x420c3a": 8186,
    "\u25810x420c43": 8187,
    "\u25810x420c44": 8188,
    "\u25810x420c50": 8189,
    "\u25810x420c51": 8190,
    "\u25810x42f194": 8191,
    "\u2581msvcr100": 8192,
    "\u25810xfeee00c9": 8193,
    "\u25810xfeee00cb": 8194,
    "\u2581virtuallock": 8195,
    "\u2581regqueryvalueexa": 8196,
    "aler": 8197,
    "\u25810x44e": 8198,
    "\u25810x1211fb0": 8199,
    "7a5": 8200,
    "df6": 8201,
    "3a08": 8202,
    "\u2581scale": 8203,
    "\u25810x4522": 8204,
    "2f1": 8205,
    "7c6": 8206,
    "b05": 8207,
    "c45": 8208,
    "\u2581cqa": 8209,
    "\u2581scqa": 8210,
    "\u2581pscqa": 8211,
    "\u25810x41f6": 8212,
    "inmodule": 8213,
    "\u25810x3b7fb": 8214,
    "\u25810x12119a0": 8215,
    "67f": 8216,
    "hell": 8217,
    "\u2581comparestringa": 8218,
    "nd": 8219,
    "2e1": 8220,
    "\u25810x100fd": 8221,
    "\u25810x41ab88": 8222,
    "ae6": 8223,
    "bf5": 8224,
    "\u25810x6e6": 8225,
    "\u25810x1818": 8226,
    "3ed": 8227,
    "5c5": 8228,
    "a71": 8229,
    "cc6": 8230,
    "d91": 8231,
    "34b8": 8232,
    "\u25810x1828": 8233,
[...]
