{
    "<pad>": 0,
    "<unk>": 1,
    "<mask>": 2,
    "\u25810": 3,
    "\u25810x": 4,
    "00": 5,
    "er": 6,
    "ne": 7,
    "32": 8,
    "\u2581k": 9,
    "l32": 10,
    "erne": 11,
    "ernel32": 12,
    "\u2581kernel32": 13,
    "\u25810x1": 14,
    "\u25810x0": 15,
    "et": 16,
    "ti": 17,
    "ad": 18,
    "al": 19,
    "000": 20,
    "ee": 21,
    "\u25810x7": 22,
    "get": 23,
    "ec": 24,
    "re": 25,
    "\u25810x4": 26,
    "in": 27,
    "\u25810xf": 28,
    "\u2581get": 29,
    "0000": 30,
    "iti": 31,
    "\u25810x77": 32,
    "oc": 33,
    "tr": 34,
    "eee": 35,
    "\u25810xfeee": 36,
    "tio": 37,
    "ss": 38,
    "ter": 39,
    "sec": 40,
    "cal": 41,
    "sectio": 42,
    "is": 43,
    "riti": 44,
    "ritical": 45,
    "riticalsectio": 46,
    "pr": 47,
    "read": 48,
    "proc": 49,
    "\u25810x1000": 50,
    "\u2581is": 51,
    "le": 52,
    "readp": 53,
    "\u2581getproc": 54,
    "dre": 55,
    "bad": 56,
    "\u2581isbad": 57,
    "readptr": 58,
    "\u2581isbadreadptr": 59,
    "dress": 60,
    "address": 61,
    "\u2581getprocaddress": 62,
    "ecriticalsectio": 63,
    "\u2581in": 64,
    "ue": 65,
    "en": 66,
    "no": 67,
    "000000": 68,
    "\u2581no": 69,
    "\u2581none": 70,
    "ls": 71,
    "val": 72,
    "ap": 73,
    "\u25810x12": 74,
    "a0": 75,
    "\u25810x77000000": 76,
    "value": 77,
    "loc": 78,
    "iz": 79,
    "aliz": 80,
    "itializ": 81,
    "co": 82,
    "\u2581initializ": 83,
    "11": 84,
    "de": 85,
    "\u2581initializecriticalsectio": 86,
    "getvalue": 87,
    "lsgetvalue": 88,
    "nex": 89,
    "\u25810xfeee00": 90,
    "\u25810xfeee000": 91,
    "or": 92,
    "\u2581s": 93,
    "\u25810x2": 94,
    "\u25810xfa0": 95,
    "te": 96,
    "ff": 97,
    "ar": 98,
    "\u25810x1211": 99,
    "\u25810x46": 100,
    "f0": 101,
    "us": 102,
    "he": 103,
    "an": 104,
    "\u25810x8": 105,
    "\u2581f": 106,
    "\u2581initializecriticalsectionex": 107,
    "heap": 108,
    "\u25810x770": 109,
    "\u2581en": 110,
    "\u2581heap": 111,
    "as": 112,
    "alloc": 113,
    "\u2581c": 114,
    "user": 115,
    "\u2581t": 116,
    "48": 117,
    "\u2581user": 118,
    "ror": 119,
    "dec": 120,
    "\u2581user32": 121,
    "las": 122,
    "\u2581l": 123,
    "laster": 124,
    "lasterror": 125,
    "39": 126,
    "po": 127,
    "and": 128,
    "poin": 129,
    "\u25810x771": 130,
    "\u25810xfeee0001": 131,
    "pointer": 132,
    "\u2581tlsgetvalue": 133,
    "depointer": 134,
    "ow": 135,
    "ta": 136,
    "\u25810x24": 137,
    "\u25810x2439": 138,
    "\u25810x243948": 139,
    "10": 140,
    "\u2581m": 141,
    "\u2581set": 142,
    "lea": 143,
    "\u2581heapalloc": 144,
    "90": 145,
    "d0": 146,
    "str": 147,
    "nt": 148,
    "\u25810x41": 149,
    "\u25810x5": 150,
    "\u2581flsgetvalue": 151,
    "\u2581w": 152,
    "inf": 153,
    "\u25810x100": 154,
    "ing": 155,
    "ex": 156,
    "har": 157,
    "fi": 158,
    "string": 159,
    "\u25810x10": 160,
    "\u25810x45": 161,
    "mp": 162,
    "00000": 163,
    "oad": 164,
    "terc": 165,
    "ecriticalsection": 166,
    "\u2581load": 167,
    "\u25810x42": 168,
    "leav": 169,
    "\u2581leav": 170,
    "\u2581leavecriticalsection": 171,
    "\u2581d": 172,
    "\u25810x40": 173,
    "riticalsection": 174,
    "tercriticalsection": 175,
    "\u2581entercriticalsection": 176,
    "ent": 177,
    "ac": 178,
    "\u2581enco": 179,
    "\u2581encodepointer": 180,
    "li": 181,
    "e4": 182,
    "\u25810x45f0": 183,
    "on": 184,
    "by": 185,
    "\u2581getlasterror": 186,
    "hand": 187,
    "\u25810x3": 188,
    "info": 189,
    "tu": 190,
    "\u2581setlasterror": 191,
    "\u25810x46d0": 192,
    "\u2581getc": 193,
    "\u25810xc": 194,
    "ffff": 195,
    "ul": 196,
    "ess": 197,
    "\u25810x4e4": 198,
    "let": 199,
    "unt": 200,
    "to": 201,
    "20": 202,
    "40": 203,
    "\u25810x78": 204,
    "ys": 205,
    "tion": 206,
    "30": 207,
    "c0": 208,
    "ab": 209,
    "ind": 210,
    "count": 211,
    "local": 212,
    "ir": 213,
    "10000": 214,
    "ur": 215,
    "ulti": 216,
    "idec": 217,
    "ultiby": 218,
    "idechar": 219,
    "\u2581initializecriticalsection": 220,
    "ll": 221,
    "ate": 222,
    "\u25810x46f0": 223,
    "mo": 224,
    "\u25810x6": 225,
    "50": 226,
    "\u25810x400000": 227,
    "handle": 228,
    "f8": 229,
    "tem": 230,
    "ed": 231,
    "\u2581gets": 232,
    "du": 233,
    "indow": 234,
    "tom": 235,
    "ystem": 236,
    "me": 237,
    "\u25810x43": 238,
    "dule": 239,
    "module": 240,
    "file": 241,
    "\u2581getmodule": 242,
    "18": 243,
    "70": 244,
    "\u2581cre": 245,
    "\u2581dec": 246,
    "exw": 247,
    "\u2581deco": 248,
    "\u2581decodepointer": 249,
    "78": 250,
    "pinfo": 251,
    "\u25810x7d": 252,
    "sp": 253,
    "b0": 254,
    "tet": 255,
    "\u25810x10c": 256,
    "ment": 257,
    "spin": 258,
    "spincount": 259,
    "\u2581initializecriticalsectionand": 260,
    "\u2581initializecriticalsectionandspincount": 261,
    "\u25810xfeee001": 262,
    "locale": 263,
    "\u2581char": 264,
    "\u2581ms": 265,
    "\u2581getcpinfo": 266,
    "e0": 267,
    "\u2581dll": 268,
    "\u25810x1211f": 269,
    "\u2581charnex": 270,
    "br": 271,
    "d8": 272,
    "vir": 273,
    "\u2581loadstring": 274,
    "ion": 275,
    "ary": 276,
    "yp": 277,
    "\u2581g": 278,
    "process": 279,
    "60": 280,
    "ce": 281,
    "brary": 282,
    "a5": 283,
    "38": 284,
    "indows": 285,
    "\u2581create": 286,
    "fr": 287,
    "d10000": 288,
    "\u25810x77d10000": 289,
    "rt": 290,
    "\u25810x9": 291,
    "id": 292,
    "\u2581windows": 293,
    "28": 294,
    "\u25810xf00": 295,
    "\u2581multiby": 296,
    "tetow": 297,
    "tetowidechar": 298,
    "\u2581multibytetowidechar": 299,
    "ri": 300,
    "64": 301,
    "map": 302,
    "\u2581ini": 303,
    "tw": 304,
    "\u25810x7e": 305,
    "lock": 306,
    "\u25810xc000": 307,
    "c4": 308,
    "80": 309,
    "\u25810xfffff": 310,
    "comp": 311,
    "sta": 312,
    "bc": 313,
    "\u25810xfffffff": 314,
    "\u2581getlocale": 315,
    "rent": 316,
    "urrent": 317,
    "\u2581system": 318,
    "\u25810xff": 319,
    "\u2581getst": 320,
    "98": 321,
    "ge": 322,
    "\u2581system32": 323,
    "free": 324,
    "34": 325,
    "ble": 326,
    "tus": 327,
    "ans": 328,
    "status": 329,
    "trans": 330,
    "que": 331,
    "\u2581getcpinfoexw": 332,
    "lient": 333,
    "\u25810x243948c": 334,
    "action": 335,
    "th": 336,
    "table": 337,
    "queue": 338,
    "letion": 339,
    "dcomp": 340,
    "queuedcomp": 341,
    "letionstatus": 342,
    "queuedcompletionstatus": 343,
    "\u2581ddec": 344,
    "\u2581getqueuedcompletionstatus": 345,
    "transaction": 346,
    "\u2581ddeclient": 347,
    "\u2581ddeclienttransaction": 348,
    "tatom": 349,
    "\u2581initatom": 350,
    "\u25810x2439480": 351,
    "\u25810x2439484": 352,
    "\u25810x2439488": 353,
    "\u2581initatomtable": 354,
    "26": 355,
    "vc": 356,
    "age": 357,
    "lo": 358,
    "def": 359,
    "ect": 360,
    "library": 361,
    "cc": 362,
    "\u25810x70": 363,
    "ype": 364,
    "\u2581inter": 365,
    "\u2581msvc": 366,
    "\u2581lc": 367,
    "\u2581lcmap": 368,
    "\u2581lcmapstring": 369,
    "68": 370,
    "temp": 371,
    "\u25810x1211c": 372,
    "\u2581interlock": 373,
    "\u2581ap": 374,
    "hi": 375,
    "\u2581msvcrt": 376,
    "na": 377,
    "\u2581interlocked": 378,
    "filet": 379,
    "rement": 380,
    "\u25810x4690": 381,
    "1000": 382,
    "69": 383,
    "pen": 384,
    "oo": 385,
    "\u25810x40a5": 386,
    "58": 387,
    "un": 388,
    "infow": 389,
    "\u25810x88": 390,
    "\u2581getcurrent": 391,
    "\u25810x1210": 392,
    "a8": 393,
    "3000": 394,
    "\u25810x90": 395,
    "it": 396,
    "\u2581loadlibrary": 397,
    "ey": 398,
    "rs": 399,
    "virtu": 400,
    "\u2581p": 401,
    "virtual": 402,
    "ers": 403,
    "\u2581heapfree": 404,
    "\u25810xa": 405,
    "\u2581o": 406,
    "\u2581charnextw": 407,
    "2000": 408,
    "5000": 409,
    "b8": 410,
    "con": 411,
    "so": 412,
    "ch": 413,
    "\u25810x12117": 414,
    "56": 415,
    "\u25811": 416,
    "\u2581loadstringw": 417,
    "var": 418,
    "14": 419,
    "rite": 420,
    "\u25810xfeee002": 421,
    "em": 422,
    "b000": 423,
    "a000": 424,
    "7000": 425,
    "f000": 426,
    "7c": 427,
    "\u2581virtual": 428,
    "\u2581re": 429,
    "abc": 430,
    "vw": 431,
    "mm": 432,
    "cmp": 433,
    "d4": 434,
    "\u25810x79": 435,
    "\u2581temp": 436,
    "\u25810x47": 437,
    "d000": 438,
    "ultibyte": 439,
    "\u2581widechar": 440,
    "tomultibyte": 441,
    "\u2581widechartomultibyte": 442,
    "qu": 443,
    "lm": 444,
    "name": 445,
    "nop": 446,
    "xy": 447,
    "xyz": 448,
    "\u2581abc": 449,
    "ghi": 450,
    "klm": 451,
    "qrs": 452,
    "tuvw": 453,
    "tuvwxyz": 454,
    "nopqrs": 455,
    "defghi": 456,
    "nopqrstuvwxyz": 457,
    "\u2581abcdefghi": 458,
    "klmnopqrstuvwxyz": 459,
    "handlew": 460,
    "fc": 461,
    "\u25810x80": 462,
    "key": 463,
    "\u2581getmodulehandlew": 464,
    "6000": 465,
    "\u25810x78000000": 466,
    "\u25810xfeee007": 467,
    "thread": 468,
    "e000": 469,
    "9000": 470,
    "\u25810x409": 471,
    "\u2581co": 472,
    "\u2581ex": 473,
    "12": 474,
    "orm": 475,
    "c8": 476,
    "\u25810xfeee004": 477,
    "\u2581getfilet": 478,
    "\u2581getfiletype": 479,
    "\u25810x12119": 480,
    "\u25810x3f": 481,
    "\u2581loadstringa": 482,
    "sset": 483,
    "ck": 484,
    "i32": 485,
    "\u2581mem": 486,
    "\u2581charnexta": 487,
    "fe": 488,
    "\u2581getti": 489,
    "dhandle": 490,
    "lsset": 491,
    "lssetvalue": 492,
    "\u25810xfeee005": 493,
    "\u25810xcd": 494,
    "\u2581fls": 495,
    "\u25810x44": 496,
    "\u25810x41de": 497,
    "inc": 498,
    "\u2581read": 499,
    "\u2581getstdhandle": 500,
    "\u2581interlockedinc": 501,
    "\u2581interlockedincrement": 502,
    "\u2581memcmp": 503,
    "a4": 504,
    "vers": 505,
    "\u25810xfeee008": 506,
    "\u25810x200": 507,
    "\u2581getlocaleinfo": 508,
    "dir": 509,
    "dd": 510,
    "\u25810x41f0": 511,
    "\u25810x4610": 512,
    "\u2581gettick": 513,
    "\u2581gettickcount": 514,
    "\u25810x41f040": 515,
    "\u2581getlocaleinfow": 516,
    "ector": 517,
    "quer": 518,
    "sw": 519,
    "\u25810x18": 520,
    "\u25810xffffffff": 521,
    "ool": 522,
    "e6": 523,
    "viron": 524,
    "\u2581se": 525,
    "\u2581lcmapstringex": 526,
    "\u25810xfeee0004": 527,
    "vironment": 528,
    "\u25810x1211d": 529,
    "\u25810x20": 530,
    "director": 531,
    "\u2581reg": 532,
    "\u25810xfeee006": 533,
    "e8": 534,
    "74": 535,
    "filename": 536,
    "\u2581getsystem": 537,
    "5c": 538,
    "\u25810x78c": 539,
    "\u2581getmodulehand": 540,
    "\u25810x78c00000": 541,
    "\u2581getmodulehandlea": 542,
    "los": 543,
    "\u25810x526": 544,
    "\u25810x5f8": 545,
    "\u25810x5f800000": 546,
    "\u2581flssetvalue": 547,
    "\u25810x4c4": 548,
    "\u2581getlocaleinfoa": 549,
    "b4": 550,
    "\u25810xfeee003": 551,
    "\u25810x7b": 552,
    "f4": 553,
    "54": 554,
    "\u25810x77e": 555,
    "\u25810x77e10000": 556,
    "dc": 557,
    "vi": 558,
    "\u2581open": 559,
    "\u2581flsalloc": 560,
    "\u25810xfeee0002": 561,
    "2c": 562,
    "b9": 563,
    "\u25810x7ec": 564,
    "\u25810x7de": 565,
    "ute": 566,
    "\u25810xf001": 567,
    "sle": 568,
    "da": 569,
    "\u25810x7c": 570,
    "\u25810xfeee0000": 571,
    "\u2581a": 572,
    "dbc": 573,
    "artu": 574,
    "\u2581win": 575,
    "24": 576,
    "readpool": 577,
    "\u25810x104": 578,
    "arch": 579,
    "1c": 580,
    "mmand": 581,
    "eex": 582,
    "line": 583,
    "adby": 584,
    "dbcsle": 585,
    "\u2581isdbcsle": 586,
    "\u2581isdbcsleadby": 587,
    "dll": 588,
    "3c": 589,
    "\u25810x800": 590,
    "\u2581isdbcsleadbyte": 591,
    "eco": 592,
    "mmandline": 593,
    "\u2581getmodulefilename": 594,
    "es": 595,
    "\u25810x54": 596,
    "\u2581getco": 597,
    "\u2581l1": 598,
    "\u2581getcommandline": 599,
    "res": 600,
    "stringsw": 601,
    "\u2581getstartu": 602,
    "able": 603,
    "\u2581api": 604,
    "\u25810x1211e": 605,
    "9c": 606,
    "window": 607,
    "\u2581search": 608,
    "\u2581var": 609,
    "\u2581loadlibraryexw": 610,
    "\u25810x12115": 611,
    "94": 612,
    "filew": 613,
    "91": 614,
    "\u2581getcurrentthread": 615,
    "\u25810x7d90": 616,
    "\u25810x7700": 617,
    "\u2581h": 618,
    "\u2581fr": 619,
    "vironmentstringsw": 620,
    "\u2581local": 621,
    "ad0": 622,
    "\u25810xfeee0003": 623,
    "valid": 624,
    "\u25810x7718": 625,
    "\u25810x7708": 626,
    "\u25810x7711": 627,
    "71": 628,
    "\u2581b": 629,
    "\u2581ad": 630,
    "\u2581clos": 631,
    "form": 632,
    "processor": 633,
    "\u2581lcmapstringw": 634,
    "\u2581getcurrentthreadid": 635,
    "ation": 636,
    "directory": 637,
    "\u2581apis": 638,
    "\u25810x4600": 639,
    "e5": 640,
    "sour": 641,
    "\u25810x70cc": 642,
    "\u2581core": 643,
    "\u25810x7a": 644,
    "\u25810xf003": 645,
    "api32": 646,
    "time": 647,
    "\u25810x400": 648,
    "\u25810xf002": 649,
    "\u25810xfeee0005": 650,
    "\u2581adv": 651,
    "ve": 652,
    "\u2581advapi32": 653,
    "b7": 654,
    "\u25810x7710": 655,
    "are": 656,
    "\u25810x76": 657,
    "\u2581li": 658,
    "\u25810x7714": 659,
    "\u25810x7704": 660,
    "\u25810x73": 661,
    "\u2581write": 662,
    "of": 663,
    "\u2581loadlibrarya": 664,
    "789": 665,
    "\u2581de": 666,
    "\u25810x4093": 667,
    "write": 668,
    "\u2581getprocess": 669,
    "75": 670,
    "\u2581library": 671,
    "e2": 672,
    "um": 673,
    "ab0": 674,
    "ic": 675,
    "il": 676,
    "\u2581virtualalloc": 677,
    "3456": 678,
    "\u2581012": 679,
    "3456789": 680,
    "\u25810123456789": 681,
    "\u2581getprocessheap": 682,
    "66": 683,
    "\u25810x75": 684,
    "\u25812": 685,
    "\u25810x1c": 686,
    "\u25810x4c42": 687,
    "\u2581fi": 688,
    "a9": 689,
    "\u25810x120": 690,
    "f3": 691,
    "\u2581x": 692,
    "db": 693,
    "\u2581crea": 694,
    "ist": 695,
    "a1": 696,
    "cep": 697,
    "\u25810x7706": 698,
    "\u25810x7716": 699,
    "\u25810x770b": 700,
    "\u25810x7717": 701,
    "\u25810x7707": 702,
    "\u25810x7709": 703,
    "\u25810x7719": 704,
    "\u25810x771b": 705,
    "\u2581getvers": 706,
    "source": 707,
    "\u25810x71": 708,
    "pres": 709,
    "a2": 710,
    "present": 711,
    "vari": 712,
    "\u2581nt": 713,
    "f1": 714,
    "\u25810x72": 715,
    "atu": 716,
    "\u2581interlockeddec": 717,
    "\u2581interlockeddecrement": 718,
    "mess": 719,
    "ction": 720,
    "a6": 721,
    "\u25810x8810": 722,
    "filea": 723,
    "\u2581page": 724,
    "\u25810x8ad0": 725,
    "\u2581geten": 726,
    "\u25810x41dd": 727,
    "\u25810x74": 728,
    "\u25810x48": 729,
    "gle": 730,
    "open": 731,
    "\u25810x770c": 732,
    "\u25810x7702": 733,
    "\u25810x7705": 734,
    "\u25810x770d": 735,
    "\u25810x770f": 736,
    "\u25810x7712": 737,
    "\u25810x7715": 738,
    "type": 739,
    "ol": 740,
    "\u25810x220": 741,
    "ature": 742,
    "feature": 743,
    "\u2581isprocessor": 744,
    "featurepresent": 745,
    "\u2581isprocessorfeaturepresent": 746,
    "int": 747,
    "\u2581readwrite": 748,
    "\u25810x7000": 749,
    "\u25810x8c": 750,
    "\u2581goo": 751,
    "3d": 752,
    "\u2581google": 753,
    "ception": 754,
    "ut": 755,
    "\u25810x7e70": 756,
    "message": 757,
    "\u2581sh": 758,
    "\u25810xfeee0006": 759,
    "\u2581getcurrentprocess": 760,
    "f5": 761,
    "\u2581ls": 762,
    "\u2581quer": 763,
    "ime": 764,
    "\u25810xfeee009": 765,
    "f9": 766,
    "yper": 767,
    "forman": 768,
    "yperforman": 769,
    "\u2581queryperforman": 770,
    "36": 771,
    "tin": 772,
    "b5": 773,
    "\u25810x8000": 774,
    "oftw": 775,
    "\u25810x4378": 776,
    "\u2581hkey": 777,
    "oftware": 778,
    "up": 779,
    "ait": 780,
    "list": 781,
    "\u2581getstring": 782,
    "\u2581software": 783,
    "unter": 784,
    "filetime": 785,
    "hel": 786,
    "ceco": 787,
    "cecounter": 788,
    "\u2581queryperformancecounter": 789,
    "\u2581getstringtype": 790,
    "\u25810x7701": 791,
    "\u25810x7703": 792,
    "\u25810x770e": 793,
    "\u25810x7713": 794,
    "\u25810x14": 795,
    "\u2581getsystemtime": 796,
    "a7": 797,
    "pinfow": 798,
    "\u2581getstartupinfow": 799,
    "\u2581lstr": 800,
    "\u25810x9000": 801,
    "15": 802,
    "ition": 803,
    "dex": 804,
    "dition": 805,
    "\u2581sl": 806,
    "bo": 807,
    "tim": 808,
    "eep": 809,
    "\u25810x437": 810,
    "\u2581getstringtypew": 811,
    "hreadpool": 812,
    "\u25810x169": 813,
    "\u2581sleep": 814,
    "\u2581pf": 815,
    "directoryw": 816,
    "f6": 817,
    "eexw": 818,
    "asfiletime": 819,
    "eric": 820,
    "\u25810x102": 821,
    "ra": 822,
    "timer": 823,
    "\u2581localalloc": 824,
    "b2": 825,
    "\u25810x8a": 826,
    "d5": 827,
    "\u25810x770a": 828,
    "\u25810x771a": 829,
    "\u2581gd": 830,
    "\u2581gen": 831,
    "c000": 832,
    "stru": 833,
    "4c": 834,
    "struction": 835,
    "19": 836,
    "508": 837,
    "d6": 838,
    "ail": 839,
    "fil": 840,
    "\u25810xfeee0007": 841,
    "d2": 842,
    "76": 843,
    "\u2581generic": 844,
    "\u2581getsystemtimeasfiletime": 845,
    "\u2581current": 846,
    "\u2581ws": 847,
    "\u25810x420": 848,
    "\u2581find": 849,
    "ecute": 850,
    "35": 851,
    "aa": 852,
    "\u25810x42c": 853,
    "\u25810xfff": 854,
    "query": 855,
    "\u2581getcommandlinea": 856,
    "code": 857,
    "\u2581gdi32": 858,
    "\u2581getac": 859,
    "29": 860,
    "vail": 861,
    "vailable": 862,
    "\u2581delet": 863,
    "\u2581getacp": 864,
    "\u2581createt": 865,
    "conso": 866,
    "\u25810x7ec0": 867,
    "ting": 868,
    "\u2581available": 869,
    "b6": 870,
    "dexception": 871,
    "filter": 872,
    "unhandle": 873,
    "dexceptionfilter": 874,
    "unhandledexceptionfilter": 875,
    "\u2581ac": 876,
    "ock": 877,
    "la": 878,
    "exa": 879,
    "\u2581instruction": 880,
    "i64": 881,
    "\u2581instructions": 882,
    "\u2581xmm": 883,
    "\u2581xmmi64": 884,
    "locales": 885,
    "\u25810x7de0": 886,
    "\u2581getcurrentprocessid": 887,
    "79": 888,
    "\u25810x4c": 889,
    "\u25810x1211c98": 890,
    "\u25810x430": 891,
    "\u2581getmodulefilenamew": 892,
    "\u25810x82": 893,
    "\u2581getmodulefilenamea": 894,
    "\u2581crt": 895,
    "console": 896,
    "lob": 897,
    "\u2581glob": 898,
    "646": 899,
    "inform": 900,
    "condition": 901,
    "\u25810x1210e": 902,
    "4000": 903,
    "\u2581regis": 904,
    "\u25810x69": 905,
    "\u25810x7890": 906,
    "\u2581virtualquery": 907,
    "defa": 908,
    "rive": 909,
    "defaul": 910,
    "information": 911,
    "31": 912,
    "\u2581shel": 913,
    "\u25810x41de20": 914,
    "\u2581isvalid": 915,
    "88": 916,
    "bf": 917,
    "eeen": 918,
    "\u2581freeen": 919,
    "\u25810x7c000000": 920,
    "be": 921,
    "\u25810x7f": 922,
    "ies": 923,
    "\u25810x41ddd8": 924,
    "print": 925,
    "\u25810x47b0": 926,
    "\u25810x56": 927,
    "\u2581createfilew": 928,
    "\u2581close": 929,
    "\u2581setunhandledexceptionfilter": 930,
    "\u2581closehandle": 931,
    "\u25810x49": 932,
    "\u25810x180": 933,
    "ervi": 934,
    "printf": 935,
    "\u25810x50": 936,
    "io": 937,
    "b1": 938,
    "om": 939,
    "\u2581getenvironmentstringsw": 940,
    "\u2581freeenvironmentstringsw": 941,
    "default": 942,
    "\u25810x7d91": 943,
    "37": 944,
    "\u2581getcommandlinew": 945,
    "at": 946,
    "ob": 947,
    "\u25810x8d": 948,
    "\u25810x4ab0": 949,
    "fd": 950,
    "\u2581gettemp": 951,
    "3e": 952,
    "from": 953,
    "\u25810x416": 954,
    "lus": 955,
    "ack": 956,
    "\u2581regopen": 957,
    "\u2581regopenkey": 958,
    "yn": 959,
    "bd": 960,
    "\u25810x1211c18": 961,
    "ionex": 962,
    "\u2581getversionex": 963,
    "\u25810xfffffff6": 964,
    "\u2581writefile": 965,
    "\u25810xfffffff5": 966,
    "\u25810xfffffff4": 967,
    "\u2581tmp": 968,
    "threadpool": 969,
    "ity": 970,
    "25": 971,
    "\u25810x4670": 972,
    "ile": 973,
    "\u2581getconsole": 974,
    "\u25810x1804": 975,
    "variable": 976,
    "\u2581locales": 977,
    "16": 978,
    "f7": 979,
    "cess": 980,
    "\u2581execute": 981,
    "b3": 982,
    "\u25810x5265c": 983,
    "8c": 984,
    "27": 985,
    "\u25810x30": 986,
    "\u25811646": 987,
    "\u25810x7ee": 988,
    "\u25810x69000000": 989,
    "\u25810x1211b": 990,
    "ae": 991,
    "ber": 992,
    "55": 993,
    "\u25810x4c42c0": 994,
    "lass": 995,
    "st": 996,
    "\u25810xa4": 997,
    "ib": 998,
    "wait": 999,
    "messagea": 1000,
    "308": 1001,
    "\u2581free": 1002,
    "\u25810xe": 1003,
    "sc": 1004,
    "servi": 1005,
    "\u25810x12116": 1006,
    "handl": 1007,
    "f2": 1008,
    "cre": 1009,
    "\u25810x19": 1010,
    "codep": 1011,
    "\u2581access": 1012,
    "\u2581getuser": 1013,
    "\u2581invalid": 1014,
    "processlist": 1015,
    "\u2581getconsoleprocesslist": 1016,
    "error": 1017,
    "\u2581setfile": 1018,
    "icon": 1019,
    "urity": 1020,
    "resource": 1021,
    "\u2581lstrle": 1022,
    "\u2581global": 1023,
    "\u2581getstartupinfo": 1024,
    "\u2581getstartupinfoa": 1025,
    "bers": 1026,
    "d7": 1027,
    "security": 1028,
    "codepage": 1029,
    "ynch": 1030,
    "\u25810x5266": 1031,
    "\u2581isvalidcodepage": 1032,
    "\u25810x1211f38": 1033,
    "\u2581synch": 1034,
    "e7": 1035,
    "section": 1036,
    "\u25810x42e5": 1037,
    "8000": 1038,
    "e9": 1039,
    "urs": 1040,
    "boar": 1041,
    "\u25810x2a": 1042,
    "84": 1043,
    "\u2581crtdll": 1044,
    "\u25810x1211518": 1045,
    "ton": 1046,
    "\u2581al": 1047,
    "rw": 1048,
    "\u25810x1211e0": 1049,
    "17": 1050,
    "\u2581drive": 1051,
    "\u25810x7e71": 1052,
    "ba": 1053,
    "\u2581r": 1054,
    "1a": 1055,
    "\u25810xfeee0": 1056,
    "\u25810x41e2": 1057,
    "08": 1058,
    "\u2581delete": 1059,
    "\u25810x771c": 1060,
    "\u2581process": 1061,
    "\u2581shell32": 1062,
    "44": 1063,
    "fa": 1064,
    "create": 1065,
    "22": 1066,
    "\u25810x7910": 1067,
    "\u25810x41e218": 1068,
    "py": 1069,
    "\u25810x42d": 1070,
    "6c": 1071,
    "version": 1072,
    "ant": 1073,
    "99": 1074,
    "\u25810x4b": 1075,
    "\u25810xd": 1076,
    "num": 1077,
    "\u2581process32": 1078,
    "gu": 1079,
    "\u25810x1211748": 1080,
    "ot": 1081,
    "f10000": 1082,
    "lor": 1083,
    "\u25810x40934": 1084,
    "\u25810x77f10000": 1085,
    "ical": 1086,
    "\u2581creates": 1087,
    "directories": 1088,
    "\u25810x418": 1089,
    "tex": 1090,
    "106": 1091,
    "\u25810x1211dc0": 1092,
    "bu": 1093,
    "\u2581setdefault": 1094,
    "\u25810x7ed": 1095,
    "dlldirectories": 1096,
    "\u2581setdefaultdlldirectories": 1097,
    "sa": 1098,
    "\u25810xb": 1099,
    "\u2581map": 1100,
    "3f": 1101,
    "ursor": 1102,
    "\u2581ntdll": 1103,
    "\u2581fibers": 1104,
    "1e": 1105,
    "date": 1106,
    "rwlock": 1107,
    "\u25810x80c0": 1108,
    "\u25810x3000": 1109,
    "\u2581getversion": 1110,
    "hread": 1111,
    "\u25810x4d": 1112,
    "\u25810x417": 1113,
    "33": 1114,
    "ork": 1115,
    "\u25810x7810": 1116,
    "\u25810x4e": 1117,
    "\u25810x34": 1118,
    "\u2581closet": 1119,
    "\u2581closethreadpool": 1120,
    "\u2581createthreadpool": 1121,
    "color": 1122,
    "vie": 1123,
    "\u25810xfeee0008": 1124,
    "board": 1125,
    "bb": 1126,
    "00c": 1127,
    "cursor": 1128,
    "erw": 1129,
    "realloc": 1130,
    "\u25810xfeee0009": 1131,
    "\u25810xffc": 1132,
    "\u25810x5265c14": 1133,
    "\u25810xfeee000a": 1134,
    "\u25810xfeee000b": 1135,
    "\u2581getthread": 1136,
    "\u2581createdirectoryw": 1137,
    "\u25810x8811": 1138,
    "\u25810xfeee000c": 1139,
    "d9": 1140,
    "\u25810x120e6": 1141,
    "\u25810x11": 1142,
    "\u2581setfilepointer": 1143,
    "\u25810xfeee000d": 1144,
    "db10": 1145,
    "\u25810xfeee000e": 1146,
    "\u25810xfeee0014": 1147,
    "ro": 1148,
    "\u25810xfeee000f": 1149,
    "rtl": 1150,
    "\u2581rtl": 1151,
    "\u2581loadcursor": 1152,
    "\u25810x12116d8": 1153,
    "\u2581key": 1154,
    "\u2581heapcreate": 1155,
    "\u25810xfeee0010": 1156,
    "\u25810xfeee0015": 1157,
    "\u25810xfeee0013": 1158,
    "\u25810xfeee0012": 1159,
    "\u25810xfeee0016": 1160,
    "\u25810xfeee0011": 1161,
    "d1": 1162,
    "db10106": 1163,
    "\u25810x1db10106": 1164,
    "firs": 1165,
    "set": 1166,
    "\u25810x1211918": 1167,
    "\u25810x4305": 1168,
    "\u2581str": 1169,
    "call": 1170,
    "\u25810x4a": 1171,
    "all": 1172,
    "97": 1173,
    "view": 1174,
    "\u25810x13": 1175,
    "\u25810x4750": 1176,
    "\u2581exit": 1177,
    "67": 1178,
    "for": 1179,
    "\u25810x435": 1180,
    "\u2581freelibrary": 1181,
    "\u25810x41de50": 1182,
    "\u2581file": 1183,
    "ord": 1184,
    "\u25810x43b7": 1185,
    "ask": 1186,
    "\u2581heaprealloc": 1187,
    "directorya": 1188,
    "lic": 1189,
    "\u25810x7ec1": 1190,
    "\u25810x94": 1191,
    "\u25810x1211738": 1192,
    "95": 1193,
    "\u25817": 1194,
    "ating": 1195,
    "e1": 1196,
    "trib": 1197,
    "tribute": 1198,
    "lip": 1199,
    "\u25810x32": 1200,
    "390": 1201,
    "hine": 1202,
    "\u2581mac": 1203,
    "\u2581machine": 1204,
    "\u2581regopenkeyexw": 1205,
    "back": 1206,
    "\u25810xfeee0017": 1207,
    "\u25810xfeee0018": 1208,
    "cec": 1209,
    "\u25810x1211dfc": 1210,
    "ttribute": 1211,
    "\u25810xfeee0019": 1212,
    "\u2581fin": 1213,
    "908": 1214,
    "\u2581findre": 1215,
    "a3": 1216,
    "\u25810x83": 1217,
    "fileattribute": 1218,
    "olf": 1219,
    "callback": 1220,
    "\u25810x7de1": 1221,
    "try": 1222,
    "\u2581setthreadpool": 1223,
    "\u25810xfeee001c": 1224,
    "dr": 1225,
    "leas": 1226,
    "ive": 1227,
    "a40": 1228,
    "7e": 1229,
    "\u25810x1211e04": 1230,
    "\u25810x84": 1231,
    "met": 1232,
    "\u25810x1210f": 1233,
    "mask": 1234,
    "service": 1235,
    "\u25810x1f": 1236,
    "394": 1237,
    "\u25810x50000": 1238,
    "2e": 1239,
    "men": 1240,
    "lose": 1241,
    "utex": 1242,
    "\u25810xfeee001a": 1243,
    "\u2581registerc": 1244,
    "clus": 1245,
    "\u25810x12114": 1246,
    "\u2581bor": 1247,
    "fb": 1248,
    "clusive": 1249,
    "rwlockex": 1250,
    "rwlockexclusive": 1251,
    "close": 1252,
    "\u2581flsfree": 1253,
    "\u2581borl": 1254,
    "cs": 1255,
    "9e": 1256,
    "2f8": 1257,
    "mode": 1258,
    "\u2581tls": 1259,
    "log": 1260,
    "keyw": 1261,
    "day": 1262,
    "ame": 1263,
    "\u2581borland": 1264,
    "mem": 1265,
    "\u25810x7930": 1266,
    "\u25810x92": 1267,
    "iv": 1268,
    "aps": 1269,
    "21": 1270,
    "raw": 1271,
    "\u25810xfeee001b": 1272,
    "\u2581getsys": 1273,
    "ico": 1274,
    "\u25810x58": 1275,
    "esource": 1276,
    "\u2581i": 1277,
    "initializ": 1278,
    "l66": 1279,
    "ver": 1280,
    "pt": 1281,
    "\u25810x7f00": 1282,
    "scri": 1283,
    "\u2581golf": 1284,
    "script": 1285,
    "isting": 1286,
    "\u2581mapvirtual": 1287,
    "menu": 1288,
    "\u25810x79f0": 1289,
    "term": 1290,
    "\u2581mapvirtualkeyw": 1291,
    "first": 1292,
    "c6": 1293,
    "5d": 1294,
    "\u25810x42d4": 1295,
    "descript": 1296,
    "securitydescript": 1297,
    "icona": 1298,
    "780": 1299,
    "ero": 1300,
    "qui": 1301,
    "dater": 1302,
    "\u25810xfeee0071": 1303,
    "\u2581sprintf": 1304,
    "\u2581wne": 1305,
    "\u25810xa3": 1306,
    "\u2581registerclass": 1307,
    "fromstr": 1308,
    "\u2581existing": 1309,
    "\u25810x8260": 1310,
    "l6660": 1311,
    "loating": 1312,
    "\u25810x42c4": 1313,
    "9d": 1314,
    "\u25810x7f8": 1315,
    "\u2581getenvironment": 1316,
    "next": 1317,
    "\u2581wait": 1318,
    "77": 1319,
    "51": 1320,
    "dateresource": 1321,
    "\u25810x41bc": 1322,
    "\u2581gettempw": 1323,
    "ecount": 1324,
    "api": 1325,
    "\u2581vers": 1326,
    "52": 1327,
    "b00": 1328,
    "\u2581verset": 1329,
    "conditionmask": 1330,
    "\u2581versetconditionmask": 1331,
    "\u25810x7ab0": 1332,
    "work": 1333,
    "number": 1334,
    "\u25810x1211c7c": 1335,
    "\u2581releas": 1336,
    "\u2581readfile": 1337,
    "handlecount": 1338,
    "\u2581sethandlecount": 1339,
    "ename": 1340,
    "\u25810x1211758": 1341,
    "\u25810x1211f64": 1342,
    "\u25810x1211958": 1343,
    "\u2581waitfor": 1344,
    "\u2581tlssetvalue": 1345,
    "\u2581getthreadlocale": 1346,
    "\u25810xfeee001d": 1347,
    "\u25810x12112f8": 1348,
    "\u25810x8b": 1349,
    "\u2581getfile": 1350,
    "\u2581tlsalloc": 1351,
    "\u25810x7e8": 1352,
    "drl6660": 1353,
    "logical": 1354,
    "96": 1355,
    "eb": 1356,
    "\u2581getlogical": 1357,
    "180": 1358,
    "end": 1359,
    "edc": 1360,
    "eg": 1361,
    "ffile": 1362,
    "\u2581initializes": 1363,
    "\u25810x4c4308": 1364,
    "\u25810xfeee007e": 1365,
    "econ": 1366,
    "ink": 1367,
    "\u2581wsprintf": 1368,
    "\u2581wi": 1369,
    "atex": 1370,
    "\u2581creat": 1371,
    "\u2581ole": 1372,
    "iled": 1373,
    "\u25810x8af0": 1374,
    "72": 1375,
    "wa": 1376,
    "\u25810x41de08": 1377,
    "\u25810x99": 1378,
    "pa": 1379,
    "quires": 1380,
    "quiresrwlockexclusive": 1381,
    "pend": 1382,
    "ways": 1383,
    "\u2581beg": 1384,
    "\u25810xa0": 1385,
    "\u25810x64": 1386,
    "windowexa": 1387,
    "lipboard": 1388,
    "\u2581always": 1389,
    "\u25810x4000": 1390,
    "7d": 1391,
    "\u25810x2c": 1392,
    "\u2581createfilea": 1393,
    "\u25810xf0019": 1394,
    "\u2581gut": 1395,
    "\u2581gum": 1396,
    "\u2581begin": 1397,
    "drl6660drl6660": 1398,
    "localename": 1399,
    "\u25810x4350": 1400,
    "\u2581exitprocess": 1401,
    "\u25810x89": 1402,
    "af": 1403,
    "f35": 1404,
    "\u25810x1211a": 1405,
    "lec": 1406,
    "ke": 1407,
    "\u25810xcc": 1408,
    "\u25810x411": 1409,
    "offile": 1410,
    "45": 1411,
    "\u25810x410": 1412,
    "nw": 1413,
    "\u25810x42a1": 1414,
    "\u2581lstrlenw": 1415,
    "\u25810x1211908": 1416,
    "sof": 1417,
    "conne": 1418,
    "\u25810x1e": 1419,
    "\u25810x700c": 1420,
    "\u25810xfeee001e": 1421,
    "formatex": 1422,
    "61": 1423,
    "480": 1424,
    "namea": 1425,
    "\u2581king": 1426,
    "\u25810x105": 1427,
    "\u2581getversionexa": 1428,
    "\u25810x1211528": 1429,
    "\u25810x12114b8": 1430,
    "ub": 1431,
    "\u25810x1211718": 1432,
    "\u25810x1211c90": 1433,
    "\u25810x704c": 1434,
    "c08": 1435,
    "\u25810x708c": 1436,
    "\u2581floating": 1437,
    "emap": 1438,
    "emaph": 1439,
    "variab": 1440,
    "\u25810x42a190": 1441,
    "mutex": 1442,
    "\u25810x169b": 1443,
    "\u25810x423d": 1444,
    "73": 1445,
    "trac": 1446,
    "\u25810x28": 1447,
    "lw": 1448,
    "\u2581pr": 1449,
    "\u2581comp": 1450,
    "\u2581virtualfree": 1451,
    "1d": 1452,
    "280": 1453,
    "soft": 1454,
    "\u2581e": 1455,
    "\u25810xfeee001f": 1456,
    "\u25810x198": 1457,
    "\u25810x4630": 1458,
    "icro": 1459,
    "\u25810xfeee0020": 1460,
    "1b": 1461,
    "lwapi": 1462,
    "\u2581shlwapi": 1463,
    "23": 1464,
    "ee0": 1465,
    "icrosoft": 1466,
    "\u25810x4fe": 1467,
    "ockob": 1468,
    "\u2581getstockob": 1469,
    "servicew": 1470,
    "\u25810x19a": 1471,
    "low": 1472,
    "df": 1473,
    "2a": 1474,
    "kar": 1475,
    "karton": 1476,
    "\u25810x7f800": 1477,
    "lush": 1478,
    "mutexa": 1479,
    "\u2581kingkarton": 1480,
    "\u2581createsemaph": 1481,
    "\u2581compare": 1482,
    "memor": 1483,
    "\u2581getversionexw": 1484,
    "\u2581microsoft": 1485,
    "ocket": 1486,
    "\u25810x7850": 1487,
    "\u25810x3394": 1488,
    "\u25810x569": 1489,
    "iconw": 1490,
    "\u25810x97": 1491,
    "\u25810x41d": 1492,
    "\u2581deletefilew": 1493,
    "1f": 1494,
    "\u2581comparestring": 1495,
    "buff": 1496,
    "\u25810x42e5b0": 1497,
    "mapview": 1498,
    "\u2581loadicona": 1499,
    "\u25810x7a80": 1500,
    "angu": 1501,
    "\u25810x3f30": 1502,
    "\u2581loadcursora": 1503,
    "\u2581wa": 1504,
    "\u2581fa": 1505,
    "anguage": 1506,
    "\u2581setmenu": 1507,
    "\u25810x364": 1508,
    "\u25810x8d00": 1509,
    "\u2581up": 1510,
    "\u25810x1211cf8": 1511,
    "\u2581wnet": 1512,
    "fileattributesw": 1513,
    "\u2581extrac": 1514,
    "\u2581getsystemdirectoryw": 1515,
    "\u2581st": 1516,
    "paint": 1517,
    "\u25810xfeee00f1": 1518,
    "\u25810x9010": 1519,
    "\u2581flush": 1520,
    "5e": 1521,
    "\u25810x429": 1522,
    "3a": 1523,
    "ilanguage": 1524,
    "\u25810x44f8": 1525,
    "\u2581lstrlena": 1526,
    "\u25810x1210f35": 1527,
    "metri": 1528,
    "59": 1529,
    "memory": 1530,
    "dateresourcea": 1531,
    "conditionvariable": 1532,
    "put": 1533,
    "\u2581ntopen": 1534,
    "\u25810x4336": 1535,
    "\u2581ntopensection": 1536,
    "metrics": 1537,
    "\u2581getsystemmetrics": 1538,
    "\u25810x8a40": 1539,
    "buffers": 1540,
    "old": 1541,
    "\u2581failed": 1542,
    "\u2581wsprintfw": 1543,
    "informationby": 1544,
    "\u25810x42d8": 1545,
    "not": 1546,
    "\u2581vari": 1547,
    "\u2581getdc": 1548,
    "\u2581currentversion": 1549,
    "oy": 1550,
    "\u2581setmenuinfo": 1551,
    "\u25810x1211728": 1552,
    "\u25810x42c508": 1553,
    "ea": 1554,
    "eek": 1555,
    "\u2581ole32": 1556,
    "\u25810x42b0": 1557,
    "\u25810x7540": 1558,
    "\u25810x2000": 1559,
    "\u2581getsyscolor": 1560,
    "5f": 1561,
    "\u2581golfinfo": 1562,
    "\u25810x23": 1563,
    "\u25810x17": 1564,
    "head": 1565,
    "\u2581findfirst": 1566,
    "\u25810x43780": 1567,
    "und": 1568,
    "ns": 1569,
    "\u2581regopenkeyexa": 1570,
    "\u25818": 1571,
    "fold": 1572,
    "listhead": 1573,
    "\u2581initializeslisthead": 1574,
    "\u25810x7990": 1575,
    "\u25810x42c4d8": 1576,
    "d3": 1577,
    "flow": 1578,
    "\u25810x1211fc8": 1579,
    "\u25810x1075": 1580,
    "een": 1581,
    "9f": 1582,
    "art": 1583,
    "tun": 1584,
    "\u25810x1211fcc": 1585,
    "\u25817z": 1586,
    "\u2581varb": 1587,
    "\u25810x7aa0": 1588,
    "\u25810x1211948": 1589,
    "prot": 1590,
    "\u2581try": 1591,
    "\u25810x437b": 1592,
    "\u2581findclose": 1593,
    "\u25810x1211568": 1594,
    "top": 1595,
    "\u2581lstrc": 1596,
    "isp": 1597,
    "\u25810x7bd0": 1598,
    "6f": 1599,
    "trl": 1600,
    "\u25810x7830": 1601,
    "\u25810x1f4": 1602,
    "2d": 1603,
    "\u2581tryac": 1604,
    "\u2581tryacquiresrwlockexclusive": 1605,
    "\u2581loc": 1606,
    "\u25810x4f": 1607,
    "ision": 1608,
    "\u2581localiz": 1609,
    "\u2581localization": 1610,
    "\u25810x4238": 1611,
    "\u25810xa000": 1612,
    "\u25810xfeee008b": 1613,
    "\u25810x38": 1614,
    "protect": 1615,
    "\u25810x40a5ce": 1616,
    "\u25810x40a5d0": 1617,
    "\u25810x40a5d2": 1618,
    "\u25810x40a5d4": 1619,
    "\u25810x40a5d6": 1620,
    "\u25810x40a5d8": 1621,
    "\u25810x40a5da": 1622,
    "link": 1623,
    "\u25810x7150": 1624,
    "de9": 1625,
    "\u25810x72a0": 1626,
    "\u25810x73f0": 1627,
    "\u2581register": 1628,
    "\u25810xfeee0027": 1629,
    "\u2581virtualprotect": 1630,
    "\u25810x42d508": 1631,
    "3b": 1632,
    "fo": 1633,
    "220": 1634,
    "\u25810x7690": 1635,
    "\u258120": 1636,
    "\u25810x42c5": 1637,
    "\u25810xfeee0026": 1638,
    "\u25810x67": 1639,
    "\u25810x77e0": 1640,
    "zero": 1641,
    "\u2581getd": 1642,
    "\u2581createwindowexa": 1643,
    "\u2581copy": 1644,
    "lex": 1645,
    "\u25810xfeee0021": 1646,
    "\u2581append": 1647,
    "ock32": 1648,
    "\u2581wsock32": 1649,
    "atch": 1650,
    "\u25810x8f": 1651,
    "\u25810xfeee0022": 1652,
    "\u2581strn": 1653,
    "\u2581lread": 1654,
    "\u25810x4305b0": 1655,
    "\u25810x1b": 1656,
    "\u25810x60": 1657,
    "sourc": 1658,
    "\u25810x21000": 1659,
    "300": 1660,
    "\u2581th": 1661,
    "\u2581appendw": 1662,
    "\u25810xfeee0023": 1663,
    "\u25810xfeee0024": 1664,
    "e40": 1665,
    "\u2581gettempfilename": 1666,
    "\u25810xfeee0025": 1667,
    "tries": 1668,
    "\u25810xfeee005f": 1669,
    "\u25810x7d10": 1670,
    "\u2581globalalloc": 1671,
    "\u25810x1f400": 1672,
    "\u25810x1211f20": 1673,
    "ag": 1674,
    "\u2581draw": 1675,
    "0000000": 1676,
    "inal": 1677,
    "a256": 1678,
    "\u2581init": 1679,
    "ym": 1680,
    "\u2581findresourc": 1681,
    "\u25810x436": 1682,
    "help": 1683,
    "\u25810x1211fc0": 1684,
    "\u25810x42d4d8": 1685,
    "\u2581setc": 1686,
    "\u2581findresourceexw": 1687,
    "d04": 1688,
    "\u2581start": 1689,
    "\u2581sha256": 1690,
    "\u2581shellex": 1691,
    "708": 1692,
    "\u25810x7d50": 1693,
    "linkw": 1694,
    "ispatch": 1695,
    "sub": 1696,
    "ackage": 1697,
    "\u2581strncmp": 1698,
    "\u25810x8cc0": 1699,
    "\u25810x4790": 1700,
    "\u2581gettempfilenamew": 1701,
    "\u2581createprocess": 1702,
    "\u2581send": 1703,
    "ace": 1704,
    "ed8": 1705,
    "hen": 1706,
    "package": 1707,
    "ordinal": 1708,
    "ati": 1709,
    "\u25810x1211e14": 1710,
    "packageid": 1711,
    "\u2581getcurrentpackageid": 1712,
    "696": 1713,
    "\u2581ordinal": 1714,
    "92": 1715,
    "\u2581peek": 1716,
    "\u2581comparestringex": 1717,
    "\u25810x2e": 1718,
    "c2": 1719,
    "\u2581getlocaleinfoex": 1720,
    "ef": 1721,
    "\u2581shget": 1722,
    "\u25810x678": 1723,
    "\u25810x3f75": 1724,
    "\u25810x1211f8": 1725,
    "drive": 1726,
    "ct": 1727,
    "ymbo": 1728,
    "ymbolic": 1729,
    "7b": 1730,
    "ymboliclinkw": 1731,
    "\u2581createsymboliclinkw": 1732,
    "\u2581ch": 1733,
    "variablew": 1734,
    "stroy": 1735,
    "allock": 1736,
    "ret": 1737,
    "tered": 1738,
    "c04": 1739,
    "\u25810x1a": 1740,
    "\u2581code": 1741,
    "og": 1742,
    "a04": 1743,
    "eck": 1744,
    "yo": 1745,
    "\u25810x4371": 1746,
    "\u25810x4239": 1747,
    "\u25810x12119c0": 1748,
    "\u25816": 1749,
    "64000": 1750,
    "d0a": 1751,
    "\u2581with": 1752,
    "\u2581getde": 1753,
    "\u25810x21": 1754,
    "\u25810x414": 1755,
    "\u25810x1211e2c": 1756,
    "\u2581peekmessagea": 1757,
    "retur": 1758,
    "c1": 1759,
    "\u25814": 1760,
    "320": 1761,
    "xt": 1762,
    "\u25810xa429": 1763,
    "when": 1764,
    "processwrite": 1765,
    "processornumber": 1766,
    "\u2581flushprocesswrite": 1767,
    "\u2581setthreadpoolwait": 1768,
    "\u2581closethreadpoolwait": 1769,
    "\u2581closethreadpooltimer": 1770,
    "\u2581createthreadpoolwait": 1771,
    "\u2581flushprocesswritebuffers": 1772,
    "\u2581getcurrentprocessornumber": 1773,
    "oreexw": 1774,
    "returns": 1775,
    "callbacks": 1776,
    "whencallback": 1777,
    "timercallbacks": 1778,
    "\u2581waitforthreadpool": 1779,
    "whencallbackreturns": 1780,
    "\u2581createsemaphoreexw": 1781,
    "\u2581setthreadpooltimer": 1782,
    "\u2581createthreadpooltimer": 1783,
    "\u2581freelibrarywhencallbackreturns": 1784,
    "\u2581waitforthreadpooltimercallbacks": 1785,
    "\u2581wake": 1786,
    "gear": 1787,
    "\u25810x16": 1788,
    "\u2581wakeall": 1789,
    "\u2581codegear": 1790,
    "\u2581wakeallconditionvariable": 1791,
    "\u2581altered": 1792,
    "point": 1793,
    "\u2581setup": 1794,
    "\u25810x460": 1795,
    "692": 1796,
    "\u25810xfeee0028": 1797,
    "\u25810x12118": 1798,
    "\u25810xfde9": 1799,
    "\u25810x1211f7c": 1800,
    "\u2581closes": 1801,
    "ecomp": 1802,
    "ay": 1803,
    "\u25810x423": 1804,
    "\u25810xa9": 1805,
    "servicec": 1806,
    "div": 1807,
    "\u25810x44f9": 1808,
    "\u2581exe": 1809,
    "cb": 1810,
    "\u25810x53": 1811,
    "servicectrl": 1812,
    "vicec": 1813,
    "\u25810x1211dcc": 1814,
    "vicecaps": 1815,
    "\u2581getdevicecaps": 1816,
    "\u25810x42e": 1817,
    "atible": 1818,
    "62": 1819,
    "\u25810xfeee0040": 1820,
    "alet": 1821,
    "\u25810xfeee0072": 1822,
    "\u25810x5f5": 1823,
    "ecompatible": 1824,
    "\u2581createcompatible": 1825,
    "770": 1826,
    "\u2581globallock": 1827,
    "\u25810x4967": 1828,
    "588": 1829,
    "\u2581variant": 1830,
    "\u25810x1211fd8": 1831,
    "\u2581process32next": 1832,
    "c5": 1833,
    "ated": 1834,
    "e66": 1835,
    "\u2581getlogicaldrive": 1836,
    "\u25810x78a0": 1837,
    "e6c": 1838,
    "\u2581createmutexa": 1839,
    "\u2581setthread": 1840,
    "\u25810x46b0": 1841,
    "\u25810x569b00": 1842,
    "\u2581getenvironmentvariablew": 1843,
    "lp": 1844,
    "\u25810x9c": 1845,
    "\u25810x1211fd0": 1846,
    "e6b": 1847,
    "\u25810x22": 1848,
    "\u2581findfirstfilew": 1849,
    "bit": 1850,
    "\u2581getuserdefault": 1851,
    "\u2581loadiconw": 1852,
    "\u25810xc00": 1853,
    "b8000": 1854,
    "\u2581findresource": 1855,
    "bug": 1856,
    "ac000": 1857,
    "ssoc": 1858,
    "\u25810x169bf": 1859,
    "ssoci": 1860,
    "hot": 1861,
    "\u25810x412": 1862,
    "\u25810xfeee005d": 1863,
    "\u25810x1211fd4": 1864,
    "\u25810x419c": 1865,
    "3c000": 1866,
    "\u25810x7090": 1867,
    "39000": 1868,
    "53": 1869,
    "unmapview": 1870,
    "eration": 1871,
    "\u2581initterm": 1872,
    "\u25810x439": 1873,
    "ini": 1874,
    "\u25810x98": 1875,
    "\u2581createa": 1876,
    "\u25810xfeee0029": 1877,
    "ac6": 1878,
    "\u25810x101": 1879,
    "\u25810x7ae0": 1880,
    "\u25810x7b80": 1881,
    "system": 1882,
    "ryp": 1883,
    "clipboard": 1884,
    "\u25810x1211cc0": 1885,
    "338": 1886,
    "verflow": 1887,
    "sn": 1888,
    "acl": 1889,
    "ma": 1890,
    "securitydescriptor": 1891,
    "69000": 1892,
    "\u2581initialize": 1893,
    "\u25810x4feb": 1894,
    "a5000": 1895,
    "\u25810x214": 1896,
    "\u25810x15": 1897,
    "ecta": 1898,
    "\u2581getusernamea": 1899,
    "\u2581hton": 1900,
    "help32": 1901,
    "oolhelp32": 1902,
    "snaps": 1903,
    "strfrom": 1904,
    "\u2581varbstrfrom": 1905,
    "oolhelp32snaps": 1906,
    "\u2581createtoolhelp32snaps": 1907,
    "\u2581createtoolhelp32snapshot": 1908,
    "65": 1909,
    "54000": 1910,
    "ad000": 1911,
    "debug": 1912,
    "connection": 1913,
    "ordacl": 1914,
    "securitydescriptordacl": 1915,
    "\u2581enum": 1916,
    "\u2581initializesecuritydescriptor": 1917,
    "2w": 1918,
    "\u25810xfeee002a": 1919,
    "connection2w": 1920,
    "own": 1921,
    "\u25810x7300": 1922,
    "lect": 1923,
    "380": 1924,
    "\u25810x1211efc": 1925,
    "termin": 1926,
    "\u25810x88a0": 1927,
    "\u25810x8230": 1928,
    "\u25810x53000": 1929,
    "\u2581setsecuritydescriptordacl": 1930,
    "\u25810xfeee0046": 1931,
    "\u25810x25": 1932,
    "26000": 1933,
    "\u2581error": 1934,
    "icode": 1935,
    "bc000": 1936,
    "\u25810xb8": 1937,
    "\u25810x7900": 1938,
    "32000": 1939,
    "ab000": 1940,
    "34000": 1941,
    "24000": 1942,
    "\u25810x78c0": 1943,
    "\u25810x8920": 1944,
    "\u2581gettime": 1945,
    "securityinfo": 1946,
    "86": 1947,
    "48000": 1948,
    "004": 1949,
    "7c000": 1950,
    "a8000": 1951,
    "man": 1952,
    "38000": 1953,
    "28000": 1954,
    "56000": 1955,
    "74000": 1956,
    "tassoci": 1957,
    "tassociated": 1958,
    "\u2581extractassociated": 1959,
    "5c000": 1960,
    "a4000": 1961,
    "\u2581termin": 1962,
    "icodestring": 1963,
    "9c000": 1964,
    "b4000": 1965,
    "98000": 1966,
    "ofsection": 1967,
    "78000": 1968,
    "2c000": 1969,
    "initun": 1970,
    "\u2581rtlinitun": 1971,
    "\u2581rtlinitunicodestring": 1972,
    "ast": 1973,
    "58000": 1974,
    "c4000": 1975,
    "econdition": 1976,
    "\u25810x42b9": 1977,
    "68000": 1978,
    "econditionvariable": 1979,
    "\u2581beginup": 1980,
    "e3": 1981,
    "94000": 1982,
    "f04": 1983,
    "\u25810x7390": 1984,
    "\u25810xfeee007c": 1985,
    "c7": 1986,
    "\u25810xfeee002c": 1987,
    "e6669": 1988,
    "\u25810d0a": 1989,
    "696e6b": 1990,
    "\u25810x78d0": 1991,
    "692e6669": 1992,
    "696e6b692e6669": 1993,
    "e68": 1994,
    "\u25810x7ad0": 1995,
    "\u2581deletecriticalsection": 1996,
    "13": 1997,
    "\u25813": 1998,
    "\u25810x79d0": 1999,
    "untime": 2000,
    "\u2581cryp": 2001,
    "\u2581lock": 2002,
    "\u2581loadcursorw": 2003,
    "\u258110": 2004,
    "\u2581select": 2005,
    "\u25810xfeee002b": 2006,
    "\u25810x7270": 2007,
    "contr": 2008,
    "\u25810x2f": 2009,
    "\u25810xfeee002d": 2010,
    "\u25810xfeee002f": 2011,
    "\u25810x51": 2012,
    "\u25810x7060": 2013,
    "ush": 2014,
    "\u25810x3c": 2015,
    "\u25810x86": 2016,
    "\u25810x6781": 2017,
    "\u25810xfeee0074": 2018,
    "7a": 2019,
    "tes": 2020,
    "\u25810xfeee002e": 2021,
    "b9c": 2022,
    "\u25810x71b0": 2023,
    "\u25810x59": 2024,
    "\u2581wc": 2025,
    "\u25810x428": 2026,
    "\u25810x66": 2027,
    "\u25810x7870": 2028,
    "\u25810xfeee006b": 2029,
    "\u25810x9030": 2030,
    "main": 2031,
    "cel": 2032,
    "\u25810xfeee006d": 2033,
    "\u25810x434": 2034,
    "brush": 2035,
    "\u2581getfileattributesw": 2036,
    "\u25810xa3a7": 2037,
    "\u25810x7030": 2038,
    "\u25810xfeee0045": 2039,
    "valu": 2040,
    "\u2581releasedc": 2041,
    "188": 2042,
    "2b": 2043,
    "\u2581txt": 2044,
    "\u25810x42a9": 2045,
    "\u25810x1211dd4": 2046,
    "\u25810x1211780": 2047,
    "\u25810x7b40": 2048,
    "\u25810x7b10": 2049,
    "\u25810xfeee0030": 2050,
    "chan": 2051,
    "\u25810x75d0": 2052,
    "sti": 2053,
    "\u25810x79c0": 2054,
    "\u25810x1211f28": 2055,
    "\u25810x71e0": 2056,
    "\u2581ne": 2057,
    "\u25810xfeee0031": 2058,
    "ont": 2059,
    "sup": 2060,
    "\u25810xfeee009a": 2061,
    "\u25810x47c0": 2062,
    "\u2581createthread": 2063,
    "\u25810x7210": 2064,
    "\u25810xfeee01": 2065,
    "\u25810x74e0": 2066,
    "\u25810x7750": 2067,
    "\u25810x7a50": 2068,
    "d80": 2069,
    "\u25810x7240": 2070,
    "\u25810x72d0": 2071,
    "fer": 2072,
    "6d": 2073,
    "\u2581loadresource": 2074,
    "\u25810x70c0": 2075,
    "\u25810x7180": 2076,
    "\u25810x8090": 2077,
    "\u25810xfeee0044": 2078,
    "\u25810x7120": 2079,
    "\u258132": 2080,
    "\u2581of": 2081,
    "\u25810x70f0": 2082,
    "\u25810x7600": 2083,
    "\u25810x7330": 2084,
    "\u2581getdate": 2085,
    "\u25810x7cf0": 2086,
    "\u25810x7480": 2087,
    "add": 2088,
    "\u25810x75a0": 2089,
    "\u25810x7360": 2090,
    "\u25810x7a20": 2091,
    "\u2581mon": 2092,
    "\u25810x7660": 2093,
    "\u25810x7570": 2094,
    "\u25810x7720": 2095,
    "\u25810x12117f8": 2096,
    "\u25810xfeee005e": 2097,
    "\u25810x73c0": 2098,
    "\u25810x7840": 2099,
    "\u25810x74b0": 2100,
    "\u25810x7420": 2101,
    "\u25810x7510": 2102,
    "\u25810x76c0": 2103,
    "\u25810x76f0": 2104,
    "\u25810x7450": 2105,
    "\u25810x7ba0": 2106,
    "\u25810x77b0": 2107,
    "c9": 2108,
    "\u25810x42a9a0": 2109,
    "\u25810x7960": 2110,
    "\u25810x7630": 2111,
    "lphi": 2112,
    "\u2581delphi": 2113,
    "\u25810x7780": 2114,
    "\u25810x48f8": 2115,
    "\u25810x44f8e0": 2116,
    "\u25810x7b70": 2117,
    "\u25810xfeee0043": 2118,
    "\u25810x420c": 2119,
    "folderw": 2120,
    "\u25810xfeee0047": 2121,
    "\u25810x5f500000": 2122,
    "57": 2123,
    "\u25810xfeee0033": 2124,
    "\u25810xfeee0032": 2125,
    "\u25810xfeee0035": 2126,
    "\u2581update": 2127,
    "\u25810xfeee0048": 2128,
    "\u258120220": 2129,
    "\u25810x41b9": 2130,
    "\u2581coinitializ": 2131,
    "\u25812022030": 2132,
    "\u25810xfeee0034": 2133,
    "input": 2134,
    "\u2581findresourcew": 2135,
    "\u2581ofresource": 2136,
    "\u25810xfeee003b": 2137,
    "\u2581rec": 2138,
    "refer": 2139,
    "\u25810x7f0": 2140,
    "messagew": 2141,
    "\u25810xfeee0036": 2142,
    "\u25810x96": 2143,
    "\u25810xfeee0037": 2144,
    "\u25810xfeee0049": 2145,
    "\u25810x188": 2146,
    "\u2581font": 2147,
    "\u2581lockresource": 2148,
    "\u25810xe0": 2149,
    "\u25810xd000": 2150,
    "\u2581malloc": 2151,
    "\u25810x68": 2152,
    "\u25810xfeee0038": 2153,
    "\u25810xfeee0039": 2154,
    "\u2581po": 2155,
    "\u25810xfeee0041": 2156,
    "\u25810xfeee003f": 2157,
    "\u25810xfeee0042": 2158,
    "9a": 2159,
    "\u2581show": 2160,
    "\u25810x4c32": 2161,
    "\u25810xfeee0062": 2162,
    "ab8": 2163,
    "110": 2164,
    "\u25810xfeee003a": 2165,
    "stitu": 2166,
    "\u25810x169b9": 2167,
    "\u25810xfeee003d": 2168,
    "stitutes": 2169,
    "\u2581fontsub": 2170,
    "\u2581fontsubstitutes": 2171,
    "\u25810x8e": 2172,
    "\u2581enumsystem": 2173,
    "\u25810xfeee003e": 2174,
    "\u25810xfeee003c": 2175,
    "\u25810x1211508": 2176,
    "\u25810x94c0": 2177,
    "5b": 2178,
    "ca": 2179,
    "\u25810x3f2000": 2180,
    "\u25810x42dac6": 2181,
    "7f": 2182,
    "arg": 2183,
    "cad": 2184,
    "\u2581createdirectorya": 2185,
    "ysical": 2186,
    "de0": 2187,
    "\u25810xd0": 2188,
    "\u2581getsysteminfo": 2189,
    "\u2581ph": 2190,
    "\u25810xfeee0053": 2191,
    "\u25810xfeee0060": 2192,
    "\u25810xfeee0065": 2193,
    "\u25810x41f3": 2194,
    "\u25810xfeee004a": 2195,
    "\u25810xfeee005c": 2196,
    "if": 2197,
    "\u25810xfeee0066": 2198,
    "\u25810x1211bc0": 2199,
    "\u25810x42a40": 2200,
    "\u2581physical": 2201,
    "\u25810xfeee0067": 2202,
    "\u25810x40a": 2203,
    "\u25810xfeee0061": 2204,
    "\u25810x3e": 2205,
    "\u25810xfeee004d": 2206,
    "\u25810xfeee005a": 2207,
    "\u25810xfeee004b": 2208,
    "\u25810xfeee004c": 2209,
    "\u25810xfeee005b": 2210,
    "\u25810xfeee0073": 2211,
    "\u25810x1211928": 2212,
    "\u25810xfeee0050": 2213,
    "draw": 2214,
    "\u25810xfeee0063": 2215,
    "118": 2216,
    "\u25810xfeee004e": 2217,
    "\u25810xfeee0055": 2218,
    "\u25810xfeee0054": 2219,
    "\u25810xfeee004f": 2220,
    "\u25810xfeee0051": 2221,
    "\u25810xfeee0052": 2222,
    "\u25810xfeee0068": 2223,
    "\u25810xfeee0056": 2224,
    "\u25810xfeee0057": 2225,
    "\u25810xfeee0058": 2226,
    "errormode": 2227,
    "\u2581seterrormode": 2228,
    "\u25810xfeee0059": 2229,
    "\u25810x1211f2c": 2230,
    "\u25810x422": 2231,
    "\u25810x85": 2232,
    "\u25810x1211ee0": 2233,
    "oct": 2234,
    "leob": 2235,
    "688": 2236,
    "\u2581enumsystemlocales": 2237,
    "ac0": 2238,
    "\u25810xfeee0064": 2239,
    "e44": 2240,
    "208": 2241,
    "\u25810xfeee0075": 2242,
    "\u2581getuserdefaultlocalename": 2243,
    "cy": 2244,
    "\u2581getdateformatex": 2245,
    "\u2581isvalidlocalename": 2246,
    "\u2581enumsystemlocalesex": 2247,
    "\u2581gettimeformatex": 2248,
    "\u25810xfeee0081": 2249,
    "\u25810xfeee0070": 2250,
    "variablea": 2251,
    "\u25810x7d0": 2252,
    "text": 2253,
    "\u25810x80000000": 2254,
    "\u2581getmessagea": 2255,
    "\u25810x29": 2256,
    "\u25810xfeee006c": 2257,
    "\u25810xa2": 2258,
    "\u25810x655": 2259,
    "\u2581getmain": 2260,
    "268": 2261,
    "ec8": 2262,
    "redu": 2263,
    "referredu": 2264,
    "referreduilanguage": 2265,
    "threadp": 2266,
    "threadpreferreduilanguage": 2267,
    "\u2581recv": 2268,
    "threadpreferreduilanguages": 2269,
    "c4c": 2270,
    "\u25810x1211f00": 2271,
    "windowproc": 2272,
    "\u25810xfeee006f": 2273,
    "\u25810xfeee006e": 2274,
    "\u25810xfeee006a": 2275,
    "\u2581registerclassexa": 2276,
    "\u25810x12119ac": 2277,
    "\u258116463": 2278,
    "\u2581getsystemdirectorya": 2279,
    "\u25810x65500000": 2280,
    "\u25810xfeee0069": 2281,
    "ata": 2282,
    "sing": 2283,
    "isk": 2284,
    "\u2581findnext": 2285,
    "\u25810x39": 2286,
    "\u2581q": 2287,
    "keyboard": 2288,
    "\u25810x42b9a0": 2289,
    "\u25810x1211f34": 2290,
    "\u25810xa1": 2291,
    "a58": 2292,
    "\u25810x7ee0": 2293,
    "\u25810x4c42d8": 2294,
    "\u25810x4c42f0": 2295,
    "56c": 2296,
    "\u2581windowsnt": 2297,
    "\u25810x7df0": 2298,
    "63": 2299,
    "\u2581getkeyboard": 2300,
    "lecs": 2301,
    "\u25810x3bc": 2302,
    "variablecs": 2303,
    "\u2581sleepcondition": 2304,
    "\u2581sleepconditionvariablecs": 2305,
    "\u25810x40a9": 2306,
    "\u25810x78f0": 2307,
    "\u2581def": 2308,
    "\u25810x40933d": 2309,
    "\u25810x40933e": 2310,
    "\u25810x40933f": 2311,
    "\u25810x409340": 2312,
    "\u25810x409341": 2313,
    "\u25810x409342": 2314,
    "\u25810x409343": 2315,
    "valueexw": 2316,
    "\u2581createw": 2317,
    "\u2581deletefilea": 2318,
    "93": 2319,
    "\u25810x1211fc4": 2320,
    "\u2581getlogicalprocessor": 2321,
    "ec0": 2322,
    "\u2581getlogicalprocessorinformation": 2323,
    "\u25810x6781d8": 2324,
    "mage": 2325,
    "nextw": 2326,
    "stack": 2327,
    "\u25810x4bc": 2328,
    "\u2581showwindow": 2329,
    "guar": 2330,
    "\u25810x51a": 2331,
    "antee": 2332,
    "guarantee": 2333,
    "stackguarantee": 2334,
    "\u2581setthreadstackguarantee": 2335,
    "ray": 2336,
    "\u25810x1211bfc": 2337,
    "reg": 2338,
    "\u25810xfeee0089": 2339,
    "singleob": 2340,
    "\u2581defwindowproc": 2341,
    "pro": 2342,
    "\u25810xfeee008a": 2343,
    "\u2581hg": 2344,
    "\u2581app": 2345,
    "\u2581hgdraw": 2346,
    "\u25810x6d": 2347,
    "e08": 2348,
    "tok": 2349,
    "\u2581waitforsingleob": 2350,
    "\u2581trans": 2351,
    "allocate": 2352,
    "\u2581end": 2353,
    "\u2581loadlibraryw": 2354,
    "\u25810x5a": 2355,
    "\u25810x42e0": 2356,
    "uter": 2357,
    "windows": 2358,
    "f8000": 2359,
    "388": 2360,
    "\u2581process32nextw": 2361,
    "ho": 2362,
    "\u25810xfeee0078": 2363,
    "\u25810xfeee0077": 2364,
    "computer": 2365,
    "\u25810xfeee0079": 2366,
    "\u2581updatewindow": 2367,
    "\u25810xfeee0076": 2368,
    "\u25810x433648": 2369,
    "b04": 2370,
    "\u25810x1211d04": 2371,
    "token": 2372,
    "localtime": 2373,
    "\u25810x1211cfc": 2374,
    "\u25810x8a80": 2375,
    "\u25810xfeee007a": 2376,
    "drl6660drl6660drl6660drl6660": 2377,
    "\u25810x80c4": 2378,
    "\u2581gettickcount64": 2379,
    "008": 2380,
    "\u25810x36": 2381,
    "vol": 2382,
    "pos": 2383,
    "\u25810x42b": 2384,
    "\u25810x7cd0": 2385,
    "\u25810x1211dc8": 2386,
    "e4000": 2387,
    "\u25810xfeee007f": 2388,
    "bitmap": 2389,
    "\u2581beginpaint": 2390,
    "9b": 2391,
    "stringsa": 2392,
    "load": 2393,
    "002": 2394,
    "6e": 2395,
    "\u2581destroy": 2396,
    "\u2581endpaint": 2397,
    "closekey": 2398,
    "\u2581regclosekey": 2399,
    "\u25810x9a": 2400,
    "\u25810x1211c04": 2401,
    "\u25810x12117e8": 2402,
    "ume": 2403,
    "\u25810x12117fc": 2404,
    "\u2581globalfree": 2405,
    "volume": 2406,
    "e04": 2407,
    "os": 2408,
    "\u25810x42fc": 2409,
    "array": 2410,
    "\u25810x527": 2411,
    "\u25810x410770": 2412,
    "\u2581olea": 2413,
    "\u2581getlocaltime": 2414,
    "\u25810x1211a04": 2415,
    "\u2581getfileinformationby": 2416,
    "\u25810x1211f30": 2417,
    "ug": 2418,
    "10c": 2419,
    "\u25810xffff": 2420,
    "\u2581registry": 2421,
    "\u25810x4800": 2422,
    "e69": 2423,
    "rect": 2424,
    "quit": 2425,
    "\u2581post": 2426,
    "\u2581seten": 2427,
    "ify": 2428,
    "\u2581transl": 2429,
    "\u2581setwindow": 2430,
    "\u25810x404": 2431,
    "\u25810xa8": 2432,
    "\u25810x1211768": 2433,
    "\u25810xfeee0080": 2434,
    "140": 2435,
    "\u2581lstrcmp": 2436,
    "\u2581crypt": 2437,
    "\u25810x527ed8": 2438,
    "\u25810x1211578": 2439,
    "b7c": 2440,
    "\u25810x408": 2441,
    "2f": 2442,
    "\u25810x1211308": 2443,
    "\u25810x424": 2444,
    "down": 2445,
    "\u25810x3f34": 2446,
    "typ": 2447,
    "\u2581shellexecute": 2448,
    "\u2581com": 2449,
    "ial": 2450,
    "volumeinformation": 2451,
    "\u2581getvolumeinformation": 2452,
    "\u2581nov": 2453,
    "\u2581sep": 2454,
    "host": 2455,
    "\u25810x4208": 2456,
    "\u2581ver": 2457,
    "\u25810xfeee007d": 2458,
    "\u25810xfeee0095": 2459,
    "d08": 2460,
    "\u25810x418a": 2461,
    "variant": 2462,
    "tof": 2463,
    "ong": 2464,
    "\u2581getfileinformationbyhandl": 2465,
    "\u25810xfeee008e": 2466,
    "\u2581apr": 2467,
    "\u2581aug": 2468,
    "ember": 2469,
    "\u2581regset": 2470,
    "fe8": 2471,
    "5a": 2472,
    "\u25810x40a2": 2473,
    "\u2581sun": 2474,
    "mapp": 2475,
    "state": 2476,
    "\u2581getenvironmentvariablea": 2477,
    "fileattributesa": 2478,
    "mapping": 2479,
    "filemapping": 2480,
    "\u25810x42d8c6": 2481,
    "\u25810x4428": 2482,
    "\u25810x33": 2483,
    "\u25810xfeee0082": 2484,
    "uary": 2485,
    "\u25810x437880": 2486,
    "\u2581may": 2487,
    "b50": 2488,
    "unlock": 2489,
    "versioninfow": 2490,
    "sday": 2491,
    "\u2581tue": 2492,
    "\u2581wed": 2493,
    "\u2581ws2": 2494,
    "3f8": 2495,
    "teen": 2496,
    "aletteen": 2497,
    "aletteentries": 2498,
    "\u2581translate": 2499,
    "\u25810x7e80": 2500,
    "\u2581setfileinformationby": 2501,
    "\u25810x7db0": 2502,
    "\u2581createexw": 2503,
    "\u2581verify": 2504,
    "\u25810x42a0": 2505,
    "\u25810x95": 2506,
    "\u25810xfeee008c": 2507,
    "utof": 2508,
    "\u25810x1211f3c": 2509,
    "\u25810x1d": 2510,
    "spec": 2511,
    "suped": 2512,
    "long": 2513,
    "726": 2514,
    "\u25810x7e74": 2515,
    "texta": 2516,
    "\u25810x7e75": 2517,
    "\u25810xfeee008d": 2518,
    "\u25810xfeee007b": 2519,
    "\u25810x7e78": 2520,
    "\u25810x7e79": 2521,
    "\u25810x60000": 2522,
    "\u25810x4620": 2523,
    "\u25810xfeee0084": 2524,
    "orsa": 2525,
    "\u25810x7e7c": 2526,
    "vice": 2527,
    "\u25810x7e7d": 2528,
    "\u2581dispatch": 2529,
    "\u25810x1211e08": 2530,
    "\u2581verifyversioninfow": 2531,
    "108": 2532,
    "ed4": 2533,
    "ows": 2534,
    "\u25810x42d5": 2535,
    "\u2581getsystemp": 2536,
    "\u2581getsystempaletteentries": 2537,
    "\u25810x8410": 2538,
    "\u25810x1211f4c": 2539,
    "\u2581floatingpoin": 2540,
    "toperation": 2541,
    "byzero": 2542,
    "isionbyzero": 2543,
    "cd": 2544,
    "\u25810x7e81": 2545,
    "\u25810x1211cdc": 2546,
    "\u25810x42c0": 2547,
    "\u25810x8330": 2548,
    "\u2581createfilemapping": 2549,
    "\u25810x41db": 2550,
    "atet": 2551,
    "namew": 2552,
    "\u25810x3e6c": 2553,
    "\u25810x5b": 2554,
    "\u2581varr": 2555,
    "4fromstr": 2556,
    "\u25810x10000": 2557,
    "\u2581er": 2558,
    "\u2581contr": 2559,
    "fearray": 2560,
    "\u25810x7e84": 2561,
    "ce8": 2562,
    "\u25810x7e85": 2563,
    "\u25810x4e5": 2564,
    "\u25810x8340": 2565,
    "\u25810x41bc20": 2566,
    "ervice": 2567,
    "\u25810x1211e40": 2568,
    "\u25810xfeee0087": 2569,
    "tou": 2570,
    "\u25810xfeee0088": 2571,
    "\u25810xa7": 2572,
    "\u25810x2d4": 2573,
    "c3": 2574,
    "enum": 2575,
    "textou": 2576,
    "\u25810x37": 2577,
    "\u25810x4710": 2578,
    "\u25810xfeee0083": 2579,
    "\u25810x120e6d4": 2580,
    "\u25810xfeee0085": 2581,
    "\u25810xfeee0086": 2582,
    "\u2581coinitializeex": 2583,
    "\u25810x31": 2584,
    "328": 2585,
    "42": 2586,
    "\u2581postquit": 2587,
    "\u2581postquitmessage": 2588,
    "pe": 2589,
    "5d54": 2590,
    "ow64": 2591,
    "your": 2592,
    "\u25810x9230": 2593,
    "\u25810x6a6": 2594,
    "orsafearray": 2595,
    "\u2581createfilemappinga": 2596,
    "\u25810x40a5dc": 2597,
    "\u25810x40a5cc": 2598,
    "\u25810xfeee008f": 2599,
    "\u25810x3f75f": 2600,
    "se": 2601,
    "\u25810x4015": 2602,
    "\u25810xfeee0090": 2603,
    "\u2581translatemessage": 2604,
    "\u25810x120e6d0": 2605,
    "\u2581image": 2606,
    "\u25810x6b": 2607,
    "ysta": 2608,
    "\u2581check": 2609,
    "\u2581golfset": 2610,
    "900": 2611,
    "\u25810x41de80": 2612,
    "\u25810x52": 2613,
    "\u25810x57": 2614,
    "\u25810x1210d": 2615,
    "\u25810x2d": 2616,
    "\u2581regsetvalueexw": 2617,
    "\u25810x45fc": 2618,
    "\u2581device": 2619,
    "\u2581createprocessa": 2620,
    "\u2581initializeconditionvariable": 2621,
    "\u25810x42c588": 2622,
    "dec8": 2623,
    "\u2581n": 2624,
    "a0000": 2625,
    "\u25810x9240": 2626,
    "\u25810x41d8": 2627,
    "\u25810x7d95": 2628,
    "\u25810xfeee0092": 2629,
    "\u2581getcurrentdirectoryw": 2630,
    "\u25810x1211fdc": 2631,
    "ty": 2632,
    "\u25810x7d94": 2633,
    "\u25810x431f": 2634,
    "\u25810x61": 2635,
    "\u25810x4094": 2636,
    "\u2581lstrcpy": 2637,
    "\u2581bat": 2638,
    "\u25810x5f": 2639,
    "files": 2640,
    "\u25810x567": 2641,
    "\u2581gettempa": 2642,
    "connect": 2643,
    "\u2581tr": 2644,
    "\u25810x8d10": 2645,
    "wow64": 2646,
    "\u25810xa5": 2647,
    "round": 2648,
    "\u25810x1211ef0": 2649,
    "114": 2650,
    "\u25810x9460": 2651,
    "\u25810x121193c": 2652,
    "\u2581point": 2653,
    "nal": 2654,
    "rata": 2655,
    "\u2581prec": 2656,
    "\u2581errata": 2657,
    "\u2581precision": 2658,
    "\u25810x121194c": 2659,
    "\u2581san": 2660,
    "fdr": 2661,
    "\u2581sanfdr": 2662,
    "\u25810xfeee0094": 2663,
    "\u25810x4960": 2664,
    "\u25810x4054": 2665,
    "bl": 2666,
    "\u25810xfeee0091": 2667,
    "\u2581globalunlock": 2668,
    "\u25810x801000": 2669,
    "\u25810x41d7": 2670,
    "\u2581mapview": 2671,
    "\u2581defwindowproca": 2672,
    "\u25810x11c": 2673,
    "\u25810x8814": 2674,
    "\u2581selec": 2675,
    "\u25810x41dda8": 2676,
    "\u25810x41ddc0": 2677,
    "\u25810x800000": 2678,
    "\u25810x41db9c": 2679,
    "\u25810x41db74": 2680,
    "\u25810x41ddf0": 2681,
    "\u25810x405d54": 2682,
    "f828": 2683,
    "\u25810x4d70": 2684,
    "bk": 2685,
    "\u25810x41de38": 2686,
    "\u25810x41de68": 2687,
    "\u2581registerclassa": 2688,
    "\u25810xfeee0093": 2689,
    "\u25810x41de98": 2690,
    "\u2581res": 2691,
    "\u25810x41deb0": 2692,
    "\u2581deleteob": 2693,
    "\u25810x41dec8": 2694,
    "46": 2695,
    "\u25810x7de4": 2696,
    "\u25810x12117a4": 2697,
    "\u2581findwindow": 2698,
    "nexec": 2699,
    "\u25810x121157c": 2700,
    "\u2581mapviewoffile": 2701,
    "\u25810x7be0": 2702,
    "\u25810x7de5": 2703,
    "\u2581dispatchmessagea": 2704,
    "\u25810xfeee0098": 2705,
    "yarg": 2706,
    "tob": 2707,
    "\u25810x40a2d5": 2708,
    "ut32": 2709,
    "\u2581oleaut32": 2710,
    "\u25810x58de": 2711,
    "400": 2712,
    "\u25810x4bd0": 2713,
    "\u25810xfeee0099": 2714,
    "\u2581setfileattributesa": 2715,
    "\u25810x6c": 2716,
    "manag": 2717,
    "foreg": 2718,
    "foreground": 2719,
    "\u25810xfeee0097": 2720,
    "foregroundwindow": 2721,
    "cept": 2722,
    "\u2581680": 2723,
    "\u25810xfeee0096": 2724,
    "ust": 2725,
    "\u2581imagelist": 2726,
    "\u25810xfeee009b": 2727,
    "e61": 2728,
    "ethread": 2729,
    "\u2581shgetfolderw": 2730,
    "\u25810x48f898": 2731,
    "\u25810xfeee009c": 2732,
    "\u25810x41d6": 2733,
    "\u2581copyfilea": 2734,
    "\u2581winexec": 2735,
    "\u25810x4170": 2736,
    "am": 2737,
    "blt": 2738,
    "\u25810x152": 2739,
    "box": 2740,
    "808": 2741,
    "\u25810x8815": 2742,
    "\u25810x44f928": 2743,
    "\u25810x1211bd0": 2744,
    "\u2581connect": 2745,
    "\u25810x1211f88": 2746,
    "\u2581getcomputer": 2747,
    "6a": 2748,
    "\u25810x1211af0": 2749,
    "\u25810x41d838": 2750,
    "bc8": 2751,
    "\u25810x4189": 2752,
    "\u25810x8026": 2753,
    "\u25810x8d2": 2754,
    "sid": 2755,
    "cf": 2756,
    "\u25810x41d6d0": 2757,
    "\u25810x41d740": 2758,
    "\u25810x41f828": 2759,
    "\u25810x41d708": 2760,
    "bkcolor": 2761,
    "\u2581accept": 2762,
    "\u25810x4e50": 2763,
    "\u25810x120e69": 2764,
    "\u25810x405461": 2765,
    "\u2581selectob": 2766,
    "\u2581textou": 2767,
    "\u25810x1211f04": 2768,
    "\u25810x35": 2769,
    "\u25810x81": 2770,
    "\u2581iswow64": 2771,
    "\u2581iswow64process": 2772,
    "\u25810x41b910": 2773,
    "\u25810x525": 2774,
    "\u25810x84b0": 2775,
    "\u25810x8310": 2776,
    "d73": 2777,
    "rag": 2778,
    "op": 2779,
    "b08": 2780,
    "\u2581setfileattributesw": 2781,
    "104": 2782,
    "408": 2783,
    "f08": 2784,
    "rand": 2785,
    "\u2581allocate": 2786,
    "\u25810x2b": 2787,
    "\u2581process32first": 2788,
    "988": 2789,
    "\u25810x9020": 2790,
    "\u2581runtime": 2791,
    "\u25810x40f6": 2792,
    "\u25810xa6": 2793,
    "\u25810x1211f48": 2794,
    "350": 2795,
    "endoffile": 2796,
    "\u25810x107568": 2797,
    "\u2581op": 2798,
    "ontin": 2799,
    "\u25810x1211938": 2800,
    "lid": 2801,
    "\u25810x40152c": 2802,
    "\u25810x70b8": 2803,
    "\u25810x1525000": 2804,
    "ystate": 2805,
    "\u25810x58c0": 2806,
    "\u2581registerwindow": 2807,
    "\u2581getlogicaldrivestringsa": 2808,
    "\u25810x11cc4c": 2809,
    "\u25810x70b86f": 2810,
    "\u2581createprocessw": 2811,
    "ger": 2812,
    "\u25810x97a0": 2813,
    "\u25810x4229": 2814,
    "00a": 2815,
    "change": 2816,
    "\u2581setbkcolor": 2817,
    "artup": 2818,
    "\u25810x7bf0": 2819,
    "can": 2820,
    "terect": 2821,
    "\u2581deletedc": 2822,
    "\u2581findnextfilew": 2823,
    "\u25810x7b90": 2824,
    "\u25810x42ce": 2825,
    "\u2581getforegroundwindow": 2826,
    "\u25810x12110": 2827,
    "\u25810x20000": 2828,
    "its": 2829,
    "pyn": 2830,
    "\u2581lstrcpyn": 2831,
    "servicectrlhandl": 2832,
    "\u2581registerservicectrlhandl": 2833,
    "\u25810xf0": 2834,
    "\u2581z": 2835,
    "\u2581resum": 2836,
    "\u2581resumethread": 2837,
    "ternal": 2838,
    "\u2581sendmessagea": 2839,
    "\u2581closesocket": 2840,
    "\u25810x519": 2841,
    "emutex": 2842,
    "\u2581releasemutex": 2843,
    "d8000": 2844,
    "dos": 2845,
    "\u2581drawtexta": 2846,
    "f0000": 2847,
    "textcolor": 2848,
    "\u2581bit": 2849,
    "\u25810x437a": 2850,
    "aterect": 2851,
    "\u25810x3f3000": 2852,
    "ervicehandle": 2853,
    "\u2581closeservicehandle": 2854,
    "numberof": 2855,
    "\u2581exitthread": 2856,
    "scmanag": 2857,
    "\u2581openscmanag": 2858,
    "\u2581setwindowpos": 2859,
    "\u2581getcomputernamea": 2860,
    "\u2581unmapview": 2861,
    "\u2581unmapviewoffile": 2862,
    "\u2581mpr": 2863,
    "\u2581exed": 2864,
    "\u2581createcompatibledc": 2865,
    "\u25810x4317": 2866,
    "\u2581bitblt": 2867,
    "lasslong": 2868,
    "\u2581exedows": 2869,
    "atethread": 2870,
    "\u2581settextcolor": 2871,
    "ore": 2872,
    "\u25810x1f000": 2873,
    "368": 2874,
    "\u25810x40a58": 2875,
    "\u2581terminatethread": 2876,
    "\u25810x42a7": 2877,
    "\u2581textouta": 2878,
    "ull": 2879,
    "\u2581he": 2880,
    "\u2581registerclassexw": 2881,
    "fec": 2882,
    "\u2581createcompatiblebitmap": 2883,
    "esid": 2884,
    "\u25810x46e0": 2885,
    "andinitializ": 2886,
    "andinitializesid": 2887,
    "\u2581allocateandinitializesid": 2888,
    "erat": 2889,
    "dup": 2890,
    "\u25810x6b9": 2891,
    "\u25810x9b": 2892,
    "a88": 2893,
    "\u2581openscmanagerw": 2894,
    "\u2581getke": 2895,
    "\u2581getkeystate": 2896,
    "dispatch": 2897,
    "\u2581geticon": 2898,
    "\u2581startservicectrl": 2899,
    "\u2581startservicectrldispatch": 2900,
    "\u2581openservicew": 2901,
    "adm": 2902,
    "\u2581srand": 2903,
    "\u2581ra": 2904,
    "dib": 2905,
    "\u2581setservice": 2906,
    "\u2581setservicestatus": 2907,
    "ee8": 2908,
    "\u2581startservicew": 2909,
    "\u2581startservicectrldispatcherw": 2910,
    "\u25810x99e0": 2911,
    "\u25810x4315": 2912,
    "\u25810x437ad": 2913,
    "\u25810x437c4": 2914,
    "\u2581failedto": 2915,
    "\u25810x4371e6": 2916,
    "\u25810x4371e7": 2917,
    "d4000": 2918,
    "eexception": 2919,
    "\u2581createservicew": 2920,
    "\u2581cb": 2921,
    "\u25810x91": 2922,
    "\u2581rais": 2923,
    "\u25810x43b7c": 2924,
    "\u2581raiseexception": 2925,
    "wi": 2926,
    "\u2581getdib": 2927,
    "\u2581work": 2928,
    "\u2581copyfilew": 2929,
    "\u25810x43b7b9": 2930,
    "ad4": 2931,
    "\u25810x43b7c3": 2932,
    "cc000": 2933,
    "inki": 2934,
    "\u2581hels": 2935,
    "\u2581helsinki": 2936,
    "\u2581findwindowa": 2937,
    "\u258174": 2938,
    "enthread": 2939,
    "querys": 2940,
    "\u25810xb4": 2941,
    "\u25810x56bb": 2942,
    "0x": 2943,
    "\u2581openthread": 2944,
    "\u2581error0x": 2945,
    "\u2581sus": 2946,
    "\u25810x4308": 2947,
    "utput": 2948,
    "\u25810x42e5f8": 2949,
    "\u2581freesid": 2950,
    "\u2581suspend": 2951,
    "\u2581getdibits": 2952,
    "\u2581suspendthread": 2953,
    "\u25810x8280": 2954,
    "\u2581htons": 2955,
    "izn": 2956,
    "riv": 2957,
    "iznadm": 2958,
    "\u2581triznadm": 2959,
    "\u25810x5d": 2960,
    "\u25810x432": 2961,
    "\u25810x67000000": 2962,
    "\u25810xb0": 2963,
    "\u2581socket": 2964,
    "\u2581wsast": 2965,
    "\u2581wsastartup": 2966,
    "\u2581u": 2967,
    "\u2581createf": 2968,
    "\u25810x567a40": 2969,
    "ed000": 2970,
    "\u2581getob": 2971,
    "\u25810x8cf0": 2972,
    "ontindir": 2973,
    "\u2581createfontindir": 2974,
    "solid": 2975,
    "\u2581settimer": 2976,
    "querysystem": 2977,
    "\u25810x4feba8": 2978,
    "querysysteminformation": 2979,
    "\u2581createdib": 2980,
    "\u25810x41f": 2981,
    "\u25810x51000": 2982,
    "\u25810x2ac": 2983,
    "solidbrush": 2984,
    "\u2581createsolidbrush": 2985,
    "6b": 2986,
    "\u2581getusernamew": 2987,
    "utdown": 2988,
    "\u25810x3f22": 2989,
    "\u25810x9d": 2990,
    "\u2581getnumberof": 2991,
    "\u2581getnumberofconsole": 2992,
    "\u2581invalidaterect": 2993,
    "\u2581fill": 2994,
    "\u25810x1211b04": 2995,
    "ccc": 2996,
    "ff8": 2997,
    "\u25810x3d": 2998,
    "nenum": 2999,
    "\u2581remo": 3000,
    "\u2581getlogicaldrivestringsw": 3001,
    "\u25810x4319": 3002,
    "\u2581gethost": 3003,
    "c8000": 3004,
    "a08": 3005,
    "11000": 3006,
    "\u2581bind": 3007,
    "\u2581openmutexa": 3008,
    "tope": 3009,
    "\u2581wnetope": 3010,
    "\u2581wnetopenenum": 3011,
    "fc8": 3012,
    "\u2581wnetopenenumw": 3013,
    "\u2581createfontindirecta": 3014,
    "ddata": 3015,
    "lipboar": 3016,
    "lipboarddata": 3017,
    "76f7": 3018,
    "\u2581destroyicon": 3019,
    "\u25810x52000": 3020,
    "byname": 3021,
    "lasslonga": 3022,
    "e88": 3023,
    "hip": 3024,
    "\u25810x1210f8": 3025,
    "\u2581gethostbyname": 3026,
    "ce000": 3027,
    "\u25810x1211c14": 3028,
    "bar": 3029,
    "members": 3030,
    "membership": 3031,
    "\u2581getkeyboardstate": 3032,
    "\u2581wnetadd": 3033,
    "\u2581checktoken": 3034,
    "\u2581checktokenmembership": 3035,
    "ivi": 3036,
    "resourcew": 3037,
    "\u2581wnetaddconnection2w": 3038,
    "\u2581wnetenum": 3039,
    "\u2581wnetenumresourcew": 3040,
    "\u2581fillrect": 3041,
    "\u25810x7f03": 3042,
    "\u2581ntquerysysteminformation": 3043,
    "losec": 3044,
    "app": 3045,
    "\u25810x4028": 3046,
    "\u2581createdibsection": 3047,
    "dc000": 3048,
    "cancel": 3049,
    "fc000": 3050,
    "\u2581wnetcancel": 3051,
    "\u2581wnetcancelconnection2w": 3052,
    "26b2": 3053,
    "de000": 3054,
    "\u25810x1e5": 3055,
    "\u2581getthreadpreferreduilanguages": 3056,
    "e8000": 3057,
    "erator": 3058,
    "\u25810x1f0001": 3059,
    "14000": 3060,
    "nexw": 3061,
    "ivile": 3062,
    "ec000": 3063,
    "\u2581emp": 3064,
    "\u25810x431998": 3065,
    "\u2581geticoninfo": 3066,
    "18000": 3067,
    "\u2581drawicon": 3068,
    "\u2581getsecurityinfo": 3069,
    "inac": 3070,
    "\u2581openclipboard": 3071,
    "\u2581setclipboarddata": 3072,
    "ff000": 3073,
    "triesinac": 3074,
    "\u2581setentriesinac": 3075,
    "\u2581empty": 3076,
    "\u2581closec": 3077,
    "\u2581closeclipboard": 3078,
    "ecut": 3079,
    "\u2581shellexecut": 3080,
    "\u2581emptyclipboard": 3081,
    "f4000": 3082,
    "\u25810x55": 3083,
    "ee000": 3084,
    "\u25810x47a0": 3085,
    "\u2581setclasslonga": 3086,
    "\u25810x46b3": 3087,
    "\u2581extracti": 3088,
    "\u2581gb": 3089,
    "1c000": 3090,
    "\u2581shellexecuteexw": 3091,
    "41": 3092,
    "inputs": 3093,
    "\u2581getnumberofconsoleinputs": 3094,
    "\u2581extractassociatedicona": 3095,
    "\u2581extractassociatediconw": 3096,
    "\u2581list": 3097,
    "unmapviewofsection": 3098,
    "eed": 3099,
    "geo": 3100,
    "\u2581shutdown": 3101,
    "\u2581setentriesinacla": 3102,
    "\u2581rtlzero": 3103,
    "\u2581rtlzeromemory": 3104,
    "\u25810x3410c": 3105,
    "\u2581ntunmapviewofsection": 3106,
    "ntstatus": 3107,
    "788": 3108,
    "656c": 3109,
    "todos": 3110,
    "todoserror": 3111,
    "\u2581rtlntstatus": 3112,
    "dateresourcew": 3113,
    "\u2581findwindowexa": 3114,
    "\u2581rtlntstatustodoserror": 3115,
    "\u2581registerservicectrlhandlerw": 3116,
    "\u25810xab": 3117,
    "\u2581endup": 3118,
    "\u25810x181b": 3119,
    "\u2581ntmapview": 3120,
    "\u2581ntmapviewofsection": 3121,
    "\u25810x3b": 3122,
    "\u2581setsecurityinfo": 3123,
    "\u2581updateresourcea": 3124,
    "\u2581endupdateresourcea": 3125,
    "\u2581beginupdateresourcea": 3126,
    "geoid": 3127,
    "\u2581getusergeoid": 3128,
    "\u2581htonl": 3129,
    "\u2581extractico": 3130,
    "\u2581beginupdateresourcew": 3131,
    "\u2581msvcr": 3132,
    "debugger": 3133,
    "cc8": 3134,
    "\u25810xca0000": 3135,
    "\u25810x77001000": 3136,
    "\u25810x77002000": 3137,
    "\u25810x77003000": 3138,
    "\u25810x77004000": 3139,
    "\u25810x77005000": 3140,
    "\u25810x77006000": 3141,
    "\u25810x77007000": 3142,
    "\u25810x77008000": 3143,
    "\u25810x77009000": 3144,
    "\u25810x7700a000": 3145,
    "\u25810x7700b000": 3146,
    "\u25810x7700c000": 3147,
    "\u25810x7700d000": 3148,
    "\u25810x7700e000": 3149,
    "\u25810x7700f000": 3150,
    "\u25810x77010000": 3151,
    "\u25810x77011000": 3152,
    "\u25810x77012000": 3153,
    "\u25810x77013000": 3154,
    "\u25810x77014000": 3155,
    "\u25810x77015000": 3156,
    "\u25810x77016000": 3157,
    "\u25810x77017000": 3158,
    "\u25810x77018000": 3159,
    "\u25810x77019000": 3160,
    "\u25810x7701a000": 3161,
    "\u25810x7701b000": 3162,
    "\u25810x7701c000": 3163,
    "\u25810x7701d000": 3164,
    "\u25810x7701e000": 3165,
    "\u25810x7701f000": 3166,
    "\u25810x77020000": 3167,
    "\u25810x77021000": 3168,
    "\u25810x77022000": 3169,
    "\u25810x77023000": 3170,
    "\u25810x77024000": 3171,
    "\u25810x77025000": 3172,
    "\u25810x77026000": 3173,
    "\u25810x77027000": 3174,
    "\u25810x77028000": 3175,
    "\u25810x77029000": 3176,
    "\u25810x7702a000": 3177,
    "\u25810x7702b000": 3178,
    "\u25810x7702c000": 3179,
    "\u25810x7702d000": 3180,
    "\u25810x7702e000": 3181,
    "\u25810x7702f000": 3182,
    "\u25810x77030000": 3183,
    "\u25810x77031000": 3184,
    "\u25810x77032000": 3185,
    "\u25810x77033000": 3186,
    "\u25810x77034000": 3187,
    "\u25810x77035000": 3188,
    "\u25810x77036000": 3189,
    "\u25810x77037000": 3190,
    "\u25810x77038000": 3191,
    "\u25810x77039000": 3192,
    "\u25810x7703a000": 3193,
    "\u25810x7703b000": 3194,
    "\u25810x7703c000": 3195,
    "\u25810x7703d000": 3196,
    "\u25810x7703e000": 3197,
    "\u25810x7703f000": 3198,
    "\u25810x77040000": 3199,
    "\u25810x77041000": 3200,
    "\u25810x77042000": 3201,
    "\u25810x77043000": 3202,
    "\u25810x77044000": 3203,
    "\u25810x77045000": 3204,
    "\u25810x77046000": 3205,
    "\u25810x77047000": 3206,
    "\u25810x77048000": 3207,
    "\u25810x77049000": 3208,
    "\u25810x7704a000": 3209,
    "\u25810x7704b000": 3210,
    "\u25810x7704c000": 3211,
    "\u25810x7704d000": 3212,
    "\u25810x7704e000": 3213,
    "\u25810x7704f000": 3214,
    "\u25810x77050000": 3215,
    "\u25810x77051000": 3216,
    "\u25810x77052000": 3217,
    "\u25810x77053000": 3218,
    "\u25810x77054000": 3219,
    "\u25810x77055000": 3220,
    "\u25810x77056000": 3221,
    "\u25810x77057000": 3222,
    "\u25810x77058000": 3223,
    "\u25810x77059000": 3224,
    "\u25810x7705a000": 3225,
    "\u25810x7705b000": 3226,
    "\u25810x7705c000": 3227,
    "\u25810x7705d000": 3228,
    "\u25810x7705e000": 3229,
    "\u25810x7705f000": 3230,
    "\u25810x77060000": 3231,
    "\u25810x77061000": 3232,
    "\u25810x77062000": 3233,
    "\u25810x77063000": 3234,
    "\u25810x77064000": 3235,
    "\u25810x77065000": 3236,
    "\u25810x77066000": 3237,
    "\u25810x77067000": 3238,
    "\u25810x77068000": 3239,
    "\u25810x77069000": 3240,
    "\u25810x7706a000": 3241,
    "\u25810x7706b000": 3242,
    "\u25810x7706c000": 3243,
    "\u25810x7706d000": 3244,
    "\u25810x7706e000": 3245,
    "\u25810x7706f000": 3246,
    "\u25810x77070000": 3247,
    "\u25810x77071000": 3248,
    "\u25810x77072000": 3249,
    "\u25810x77073000": 3250,
    "\u25810x77074000": 3251,
    "\u25810x77075000": 3252,
    "\u25810x77076000": 3253,
    "\u25810x77077000": 3254,
    "\u25810x77078000": 3255,
    "\u25810x77079000": 3256,
    "\u25810x7707a000": 3257,
    "\u25810x7707b000": 3258,
    "\u25810x7707c000": 3259,
    "\u25810x7707d000": 3260,
    "\u25810x7707e000": 3261,
    "\u25810x7707f000": 3262,
    "\u25810x77080000": 3263,
    "\u25810x77081000": 3264,
    "\u25810x77082000": 3265,
    "\u25810x77083000": 3266,
    "\u25810x77084000": 3267,
    "\u25810x77085000": 3268,
    "\u25810x77086000": 3269,
    "\u25810x77087000": 3270,
    "\u25810x77088000": 3271,
    "\u25810x77089000": 3272,
    "\u25810x7708a000": 3273,
    "\u25810x7708b000": 3274,
    "\u25810x7708c000": 3275,
    "\u25810x7708d000": 3276,
    "\u25810x7708e000": 3277,
    "\u25810x7708f000": 3278,
    "\u25810x77090000": 3279,
    "\u25810x77091000": 3280,
    "\u25810x77092000": 3281,
    "\u25810x77093000": 3282,
    "\u25810x77094000": 3283,
    "\u25810x77095000": 3284,
    "\u25810x77096000": 3285,
    "\u25810x77097000": 3286,
    "\u25810x77098000": 3287,
    "\u25810x77099000": 3288,
    "\u25810x7709a000": 3289,
    "\u25810x7709b000": 3290,
    "\u25810x7709c000": 3291,
    "\u25810x7709d000": 3292,
    "\u25810x7709e000": 3293,
    "\u25810x7709f000": 3294,
    "\u25810x770a0000": 3295,
    "\u25810x770a1000": 3296,
    "\u25810x770a2000": 3297,
    "\u25810x770a3000": 3298,
    "\u25810x770a4000": 3299,
    "\u25810x770a5000": 3300,
    "\u25810x770a6000": 3301,
    "\u25810x770a7000": 3302,
    "\u25810x770a8000": 3303,
    "\u25810x770a9000": 3304,
    "\u25810x770aa000": 3305,
    "\u25810x770ab000": 3306,
    "\u25810x770ac000": 3307,
    "\u25810x770ad000": 3308,
    "\u25810x770ae000": 3309,
    "\u25810x770af000": 3310,
    "\u25810x770b0000": 3311,
    "\u25810x770b1000": 3312,
    "\u25810x770b2000": 3313,
    "\u25810x770b3000": 3314,
    "\u25810x770b4000": 3315,
    "\u25810x770b5000": 3316,
    "\u25810x770b6000": 3317,
    "\u25810x770b7000": 3318,
    "\u25810x770b8000": 3319,
    "\u25810x770b9000": 3320,
    "\u25810x770ba000": 3321,
    "\u25810x770bb000": 3322,
    "\u25810x770bc000": 3323,
    "\u25810x770bd000": 3324,
    "\u25810x770be000": 3325,
    "\u25810x770bf000": 3326,
    "\u25810x770c0000": 3327,
    "\u25810x770c1000": 3328,
    "\u25810x770c2000": 3329,
    "\u25810x770c3000": 3330,
    "\u25810x770c4000": 3331,
    "\u25810x770c5000": 3332,
    "\u25810x770c6000": 3333,
    "\u25810x770c7000": 3334,
    "\u25810x770c8000": 3335,
    "\u25810x770c9000": 3336,
    "\u25810x770ca000": 3337,
    "\u25810x770cb000": 3338,
    "\u25810x770cc000": 3339,
    "\u25810x770cd000": 3340,
    "\u25810x770ce000": 3341,
    "\u25810x770cf000": 3342,
    "\u25810x770d0000": 3343,
    "\u25810x770d1000": 3344,
    "\u25810x770d2000": 3345,
    "\u25810x770d3000": 3346,
    "\u25810x770d4000": 3347,
    "\u25810x770d5000": 3348,
    "\u25810x770d6000": 3349,
    "\u25810x770d7000": 3350,
    "\u25810x770d8000": 3351,
    "\u25810x770d9000": 3352,
    "\u25810x770da000": 3353,
    "\u25810x770db000": 3354,
    "\u25810x770dc000": 3355,
    "\u25810x770dd000": 3356,
    "\u25810x770de000": 3357,
    "\u25810x770df000": 3358,
    "\u25810x770e0000": 3359,
    "\u25810x770e1000": 3360,
    "\u25810x770e2000": 3361,
    "\u25810x770e3000": 3362,
    "\u25810x770e4000": 3363,
    "\u25810x770e5000": 3364,
    "\u25810x770e6000": 3365,
    "\u25810x770e7000": 3366,
    "\u25810x770e8000": 3367,
    "\u25810x770e9000": 3368,
    "\u25810x770ea000": 3369,
    "\u25810x770eb000": 3370,
    "\u25810x770ec000": 3371,
    "\u25810x770ed000": 3372,
    "\u25810x770ee000": 3373,
    "\u25810x770ef000": 3374,
    "\u25810x770f0000": 3375,
    "\u25810x770f1000": 3376,
    "\u25810x770f2000": 3377,
    "\u25810x770f3000": 3378,
    "\u25810x770f4000": 3379,
    "\u25810x770f5000": 3380,
    "\u25810x770f6000": 3381,
    "\u25810x770f7000": 3382,
    "\u25810x770f8000": 3383,
    "\u25810x770f9000": 3384,
    "\u25810x770fa000": 3385,
    "\u25810x770fb000": 3386,
    "\u25810x770fc000": 3387,
    "\u25810x770fd000": 3388,
    "\u25810x770fe000": 3389,
    "\u25810x770ff000": 3390,
    "\u25810x77100000": 3391,
    "\u25810x77101000": 3392,
    "\u25810x77102000": 3393,
    "\u25810x77103000": 3394,
    "\u25810x77104000": 3395,
    "\u25810x77105000": 3396,
    "\u25810x77106000": 3397,
    "\u25810x77107000": 3398,
    "\u25810x77108000": 3399,
    "\u25810x77109000": 3400,
    "\u25810x7710a000": 3401,
    "\u25810x7710b000": 3402,
    "\u25810x7710c000": 3403,
    "\u25810x7710d000": 3404,
    "\u25810x7710e000": 3405,
    "\u25810x7710f000": 3406,
    "\u25810x77110000": 3407,
    "\u25810x77111000": 3408,
    "\u25810x77112000": 3409,
    "\u25810x77113000": 3410,
    "\u25810x77114000": 3411,
    "\u25810x77115000": 3412,
    "\u25810x77116000": 3413,
    "\u25810x77117000": 3414,
    "\u25810x77118000": 3415,
    "\u25810x77119000": 3416,
    "\u25810x7711a000": 3417,
    "\u25810x7711b000": 3418,
    "\u25810x7711c000": 3419,
    "\u25810x7711d000": 3420,
    "\u25810x7711e000": 3421,
    "\u25810x7711f000": 3422,
    "\u25810x77120000": 3423,
    "\u25810x77121000": 3424,
    "\u25810x77122000": 3425,
    "\u25810x77123000": 3426,
    "\u25810x77124000": 3427,
    "\u25810x77125000": 3428,
    "\u25810x77126000": 3429,
    "\u25810x77127000": 3430,
    "\u25810x77128000": 3431,
    "\u25810x77129000": 3432,
    "\u25810x7712a000": 3433,
    "\u25810x7712b000": 3434,
    "\u25810x7712c000": 3435,
    "\u25810x7712d000": 3436,
    "\u25810x7712e000": 3437,
    "\u25810x7712f000": 3438,
    "\u25810x77130000": 3439,
    "\u25810x77131000": 3440,
    "\u25810x77132000": 3441,
    "\u25810x77133000": 3442,
    "\u25810x77134000": 3443,
    "\u25810x77135000": 3444,
    "\u25810x77136000": 3445,
    "\u25810x77137000": 3446,
    "\u25810x77138000": 3447,
    "\u25810x77139000": 3448,
    "\u25810x7713a000": 3449,
    "\u25810x7713b000": 3450,
    "\u25810x7713c000": 3451,
    "\u25810x7713d000": 3452,
    "\u25810x7713e000": 3453,
    "\u25810x7713f000": 3454,
    "\u25810x77140000": 3455,
    "\u25810x77141000": 3456,
    "\u25810x77142000": 3457,
    "\u25810x77143000": 3458,
    "\u25810x77144000": 3459,
    "\u25810x77145000": 3460,
    "\u25810x77146000": 3461,
    "\u25810x77147000": 3462,
    "\u25810x77148000": 3463,
    "\u25810x77149000": 3464,
    "\u25810x7714a000": 3465,
    "\u25810x7714b000": 3466,
    "\u25810x7714c000": 3467,
    "\u25810x7714d000": 3468,
    "\u25810x7714e000": 3469,
    "\u25810x7714f000": 3470,
    "\u25810x77150000": 3471,
    "\u25810x77151000": 3472,
    "\u25810x77152000": 3473,
    "\u25810x77153000": 3474,
    "\u25810x77154000": 3475,
    "\u25810x77155000": 3476,
    "\u25810x77156000": 3477,
    "\u25810x77157000": 3478,
    "\u25810x77158000": 3479,
    "\u25810x77159000": 3480,
    "\u25810x7715a000": 3481,
    "\u25810x7715b000": 3482,
    "\u25810x7715c000": 3483,
    "\u25810x7715d000": 3484,
    "\u25810x7715e000": 3485,
    "\u25810x7715f000": 3486,
    "\u25810x77160000": 3487,
    "\u25810x77161000": 3488,
    "\u25810x77162000": 3489,
    "\u25810x77163000": 3490,
    "\u25810x77164000": 3491,
    "\u25810x77165000": 3492,
    "\u25810x77166000": 3493,
    "\u25810x77167000": 3494,
    "\u25810x77168000": 3495,
    "\u25810x77169000": 3496,
    "\u25810x7716a000": 3497,
    "\u25810x7716b000": 3498,
    "\u25810x7716c000": 3499,
    "\u25810x7716d000": 3500,
    "\u25810x7716e000": 3501,
    "\u25810x7716f000": 3502,
    "\u25810x77170000": 3503,
    "\u25810x77171000": 3504,
    "\u25810x77172000": 3505,
    "\u25810x77173000": 3506,
    "\u25810x77174000": 3507,
    "\u25810x77175000": 3508,
    "\u25810x77176000": 3509,
    "\u25810x77177000": 3510,
    "\u25810x77178000": 3511,
    "\u25810x77179000": 3512,
    "\u25810x7717a000": 3513,
    "\u25810x7717b000": 3514,
    "\u25810x7717c000": 3515,
    "\u25810x7717d000": 3516,
    "\u25810x7717e000": 3517,
    "\u25810x7717f000": 3518,
    "\u25810x77180000": 3519,
    "\u25810x77181000": 3520,
    "\u25810x77182000": 3521,
    "\u25810x77183000": 3522,
    "\u25810x77184000": 3523,
    "\u25810x77185000": 3524,
    "\u25810x77186000": 3525,
    "\u25810x77187000": 3526,
    "\u25810x77188000": 3527,
    "\u25810x77189000": 3528,
    "\u25810x7718a000": 3529,
    "\u25810x7718b000": 3530,
    "\u25810x7718c000": 3531,
    "\u25810x7718d000": 3532,
    "\u25810x7718e000": 3533,
    "\u25810x7718f000": 3534,
    "\u25810x77190000": 3535,
    "\u25810x77191000": 3536,
    "\u25810x77192000": 3537,
    "\u25810x77193000": 3538,
    "\u25810x77194000": 3539,
    "\u25810x77195000": 3540,
    "\u25810x77196000": 3541,
    "\u25810x77197000": 3542,
    "\u25810x77198000": 3543,
    "\u2581physicalmemory": 3544,
    "octls": 3545,
    "\u2581ioctls": 3546,
    "\u25810x77199000": 3547,
    "\u25810x7719a000": 3548,
    "\u25810x7719b000": 3549,
    "\u25810x7719c000": 3550,
    "\u25810x7719d000": 3551,
    "\u25810x7719e000": 3552,
    "\u25810x7719f000": 3553,
    "\u25810x771a0000": 3554,
    "\u25810x771a1000": 3555,
    "\u25810x771a2000": 3556,
    "\u25810x771a3000": 3557,
    "\u25810x771a4000": 3558,
    "\u25810x771a5000": 3559,
    "\u25810x771a6000": 3560,
    "\u25810x771a7000": 3561,
    "\u25810x771a8000": 3562,
    "\u25810x771a9000": 3563,
    "\u25810x771aa000": 3564,
    "\u25810x771ab000": 3565,
    "\u25810x771ac000": 3566,
    "\u25810x771ad000": 3567,
    "\u25810x771ae000": 3568,
    "\u25810x771af000": 3569,
    "\u25810x771b0000": 3570,
    "\u25810x771b1000": 3571,
    "\u25810x771b2000": 3572,
    "\u25810x771b3000": 3573,
    "\u25810x771b4000": 3574,
    "\u25810x771b5000": 3575,
    "\u25810x771b6000": 3576,
    "\u25810x771b7000": 3577,
    "\u25810x771b8000": 3578,
    "\u25810x771b9000": 3579,
    "\u25810x771ba000": 3580,
    "\u25810x771bb000": 3581,
    "\u25810x771bc000": 3582,
    "\u2581ioctlsocket": 3583,
    "\u25810x771bd000": 3584,
    "\u25810x771be000": 3585,
    "\u25810x771bf000": 3586,
    "\u25810x771c0000": 3587,
    "\u25810x771c1000": 3588,
    "\u25810x771c2000": 3589,
    "\u25810x771c3000": 3590,
    "\u25810x771c4000": 3591,
    "\u25810x771c5000": 3592,
    "\u25810x771c6000": 3593,
    "\u2581extracticonexw": 3594,
    "debuggerpresent": 3595,
    "\u25810x40a3": 3596,
    "f00": 3597,
    "slen": 3598,
    "\u2581listen": 3599,
    "\u25810x3a": 3600,
    "\u25810x4730": 3601,
    "\u2581wcslen": 3602,
    "97a6": 3603,
    "\u25810x1e00000": 3604,
    "\u25810x1e50000": 3605,
    "646d73": 3606,
    "656c73": 3607,
    "\u258174726": 3608,
    "\u2581776f7": 3609,
    "26b2e68": 3610,
    "97a6e61": 3611,
    "26b2e68656c73": 3612,
    "97a6e61646d73": 3613,
    "\u25817472697a6e61646d73": 3614,
    "\u2581776f726b2e68656c73": 3615,
    "\u25817472697a6e61646d73696e6b692e6669": 3616,
    "\u2581776f726b2e68656c73696e6b692e6669": 3617,
    "\u25810x7b000": 3618,
    "\u2581getpe": 3619,
    "ername": 3620,
    "\u2581getpeername": 3621,
    "\u25810xb0000": 3622,
    "\u2581drag": 3623,
    "folder": 3624,
    "\u2581initializesrwlock": 3625,
    "\u25810x7de8": 3626,
    "\u25810x28c": 3627,
    "\u25810x2ac45": 3628,
    "\u25810x169b7": 3629,
    "\u25810x7de9": 3630,
    "\u25810x40287e": 3631,
    "\u25810x1211cec": 3632,
    "\u25810x43540": 3633,
    "\u2581isdebuggerpresent": 3634,
    "\u25810x4169": 3635,
    "\u25810x7dc8": 3636,
    "a81": 3637,
    "fac": 3638,
    "ab4": 3639,
    "488": 3640,
    "stringa": 3641,
    "\u25810x7c70": 3642,
    "\u25810x5265": 3643,
    "a44": 3644,
    "aaaa": 3645,
    "cp": 3646,
    "\u2581acquiresrwlockexclusive": 3647,
    "\u25810x26": 3648,
    "\u25810x3f34c0": 3649,
    "der": 3650,
    "tra": 3651,
    "\u25810x7dec": 3652,
    "\u25810x7ded": 3653,
    "\u2581getmess": 3654,
    "\u25810x52660": 3655,
    "\u25810x423e": 3656,
    "full": 3657,
    "\u25810x419d": 3658,
    "\u25810x8d80": 3659,
    "\u25810x491": 3660,
    "\u25810x5265c28": 3661,
    "\u25810xad": 3662,
    "\u2581new": 3663,
    "\u25810x90f0": 3664,
    "\u25810x42c520": 3665,
    "\u25810x121": 3666,
    "\u25810x42e2": 3667,
    "\u25810x7b00": 3668,
    "\u25810x7d00": 3669,
    "freesp": 3670,
    "\u2581getdisk": 3671,
    "\u2581getdiskfreesp": 3672,
    "ateprocess": 3673,
    "47": 3674,
    "288": 3675,
    "\u25810x3f4000": 3676,
    "cpy": 3677,
    "\u25810x448": 3678,
    "\u25810x63": 3679,
    "\u25810x4b80": 3680,
    "\u2581mo": 3681,
    "\u25810x79a0": 3682,
    "afd": 3683,
    "\u25810x5c": 3684,
    "\u2581unhandledexceptionfilter": 3685,
    "\u2581wcsc": 3686,
    "\u25810xc0": 3687,
    "\u2581getwindows": 3688,
    "ctl32": 3689,
    "\u25810x7a10": 3690,
    "\u2581registerwindowmessagew": 3691,
    "\u25810x210": 3692,
    "\u2581comctl32": 3693,
    "\u2581control": 3694,
    "\u2581createsemaphore": 3695,
    "\u2581shellexecutew": 3696,
    "f74": 3697,
    "\u25810x1210e8": 3698,
    "\u25810x4c32c0": 3699,
    "584": 3700,
    "\u25810x42a": 3701,
    "\u25810x7df1": 3702,
    "\u2581wcscpy": 3703,
    "\u25810x4393f8": 3704,
    "ang": 3705,
    "ip": 3706,
    "\u25810x7af0": 3707,
    "3b5": 3708,
    "\u25810xaa": 3709,
    "\u2581terminateprocess": 3710,
    "\u25810x419f": 3711,
    "\u25810x1212000": 3712,
    "\u25810x42da": 3713,
    "\u25810x41a5": 3714,
    "\u25815": 3715,
    "\u25810x7f10": 3716,
    "inst": 3717,
    "\u25810x80e0": 3718,
    "heck": 3719,
    "gi": 3720,
    "\u2581inst": 3721,
    "\u2581releases": 3722,
    "49": 3723,
    "\u2581the": 3724,
    "\u25810x7cc0": 3725,
    "\u25810x1211c80": 3726,
    "\u2581getdiskfreespac": 3727,
    "\u25810x1211e28": 3728,
    "9c1": 3729,
    "\u25810x1210900": 3730,
    "f80": 3731,
    "\u25810xac": 3732,
    "\u25810x42e2f0": 3733,
    "uilanguage": 3734,
    "eextra": 3735,
    "essage": 3736,
    "adwork": 3737,
    "68c": 3738,
    "\u2581message": 3739,
    "\u25810x12119f0": 3740,
    "e4c": 3741,
    "\u2581form": 3742,
    "\u25810x52661": 3743,
    "aff": 3744,
    "\u25810x7ef0": 3745,
    "\u2581getwindow": 3746,
    "\u25810x7e0": 3747,
    "\u25810x58c01c": 3748,
    "\u2581messagebox": 3749,
    "viol": 3750,
    "\u25810x6b9c08": 3751,
    "\u25810x52662": 3752,
    "\u2581getthreaduilanguage": 3753,
    "\u25810x7d98": 3754,
    "\u25810x169bc": 3755,
    "violation": 3756,
    "\u25810x416b": 3757,
    "\u2581sn": 3758,
    "firstw": 3759,
    "\u25810x7d99": 3760,
    "\u25810x46b4": 3761,
    "ageextra": 3762,
    "ageextrainfo": 3763,
    "\u2581getmessageextrainfo": 3764,
    "\u25810x4090": 3765,
    "\u25810xff8": 3766,
    "\u25810x120f8": 3767,
    "cadwork": 3768,
    "\u25810x70a8": 3769,
    "\u25810x20019": 3770,
    "\u25810x42d520": 3771,
    "7c8": 3772,
    "\u25810x4317e0": 3773,
    "\u25810x7230": 3774,
    "9e00": 3775,
    "\u2581mul": 3776,
    "\u2581muldiv": 3777,
    "\u25810x7ee00": 3778,
    "\u25810xa429c8": 3779,
    "\u25810x40a5a0": 3780,
    "\u25810x7070": 3781,
    "setinformation": 3782,
    "de8": 3783,
    "\u25810x120fa": 3784,
    "\u25810x1211e44": 3785,
    "\u25810x169be04": 3786,
    "\u2581heapsetinformation": 3787,
    "de4": 3788,
    "\u25810x566": 3789,
    "\u25810xa42a": 3790,
    "c8c": 3791,
    "f62": 3792,
    "a18": 3793,
    "ram": 3794,
    "\u25810x436390": 3795,
    "\u2581process32firstw": 3796,
    "\u25810x496760": 3797,
    "ash": 3798,
    "\u25810x7da0": 3799,
    "wind": 3800,
    "\u25810x7c40": 3801,
    "be8": 3802,
    "\u25810x7ed0": 3803,
    "mod": 3804,
    "unwind": 3805,
    "\u2581v": 3806,
    "\u2581rtlunwind": 3807,
    "\u25810x421": 3808,
    "destroy": 3809,
    "\u25810x52666": 3810,
    "\u25810x7ec4": 3811,
    "\u25810x40a59e": 3812,
    "\u2581snap": 3813,
    "\u25810x40a5a2": 3814,
    "\u25810x40a5a4": 3815,
    "\u25810x40a5a6": 3816,
    "\u25810x40a5a8": 3817,
    "\u25810x40a5aa": 3818,
    "32cs": 3819,
    "\u25810x71c0": 3820,
    "\u2581th32cs": 3821,
    "\u25810x7ec5": 3822,
    "\u25810x40933c": 3823,
    "\u25810x3f20": 3824,
    "\u25810x42cd": 3825,
    "\u25810x7d9c": 3826,
    "\u2581type": 3827,
    "\u25810x41e": 3828,
    "\u25810x7d20": 3829,
    "\u25810x65": 3830,
    "\u25810x4400": 3831,
    "\u25810x7d9d": 3832,
    "\u25810x1211e1c": 3833,
    "\u2581net": 3834,
    "\u2581wsprintfa": 3835,
    "a84": 3836,
    "d1c": 3837,
    "\u25810x5265d": 3838,
    "\u25810xcf0000": 3839,
    "\u25810x1211f6c": 3840,
    "\u25810x7da1": 3841,
    "\u25810x409344": 3842,
    "ceex": 3843,
    "\u2581output": 3844,
    "\u25810x4fec": 3845,
    "\u2581outputdebug": 3846,
    "b190": 3847,
    "\u25810x1211690": 3848,
    "\u25810xae": 3849,
    "\u25810x7ec8": 3850,
    "\u25810x419d50": 3851,
    "b88": 3852,
    "windowexw": 3853,
    "\u2581createwindowexw": 3854,
    "\u25810x409020": 3855,
    "\u25810x419e00": 3856,
    "\u25810x42b020": 3857,
    "\u25810x419f40": 3858,
    "\u25810x42a070": 3859,
    "\u25810x4418": 3860,
    "\u25810x42b024": 3861,
    "\u25810x42b028": 3862,
    "\u25810x4305f8": 3863,
    "accel": 3864,
    "\u25810x7ec9": 3865,
    "\u25810x3e8": 3866,
    "\u2581accessviolation": 3867,
    "ssp": 3868,
    "f20": 3869,
    "\u25810x7db4": 3870,
    "class": 3871,
    "\u25810x46b5": 3872,
    "\u25810x7460": 3873,
    "\u25810x1076": 3874,
    "ogram": 3875,
    "\u25810x74d0": 3876,
    "\u25810x7da4": 3877,
    "\u25810x417d": 3878,
    "\u25810x7db5": 3879,
    "\u25810x4528": 3880,
    "\u2581lstrcpynw": 3881,
    "\u25810x1211f10": 3882,
    "driv": 3883,
    "\u2581kk": 3884,
    "a41": 3885,
    "\u2581sat": 3886,
    "\u25810x70e0": 3887,
    "\u2581em": 3888,
    "b48": 3889,
    "\u25810xe00": 3890,
    "\u25810x8001": 3891,
    "special": 3892,
    "\u2581shgetspecial": 3893,
    "\u2581getsyscolorbrush": 3894,
    "7e0": 3895,
    "\u2581fe": 3896,
    "\u25810x7edc": 3897,
    "\u25810x7038": 3898,
    "\u25810x7620": 3899,
    "504": 3900,
    "\u25810x7ecc": 3901,
    "\u25810x7ecd": 3902,
    "bas": 3903,
    "\u25810x140": 3904,
    "\u25810x72d8": 3905,
    "\u25810x7da5": 3906,
    "\u25810x7498": 3907,
    "\u2581vc": 3908,
    "isset": 3909,
    "palet": 3910,
    "palette": 3911,
    "\u25810x7cb0": 3912,
    "instruction": 3913,
    "\u2581releasesrwlockexclusive": 3914,
    "\u25810x43b6": 3915,
    "\u25810x71f8": 3916,
    "b44": 3917,
    "\u25810x42b190": 3918,
    "\u25810x42eace": 3919,
    "\u25810x7310": 3920,
    "\u25810x1211f74": 3921,
    "330": 3922,
    "\u25810x7b60": 3923,
    "\u25810x7ed1": 3924,
    "ec4": 3925,
    "initialize": 3926,
    "\u25810x7380": 3927,
    "\u25810x75b0": 3928,
    "\u25810x41e1": 3929,
    "\u25810x8c70": 3930,
    "ise": 3931,
    "\u25810x7118": 3932,
    "\u25810x7188": 3933,
    "\u25810x7770": 3934,
    "\u25810x7e88": 3935,
    "\u25810x8c60": 3936,
    "\u25810x7e89": 3937,
    "\u25810x7268": 3938,
    "\u25810x7428": 3939,
    "\u25810xa42": 3940,
    "378": 3941,
    "\u25810x7a48": 3942,
    "\u25810x7348": 3943,
    "\u25810x7b98": 3944,
    "\u2581mar": 3945,
    "\u25810xaf": 3946,
    "\u25810x7578": 3947,
    "\u25810x73b8": 3948,
    "\u25810x75e8": 3949,
    "\u2581exception": 3950,
    "\u25810x7658": 3951,
    "irector": 3952,
    "runtime": 3953,
    "\u25810x7888": 3954,
    "\u25810x76c8": 3955,
    "\u25810x7508": 3956,
    "\u2581snapprocess": 3957,
    "3d8": 3958,
    "e00": 3959,
    "\u25810x7818": 3960,
    "once": 3961,
    "a10": 3962,
    "\u25810x7738": 3963,
    "\u25810x7ed4": 3964,
    "\u25810x78f8": 3965,
    "\u25810x7ce8": 3966,
    "\u25810x7ed5": 3967,
    "\u25810x12110d8": 3968,
    "echeck": 3969,
    "\u25810x40e": 3970,
    "\u25810x7968": 3971,
    "\u25810x1211338": 3972,
    "abd": 3973,
    "\u2581createsemaphorew": 3974,
    "\u25810x7c08": 3975,
    "\u25810x7ed8": 3976,
    "\u25810x7ed9": 3977,
    "\u25810x77a8": 3978,
    "\u25810x79d8": 3979,
    "\u25810x7ab8": 3980,
    "\u25810x7c78": 3981,
    "\u25810x435390": 3982,
    "\u25810x7b28": 3983,
    "\u25810x7d58": 3984,
    "\u25810x8250": 3985,
    "\u25810x7da8": 3986,
    "\u25810x8aa0": 3987,
    "ecc": 3988,
    "740": 3989,
    "\u25810x7edd": 3990,
    "\u25810x56bb00": 3991,
    "\u25810x413": 3992,
    "\u25810x100000": 3993,
    "b7b": 3994,
    "ac4": 3995,
    "\u25810x41a0": 3996,
    "ee4": 3997,
    "a17": 3998,
    "\u25810x169b958": 3999,
    "\u2581initon": 4000,
    "\u25810x12113": 4001,
    "\u25810x52664": 4002,
    "ceexecute": 4003,
    "ceexecuteonce": 4004,
    "\u2581initonceexecuteonce": 4005,
    "\u25810x7da9": 4006,
    "mit": 4007,
    "\u25810x8c90": 4008,
    "prec": 4009,
    "\u25810x7ee4": 4010,
    "\u25810x11000": 4011,
    "with": 4012,
    "runtime140": 4013,
    "\u2581vcruntime140": 4014,
    "e2b": 4015,
    "f0c": 4016,
    "\u25810x7ee5": 4017,
    "\u25810x1211d14": 4018,
    "failed": 4019,
    "\u25810x169b780": 4020,
    "ceff": 4021,
    "found": 4022,
    "5088": 4023,
    "\u2581lstrcmpa": 4024,
    "\u25810x8ab0": 4025,
    "\u25810x4228": 4026,
    "barcad": 4027,
    "\u25810x7ee1": 4028,
    "barcadero": 4029,
    "\u2581embarcadero": 4030,
    "\u25810x5638": 4031,
    "\u25810xffe1": 4032,
    "ac8": 4033,
    "precise": 4034,
    "\u25810x71a0": 4035,
    "preciseasfiletime": 4036,
    "\u2581getsystemtimepreciseasfiletime": 4037,
    "\u2581getfileinformationbyhandleex": 4038,
    "\u25810xffe0": 4039,
    "\u25810x1009": 4040,
    "the": 4041,
    "\u2581feb": 4042,
    "\u25810xffe4": 4043,
    "gument": 4044,
    "207": 4045,
    "\u25810xfffe": 4046,
    "srw": 4047,
    "irectory": 4048,
    "d88": 4049,
    "oem": 4050,
    "\u25810x508": 4051,
    "\u2581physicaldriv": 4052,
    "ccess": 4053,
    "argument": 4054,
    "une": 4055,
    "\u25810x80c410": 4056,
    "\u25810x41bcb0": 4057,
    "\u25810x41bce0": 4058,
    "conditionvariablesrw": 4059,
    "\u2581sleepconditionvariablesrw": 4060,
    "\u258111": 4061,
    "ied": 4062,
    "\u25810x4340": 4063,
    "\u2581oc": 4064,
    "eexa": 4065,
    "\u25810xfeee010": 4066,
    "infoa": 4067,
    "\u25810x8c30": 4068,
    "varian": 4069,
    "\u2581septem": 4070,
    "\u25810x1211e34": 4071,
    "\u2581physicaldrive0": 4072,
    "\u25810x1005": 4073,
    "\u2581sta": 4074,
    "\u25810x1211a00": 4075,
    "\u25810x8d20": 4076,
    "398": 4077,
    "creating": 4078,
    "\u25810x8bd0": 4079,
    "ged": 4080,
    "\u25810x43640": 4081,
    "\u2581febr": 4082,
    "\u25810x5265e": 4083,
    "sser": 4084,
    "\u25810xffba": 4085,
    "\u25810x5265f": 4086,
    "\u25810xffb7": 4087,
    "\u2581oct": 4088,
    "tober": 4089,
    "\u2581april": 4090,
    "\u2581august": 4091,
    "\u2581november": 4092,
    "\u2581september": 4093,
    "\u25810xffbb": 4094,
    "\u2581div": 4095,
    "\u25810xffb8": 4096,
    "\u25810xffbe": 4097,
    "\u25810xffb9": 4098,
    "\u25810xffbd": 4099,
    "\u25810x1211a14": 4100,
    "\u25810xffbc": 4101,
    "\u25810xfffd": 4102,
    "\u25810x415": 4103,
    "bound": 4104,
    "\u25810x8ba0": 4105,
    "\u2581outof": 4106,
    "\u25810x3410c60": 4107,
    "\u2581outofmemory": 4108,
    "\u25810xffbf": 4109,
    "\u25810x8c10": 4110,
    "363": 4111,
    "\u25810x42e0f0": 4112,
    "\u25810xfffc": 4113,
    "78c": 4114,
    "\u2581fmode": 4115,
    "\u25810x40b8": 4116,
    "lication": 4117,
    "exception": 4118,
    "anuary": 4119,
    "\u2581march": 4120,
    "\u25810x435088": 4121,
    "\u2581february": 4122,
    "uly": 4123,
    "\u2581december": 4124,
    "\u25810x40c": 4125,
    "\u2581october": 4126,
    "ond": 4127,
    "\u2581thu": 4128,
    "nesday": 4129,
    "\u25810x7dad": 4130,
    "\u25810xffb6": 4131,
    "\u2581monday": 4132,
    "\u2581sunday": 4133,
    "\u2581tuesday": 4134,
    "\u2581wednesday": 4135,
    "3c8": 4136,
    "\u25810x7dac": 4137,
    "\u25810xffa0": 4138,
    "index": 4139,
    "ursday": 4140,
    "\u2581thursday": 4141,
    "cef": 4142,
    "\u2581fri": 4143,
    "\u2581wak": 4144,
    "\u25810xffa2": 4145,
    "operation": 4146,
    "\u2581setfileinformationbyhandlew": 4147,
    "\u2581getfileinformationbyhandleexw": 4148,
    "atur": 4149,
    "iday": 4150,
    "\u2581satur": 4151,
    "\u2581friday": 4152,
    "\u2581saturday": 4153,
    "\u2581wakeconditionvariable": 4154,
    "\u25810xffa1": 4155,
    "\u25810xffa3": 4156,
    "\u25810x4318": 4157,
    "\u25810x3f24": 4158,
    "accelerator": 4159,
    "\u25810xffa4": 4160,
    "\u2581chi": 4161,
    "\u2581sub": 4162,
    "den": 4163,
    "\u25810x1211f18": 4164,
    "\u2581getoem": 4165,
    "\u25810x1211c08": 4166,
    "\u25810xffa7": 4167,
    "\u25810xffa6": 4168,
    "\u2581getoemcp": 4169,
    "facen": 4170,
    "\u25810xffa5": 4171,
    "\u2581interfacen": 4172,
    "\u2581submit": 4173,
    "\u25810xfffb": 4174,
    "\u2581createpalette": 4175,
    "\u25810x8ca0": 4176,
    "threadpoolwork": 4177,
    "\u2581closethreadpoolwork": 4178,
    "\u2581createthreadpoolwork": 4179,
    "\u2581submitthreadpoolwork": 4180,
    "\u2581setfileinformationbyhandle": 4181,
    "3c0": 4182,
    "cor": 4183,
    "safec": 4184,
    "safecall": 4185,
    "\u2581asser": 4186,
    "\u2581inte": 4187,
    "\u25810x714": 4188,
    "\u25810x8c40": 4189,
    "licen": 4190,
    "sspace": 4191,
    "\u2581stack": 4192,
    "\u25810x8cd0": 4193,
    "\u25810xffcd": 4194,
    "\u2581isspace": 4195,
    "\u2581external": 4196,
    "\u25810x8bb0": 4197,
    "\u25810xffb5": 4198,
    "\u25810x42b40": 4199,
    "\u25819": 4200,
    "\u25810xffa8": 4201,
    "\u25810x8be0": 4202,
    "\u2581privile": 4203,
    "\u25810x418970": 4204,
    "\u25810x58de20": 4205,
    "edex": 4206,
    "\u2581assertion": 4207,
    "\u25810xffa9": 4208,
    "\u25810x4398": 4209,
    "f88": 4210,
    "gero": 4211,
    "edexchange": 4212,
    "\u2581interlockedexchange": 4213,
    "\u25810x8c00": 4214,
    "insafecall": 4215,
    "\u2581exceptioninsafecall": 4216,
    "\u25810x431d": 4217,
    "\u2581too": 4218,
    "calls": 4219,
    "\u25810x4394": 4220,
    "\u2581disk": 4221,
    "changet": 4222,
    "\u2581variantchanget": 4223,
    "\u25810x7db1": 4224,
    "\u2581getwindowsdirectorya": 4225,
    "\u25810x8820": 4226,
    "544": 4227,
    "\u25810xffaa": 4228,
    "notfound": 4229,
    "\u25810x9e": 4230,
    "\u25810xffe6": 4231,
    "bb8": 4232,
    "ecast": 4233,
    "\u25810x7e90": 4234,
    "500000": 4235,
    "2ac": 4236,
    "denied": 4237,
    "\u2581assertionfailed": 4238,
    "\u25810x6f": 4239,
    "bounds": 4240,
    "\u2581privileged": 4241,
    "\u2581chit": 4242,
    "indexo": 4243,
    "otsuped": 4244,
    "\u25810xfffa": 4245,
    "classtyp": 4246,
    "notsuped": 4247,
    "classtypecast": 4248,
    "\u2581externalexception": 4249,
    "\u2581interfacenotsuped": 4250,
    "\u2581rang": 4251,
    "tunder": 4252,
    "overflow": 4253,
    "indexoutof": 4254,
    "tunderflow": 4255,
    "\u2581rangecheck": 4256,
    "callsnotsuped": 4257,
    "\u2581errorcreating": 4258,
    "\u2581floatingpoint": 4259,
    "indexoutofbounds": 4260,
    "\u2581errorcreatingvariant": 4261,
    "\u2581invalidclasstypecast": 4262,
    "\u2581variantcallsnotsuped": 4263,
    "\u2581floatingpointunderflow": 4264,
    "typecon": 4265,
    "typeconversion": 4266,
    "\u2581invalidvarian": 4267,
    "\u2581stackoverflow": 4268,
    "\u2581invalidvariant": 4269,
    "pointeroperation": 4270,
    "\u2581privilegedinstruction": 4271,
    "\u2581invalidvariantoperation": 4272,
    "\u2581invalidvarianttypeconversion": 4273,
    "\u25810xffb4": 4274,
    "leaccess": 4275,
    "toverflow": 4276,
    "divisionbyzero": 4277,
    "\u2581floatingpointoverflow": 4278,
    "\u2581floatingpointdivisionbyzero": 4279,
    "yopen": 4280,
    "floating": 4281,
    "\u2581integero": 4282,
    "floatingpoin": 4283,
    "\u2581divisionbyzero": 4284,
    "\u2581integeroverflow": 4285,
    "\u2581rangecheckerror": 4286,
    "\u2581invalidfloatingpoin": 4287,
    "\u2581invalidpointeroperation": 4288,
    "\u2581invalidfloatingpointoperation": 4289,
    "bey": 4290,
    "c88": 4291,
    "beyond": 4292,
    "numeric": 4293,
    "\u2581tooman": 4294,
    "\u2581diskfull": 4295,
    "yopenfiles": 4296,
    "\u2581readbeyond": 4297,
    "numericinput": 4298,
    "\u2581invalidfilename": 4299,
    "\u2581toomanyopenfiles": 4300,
    "\u2581invalidnumericinput": 4301,
    "\u2581readbeyondendoffile": 4302,
    "\u2581fileaccess": 4303,
    "\u2581fileaccessdenied": 4304,
    "bcf": 4305,
    "bool": 4306,
    "\u25810xffce": 4307,
    "\u2581varbstrfrombool": 4308,
    "74c": 4309,
    "904": 4310,
    "\u2581lstrcpyna": 4311,
    "\u25810x4a20": 4312,
    "ff0": 4313,
    "\u25810x82c0": 4314,
    "608": 4315,
    "neg": 4316,
    "\u25810xb000": 4317,
    "\u25810x1210f4": 4318,
    "184": 4319,
    "\u25810x4227": 4320,
    "ypeex": 4321,
    "\u2581variantchangetypeex": 4322,
    "\u25810xffe5": 4323,
    "\u25810x202": 4324,
    "\u25810xffcf": 4325,
    "\u2581string": 4326,
    "\u25810x52665": 4327,
    "\u2581varadd": 4328,
    "\u2581varneg": 4329,
    "\u2581varnot": 4330,
    "\u2581varsub": 4331,
    "mul": 4332,
    "xor": 4333,
    "idiv": 4334,
    "\u2581varcy": 4335,
    "\u2581varor": 4336,
    "\u2581varr8": 4337,
    "\u2581varand": 4338,
    "\u2581varcmp": 4339,
    "\u2581vardiv": 4340,
    "\u2581varmod": 4341,
    "\u2581varmul": 4342,
    "\u2581varxor": 4343,
    "\u2581varbool": 4344,
    "\u2581vardate": 4345,
    "\u2581varidiv": 4346,
    "\u2581varcyfromstr": 4347,
    "\u2581vari4fromstr": 4348,
    "\u2581varr4fromstr": 4349,
    "\u2581varr8fromstr": 4350,
    "\u2581varbstrfromcy": 4351,
    "\u2581varboolfromstr": 4352,
    "\u2581vardatefromstr": 4353,
    "\u2581varbstrfromdate": 4354,
    "\u2581un": 4355,
    "\u2581wsafd": 4356,
    "\u25810x40a3d": 4357,
    "\u25810x100300": 4358,
    "\u2581wsafdisset": 4359,
    "\u25810x7d40": 4360,
    "\u25810x53000000": 4361,
    "\u25810x4299": 4362,
    "\u25810x8d60": 4363,
    "\u25810x88e0": 4364,
    "\u2581flushfile": 4365,
    "\u2581flushfilebuffers": 4366,
    "\u25810x120e6d8": 4367,
    "fff0": 4368,
    "\u25810x44280": 4369,
    "search": 4370,
    "\u25810x1211f78": 4371,
    "\u2581setthreadpreferreduilanguages": 4372,
    "searchmode": 4373,
    "\u2581setsearchmode": 4374,
    "\u25810xffb0": 4375,
    "\u25810xfff9": 4376,
    "\u25810x42fb": 4377,
    "\u25810xffb3": 4378,
    "a5c": 4379,
    "b5c": 4380,
    "d3c": 4381,
    "\u25810x9f": 4382,
    "\u25810x4615": 4383,
    "\u25810x343b5": 4384,
    "\u25810xffb2": 4385,
    "\u25810x42332": 4386,
    "\u25810x1211ec8": 4387,
    "b63": 4388,
    "\u25810xffb1": 4389,
    "\u25810x13fff0": 4390,
    "\u25810x437808": 4391,
    "\u2581invalidargument": 4392,
    "ts": 4393,
    "\u2581variantorsafearray": 4394,
    "\u2581errorcreatingvariantorsafearray": 4395,
    "\u2581variantorsafearrayindexoutofbounds": 4396,
    "\u25810xb5": 4397,
    "aa4": 4398,
    "684": 4399,
    "\u25810x8819": 4400,
    "\u25810x42990": 4401,
    "\u25810x8818": 4402,
    "\u2581localfree": 4403,
    "validate": 4404,
    "\u25810x120e68": 4405,
    "\u25810x1211ed4": 4406,
    "\u2581heapvalidate": 4407,
    "\u25810x4df0": 4408,
    "\u2581getclass": 4409,
    "\u25810x51af": 4410,
    "\u25810x416c": 4411,
    "econso": 4412,
    "\u25810x8821": 4413,
    "\u25810x881c": 4414,
    "\u25810x881d": 4415,
    "ook": 4416,
    "\u25810x431e": 4417,
    "\u25810x46a0": 4418,
    "b60": 4419,
    "\u25810xfff8": 4420,
    "\u25810x1b2": 4421,
    "ae3": 4422,
    "\u25810x420e": 4423,
    "228": 4424,
    "\u25810xa9b0": 4425,
    "\u25810x7340": 4426,
    "gine": 4427,
    "204": 4428,
    "d44": 4429,
    "\u25810x7db9": 4430,
    "\u25810xfff7": 4431,
    "\u25810x46b5d4": 4432,
    "\u25810x7db8": 4433,
    "\u25810x8d50": 4434,
    "\u2581setprocess": 4435,
    "484": 4436,
    "afc": 4437,
    "yarg1": 4438,
    "\u25810xfeed": 4439,
    "\u25810x1210e0": 4440,
    "\u25810x8d30": 4441,
    "\u25810x7c10": 4442,
    "\u25810x1211ef8": 4443,
    "\u2581outputdebugstringa": 4444,
    "vis": 4445,
    "\u25810x51c": 4446,
    "\u25810x7dbc": 4447,
    "\u25810x4f5": 4448,
    "\u25810x40f9": 4449,
    "\u25810x3f5000": 4450,
    "\u25810x7dbd": 4451,
    "\u2581rand": 4452,
    "\u25810x419": 4453,
    "\u25810x42e6": 4454,
    "\u2581setst": 4455,
    "\u2581setstdhandle": 4456,
    "dep": 4457,
    "profile": 4458,
    "\u25810x417c": 4459,
    "\u25810x4306": 4460,
    "\u25810xa39": 4461,
    "xit": 4462,
    "\u25810x4330": 4463,
    "3e8": 4464,
    "301": 4465,
    "\u2581messageboxa": 4466,
    "\u25810x3f31": 4467,
    "\u25810x190": 4468,
    "240": 4469,
    "ef0": 4470,
    "\u25810x4338": 4471,
    "324": 4472,
    "\u25810x4e80": 4473,
    "98c": 4474,
    "\u258103": 4475,
    "\u25810x109": 4476,
    "\u25810xfff6": 4477,
    "\u25810x20a": 4478,
    "\u25810x3f3": 4479,
    "\u25810x563868": 4480,
    "\u25810x8650": 4481,
    "licy": 4482,
    "\u2581move": 4483,
    "policy": 4484,
    "\u25810x7df4": 4485,
    "\u25810x1211e30": 4486,
    "\u25810x4ad4": 4487,
    "drl6660drl6660drl6660drl6660drl6660drl6660drl6660drl6660": 4488,
    "\u25810x1211f40": 4489,
    "\u25810x431": 4490,
    "\u25810x43ff": 4491,
    "\u25810x7df5": 4492,
    "\u2581heapdestroy": 4493,
    "\u25810x48f894": 4494,
    "\u25810x40f937": 4495,
    "\u2581loadlibraryexa": 4496,
    "\u25810x437806": 4497,
    "\u25810x43780a": 4498,
    "\u25810x43780c": 4499,
    "\u25810x43780e": 4500,
    "\u25810x437810": 4501,
    "\u25810x437812": 4502,
    "\u25810x437814": 4503,
    "\u25810x437816": 4504,
    "\u25810x437818": 4505,
    "\u25810x43781a": 4506,
    "\u25810x43781c": 4507,
    "\u25810x43781e": 4508,
    "\u2581wri": 4509,
    "\u25810x8660": 4510,
    "a80": 4511,
    "win": 4512,
    "\u2581writ": 4513,
    "deppolicy": 4514,
    "bc0": 4515,
    "\u2581are": 4516,
    "\u25810x41c": 4517,
    "\u2581writeconso": 4518,
    "\u25810x42eb": 4519,
    "\u25810x4f62": 4520,
    "\u25810x5e": 4521,
    "\u25810x110": 4522,
    "718": 4523,
    "hash": 4524,
    "\u25810xffd3": 4525,
    "\u25810x1210f6": 4526,
    "ou": 4527,
    "\u25810x43500": 4528,
    "344": 4529,
    "\u2581setprocessdeppolicy": 4530,
    "384": 4531,
    "\u25810x8420": 4532,
    "ved": 4533,
    "\u25810x40ee": 4534,
    "bd0": 4535,
    "\u25810x4c3": 4536,
    "\u2581regquery": 4537,
    "cid": 4538,
    "\u25810xffc6": 4539,
    "f84": 4540,
    "358": 4541,
    "\u2581shgetspecialfolderw": 4542,
    "\u2581memcpy": 4543,
    "acceleratorsw": 4544,
    "\u2581loadacceleratorsw": 4545,
    "a90000": 4546,
    "\u25810x120e694": 4547,
    "\u25810x120e69c": 4548,
    "\u25810x41a": 4549,
    "\u25810x48400": 4550,
    "e10": 4551,
    "\u25810x1210e4": 4552,
    "\u25810x1210ec": 4553,
    "\u25810x598": 4554,
    "704": 4555,
    "\u25810xfeee0108": 4556,
    "yarg2": 4557,
    "ialog": 4558,
    "318": 4559,
    "\u25810x1210f0": 4560,
    "afile": 4561,
    "unction": 4562,
    "984": 4563,
    "ernet": 4564,
    "access": 4565,
    "\u25810x8830": 4566,
    "\u25814d5": 4567,
    "\u25810x99d0": 4568,
    "data": 4569,
    "\u25810x181c": 4570,
    "700": 4571,
    "\u2581corexit": 4572,
    "\u2581corexitprocess": 4573,
    "want": 4574,
    "\u25810x97b0": 4575,
    "\u2581openprocess": 4576,
    "100": 4577,
    "ifi": 4578,
    "\u25810x4c51": 4579,
    "\u25810x1211dd0": 4580,
    "\u25810x7dc0": 4581,
    "\u2581program": 4582,
    "\u25810xffc5": 4583,
    "\u25810x4284": 4584,
    "\u25810x169b5": 4585,
    "\u2581memset": 4586,
    "\u25810x4300": 4587,
    "\u258117": 4588,
    "\u2581comparestringw": 4589,
    "licence": 4590,
    "\u25810xffab": 4591,
    "\u25810xfff5": 4592,
    "160": 4593,
    "ffff0000": 4594,
    "\u25810x480": 4595,
    "\u25810x490": 4596,
    "bits": 4597,
    "\u25810x7ee9": 4598,
    "\u25810x4237": 4599,
    "784": 4600,
    "a48": 4601,
    "\u25810x44d4": 4602,
    "000000ffff0000": 4603,
    "e24": 4604,
    "\u25810xffac": 4605,
    "a0f": 4606,
    "\u2581getkeyboardtype": 4607,
    "\u25810x85d0": 4608,
    "4000000ffff0000": 4609,
    "\u25810x429e": 4610,
    "3a8": 4611,
    "aac": 4612,
    "00210": 4613,
    "260": 4614,
    "meto": 4615,
    "apis": 4616,
    "imeto": 4617,
    "\u25810x406": 4618,
    "\u25810xffcc": 4619,
    "\u25810x3f30b0": 4620,
    "758": 4621,
    "e84": 4622,
    "\u25810x51c4": 4623,
    "\u25810x431d00": 4624,
    "a900003": 4625,
    "\u25810x3f30e0": 4626,
    "\u25814d5a900003": 4627,
    "\u25814d5a9000030000000": 4628,
    "\u25814d5a90000300000004000000ffff0000": 4629,
    "\u25810x488": 4630,
    "ad8": 4631,
    "dc0": 4632,
    "\u25810x3f3030": 4633,
    "556": 4634,
    "\u25810x3f3110": 4635,
    "\u25810x422e": 4636,
    "\u25810x3f3140": 4637,
    "delet": 4638,
    "\u25810x41688": 4639,
    "\u25810x7ee8": 4640,
    "\u25810x3f6000": 4641,
    "ansi": 4642,
    "eengine": 4643,
    "ffc": 4644,
    "\u25810x41b": 4645,
    "initializeengine": 4646,
    "\u2581failedtoinitializeengine": 4647,
    "\u25810x4187": 4648,
    "\u2581shellexecutea": 4649,
    "apisansi": 4650,
    "\u2581arefile": 4651,
    "\u2581arefileapisansi": 4652,
    "\u25810x7dc1": 4653,
    "\u25810x1211f70": 4654,
    "a70": 4655,
    "\u25810xffd0": 4656,
    "\u25810x416a17": 4657,
    "\u25810x416a18": 4658,
    "\u25810x3f7000": 4659,
    "d4c": 4660,
    "\u25810x3fb000": 4661,
    "\u25810x3f8000": 4662,
    "b8c": 4663,
    "ream": 4664,
    "\u25810x4c4230": 4665,
    "\u25810x4c4260": 4666,
    "\u25810x4c42a8": 4667,
    "\u25810x42a730": 4668,
    "\u25810x42a731": 4669,
    "\u25810x4c4248": 4670,
    "\u25810x4c4278": 4671,
    "\u25810x4c4290": 4672,
    "\u25810x4c4320": 4673,
    "\u25810x4c4338": 4674,
    "\u25810x4c4350": 4675,
    "\u25810x4c4368": 4676,
    "\u25810x12118f8": 4677,
    "d98": 4678,
    "f8c": 4679,
    "\u25810x40a584": 4680,
    "ly": 4681,
    "\u25810x40a582": 4682,
    "\u25810x40a586": 4683,
    "\u25810x40a588": 4684,
    "40c": 4685,
    "\u25810x40a58a": 4686,
    "\u25810x40a580": 4687,
    "\u25810x40a57e": 4688,
    "\u25810x429a81": 4689,
    "\u25810x41624": 4690,
    "\u25810x3f9000": 4691,
    "\u25810x3fa000": 4692,
    "218": 4693,
    "\u2581install": 4694,
    "\u25810x437ae4": 4695,
    "\u25810x437207": 4696,
    "\u25810x437208": 4697,
    "\u25810x437ad2": 4698,
    "\u25810x437ad3": 4699,
    "\u25810x437ae3": 4700,
    "\u25810x437b63": 4701,
    "\u25810x437b64": 4702,
    "\u25810x437b7b": 4703,
    "\u25810x437b7c": 4704,
    "\u25810x437bbd": 4705,
    "\u25810x437bbe": 4706,
    "\u25810x437bce": 4707,
    "\u25810x437bcf": 4708,
    "\u25810x437c42": 4709,
    "\u25810x437c43": 4710,
    "\u25810x8824": 4711,
    "\u25810x1210e5": 4712,
    "eec": 4713,
    "\u25810x4c5158": 4714,
    "\u25810x8825": 4715,
    "\u25810x429e2b": 4716,
    "\u25810x429e2c": 4717,
    "\u25810x434d1c": 4718,
    "\u25810x43b7a9": 4719,
    "\u25810x43b7aa": 4720,
    "\u25810x43b7b8": 4721,
    "\u25810x8828": 4722,
    "\u25810x422ebe": 4723,
    "\u25810x43b7b3": 4724,
    "\u25810x43b7b4": 4725,
    "\u25810x43b7ba": 4726,
    "\u25810x43b7c4": 4727,
    "928": 4728,
    "\u25810x1210ed": 4729,
    "\u25810x1210f5": 4730,
    "\u25810x433618": 4731,
    "sg": 4732,
    "metafile": 4733,
    "302": 4734,
    "\u25810x1210f9": 4735,
    "\u25810x41c0": 4736,
    "\u25810x3f25": 4737,
    "c44": 4738,
    "ols": 4739,
    "\u25810x3f75f60": 4740,
    "you": 4741,
    "\u25810x8829": 4742,
    "\u2581y": 4743,
    "a4c": 4744,
    "d84": 4745,
    "\u25810x120fb": 4746,
    "\u25810x42ce10": 4747,
    "\u25810x4315b0": 4748,
    "78d": 4749,
    "\u25810x882c": 4750,
    "\u25810x882d": 4751,
    "\u25810x1211f80": 4752,
    "\u25810x8834": 4753,
    "\u25810x4967a8": 4754,
    "\u25810x1211d08": 4755,
    "\u2581findfirstfilea": 4756,
    "fa8": 4757,
    "\u25810x7e3000": 4758,
    "\u25810x7e4000": 4759,
    "768": 4760,
    "b40": 4761,
    "\u25810x8831": 4762,
    "\u25810x8835": 4763,
    "a00": 4764,
    "\u25810x130": 4765,
    "\u25810xa42a10": 4766,
    "316": 4767,
    "\u25810x42fc38": 4768,
    "bf0": 4769,
    "\u25810x509": 4770,
    "\u25810x11db": 4771,
    "\u25810x4196": 4772,
    "\u25810x1211f84": 4773,
    "\u25810xbc": 4774,
    "\u25810x1211968": 4775,
    "be0": 4776,
    "124": 4777,
    "120": 4778,
    "744": 4779,
    "\u2581tlsfree": 4780,
    "284": 4781,
    "\u25810xffd2": 4782,
    "\u25810xfeee00f4": 4783,
    "\u25810x4470": 4784,
    "\u2581ob": 4785,
    "\u25810x4554": 4786,
    "409": 4787,
    "26c": 4788,
    "item": 4789,
    "b84": 4790,
    "\u25810x3f75f30": 4791,
    "controls": 4792,
    "\u25810xffad": 4793,
    "\u25810x120ff": 4794,
    "\u25810x44f910": 4795,
    "application": 4796,
    "\u25810x3f21": 4797,
    "\u25810x42fbf0": 4798,
    "\u25810x12117f4": 4799,
    "278": 4800,
    "ownload": 4801,
    "f40": 4802,
    "7f0": 4803,
    "\u25810x405": 4804,
    "ddc": 4805,
    "\u25810x235": 4806,
    "\u25810x125": 4807,
    "\u25810x430880": 4808,
    "36c": 4809,
    "\u25810x1210e2": 4810,
    "360": 4811,
    "myarg2": 4812,
    "\u25810x41d1": 4813,
    "\u25810xa41e": 4814,
    "\u25810xffef": 4815,
    "\u25810x3f23": 4816,
    "\u25810x40a5ac": 4817,
    "f21": 4818,
    "310": 4819,
    "\u25810x40b": 4820,
    "fb0": 4821,
    "\u25810x419c20": 4822,
    "d6c": 4823,
    "\u25810x1210e6": 4824,
    "\u25810x4e30": 4825,
    "yarg1myarg2": 4826,
    "\u2581164630": 4827,
    "f50": 4828,
    "\u25810x4febf0": 4829,
    "c8d": 4830,
    "\u2581comm": 4831,
    "f1b": 4832,
    "\u2581lcmapstringa": 4833,
    "569": 4834,
    "66c": 4835,
    "\u25810x4de": 4836,
    "e8c": 4837,
    "f4c": 4838,
    "bad8": 4839,
    "coree": 4840,
    "\u2581mscoree": 4841,
    "d68": 4842,
    "\u25810x4290": 4843,
    "\u25810x7eab": 4844,
    "\u25810x169b7a4": 4845,
    "b4c": 4846,
    "\u2581lstrcpya": 4847,
    "\u25810x4c3308": 4848,
    "\u25810x169b57c": 4849,
    "inity": 4850,
    "\u25810x169b94c": 4851,
    "\u25810x1211ccc": 4852,
    "\u25810x343b570": 4853,
    "3e0": 4854,
    "\u25810x7e5000": 4855,
    "affinity": 4856,
    "affinitymask": 4857,
    "stream": 4858,
    "\u2581removed": 4859,
    "\u25810xffc4": 4860,
    "404": 4861,
    "\u25810xffe3": 4862,
    "\u25810x42ae": 4863,
    "\u25810x486d": 4864,
    "32c": 4865,
    "144": 4866,
    "ff4": 4867,
    "\u2581sa": 4868,
    "\u25810xffe2": 4869,
    "\u2581getdiskfreespaceexw": 4870,
    "\u25810x100b": 4871,
    "f70": 4872,
    "\u25810xfc": 4873,
    "\u2581removedirectory": 4874,
    "pi": 4875,
    "\u25810x1210ee": 4876,
    "\u25810x1211e24": 4877,
    "b30": 4878,
    "\u25810x43f0": 4879,
    "\u25810x431f38": 4880,
    "\u25810x2100210": 4881,
    "\u25810xffe7": 4882,
    "3f1c": 4883,
    "555": 4884,
    "\u25810x164": 4885,
    "\u25810x47e0": 4886,
    "\u2581cq": 4887,
    "\u25810x1211f24": 4888,
    "202": 4889,
    "3f0": 4890,
    "\u2581getstringtypea": 4891,
    "\u25810xffec": 4892,
    "\u2581164634": 4893,
    "\u25810x4084": 4894,
    "\u25810x8430": 4895,
    "d1ff": 4896,
    "f48": 4897,
    "ified": 4898,
    "\u25810xc4": 4899,
    "\u25810xffae": 4900,
    "dff": 4901,
    "\u2581coinitialize": 4902,
    "001": 4903,
    "b18": 4904,
    "\u25810x431ef0": 4905,
    "9c2": 4906,
    "70c": 4907,
    "aa5": 4908,
    "\u25810x4130": 4909,
    "1d0": 4910,
    "\u25810xffaf": 4911,
    "\u25810x407": 4912,
    "\u25810x30000": 4913,
    "db0": 4914,
    "ed2": 4915,
    "7b0": 4916,
    "\u2581getprocessaffinitymask": 4917,
    "541": 4918,
    "34c": 4919,
    "918": 4920,
    "\u25810x8930": 4921,
    "6d7": 4922,
    "\u25810x7bc": 4923,
    "\u25810x4700": 4924,
    "\u25810xffc2": 4925,
    "2acb2": 4926,
    "\u2581b2acb2": 4927,
    "\u25810xff90": 4928,
    "metafilebits": 4929,
    "d40": 4930,
    "\u2581setenvironment": 4931,
    "\u2581format": 4932,
    "par": 4933,
    "\u25810x99a0": 4934,
    "\u25810x4237d8": 4935,
    "d28": 4936,
    "\u25810x3f34e0": 4937,
    "370": 4938,
    "\u25810x4010": 4939,
    "d00": 4940,
    "ae8": 4941,
    "\u25810x58000": 4942,
    "\u25810x8a41": 4943,
    "defaultu": 4944,
    "defaultuilanguage": 4945,
    "\u25810x4efd": 4946,
    "\u2581getmenu": 4947,
    "itor": 4948,
    "644": 4949,
    "\u25810x1211de4": 4950,
    "12c": 4951,
    "oyou": 4952,
    "\u25810x56bad8": 4953,
    "\u25810x40ab": 4954,
    "\u25810x20009": 4955,
    "\u25810x437820": 4956,
    "\u2581setendoffile": 4957,
    "leasec": 4958,
    "\u25810x41a6": 4959,
    "\u25810x41d114": 4960,
    "\u25810x120e68c": 4961,
    "\u25810x120f8c2": 4962,
    "5c0": 4963,
    "\u2581cadwork": 4964,
    "38c": 4965,
    "\u25810xff91": 4966,
    "888": 4967,
    "\u2581sys": 4968,
    "\u25810x9cc0": 4969,
    "\u25810x1210c": 4970,
    "\u25810x42e5c8": 4971,
    "\u25810x42e5e0": 4972,
    "fd0": 4973,
    "b68": 4974,
    "\u25810x4cb0": 4975,
    "\u25810x3f26": 4976,
    "\u25810x1211f1c": 4977,
    "a6c": 4978,
    "wantto": 4979,
    "ffd1ff": 4980,
    "\u2581gdip": 4981,
    "304": 4982,
    "\u25810x418a00": 4983,
    "\u25810x418a30": 4984,
    "4005": 4985,
    "\u25810x49c8": 4986,
    "\u25810x8f50": 4987,
    "190": 4988,
    "lcid": 4989,
    "2e0": 4990,
    "a45": 4991,
    "\u25810x500": 4992,
    "\u25810x59c1": 4993,
    "\u25810x59bf": 4994,
    "b10": 4995,
    "b94": 4996,
    "\u25810x45f1": 4997,
    "\u25810x42e598": 4998,
    "3c4": 4999,
    "\u25810xfeee011": 5000,
    "\u25810x7bc00000": 5001,
    "e28": 5002,
    "\u25810x118": 5003,
    "comm": 5004,
    "numberis": 5005,
    "\u25810x1211e20": 5006,
    "2dc": 5007,
    "b14": 5008,
    "\u2581164632": 5009,
    "990": 5010,
    "\u25810x3f2": 5011,
    "2c8": 5012,
    "b78": 5013,
    "gen": 5014,
    "c0c": 5015,
    "\u25810x4168": 5016,
    "\u25810x1253f1c": 5017,
    "528": 5018,
    "d0c": 5019,
    "\u25810x107": 5020,
    "ivate": 5021,
    "\u25810x4270": 5022,
    "ig": 5023,
    "\u25810x42daa2": 5024,
    "\u25810x42daab": 5025,
    "\u25810x42dab4": 5026,
    "\u25810x42dabd": 5027,
    "\u2581noaccess": 5028,
    "\u25810x1211ad0": 5029,
    "core": 5030,
    "consolec": 5031,
    "\u25810x46b3d0": 5032,
    "3b0": 5033,
    "f28": 5034,
    "884": 5035,
    "\u25810x4aa0": 5036,
    "\u25810x1210f3": 5037,
    "winmetafilebits": 5038,
    "fe0": 5039,
    "\u25810xffc3": 5040,
    "6e8": 5041,
    "private": 5042,
    "strings": 5043,
    "\u25810x5658": 5044,
    "\u25810x1210f1": 5045,
    "f44": 5046,
    "ned": 5047,
    "948": 5048,
    "\u25810x1211808": 5049,
    "720": 5050,
    "794": 5051,
    "\u2581getenvironmentstrings": 5052,
    "54c": 5053,
    "f30": 5054,
    "\u25810x4307e0": 5055,
    "\u25810x40b3": 5056,
    "privateprofile": 5057,
    "340": 5058,
    "bf8": 5059,
    "\u2581wcs": 5060,
    "\u25810x3f27": 5061,
    "\u25810x419a": 5062,
    "1cc": 5063,
    "\u25810x103": 5064,
    "\u2581164638": 5065,
    "\u2581findnextfilea": 5066,
    "\u25810x41c4": 5067,
    "len": 5068,
    "\u25810x4d50": 5069,
    "function": 5070,
    "\u2581setcurrent": 5071,
    "\u25810x60c6": 5072,
    "e80": 5073,
    "\u25810x4096": 5074,
    "570": 5075,
    "\u25810xfff4": 5076,
    "\u25810x44d4b8": 5077,
    "\u25810x42be": 5078,
    "\u25810x47f0": 5079,
    "\u25810x97c0": 5080,
    "\u25810xa429f8": 5081,
    "download": 5082,
    "\u2581lstrcmpw": 5083,
    "\u25810xa3a8": 5084,
    "\u2581getwinmetafilebits": 5085,
    "3b8": 5086,
    "\u25810x401000": 5087,
    "\u25810x401": 5088,
    "red": 5089,
    "\u25810x423da8": 5090,
    "\u25810x423dd8": 5091,
    "\u2581remove": 5092,
    "b80": 5093,
    "ed1": 5094,
    "f6c": 5095,
    "9c0": 5096,
    "d8c": 5097,
    "\u25810x2825": 5098,
    "\u2581setdll": 5099,
    "69c": 5100,
    "738": 5101,
    "edit": 5102,
    "\u25810x4169c0": 5103,
    "\u25810x4169c1": 5104,
    "\u25810x9210": 5105,
    "olfp": 5106,
    "inter": 5107,
    "\u25810x42f3": 5108,
    "\u25810x5265c3c": 5109,
    "\u2581controlfp": 5110,
    "a54": 5111,
    "\u25810x6e": 5112,
    "internal": 5113,
    "298": 5114,
    "\u25810x53e4": 5115,
    "\u25810x3f3060": 5116,
    "348": 5117,
    "3d0": 5118,
    "\u25810x4a7": 5119,
    "\u25810x4088": 5120,
    "560": 5121,
    "reque": 5122,
    "b98": 5123,
    "f58": 5124,
    "\u25810x3f3010": 5125,
    "\u25810x4340c8": 5126,
    "d50": 5127,
    "382": 5128,
    "\u25810x7f02": 5129,
    "\u2581commode": 5130,
    "\u25810x1211fb8": 5131,
    "errornumberis": 5132,
    "\u2581programinternal": 5133,
    "\u2581programinternalerrornumberis": 5134,
    "d18": 5135,
    "b70": 5136,
    "\u25810x45f2": 5137,
    "aaaaaaaa": 5138,
    "f46": 5139,
    "\u25810x42aa58": 5140,
    "d48": 5141,
    "\u2581dragob": 5142,
    "\u25810x1211f97": 5143,
    "3a4": 5144,
    "\u25810x107538": 5145,
    "ba0": 5146,
    "reate": 5147,
    "\u25810x8f20": 5148,
    "\u25810xffdd": 5149,
    "\u2581version": 5150,
    "\u2581download": 5151,
    "\u25810x4bb0": 5152,
    "fromstream": 5153,
    "580": 5154,
    "base": 5155,
    "aad": 5156,
    "stringw": 5157,
    "\u25810x40a59c": 5158,
    "ae0": 5159,
    "\u25810x87": 5160,
    "\u25810x82f0": 5161,
    "\u2581shfolder": 5162,
    "f18": 5163,
    "\u25810x1211f44": 5164,
    "264": 5165,
    "f60": 5166,
    "\u25810x408478": 5167,
    "958": 5168,
    "\u2581qt": 5169,
    "dc1": 5170,
    "\u25810x120fd": 5171,
    "d30": 5172,
    "\u25810x7e00": 5173,
    "\u25810x120faa8": 5174,
    "\u25810x107598": 5175,
    "\u25810x120e690": 5176,
    "\u25810x120e698": 5177,
    "\u25810x437804": 5178,
    "978": 5179,
    "\u25810x417b50": 5180,
    "\u25810x42c4f0": 5181,
    "\u2581setfilepointerex": 5182,
    "\u2581log": 5183,
    "\u25810x4614": 5184,
    "\u2581wts": 5185,
    "owned": 5186,
    "hook": 5187,
    "f39": 5188,
    "\u2581fil": 5189,
    "\u25810x42ae20": 5190,
    "\u25810x1211900": 5191,
    "tp": 5192,
    "b58": 5193,
    "fc4": 5194,
    "lew": 5195,
    "728": 5196,
    "\u25810x107658": 5197,
    "\u25810x566a40": 5198,
    "\u25810x439880": 5199,
    "\u2581monitor": 5200,
    "716": 5201,
    "\u25810x41bd": 5202,
    "\u25810x4310": 5203,
    "ession": 5204,
    "\u25810x41c044": 5205,
    "f34": 5206,
    "\u25810x10e9": 5207,
    "\u2581oleload": 5208,
    "\u2581oleloadfromstream": 5209,
    "\u25810xa42980": 5210,
    "\u2581removedirectorya": 5211,
    "\u25810x4a40": 5212,
    "\u25810x54000": 5213,
    "\u25810x169bf64": 5214,
    "\u25810x3200a": 5215,
    "\u25810x160": 5216,
    "7a8": 5217,
    "\u25810x12106": 5218,
    "bd4": 5219,
    "a38": 5220,
    "ffcb": 5221,
    "\u25810x4a80": 5222,
    "\u25810x120e6cc": 5223,
    "\u2581dat": 5224,
    "\u25810x7ff": 5225,
    "248": 5226,
    "\u25810x107688": 5227,
    "\u25810x416b50": 5228,
    "e58": 5229,
    "\u25810x4100": 5230,
    "\u25810x12119d0": 5231,
    "\u25810x12115bc": 5232,
    "\u2581202203040": 5233,
    "\u25810x42f318": 5234,
    "notin": 5235,
    "b0c": 5236,
    "atal": 5237,
    "\u25810x4cf": 5238,
    "\u2581writeconsolew": 5239,
    "\u25810x12115d0": 5240,
    "\u25810x3b7": 5241,
    "fc0": 5242,
    "\u25810x644": 5243,
    "itialized": 5244,
    "notinitialized": 5245,
    "vironmentstringsa": 5246,
    "\u25810x1210f7": 5247,
    "ectlock": 5248,
    "\u25810x4828": 5249,
    "notowned": 5250,
    "supfunction": 5251,
    "ectlocknotowned": 5252,
    "\u2581monitorsupfunction": 5253,
    "\u2581monitorsupfunctionnotinitialized": 5254,
    "\u25810xffc1": 5255,
    "\u25810xffc7": 5256,
    "\u25810x45f4": 5257,
    "\u2581164636": 5258,
    "\u2581setthreadlocale": 5259,
    "\u25810x4990": 5260,
    "11c": 5261,
    "a0e": 5262,
    "\u25810x4912": 5263,
    "\u2581formal": 5264,
    "fd8": 5265,
    "\u2581dw": 5266,
    "\u2581coun": 5267,
    "\u25810x50850": 5268,
    "vchost": 5269,
    "\u2581svchost": 5270,
    "\u2581getconsolemode": 5271,
    "\u2581oleinitialize": 5272,
    "\u2581regedit": 5273,
    "b90": 5274,
    "compar": 5275,
    "compareex": 5276,
    "\u25810x1075c8": 5277,
    "compareexchange": 5278,
    "\u2581interlockedcompareexchange": 5279,
    "\u25810x8190": 5280,
    "\u25810x1210e78": 5281,
    "\u25810x1210e7c": 5282,
    "quired": 5283,
    "\u25810x4378c8": 5284,
    "\u25810x484": 5285,
    "\u25810xcb000": 5286,
    "filewas": 5287,
    "specified": 5288,
    "\u25810x420a0f": 5289,
    "\u25810x420a10": 5290,
    "\u2581setdlldirectoryw": 5291,
    "tac": 5292,
    "\u258124": 5293,
    "\u25810x433660": 5294,
    "\u25810x42900": 5295,
    "a9c": 5296,
    "\u25810x4076": 5297,
    "\u25810x1211e18": 5298,
    "\u2581thespecified": 5299,
    "filewasnotfound": 5300,
    "\u2581thespecifiedfilewasnotfound": 5301,
    "a20": 5302,
    "\u25810x169bf74": 5303,
    "\u25810x4179": 5304,
    "6d7363": 5305,
    "\u25810xe06d7363": 5306,
    "\u25810x1075f8": 5307,
    "\u25810x107628": 5308,
    "\u25810x1211db8": 5309,
    "\u25810x188e00": 5310,
    "\u2581tw": 5311,
    "\u25810x88b0": 5312,
    "\u25810x8fc0": 5313,
    "d5c": 5314,
    "lower": 5315,
    "\u25810x8a60": 5316,
    "294": 5317,
    "dl": 5318,
    "\u25810x4330c8": 5319,
    "\u25810x423818": 5320,
    "textw": 5321,
    "\u2581getcurrentdirectorya": 5322,
    "\u2581msvcr90": 5323,
    "\u25810xc94": 5324,
    "\u25810x169bc5c": 5325,
    "\u2581movefilea": 5326,
    "\u2581int": 5327,
    "\u25810x188d3c": 5328,
    "f65": 5329,
    "\u25812022": 5330,
    "\u25810x40f": 5331,
    "1e8": 5332,
    "b28": 5333,
    "ba8": 5334,
    "\u25810x4086": 5335,
    "\u2581getconsolec": 5336,
    "200": 5337,
    "msg": 5338,
    "\u25810x1fa": 5339,
    "\u25810x5000": 5340,
    "10428": 5341,
    "\u25810x412e": 5342,
    "\u2581strcmp": 5343,
    "\u2581required": 5344,
    "\u2581pleas": 5345,
    "\u2581tw10428": 5346,
    "985": 5347,
    "\u25810xbd": 5348,
    "\u2581getuserdefaultlcid": 5349,
    "\u2581getconsolecp": 5350,
    "f85": 5351,
    "\u2581con": 5352,
    "\u25810x8f70": 5353,
    "\u25810x8b50": 5354,
    "ctrl": 5355,
    "\u25810x42d4f0": 5356,
    "\u25810x423d18": 5357,
    "\u25810x42c5d0": 5358,
    "af4": 5359,
    "\u25810x63000000": 5360,
    "306": 5361,
    "\u25810xd2": 5362,
    "\u25810x181": 5363,
    "\u25810x80c": 5364,
    "2a0": 5365,
    "994": 5366,
    "f78": 5367,
    "\u25810x52667": 5368,
    "\u25810x45fe": 5369,
    "3a0": 5370,
    "afcdff": 5371,
    "\u25810x42f": 5372,
    "\u25810x188e24": 5373,
    "afcdffceff": 5374,
    "\u2581b2acb2afcdffceff": 5375,
    "\u25810x45f6": 5376,
    "\u2581yo": 5377,
    "\u25810x27": 5378,
    "\u25810x44180": 5379,
    "\u25810x1211f5c": 5380,
    "lsid": 5381,
    "\u25810x5c000": 5382,
    "\u25810x42be20": 5383,
    "mb": 5384,
    "116": 5385,
    "bb4": 5386,
    "\u25810x4155": 5387,
    "\u25810x45f3": 5388,
    "\u25810x45f5": 5389,
    "\u25810x44000": 5390,
    "\u25810x42efe8": 5391,
    "a7c": 5392,
    "\u25810xa16": 5393,
    "\u25810x45f7": 5394,
    "\u25810x45fa": 5395,
    "per": 5396,
    "listmsg": 5397,
    "\u2581commctrl": 5398,
    "\u2581draglistmsg": 5399,
    "\u25810x45f8": 5400,
    "\u25810x2439f74": 5401,
    "param": 5402,
    "\u2581doyou": 5403,
    "\u25810x2012": 5404,
    "\u25810xa3a768": 5405,
    "960": 5406,
    "\u25810x4233": 5407,
    "\u25810x4efd98": 5408,
    "\u25810xc8": 5409,
    "\u2581filet": 5410,
    "\u2581filetimeto": 5411,
    "\u2581clsid": 5412,
    "\u25810x45f9": 5413,
    "7e7": 5414,
    "\u258128": 5415,
    "\u25810x40b4": 5416,
    "101": 5417,
    "90c": 5418,
    "f51": 5419,
    "lipboardform": 5420,
    "694": 5421,
    "env": 5422,
    "\u25810x41cb": 5423,
    "\u25810xffde": 5424,
    "18c": 5425,
    "5e8": 5426,
    "\u25810x1211ecc": 5427,
    "\u25810x41f7": 5428,
    "\u25810x7d51": 5429,
    "\u25810x42d8a2": 5430,
    "\u25810x42d8ab": 5431,
    "\u25810x42d8b4": 5432,
    "\u25810x42d8bd": 5433,
    "\u25810x10e9bc": 5434,
    "a99": 5435,
    "bc5": 5436,
    "\u25810x42ba58": 5437,
    "\u25810xfeee012": 5438,
    "dd4": 5439,
    "eto": 5440,
    "381": 5441,
    "\u25810x40a0": 5442,
    "\u25810x4fc": 5443,
    "pool": 5444,
    "\u25810xa4a0": 5445,
    "\u25810xa3a7b0": 5446,
    "\u2581clsidfrom": 5447,
    "798": 5448,
    "aa0": 5449,
    "nexit": 5450,
    "fdd": 5451,
    "heme": 5452,
    "\u2581couninitialize": 5453,
    "\u2581e000": 5454,
    "\u25810x4232": 5455,
    "\u2581registerclipboardform": 5456,
    "\u2581uxt": 5457,
    "80004005": 5458,
    "\u2581uxtheme": 5459,
    "\u2581getclassinfoa": 5460,
    "\u2581error0x80004005": 5461,
    "50c": 5462,
    "70e": 5463,
    "\u25810x1860": 5464,
    "\u25810x45fd": 5465,
    "1e4": 5466,
    "\u25810x4601": 5467,
    "\u25810x8ce0": 5468,
    "321": 5469,
    "604": 5470,
    "acc": 5471,
    "\u25810x22e": 5472,
    "\u25810x51b": 5473,
    "printer": 5474,
    "\u25810x45ff": 5475,
    "\u2581164635": 5476,
    "\u25810x71000000": 5477,
    "b24": 5478,
    "\u2581mso": 5479,
    "seek": 5480,
    "\u2581std": 5481,
    "regis": 5482,
    "9e0": 5483,
    "\u25810x4176": 5484,
    "c7ffd1ff": 5485,
    "c7ffd1ffca": 5486,
    "2b0": 5487,
    "common": 5488,
    "ffcbff": 5489,
    "c7ffd1ffcaffcbff": 5490,
    "\u2581b2acb2afcdffceffc7ffd1ffcaffcbff": 5491,
    "1c0": 5492,
    "delete": 5493,
    "748": 5494,
    "ad9": 5495,
    "\u2581defwindowprocw": 5496,
    "c84": 5497,
    "\u25810x4199": 5498,
    "\u25810x80c458": 5499,
    "\u25810x46b": 5500,
    "3da": 5501,
    "d20": 5502,
    "\u2581initcommon": 5503,
    "\u2581initcommoncontrols": 5504,
    "565": 5505,
    "\u25810xb3": 5506,
    "\u25810x5199": 5507,
    "\u25810x3f2210": 5508,
    "\u25810x169bf94": 5509,
    "f98": 5510,
    "\u25810x41af": 5511,
    "\u25810x150": 5512,
    "\u25810x43a4": 5513,
    "f90": 5514,
    "2c5": 5515,
    "ef8": 5516,
    "\u25810x440": 5517,
    "emyarg1myarg2": 5518,
    "\u2581exemyarg1myarg2": 5519,
    "\u25810x3020": 5520,
    "305": 5521,
    "334": 5522,
    "c01": 5523,
    "\u25810x50e10": 5524,
    "ocreate": 5525,
    "ocon": 5526,
    "\u25810xe8": 5527,
    "\u2581getdiskfreespaceexa": 5528,
    "\u25810x438": 5529,
    "\u25810x4305c8": 5530,
    "\u25810x4305e0": 5531,
    "ce1": 5532,
    "e48": 5533,
    "\u25810x60c690": 5534,
    "atw": 5535,
    "\u25810x431828": 5536,
    "update": 5537,
    "\u25810x8900": 5538,
    "\u25810xfeee014": 5539,
    "a90": 5540,
    "\u25810x208": 5541,
    "\u25810x41ebf": 5542,
    "\u25810x1210f2": 5543,
    "\u258126": 5544,
    "a98": 5545,
    "317": 5546,
    "\u25810x46b400": 5547,
    "\u25810x1211d30": 5548,
    "\u2581freeenvironmentstringsa": 5549,
    "\u25810x411555": 5550,
    "\u25810x411556": 5551,
    "fa4": 5552,
    "\u25810x42b964": 5553,
    "178": 5554,
    "\u2581aaa": 5555,
    "6d8": 5556,
    "804": 5557,
    "\u25810x4030": 5558,
    "\u25810x42ebc0": 5559,
    "f17": 5560,
    "\u25810x430598": 5561,
    "ld": 5562,
    "\u25810xdd": 5563,
    "\u25810x423e08": 5564,
    "\u25810x433860": 5565,
    "39c": 5566,
    "\u25810x4298": 5567,
    "\u25810x41678c": 5568,
    "\u25810x41678d": 5569,
    "a8a8": 5570,
    "\u25810x4179c": 5571,
    "\u25810x4c97": 5572,
    "a28": 5573,
    "\u2581sc": 5574,
    "7d0": 5575,
    "\u258118": 5576,
    "5b0": 5577,
    "da0": 5578,
    "bcc": 5579,
    "only": 5580,
    "\u2581qt5": 5581,
    "\u25810x435000": 5582,
    "\u25810x40b7": 5583,
    "\u25810x41568c": 5584,
    "\u25810xf8": 5585,
    "\u2581ru": 5586,
    "\u2581getvolumeinformationa": 5587,
    "\u25810x9730": 5588,
    "\u25810x423326": 5589,
    "\u25810x423327": 5590,
    "550": 5591,
    "\u2581getuserdefaultuilanguage": 5592,
    "a8c": 5593,
    "\u25810x41b0": 5594,
    "\u25810x41cc": 5595,
    "\u25810x42bf": 5596,
    "\u25810x40ac": 5597,
    "a64": 5598,
    "\u25810x4ec": 5599,
    "\u25810x62": 5600,
    "\u25810x4275": 5601,
    "\u25810x120f": 5602,
    "\u25810x9810": 5603,
    "\u25810x1211f54": 5604,
    "iserror": 5605,
    "d2c": 5606,
    "ible": 5607,
    "af0": 5608,
    "db5": 5609,
    "\u25810x1211ce0": 5610,
    "\u25810x9600": 5611,
    "\u25810xa210": 5612,
    "ctype": 5613,
    "749": 5614,
    "\u25810x8d90": 5615,
    "\u2581dialog": 5616,
    "690": 5617,
    "pre": 5618,
    "\u25810x4184": 5619,
    "7e8": 5620,
    "acd": 5621,
    "940": 5622,
    "f68": 5623,
    "aa8": 5624,
    "bfc": 5625,
    "778": 5626,
    "a69": 5627,
    "ncy": 5628,
    "\u2581164639": 5629,
    "2d8": 5630,
    "b46": 5631,
    "\u25810x181b70": 5632,
    "requency": 5633,
    "e0c": 5634,
    "\u25810x4606": 5635,
    "\u25810xa42a40": 5636,
    "\u2581findresourcea": 5637,
    "730": 5638,
    "974": 5639,
    "bb0": 5640,
    "\u25810x1211ee8": 5641,
    "\u25810x4650": 5642,
    "\u25810xffcb": 5643,
    "20c": 5644,
    "\u2581hd": 5645,
    "\u2581userenv": 5646,
    "7dc": 5647,
    "\u25810x88f0": 5648,
    "cefrequency": 5649,
    "\u2581queryperformancefrequency": 5650,
    "\u25810xfff3": 5651,
    "created": 5652,
    "\u25810x4079": 5653,
    "\u25810x41a044": 5654,
    "2c0": 5655,
    "\u25810x616": 5656,
    "\u25810x4160": 5657,
    "\u25810xf000": 5658,
    "\u25810x4cf0": 5659,
    "\u25810x4126": 5660,
    "\u2581qt5core": 5661,
    "3d4": 5662,
    "ce6": 5663,
    "trol": 5664,
    "atalog": 5665,
    "au": 5666,
    "tag": 5667,
    "\u25810xa6b0": 5668,
    "extex": 5669,
    "\u2581regqueryvalueexw": 5670,
    "944": 5671,
    "f7c": 5672,
    "mapi": 5673,
    "ph": 5674,
    "16c": 5675,
    "df8": 5676,
    "2c4": 5677,
    "647": 5678,
    "fd4": 5679,
    "50000": 5680,
    "244": 5681,
    "b20": 5682,
    "64c": 5683,
    "non": 5684,
    "\u25810x534": 5685,
    "\u25810x4201": 5686,
    "\u25810x40a3e": 5687,
    "\u2581getprivateprofile": 5688,
    "950": 5689,
    "\u25810x5f3": 5690,
    "\u25810x4093e8": 5691,
    "af8": 5692,
    "17a8": 5693,
    "\u25810x4093e5": 5694,
    "\u25810x4093e6": 5695,
    "\u25810x4093e7": 5696,
    "270": 5697,
    "a50": 5698,
    "\u25810x41a8a8": 5699,
    "\u25810x41bc98": 5700,
    "\u25810x41bcc8": 5701,
    "\u2581getsystemtimes": 5702,
    "bd8": 5703,
    "f16": 5704,
    "14c": 5705,
    "\u25812d": 5706,
    "\u2581tow": 5707,
    "\u25810x41e1d8": 5708,
    "instal": 5709,
    "\u25810x1211df4": 5710,
    "plor": 5711,
    "internet": 5712,
    "d38": 5713,
    "will": 5714,
    "\u2581dwmapi": 5715,
    "bd7": 5716,
    "rn": 5717,
    "eta": 5718,
    "\u25810x560": 5719,
    "\u2581getmodulehandl": 5720,
    "star": 5721,
    "7a0": 5722,
    "970": 5723,
    "\u2581lstrcmpi": 5724,
    "dc8": 5725,
    "\u2581cryptbase": 5726,
    "5a0": 5727,
    "d90": 5728,
    "\u25810x41b8": 5729,
    "\u2581filenotfound": 5730,
    "\u25810x454": 5731,
    "\u2581atex": 5732,
    "atalogs": 5733,
    "\u2581atexit": 5734,
    "rnl": 5735,
    "\u25810xa260": 5736,
    "bff": 5737,
    "reen": 5738,
    "nonce": 5739,
    "\u2581runonce": 5740,
    "dregen": 5741,
    "\u25810x1bf9": 5742,
    "\u2581hddregen": 5743,
    "\u2581hddregenerator": 5744,
    "520": 5745,
    "\u25810x468": 5746,
    "fb8": 5747,
    "48c": 5748,
    "506": 5749,
    "eexist": 5750,
    "\u25810x678208": 5751,
    "\u2581fileexist": 5752,
    "715": 5753,
    "eb8": 5754,
    "osk": 5755,
    "oskrnl": 5756,
    "\u2581ntoskrnl": 5757,
    "d60": 5758,
    "\u25810x4139": 5759,
    "\u25810xffca": 5760,
    "396": 5761,
    "\u25810x8490": 5762,
    "f1a": 5763,
    "\u25810x9a60": 5764,
    "\u25810x120f7": 5765,
    "69e": 5766,
    "\u2581qae": 5767,
    "\u258134": 5768,
    "\u2581dup": 5769,
    "\u25810x409c": 5770,
    "\u2581cl": 5771,
    "9bc": 5772,
    "d7c": 5773,
    "dcc": 5774,
    "\u25810x4df": 5775,
    "2c6": 5776,
    "dd6": 5777,
    "lay": 5778,
    "fa2": 5779,
    "install": 5780,
    "\u25810xffc8": 5781,
    "a02": 5782,
    "a78": 5783,
    "d10": 5784,
    "\u25810x1a0": 5785,
    "\u2581shgetfile": 5786,
    "158": 5787,
    "fad": 5788,
    "\u25810x42fc68": 5789,
    "3e4": 5790,
    "baf": 5791,
    "\u25810x5937": 5792,
    "\u25810xa9a0": 5793,
    "366": 5794,
    "\u2581getmodulehandleexw": 5795,
    "130": 5796,
    "\u25810x5617a8": 5797,
    "\u2581isvalidlocale": 5798,
    "31c": 5799,
    "\u25810x402": 5800,
    "\u25810x442": 5801,
    "\u25810x4093e9": 5802,
    "\u25810x4093ea": 5803,
    "\u25810x4093eb": 5804,
    "d24": 5805,
    "\u25810x94f0": 5806,
    "\u25810x417b1": 5807,
    "\u25810x4170d4": 5808,
    "\u25810x4170d5": 5809,
    "\u2581ns": 5810,
    "\u25810x42c0a4": 5811,
    "qa": 5812,
    "amet": 5813,
    "\u25810x95d0": 5814,
    "\u25810x1211d44": 5815,
    "\u25810x1211e54": 5816,
    "a94": 5817,
    "\u25810x16000": 5818,
    "741": 5819,
    "e50": 5820,
    "lien": 5821,
    "\u25810x455": 5822,
    "\u25810x4200": 5823,
    "\u25810x4ec0": 5824,
    "\u25810x4238a8": 5825,
    "\u25810x4238d8": 5826,
    "\u2581duplic": 5827,
    "\u25810x423868": 5828,
    "\u25810x423898": 5829,
    "311": 5830,
    "toc": 5831,
    "\u2581pi": 5832,
    "mi": 5833,
    "7b8": 5834,
    "\u25810x598740": 5835,
    "60c": 5836,
    "\u25810x518": 5837,
    "\u2581commandline": 5838,
    "\u25810x80be": 5839,
    "ocontrol": 5840,
    "\u25810x409aa4": 5841,
    "dac": 5842,
    "vip": 5843,
    "\u25810xba": 5844,
    "iocontrol": 5845,
    "\u25810x409aa5": 5846,
    "\u25810x4614d0": 5847,
    "argvw": 5848,
    "\u2581prvip": 5849,
    "toargvw": 5850,
    "\u2581charpre": 5851,
    "\u2581commandlinetoargvw": 5852,
    "\u25810x41aa": 5853,
    "\u25810x4c10": 5854,
    "2f5": 5855,
    "312": 5856,
    "3a5": 5857,
    "d78": 5858,
    "\u25810x40935d": 5859,
    "\u25810x40935e": 5860,
    "\u25810x40935f": 5861,
    "\u25810x409360": 5862,
    "\u25810x409361": 5863,
    "\u25810x409362": 5864,
    "\u25810x409363": 5865,
    "chr": 5866,
    "\u25810x131": 5867,
    "\u2581deviceiocontrol": 5868,
    "641": 5869,
    "a60": 5870,
    "bc6": 5871,
    "c8e": 5872,
    "\u25810x1211fbc": 5873,
    "\u25810x8000000": 5874,
    "\u2581nsiserror": 5875,
    "354": 5876,
    "f38": 5877,
    "pass": 5878,
    "\u25810x45fb": 5879,
    "\u25810x4f60": 5880,
    "\u25810x1210e80": 5881,
    "mar": 5882,
    "\u25810xffc9": 5883,
    "\u25810x4fec20": 5884,
    "\u25810xbe": 5885,
    "\u25810x41ab": 5886,
    "instan": 5887,
    "\u25810x42ea": 5888,
    "\u25810x419ce0": 5889,
    "\u25810x53e498": 5890,
    "397": 5891,
    "dd7": 5892,
    "\u25810x1808": 5893,
    "\u25810x3200a48": 5894,
    "\u25810xfeee009d": 5895,
    "a74": 5896,
    "\u258135": 5897,
    "\u25810x569b48": 5898,
    "\u25810x4240": 5899,
    "314": 5900,
    "\u25810x450": 5901,
    "\u25810x169bf28": 5902,
    "\u25810xd8": 5903,
    "\u2581as": 5904,
    "148": 5905,
    "\u25810x430828": 5906,
    "566": 5907,
    "\u2581oleacc": 5908,
    "68b": 5909,
    "\u25810x4217": 5910,
    "withtag": 5911,
    "\u25810x4208e0": 5912,
    "poolwithtag": 5913,
    "\u2581exallocate": 5914,
    "\u2581exallocatepoolwithtag": 5915,
    "58c": 5916,
    "ters": 5917,
    "ab5": 5918,
    "\u2581wm": 5919,
    "\u25810x46c0": 5920,
    "376": 5921,
    "a68": 5922,
    "med": 5923,
    "ority": 5924,
    "\u25810x4b7": 5925,
    "privile": 5926,
    "valueexa": 5927,
    "\u25810x1211e80": 5928,
    "35c": 5929,
    "\u25810x2e7": 5930,
    "\u25810x169ba04": 5931,
    "\u25810x4ee0": 5932,
    "\u25810x1211f50": 5933,
    "\u25810x9940": 5934,
    "\u25810x3f3080": 5935,
    "a0c": 5936,
    "\u2581ndr": 5937,
    "\u2581strlen": 5938,
    "\u2581reset": 5939,
    "\u25810x423df8": 5940,
    "9f0": 5941,
    "\u2581ndrd": 5942,
    "\u258116462": 5943,
    "\u25810x2200": 5944,
    "2f0": 5945,
    "3b9": 5946,
    "seekto": 5947,
    "\u2581failedtoseekto": 5948,
    "b34": 5949,
    "\u25810x169bc04": 5950,
    "\u25810x169bd04": 5951,
    "\u25810x1211f98": 5952,
    "one": 5953,
    "starto": 5954,
    "\u25810x4335": 5955,
    "\u25810x47ee": 5956,
    "\u2581864000": 5957,
    "\u25810x70000": 5958,
    "startoffile": 5959,
    "\u2581failedtoseektostartoffile": 5960,
    "etype": 5961,
    "\u25810x39569": 5962,
    "932": 5963,
    "df0": 5964,
    "fa6": 5965,
    "\u25810x3f3040": 5966,
    "\u25810x431f68": 5967,
    "db8": 5968,
    "\u25810x134": 5969,
    "656": 5970,
    "\u25810xa420": 5971,
    "\u25810x41688a": 5972,
    "\u25810x41688b": 5973,
    "\u25810x4208df": 5974,
    "1a0": 5975,
    "9d8": 5976,
    "\u2581failedtoinitializeenginesection": 5977,
    "quir": 5978,
    "tacquir": 5979,
    "\u2581cocreate": 5980,
    "tacquirecon": 5981,
    "\u2581cryptacquirecon": 5982,
    "\u25810x8de0": 5983,
    "\u25810x1210e84": 5984,
    "2e8": 5985,
    "\u2581programinternalerrornumberis6": 5986,
    "\u25810xb7": 5987,
    "\u258186400040": 5988,
    "386": 5989,
    "\u25810x52668": 5990,
    "\u2581getmessagew": 5991,
    "5ac": 5992,
    "\u25810xb6": 5993,
    "\u25810x8838": 5994,
    "\u2581formatmessagea": 5995,
    "\u2581failedtoinitializeenginestate": 5996,
    "\u25810x4540": 5997,
    "\u25810xa010": 5998,
    "\u25810x1211f30h": 5999,
    "7d5": 6000,
    "d9f": 6001,
    "\u2581af": 6002,
    "\u25810x4324": 6003,
    "\u25810xffd4": 6004,
    "\u25810x419cb0": 6005,
    "150": 6006,
    "910": 6007,
    "\u25810x4175": 6008,
    "1b4": 6009,
    "\u25810x8839": 6010,
    "15c": 6011,
    "\u25810x2200220": 6012,
    "d05": 6013,
    "\u25810x42f1": 6014,
    "leasecon": 6015,
    "da8": 6016,
    "\u25810x9290": 6017,
    "\u25810x40a58c": 6018,
    "\u2581initcommoncontrolsex": 6019,
    "600": 6020,
    "bc9": 6021,
    "\u25810x68000": 6022,
    "\u2581internet": 6023,
    "210": 6024,
    "94c": 6025,
    "\u25810x170": 6026,
    "\u25810x40a57c": 6027,
    "\u2581duplicate": 6028,
    "exit": 6029,
    "\u25810x41d2": 6030,
    "releasecon": 6031,
    "releasecontext": 6032,
    "3b6": 6033,
    "198": 6034,
    "\u2581cocreateinstan": 6035,
    "\u25810x7ac0": 6036,
    "gex": 6037,
    "\u25810x5676": 6038,
    "3d1": 6039,
    "505": 6040,
    "dd8": 6041,
    "\u25810x43f6": 6042,
    "privilege": 6043,
    "\u25810x1211ef4": 6044,
    "\u25810x169b9c0": 6045,
    "ready": 6046,
    "\u2581lstrcata": 6047,
    "\u25810x40a7": 6048,
    "a24": 6049,
    "\u2581cryptreleasecontext": 6050,
    "374": 6051,
    "f3e": 6052,
    "\u25810x4258": 6053,
    "led": 6054,
    "\u2581can": 6055,
    "\u25810x42b4": 6056,
    "\u25810x3f2420": 6057,
    "\u25810x1211ed8": 6058,
    "atom": 6059,
    "\u25810x4c0": 6060,
    "\u25810x1211b08": 6061,
    "22c": 6062,
    "2d0": 6063,
    "ec9": 6064,
    "\u2581getdriv": 6065,
    "\u2581setenvironmentvariablea": 6066,
    "66e": 6067,
    "b0000": 6068,
    "\u25810x1210cf0": 6069,
    "\u2581getdrivetype": 6070,
    "lpapi": 6071,
    "\u25810x414c": 6072,
    "\u25810x4607": 6073,
    "\u25810xfeee015": 6074,
    "\u25810xfeee00f3": 6075,
    "33c": 6076,
    "\u2581duplicatehandle": 6077,
    "7a7": 6078,
    "a06": 6079,
    "\u25810x9a90": 6080,
    "\u25810xfeee00f2": 6081,
    "ded": 6082,
    "\u25810x120f9": 6083,
    "\u25810x1211dbc": 6084,
    "9f8": 6085,
    "\u25810x64000": 6086,
    "\u25810x416b2": 6087,
    "\u25810x416c0": 6088,
    "\u25810x416242": 6089,
    "\u25810x416243": 6090,
    "\u25810x42a0a0": 6091,
    "33a": 6092,
    "586": 6093,
    "f24": 6094,
    "\u2581164637": 6095,
    "roll": 6096,
    "\u2581mta": 6097,
    "9b4": 6098,
    "ware": 6099,
    "\u2581isctype": 6100,
    "\u25810x200020": 6101,
    "\u25810x58de50": 6102,
    "\u2581setcurrentdirectorya": 6103,
    "aba": 6104,
    "\u25810xfff2": 6105,
    "916": 6106,
    "exist": 6107,
    "\u25810x41ba": 6108,
    "\u25810x7eec": 6109,
    "\u25810x1211438": 6110,
    "577": 6111,
    "\u2581command": 6112,
    "\u25810x120e6dc": 6113,
    "\u25810x4f6200": 6114,
    "3db": 6115,
    "ed0": 6116,
    "\u2581opena": 6117,
    "3ac": 6118,
    "bc7": 6119,
    "\u2581youm": 6120,
    "\u25810xa429b0": 6121,
    "ad6": 6122,
    "\u2581202203031": 6123,
    "336": 6124,
    "f69": 6125,
    "new": 6126,
    "\u25810xb2": 6127,
    "\u25810x7eed": 6128,
    "im": 6129,
    "502": 6130,
    "\u25810x7e30": 6131,
    "fdc": 6132,
    "\u2581security": 6133,
    "998": 6134,
    "\u25810x169bf04": 6135,
    "315": 6136,
    "eab": 6137,
    "\u25810x4604": 6138,
    "\u2581destroywindow": 6139,
    "709": 6140,
    "adc": 6141,
    "\u25810x4d5": 6142,
    "\u25810x169bf2c": 6143,
    "\u25810x75500000": 6144,
    "545": 6145,
    "a32": 6146,
    "ef4": 6147,
    "30000": 6148,
    "times": 6149,
    "\u25810x7e4": 6150,
    "\u25810x7df9": 6151,
    "\u25810x423d78": 6152,
    "\u25810x423e38": 6153,
    "output": 6154,
    "pl": 6155,
    "1a4": 6156,
    "375": 6157,
    "75c8": 6158,
    "orgex": 6159,
    "\u25810x9850": 6160,
    "\u25810x6b9c": 6161,
    "\u25810x7df8": 6162,
    "\u25810x8554": 6163,
    "fa0": 6164,
    "\u25810x7f4": 6165,
    "7ce": 6166,
    "fed": 6167,
    "\u25810x3010": 6168,
    "a30": 6169,
    "\u25810x6ba": 6170,
    "37c": 6171,
    "twork": 6172,
    "\u2581back": 6173,
    "\u25810x1211fa0": 6174,
    "b38": 6175,
    "\u2581iph": 6176,
    "\u25810x144": 6177,
    "\u2581iphlpapi": 6178,
    "move": 6179,
    "\u25810x40d8": 6180,
    "\u25810x7f8003": 6181,
    "\u25810x7f8004": 6182,
    "\u25810x7f8005": 6183,
    "\u25810x7f8006": 6184,
    "\u25810x7f8007": 6185,
    "\u25810x7f8008": 6186,
    "\u25810x7f8009": 6187,
    "\u25810x7f800a": 6188,
    "\u25810x7f800b": 6189,
    "\u25810x7f800c": 6190,
    "\u25810x7f800d": 6191,
    "3d6": 6192,
    "pri": 6193,
    "70000": 6194,
    "\u25810x2010": 6195,
    "3ec": 6196,
    "9c4": 6197,
    "290": 6198,
    "bf4": 6199,
    "\u25810x5266c": 6200,
    "\u25810x7f800e": 6201,
    "\u25810x502dc": 6202,
    "\u25810x52669": 6203,
    "\u25810x169bec8": 6204,
    "\u25810x132": 6205,
    "bc4": 6206,
    "\u25810x40eeca": 6207,
    "\u25810x40eecb": 6208,
    "\u25810x7f800f": 6209,
    "sk": 6210,
    "9c8": 6211,
    "outputcp": 6212,
    "priority": 6213,
    "\u25810x4605": 6214,
    "\u25810x1211584": 6215,
    "unch": 6216,
    "\u2581towlower": 6217,
    "1c6": 6218,
    "\u25810x44b7": 6219,
    "\u2581getconsoleoutputcp": 6220,
    "117": 6221,
    "9d0": 6222,
    "\u25810x5f6": 6223,
    "\u2581globalf": 6224,
    "\u25810x40ef1b": 6225,
    "f3c": 6226,
    "\u2581ab": 6227,
    "\u25810x2357b": 6228,
    "1b8": 6229,
    "9b8": 6230,
    "bbc": 6231,
    "\u2581oa": 6232,
    "\u2581fre": 6233,
    "\u25810x4020": 6234,
    "\u25810x40ef1a": 6235,
    "alse": 6236,
    "\u25810xffdf": 6237,
    "3a20": 6238,
    "3d28": 6239,
    "\u2581openw": 6240,
    "a34": 6241,
    "\u2581your": 6242,
    "\u25810x4608": 6243,
    "\u25810x1211888": 6244,
    "\u25810xffed": 6245,
    "\u2581getcursor": 6246,
    "578": 6247,
    "eb2": 6248,
    "\u25810x6940": 6249,
    "ha": 6250,
    "364": 6251,
    "3cc": 6252,
    "\u25810x4218": 6253,
    "\u25810xa3a0": 6254,
    "\u25810x58c034": 6255,
    "f2c": 6256,
    "\u25810xb1": 6257,
    "\u25810x1211b74": 6258,
    "b2c": 6259,
    "bec": 6260,
    "\u2581qa": 6261,
    "a96": 6262,
    "606": 6263,
    "\u25810x491288": 6264,
    "b96": 6265,
    "dfc": 6266,
    "\u25810x600": 6267,
    "\u25810xa427": 6268,
    "\u25810xa710": 6269,
    "3dc": 6270,
    "3ff": 6271,
    "a49": 6272,
    "tive": 6273,
    "\u25810x40e5": 6274,
    "\u2581environ": 6275,
    "a89": 6276,
    "b3c": 6277,
    "9c24": 6278,
    "\u25810x4c30": 6279,
    "351": 6280,
    "plorer": 6281,
    "\u25810x500010": 6282,
    "339": 6283,
    "applet": 6284,
    "\u2581regcreate": 6285,
    "a85": 6286,
    "1740": 6287,
    "\u25810x1906000": 6288,
    "f71": 6289,
    "\u25810x4251": 6290,
    "\u25810xffd1": 6291,
    "238": 6292,
    "296": 6293,
    "765": 6294,
    "bac": 6295,
    "\u25810xa3a": 6296,
    "\u25810x3fd00": 6297,
    "df5": 6298,
    "image": 6299,
    "\u25810x7dc4": 6300,
    "\u25810x640000": 6301,
    "\u25810x80be54": 6302,
    "1c4": 6303,
    "938": 6304,
    "\u25810x1b0": 6305,
    "\u25810x4dc": 6306,
    "\u25810x7ce0": 6307,
    "3de": 6308,
    "\u25810x6970": 6309,
    "\u25810xff86": 6310,
    "\u25810x2d4d9": 6311,
    "920": 6312,
    "\u25810x426": 6313,
    "che": 6314,
    "\u25810x40f6a8": 6315,
    "\u25810x1211b50": 6316,
    "\u25810x7dc5": 6317,
    "b6c": 6318,
    "\u25810x42a6": 6319,
    "\u25810x565868": 6320,
    "ad5": 6321,
    "\u25810x42ec": 6322,
    "\u25810x7dd0": 6323,
    "3fc": 6324,
    "f10": 6325,
    "\u25810x4140": 6326,
    "365": 6327,
    "\u258108": 6328,
    "ort": 6329,
    "\u25810x598758": 6330,
    "\u25810x10a": 6331,
    "\u25810x599": 6332,
    "\u2581regcreatekey": 6333,
    "a39": 6334,
    "d46": 6335,
    "790": 6336,
    "\u25810xffe8": 6337,
    "\u25810x1210e30": 6338,
    "\u2581getconsolewindow": 6339,
    "ning": 6340,
    "680": 6341,
    "adap": 6342,
    "\u2581prop": 6343,
    "128": 6344,
    "\u25810x41e9": 6345,
    "adapters": 6346,
    "332": 6347,
    "ba9": 6348,
    "\u25810x1211790": 6349,
    "d58": 6350,
    "e14": 6351,
    "sion": 6352,
    "\u25810xa41": 6353,
    "\u25810x417da0": 6354,
    "\u25810x10e": 6355,
    "\u25810x420f2": 6356,
    "\u25810x42b0a0": 6357,
    "\u25810x522": 6358,
    "\u25810x1211b54": 6359,
    "\u2581getadapters": 6360,
    "ects": 6361,
    "\u2581lib": 6362,
    "\u25810x4760": 6363,
    "\u25810x417d9f": 6364,
    "aec": 6365,
    "\u2581ri": 6366,
    "\u25810x740": 6367,
    "\u25810x413f": 6368,
    "\u25810x4602": 6369,
    "3b4": 6370,
    "681": 6371,
    "\u2581messageboxw": 6372,
    "71f": 6373,
    "a0d": 6374,
    "\u2581to": 6375,
    "place": 6376,
    "345": 6377,
    "\u25810xb9": 6378,
    "be4": 6379,
    "\u25810x940000": 6380,
    "bf1": 6381,
    "\u25810x2100": 6382,
    "\u2581failedtoopen": 6383,
    "\u2581failedtoopenapplication": 6384,
    "his": 6385,
    "\u25810x1211f0c": 6386,
    "\u2581failedtoopenapplicationlog": 6387,
    "291": 6388,
    "run": 6389,
    "0060": 6390,
    "\u25810xa3a790": 6391,
    "gs": 6392,
    "\u258104": 6393,
    "7170": 6394,
    "\u25810xff69": 6395,
    "\u25810x4316": 6396,
    "ally": 6397,
    "\u25810x7dd9": 6398,
    "\u25810xa0e6": 6399,
    "230": 6400,
    "3bc": 6401,
    "enamew": 6402,
    "540": 6403,
    "745": 6404,
    "\u25810x188e4c": 6405,
    "bd5": 6406,
    "\u2581ps": 6407,
    "\u25810x3f29": 6408,
    "\u25810x4e5c": 6409,
    "\u25810x43400": 6410,
    "710": 6411,
    "17f4": 6412,
    "prop": 6413,
    "7d8": 6414,
    "e38": 6415,
    "\u25810x4106": 6416,
    "76c": 6417,
    "\u25810x461518": 6418,
    "\u2581run": 6419,
    "\u25810x2d4df": 6420,
    "e4b8": 6421,
    "\u2581logme": 6422,
    "bed": 6423,
    "\u25810x5b5": 6424,
    "\u2581riche": 6425,
    "eresource": 6426,
    "\u25810x486d18": 6427,
    "\u25810x1211e0c": 6428,
    "711": 6429,
    "7ec": 6430,
    "ab6": 6431,
    "\u25810x40d": 6432,
    "\u25810x4dd": 6433,
    "\u25810x6b6": 6434,
    "\u25810x4af4": 6435,
    "\u25810x4b40": 6436,
    "orno": 6437,
    "ba4": 6438,
    "f3f": 6439,
    "ae00": 6440,
    "7f4": 6441,
    "\u2581setupapi": 6442,
    "f64": 6443,
    "\u25810x46b3b8": 6444,
    "\u25810xfeee018": 6445,
    "ei": 6446,
    "554": 6447,
    "d49": 6448,
    "zone": 6449,
    "3e1": 6450,
    "7c0": 6451,
    "\u25810x478": 6452,
    "\u25810x416ed1": 6453,
    "\u25810x42fc20": 6454,
    "\u25810x416ed2": 6455,
    "\u2581freeresource": 6456,
    "9cc": 6457,
    "\u25810x42b7": 6458,
    "\u25810x4902e0": 6459,
    "558": 6460,
    "river": 6461,
    "\u25810x496790": 6462,
    "911": 6463,
    "\u2581el": 6464,
    "\u25810x7eaba8": 6465,
    "ted": 6466,
    "\u2581aa": 6467,
    "\u2581regdelete": 6468,
    "9e8": 6469,
    "ee2": 6470,
    "ils": 6471,
    "\u25810xe9": 6472,
    "\u25810x9520": 6473,
    "\u25810x599b5c": 6474,
    "\u25810x599c24": 6475,
    "\u25810x59bf3c": 6476,
    "\u25810x59bf7c": 6477,
    "\u25810x59c120": 6478,
    "\u25810x59c138": 6479,
    "aae": 6480,
    "d32": 6481,
    "\u25810xa020": 6482,
    "zoneinformation": 6483,
    "723": 6484,
    "96c": 6485,
    "sys": 6486,
    "\u25810x8e90": 6487,
    "\u25810x567678": 6488,
    "\u2581gettimezoneinformation": 6489,
    "705": 6490,
    "7f8": 6491,
    "\u2581getwindowsdirectoryw": 6492,
    "3e5": 6493,
    "\u2581la": 6494,
    "\u2581psapi": 6495,
    "\u25810x7dc9": 6496,
    "\u25810x42e0a4": 6497,
    "\u25810x4363d8": 6498,
    "\u25810x1210ec0": 6499,
    "\u2581systemtim": 6500,
    "235": 6501,
    "\u25810x7f9": 6502,
    "\u25810xfeee016": 6503,
    "\u25810x4219": 6504,
    "\u25810x414f20": 6505,
    "\u25810x435018": 6506,
    "5f8": 6507,
    "686": 6508,
    "a76": 6509,
    "e81": 6510,
    "\u2581print": 6511,
    "\u25810x7ddd": 6512,
    "\u25810x419c54": 6513,
    "\u25810x435002": 6514,
    "\u25810x435004": 6515,
    "\u25810x435006": 6516,
    "\u25810x435008": 6517,
    "\u25810x43500a": 6518,
    "\u25810x43500c": 6519,
    "\u25810x43500e": 6520,
    "\u25810x435010": 6521,
    "319": 6522,
    "548": 6523,
    "\u25810x44c2": 6524,
    "\u25810x419c53": 6525,
    "\u25810x435014": 6526,
    "\u25810x435016": 6527,
    "\u2581iswindow": 6528,
    "\u25810x1211f68": 6529,
    "ame32": 6530,
    "\u2581call": 6531,
    "\u2581mame32": 6532,
    "\u25810x42398": 6533,
    "\u25810x74000": 6534,
    "\u25810x414f21": 6535,
    "\u2581freeware": 6536,
    "eb6": 6537,
    "\u25810x407b": 6538,
    "\u2581apphelp": 6539,
    "214": 6540,
    "0068": 6541,
    "bcat": 6542,
    "\u25810x509e4": 6543,
    "\u2581propsys": 6544,
    "ht": 6545,
    "5a8": 6546,
    "bcatq": 6547,
    "\u25810x4011": 6548,
    "\u25810x8e50": 6549,
    "\u2581clbcatq": 6550,
    "224": 6551,
    "bdc": 6552,
    "\u25810xbf": 6553,
    "\u25810x504": 6554,
    "\u25810xc417f4": 6555,
    "\u25810xfeedf000": 6556,
    "cue": 6557,
    "rescue": 6558,
    "5f0": 6559,
    "\u25810x4188": 6560,
    "\u25810x42d498": 6561,
    "500": 6562,
    "inrescue": 6563,
    "\u25810x417c10": 6564,
    "\u2581logmeinrescue": 6565,
    "33c4": 6566,
    "\u25810xd7": 6567,
    "dfd": 6568,
    "a526": 6569,
    "\u2581logmeinrescueapplet": 6570,
    "\u25810xdc": 6571,
    "\u25810x535": 6572,
    "\u25810x435012": 6573,
    "\u2581registerwindowmessagea": 6574,
    "e05": 6575,
    "ea0": 6576,
    "\u25810x422c": 6577,
    "\u25810x4febd8": 6578,
    "\u25810x417be0": 6579,
    "f5c": 6580,
    "3f4": 6581,
    "\u2581asw": 6582,
    "\u25810x44f": 6583,
    "\u2581getmodulebas": 6584,
    "b39": 6585,
    "program": 6586,
    "b74": 6587,
    "\u25810x2b4": 6588,
    "handler": 6589,
    "2fc": 6590,
    "\u25810x41ac": 6591,
    "\u25810xfeee009e": 6592,
    "\u2581getmodulebasenamew": 6593,
    "2b8": 6594,
    "ad50": 6595,
    "\u25810x6a": 6596,
    "\u25810xff92": 6597,
    "a33": 6598,
    "\u25810xffe9": 6599,
    "7675": 6600,
    "\u25810x7dcc": 6601,
    "\u25810x1b5": 6602,
    "\u25810x7e20": 6603,
    "\u25810xfeee00f0": 6604,
    "9b6": 6605,
    "b16": 6606,
    "datom": 6607,
    "profil": 6608,
    "\u25810x4b4": 6609,
    "\u25810x7dd4": 6610,
    "\u25810x12000": 6611,
    "\u25810x431f20": 6612,
    "29c": 6613,
    "e20": 6614,
    "valuea": 6615,
    "\u25810x7fc": 6616,
    "\u25810x3f28": 6617,
    "\u25810x1211e38": 6618,
    "9a8": 6619,
    "buf": 6620,
    "sto": 6621,
    "idto": 6622,
    "\u25810x41a9": 6623,
    "\u25810x4c33": 6624,
    "\u25810x8cb0": 6625,
    "\u25810x3020302": 6626,
    "\u25810xfeee00f5": 6627,
    "30c": 6628,
    "f45": 6629,
    "f79": 6630,
    "\u25810x5004": 6631,
    "\u2581cocreateinstance": 6632,
    "754": 6633,
    "7ac": 6634,
    "\u2581endd": 6635,
    "\u25810x5e9": 6636,
    "\u2581task": 6637,
    "912": 6638,
    "\u25810x4040": 6639,
    "\u25810x7dcd": 6640,
    "\u25810x7dd8": 6641,
    "\u25810xfeee00a0": 6642,
    "b12": 6643,
    "\u2581cp": 6644,
    "\u25810x7ddc": 6645,
    "\u25810x4c32d8": 6646,
    "\u25810x4c32f0": 6647,
    "2e2": 6648,
    "af3": 6649,
    "\u25810x40a6": 6650,
    "\u25810x416be0": 6651,
    "77c": 6652,
    "a46": 6653,
    "\u25810xcccc": 6654,
    "ae2": 6655,
    "\u2581enable": 6656,
    "\u25810x416c10": 6657,
    "\u25810x42ce08": 6658,
    "pc": 6659,
    "20224": 6660,
    "\u25810x169b8": 6661,
    "\u25810x423d38": 6662,
    "750": 6663,
    "fcc": 6664,
    "\u25810x40d9": 6665,
    "\u25810x7dd1": 6666,
    "\u25810x7dd5": 6667,
    "\u2581onexit": 6668,
    "\u25810x47a00": 6669,
    "f14": 6670,
    "570656": 6671,
    "64656c": 6672,
    "\u25810x7f1": 6673,
    "\u25813a526": 6674,
    "1740d0a": 6675,
    "2022433a": 6676,
    "\u25810x181b48": 6677,
    "\u25813a526570656": 6678,
    "1740d0a64656c": 6679,
    "1740d0a64656c2022433a": 6680,
    "\u25813a5265706561740d0a64656c2022433a": 6681,
    "2ec": 6682,
    "\u25810x7100": 6683,
    "767": 6684,
    "\u2581ma": 6685,
    "\u25810x4d0": 6686,
    "\u25810x408c8d": 6687,
    "\u25810x408c8e": 6688,
    "\u25810x1211cb8": 6689,
    "225": 6690,
    "\u2581164633": 6691,
    "\u2581lstrcmpia": 6692,
    "\u25810x4012": 6693,
    "\u25810x40f1": 6694,
    "trect": 6695,
    "\u2581fast": 6696,
    "\u2581cryptget": 6697,
    "mt": 6698,
    "\u2581ol": 6699,
    "\u2581getfileattributesa": 6700,
    "valuew": 6701,
    "\u25810x508d0": 6702,
    "1ac": 6703,
    "\u25810x509a8": 6704,
    "\u25810x3f75e88": 6705,
    "a5b": 6706,
    "c43": 6707,
    "d26": 6708,
    "\u25810x700": 6709,
    "\u25810x7730": 6710,
    "\u25810x43501a": 6711,
    "propw": 6712,
    "\u25810x458": 6713,
    "\u25810x41cc54": 6714,
    "\u25810x120e6a0": 6715,
    "\u25810x120f8a6": 6716,
    "\u2581writeconsolea": 6717,
    "186": 6718,
    "9ac": 6719,
    "\u25810x7f5": 6720,
    "\u25810x4fe6e8": 6721,
    "486": 6722,
    "a43": 6723,
    "\u2581taskbar": 6724,
    "e9c": 6725,
    "53a0": 6726,
    "\u258103t": 6727,
    "\u25810xfeee019": 6728,
    "d0000": 6729,
    "\u25810x366": 6730,
    "\u2581cryptdestroy": 6731,
    "\u25810x46a1": 6732,
    "\u25810x77000": 6733,
    "24c": 6734,
    "f95": 6735,
    "300b": 6736,
    "sions": 6737,
    "\u25810x40e9": 6738,
    "\u25810x1211ec0": 6739,
    "691": 6740,
    "\u25810x4b8": 6741,
    "\u2581launch": 6742,
    "\u25810x4353d8": 6743,
    "263": 6744,
    "\u25810xd4": 6745,
    "\u25810x180c": 6746,
    "\u25810x7c90": 6747,
    "\u25810x181b98": 6748,
    "\u2581localrealloc": 6749,
    "5bc": 6750,
    "aac0": 6751,
    "\u25810x9ab0": 6752,
    "\u25810x423d90": 6753,
    "\u25810x423dc0": 6754,
    "\u25810x4c9778": 6755,
    "\u2581getmenuitem": 6756,
    "processmemory": 6757,
    "356": 6758,
    "\u25810x44c": 6759,
    "fami": 6760,
    "famili": 6761,
    "\u25810x115": 6762,
    "\u25810x413b": 6763,
    "\u25810xffd8": 6764,
    "\u25810x563a20": 6765,
    "fn": 6766,
    "28c": 6767,
    "eb4": 6768,
    "f54": 6769,
    "blead": 6770,
    "\u2581ismb": 6771,
    "\u2581ismbblead": 6772,
    "\u25810x474": 6773,
    "d14": 6774,
    "df4": 6775,
    "3008": 6776,
    "\u25810xa3a7e0": 6777,
    "\u25810x42eab0": 6778,
    "\u25810x9630": 6779,
    "168": 6780,
    "a7d": 6781,
    "\u25810x71a1": 6782,
    "\u25810x43501c": 6783,
    "\u25810x43501e": 6784,
    "\u25810x435020": 6785,
    "\u25810x435022": 6786,
    "\u25810x435028": 6787,
    "\u25810x43502a": 6788,
    "\u25810x43502c": 6789,
    "\u25810x43502e": 6790,
    "\u25810x435030": 6791,
    "620": 6792,
    "\u2581mso97": 6793,
    "\u25810x40c5": 6794,
    "\u25810x40e7": 6795,
    "6c5": 6796,
    "777": 6797,
    "fde": 6798,
    "\u2581pa": 6799,
    "\u25810xfffffffe": 6800,
    "\u2581vf": 6801,
    "20000": 6802,
    "\u2581line": 6803,
    "\u25810x636": 6804,
    "\u25810x41d1e0": 6805,
    "\u25810x1211a44": 6806,
    "\u2581getthreadtimes": 6807,
    "7bc": 6808,
    "e46": 6809,
    "\u25810x7500": 6810,
    "\u25810x1211eac": 6811,
    "dd0": 6812,
    "fb4": 6813,
    "0048": 6814,
    "\u2581getdrivetypea": 6815,
    "60000": 6816,
    "\u2581regenum": 6817,
    "1f8": 6818,
    "2a8": 6819,
    "c46": 6820,
    "e90": 6821,
    "ill": 6822,
    "006c": 6823,
    "\u25810x513d28": 6824,
    "\u2581setenvironmentvariablew": 6825,
    "d34": 6826,
    "\u25810x120fb30": 6827,
    "b56": 6828,
    "\u25810x43f": 6829,
    "inmodule": 6830,
    "\u25810x120fe": 6831,
    "\u25810x4375c8": 6832,
    "\u25810xfeedf0": 6833,
    "\u25810x1210e70": 6834,
    "645": 6835,
    "\u25810xde": 6836,
    "\u25810x44c250": 6837,
    "695": 6838,
    "d9c": 6839,
    "eac": 6840,
    "uti": 6841,
    "\u25810xa050": 6842,
    "\u25810x80c488": 6843,
    "a56": 6844,
    "\u25810x40d5": 6845,
    "5c6": 6846,
    "\u25810x447": 6847,
    "\u25810xa41f": 6848,
    "00000000": 6849,
    "\u25810x420818": 6850,
    "\u25810x1211f94": 6851,
    "\u25810xfeee009f": 6852,
    "imetofiletime": 6853,
    "sd": 6854,
    "\u25810x9110": 6855,
    "\u25810x1211ddc": 6856,
    "e70": 6857,
    "\u2581ext": 6858,
    "\u2581zip": 6859,
    "\u25810x4ed": 6860,
    "\u25810x4220": 6861,
    "\u25810x40a5b8": 6862,
    "\u25810xdb": 6863,
    "running": 6864,
    "\u25810x40a5b0": 6865,
    "\u25810x1211f14": 6866,
    "\u25810x423c": 6867,
    "\u25810x42c020": 6868,
    "\u2581doyouwantto": 6869,
    "406": 6870,
    "a3c": 6871,
    "db4": 6872,
    "\u25810x47d0": 6873,
    "\u25810x40a5b4": 6874,
    "\u25810x42c024": 6875,
    "\u25810x42c028": 6876,
    "ocus": 6877,
    "\u2581openanex": 6878,
    "\u25810x1210e34": 6879,
    "121": 6880,
    "e55": 6881,
    "e64": 6882,
    "false": 6883,
    "\u25810x40a5ae": 6884,
    "\u25810x40a5b2": 6885,
    "\u25810x40a5b6": 6886,
    "\u25810x40a5ba": 6887,
    "gn": 6888,
    "\u25810x120e688": 6889,
    "964": 6890,
    "thash": 6891,
    "allyour": 6892,
    "\u25810x2840": 6893,
    "\u25810x40ad": 6894,
    "\u25810x4356": 6895,
    "\u25810x4c50": 6896,
    "\u2581instal": 6897,
    "\u25810x1211edc": 6898,
    "cc6": 6899,
    "true": 6900,
    "\u25810xec": 6901,
    "nexist": 6902,
    "\u25810x423b": 6903,
    "\u2581istrue": 6904,
    "\u2581iszero": 6905,
    "\u2581isexist": 6906,
    "\u2581isfalse": 6907,
    "thashdata": 6908,
    "\u25810x46b388": 6909,
    "createhash": 6910,
    "ornonexist": 6911,
    "\u2581iszeroornonexist": 6912,
    "\u2581openprocesstoken": 6913,
    "775": 6914,
    "e2c": 6915,
    "\u25810x5ab": 6916,
    "\u25810x41af40": 6917,
    "frominternet": 6918,
    "\u25810xe6": 6919,
    "\u25810xffdc": 6920,
    "codeptr": 6921,
    "\u25810x181c88": 6922,
    "\u25810x4111d0": 6923,
    "\u25810x41ae00": 6924,
    "\u2581isbadcodeptr": 6925,
    "focus": 6926,
    "\u25810x5627": 6927,
    "\u25810x80ba": 6928,
    "\u25810x40a020": 6929,
    "\u25810x4189e8": 6930,
    "\u25810x41ad50": 6931,
    "\u25810x42b070": 6932,
    "\u25810x42eaa6": 6933,
    "\u25810x42eaba": 6934,
    "\u25810x42eac4": 6935,
    "145": 6936,
    "\u25810x406c": 6937,
    "\u25810xa9d0": 6938,
    "\u25810x181c60": 6939,
    "\u25810x4177b0": 6940,
    "\u25810x1211e4c": 6941,
    "295": 6942,
    "db9": 6943,
    "\u2581mfn": 6944,
    "\u2581elvis": 6945,
    "\u25810x6f00": 6946,
    "\u2581gender": 6947,
    "\u25810x409c2c": 6948,
    "\u25810x439458": 6949,
    "161": 6950,
    "274": 6951,
    "bae": 6952,
    "\u2581xz": 6953,
    "familiar": 6954,
    "\u25810x418a18": 6955,
    "\u25810x120fb48": 6956,
    "\u2581formality": 6957,
    "\u2581crypthashdata": 6958,
    "\u2581formalfamiliar": 6959,
    "\u2581cryptcreatehash": 6960,
    "\u2581shgetspecialfolder": 6961,
    "ongle": 6962,
    "\u25810x40a4": 6963,
    "ecadwork": 6964,
    "\u25810x1211c94": 6965,
    "\u25810x76500000": 6966,
    "7de": 6967,
    "e74": 6968,
    "\u25810xe4": 6969,
    "\u25810x4370": 6970,
    "\u25810x9af0": 6971,
    "\u25810xffea": 6972,
    "706": 6973,
    "\u25810x4f5320": 6974,
    "\u25810xa3a7d8": 6975,
    "\u2581registerclipboardformata": 6976,
    "ual": 6977,
    "tem32": 6978,
    "\u25810x415c": 6979,
    "\u2581cryptdestroyhash": 6980,
    "\u25810x51a0": 6981,
    "bd6": 6982,
    "\u25810x154": 6983,
    "\u25810x7f80": 6984,
    "\u25810x2840284": 6985,
    "2d4": 6986,
    "946": 6987,
    "666": 6988,
    "7cc": 6989,
    "menuitem": 6990,
    "hashparam": 6991,
    "3c6": 6992,
    "fa5": 6993,
    "\u25810x57c": 6994,
    "\u25810x9d10": 6995,
    "\u25810x1211e88": 6996,
    "d99": 6997,
    "dd5": 6998,
    "ower": 6999,
    "\u25810x4a8": 7000,
    "\u25810x7fe": 7001,
    "\u25810xa950": 7002,
    "\u25810x169be": 7003,
    "\u25810x4912d0": 7004,
    "ea8": 7005,
    "row": 7006,
    "e100": 7007,
    "icmp": 7008,
    "\u25810x112": 7009,
    "\u25810x431a": 7010,
    "filespec": 7011,
    "164": 7012,
    "f96": 7013,
    "\u2581please": 7014,
    "\u2581removefilespec": 7015,
    "\u2581cryptgethashparam": 7016,
    "1b0": 7017,
    "395": 7018,
    "\u25810x3810": 7019,
    "\u25810x4195": 7020,
    "visible": 7021,
    "\u25810x40f5": 7022,
    "etofiletime": 7023,
    "\u2581systemtimetofiletime": 7024,
    "aab": 7025,
    "\u25810xe2": 7026,
    "\u25810x2280": 7027,
    "\u25810x4095": 7028,
    "\u25810x6b00": 7029,
    "fe4": 7030,
    "\u25810x4ac": 7031,
    "2cc": 7032,
    "385": 7033,
    "uld": 7034,
    "\u25810x4491": 7035,
    "\u25810x169b7f4": 7036,
    "1c8": 7037,
    "\u25810x42a4": 7038,
    "\u25810x6d006c": 7039,
    "\u2581removefilespecw": 7040,
    "3f2": 7041,
    "\u25810x169bca4": 7042,
    "\u2581cryptacquirecontexta": 7043,
    "3ad": 7044,
    "3f3": 7045,
    "d35": 7046,
    "\u25810x4f4": 7047,
    "\u25810x9050": 7048,
    "\u2581dialogbox": 7049,
    "bb9": 7050,
    "1cd8": 7051,
    "7c58": 7052,
    "abc0": 7053,
    "\u25810x7dc": 7054,
    "\u2581164631": 7055,
    "\u2581getfull": 7056,
    "\u25810x6f006e": 7057,
    "\u25810x710070": 7058,
    "\u25810x770076": 7059,
    "\u25810x790078": 7060,
    "\u25810xfffff8": 7061,
    "\u25810x1211d00": 7062,
    "\u2581strcpy": 7063,
    "\u25810x455480": 7064,
    "\u25810x690068": 7065,
    "\u25810x6b006a": 7066,
    "\u25810x714d98": 7067,
    "\u25810x730072": 7068,
    "\u25810x750074": 7069,
    "\u25810x7b007a": 7070,
    "\u25810x7d007c": 7071,
    "\u25810x7f007e": 7072,
    "\u25810xbcf2": 7073,
    "\u2581164629": 7074,
    "234": 7075,
    "b76": 7076,
    "ture": 7077,
    "\u2581memmove": 7078,
    "760": 7079,
    "pipe": 7080,
    "\u25810x419970": 7081,
    "\u25810x4bc298": 7082,
    "\u25810x1211ec4": 7083,
    "2d9": 7084,
    "\u25810xa030": 7085,
    "\u25810x3f75f7c": 7086,
    "\u25810xfeee00a1": 7087,
    "bf6": 7088,
    "\u25810xda": 7089,
    "\u25810x6f6": 7090,
    "\u25810x420fe8": 7091,
    "a65": 7092,
    "e06": 7093,
    "7540": 7094,
    "lientrect": 7095,
    "\u2581getclientrect": 7096,
    "746": 7097,
    "\u25810x9028": 7098,
    "beb": 7099,
    "\u25810x41a9f0": 7100,
    "\u25810x455468": 7101,
    "\u25810x4f6230": 7102,
    "\u25810xfeee00a2": 7103,
    "226": 7104,
    "d94": 7105,
    "dee": 7106,
    "fox": 7107,
    "\u2581this": 7108,
    "\u2581getexit": 7109,
    "windowshook": 7110,
    "2de": 7111,
    "005": 7112,
    "91c": 7113,
    "a9b": 7114,
    "b26": 7115,
    "\u2581for": 7116,
    "\u25810x4332": 7117,
    "\u25810x4529": 7118,
    "\u25810x9a70": 7119,
    "\u25810x3010301": 7120,
    "f49": 7121,
    "6665": 7122,
    "e0000": 7123,
    "\u25810xf4": 7124,
    "1d5": 7125,
    "781": 7126,
    "utton": 7127,
    "\u25810x4212": 7128,
    "\u2581application": 7129,
    "\u2581shgetfileinfow": 7130,
    "b33": 7131,
    "fileex": 7132,
    "\u25810x5188": 7133,
    "\u25810xa290": 7134,
    "\u25810xa980": 7135,
    "\u25810x9ad0": 7136,
    "a16": 7137,
    "\u25810x9c30": 7138,
    "\u25810x1210d90": 7139,
    "\u25810x77000723": 7140,
    "407": 7141,
    "514": 7142,
    "\u25810x59c": 7143,
    "\u25810x970": 7144,
    "\u25810x3f75f84": 7145,
    "fbc": 7146,
    "\u25810x40b5": 7147,
    "\u25810x40b9": 7148,
    "lu": 7149,
    "7c7": 7150,
    "\u25810xa3a2": 7151,
    "\u25810x3f75f8c": 7152,
    "ba6": 7153,
    "f75": 7154,
    "\u258136": 7155,
    "\u25810x6b4": 7156,
    "\u25810x4718": 7157,
    "\u25810x6c000": 7158,
    "installed": 7159,
    "170": 7160,
    "955": 7161,
    "bd2": 7162,
    "dat": 7163,
    "df1": 7164,
    "e94": 7165,
    "\u2581mb": 7166,
    "prog": 7167,
    "\u25810x169bd": 7168,
    "250": 7169,
    "b66": 7170,
    "this": 7171,
    "\u25810x403": 7172,
    "\u2581getdl": 7173,
    "\u2581appdata": 7174,
    "\u25810x169b834": 7175,
    "\u25810xfeee00a3": 7176,
    "605": 7177,
    "\u25810x1211788": 7178,
    "1b5": 7179,
    "52e8": 7180,
    "\u2581shgetspecialfoldera": 7181,
    "screen": 7182,
    "\u25810x120ee": 7183,
    "\u25810x1211d2c": 7184,
    "\u25810xfeee00a4": 7185,
    "\u25810xfeee00a5": 7186,
    "5d0": 7187,
    "b64": 7188,
    "d81": 7189,
    "\u25810x4154": 7190,
    "\u25810xae20": 7191,
    "\u25810x40a92e": 7192,
    "\u25810x40a930": 7193,
    "\u25810x40a932": 7194,
    "\u25810x40a934": 7195,
    "\u25810x40a936": 7196,
    "\u25810x40a938": 7197,
    "\u25810x40a93a": 7198,
    "\u25810x40b888": 7199,
    "a1c": 7200,
    "\u2581mei": 7201,
    "pass2": 7202,
    "\u25810x4229c1": 7203,
    "\u2581meipass2": 7204,
    "767574": 7205,
    "\u25810x4420": 7206,
    "\u25810x77767574": 7207,
    "9da": 7208,
    "session": 7209,
    "006": 7210,
    "1dd": 7211,
    "b54": 7212,
    "df9": 7213,
    "\u25810xf1": 7214,
    "7a7978": 7215,
    "\u25810x410acd": 7216,
    "\u25810x410ace": 7217,
    "\u25810x41e208": 7218,
    "\u25810x7b7a7978": 7219,
    "80c": 7220,
    "d51": 7221,
    "\u25810xfeee00a6": 7222,
    "f3a": 7223,
    "38a": 7224,
    "\u25810x4bcc": 7225,
    "\u25810x9cf0": 7226,
    "e60": 7227,
    "progid": 7228,
    "\u25810x6ce": 7229,
    "\u25810x40af": 7230,
    "\u25810x4315f8": 7231,
    "\u25810x452868": 7232,
    "\u2581clsidfromprogid": 7233,
    "\u25810x42b778": 7234,
    "\u2581clsidfromstring": 7235,
    "685": 7236,
    "ba1": 7237,
    "d06": 7238,
    "26160": 7239,
    "\u25810x4134": 7240,
    "\u25810x41b9f0": 7241,
    "\u25810x423df0": 7242,
    "\u25810x429260": 7243,
    "a9a": 7244,
    "tiv": 7245,
    "\u258130": 7246,
    "\u25810x350": 7247,
    "\u25810xb4ec": 7248,
    "\u25810xd27d5": 7249,
    "\u25810x1733c4": 7250,
    "\u25810x423e20": 7251,
    "3ae": 7252,
    "7ee": 7253,
    "\u25810x7372": 7254,
    "erun": 7255,
    "\u2581cal": 7256,
    "\u2581stdio": 7257,
    "qstring": 7258,
    "\u25810x4603": 7259,
    "\u25810x42cdf8": 7260,
    "\u25810x4bc328": 7261,
    "\u25810x4bc358": 7262,
    "\u25810x63626160": 7263,
    "\u25810x73727170": 7264,
    "di": 7265,
    "245": 7266,
    "618": 7267,
    "e31": 7268,
    "0066": 7269,
    "3da80": 7270,
    "\u25810x423dc8": 7271,
    "72c": 7272,
    "net": 7273,
    "0064": 7274,
    "\u25810x537": 7275,
    "\u25810x4014": 7276,
    "\u25810x28c39": 7277,
    "\u25810x1211e90": 7278,
    "\u2581fileexistsa": 7279,
    "138": 7280,
    "a14": 7281,
    "b71": 7282,
    "666564": 7283,
    "\u25810x584": 7284,
    "\u25810x1211e00": 7285,
    "\u25810x67666564": 7286,
    "232": 7287,
    "\u25810x1e0": 7288,
    "33e": 7289,
    "a6968": 7290,
    "774": 7291,
    "\u25810x53d": 7292,
    "addatom": 7293,
    "\u25810x4548": 7294,
    "\u25810x92e0": 7295,
    "\u2581olerun": 7296,
    "\u2581winmain": 7297,
    "vieworgex": 7298,
    "\u25810x1210bd7": 7299,
    "\u25810x1211684": 7300,
    "\u25810x12116c0": 7301,
    "\u25810x6b6a6968": 7302,
    "\u2581globaladdatom": 7303,
    "9b0": 7304,
    "f76": 7305,
    "\u2581afx": 7306,
    "ectex": 7307,
    "longw": 7308,
    "\u25810x677": 7309,
    "\u2581getwindowdc": 7310,
    "a37": 7311,
    "f47": 7312,
    "ache": 7313,
    "\u25810xfeee00a7": 7314,
    "a86": 7315,
    "\u258150": 7316,
    "b008": 7317,
    "\u25810xed": 7318,
    "\u25810x8a44": 7319,
    "\u25810x41681a": 7320,
    "\u25810xfeee00a8": 7321,
    "e6d6c": 7322,
    "\u25810x7f3": 7323,
    "\u25810x41681b": 7324,
    "\u25810x423baf": 7325,
    "\u25810x423bb0": 7326,
    "\u25810x429920": 7327,
    "\u25810x1211180": 7328,
    "\u25810x427": 7329,
    "\u25810x44ea": 7330,
    "\u25810x433630": 7331,
    "\u25810x6f6e6d6c": 7332,
    "\u2581ts": 7333,
    "7e7d7c": 7334,
    "\u25810x423a": 7335,
    "\u25810x422778": 7336,
    "\u2581charprevw": 7337,
    "\u25810x7f7e7d7c": 7338,
    "805": 7339,
    "ce5": 7340,
    "\u25810x44f850": 7341,
    "\u25810xfeee00a9": 7342,
    "\u2581formatmessagew": 7343,
    "\u25810xd5": 7344,
    "\u25810x6300": 7345,
    "\u25810xffeb": 7346,
    "\u25810x40a540": 7347,
    "\u25810xfeee00bc": 7348,
    "ups": 7349,
    "ares": 7350,
    "\u25810x1211e64": 7351,
    "ptr": 7352,
    "topwindow": 7353,
    "\u25810x42168c": 7354,
    "\u25810x44f868": 7355,
    "9a0": 7356,
    "\u25810x42168b": 7357,
    "\u25810x430fec": 7358,
    "\u25810x44f8c8": 7359,
    "\u25810xfeee00aa": 7360,
    "\u25810xfeee00ae": 7361,
    "f1c": 7362,
    "\u25810x44f880": 7363,
    "\u25810x44f898": 7364,
    "\u25810x44f8b0": 7365,
    "\u25810xfeee017": 7366,
    "\u25810xfeee00ac": 7367,
    "3f5": 7368,
    "3cf8": 7369,
    "been": 7370,
    "\u25810x2b2": 7371,
    "\u25810x40a544": 7372,
    "\u25810x430db0": 7373,
    "\u25810x44f8f8": 7374,
    "\u25810x44f940": 7375,
    "\u25810x44f958": 7376,
    "\u25810x44f970": 7377,
    "\u25810x44f988": 7378,
    "\u25810xfeee00ab": 7379,
    "7f7": 7380,
    "\u25810x4222": 7381,
    "\u25810x40a53a": 7382,
    "\u25810x40a53c": 7383,
    "\u25810x40a53e": 7384,
    "\u25810x40a542": 7385,
    "\u25810xfeee00ad": 7386,
    "a66": 7387,
    "d61": 7388,
    "\u2581om": 7389,
    "\u25810x40a546": 7390,
    "\u25810x41e93e": 7391,
    "\u25810x41ebfa": 7392,
    "\u25810x41ebfb": 7393,
    "\u25810x4034": 7394,
    "\u25810x9980": 7395,
    "bee": 7396,
    "bf3": 7397,
    "fa1": 7398,
    "\u25810x6a7": 7399,
    "\u2581winapp": 7400,
    "379": 7401,
    "945": 7402,
    "\u25810x238": 7403,
    "\u2581fastf": 7404,
    "\u25810x47b1": 7405,
    "\u25810x7e50": 7406,
    "25c": 7407,
    "\u25810x8ee0": 7408,
    "\u25810x630062": 7409,
    "\u25810x650064": 7410,
    "\u25810x670066": 7411,
    "ba7": 7412,
    "efc": 7413,
    "\u25810x5619": 7414,
    "\u25810x610060": 7415,
    "\u25810x7ee000": 7416,
    "7e9": 7417,
    "919": 7418,
    "\u25810x41ff": 7419,
    "\u25810x422964": 7420,
    "\u25810x7f8002": 7421,
    "\u25810x11dbed4": 7422,
    "\u25810x11dbef0": 7423,
    "\u25810x11dbf48": 7424,
    "da9": 7425,
    "e1c": 7426,
    "fee": 7427,
    "90000": 7428,
    "ystatus": 7429,
    "\u25810x4093e4": 7430,
    "\u25810x44e4b8": 7431,
    "\u2581loadbitmap": 7432,
    "memorystatus": 7433,
    "201": 7434,
    "e78": 7435,
    "\u25810x108": 7436,
    "\u25810x1010": 7437,
    "\u25810x4235": 7438,
    "\u25810x6781c0": 7439,
    "\u25810x6781f0": 7440,
    "\u2581fastfail": 7441,
    "\u25810x1211bf4": 7442,
    "\u2581globalmemorystatus": 7443,
    "bce": 7444,
    "c85": 7445,
    "d15": 7446,
    "0050": 7447,
    "\u25810x7f6": 7448,
    "\u25810x7f8010": 7449,
    "146": 7450,
    "3e2": 7451,
    "\u25810x7c000": 7452,
    "\u25810x422788": 7453,
    "any": 7454,
    "\u25810xc2": 7455,
    "\u25810x42db": 7456,
    "\u25810x40f660": 7457,
    "\u25810x4228e1": 7458,
    "\u25810x431068": 7459,
    "7d2": 7460,
    "eb0": 7461,
    "\u25810x40c7": 7462,
    "\u2581outputdebugstringw": 7463,
    "2b7": 7464,
    "371": 7465,
    "764": 7466,
    "\u25810x9640": 7467,
    "\u25810x422980": 7468,
    "\u25810xfeee00af": 7469,
    "bca": 7470,
    "\u25810x4a50": 7471,
    "\u25810xddf1": 7472,
    "\u25810x41300b": 7473,
    "69d": 7474,
    "edu": 7475,
    "secor": 7476,
    "\u25810x4033": 7477,
    "\u25810x4444": 7478,
    "\u2581omsecor": 7479,
    "\u25810x423cf0": 7480,
    "335": 7481,
    "635": 7482,
    "f32": 7483,
    "\u25810x42286e": 7484,
    "\u25810x42286f": 7485,
    "\u25810x4228e2": 7486,
    "\u25810x422963": 7487,
    "\u25810x42297f": 7488,
    "\u25810x4229c2": 7489,
    "\u25810x4229fa": 7490,
    "\u25810x4229fb": 7491,
    "\u25810x422a0d": 7492,
    "\u25810x422a0e": 7493,
    "\u25810x42329e": 7494,
    "\u25810x42329f": 7495,
    "\u25810x4233fc": 7496,
    "\u25810x423cef": 7497,
    "\u25810xfeee00b0": 7498,
    "\u25810xfeee00b1": 7499,
    "134": 7500,
    "ualfox": 7501,
    "\u25810x464": 7502,
    "\u25810x40df": 7503,
    "controlset": 7504,
    "\u2581currentcontrolset": 7505,
    "7b7": 7506,
    "e98": 7507,
    "marta": 7508,
    "\u2581ntmarta": 7509,
    "\u2581movefilew": 7510,
    "\u2581localfilet": 7511,
    "\u2581getsystemdefault": 7512,
    "\u2581localfiletimetofiletime": 7513,
    "d54": 7514,
    "e4f": 7515,
    "\u2581437": 7516,
    "\u25810x434388": 7517,
    "5b2": 7518,
    "\u25810x4210": 7519,
    "\u25810x426d": 7520,
    "systemtime": 7521,
    "219": 7522,
    "2f6": 7523,
    "980": 7524,
    "d19": 7525,
    "\u2581ie": 7526,
    "ee98": 7527,
    "egis": 7528,
    "apture": 7529,
    "\u25810x1810": 7530,
    "\u25810x7e51": 7531,
    "\u2581calloc": 7532,
    "\u25810x429903": 7533,
    "\u25810x435228": 7534,
    "\u25810x435240": 7535,
    "\u25810x4378b0": 7536,
    "\u2581setcurrentdirectoryw": 7537,
    "2c1": 7538,
    "e34": 7539,
    "\u25810x2d4dd": 7540,
    "\u25810x429902": 7541,
    "\u25810x42990c": 7542,
    "\u25810x42990d": 7543,
    "\u25810x429921": 7544,
    "d01": 7545,
    "e09": 7546,
    "\u2581oem": 7547,
    "tinue": 7548,
    "already": 7549,
    "\u25810x8e70": 7550,
    "\u25810x42992a": 7551,
    "\u25810x42992b": 7552,
    "a25": 7553,
    "really": 7554,
    "\u25810x9c80": 7555,
    "\u2581pleasec": 7556,
    "\u25810x431e28": 7557,
    "\u25810x1211d3c": 7558,
    "\u25810x1211d50": 7559,
    "\u2581getsystemwindows": 7560,
    "15f": 7561,
    "3c5": 7562,
    "ee9": 7563,
    "fb5": 7564,
    "\u25810x44e9": 7565,
    "\u2581stem32": 7566,
    "\u25810xfeee00b3": 7567,
    "fig": 7568,
    "eatom": 7569,
    "\u25810xa7c": 7570,
    "deleteatom": 7571,
    "\u25810xfeee00b2": 7572,
    "\u25810xfeee00b4": 7573,
    "\u2581globaldeleteatom": 7574,
    "\u2581getsystemwindowsdirectoryw": 7575,
    "7c6": 7576,
    "\u25810x8a45": 7577,
    "\u2581unlock": 7578,
    "ce9": 7579,
    "cod": 7580,
    "f94": 7581,
    "\u25810x4060": 7582,
    "\u25810x4770": 7583,
    "our": 7584,
    "network": 7585,
    "\u25810x411c": 7586,
    "\u25810xfeee00b5": 7587,
    "cc5": 7588,
    "3e3d": 7589,
    "\u2581vie": 7590,
    "trace": 7591,
    "\u25810x40b1": 7592,
    "\u25810x4364": 7593,
    "\u25810x8028": 7594,
    "\u2581dispatchmessagew": 7595,
    "addresses": 7596,
    "\u25810x431a50": 7597,
    "\u2581registerclipboardformatw": 7598,
    "3d2": 7599,
    "b1c": 7600,
    "bb7": 7601,
    "e5c": 7602,
    "f99": 7603,
    "\u25810x41c6": 7604,
    "\u2581getadaptersaddresses": 7605,
    "\u2581exp": 7606,
    "\u2581evie": 7607,
    "\u25810x572": 7608,
    "\u25810xa3a6": 7609,
    "\u25810x1210e6f": 7610,
    "\u25810x1210e73": 7611,
    "\u25810x1210e74": 7612,
    "\u25810x1210e77": 7613,
    "\u25810x1210e7b": 7614,
    "185": 7615,
    "725": 7616,
    "\u2581psc": 7617,
    "\u25810x7dfc": 7618,
    "\u25810x99c0": 7619,
    "\u2581youmust": 7620,
    "\u25810xa3a798": 7621,
    "\u25810x1210f66": 7622,
    "\u25810x1210f6a": 7623,
    "\u2581isbadwrite": 7624,
    "3130": 7625,
    "\u25817z6": 7626,
    "\u25810xe1": 7627,
    "\u25810xfeee00b7": 7628,
    "pop": 7629,
    "\u2581mail": 7630,
    "\u25810x6ba3c8": 7631,
    "\u25810xfeee00b8": 7632,
    "\u2581findwindoww": 7633,
    "eb5": 7634,
    "tore": 7635,
    "\u25810x515": 7636,
    "\u25810x7dfd": 7637,
    "\u258120220304": 7638,
    "\u2581isbadwriteptr": 7639,
    "2ad": 7640,
    "516": 7641,
    "aramet": 7642,
    "\u25810x8ec0": 7643,
    "\u25810x169bc9c": 7644,
    "630": 7645,
    "af1": 7646,
    "\u25810xffd5": 7647,
    "\u25810x1211fe4": 7648,
    "\u25810xfeee00b6": 7649,
    "\u25810xfeee00b9": 7650,
    "510": 7651,
    "\u25810xffc0": 7652,
    "c2f": 7653,
    "ookup": 7654,
    "\u25810x4180": 7655,
    "\u25810x418c": 7656,
    "\u2581msvcr71": 7657,
    "\u25810x42c5a0": 7658,
    "\u25810x42c5b8": 7659,
    "\u25810x439440": 7660,
    "2a6": 7661,
    "a09": 7662,
    "\u25810x5b2": 7663,
    "\u25810x824": 7664,
    "\u25810x413972": 7665,
    "\u25810xfeee00bb": 7666,
    "756": 7667,
    "d70": 7668,
    "viewextex": 7669,
    "\u25810x42abc0": 7670,
    "\u25810x1211e98": 7671,
    "\u2581getprivateprofilestringa": 7672,
    "712": 7673,
    "\u2581lookup": 7674,
    "a31": 7675,
    "\u25810x698": 7676,
    "\u25810xfeee00ba": 7677,
    "\u2581myarg1myarg2": 7678,
    "7a5": 7679,
    "\u2581884": 7680,
    "\u25810x232": 7681,
    "\u25810x4780": 7682,
    "212": 7683,
    "355": 7684,
    "70f": 7685,
    "ron": 7686,
    "\u25810x42c570": 7687,
    "21c": 7688,
    "\u2581tsl": 7689,
    "\u25810x40935c": 7690,
    "\u25810x4093ec": 7691,
    "\u25810x411218": 7692,
    "7d4": 7693,
    "88c": 7694,
    "e89": 7695,
    "\u25810x7e01": 7696,
    "kg": 7697,
    "2b5": 7698,
    "3b7": 7699,
    "743": 7700,
    "906": 7701,
    "c49": 7702,
    "fore": 7703,
    "\u25810x3b7fb": 7704,
    "\u25810xfeee00bd": 7705,
    "\u2581createsemaphorea": 7706,
    "b15": 7707,
    "b29": 7708,
    "da4": 7709,
    "\u25810xfeee00be": 7710,
    "6c4": 7711,
    "7978": 7712,
    "\u25810x41cbd0": 7713,
    "\u2581arg": 7714,
    "\u2581session": 7715,
    "\u25810xfeee00bf": 7716,
    "\u25810x5040": 7717,
    "\u25810x7e04": 7718,
    "fd9": 7719,
    "lete": 7720,
    "\u25810x4966": 7721,
    "\u25810x9870": 7722,
    "\u25810xff87": 7723,
    "\u25810x4208a8": 7724,
    "\u25810x4208d8": 7725,
    "\u25810x131aac0": 7726,
    "\u25810xfeee00c0": 7727,
    "806": 7728,
    "db6": 7729,
    "\u25810x40c4": 7730,
    "\u25810x9b50": 7731,
    "\u25810x3f22a0": 7732,
    "2f2": 7733,
    "79c": 7734,
    "3004": 7735,
    "\u25810x532": 7736,
    "\u25810x4066": 7737,
    "\u25810x427520": 7738,
    "\u25810x1210f64": 7739,
    "\u25810xfeee00c1": 7740,
    "\u2581globalrealloc": 7741,
    "bde": 7742,
    "db7": 7743,
    "drl66": 7744,
    "\u25810x42751f": 7745,
    "\u2581tsldrl66": 7746,
    "\u25810xfeee00c2": 7747,
    "f9c": 7748,
    "\u25810x444": 7749,
    "795": 7750,
    "b42": 7751,
    "\u25810x604": 7752,
    "\u25810x1814": 7753,
    "\u25810x40b6": 7754,
    "\u25810x8e60": 7755,
    "\u25810x1010101": 7756,
    "\u25810xfeee00d7": 7757,
    "\u2581filetimetosystemtime": 7758,
    "43": 7759,
    "\u25810x7e05": 7760,
    "\u25810x42e658": 7761,
    "\u25810xfeee00c3": 7762,
    "now": 7763,
    "ethe": 7764,
    "indatom": 7765,
    "\u25810x4aac": 7766,
    "\u2581globalfindatom": 7767,
    "df6": 7768,
    "e54": 7769,
    "e75": 7770,
    "ebc": 7771,
    "36d8": 7772,
    "\u25810x4640": 7773,
    "\u25810x42e520": 7774,
    "\u25810xfeee00c4": 7775,
    "7b5": 7776,
    "a71": 7777,
    "bb5": 7778,
    "\u25810xc6": 7779,
    "\u25810x42e0a8": 7780,
    "ea4": 7781,
    "\u2581date": 7782,
    "\u25810x571": 7783,
    "\u25810x45d1": 7784,
    "\u25810x4e39": 7785,
    "\u25810x7a40": 7786,
    "\u25810xa040": 7787,
    "\u25810x412e39": 7788,
    "\u25810x413f64": 7789,
    "\u25810x413f65": 7790,
    "\u25810x42c990": 7791,
    "\u25810x42ca48": 7792,
    "\u25810x42e538": 7793,
    "\u25810x42e550": 7794,
    "\u25810x42e568": 7795,
    "\u25810x42e580": 7796,
    "\u25810x42e610": 7797,
    "\u25810x42e628": 7798,
    "\u25810x42e640": 7799,
    "1f0": 7800,
    "\u25810x8f30": 7801,
    "7fc": 7802,
    "paramw": 7803,
    "\u25810xffee": 7804,
    "\u25810x120ce": 7805,
    "\u25810x80c440": 7806,
    "\u25810xd27d571f": 7807,
    "3f9": 7808,
    "af6": 7809,
    "\u25810xd6": 7810,
    "\u25810x4151": 7811,
    "\u25810x4df00": 7812,
    "\u25810x4012db": 7813,
    "\u25810x42cd78": 7814,
    "\u25810x42ce38": 7815,
    "2be": 7816,
    "598": 7817,
    "ee6": 7818,
    "ef9": 7819,
    "tochar": 7820,
    "\u25810x1b1": 7821,
    "\u25810x1824": 7822,
    "\u25810x7e10": 7823,
    "\u2581oemtochar": 7824,
    "\u25810xfeee00c6": 7825,
    "ceb": 7826,
    "formatw": 7827,
    "\u25810x482854": 7828,
    "\u25810x482870": 7829,
    "\u25810xfeee00c7": 7830,
    "\u25810xfeee00c5": 7831,
    "\u25810x41f6": 7832,
    "\u25810x42e090": 7833,
    "\u2581202203032": 7834,
    "325": 7835,
    "3b1": 7836,
    "\u25810x41be": 7837,
    "\u25810x42e0d8": 7838,
    "\u25810xfeee00ca": 7839,
    "7b4": 7840,
    "9dc": 7841,
    "f29": 7842,
    "fdb": 7843,
    "lang": 7844,
    "\u25810xfeee00c8": 7845,
    "aa1": 7846,
    "bf5": 7847,
    "a4c4": 7848,
    "\u25810x8640": 7849,
    "\u2581module": 7850,
    "\u25810x420c30": 7851,
    "\u25810x1211e8c": 7852,
    "2d5": 7853,
    "ae6": 7854,
    "remo": 7855,
    "\u2581nar": 7856,
    "\u25810xdf": 7857,
    "\u25810x73a0": 7858,
    "\u25810x9070": 7859,
    "\u25810xffda": 7860,
    "\u25810x420c00": 7861,
    "\u25810x42e0c0": 7862,
    "7f9": 7863,
    "d12": 7864,
    "button": 7865,
    "\u25810x40e4": 7866,
    "\u2581narrow": 7867,
    "\u25810x10005c": 7868,
    "\u25810x413dd6": 7869,
    "\u25810x413dd7": 7870,
    "\u25810x4170f5": 7871,
    "\u25810x4170f6": 7872,
    "\u25810x4179b4": 7873,
    "\u25810x4179b5": 7874,
    "\u25810x4179c5": 7875,
    "\u25810x4179c6": 7876,
    "\u25810x417a43": 7877,
    "\u25810x417a44": 7878,
    "\u25810x417a5b": 7879,
    "\u25810x417a5c": 7880,
    "\u25810x417a9b": 7881,
    "\u25810x417a9c": 7882,
    "\u25810x417aac": 7883,
    "\u25810x417aad": 7884,
    "\u25810x417b1e": 7885,
    "\u25810x417b1f": 7886,
    "\u25810x420c2f": 7887,
    "\u25810x2825ef8": 7888,
    "bab": 7889,
    "\u2581lm": 7890,
    "hell": 7891,
    "\u2581scal": 7892,
    "\u25810x80b": 7893,
    "\u25810x420bf0": 7894,
    "\u25810x420bf1": 7895,
    "\u25810x420c01": 7896,
    "\u25810x420c10": 7897,
    "\u25810x420c11": 7898,
    "\u25810x420c1b": 7899,
    "\u25810x420c1c": 7900,
    "\u25810x420c25": 7901,
    "\u25810x420c26": 7902,
    "\u25810x420c39": 7903,
    "\u25810x420c3a": 7904,
    "\u25810x420c43": 7905,
    "\u25810x420c44": 7906,
    "\u25810x420c50": 7907,
    "\u25810x420c51": 7908,
    "\u25810x42f194": 7909,
    "\u25810xfeee00c9": 7910,
    "\u25810xfeee00cb": 7911,
    "\u2581regqueryvalueexa": 7912,
    "3dd": 7913,
    "0036": 7914,
    "\u2581virtu": 7915,
    "\u25810x90c0": 7916,
    "\u2581virtuallock": 7917,
    "154": 7918,
    "326": 7919,
    "aler": 7920,
    "\u2581scale": 7921,
    "\u25810x4137": 7922,
    "\u25810x4522": 7923,
    "\u25810xb4eb": 7924,
    "\u2581msvcr100": 7925,
    "90e": 7926,
    "fic": 7927,
    "\u2581cqa": 7928,
    "\u2581scqa": 7929,
    "langid": 7930,
    "\u25810x10b": 7931,
    "\u2581pscqa": 7932,
    "\u25810x7e08": 7933,
    "\u25810x12119a0": 7934,
    "e18": 7935,
    "\u2581class": 7936,
    "2ed": 7937,
    "389": 7938,
    "ec5": 7939,
    "\u25810x510": 7940,
    "\u25810x684": 7941,
    "\u25810x4720": 7942,
    "\u25810x100fdd": 7943,
    "\u25810x1211fb0": 7944,
    "\u25810x1818": 7945,
    "\u2581comparestringa": 7946,
    "126": 7947,
    "f11": 7948,
    "3a08": 7949,
    "69c0": 7950,
    "\u2581add": 7951,
    "\u25810x1828": 7952,
    "\u25810x40c8": 7953,
    "\u25810x7e8c": 7954,
    "\u25810x80b9": 7955,
    "\u2581writeprocessmemory": 7956,
    "258": 7957,
    "3b2": 7958,
    "3f6": 7959,
    "\u25810x459": 7960,
    "\u2581files": 7961,
    "\u25810x88c0": 7962,
    "\u25810x42e388": 7963,
    "\u25810x431810": 7964,
    "\u25810x4f53c8": 7965,
    "rap": 7966,
    "99b9": 7967,
    "ange": 7968,
    "\u258104t": 7969,
    "\u25810x573c": 7970,
    "\u2581oemtochara": 7971,
    "su": 7972,
    "a11": 7973,
    "e49": 7974,
    "\u2581ff": 7975,
    "vert": 7976,
    "order": 7977,
    "a00000": 7978,
    "\u25810x46b5fc": 7979,
    "\u2581man": 7980,
    "\u2581lmir": 7981,
    "\u25810x4a5": 7982,
    "\u25810x442806": 7983,
    "\u2581enddialog": 7984,
    "\u25810xfeee00cc": 7985,
    "bb2": 7986,
    "\u2581dl": 7987,
    "\u25810x6e6": 7988,
    "\u25810x2d4d": 7989,
    "\u25810x4156": 7990,
    "\u25810x7e09": 7991,
    "\u25810x409364": 7992,
    "ba5": 7993,
    "\u2581dllo": 7994,
    "\u25810x442808": 7995,
    "\u25810x1211cf4": 7996,
    "2a4": 7997,
    "2e9": 7998,
    "d37": 7999,
    "fb9": 8000,
    "\u2581ur": 8001,
    "\u2581stor": 8002,
    "\u25810x4820": 8003,
    "\u25810x5258": 8004,
    "\u25810x44280a": 8005,
    "\u25810x44280c": 8006,
    "\u25810x44280e": 8007,
    "\u25810x442810": 8008,
    "\u25810x442812": 8009,
    "\u25810x442814": 8010,
    "\u25810x442816": 8011,
    "\u25810x442818": 8012,
    "\u25810x44281a": 8013,
    "\u25810x44281c": 8014,
    "\u25810x44281e": 8015,
    "\u25810x12113cc": 8016,
    "\u25810x1211f08": 8017,
    "\u2581dllonexit": 8018,
    "\u25810xfeee00cd": 8019,
    "2f1": 8020,
    "3ed": 8021,
    "5a2": 8022,
    "\u25810x4b0": 8023,
    "\u2581storage": 8024,
    "\u2581module32": 8025,
    "nd": 8026,
    "196": 8027,
    "7ab": 8028,
    "e35": 8029,
    "\u2581tol": 8030,
    "\u25810x40f4": 8031,
    "\u25810x454bb8": 8032,
    "\u2581wtsapi32": 8033,
    "\u2581connector": 8034,
    "\u25810xfeee00ce": 8035,
    "1e1": 8036,
    "3a6": 8037,
    "f55": 8038,
    "f91": 8039,
    "3534": 8040,
    "5410": 8041,
    "popup": 8042,
    "scroll": 8043,
    "\u25810x8e40": 8044,
    "\u2581tolower": 8045,
    "\u25810x1211c4c": 8046,
    "\u25810xfeee00cf": 8047,
    "b7e": 8048,
    "fd5": 8049,
    "\u2581meta": 8050,
    "\u25810x1820": 8051,
    "fd6": 8052,
    "34b8": 8053,
    "\u25810xffdb": 8054,
    "\u25810x412565": 8055,
    "\u25810x1211f58": 8056,
    "c89": 8057,
    "f05": 8058,
    "fc6": 8059,
    "l6660d": 8060,
    "\u25810x44e": 8061,
    "\u25810x1848": 8062,
    "\u25810x184c": 8063,
    "\u25810x422a": 8064,
    "\u25810x412566": 8065,
    "\u2581riched20": 8066,
    "\u2581userprofil": 8067,
    "e79": 8068,
    "\u25810x4108": 8069,
    "\u25810x28fd0": 8070,
    "986": 8071,
    "ec6": 8072,
    "3718": 8073,
    "\u25810x240": 8074,
    "\u25810x6e7": 8075,
    "\u25810x1830": 8076,
    "\u25810x185c": 8077,
    "\u25810x42dfe8": 8078,
    "3b3": 8079,
    "7a4": 8080,
    "7ea": 8081,
    "b86": 8082,
    "fc1": 8083,
    "brows": 8084,
    "\u25810xee": 8085,
    "\u25810x1834": 8086,
    "\u25810x1858": 8087,
    "textoutw": 8088,
    "\u25810x4528b0": 8089,
    "\u25810x483cf8": 8090,
    "119": 8091,
    "b75": 8092,
    "dlg": 8093,
    "e32": 8094,
    "\u2581xh": 8095,
    "004c": 8096,
    "\u25810x1840": 8097,
    "\u25810x4178": 8098,
    "\u25810x4740": 8099,
    "\u25810x4a5c": 8100,
    "\u25810xfeee00d5": 8101,
    "\u25810xfeee00d6": 8102,
    "drl6660drl6660drl6660drl6660drl6660": 8103,
    "701": 8104,
    "9c6": 8105,
    "fb6": 8106,
    "\u25810x437b7": 8107,
    "\u25810x437116": 8108,
    "\u25810x437117": 8109,
    "\u25810x120fd64": 8110,
    "f86": 8111,
    "softw": 8112,
    "\u25810x4c40": 8113,
    "\u25810x9350": 8114,
    "\u25810x4feaac": 8115,
    "246": 8116,
    "3ef0": 8117,
    "block": 8118,
    "\u25810x2f2": 8119,
    "mensions": 8120,
    "\u25810x40000": 8121,
    "\u25810x7a4": 8122,
    "\u25810x182c": 8123,
    "\u25810x183c": 8124,
    "\u25810x1844": 8125,
    "\u25810x7e0c": 8126,
    "\u25810x43b6e9": 8127,
    "27c": 8128,
    "c06": 8129,
    "dca": 8130,
    "b445": 8131,
    "e7ec": 8132,
    "\u25810x1838": 8133,
    "\u25810x1878": 8134,
    "\u25810x3001": 8135,
    "\u25810x43b6f3": 8136,
    "\u25810x10000000": 8137,
    "gro": 8138,
    "xfr": 8139,
    "\u25810x4908": 8140,
    "\u25810x567a": 8141,
    "\u25810x4d7978": 8142,
    "\u25810x714d68": 8143,
    "\u25810x1211e58": 8144,
    "isa": 8145,
    "llow": 8146,
    "\u25810x28c3f": 8147,
    "lot": 8148,
    "\u258100": 8149,
    "5655": 8150,
    "copy": 8151,
    "\u25810x1854": 8152,
    "\u25810x1864": 8153,
    "\u25810x4289": 8154,
    "\u25810x9170": 8155,
    "\u25810x567a88": 8156,
    "\u25810x1211878": 8157,
    "2a9": 8158,
    "d64": 8159,
    "e30": 8160,
    "f36": 8161,
    "2838": 8162,
    "\u25810x186c": 8163,
    "\u2581myarg1": 8164,
    "\u25810x2000000": 8165,
    "\u25810x54500000": 8166,
    "\u25810x187c": 8167,
    "\u25810x7ce1": 8168,
    "346": 8169,
    "a05": 8170,
    "\u25810x1874": 8171,
    "\u25810x4070": 8172,
    "\u25810x46ad": 8173,
    "\u25810x4ddb24": 8174,
    "589": 8175,
    "776": 8176,
    "796": 8177,
    "fce": 8178,
    "\u25810x47a": 8179,
    "\u25810x1850": 8180,
    "\u25810x1870": 8181,
    "\u25810x7e0d": 8182,
    "\u25810x12117c8": 8183,
    "\u25810x1211d60": 8184,
    "\u25810x6ce0000": 8185,
    "\u25810xfeee010b": 8186,
    "199": 8187,
    "3fe": 8188,
    "b79": 8189,
    "quo": 8190,
    "\u25810x1868": 8191,
    "\u25810x500410": 8192,
    "\u25810x1211a4c": 8193,
    "aaaaaaaaaaaaaaaa": 8194,
    "7f6": 8195,
    "b45": 8196,
    "bda": 8197,
    "\u2581cd": 8198,
    "\u2581cf": 8199,
    "e054": 8200,
    "\u25810xc9": 8201,
    "emaphore": 8202,
    "3aa": 8203,
    "546": 8204,
    "\u25810x4ef": 8205,
    "\u25810x416264": 8206,
    "\u25810x1211b38": 8207,
    "9fc": 8208,
    "ataddress": 8209,
    "d91": 8210,
    "22f8": 8211,
    "4444": 8212,
    "\u25810x3b3": 8213,
    "\u25810x1104": 8214,
    "\u25810x489d": 8215,
    "\u25810xfeee00da": 8216,
    "\u2581accessviolationataddress": 8217,
    "2fe": 8218,
    "905": 8219,
    "d3d": 8220,
    "dd3": 8221,
    "gitem": 8222,
    "\u25810x4a84": 8223,
    "\u25810x4300a8": 8224,
    "75c": 8225,
    "844": 8226,
    "ec3": 8227,
    "f06": 8228,
    "\u25810x40b0": 8229,
    "\u25810x4de9": 8230,
    "\u25810x41e1c0": 8231,
    "\u25810x41f310": 8232,
    "\u2581globalhandle": 8233,
    "fs": 8234,
    "67f": 8235,
    "9a6": 8236,
    "db1": 8237,
    "e11": 8238,
    "lity": 8239,
    "\u25810x1f1": 8240,
    "\u25810x4b2": 8241,
    "\u25810x41d0": 8242,
    "\u25810xd3da80": 8243,
    "\u2581taskbarcreated": 8244,
    "1a7": 8245,
    "b37": 8246,
    "andar": 8247,
    "\u25810x43c": 8248,
    "\u25810x46a": 8249,
    "\u25810x4048": 8250,
    "\u25810x40015f": 8251,
    "\u25810x491994": 8252,
    "\u25810x7e11": 8253,
    "\u2581lcidto": 8254,
    "\u2581metaquo": 8255,
    "\u2581lcidtolocalename": 8256,
    "ea2": 8257,
    "f26": 8258,
    "ress": 8259,
    "\u25810x42c580": 8260,
    "\u25810x4fc2c8": 8261,
    "\u25810x120faac": 8262,
    "fae": 8263,
    "tsb": 8264,
    "\u2581io": 8265,
    "latsb": 8266,
    "\u25810x412541": 8267,
    "\u25810x4130d4": 8268,
    "\u25810x4130d5": 8269,
    "\u25810x42c448": 8270,
[...]
