{
    "<pad>": 0,
    "<unk>": 1,
    "<mask>": 2,
    "\u25810": 3,
    "\u25810x": 4,
    "00": 5,
    "er": 6,
    "ne": 7,
    "32": 8,
    "\u25810x0": 9,
    "\u2581k": 10,
    "l32": 11,
    "erne": 12,
    "ernel32": 13,
    "\u2581kernel32": 14,
    "\u25810x1": 15,
    "et": 16,
    "get": 17,
    "al": 18,
    "ee": 19,
    "\u25810x4": 20,
    "ti": 21,
    "in": 22,
    "000": 23,
    "\u2581get": 24,
    "ad": 25,
    "ec": 26,
    "\u25810xf": 27,
    "\u25810x7": 28,
    "re": 29,
    "oc": 30,
    "0000": 31,
    "st": 32,
    "eee": 33,
    "\u25810xfeee": 34,
    "iti": 35,
    "on": 36,
    "ue": 37,
    "\u25810x77": 38,
    "le": 39,
    "\u25810x2": 40,
    "ss": 41,
    "one": 42,
    "us": 43,
    "pr": 44,
    "\u25810x12": 45,
    "proc": 46,
    "en": 47,
    "val": 48,
    "tion": 49,
    "cal": 50,
    "sec": 51,
    "riti": 52,
    "calsec": 53,
    "riticalsec": 54,
    "ls": 55,
    "48": 56,
    "\u2581getproc": 57,
    "add": 58,
    "value": 59,
    "ress": 60,
    "address": 61,
    "user": 62,
    "\u25810x121": 63,
    "\u2581getprocaddress": 64,
    "43": 65,
    "\u2581user": 66,
    "\u2581n": 67,
    "getvalue": 68,
    "lsgetvalue": 69,
    "\u2581user32": 70,
    "loc": 71,
    "\u2581none": 72,
    "\u2581in": 73,
    "948": 74,
    "\u25810x243": 75,
    "\u25810x243948": 76,
    "\u25810xfeee000": 77,
    "co": 78,
    "ter": 79,
    "or": 80,
    "000000": 81,
    "ar": 82,
    "\u25810x1211": 83,
    "an": 84,
    "de": 85,
    "\u2581s": 86,
    "ecriticalsec": 87,
    "\u25810x77000000": 88,
    "ff": 89,
    "ap": 90,
    "tr": 91,
    "at": 92,
    "\u25810x46": 93,
    "\u25810x1000": 94,
    "is": 95,
    "\u2581c": 96,
    "f0": 97,
    "read": 98,
    "\u2581f": 99,
    "\u2581t": 100,
    "\u25810xfeee00": 101,
    "la": 102,
    "\u2581d": 103,
    "\u2581is": 104,
    "inf": 105,
    "a0": 106,
    "\u2581l": 107,
    "err": 108,
    "error": 109,
    "info": 110,
    "\u2581m": 111,
    "str": 112,
    "last": 113,
    "lasterror": 114,
    "\u25810xfeee0001": 115,
    "iz": 116,
    "aliz": 117,
    "itializ": 118,
    "\u2581en": 119,
    "\u2581initializ": 120,
    "\u2581tlsgetvalue": 121,
    "po": 122,
    "\u2581initializecriticalsec": 123,
    "\u2581h": 124,
    "\u25810x40": 125,
    "\u25810x5": 126,
    "poin": 127,
    "\u25810x8": 128,
    "eap": 129,
    "and": 130,
    "pointer": 131,
    "\u2581heap": 132,
    "alloc": 133,
    "00000": 134,
    "90": 135,
    "har": 136,
    "depointer": 137,
    "ing": 138,
    "ex": 139,
    "mp": 140,
    "readp": 141,
    "bad": 142,
    "\u2581isbad": 143,
    "readptr": 144,
    "\u2581isbadreadptr": 145,
    "string": 146,
    "\u25810xfa0": 147,
    "ac": 148,
    "\u25810x100": 149,
    "\u2581set": 150,
    "li": 151,
    "dec": 152,
    "oad": 153,
    "\u2581flsgetvalue": 154,
    "\u2581load": 155,
    "it": 156,
    "ab": 157,
    "ent": 158,
    "\u2581getc": 159,
    "nt": 160,
    "d0": 161,
    "local": 162,
    "em": 163,
    "\u25810xc": 164,
    "lea": 165,
    "om": 166,
    "onex": 167,
    "\u2581w": 168,
    "rt": 169,
    "let": 170,
    "\u25810x10": 171,
    "ow": 172,
    "\u25810x400000": 173,
    "xt": 174,
    "tionex": 175,
    "\u2581initializecriticalsectionex": 176,
    "next": 177,
    "fi": 178,
    "40": 179,
    "\u2581heapalloc": 180,
    "pinfo": 181,
    "\u25810x3": 182,
    "10": 183,
    "\u2581char": 184,
    "\u2581charnext": 185,
    "\u2581enco": 186,
    "\u2581encodepointer": 187,
    "locale": 188,
    "\u2581getlasterror": 189,
    "\u25810x41": 190,
    "exw": 191,
    "\u25810x45": 192,
    "\u2581loadstring": 193,
    "by": 194,
    "ion": 195,
    "\u2581setlasterror": 196,
    "f8": 197,
    "\u2581getcpinfo": 198,
    "byt": 199,
    "e4": 200,
    "hand": 201,
    "ecriticalsection": 202,
    "leav": 203,
    "\u2581leav": 204,
    "\u2581leavecriticalsection": 205,
    "dco": 206,
    "\u2581enter": 207,
    "\u25810xc000": 208,
    "able": 209,
    "criticalsec": 210,
    "criticalsection": 211,
    "\u2581entercriticalsection": 212,
    "unt": 213,
    "\u25810x42": 214,
    "\u2581init": 215,
    "stat": 216,
    "a5": 217,
    "\u2581ms": 218,
    "\u25810x770": 219,
    "ans": 220,
    "\u25810xff": 221,
    "trans": 222,
    "status": 223,
    "que": 224,
    "\u2581getcpinfoexw": 225,
    "atom": 226,
    "\u25810x243948c": 227,
    "\u25810x43": 228,
    "localeinfo": 229,
    "\u2581getlocaleinfo": 230,
    "dcomp": 231,
    "lient": 232,
    "ffff": 233,
    "table": 234,
    "queue": 235,
    "count": 236,
    "letion": 237,
    "action": 238,
    "queuedcomp": 239,
    "letionstatus": 240,
    "queuedcompletionstatus": 241,
    "\u2581ddec": 242,
    "\u2581getqueuedcompletionstatus": 243,
    "transaction": 244,
    "\u2581ddeclient": 245,
    "\u2581ddeclienttransaction": 246,
    "atomtable": 247,
    "\u25810x2439480": 248,
    "\u25810x2439484": 249,
    "\u25810x2439488": 250,
    "\u2581initatomtable": 251,
    "ind": 252,
    "\u2581initializecriticalsection": 253,
    "ess": 254,
    "\u25810x46d0": 255,
    "vi": 256,
    "mo": 257,
    "\u25810x45f0": 258,
    "ed": 259,
    "18": 260,
    "eco": 261,
    "vc": 262,
    "\u2581msvc": 263,
    "ul": 264,
    "\u2581msvcrt": 265,
    "ur": 266,
    "du": 267,
    "\u25810x6": 268,
    "\u25810x1211c": 269,
    "\u25810x4e4": 270,
    "bc": 271,
    "ll": 272,
    "70": 273,
    "93": 274,
    "yst": 275,
    "dule": 276,
    "module": 277,
    "indow": 278,
    "\u2581getmodule": 279,
    "78": 280,
    "\u25810x7d": 281,
    "\u25810x40a5": 282,
    "handle": 283,
    "ystem": 284,
    "c0": 285,
    "50": 286,
    "\u25810x4690": 287,
    "op": 288,
    "\u2581deco": 289,
    "\u2581decodepointer": 290,
    "20": 291,
    "byte": 292,
    "file": 293,
    "ulti": 294,
    "\u25810x46f0": 295,
    "\u25810x771": 296,
    "idec": 297,
    "idechar": 298,
    "\u2581charnextw": 299,
    "\u2581dll": 300,
    "\u25810x1210": 301,
    "sp": 302,
    "\u2581loadstringw": 303,
    "98": 304,
    "66": 305,
    "cmp": 306,
    "\u25810x78": 307,
    "30": 308,
    "10000": 309,
    "\u25810x7e": 310,
    "indows": 311,
    "\u25810x1211f": 312,
    "spin": 313,
    "spincount": 314,
    "andspincount": 315,
    "\u2581initializecriticalsectionandspincount": 316,
    "me": 317,
    "e0": 318,
    "\u25810xfeee001": 319,
    "\u2581windows": 320,
    "fr": 321,
    "ey": 322,
    "process": 323,
    "28": 324,
    "reat": 325,
    "60": 326,
    "\u2581charnexta": 327,
    "b0": 328,
    "\u2581mem": 329,
    "ce": 330,
    "yp": 331,
    "\u2581memcmp": 332,
    "rent": 333,
    "urrent": 334,
    "ge": 335,
    "\u25810x41f0": 336,
    "\u25810x41f040": 337,
    "id": 338,
    "ment": 339,
    "\u2581loadstringa": 340,
    "hread": 341,
    "\u2581getlocaleinfow": 342,
    "var": 343,
    "\u2581creat": 344,
    "d8": 345,
    "\u25810xf00": 346,
    "\u25810x10c": 347,
    "ual": 348,
    "virt": 349,
    "virtual": 350,
    "\u25810x4093": 351,
    "\u2581system": 352,
    "key": 353,
    "\u25810xfffff": 354,
    "\u2581system32": 355,
    "a8": 356,
    "\u25810xfffffff": 357,
    "br": 358,
    "ary": 359,
    "58": 360,
    "age": 361,
    "b8": 362,
    "cc": 363,
    "38": 364,
    "\u2581getst": 365,
    "sle": 366,
    "ect": 367,
    "dbc": 368,
    "\u2581virtual": 369,
    "brary": 370,
    "un": 371,
    "lo": 372,
    "7c": 373,
    "free": 374,
    "di": 375,
    "\u2581getlocaleinfoa": 376,
    "slead": 377,
    "\u2581isdbc": 378,
    "\u2581isdbcslead": 379,
    "68": 380,
    "\u2581isdbcsleadbyte": 381,
    "hi": 382,
    "\u2581multi": 383,
    "etow": 384,
    "bytetow": 385,
    "\u2581multibytetow": 386,
    "\u2581multibytetowidechar": 387,
    "d10000": 388,
    "\u25810x77d10000": 389,
    "lock": 390,
    "\u25810x44": 391,
    "64": 392,
    "thread": 393,
    "94": 394,
    "14": 395,
    "\u25810x4c": 396,
    "of": 397,
    "\u2581re": 398,
    "map": 399,
    "open": 400,
    "ut": 401,
    "\u25810x5f8": 402,
    "\u2581var": 403,
    "\u25810x5f800000": 404,
    "d4": 405,
    "34": 406,
    "\u2581g": 407,
    "ype": 408,
    "qu": 409,
    "\u2581p": 410,
    "\u25810x52": 411,
    "dc": 412,
    "\u2581getti": 413,
    "handlew": 414,
    "\u2581getcurrent": 415,
    "library": 416,
    "\u2581inter": 417,
    "na": 418,
    "12": 419,
    "es": 420,
    "def": 421,
    "\u2581getmodulehandlew": 422,
    "e8": 423,
    "ck": 424,
    "69": 425,
    "ckcount": 426,
    "\u2581gettickcount": 427,
    "filet": 428,
    "quer": 429,
    "ers": 430,
    "\u25810x47": 431,
    "\u2581interlock": 432,
    "\u25810x90": 433,
    "\u25810x9": 434,
    "\u2581lc": 435,
    "rst": 436,
    "\u2581lcmap": 437,
    "\u2581lcmapstring": 438,
    "ol": 439,
    "5c": 440,
    "42": 441,
    "\u2581interlocked": 442,
    "rement": 443,
    "\u2581gets": 444,
    "f4": 445,
    "wa": 446,
    "a4": 447,
    "2c": 448,
    "api": 449,
    "\u25810x7de": 450,
    "\u25810x18": 451,
    "56": 452,
    "\u2581loadlibrary": 453,
    "\u25810x20": 454,
    "\u2581local": 455,
    "\u25810x400": 456,
    "oft": 457,
    "\u25810x1211e": 458,
    "\u2581reg": 459,
    "da": 460,
    "75": 461,
    "74": 462,
    "1c": 463,
    "\u2581heapfree": 464,
    "fc": 465,
    "tom": 466,
    "tomulti": 467,
    "\u2581widechar": 468,
    "tomultibyte": 469,
    "\u2581widechartomultibyte": 470,
    "ch": 471,
    "\u2581create": 472,
    "name": 473,
    "\u25810x70": 474,
    "\u25810x1c": 475,
    "\u25810x1211d": 476,
    "9c": 477,
    "orm": 478,
    "abc": 479,
    "\u2581co": 480,
    "\u2581ex": 481,
    "vw": 482,
    "91": 483,
    "3c": 484,
    "vers": 485,
    "mm": 486,
    "lm": 487,
    "rit": 488,
    "ic": 489,
    "xy": 490,
    "xyz": 491,
    "klm": 492,
    "\u25810xffffffff": 493,
    "nop": 494,
    "ghi": 495,
    "uvw": 496,
    "qrst": 497,
    "\u2581abc": 498,
    "uvwxyz": 499,
    "nopqrst": 500,
    "defghi": 501,
    "klmnopqrst": 502,
    "\u2581abcdefghi": 503,
    "klmnopqrstuvwxyz": 504,
    "\u25810x12117": 505,
    "rite": 506,
    "71": 507,
    "\u2581read": 508,
    "b4": 509,
    "rect": 510,
    "\u25810xfeee0004": 511,
    "6c": 512,
    "\u2581getsystem": 513,
    "54": 514,
    "emp": 515,
    "\u25810x78000000": 516,
    "\u2581getmodulehand": 517,
    "\u25810xfeee002": 518,
    "19": 519,
    "fe": 520,
    "\u2581getmodulehandlea": 521,
    "\u2581getfilet": 522,
    "art": 523,
    "ware": 524,
    "\u2581getfiletype": 525,
    "oftware": 526,
    "\u2581hkey": 527,
    "aa": 528,
    "so": 529,
    "\u2581software": 530,
    "dhandle": 531,
    "query": 532,
    "\u25811": 533,
    "inc": 534,
    "rector": 535,
    "\u2581getstdhandle": 536,
    "\u25810x7d90": 537,
    "\u25810xfeee008": 538,
    "\u2581b": 539,
    "\u25810x1210e": 540,
    "\u25810x1211c98": 541,
    "\u25810x12119": 542,
    "1000": 543,
    "increment": 544,
    "\u2581interlockedincrement": 545,
    "\u25810x54": 546,
    "\u25810x4378": 547,
    "filename": 548,
    "\u25810xfff": 549,
    "\u25810x3f": 550,
    "\u25810xcd": 551,
    "7b": 552,
    "24": 553,
    "ron": 554,
    "\u25810x4610": 555,
    "\u25810x200": 556,
    "\u2581open": 557,
    "\u2581ap": 558,
    "sset": 559,
    "viron": 560,
    "\u25810x1210f": 561,
    "\u2581a": 562,
    "lsset": 563,
    "lssetvalue": 564,
    "\u25810x88": 565,
    "\u2581virtualquery": 566,
    "vironment": 567,
    "\u25810xfeee0002": 568,
    "lsalloc": 569,
    "\u25810xffb": 570,
    "db": 571,
    "los": 572,
    "\u2581ad": 573,
    "\u25810x48": 574,
    "\u2581getmodulefilename": 575,
    "65": 576,
    "15": 577,
    "\u25810xa": 578,
    "\u25810xfeee0000": 579,
    "api32": 580,
    "\u2581lcmapstringw": 581,
    "e5": 582,
    "artu": 583,
    "\u2581se": 584,
    "67": 585,
    "\u2581adv": 586,
    "\u2581advapi32": 587,
    "\u25810x1211c18": 588,
    "\u2581fr": 589,
    "80": 590,
    "\u25810x104": 591,
    "erf": 592,
    "\u2581current": 593,
    "f5": 594,
    "\u2581getcurrentthread": 595,
    "\u25810x5266": 596,
    "ation": 597,
    "\u25810x79": 598,
    "rectory": 599,
    "artupinfo": 600,
    "\u2581getstartupinfo": 601,
    "\u25810xfeee004": 602,
    "comm": 603,
    "locales": 604,
    "3d": 605,
    "\u25810xfeee0003": 606,
    "valid": 607,
    "\u2581lstr": 608,
    "line": 609,
    "\u2581localalloc": 610,
    "\u25810x77e": 611,
    "strings": 612,
    "\u25810x77e10000": 613,
    "\u2581getcurrentthreadid": 614,
    "\u2581gdi": 615,
    "\u25810xfeee005": 616,
    "eex": 617,
    "andline": 618,
    "a2": 619,
    "from": 620,
    "\u2581apis": 621,
    "d2": 622,
    "f9": 623,
    "\u2581getcomm": 624,
    "version": 625,
    "\u2581getcommandline": 626,
    "dr": 627,
    "3e": 628,
    "a9": 629,
    "\u2581virtualalloc": 630,
    "write": 631,
    "tin": 632,
    "list": 633,
    "35": 634,
    "\u2581gdi32": 635,
    "\u2581locales": 636,
    "\u2581sh": 637,
    "\u2581de": 638,
    "onso": 639,
    "\u25810x7ec": 640,
    "\u25810x8c": 641,
    "1a": 642,
    "ot": 643,
    "88": 644,
    "arch": 645,
    "onsole": 646,
    "6b": 647,
    "\u25810x14": 648,
    "vironmentstrings": 649,
    "iv": 650,
    "3f": 651,
    "\u25810x800": 652,
    "\u25810x80": 653,
    "\u25810x7e70": 654,
    "\u2581temp": 655,
    "eb": 656,
    "\u2581flssetvalue": 657,
    "72": 658,
    "ob": 659,
    "fa": 660,
    "\u25812": 661,
    "08": 662,
    "\u2581page": 663,
    "\u25810xfeee0005": 664,
    "pool": 665,
    "\u25810x4670": 666,
    "44": 667,
    "window": 668,
    "vironmentstringsw": 669,
    "time": 670,
    "\u25810x7c": 671,
    "\u2581flsalloc": 672,
    "79": 673,
    "as": 674,
    "up": 675,
    "\u25810x4c42": 676,
    "62": 677,
    "df": 678,
    "\u2581find": 679,
    "\u25810x78c": 680,
    "\u25810x78c00000": 681,
    "\u25810xf002": 682,
    "\u25810xf001": 683,
    "\u25810xf003": 684,
    "11": 685,
    "c8": 686,
    "d6": 687,
    "bo": 688,
    "\u2581readwrite": 689,
    "res": 690,
    "e6": 691,
    "\u2581regopen": 692,
    "\u2581regopenkey": 693,
    "ate": 694,
    "cep": 695,
    "vari": 696,
    "\u25810x7f": 697,
    "789": 698,
    "\u2581getcurrentprocess": 699,
    "3000": 700,
    "\u2581lcmapstringex": 701,
    "69b": 702,
    "9a": 703,
    "\u2581loadlibrarya": 704,
    "\u2581invalid": 705,
    "lose": 706,
    "7e": 707,
    "\u2581x": 708,
    "92": 709,
    "\u25810x7de0": 710,
    "ting": 711,
    "1b": 712,
    "\u25810x7b": 713,
    "um": 714,
    "3b": 715,
    "76": 716,
    "directory": 717,
    "essage": 718,
    "\u25810xb": 719,
    "\u25810xffc": 720,
    "ception": 721,
    "\u2581search": 722,
    "16": 723,
    "1234": 724,
    "56789": 725,
    "\u258101234": 726,
    "\u25810123456789": 727,
    "ant": 728,
    "\u25810xfeee0": 729,
    "95": 730,
    "a6": 731,
    "\u2581loadlibraryexw": 732,
    "\u25810xe": 733,
    "\u25810x49": 734,
    "\u25810x8000": 735,
    "ile": 736,
    "d000": 737,
    "type": 738,
    "\u2581getconsole": 739,
    "int": 740,
    "\u2581o": 741,
    "ethread": 742,
    "d5": 743,
    "exa": 744,
    "filew": 745,
    "4c": 746,
    "\u25810x120": 747,
    "a40": 748,
    "erform": 749,
    "erforman": 750,
    "\u2581quer": 751,
    "\u2581queryp": 752,
    "\u2581queryperforman": 753,
    "1e": 754,
    "7000": 755,
    "f6": 756,
    "7a": 757,
    "\u25810x42c": 758,
    "dex": 759,
    "processlist": 760,
    "\u2581getconsoleprocesslist": 761,
    "9b": 762,
    "pres": 763,
    "present": 764,
    "unter": 765,
    "ime": 766,
    "gu": 767,
    "ceco": 768,
    "cecounter": 769,
    "\u2581queryperformancecounter": 770,
    "acc": 771,
    "ad0": 772,
    "\u2581win": 773,
    "\u25810x7000": 774,
    "py": 775,
    "\u2581getthread": 776,
    "processor": 777,
    "ction": 778,
    "7f": 779,
    "\u2581geten": 780,
    "\u25810xfeee0006": 781,
    "lob": 782,
    "\u2581glob": 783,
    "\u2581sl": 784,
    "message": 785,
    "dd": 786,
    "el": 787,
    "eep": 788,
    "filetime": 789,
    "ure": 790,
    "ab0": 791,
    "\u25810x7d91": 792,
    "9000": 793,
    "73": 794,
    "\u2581sleep": 795,
    "\u2581getsystemtime": 796,
    "d1": 797,
    "b2": 798,
    "af": 799,
    "\u25810x33": 800,
    "\u2581getstring": 801,
    "e2": 802,
    "\u2581getmodulefilenamew": 803,
    "\u25810x73": 804,
    "\u2581l1": 805,
    "\u2581getstringtype": 806,
    "ber": 807,
    "dll": 808,
    "l66": 809,
    "decrement": 810,
    "\u2581interlockeddecrement": 811,
    "day": 812,
    "55": 813,
    "\u2581lstrle": 814,
    "\u2581key": 815,
    "hine": 816,
    "\u2581mac": 817,
    "\u2581machine": 818,
    "\u2581bor": 819,
    "\u2581getstringtypew": 820,
    "8c": 821,
    "\u2581getac": 822,
    "\u25810x7ee": 823,
    "96": 824,
    "a1": 825,
    "l6660": 826,
    "fil": 827,
    "ack": 828,
    "f1": 829,
    "ature": 830,
    "ra": 831,
    "\u25810x7f8": 832,
    "feature": 833,
    "\u2581isprocessor": 834,
    "featurepresent": 835,
    "\u2581isprocessorfeaturepresent": 836,
    "\u2581getacp": 837,
    "ble": 838,
    "\u2581borl": 839,
    "asfiletime": 840,
    "access": 841,
    "il": 842,
    "to": 843,
    "b5": 844,
    "\u25810x1211c7c": 845,
    "\u2581borland": 846,
    "\u2581api": 847,
    "7d": 848,
    "ive": 849,
    "\u2581regopenkeyexw": 850,
    "ating": 851,
    "\u25810xfeee0007": 852,
    "utes": 853,
    "f000": 854,
    "\u2581li": 855,
    "fromstr": 856,
    "a3": 857,
    "\u25810x13": 858,
    "\u25810x50": 859,
    "f2": 860,
    "inform": 861,
    "drl6660": 862,
    "\u2581getprocess": 863,
    "\u2581getstartupinfoa": 864,
    "urce": 865,
    "\u25810x70cc": 866,
    "\u2581getsystemtimeasfiletime": 867,
    "2e": 868,
    "\u25810xd": 869,
    "ae": 870,
    "icon": 871,
    "information": 872,
    "\u2581getmodulefilenamea": 873,
    "\u2581regi": 874,
    "\u2581getcommandlinea": 875,
    "\u25810x2a": 876,
    "fb": 877,
    "\u2581delet": 878,
    "63": 879,
    "\u2581write": 880,
    "tri": 881,
    "\u2581core": 882,
    "\u25810xfeee003": 883,
    "tim": 884,
    "\u25810x12116": 885,
    "\u25810x102": 886,
    "men": 887,
    "\u2581getthreadlocale": 888,
    "\u25810x12115": 889,
    "dexception": 890,
    "\u25810x7a": 891,
    "\u25810x30": 892,
    "9e": 893,
    "ionex": 894,
    "\u2581getvers": 895,
    "\u2581getversionex": 896,
    "\u2581getstartupinfow": 897,
    "filter": 898,
    "drl6660drl6660": 899,
    "unhandle": 900,
    "dexceptionfilter": 901,
    "unhandledexceptionfilter": 902,
    "print": 903,
    "\u25810x4b": 904,
    "\u25810x4350": 905,
    "\u2581str": 906,
    "\u25810x43b": 907,
    "\u25810x32": 908,
    "a000": 909,
    "menu": 910,
    "\u2581ws": 911,
    "ro": 912,
    "\u25810x435": 913,
    "stru": 914,
    "\u25810x7f800": 915,
    "84": 916,
    "22": 917,
    "106": 918,
    "f3": 919,
    "struction": 920,
    "\u2581getcurrentprocessid": 921,
    "61": 922,
    "timer": 923,
    "6e": 924,
    "ethreadpool": 925,
    "con": 926,
    "\u25810x4750": 927,
    "directoryw": 928,
    "ock": 929,
    "\u2581pf": 930,
    "\u2581global": 931,
    "\u25810x72": 932,
    "\u25810x4d": 933,
    "\u25810x7e71": 934,
    "\u25817": 935,
    "\u2581setfile": 936,
    "cpy": 937,
    "filea": 938,
    "65c": 939,
    "heap": 940,
    "41": 941,
    "\u25810x8810": 942,
    "\u25810x75": 943,
    "eexw": 944,
    "\u2581library": 945,
    "ecut": 946,
    "\u25810xf0019": 947,
    "97": 948,
    "messagea": 949,
    "\u2581getcommandlinew": 950,
    "04": 951,
    "\u25810x7700": 952,
    "\u2581getprocessheap": 953,
    "\u2581r": 954,
    "loating": 955,
    "c4": 956,
    "\u25810x1211dc0": 957,
    "\u25810x69": 958,
    "\u25810x422": 959,
    "\u25810x3394": 960,
    "\u2581getversion": 961,
    "\u25810x71": 962,
    "\u2581setunhandledexceptionfilter": 963,
    "date": 964,
    "a7": 965,
    "eeen": 966,
    "\u2581freeen": 967,
    "all": 968,
    "losehandle": 969,
    "\u25810x74": 970,
    "17": 971,
    "db10": 972,
    "ai": 973,
    "\u2581closehandle": 974,
    "th": 975,
    "\u25810x220": 976,
    "\u25810x5265c": 977,
    "e7": 978,
    "\u25810x4c42c0": 979,
    "num": 980,
    "ult": 981,
    "\u25810x7ec0": 982,
    "ov": 983,
    "\u2581nt": 984,
    "first": 985,
    "\u2581process": 986,
    "9d": 987,
    "\u25810x105": 988,
    "handl": 989,
    "\u25810x44f8": 990,
    "defa": 991,
    "default": 992,
    "\u2581free": 993,
    "db10106": 994,
    "\u25810x1db10106": 995,
    "urs": 996,
    "\u25810x7de1": 997,
    "\u2581getenvironmentstringsw": 998,
    "\u2581freeenvironmentstringsw": 999,
    "\u25810x9000": 1000,
    "00c": 1001,
    "menuinfo": 1002,
    "\u2581process32": 1003,
    "\u25810x4e": 1004,
    "ith": 1005,
    "\u25810xfffffff6": 1006,
    "\u2581th": 1007,
    "6d": 1008,
    "ecute": 1009,
    "\u25810xfffffff5": 1010,
    "ork": 1011,
    "\u25810xfffffff4": 1012,
    "be": 1013,
    "\u2581setmenuinfo": 1014,
    "vai": 1015,
    "vaila": 1016,
    "vailable": 1017,
    "ervi": 1018,
    "low": 1019,
    "9f": 1020,
    "bu": 1021,
    "2000": 1022,
    "\u25810x1211e0": 1023,
    "\u25810x1211c90": 1024,
    "dep": 1025,
    "aps": 1026,
    "\u2581access": 1027,
    "ys": 1028,
    "leas": 1029,
    "\u2581al": 1030,
    "\u25810x12116d8": 1031,
    "\u25810x40a": 1032,
    "mode": 1033,
    "printf": 1034,
    "b1": 1035,
    "\u25810x4000": 1036,
    "ity": 1037,
    "e1": 1038,
    "not": 1039,
    "point": 1040,
    "0c": 1041,
    "\u25810x569b": 1042,
    "\u2581map": 1043,
    "77": 1044,
    "\u2581available": 1045,
    "yo": 1046,
    "99": 1047,
    "\u2581getfile": 1048,
    "\u2581vari": 1049,
    "\u25810x1211918": 1050,
    "b000": 1051,
    "\u25817z": 1052,
    "edc": 1053,
    "908": 1054,
    "\u25810x7718": 1055,
    "\u25810x8ad0": 1056,
    "ub": 1057,
    "lic": 1058,
    "\u25810x76": 1059,
    "d3": 1060,
    "ors": 1061,
    "25": 1062,
    "work": 1063,
    "\u25810x2c": 1064,
    "6000": 1065,
    "\u2581instruction": 1066,
    "i64": 1067,
    "\u2581xmm": 1068,
    "\u2581xmmi64": 1069,
    "\u2581instructions": 1070,
    "\u25810x40a5ce": 1071,
    "\u25810x40a5d0": 1072,
    "\u25810x40a5d2": 1073,
    "\u25810x40a5d4": 1074,
    "\u25810x40a5d6": 1075,
    "\u25810x40a5d8": 1076,
    "\u25810x40a5da": 1077,
    "\u2581regist": 1078,
    "angu": 1079,
    "\u25810x1211cf8": 1080,
    "anguage": 1081,
    "a80": 1082,
    "\u25810x1f4": 1083,
    "erflow": 1084,
    "f7": 1085,
    "creat": 1086,
    "33": 1087,
    "eric": 1088,
    "nw": 1089,
    "\u2581wa": 1090,
    "\u2581lread": 1091,
    "ilanguage": 1092,
    "put": 1093,
    "cec": 1094,
    "\u25810x21000": 1095,
    "reso": 1096,
    "\u25810x169b": 1097,
    "\u25810x50000": 1098,
    "\u2581floating": 1099,
    "soft": 1100,
    "\u25810x1f400": 1101,
    "\u2581setthread": 1102,
    "\u2581creates": 1103,
    "\u2581strn": 1104,
    "icro": 1105,
    "und": 1106,
    "icrosoft": 1107,
    "met": 1108,
    "lor": 1109,
    "\u25810x5265": 1110,
    "ef": 1111,
    "\u2581strncmp": 1112,
    "45": 1113,
    "lass": 1114,
    "keyw": 1115,
    "end": 1116,
    "\u2581microsoft": 1117,
    "e9": 1118,
    "wait": 1119,
    "\u25810x7710": 1120,
    "sub": 1121,
    "boar": 1122,
    "\u25810x429": 1123,
    "variable": 1124,
    "create": 1125,
    "13": 1126,
    "vali": 1127,
    "bd": 1128,
    "\u25810x56": 1129,
    "resource": 1130,
    "\u25810x4a": 1131,
    "\u25810x4c43": 1132,
    "edi": 1133,
    "\u2581clos": 1134,
    "validco": 1135,
    "\u25810x4ab0": 1136,
    "\u25810x3f75": 1137,
    "\u25810x1211b": 1138,
    "close": 1139,
    "depage": 1140,
    "508": 1141,
    "\u25810x1075": 1142,
    "\u2581i": 1143,
    "\u2581lstrlena": 1144,
    "\u2581isvalidco": 1145,
    "\u2581isvalidcodepage": 1146,
    "\u25810xfeee0008": 1147,
    "\u2581shel": 1148,
    "\u25810x1e": 1149,
    "\u25810x8b": 1150,
    "\u2581getsystemdirectoryw": 1151,
    "\u2581mapvirtual": 1152,
    "\u25810x19": 1153,
    "\u25810xfeee0009": 1154,
    "\u2581mapvirtualkeyw": 1155,
    "\u25810x8d": 1156,
    "\u25810xfeee000a": 1157,
    "\u25810xfeee000b": 1158,
    "b3": 1159,
    "\u2581releas": 1160,
    "fd": 1161,
    "\u25810xfeee000c": 1162,
    "\u2581execute": 1163,
    "\u25810x12114": 1164,
    "\u2581currentversion": 1165,
    "\u25810x2e": 1166,
    "ursor": 1167,
    "ition": 1168,
    "mpa": 1169,
    "dition": 1170,
    "\u25810x69000000": 1171,
    "\u25810xfeee000d": 1172,
    "\u25810xfeee000e": 1173,
    "52": 1174,
    "\u25810xfeee000f": 1175,
    "\u25810x44f9": 1176,
    "\u2581register": 1177,
    "\u25810x7708": 1178,
    "\u25810xfeee0010": 1179,
    "\u2581exit": 1180,
    "\u25810xfeee0014": 1181,
    "\u25810xfeee0015": 1182,
    "\u25810xfeee0013": 1183,
    "\u25810xfeee0012": 1184,
    "\u25810xfeee0016": 1185,
    "\u2581getuser": 1186,
    "gi": 1187,
    "\u25810xfeee0011": 1188,
    "lsfree": 1189,
    "lus": 1190,
    "ockob": 1191,
    "\u2581getstockob": 1192,
    "\u2581code": 1193,
    "\u25810x569b00": 1194,
    "\u25810x1211dcc": 1195,
    "color": 1196,
    "een": 1197,
    "\u25810x7830": 1198,
    "1d": 1199,
    "6a": 1200,
    "ip": 1201,
    "attri": 1202,
    "\u2581file": 1203,
    "attrib": 1204,
    "gear": 1205,
    "\u2581codegear": 1206,
    "term": 1207,
    "\u2581freelibrary": 1208,
    "ervice": 1209,
    "\u25810x7e8": 1210,
    "sc": 1211,
    "\u25810x8a": 1212,
    "realloc": 1213,
    "\u2581heapcreate": 1214,
    "b9": 1215,
    "\u2581with": 1216,
    "ay": 1217,
    "\u25810x38": 1218,
    "ett": 1219,
    "ag": 1220,
    "alett": 1221,
    "attributes": 1222,
    "div": 1223,
    "\u25810x4967": 1224,
    "5e": 1225,
    "\u2581writefile": 1226,
    "\u2581crt": 1227,
    "\u2581ole": 1228,
    "tered": 1229,
    "\u2581altered": 1230,
    "cursor": 1231,
    "\u2581variant": 1232,
    "\u25810x5265c14": 1233,
    "\u2581st": 1234,
    "oper": 1235,
    "set": 1236,
    "\u25810x82": 1237,
    "\u2581tlssetvalue": 1238,
    "ont": 1239,
    "\u25810x770c": 1240,
    "\u25810x28": 1241,
    "ember": 1242,
    "urity": 1243,
    "31": 1244,
    "ormat": 1245,
    "\u2581dr": 1246,
    "\u2581tlsalloc": 1247,
    "\u25810x1211758": 1248,
    "number": 1249,
    "\u25810x420": 1250,
    "variant": 1251,
    "\u2581fi": 1252,
    "\u25810x46b0": 1253,
    "security": 1254,
    "\u2581gen": 1255,
    "ecount": 1256,
    "\u2581flsfree": 1257,
    "operation": 1258,
    "\u2581drive": 1259,
    "bb": 1260,
    "\u25810x7f00": 1261,
    "printfw": 1262,
    "\u2581wsprintfw": 1263,
    "\u25810xfeee0017": 1264,
    "\u2581wc": 1265,
    "\u2581loadcursor": 1266,
    "c2": 1267,
    "handlecount": 1268,
    "bstr": 1269,
    "bstrfrom": 1270,
    "\u2581varbstrfrom": 1271,
    "002": 1272,
    "\u2581sethandlecount": 1273,
    "\u25810xfeee0018": 1274,
    "\u25810xfeee01": 1275,
    "\u25810x1211e04": 1276,
    "ies": 1277,
    "\u2581generic": 1278,
    "d9": 1279,
    "\u25810x5f5": 1280,
    "930": 1281,
    "ision": 1282,
    "\u25810xfeee0019": 1283,
    "ero": 1284,
    "dc8": 1285,
    "net": 1286,
    "ord": 1287,
    "\u25810x1211908": 1288,
    "\u25810x7890": 1289,
    "5000": 1290,
    "\u25813": 1291,
    "\u2581delete": 1292,
    "\u2581loadicon": 1293,
    "\u25810x12114b8": 1294,
    "\u25810x11": 1295,
    "\u2581getversionexw": 1296,
    "\u2581lstrcpy": 1297,
    "\u25810x7810": 1298,
    "board": 1299,
    "\u2581heaprealloc": 1300,
    "308": 1301,
    "\u25810x2000": 1302,
    "\u2581process32next": 1303,
    "\u2581getdc": 1304,
    "\u2581gett": 1305,
    "sti": 1306,
    "\u2581createfilew": 1307,
    "ea": 1308,
    "\u25810x1211718": 1309,
    "bc0": 1310,
    "\u2581pr": 1311,
    "off": 1312,
    "\u25810x44f8e0": 1313,
    "588": 1314,
    "\u2581findfirst": 1315,
    "\u2581lstrlenw": 1316,
    "eg": 1317,
    "\u25810x43780": 1318,
    "\u25810x3000": 1319,
    "\u2581virtualfree": 1320,
    "\u25810x12117f8": 1321,
    "\u25810x22": 1322,
    "\u2581con": 1323,
    "edirectory": 1324,
    "e3": 1325,
    "\u2581setfilepointer": 1326,
    "\u25810x460": 1327,
    "directorya": 1328,
    "51": 1329,
    "\u2581ch": 1330,
    "lp": 1331,
    "\u2581font": 1332,
    "stit": 1333,
    "substit": 1334,
    "substitutes": 1335,
    "\u2581fontsubstitutes": 1336,
    "5f": 1337,
    "class": 1338,
    "vie": 1339,
    "\u25810x1f": 1340,
    "devi": 1341,
    "eek": 1342,
    "\u25810x4c32": 1343,
    "ame": 1344,
    "\u25810x42a40": 1345,
    "39": 1346,
    "\u2581mon": 1347,
    "\u2581gettemp": 1348,
    "\u2581regopenkeyexa": 1349,
    "adwork": 1350,
    "6f": 1351,
    "offile": 1352,
    "\u25810x1211dd4": 1353,
    "\u2581findclose": 1354,
    "erw": 1355,
    "call": 1356,
    "\u25810x409": 1357,
    "\u2581readfile": 1358,
    "\u25810x53": 1359,
    "input": 1360,
    "\u25810x7702": 1361,
    "\u25810x7704": 1362,
    "\u25810x7714": 1363,
    "\u25810x7705": 1364,
    "\u25810x770b": 1365,
    "\u25810x7712": 1366,
    "\u25810x7715": 1367,
    "\u25810x17": 1368,
    "\u25810x771b": 1369,
    "\u25810x1211e2c": 1370,
    "\u2581closethreadpool": 1371,
    "\u2581createthreadpool": 1372,
    "\u25810x1a": 1373,
    "\u25810x7ed": 1374,
    "\u2581dra": 1375,
    "\u2581getdevi": 1376,
    "cecaps": 1377,
    "\u2581getdevicecaps": 1378,
    "lphi": 1379,
    "\u2581delphi": 1380,
    "bug": 1381,
    "\u25810x437": 1382,
    "\u25810x4c4308": 1383,
    "\u25810x3e": 1384,
    "5b": 1385,
    "\u25810x7c000000": 1386,
    "ee0": 1387,
    "\u25810x7910": 1388,
    "rectories": 1389,
    "\u25810x12118": 1390,
    "oct": 1391,
    "\u25810x700c": 1392,
    "\u25810x408": 1393,
    "\u2581exitprocess": 1394,
    "\u2581wait": 1395,
    "\u25810x410": 1396,
    "\u25810x101": 1397,
    "directories": 1398,
    "debug": 1399,
    "ref": 1400,
    "\u2581shell32": 1401,
    "lip": 1402,
    "\u2581peek": 1403,
    "900": 1404,
    "condition": 1405,
    "\u25810x40933d": 1406,
    "\u25810x40933e": 1407,
    "\u25810x40933f": 1408,
    "\u25810x409340": 1409,
    "\u25810x409341": 1410,
    "\u25810x409342": 1411,
    "\u25810x409343": 1412,
    "\u25810x7aa0": 1413,
    "\u25810x7ec1": 1414,
    "\u2581waitf": 1415,
    "\u2581setdefault": 1416,
    "\u25810x704c": 1417,
    "37": 1418,
    "\u2581getm": 1419,
    "\u25810xfeee001a": 1420,
    "back": 1421,
    "180": 1422,
    "\u25810x708c": 1423,
    "refer": 1424,
    "dlldirectories": 1425,
    "\u2581setdefaultdlldirectories": 1426,
    "b6": 1427,
    "\u25810x437b": 1428,
    "\u25810x188": 1429,
    "\u25810x51a": 1430,
    "mem": 1431,
    "\u25810x68": 1432,
    "\u25810x15": 1433,
    "\u25810x79d0": 1434,
    "ata": 1435,
    "b7": 1436,
    "004": 1437,
    "yn": 1438,
    "\u2581peekmessagea": 1439,
    "\u25810x5f500000": 1440,
    "\u25810x430": 1441,
    "\u25810x42e5": 1442,
    "drl6660drl6660drl6660drl6660": 1443,
    "ename": 1444,
    "008": 1445,
    "1f": 1446,
    "format": 1447,
    "\u2581releasedc": 1448,
    "cy": 1449,
    "\u2581compa": 1450,
    "\u2581compare": 1451,
    "tries": 1452,
    "elp": 1453,
    "ext": 1454,
    "780": 1455,
    "fo": 1456,
    "old": 1457,
    "eto": 1458,
    "callback": 1459,
    "\u25810xfeee001b": 1460,
    "bit": 1461,
    "\u2581globalalloc": 1462,
    "\u25810x40a58": 1463,
    "help": 1464,
    "pooltimer": 1465,
    "\u25810x1211f8": 1466,
    "53": 1467,
    "f10000": 1468,
    "isk": 1469,
    "ilanguages": 1470,
    "chan": 1471,
    "redu": 1472,
    "threadp": 1473,
    "referredu": 1474,
    "threadpreferredu": 1475,
    "threadpreferreduilanguages": 1476,
    "\u2581comparestring": 1477,
    "\u25810x3c": 1478,
    "\u25810xfeee001c": 1479,
    "\u25810x77f10000": 1480,
    "23": 1481,
    "ory": 1482,
    "ynch": 1483,
    "\u25810x1211dc8": 1484,
    "\u2581out": 1485,
    "\u25810x169bf": 1486,
    "\u2581app": 1487,
    "\u25810xa0": 1488,
    "view": 1489,
    "26": 1490,
    "afe": 1491,
    "\u2581synch": 1492,
    "load": 1493,
    "bers": 1494,
    "ray": 1495,
    "\u25810x16": 1496,
    "\u25810x7850": 1497,
    "ource": 1498,
    "\u2581findfirstfilew": 1499,
    "\u25810x79f0": 1500,
    "ba": 1501,
    "\u25810x42c5": 1502,
    "scr": 1503,
    "\u2581windowsnt": 1504,
    "array": 1505,
    "ho": 1506,
    "\u25810x4371": 1507,
    "eck": 1508,
    "\u2581sat": 1509,
    "og": 1510,
    "\u2581createfilea": 1511,
    "\u25810x1211528": 1512,
    "gical": 1513,
    "sup": 1514,
    "logical": 1515,
    "\u2581getlogical": 1516,
    "27": 1517,
    "ystemp": 1518,
    "\u25810x1211cdc": 1519,
    "\u2581malloc": 1520,
    "\u25810x58": 1521,
    "2a": 1522,
    "\u25810x1b": 1523,
    "480": 1524,
    "\u2581getversionexa": 1525,
    "rw": 1526,
    "\u2581nov": 1527,
    "3a": 1528,
    "\u2581sep": 1529,
    "36": 1530,
    "2b": 1531,
    "\u25810xfeee005f": 1532,
    "esource": 1533,
    "\u25810x1211f38": 1534,
    "\u2581au": 1535,
    "localename": 1536,
    "\u2581up": 1537,
    "econ": 1538,
    "280": 1539,
    "d7": 1540,
    "\u2581apr": 1541,
    "\u2581oct": 1542,
    "scrip": 1543,
    "\u2581dec": 1544,
    "aletteen": 1545,
    "aletteentries": 1546,
    "\u2581sun": 1547,
    "he": 1548,
    "script": 1549,
    "\u25810x8f": 1550,
    "isting": 1551,
    "uary": 1552,
    "\u2581may": 1553,
    "sday": 1554,
    "\u2581tue": 1555,
    "\u2581wed": 1556,
    "b80": 1557,
    "b04": 1558,
    "\u25810x21": 1559,
    "yscolor": 1560,
    "\u2581getsyscolor": 1561,
    "e44": 1562,
    "\u2581rt": 1563,
    "\u25810x418": 1564,
    "\u2581getsysteminfo": 1565,
    "\u25810x3f75f": 1566,
    "\u25810x40a5dc": 1567,
    "\u25810x7930": 1568,
    "\u25810x40a5cc": 1569,
    "\u25810xfeee001d": 1570,
    "your": 1571,
    "\u25810x1211fd8": 1572,
    "\u25810x47b0": 1573,
    "suped": 1574,
    "\u2581rtl": 1575,
    "descript": 1576,
    "\u25810x1211cc0": 1577,
    "securitydescript": 1578,
    "\u25810x1211f7c": 1579,
    "\u2581initterm": 1580,
    "\u25810x67": 1581,
    "ct": 1582,
    "\u2581getsystemp": 1583,
    "\u2581getsystempaletteentries": 1584,
    "\u2581deletecriticalsection": 1585,
    "\u2581createdirectory": 1586,
    "\u25810x42e": 1587,
    "\u25810x29": 1588,
    "\u2581registerclass": 1589,
    "ics": 1590,
    "\u2581wnet": 1591,
    "dater": 1592,
    "zero": 1593,
    "\u25810x1211948": 1594,
    "attributesw": 1595,
    "\u2581floatingpoint": 1596,
    "overflow": 1597,
    "\u2581invalidvariant": 1598,
    "byzero": 1599,
    "isionbyzero": 1600,
    "section": 1601,
    "\u25810x198": 1602,
    "afearray": 1603,
    "\u25810x4015": 1604,
    "metr": 1605,
    "\u25810x8a40": 1606,
    "\u2581exe": 1607,
    "metrics": 1608,
    "bool": 1609,
    "\u25810x4600": 1610,
    "\u2581createw": 1611,
    "\u25810x42c588": 1612,
    "\u2581varr": 1613,
    "4fromstr": 1614,
    "\u25810x1211fd0": 1615,
    "mage": 1616,
    "\u2581loadcursora": 1617,
    "\u25810x25": 1618,
    "own": 1619,
    "\u2581getenvironment": 1620,
    "21": 1621,
    "prot": 1622,
    "trol": 1623,
    "stry": 1624,
    "59": 1625,
    "\u25810x4f": 1626,
    "\u25810x5a": 1627,
    "formatex": 1628,
    "e000": 1629,
    "\u2581createa": 1630,
    "\u25810xcc": 1631,
    "variab": 1632,
    "\u25810x8cc0": 1633,
    "\u25810x60": 1634,
    "\u25810xfeee008b": 1635,
    "\u2581existing": 1636,
    "\u25810x64": 1637,
    "\u2581getsystemmetrics": 1638,
    "\u25810x1211728": 1639,
    "\u25810x19a": 1640,
    "\u25810x1211ef0": 1641,
    "orsafearray": 1642,
    "300": 1643,
    "informationby": 1644,
    "\u25810x34": 1645,
    "\u2581loadlibraryw": 1646,
    "allock": 1647,
    "\u2581com": 1648,
    "files": 1649,
    "hot": 1650,
    "29": 1651,
    "938": 1652,
    "\u25810xffff": 1653,
    "400": 1654,
    "protect": 1655,
    "service": 1656,
    "\u25810x4710": 1657,
    "\u2581ntdll": 1658,
    "\u25810xfeee001e": 1659,
    "640": 1660,
    "\u2581process32nextw": 1661,
    "dateresource": 1662,
    "\u25810x423": 1663,
    "fold": 1664,
    "pa": 1665,
    "2d": 1666,
    "\u25810x24": 1667,
    "\u2581getkey": 1668,
    "\u25810x4e5": 1669,
    "\u25810x1211f30": 1670,
    "\u25810xfeee001f": 1671,
    "5d": 1672,
    "ace": 1673,
    "sn": 1674,
    "\u25810x1211958": 1675,
    "\u25810xfeee0020": 1676,
    "console": 1677,
    "\u2581virtualprotect": 1678,
    "\u25810x44f928": 1679,
    "ast": 1680,
    "\u25810x7703": 1681,
    "\u25810x770e": 1682,
    "\u25810x7713": 1683,
    "\u2581globallock": 1684,
    "arg": 1685,
    "\u25810x10000": 1686,
    "clip": 1687,
    "bf": 1688,
    "c000": 1689,
    "ink": 1690,
    "iled": 1691,
    "\u2581e": 1692,
    "\u25810x437a": 1693,
    "etool": 1694,
    "apshot": 1695,
    "help32": 1696,
    "\u2581createtool": 1697,
    "help32sn": 1698,
    "help32snapshot": 1699,
    "\u2581createtoolhelp32snapshot": 1700,
    "\u25810x12119c0": 1701,
    "\u25810x214": 1702,
    "\u25810x98": 1703,
    "memory": 1704,
    "\u25810x23": 1705,
    "initializ": 1706,
    "\u25810x3b": 1707,
    "rwlock": 1708,
    "\u25810x1211a": 1709,
    "57": 1710,
    "\u25810x57": 1711,
    "\u25810x1d": 1712,
    "\u25810x107568": 1713,
    "\u25810x40152c": 1714,
    "2f": 1715,
    "system": 1716,
    "emap": 1717,
    "\u2581beg": 1718,
    "cb": 1719,
    "\u25810x7ee0": 1720,
    "buff": 1721,
    "lush": 1722,
    "c1": 1723,
    "\u25810x84": 1724,
    "inal": 1725,
    "\u25810x1211f48": 1726,
    "\u2581control": 1727,
    "\u25810x567": 1728,
    "\u2581copy": 1729,
    "\u2581getw": 1730,
    "de9": 1731,
    "188": 1732,
    "\u2581process32first": 1733,
    "\u2581crtdll": 1734,
    "\u25810x2f": 1735,
    "\u2581loadicona": 1736,
    "\u25810x120e6": 1737,
    "\u25810xfeee009a": 1738,
    "\u2581fibers": 1739,
    "c5": 1740,
    "\u25810x1211f2c": 1741,
    "\u2581begin": 1742,
    "\u25810x1211f28": 1743,
    "\u25810x2d": 1744,
    "\u2581image": 1745,
    "\u25810x2b": 1746,
    "\u25810x8811": 1747,
    "spec": 1748,
    "uilanguage": 1749,
    "errormode": 1750,
    "\u2581registry": 1751,
    "\u2581seterrormode": 1752,
    "\u2581ole32": 1753,
    "numberof": 1754,
    "4b": 1755,
    "lation": 1756,
    "660": 1757,
    "\u2581createsemap": 1758,
    "\u25810x43540": 1759,
    "emut": 1760,
    "d04": 1761,
    "ordinal": 1762,
    "\u25810x1211f64": 1763,
    "windowexa": 1764,
    "c6": 1765,
    "\u2581sel": 1766,
    "\u2581ordinal": 1767,
    "\u25810x771c": 1768,
    "\u25810x1210d": 1769,
    "trac": 1770,
    "\u2581select": 1771,
    "320": 1772,
    "\u2581getnumberof": 1773,
    "\u2581getnumberofconsole": 1774,
    "\u25810x1211b04": 1775,
    "text": 1776,
    "\u2581flush": 1777,
    "\u2581imagelist": 1778,
    "\u25810x8af0": 1779,
    "d08": 1780,
    "b40": 1781,
    "c7": 1782,
    "\u25810xfeee0040": 1783,
    "\u25810x1210f8": 1784,
    "\u2581gettempw": 1785,
    "\u25810x83": 1786,
    "\u25810x7706": 1787,
    "\u25810x770d": 1788,
    "\u25810x7716": 1789,
    "\u2581getuserdefault": 1790,
    "0000000": 1791,
    "\u25810x1211fcc": 1792,
    "46": 1793,
    "inputs": 1794,
    "\u2581getnumberofconsoleinputs": 1795,
    "\u2581un": 1796,
    "trl": 1797,
    "tra": 1798,
    "\u25810x31": 1799,
    "fac": 1800,
    "\u25810x417": 1801,
    "namea": 1802,
    "\u25810xa000": 1803,
    "5c8": 1804,
    "\u2581start": 1805,
    "\u25810x99": 1806,
    "aaaa": 1807,
    "d80": 1808,
    "\u25810x94": 1809,
    "\u2581wcs": 1810,
    "\u2581extrac": 1811,
    "ocket": 1812,
    "\u25810x4393": 1813,
    "a50": 1814,
    "\u25810x1211bc0": 1815,
    "\u25810x1211f20": 1816,
    "ull": 1817,
    "\u25810x7ad0": 1818,
    "5a": 1819,
    "buffers": 1820,
    "\u25810x1210ec": 1821,
    "\u25810x8e": 1822,
    "isp": 1823,
    "ab8": 1824,
    "\u25810x36": 1825,
    "\u2581error": 1826,
    "bits": 1827,
    "\u25810x7de4": 1828,
    "\u25810x7de5": 1829,
    "\u25810x37": 1830,
    "c3": 1831,
    "hor": 1832,
    "\u25810x1211ee0": 1833,
    "\u25810x1211748": 1834,
    "a04": 1835,
    "\u25810x35": 1836,
    "\u25810x43b7": 1837,
    "\u25810x1804": 1838,
    "drive": 1839,
    "\u25810x43b7b": 1840,
    "\u25810x1211fd4": 1841,
    "a256": 1842,
    "\u2581enum": 1843,
    "ass": 1844,
    "clus": 1845,
    "e80": 1846,
    "\u2581to": 1847,
    "430": 1848,
    "mov": 1849,
    "slen": 1850,
    "\u25810x7ee00": 1851,
    "b08": 1852,
    "\u2581wcslen": 1853,
    "688": 1854,
    "f08": 1855,
    "\u2581sha256": 1856,
    "yarg": 1857,
    "paint": 1858,
    "32c": 1859,
    "\u2581lstrcmp": 1860,
    "4f": 1861,
    "clusive": 1862,
    "rwlockex": 1863,
    "rwlockexclusive": 1864,
    "ivi": 1865,
    "cadwork": 1866,
    "speci": 1867,
    "dateresourcea": 1868,
    "stringa": 1869,
    "\u25810x4393f8": 1870,
    "ivile": 1871,
    "hen": 1872,
    "link": 1873,
    "\u25810x42c4": 1874,
    "\u25810x48f8": 1875,
    "\u2581gettime": 1876,
    "\u25810x12119ac": 1877,
    "\u25810x5b": 1878,
    "\u2581wcscpy": 1879,
    "\u25810x7cd0": 1880,
    "\u25810x3a": 1881,
    "93c": 1882,
    "out": 1883,
    "variablew": 1884,
    "208": 1885,
    "\u25810x63": 1886,
    "\u25810x1211ed": 1887,
    "708": 1888,
    "\u25810x4c32c0": 1889,
    "\u2581isvalid": 1890,
    "pro": 1891,
    "\u2581shget": 1892,
    "\u25810x3d": 1893,
    "\u25810x4418": 1894,
    "\u25810x8a80": 1895,
    "full": 1896,
    "\u2581getthreadpreferreduilanguages": 1897,
    "4d": 1898,
    "de0": 1899,
    "conditionvariable": 1900,
    "\u25810x1210900": 1901,
    "\u2581draw": 1902,
    "9c8": 1903,
    "94c": 1904,
    "ain": 1905,
    "ownload": 1906,
    "\u2581getd": 1907,
    "\u25810xfde9": 1908,
    "\u25810x1211c80": 1909,
    "\u2581initializes": 1910,
    "\u25810x39": 1911,
    "ut32": 1912,
    "\u2581olea": 1913,
    "\u2581oleaut32": 1914,
    "\u2581createprocess": 1915,
    "47": 1916,
    "4e": 1917,
    "code": 1918,
    "\u25810x4317": 1919,
    "state": 1920,
    "\u2581wak": 1921,
    "438": 1922,
    "leob": 1923,
    "\u2581getkeyboard": 1924,
    "ee8": 1925,
    "\u25810x7df0": 1926,
    "atch": 1927,
    "am": 1928,
    "\u2581int": 1929,
    "\u25810x42c0": 1930,
    "988": 1931,
    "\u258132": 1932,
    "\u25810x4bc": 1933,
    "\u2581getfileattributesw": 1934,
    "eextra": 1935,
    "endoffile": 1936,
    "\u25810x7701": 1937,
    "\u25810x7709": 1938,
    "\u25810x770f": 1939,
    "\u25810x7711": 1940,
    "\u25810x7719": 1941,
    "\u25810x1211e28": 1942,
    "vio": 1943,
    "\u25810x566": 1944,
    "\u25810x7d10": 1945,
    "ated": 1946,
    "\u25810x181b": 1947,
    "108": 1948,
    "\u25810x1211cec": 1949,
    "\u2581getmess": 1950,
    "\u25810x7ab0": 1951,
    "\u2581ac": 1952,
    "cd": 1953,
    "oy": 1954,
    "\u25810xb8": 1955,
    "\u25810x42e5b0": 1956,
    "\u25810x85": 1957,
    "with": 1958,
    "9c1": 1959,
    "\u2581send": 1960,
    "stroy": 1961,
    "\u25818": 1962,
    "\u25810x1211f00": 1963,
    "\u25810x1211508": 1964,
    "ang": 1965,
    "ca": 1966,
    "\u2581comparestringex": 1967,
    "\u2581getlocaleinfoex": 1968,
    "100": 1969,
    "ym": 1970,
    "\u25810xe0": 1971,
    "\u25810xfeee0021": 1972,
    "lex": 1973,
    "ns": 1974,
    "ageextra": 1975,
    "ageextrainfo": 1976,
    "\u2581getmessageextrainfo": 1977,
    "\u25810xfeee0022": 1978,
    "\u25810xfeee0027": 1979,
    "\u2581ini": 1980,
    "ask": 1981,
    "viewoffile": 1982,
    "e88": 1983,
    "ger": 1984,
    "\u25810x47c0": 1985,
    "any": 1986,
    "\u25810xfeee0026": 1987,
    "violation": 1988,
    "\u25810x5f": 1989,
    "heck": 1990,
    "pack": 1991,
    "\u25810x88a0": 1992,
    "c08": 1993,
    "\u25810xfeee0024": 1994,
    "6c8": 1995,
    "termin": 1996,
    "freesp": 1997,
    "\u2581getdisk": 1998,
    "\u2581getdiskfreesp": 1999,
    "\u25810xfeee0023": 2000,
    "\u25810x40933c": 2001,
    "\u25810x1211578": 2002,
    "\u25810x43500": 2003,
    "\u25810x1211308": 2004,
    "\u25810x1211928": 2005,
    "\u25810xfeee0025": 2006,
    "ctl32": 2007,
    "\u2581comctl32": 2008,
    "\u25810x42fc": 2009,
    "\u25810x409344": 2010,
    "937": 2011,
    "\u25810x1211e14": 2012,
    "ret": 2013,
    "\u25810x120f8": 2014,
    "\u25810x107": 2015,
    "change": 2016,
    "\u2581termin": 2017,
    "comp": 2018,
    "\u25810x97": 2019,
    "untime": 2020,
    "c9": 2021,
    "orsing": 2022,
    "\u2581loadiconw": 2023,
    "\u25810x496760": 2024,
    "ton": 2025,
    "\u2581inst": 2026,
    "\u25810x40f6": 2027,
    "ac0": 2028,
    "linkw": 2029,
    "variablea": 2030,
    "when": 2031,
    "328": 2032,
    "\u25810x1076": 2033,
    "f04": 2034,
    "\u2581mul": 2035,
    "\u2581muldiv": 2036,
    "ryp": 2037,
    "\u25810x4094": 2038,
    "\u25810xff8": 2039,
    "package": 2040,
    "a00": 2041,
    "\u2581show": 2042,
    "orsingleob": 2043,
    "\u25810x4229": 2044,
    "\u25810x1211e08": 2045,
    "vol": 2046,
    "\u2581update": 2047,
    "\u2581drag": 2048,
    "\u25814": 2049,
    "packageid": 2050,
    "\u2581getcurrentpackageid": 2051,
    "\u2581getdiskfreespac": 2052,
    "\u2581getdate": 2053,
    "las": 2054,
    "ispatch": 2055,
    "ken": 2056,
    "ow64": 2057,
    "\u25810x59": 2058,
    "olf": 2059,
    "\u2581golf": 2060,
    "\u2581createp": 2061,
    "drivestrings": 2062,
    "\u2581getlogicaldrivestrings": 2063,
    "\u2581waitforsingleob": 2064,
    "nal": 2065,
    "\u25810x4428": 2066,
    "\u25810x42b40": 2067,
    "ymbo": 2068,
    "ymbolic": 2069,
    "you": 2070,
    "ervicec": 2071,
    "ymboliclinkw": 2072,
    "\u2581createsymboliclinkw": 2073,
    "\u2581q": 2074,
    "\u2581waitfor": 2075,
    "\u25810x4238": 2076,
    "cf": 2077,
    "qui": 2078,
    "\u2581accessviolation": 2079,
    "\u25810x519": 2080,
    "\u25810x7de8": 2081,
    "\u25810x7e80": 2082,
    "conne": 2083,
    "retur": 2084,
    "ornumber": 2085,
    "processwrite": 2086,
    "\u2581flushprocesswrite": 2087,
    "\u2581flushprocesswritebuffers": 2088,
    "\u2581getcurrentprocessornumber": 2089,
    "returns": 2090,
    "whencallback": 2091,
    "whencallbackreturns": 2092,
    "\u2581freelibrarywhencallbackreturns": 2093,
    "horeexw": 2094,
    "\u25810x7de9": 2095,
    "poolwait": 2096,
    "callbacks": 2097,
    "\u2581waitforthread": 2098,
    "pooltimercallbacks": 2099,
    "\u2581setthreadpoolwait": 2100,
    "\u2581createsemaphoreexw": 2101,
    "\u2581setthreadpooltimer": 2102,
    "\u2581closethreadpoolwait": 2103,
    "\u2581closethreadpooltimer": 2104,
    "\u2581createthreadpoolwait": 2105,
    "\u2581createthreadpooltimer": 2106,
    "\u2581waitforthreadpooltimercallbacks": 2107,
    "brus": 2108,
    "\u25810x46e0": 2109,
    "\u2581getthreaduilanguage": 2110,
    "\u2581interlocke": 2111,
    "resourcew": 2112,
    "\u2581lstrcpynw": 2113,
    "mask": 2114,
    "\u25810x188e": 2115,
    "980": 2116,
    "volu": 2117,
    "\u2581cryp": 2118,
    "\u2581createwindowexa": 2119,
    "\u2581getenvironmentvariablew": 2120,
    "380": 2121,
    "alette": 2122,
    "volume": 2123,
    "for": 2124,
    "\u25810x40b": 2125,
    "\u25810x40f": 2126,
    "\u25810x5638": 2127,
    "\u25810x52660": 2128,
    "\u25810x52662": 2129,
    "host": 2130,
    "\u25810x1210e0": 2131,
    "\u25810x120fa": 2132,
    "\u25810x181c": 2133,
    "\u25810x4630": 2134,
    "\u25810x43640": 2135,
    "wow64": 2136,
    "\u25810xa1": 2137,
    "\u25810x91": 2138,
    "bc8": 2139,
    "\u25810x80000000": 2140,
    "ervicectrl": 2141,
    "\u25810xfeee0028": 2142,
    "\u2581ass": 2143,
    "\u25810x92": 2144,
    "4000": 2145,
    "\u25810x7dec": 2146,
    "\u25810x7ded": 2147,
    "\u25810x7e74": 2148,
    "\u25810x7e75": 2149,
    "\u25810x4317e0": 2150,
    "\u25810x7d00": 2151,
    "\u2581sprintf": 2152,
    "\u25810x4228": 2153,
    "a0000": 2154,
    "\u25810x1212000": 2155,
    "\u25810x7e78": 2156,
    "\u2581shellex": 2157,
    "\u25810x7e79": 2158,
    "\u25810x4c42d8": 2159,
    "\u25810x4c42f0": 2160,
    "\u25810x6b": 2161,
    "\u2581createco": 2162,
    "\u25810x7e7c": 2163,
    "\u25810x7e7d": 2164,
    "\u2581globalfree": 2165,
    "messagew": 2166,
    "\u25810x1211e34": 2167,
    "5500000": 2168,
    "mpati": 2169,
    "\u25810x7e81": 2170,
    "\u2581fe": 2171,
    "\u2581deletefilea": 2172,
    "brush": 2173,
    "\u25810x4730": 2174,
    "\u25810x2d4": 2175,
    "valu": 2176,
    "\u2581exception": 2177,
    "instruction": 2178,
    "nex": 2179,
    "mpatible": 2180,
    "\u25810xfeee0046": 2181,
    "\u2581output": 2182,
    "\u2581outputdebug": 2183,
    "\u25810x40a3": 2184,
    "\u2581mar": 2185,
    "\u2581remov": 2186,
    "folder": 2187,
    "\u25810x7e85": 2188,
    "\u25810x1211e44": 2189,
    "\u2581createcompatible": 2190,
    "uter": 2191,
    "\u25810x7e84": 2192,
    "\u2581getmain": 2193,
    "\u2581enumsystem": 2194,
    "\u2581enumsystemlocales": 2195,
    "\u25810x43b7c": 2196,
    "\u2581outof": 2197,
    "\u2581z": 2198,
    "licen": 2199,
    "ins": 2200,
    "allocate": 2201,
    "debugger": 2202,
    "volumeinformation": 2203,
    "typ": 2204,
    "debuggerpresent": 2205,
    "\u2581getvolumeinformation": 2206,
    "388": 2207,
    "cre": 2208,
    "\u2581crypt": 2209,
    "computer": 2210,
    "ecall": 2211,
    "ong": 2212,
    "failed": 2213,
    "\u2581findnext": 2214,
    "cad": 2215,
    "ternal": 2216,
    "\u25810x51af": 2217,
    "inst": 2218,
    "\u2581createthread": 2219,
    "668": 2220,
    "\u25810xffe1": 2221,
    "head": 2222,
    "\u25810xfeee0045": 2223,
    "\u2581feb": 2224,
    "servicew": 2225,
    "\u25810x1210e8": 2226,
    "\u2581sn": 2227,
    "eall": 2228,
    "\u25810xffe0": 2229,
    "\u2581createdirectoryw": 2230,
    "\u2581tr": 2231,
    "\u2581deletefilew": 2232,
    "\u25810x1009": 2233,
    "\u25810x4790": 2234,
    "\u25810xffe4": 2235,
    "ied": 2236,
    "\u25810x7df1": 2237,
    "\u25810x5265d": 2238,
    "\u25810x4d70": 2239,
    "\u25810x7540": 2240,
    "\u25810x4394": 2241,
    "oci": 2242,
    "\u2581isdebuggerpresent": 2243,
    "\u2581closes": 2244,
    "e4c": 2245,
    "\u25810x26": 2246,
    "\u25810xfeee0029": 2247,
    "580": 2248,
    "creating": 2249,
    "\u2581sept": 2250,
    "\u25810x7d95": 2251,
    "echeck": 2252,
    "\u25810x1005": 2253,
    "\u25810x7707": 2254,
    "\u25810x7717": 2255,
    "acl": 2256,
    "\u25810xffbb": 2257,
    "\u25810xffba": 2258,
    "\u25810xffbe": 2259,
    "\u25810xffbc": 2260,
    "\u25810xffbd": 2261,
    "\u25810x1211780": 2262,
    "attributesa": 2263,
    "\u2581getwindows": 2264,
    "\u25810xfffe": 2265,
    "\u25810xfeee0044": 2266,
    "\u25810xffb7": 2267,
    "\u25810xffb8": 2268,
    "\u25810xffb9": 2269,
    "\u2581febr": 2270,
    "\u25810xfffd": 2271,
    "ober": 2272,
    "\u25810xffbf": 2273,
    "gust": 2274,
    "\u2581aug": 2275,
    "\u2581april": 2276,
    "\u2581august": 2277,
    "\u2581november": 2278,
    "\u2581september": 2279,
    "bound": 2280,
    "\u25810xfffc": 2281,
    "ged": 2282,
    "\u25810x7d94": 2283,
    "den": 2284,
    "bar": 2285,
    "une": 2286,
    "se": 2287,
    "quires": 2288,
    "aff": 2289,
    "\u2581wakeall": 2290,
    "\u2581wakeallconditionvariable": 2291,
    "\u2581div": 2292,
    "\u25810xffb6": 2293,
    "\u2581outofmemory": 2294,
    "\u25810x20019": 2295,
    "\u25810xffa0": 2296,
    "\u25810xfeee002d": 2297,
    "\u2581getfileinformationby": 2298,
    "index": 2299,
    "anuary": 2300,
    "\u2581march": 2301,
    "\u2581february": 2302,
    "\u25810x67000000": 2303,
    "uly": 2304,
    "\u25810xffa1": 2305,
    "\u2581iswow64": 2306,
    "\u2581december": 2307,
    "\u2581createmut": 2308,
    "\u2581iswow64process": 2309,
    "\u25810xffa2": 2310,
    "\u2581october": 2311,
    "\u2581thu": 2312,
    "nesday": 2313,
    "\u2581monday": 2314,
    "\u2581sunday": 2315,
    "\u2581tuesday": 2316,
    "\u2581wednesday": 2317,
    "\u25810xfeee002f": 2318,
    "ursday": 2319,
    "\u25810xfffb": 2320,
    "\u2581thursday": 2321,
    "49": 2322,
    "8000": 2323,
    "\u2581fri": 2324,
    "\u2581createpalette": 2325,
    "iday": 2326,
    "urday": 2327,
    "\u2581friday": 2328,
    "\u2581saturday": 2329,
    "\u25810xffa3": 2330,
    "\u25810xfeee002a": 2331,
    "quiresrwlockexclusive": 2332,
    "788": 2333,
    "\u25810xffb5": 2334,
    "\u25810xffa4": 2335,
    "\u2581initialize": 2336,
    "\u25810x4620": 2337,
    "\u25810x42332": 2338,
    "\u25810xffcd": 2339,
    "afecall": 2340,
    "\u25810x4615": 2341,
    "2f8": 2342,
    "\u2581hton": 2343,
    "securitydescriptor": 2344,
    "exception": 2345,
    "\u2581extract": 2346,
    "\u25810x202": 2347,
    "\u25810xffa7": 2348,
    "\u25810xffa5": 2349,
    "\u25810xffa6": 2350,
    "alog": 2351,
    "\u25810x4308": 2352,
    "\u25810xfffa": 2353,
    "facen": 2354,
    "\u2581interfacen": 2355,
    "\u25810xfeee002b": 2356,
    "found": 2357,
    "\u2581asser": 2358,
    "infoa": 2359,
    "\u2581external": 2360,
    "changet": 2361,
    "\u2581variantchanget": 2362,
    "\u2581stack": 2363,
    "\u25810xffb4": 2364,
    "\u25810x42990": 2365,
    "\u2581privile": 2366,
    "\u2581assertion": 2367,
    "eger": 2368,
    "\u2581integer": 2369,
    "\u25810xffa8": 2370,
    "styp": 2371,
    "\u25810x1210ed": 2372,
    "\u25810xffa9": 2373,
    "\u25810xfeee002c": 2374,
    "ec0": 2375,
    "\u25810x7f0": 2376,
    "insafecall": 2377,
    "\u2581exceptioninsafecall": 2378,
    "\u25810xfeee002e": 2379,
    "ond": 2380,
    "calls": 2381,
    "\u2581disk": 2382,
    "32cs": 2383,
    "\u2581snap": 2384,
    "\u2581th32cs": 2385,
    "notfound": 2386,
    "mod": 2387,
    "a08": 2388,
    "denied": 2389,
    "accessdenied": 2390,
    "ecast": 2391,
    "gument": 2392,
    "\u25810xffaa": 2393,
    "underflow": 2394,
    "\u2581assertionfailed": 2395,
    "bounds": 2396,
    "\u25810xffce": 2397,
    "listhead": 2398,
    "\u2581loadcursorw": 2399,
    "\u2581initializeslisthead": 2400,
    "\u2581privileged": 2401,
    "clas": 2402,
    "\u2581chit": 2403,
    "\u2581rang": 2404,
    "verflow": 2405,
    "classtyp": 2406,
    "indexout": 2407,
    "notsuped": 2408,
    "\u25810x1211c04": 2409,
    "\u2581rangecheck": 2410,
    "classtypecast": 2411,
    "otsuped": 2412,
    "ofbounds": 2413,
    "callsnotsuped": 2414,
    "\u2581errorcreating": 2415,
    "indexoutofbounds": 2416,
    "pointeroperation": 2417,
    "\u2581externalexception": 2418,
    "\u2581interfacenotsuped": 2419,
    "\u2581errorcreatingvariant": 2420,
    "\u2581invalidclasstypecast": 2421,
    "\u2581variantcallsnotsuped": 2422,
    "\u2581floatingpointunderflow": 2423,
    "ordacl": 2424,
    "pointo": 2425,
    "typecon": 2426,
    "pointoverflow": 2427,
    "divisionbyzero": 2428,
    "typeconversion": 2429,
    "\u2581stackoverflow": 2430,
    "securitydescriptordacl": 2431,
    "\u2581floatingpointoverflow": 2432,
    "\u2581privilegedinstruction": 2433,
    "\u2581invalidvariantoperation": 2434,
    "\u2581floatingpointdivisionbyzero": 2435,
    "\u2581invalidvarianttypeconversion": 2436,
    "floating": 2437,
    "floatingpoint": 2438,
    "\u2581divisionbyzero": 2439,
    "\u2581integeroverflow": 2440,
    "\u2581rangecheckerror": 2441,
    "\u2581invalidfloatingpoint": 2442,
    "\u2581invalidpointeroperation": 2443,
    "\u2581invalidfloatingpointoperation": 2444,
    "bey": 2445,
    "omany": 2446,
    "beyond": 2447,
    "numeric": 2448,
    "\u25810xffe6": 2449,
    "\u2581toomany": 2450,
    "openfiles": 2451,
    "\u2581diskfull": 2452,
    "\u2581readbeyond": 2453,
    "numericinput": 2454,
    "\u2581invalidfilename": 2455,
    "\u2581toomanyopenfiles": 2456,
    "\u2581invalidnumericinput": 2457,
    "\u2581readbeyondendoffile": 2458,
    "\u2581fileaccessdenied": 2459,
    "2w": 2460,
    "connection": 2461,
    "argument": 2462,
    "\u25810xffcf": 2463,
    "ypeex": 2464,
    "\u2581variantchangetypeex": 2465,
    "\u2581process32firstw": 2466,
    "\u2581varbstrfrombool": 2467,
    "neg": 2468,
    "connection2w": 2469,
    "\u2581getsystemdirectorya": 2470,
    "cel": 2471,
    "\u25810x5d": 2472,
    "mul": 2473,
    "xor": 2474,
    "idiv": 2475,
    "\u2581varcy": 2476,
    "\u2581varor": 2477,
    "\u2581varr8": 2478,
    "\u2581varadd": 2479,
    "\u2581varand": 2480,
    "\u2581varcmp": 2481,
    "\u2581vardiv": 2482,
    "\u2581varmod": 2483,
    "\u2581varmul": 2484,
    "\u2581varneg": 2485,
    "\u2581varnot": 2486,
    "\u2581varsub": 2487,
    "\u2581varxor": 2488,
    "\u2581varbool": 2489,
    "\u2581vardate": 2490,
    "\u2581varidiv": 2491,
    "\u2581varcyfromstr": 2492,
    "\u2581vari4fromstr": 2493,
    "\u2581varr4fromstr": 2494,
    "\u2581varr8fromstr": 2495,
    "\u2581varbstrfromcy": 2496,
    "\u2581varboolfromstr": 2497,
    "\u2581vardatefromstr": 2498,
    "\u2581varbstrfromdate": 2499,
    "\u25810x100300": 2500,
    "\u25810x3e8": 2501,
    "\u2581initializesecuritydescriptor": 2502,
    "\u25810x1211ed4": 2503,
    "\u25810xfeee0043": 2504,
    "\u2581em": 2505,
    "\u25810x508": 2506,
    "\u25810xffb0": 2507,
    "clipboard": 2508,
    "\u2581getuserdefaultlocalename": 2509,
    "box": 2510,
    "econdition": 2511,
    "\u25810x1211d04": 2512,
    "\u25810x8230": 2513,
    "econditionvariable": 2514,
    "cc8": 2515,
    "\u25810xffe5": 2516,
    "\u25810x1211a04": 2517,
    "\u25810xffb3": 2518,
    "\u25810xffb2": 2519,
    "\u2581lstrcpyna": 2520,
    "\u2581getdateformatex": 2521,
    "\u25810xfff9": 2522,
    "\u2581gettimeformatex": 2523,
    "\u2581enumsystemlocalesex": 2524,
    "\u2581isvalidlocalename": 2525,
    "\u25810xffb1": 2526,
    "\u25810x1210f0": 2527,
    "\u25810x3f2000": 2528,
    "ust": 2529,
    "\u25810x9c": 2530,
    "\u25810x1210ee": 2531,
    "lw": 2532,
    "\u2581v": 2533,
    "\u2581setsecuritydescriptordacl": 2534,
    "\u25810xfeee0030": 2535,
    "eexa": 2536,
    "\u25810x4de": 2537,
    "\u25810x420c": 2538,
    "\u25810x1211f88": 2539,
    "lwapi": 2540,
    "\u2581shlwapi": 2541,
    "\u25810xfff8": 2542,
    "\u25810x1211f34": 2543,
    "\u25810x7bd0": 2544,
    "\u2581invalidargument": 2545,
    "pos": 2546,
    "fff0": 2547,
    "\u2581variantorsafearray": 2548,
    "\u2581errorcreatingvariantorsafearray": 2549,
    "\u2581variantorsafearrayindexoutofbounds": 2550,
    "ways": 2551,
    "\u25810xfeee0062": 2552,
    "f0000": 2553,
    "\u25810xfeee0031": 2554,
    "\u2581rand": 2555,
    "\u2581registerclassexa": 2556,
    "\u2581u": 2557,
    "fe8": 2558,
    "\u25810x53000": 2559,
    "\u25810xfeee003b": 2560,
    "\u25810x1211fc8": 2561,
    "\u25810x55": 2562,
    "associ": 2563,
    "\u25810x121193c": 2564,
    "\u25810xfff7": 2565,
    "atedicon": 2566,
    "associatedicon": 2567,
    "\u2581extractassociatedicon": 2568,
    "ce8": 2569,
    "\u2581createdirectorya": 2570,
    "\u25810x42c508": 2571,
    "\u25810x6d": 2572,
    "\u25810x13fff0": 2573,
    "no": 2574,
    "7e0": 2575,
    "\u25810x52661": 2576,
    "\u2581outputdebugstringa": 2577,
    "\u25810x412": 2578,
    "\u25810x7be0": 2579,
    "\u2581getfileinformationbyhandl": 2580,
    "\u25810xfeee0033": 2581,
    "\u25810x4800": 2582,
    "ec8": 2583,
    "\u258120": 2584,
    "\u25810x432": 2585,
    "\u25810x563868": 2586,
    "validate": 2587,
    "\u2581heapvalidate": 2588,
    "7c8": 2589,
    "\u2581err": 2590,
    "\u25810xfeee0032": 2591,
    "\u25810xfeee0035": 2592,
    "drl6660drl6660drl6660drl6660drl6660drl6660drl6660drl6660": 2593,
    "d3c": 2594,
    "\u25810xfeee0034": 2595,
    "mapp": 2596,
    "\u25810xfeee0041": 2597,
    "\u2581beginup": 2598,
    "\u25810x567a40": 2599,
    "\u25810xfeee0042": 2600,
    "\u25810x437808": 2601,
    "\u25810x1211dfc": 2602,
    "\u25810xfeee0049": 2603,
    "\u25810x48f898": 2604,
    "\u25810xfeee0039": 2605,
    "barcad": 2606,
    "mapping": 2607,
    "barcadero": 2608,
    "\u25810x437806": 2609,
    "\u25810x43780a": 2610,
    "\u25810x43780c": 2611,
    "\u25810x43780e": 2612,
    "\u25810x437810": 2613,
    "\u25810x437812": 2614,
    "\u25810x437814": 2615,
    "\u25810x437816": 2616,
    "\u25810x437818": 2617,
    "\u25810x43781a": 2618,
    "\u25810x43781c": 2619,
    "\u25810x43781e": 2620,
    "filemapping": 2621,
    "\u2581embarcadero": 2622,
    "\u25810xfeee0036": 2623,
    "\u25810xfeee0037": 2624,
    "\u2581createmutexa": 2625,
    "a88": 2626,
    "\u25810x65": 2627,
    "\u2581snapprocess": 2628,
    "\u2581po": 2629,
    "\u25810xfeee003f": 2630,
    "\u25810xa7": 2631,
    "\u25810x1211efc": 2632,
    "\u25810xfeee0047": 2633,
    "\u25810x8001": 2634,
    "\u25810x47a0": 2635,
    "\u25810xfeee0038": 2636,
    "\u2581msvcr": 2637,
    "\u25810x78f0": 2638,
    "74c": 2639,
    "\u2581type": 2640,
    "\u25810xfeee003d": 2641,
    "\u25810xfeee003a": 2642,
    "\u25810xfff6": 2643,
    "\u25810x3bc": 2644,
    "\u25810xfeee003e": 2645,
    "token": 2646,
    "\u25810xfeee0065": 2647,
    "\u2581gettickcount64": 2648,
    "\u25810x42c4d8": 2649,
    "\u25810xfeee0048": 2650,
    "\u2581seten": 2651,
    "\u2581destroy": 2652,
    "\u25810xfeee003c": 2653,
    "\u25810xfeee0066": 2654,
    "f80": 2655,
    "\u2581showwindow": 2656,
    "\u25810x4df": 2657,
    "cef": 2658,
    "\u2581point": 2659,
    "\u25810x1211738": 2660,
    "\u25810xfeee0053": 2661,
    "\u25810xfeee0067": 2662,
    "\u2581prec": 2663,
    "\u2581errata": 2664,
    "\u2581precision": 2665,
    "\u2581setthreadpreferreduilanguages": 2666,
    "\u25810xfeee0071": 2667,
    "\u25810x40a3d": 2668,
    "\u25810x1210f4": 2669,
    "\u25810xfeee0060": 2670,
    "\u25810xfeee0061": 2671,
    "\u25810xfeee004a": 2672,
    "initialize": 2673,
    "\u2581aa": 2674,
    "driv": 2675,
    "\u25810xa2": 2676,
    "\u25810xfeee005e": 2677,
    "\u2581loc": 2678,
    "\u25810x419c": 2679,
    "stack": 2680,
    "afile": 2681,
    "\u2581localiz": 2682,
    "\u2581localization": 2683,
    "guar": 2684,
    "\u2581setfileinformationby": 2685,
    "\u2581always": 2686,
    "\u25810x4c3": 2687,
    "\u2581createexw": 2688,
    "antee": 2689,
    "guarantee": 2690,
    "stackguarantee": 2691,
    "\u2581getlogicalprocessor": 2692,
    "\u2581setthreadstackguarantee": 2693,
    "\u25810x364": 2694,
    "\u25810xfeee0063": 2695,
    "namew": 2696,
    "\u25810x4df0": 2697,
    "\u2581end": 2698,
    "\u2581getlogicalprocessorinformation": 2699,
    "\u2581the": 2700,
    "want": 2701,
    "\u25810x448": 2702,
    "\u25810xfeee005a": 2703,
    "\u25810xfeee005c": 2704,
    "\u25810x89": 2705,
    "\u25810xfeee004d": 2706,
    "\u25810xfeee008e": 2707,
    "quit": 2708,
    "\u25810x41d1": 2709,
    "\u25810xfeee005b": 2710,
    "\u25810xfeee004b": 2711,
    "\u25810xfeee004c": 2712,
    "\u25810xfeee0068": 2713,
    "584": 2714,
    "\u25810x80c0": 2715,
    "\u25810xfeee0055": 2716,
    "\u25810xfee": 2717,
    "\u2581setup": 2718,
    "\u25810xfeee010": 2719,
    "\u25810xfeee004e": 2720,
    "\u25810xfeee0050": 2721,
    "aw": 2722,
    "\u25810xfeee0054": 2723,
    "\u25810xc00": 2724,
    "\u25810xfeee004f": 2725,
    "\u25810x52663": 2726,
    "enum": 2727,
    "\u25810xfeee0051": 2728,
    "\u25810xffd3": 2729,
    "\u25810xfeee0052": 2730,
    "\u25810xfeee0057": 2731,
    "\u2581createfilemapping": 2732,
    "\u25810xfeee0056": 2733,
    "\u25810x20a": 2734,
    "\u25810xfeee0058": 2735,
    "\u25810xffc6": 2736,
    "\u25810xfeee0059": 2737,
    "\u25810x40a9": 2738,
    "\u25810xfeee0069": 2739,
    "\u2581lstrcmpa": 2740,
    "\u25810x44d4": 2741,
    "a58": 2742,
    "a84": 2743,
    "\u25810x7a80": 2744,
    "\u25810xfeee005d": 2745,
    "\u25810x7150": 2746,
    "\u2581golfinfo": 2747,
    "\u2581lock": 2748,
    "\u2581fmode": 2749,
    "\u25810x404": 2750,
    "\u2581getmessagea": 2751,
    "\u25810x407": 2752,
    "\u25810x5265e": 2753,
    "\u25810xfeee0064": 2754,
    "stre": 2755,
    "\u2581updatewindow": 2756,
    "\u25810xfeee006a": 2757,
    "\u25810x73f0": 2758,
    "closekey": 2759,
    "\u2581regclosekey": 2760,
    "\u25810xfeee0072": 2761,
    "\u25810x48400": 2762,
    "\u25810x72a0": 2763,
    "\u25810xfff5": 2764,
    "168": 2765,
    "\u25810x1211e30": 2766,
    "\u25810xfeee0075": 2767,
    "\u25810x416": 2768,
    "e08": 2769,
    "\u2581localfree": 2770,
    "\u25810xffab": 2771,
    "\u25810x7090": 2772,
    "\u25810xffc5": 2773,
    "gro": 2774,
    "\u25810x7690": 2775,
    "\u25810xfeee0084": 2776,
    "\u25810xfeee006c": 2777,
    "408": 2778,
    "9bf": 2779,
    "\u25810x1210f35": 2780,
    "a81": 2781,
    "\u25810x8cf0": 2782,
    "\u2581fa": 2783,
    "lat": 2784,
    "\u2581check": 2785,
    "\u25810x40a93": 2786,
    "anag": 2787,
    "\u25810xffac": 2788,
    "clipboar": 2789,
    "\u25810x77e0": 2790,
    "\u2581gettempa": 2791,
    "\u2581getenvironmentvariablea": 2792,
    "bitmap": 2793,
    "\u25810x1210e4": 2794,
    "windowproc": 2795,
    "\u2581di": 2796,
    "\u25810x6f": 2797,
    "\u25810xd0": 2798,
    "98c": 2799,
    "licence": 2800,
    "\u25810xfeee006b": 2801,
    "\u25810x1211f04": 2802,
    "\u25810x1211f3c": 2803,
    "metafile": 2804,
    "\u25810x60000": 2805,
    "\u25810xfeee006e": 2806,
    "\u2581trans": 2807,
    "\u25810xfeee006d": 2808,
    "\u25810x3f75f60": 2809,
    "7a8": 2810,
    "\u2581def": 2811,
    "\u25810xfeee0074": 2812,
    "\u2581setwindow": 2813,
    "\u25810x409a": 2814,
    "\u25810xfeee008a": 2815,
    "\u2581comparestringw": 2816,
    "\u25810x51b": 2817,
    "488": 2818,
    "690": 2819,
    "\u25810xfeee0070": 2820,
    "de4": 2821,
    "888": 2822,
    "fore": 2823,
    "\u2581createfilemappinga": 2824,
    "184": 2825,
    "\u25810xa5": 2826,
    "\u25810xfeee008c": 2827,
    "\u2581getusernamea": 2828,
    "\u25810xffcc": 2829,
    "\u25810xfeee0078": 2830,
    "\u25810xffd0": 2831,
    "profile": 2832,
    "2c8": 2833,
    "d88": 2834,
    "f88": 2835,
    "ill": 2836,
    "\u25810xfeee0073": 2837,
    "\u25810xfeee0077": 2838,
    "970": 2839,
    "\u25810x60c": 2840,
    "\u25810xfeee0079": 2841,
    "\u25810xfeee006f": 2842,
    "\u25810x7db0": 2843,
    "\u25810xfeee0076": 2844,
    "\u25810xfeee0090": 2845,
    "\u25810x7bf0": 2846,
    "\u25810x52664": 2847,
    "\u25810x52666": 2848,
    "\u25810xfeee0087": 2849,
    "the": 2850,
    "\u25810xfeee007a": 2851,
    "\u25810xfeee008d": 2852,
    "\u25810x7b90": 2853,
    "\u25810x1211fc0": 2854,
    "\u25810x3f75f30": 2855,
    "\u2581comm": 2856,
    "draw": 2857,
    "\u25810x44f910": 2858,
    "cor": 2859,
    "\u2581getkeyboardtype": 2860,
    "f0c": 2861,
    "\u2581ntopen": 2862,
    "\u25810x403": 2863,
    "\u25810x416b": 2864,
    "\u2581ntopensection": 2865,
    "\u25810x770a": 2866,
    "\u25810x771a": 2867,
    "\u25810x1211518": 2868,
    "770": 2869,
    "\u25810x430880": 2870,
    "\u25810xfeee0088": 2871,
    "ac8": 2872,
    "\u25810x4bd0": 2873,
    "\u2581setfileattributesa": 2874,
    "folderw": 2875,
    "\u25810x40c": 2876,
    "140": 2877,
    "d0a": 2878,
    "\u25810x235": 2879,
    "\u25810x53000000": 2880,
    "\u25810xfeee008f": 2881,
    "special": 2882,
    "\u2581shgetspecial": 2883,
    "ows": 2884,
    "\u2581defwindowproc": 2885,
    "\u25810x1211f78": 2886,
    "\u2581registerwindow": 2887,
    "\u25810xbc": 2888,
    "\u25810xfeee007b": 2889,
    "\u25810x4967a8": 2890,
    "\u25810x41f": 2891,
    "\u2581regset": 2892,
    "ty": 2893,
    "fc8": 2894,
    "\u25810x1211dd0": 2895,
    "\u25810x1211e1c": 2896,
    "\u25810x1211f4c": 2897,
    "\u25810x1211fc4": 2898,
    "b88": 2899,
    "\u25810x42d4": 2900,
    "680": 2901,
    "\u2581copyfilea": 2902,
    "00210": 2903,
    "\u25810xfeee007c": 2904,
    "\u2581findwindow": 2905,
    "\u2581getwindowsdirectorya": 2906,
    "\u25810x65500000": 2907,
    "\u25810xfeee007f": 2908,
    "a20": 2909,
    "\u25810x7eab": 2910,
    "printfa": 2911,
    "\u25810x40a582": 2912,
    "\u25810x40a584": 2913,
    "\u25810x40a586": 2914,
    "\u25810x40a588": 2915,
    "2030": 2916,
    "\u25810x40a58a": 2917,
    "\u25810x40a580": 2918,
    "\u25810x12118f8": 2919,
    "dexchange": 2920,
    "\u25810x40a57e": 2921,
    "\u2581interlockedexchange": 2922,
    "\u25810x5265f": 2923,
    "\u25810xfeee0086": 2924,
    "\u25810x6c": 2925,
    "\u25810x42992": 2926,
    "\u25810xfeee007d": 2927,
    "\u2581loadlibraryexa": 2928,
    "\u25810xfeee0081": 2929,
    "lec": 2930,
    "\u25810xfeee007e": 2931,
    "\u25810xfeee0083": 2932,
    "288": 2933,
    "\u25810xfeee0085": 2934,
    "unction": 2935,
    "\u25810xfeee0082": 2936,
    "\u25810xffad": 2937,
    "\u25810xfeee0080": 2938,
    "\u2581regsetvalu": 2939,
    "\u2581no": 2940,
    "b8c": 2941,
    "\u25815": 2942,
    "\u2581message": 2943,
    "\u25810x1211f18": 2944,
    "de8": 2945,
    "\u25810xfeee0089": 2946,
    "\u25810x42a1": 2947,
    "\u2581do": 2948,
    "\u25810xffd2": 2949,
    "\u25810x100000": 2950,
    "inity": 2951,
    "\u25810x1211f70": 2952,
    "lete": 2953,
    "\u25810x4e30": 2954,
    "\u25810x5c": 2955,
    "\u2581ws2": 2956,
    "unlock": 2957,
    "\u25810x4960": 2958,
    "\u25810x4c3308": 2959,
    "affinity": 2960,
    "affinitymask": 2961,
    "\u2581getclass": 2962,
    "\u25810xa8": 2963,
    "\u25810xffc4": 2964,
    "\u25810x2439f": 2965,
    "\u25810x1211c08": 2966,
    "\u25810x7340": 2967,
    "ernet": 2968,
    "\u25810x437c": 2969,
    "\u25810x7300": 2970,
    "ffc": 2971,
    "\u2581getcurrentdirectoryw": 2972,
    "\u2581wsprintfa": 2973,
    "3c4": 2974,
    "\u25810x1211f6c": 2975,
    "lecs": 2976,
    "\u25810x4290": 2977,
    "variablecs": 2978,
    "\u25810x1211f74": 2979,
    "\u2581sleepcondition": 2980,
    "\u2581sleepconditionvariablecs": 2981,
    "1a0": 2982,
    "\u25810x121194c": 2983,
    "init": 2984,
    "ontin": 2985,
    "app": 2986,
    "ff8": 2987,
    "yarg1": 2988,
    "\u2581wi": 2989,
    "\u2581messagebox": 2990,
    "stream": 2991,
    "56c": 2992,
    "sk": 2993,
    "\u25810x7900": 2994,
    "ly": 2995,
    "fied": 2996,
    "\u25810x7b80": 2997,
    "a10": 2998,
    "\u25810xffef": 2999,
    "\u25810x61": 3000,
    "\u2581failed": 3001,
    "\u25810x4169": 3002,
    "\u25810x40a5a0": 3003,
    "\u25810x437ad": 3004,
    "\u25810x437bc": 3005,
    "\u25810x4371e6": 3006,
    "\u25810x4371e7": 3007,
    "xit": 3008,
    "\u2581globalunlock": 3009,
    "lt": 3010,
    "\u25810x7c70": 3011,
    "\u25810x1211ccc": 3012,
    "\u25810x43b7b9": 3013,
    "\u25810x100b": 3014,
    "\u25810x43b7c3": 3015,
    "long": 3016,
    "\u2581post": 3017,
    "\u25810x42900": 3018,
    "search": 3019,
    "\u25810x41c0": 3020,
    "\u2581setprocess": 3021,
    "bad8": 3022,
    "metafilebits": 3023,
    "searchmode": 3024,
    "\u2581setsearchmode": 3025,
    "new": 3026,
    "\u2581of": 3027,
    "ols": 3028,
    "\u25810xa4": 3029,
    "\u25810x52665": 3030,
    "\u25810x1211e24": 3031,
    "\u2581getprocessaffinitymask": 3032,
    "av": 3033,
    "\u2581shgetspecialfolderw": 3034,
    "\u2581beginpaint": 3035,
    "bk": 3036,
    "\u25810x1211f40": 3037,
    "ac4": 3038,
    "\u25810x51c": 3039,
    "\u2581loadresource": 3040,
    "\u25810x86": 3041,
    "\u25810xffc2": 3042,
    "\u2581endpaint": 3043,
    "\u25810xffe3": 3044,
    "\u25810x56bad8": 3045,
    "608": 3046,
    "40c": 3047,
    "sto": 3048,
    "\u25810x41d114": 3049,
    "\u25810x120f8c2": 3050,
    "\u25810xfeee0094": 3051,
    "\u2581cadwork": 3052,
    "\u258117": 3053,
    "\u25810x78a0": 3054,
    "\u25810xffae": 3055,
    "\u25810x405": 3056,
    "\u2581runtime": 3057,
    "blt": 3058,
    "b190": 3059,
    "\u25810x502": 3060,
    "\u25810x1211f10": 3061,
    "sid": 3062,
    "\u25810x20009": 3063,
    "wantto": 3064,
    "a4c": 3065,
    "\u25810x41a0": 3066,
    "\u25810xffaf": 3067,
    "manag": 3068,
    "\u25810x121157c": 3069,
    "fp": 3070,
    "\u25810x12117a4": 3071,
    "\u25810xfeee0091": 3072,
    "\u25810xfeee0092": 3073,
    "\u2581ob": 3074,
    "\u25810x42a0": 3075,
    "\u25810x59bf": 3076,
    "\u25810x59c1": 3077,
    "\u25810x8d80": 3078,
    "\u25810x42a": 3079,
    "\u25810x49c8": 3080,
    "\u2581kk": 3081,
    "f4000": 3082,
    "\u25810x40a59e": 3083,
    "\u25810x8c60": 3084,
    "\u25810x40a5a2": 3085,
    "\u25810x40a5a4": 3086,
    "\u25810x40a5a6": 3087,
    "\u25810x40a5a8": 3088,
    "\u25810x40a5aa": 3089,
    "yarg2": 3090,
    "\u25810xff90": 3091,
    "aaaaaaaa": 3092,
    "licy": 3093,
    "policy": 3094,
    "\u25810xfeee0099": 3095,
    "\u2581op": 3096,
    "\u25810x95": 3097,
    "\u25810x7da0": 3098,
    "\u25810xfeee009b": 3099,
    "lication": 3100,
    "\u25810xfeee0093": 3101,
    "120": 3102,
    "\u2581initializeconditionvariable": 3103,
    "b44": 3104,
    "\u25810x43f0": 3105,
    "\u25810x9b": 3106,
    "\u25810xa9": 3107,
    "\u25810x4e50": 3108,
    "\u25810xffec": 3109,
    "\u25810xfeee009c": 3110,
    "\u25810x7d98": 3111,
    "\u25810xffe2": 3112,
    "ac000": 3113,
    "deppolicy": 3114,
    "\u25810x7d99": 3115,
    "ater": 3116,
    "\u2581rec": 3117,
    "\u2581setprocessdeppolicy": 3118,
    "inmetafilebits": 3119,
    "a44": 3120,
    "alogs": 3121,
    "\u25810xffe7": 3122,
    "\u25810x42b190": 3123,
    "\u25810x42eace": 3124,
    "ts": 3125,
    "\u25810x41e1": 3126,
    "ned": 3127,
    "\u25810xfeee0097": 3128,
    "\u25810x7d9c": 3129,
    "\u25810xff91": 3130,
    "ram": 3131,
    "\u25810x45fc": 3132,
    "\u25810x7d9d": 3133,
    "\u25810xfeee012": 3134,
    "df0": 3135,
    "\u25810xfeee0095": 3136,
    "bas": 3137,
    "\u25810x509": 3138,
    "exit": 3139,
    "current": 3140,
    "\u25810x417b": 3141,
    "\u25810xfeee0098": 3142,
    "\u25810xfeee0096": 3143,
    "\u25810xffc3": 3144,
    "484": 3145,
    "setinformation": 3146,
    "\u25810x7df4": 3147,
    "\u25810x7da1": 3148,
    "\u2581corexit": 3149,
    "\u2581corexitprocess": 3150,
    "\u25810x7df5": 3151,
    "\u25810x2100210": 3152,
    "\u25810x1b2": 3153,
    "\u2581getlogicaldrivestringsa": 3154,
    "69c": 3155,
    "\u25810x44d4b8": 3156,
    "\u2581defwindowproca": 3157,
    "\u2581gb": 3158,
    "\u25810x419": 3159,
    "91000": 3160,
    "\u25810x58000": 3161,
    "\u25810x4d50": 3162,
    "\u2581getwindow": 3163,
    "\u2581mapviewoffile": 3164,
    "f4c": 3165,
    "\u2581getwinmetafilebits": 3166,
    "5c4": 3167,
    "\u2581res": 3168,
    "ateprocess": 3169,
    "902": 3170,
    "\u25810xad": 3171,
    "\u25810x7270": 3172,
    "\u2581ofresource": 3173,
    "\u2581createprocessa": 3174,
    "texta": 3175,
    "\u2581dispatch": 3176,
    "\u2581deleteob": 3177,
    "\u25810x1211e20": 3178,
    "3c8": 3179,
    "\u2581unhandledexceptionfilter": 3180,
    "b60": 3181,
    "ff0": 3182,
    "exto": 3183,
    "95000": 3184,
    "\u25810x7e89": 3185,
    "\u25810x408c8": 3186,
    "f8c": 3187,
    "\u25810x93": 3188,
    "\u2581findresourcew": 3189,
    "extout": 3190,
    "\u25810x8c70": 3191,
    "\u25810x4201": 3192,
    "\u25810x7e88": 3193,
    "\u2581findnextfilew": 3194,
    "\u2581heapsetinformation": 3195,
    "\u25810x43b6": 3196,
    "\u25810x8aa0": 3197,
    "localtime": 3198,
    "\u25816": 3199,
    "\u25810x41e": 3200,
    "\u25810x7da4": 3201,
    "\u2581translat": 3202,
    "\u25810x45f1": 3203,
    "contr": 3204,
    "\u25810xa3": 3205,
    "infow": 3206,
    "75000": 3207,
    "\u25810x4318": 3208,
    "\u25810x8c90": 3209,
    "\u2581setfileattributesw": 3210,
    "\u25810x78d0": 3211,
    "\u2581resum": 3212,
    "\u2581resumethread": 3213,
    "35000": 3214,
    "\u25810x491": 3215,
    "\u2581getdiskfreespaceexw": 3216,
    "808": 3217,
    "\u2581shellexecute": 3218,
    "\u25810x6e": 3219,
    "\u25810x8c30": 3220,
    "\u2581dragob": 3221,
    "\u25810x1211f97": 3222,
    "\u2581translatem": 3223,
    "\u25810x8260": 3224,
    "69000": 3225,
    "\u25810x7cc0": 3226,
    "\u25810xfff4": 3227,
    "function": 3228,
    "ee4": 3229,
    "meto": 3230,
    "79000": 3231,
    "bkcolor": 3232,
    "ground": 3233,
    "\u25810x8ab0": 3234,
    "\u2581download": 3235,
    "5c0": 3236,
    "imeto": 3237,
    "\u25810x169": 3238,
    "\u2581ra": 3239,
    "d4c": 3240,
    "382": 3241,
    "\u25810x7da5": 3242,
    "artup": 3243,
    "\u2581createprocessw": 3244,
    "ccc": 3245,
    "\u25810x107538": 3246,
    "9c2": 3247,
    "fromstream": 3248,
    "768": 3249,
    "\u25810xaa": 3250,
    "71000": 3251,
    "\u25810x406": 3252,
    "\u25810x437820": 3253,
    "ed8": 3254,
    "\u25810x7db4": 3255,
    "504": 3256,
    "can": 3257,
    "iseex": 3258,
    "\u2581raiseex": 3259,
    "\u2581raiseexception": 3260,
    "\u25810x437804": 3261,
    "e8c": 3262,
    "\u25810x7db5": 3263,
    "\u2581terminateprocess": 3264,
    "\u25810x4554": 3265,
    "1e000": 3266,
    "\u25810x8d00": 3267,
    "\u25810x1211f1c": 3268,
    "was": 3269,
    "\u25810x1211f24": 3270,
    "\u2581sendmessagea": 3271,
    "\u25810x8ba0": 3272,
    "\u25810x12119f0": 3273,
    "ok": 3274,
    "\u25810x1211768": 3275,
    "740": 3276,
    "\u2581registers": 3277,
    "a9a0": 3278,
    "\u2581lockresource": 3279,
    "f84": 3280,
    "1c8": 3281,
    "92000": 3282,
    "\u25810x46a0": 3283,
    "\u25810x7870": 3284,
    "\u25810x107598": 3285,
    "\u25810x566a40": 3286,
    "65000": 3287,
    "\u2581setenvironment": 3288,
    "qa": 3289,
    "1c0": 3290,
    "ogram": 3291,
    "myarg2": 3292,
    "\u25810x41a": 3293,
    "\u2581exitthread": 3294,
    "tic": 3295,
    "itors": 3296,
    "\u25810x7060": 3297,
    "\u25810x8bd0": 3298,
    "\u25810x8d20": 3299,
    "controls": 3300,
    "\u25810x107658": 3301,
    "\u2581mpr": 3302,
    "\u25810x4614": 3303,
    "\u25810x41c044": 3304,
    "748": 3305,
    "a9000": 3306,
    "\u2581oleload": 3307,
    "\u25810x1211f84": 3308,
    "\u2581oleloadfromstream": 3309,
    "670": 3310,
    "\u25810x47f0": 3311,
    "\u2581translatemessage": 3312,
    "3d000": 3313,
    "\u25810x4cb0": 3314,
    "owned": 3315,
    "64000": 3316,
    "\u25810x428": 3317,
    "\u25810x4088": 3318,
    "\u2581unmap": 3319,
    "\u25810x12113": 3320,
    "yarg1myarg2": 3321,
    "\u2581unmapviewoffile": 3322,
    "\u25810x7dc8": 3323,
    "atethread": 3324,
    "\u25810x1211ef8": 3325,
    "340": 3326,
    "118": 3327,
    "a5000": 3328,
    "\u25810x8c10": 3329,
    "434": 3330,
    "\u25810x6a6": 3331,
    "\u25810x120faa8": 3332,
    "emutex": 3333,
    "\u25810x107688": 3334,
    "\u25810x42a9a0": 3335,
    "\u2581registerclassa": 3336,
    "once": 3337,
    "\u25810x7ff": 3338,
    "\u25810x8ca0": 3339,
    "\u25810x8cd0": 3340,
    "\u25810x1211de4": 3341,
    "\u2581releasemutex": 3342,
    "\u25810x8be0": 3343,
    "\u258110": 3344,
    "55000": 3345,
    "\u2581shfolder": 3346,
    "edit": 3347,
    "hore": 3348,
    "15000": 3349,
    "ervicectrlhandl": 3350,
    "\u2581registerservicectrlhandl": 3351,
    "\u2581setfileinformationbyhandlew": 3352,
    "\u2581getfileinformationbyhandleexw": 3353,
    "\u25810x7da8": 3354,
    "\u2581terminatethread": 3355,
    "\u25810x8bb0": 3356,
    "\u25810x8c40": 3357,
    "ad000": 3358,
    "delete": 3359,
    "798": 3360,
    "extouta": 3361,
    "\u25810x8c00": 3362,
    "\u25810x10e9": 3363,
    "\u2581selectob": 3364,
    "b5000": 3365,
    "\u25810x12110": 3366,
    "19000": 3367,
    "\u2581noaccess": 3368,
    "\u2581regsetvalueexw": 3369,
    "notin": 3370,
    "direct": 3371,
    "\u2581getlocaltime": 3372,
    "001": 3373,
    "locknot": 3374,
    "a90": 3375,
    "itorsup": 3376,
    "itialized": 3377,
    "ectlocknot": 3378,
    "\u2581monitorsup": 3379,
    "functionnotin": 3380,
    "ectlocknotowned": 3381,
    "functionnotinitialized": 3382,
    "\u2581monitorsupfunctionnotinitialized": 3383,
    "7e000": 3384,
    "witht": 3385,
    "\u25810xffc1": 3386,
    "\u25810xffdd": 3387,
    "\u25810xb0": 3388,
    "\u2581lstrcpya": 3389,
    "\u25810x169bf74": 3390,
    "\u25810x1211f44": 3391,
    "884": 3392,
    "\u25810x5e": 3393,
    "\u25810x45f2": 3394,
    "\u2581allocate": 3395,
    "filewas": 3396,
    "\u25810x7da9": 3397,
    "esid": 3398,
    "specified": 3399,
    "andinitializ": 3400,
    "andinitializesid": 3401,
    "\u2581allocateandinitializesid": 3402,
    "lid": 3403,
    "\u2581postquit": 3404,
    "\u2581postquitmessage": 3405,
    "\u25810x41eb": 3406,
    "\u25810x1075c8": 3407,
    "\u25810x1075f8": 3408,
    "\u25810x107628": 3409,
    "\u2581thespecified": 3410,
    "filewasnotfound": 3411,
    "\u2581thespecifiedfilewasnotfound": 3412,
    "usp": 3413,
    "\u25810x455": 3414,
    "\u25810x188e00": 3415,
    "\u25810x169bf64": 3416,
    "\u25810x414": 3417,
    "204": 3418,
    "efe8": 3419,
    "\u2581conne": 3420,
    "\u2581createdi": 3421,
    "\u25810x417d": 3422,
    "will": 3423,
    "\u25810x71b0": 3424,
    "foreground": 3425,
    "foregroundwindow": 3426,
    "coree": 3427,
    "\u2581mscoree": 3428,
    "439": 3429,
    "\u25810x188d3c": 3430,
    "409": 3431,
    "\u2581wts": 3432,
    "\u2581geticon": 3433,
    "54000": 3434,
    "hem": 3435,
    "\u2581version": 3436,
    "\u25810x4990": 3437,
    "\u25810x1210c": 3438,
    "\u25810x7a10": 3439,
    "\u2581install": 3440,
    "\u258112": 3441,
    "os": 3442,
    "904": 3443,
    "ervicehandle": 3444,
    "\u2581closeservicehandle": 3445,
    "ivate": 3446,
    "uni": 3447,
    "a0f": 3448,
    "\u25810x1211e18": 3449,
    "\u2581setbkcolor": 3450,
    "scmanag": 3451,
    "\u25810x4828": 3452,
    "\u25810x42c5d0": 3453,
    "\u2581openscmanag": 3454,
    "nexec": 3455,
    "\u2581winexec": 3456,
    "\u2581findwindowa": 3457,
    "\u25810x27": 3458,
    "private": 3459,
    "370": 3460,
    "\u2581tmp": 3461,
    "34c": 3462,
    "ope": 3463,
    "\u25810x7b10": 3464,
    "\u2581copyfilew": 3465,
    "984": 3466,
    "\u2581getdi": 3467,
    "privateprofile": 3468,
    "ecc": 3469,
    "\u25810x51": 3470,
    "vchost": 3471,
    "servicestatus": 3472,
    "544": 3473,
    "3c0": 3474,
    "25000": 3475,
    "longa": 3476,
    "\u25810x4096": 3477,
    "len": 3478,
    "enthread": 3479,
    "\u25810x4a20": 3480,
    "\u2581createf": 3481,
    "\u2581dw": 3482,
    "\u25810x7d50": 3483,
    "\u2581openthread": 3484,
    "9a000": 3485,
    "\u2581oleinitialize": 3486,
    "\u2581svchost": 3487,
    "\u25810x1211f80": 3488,
    "9c4": 3489,
    "a70": 3490,
    "43000": 3491,
    "\u25810x41de": 3492,
    "\u25810x42efe8": 3493,
    "b8000": 3494,
    "\u25810x188e24": 3495,
    "\u2581textouta": 3496,
    "bc000": 3497,
    "\u25810x54000": 3498,
    "\u25810x1211fdc": 3499,
    "\u2581setcurrent": 3500,
    "\u25810x79c0": 3501,
    "\u2581bit": 3502,
    "ab000": 3503,
    "\u25810x8d60": 3504,
    "\u25810x2439f74": 3505,
    "\u2581dispatchmessagea": 3506,
    "\u25810x7b40": 3507,
    "\u2581hg": 3508,
    "45000": 3509,
    "unicode": 3510,
    "\u25810x4010": 3511,
    "\u25810xfc": 3512,
    "\u2581htons": 3513,
    "928": 3514,
    "\u2581try": 3515,
    "\u25810xffc7": 3516,
    "\u2581getcurrentdirectorya": 3517,
    "\u2581yo": 3518,
    "\u25810x410770": 3519,
    "678": 3520,
    "9c0": 3521,
    "\u2581hgdraw": 3522,
    "34000": 3523,
    "\u25810x438": 3524,
    "\u2581deletedc": 3525,
    "435": 3526,
    "24000": 3527,
    "9c000": 3528,
    "\u25810x110": 3529,
    "\u25810x10e9bc": 3530,
    "ad8": 3531,
    "3c000": 3532,
    "\u25810x4115": 3533,
    "\u2581socket": 3534,
    "dc0": 3535,
    "14000": 3536,
    "\u2581pleas": 3537,
    "32000": 3538,
    "securityinfo": 3539,
    "\u2581createcompatibledc": 3540,
    "3e0": 3541,
    "2e000": 3542,
    "\u25810x75d0": 3543,
    "data": 3544,
    "12000": 3545,
    "a8000": 3546,
    "\u2581susp": 3547,
    "\u2581bitblt": 3548,
    "\u2581regedit": 3549,
    "utd": 3550,
    "7c000": 3551,
    "1a000": 3552,
    "\u2581getclassinfoa": 3553,
    "16000": 3554,
    "aterect": 3555,
    "437": 3556,
    "18000": 3557,
    "6c000": 3558,
    "\u25810x42b9": 3559,
    "56000": 3560,
    "\u2581settext": 3561,
    "28000": 3562,
    "windows": 3563,
    "\u25810x4232": 3564,
    "\u25810xcf0000": 3565,
    "\u2581suspend": 3566,
    "\u2581suspendthread": 3567,
    "\u2581createcompatiblebitmap": 3568,
    "5c000": 3569,
    "74000": 3570,
    "olid": 3571,
    "1b000": 3572,
    "a2000": 3573,
    "\u2581freesid": 3574,
    "\u25810x7dac": 3575,
    "\u25810x7dad": 3576,
    "\u25810x8f70": 3577,
    "\u2581setwindowpos": 3578,
    "62000": 3579,
    "9b000": 3580,
    "9e000": 3581,
    "\u25810x4111": 3582,
    "\u25810xb000": 3583,
    "\u2581openscmanagerw": 3584,
    "70c": 3585,
    "93000": 3586,
    "viewof": 3587,
    "\u2581getob": 3588,
    "\u2581wsast": 3589,
    "mapviewof": 3590,
    "\u2581settimer": 3591,
    "\u2581wsastartup": 3592,
    "mapviewofsection": 3593,
    "72000": 3594,
    "7b000": 3595,
    "wind": 3596,
    "44000": 3597,
    "b4000": 3598,
    "\u25810x7030": 3599,
    "\u25810x42a190": 3600,
    "344": 3601,
    "e2b": 3602,
    "3e000": 3603,
    "3f000": 3604,
    "6b000": 3605,
    "\u25810xc0": 3606,
    "38000": 3607,
    "\u25810x20000": 3608,
    "98000": 3609,
    "ae000": 3610,
    "\u2581rtlinit": 3611,
    "7a000": 3612,
    "af000": 3613,
    "b2000": 3614,
    "ontindirect": 3615,
    "\u2581createfontindirect": 3616,
    "7f000": 3617,
    "\u2581createservice": 3618,
    "base": 3619,
    "\u25810x50850": 3620,
    "olidbrush": 3621,
    "\u2581createsolidbrush": 3622,
    "aa000": 3623,
    "\u2581openservicew": 3624,
    "76000": 3625,
    "\u25810x4700": 3626,
    "unicodestring": 3627,
    "1c000": 3628,
    "\u25810x169bf94": 3629,
    "\u25810x563": 3630,
    "\u25810x4470": 3631,
    "\u2581gdip": 3632,
    "\u25810x8814": 3633,
    "287e": 3634,
    "48000": 3635,
    "a4000": 3636,
    "\u25810x84b0": 3637,
    "\u2581settextcolor": 3638,
    "\u2581getforegroundwindow": 3639,
    "301": 3640,
    "d44": 3641,
    "unwind": 3642,
    "\u25810x45f4": 3643,
    "\u2581rtlunwind": 3644,
    "58000": 3645,
    "78000": 3646,
    "\u2581rtlinitunicodestring": 3647,
    "d18": 3648,
    "207": 3649,
    "66000": 3650,
    "\u25810x1210df": 3651,
    "284": 3652,
    "66c": 3653,
    "22000": 3654,
    "\u2581startservicew": 3655,
    "42000": 3656,
    "96000": 3657,
    "c4000": 3658,
    "\u25810x7a50": 3659,
    "\u25810x422a0": 3660,
    "a48": 3661,
    "f30": 3662,
    "2c000": 3663,
    "\u2581starts": 3664,
    "dispatch": 3665,
    "\u2581drawtexta": 3666,
    "\u2581startservicectrl": 3667,
    "\u2581startservicectrldispatch": 3668,
    "5e000": 3669,
    "68000": 3670,
    "\u2581getdibits": 3671,
    "\u2581setservicestatus": 3672,
    "d40": 3673,
    "ec4": 3674,
    "67000": 3675,
    "6e000": 3676,
    "\u25810x8310": 3677,
    "\u25810x60c690": 3678,
    "b0c": 3679,
    "696e": 3680,
    "3b000": 3681,
    "\u25810x42168": 3682,
    "94000": 3683,
    "instal": 3684,
    "\u25810x569": 3685,
    "\u2581at": 3686,
    "\u2581fill": 3687,
    "\u2581createservicew": 3688,
    "\u2581invalidaterect": 3689,
    "a6000": 3690,
    "empty": 3691,
    "\u25810x7750": 3692,
    "\u2581connect": 3693,
    "\u2581getusernamew": 3694,
    "\u2581nto": 3695,
    "6669": 3696,
    "4c000": 3697,
    "df000": 3698,
    "\u2581startservicectrldispatcherw": 3699,
    "\u25810x74e0": 3700,
    "dac": 3701,
    "dat": 3702,
    "be000": 3703,
    "\u25810x7af0": 3704,
    "\u25810x7db1": 3705,
    "\u2581acquiresrwlockexclusive": 3706,
    "\u2581getp": 3707,
    "lipboard": 3708,
    "d68": 3709,
    "\u25810x42b964": 3710,
    "cp": 3711,
    "\u25810x7390": 3712,
    "\u25810x5c000": 3713,
    "\u25810x42d8": 3714,
    "b14": 3715,
    "dup": 3716,
    "a02": 3717,
    "\u25810x644": 3718,
    "\u25810x4112": 3719,
    "\u2581gethost": 3720,
    "utdown": 3721,
    "ebe": 3722,
    "\u25810x7cf0": 3723,
    "330": 3724,
    "6b69": 3725,
    "env": 3726,
    "\u2581run": 3727,
    "\u2581bind": 3728,
    "\u25810x45f5": 3729,
    "\u2581getcomputer": 3730,
    "heme": 3731,
    "\u2581uxt": 3732,
    "\u2581uxtheme": 3733,
    "\u25810x1211d30": 3734,
    "f58": 3735,
    "mb": 3736,
    "nenum": 3737,
    "\u25810x40b3": 3738,
    "\u25810x7210": 3739,
    "\u25810x45f3": 3740,
    "\u25810x7ae0": 3741,
    "\u25810x8090": 3742,
    "\u2581getsyscolorbrush": 3743,
    "\u25810x40ab": 3744,
    "\u25810x72d0": 3745,
    "ddata": 3746,
    "\u25810x45f8": 3747,
    "\u2581getlogicaldrivestringsw": 3748,
    "\u25810x4400": 3749,
    "\u25810xfeee014": 3750,
    "\u2581controlfp": 3751,
    "\u2581destroyicon": 3752,
    "\u25810x45f6": 3753,
    "openenum": 3754,
    "\u25810x435000": 3755,
    "\u25810x1211db8": 3756,
    "\u2581wnetopenenum": 3757,
    "ecta": 3758,
    "\u25810x7600": 3759,
    "\u25810x423326": 3760,
    "\u25810x423327": 3761,
    "\u2581wnetopenenumw": 3762,
    "if": 3763,
    "\u25810x4cf": 3764,
    "958": 3765,
    "\u25810x22e": 3766,
    "\u25810x45f7": 3767,
    "\u25810x45f9": 3768,
    "\u25810x7a20": 3769,
    "\u25810x51000": 3770,
    "byname": 3771,
    "\u25810x71e0": 3772,
    "\u2581regquery": 3773,
    "\u25810x40b8": 3774,
    "\u25810x45fa": 3775,
    "\u25810x9020": 3776,
    "\u25810x30000": 3777,
    "\u2581gethostbyname": 3778,
    "\u25810d0a": 3779,
    "2e6669": 3780,
    "73696e": 3781,
    "6b692e6669": 3782,
    "73696e6b692e6669": 3783,
    "acd": 3784,
    "d50": 3785,
    "\u2581createfontindirecta": 3786,
    "\u25810x75a0": 3787,
    "download": 3788,
    "1d8": 3789,
    "\u25810x7240": 3790,
    "\u25810x7e4": 3791,
    "\u25810x45fe": 3792,
    "ef0": 3793,
    "\u2581getkeystate": 3794,
    "hip": 3795,
    "a730": 3796,
    "a30": 3797,
    "\u2581tryac": 3798,
    "ver": 3799,
    "\u25810x401": 3800,
    "\u25810x7660": 3801,
    "\u25810x79a0": 3802,
    "\u2581commode": 3803,
    "\u2581findfirstfilea": 3804,
    "\u2581tryacquiresrwlockexclusive": 3805,
    "d84": 3806,
    "\u25810x7720": 3807,
    "members": 3808,
    "\u25810x4601": 3809,
    "\u25810x1211d08": 3810,
    "\u25810xffde": 3811,
    "\u2581wnetenum": 3812,
    "membership": 3813,
    "\u2581checktoken": 3814,
    "\u2581wnetenumresourcew": 3815,
    "\u2581checktokenmembership": 3816,
    "\u25810x8d30": 3817,
    "\u25810x45fd": 3818,
    "\u25810x76f0": 3819,
    "\u2581fillrect": 3820,
    "a5c": 3821,
    "\u2581wnetadd": 3822,
    "\u25810xf0": 3823,
    "\u25810x45ff": 3824,
    "\u25810x76c0": 3825,
    "\u2581createdib": 3826,
    "\u2581wnetaddconnection2w": 3827,
    "ysi": 3828,
    "\u2581mov": 3829,
    "\u25810x7480": 3830,
    "\u25810x7ba0": 3831,
    "\u25810x52000": 3832,
    "00a": 3833,
    "\u25810x7180": 3834,
    "\u25810x63000000": 3835,
    "\u25810xab": 3836,
    "\u25810x80e0": 3837,
    "728": 3838,
    "\u2581exem": 3839,
    "\u25810x2ac": 3840,
    "\u2581exemyarg1myarg2": 3841,
    "\u2581createdibsection": 3842,
    "f8000": 3843,
    "cept": 3844,
    "\u25810x7120": 3845,
    "6e0": 3846,
    "\u25810x7570": 3847,
    "\u25810x40a5ac": 3848,
    "720": 3849,
    "\u25810x40ac": 3850,
    "\u25810x70c0": 3851,
    "\u25810x7330": 3852,
    "\u25810x77b0": 3853,
    "\u2581recv": 3854,
    "\u25810x74b0": 3855,
    "cancel": 3856,
    "\u25810x41f3": 3857,
    "\u25810x7360": 3858,
    "tp": 3859,
    "\u25810x7840": 3860,
    "\u25810x8d50": 3861,
    "\u2581wnetcancel": 3862,
    "\u2581wnetcancelconnection2w": 3863,
    "\u25810x7990": 3864,
    "losec": 3865,
    "\u25810x7510": 3866,
    "\u25810x7960": 3867,
    "\u25810x8280": 3868,
    "a38": 3869,
    "hysi": 3870,
    "\u25810x41b0": 3871,
    "f70": 3872,
    "\u2581bat": 3873,
    "\u2581registerwindowmessagew": 3874,
    "\u2581y": 3875,
    "\u25810x42fb": 3876,
    "bc5": 3877,
    "\u25810x7420": 3878,
    "\u25810x7450": 3879,
    "reque": 3880,
    "\u25810x73c0": 3881,
    "\u2581geticoninfo": 3882,
    "68c": 3883,
    "\u2581setclass": 3884,
    "600": 3885,
    "\u25810x70f0": 3886,
    "\u25810x7630": 3887,
    "9f0": 3888,
    "\u2581drawicon": 3889,
    "\u25810x42b0": 3890,
    "\u2581getkeyboardstate": 3891,
    "130": 3892,
    "1cc": 3893,
    "\u2581setclipboar": 3894,
    "\u2581setclipboarddata": 3895,
    "\u2581openclipboard": 3896,
    "\u2581empty": 3897,
    "\u2581closec": 3898,
    "\u25810x40a3e": 3899,
    "\u2581closeclipboard": 3900,
    "528": 3901,
    "\u25810x4093e8": 3902,
    "\u2581createsemaphore": 3903,
    "\u2581emptyclipboard": 3904,
    "358": 3905,
    "\u25810x4093e5": 3906,
    "\u25810x4093e6": 3907,
    "\u25810x4093e7": 3908,
    "\u25810xac": 3909,
    "\u25810x7780": 3910,
    "\u2581closesocket": 3911,
    "sw": 3912,
    "emory": 3913,
    "\u25810x4cf0": 3914,
    "\u25810x7b70": 3915,
    "\u2581shellexecut": 3916,
    "regi": 3917,
    "\u25810x8815": 3918,
    "internet": 3919,
    "78c": 3920,
    "common": 3921,
    "\u25810x181b70": 3922,
    "\u2581initcommon": 3923,
    "\u2581initcommoncontrols": 3924,
    "b84": 3925,
    "\u2581sc": 3926,
    "\u2581setclasslonga": 3927,
    "124": 3928,
    "\u2581physi": 3929,
    "\u2581physical": 3930,
    "\u2581releases": 3931,
    "93e": 3932,
    "iserror": 3933,
    "\u25810x41a044": 3934,
    "1a4": 3935,
    "\u2581extractassociatediconw": 3936,
    "\u25819": 3937,
    "\u25810x4340": 3938,
    "\u2581extractassociatedicona": 3939,
    "pi": 3940,
    "eer": 3941,
    "vis": 3942,
    "\u2581shellexecuteexw": 3943,
    "rn": 3944,
    "geo": 3945,
    "\u2581list": 3946,
    "\u25810x1e5": 3947,
    "atalogs": 3948,
    "\u25810x1211ee8": 3949,
    "12c": 3950,
    "43c": 3951,
    "\u25810x4c4": 3952,
    "\u2581strcmp": 3953,
    "zer": 3954,
    "zerom": 3955,
    "\u2581rtlzerom": 3956,
    "\u2581rtlzeromemory": 3957,
    "7b8": 3958,
    "ae0": 3959,
    "\u2581shutdown": 3960,
    "3a8": 3961,
    "\u25810x7dc0": 3962,
    "\u2581findwindowexa": 3963,
    "dateresourcew": 3964,
    "rnl": 3965,
    "40b": 3966,
    "565": 3967,
    "\u2581endup": 3968,
    "6c4": 3969,
    "700": 3970,
    "\u2581registerservicectrlhandlerw": 3971,
    "resourcea": 3972,
    "\u2581messageboxa": 3973,
    "\u2581updateresourcea": 3974,
    "\u2581endupdateresourcea": 3975,
    "\u2581getdiskfreespaceexa": 3976,
    "\u2581beginupdateresourcea": 3977,
    "geoid": 3978,
    "\u2581getusergeoid": 3979,
    "\u25810x1211f54": 3980,
    "anf": 3981,
    "50000": 3982,
    "\u25810x1211938": 3983,
    "\u25810x480": 3984,
    "\u2581beginupdateresourcew": 3985,
    "toc": 3986,
    "skrnl": 3987,
    "\u25810xfff3": 3988,
    "\u2581userenv": 3989,
    "\u25810x48f894": 3990,
    "\u2581ntoskrnl": 3991,
    "e84": 3992,
    "\u2581htonl": 3993,
    "\u25810x40f937": 3994,
    "plor": 3995,
    "718": 3996,
    "e10": 3997,
    "\u25810x7ef0": 3998,
    "d28": 3999,
    "f60": 4000,
    "ticonex": 4001,
    "\u2581extracticonex": 4002,
    "\u25810x4606": 4003,
    "\u2581extracticonexw": 4004,
    "anfdr": 4005,
    "\u2581sanfdr": 4006,
    "octls": 4007,
    "\u2581ioctls": 4008,
    "\u2581ioctlsocket": 4009,
    "\u2581vc": 4010,
    "plorer": 4011,
    "\u2581findresourcea": 4012,
    "\u25810x1e00000": 4013,
    "\u25810x1e50000": 4014,
    "704": 4015,
    "\u25810x7ec4": 4016,
    "\u2581memset": 4017,
    "3e6": 4018,
    "\u25810xea": 4019,
    "\u2581listen": 4020,
    "pre": 4021,
    "502": 4022,
    "1c4": 4023,
    "698": 4024,
    "5b0": 4025,
    "\u25810x417c": 4026,
    "\u25810x5937": 4027,
    "\u25810x7db9": 4028,
    "\u2581accept": 4029,
    "\u25810x4093e9": 4030,
    "\u25810x4093ea": 4031,
    "\u25810x4093eb": 4032,
    "\u25810x22002": 4033,
    "d0c": 4034,
    "\u25810xb0000": 4035,
    "\u2581move": 4036,
    "\u2581remove": 4037,
    "\u2581getvolumeinformationa": 4038,
    "\u25810x62": 4039,
    "mapi": 4040,
    "dc4": 4041,
    "eername": 4042,
    "\u2581getpeername": 4043,
    "\u25810x78c0": 4044,
    "\u25810x7db8": 4045,
    "tiv": 4046,
    "\u2581setthreadlocale": 4047,
    "730": 4048,
    "ab4": 4049,
    "\u2581net": 4050,
    "inter": 4051,
    "\u25810x140": 4052,
    "d8c": 4053,
    "c8c": 4054,
    "731": 4055,
    "\u25810x616": 4056,
    "\u25810x7230": 4057,
    "cc4": 4058,
    "lay": 4059,
    "\u2581txt": 4060,
    "\u25810x2ac45": 4061,
    "\u25810x7b000": 4062,
    "994": 4063,
    "\u2581dwmapi": 4064,
    "76f": 4065,
    "ded": 4066,
    "\u25810x4170": 4067,
    "\u2581filet": 4068,
    "\u2581filetimeto": 4069,
    "\u25810x7ed0": 4070,
    "\u25810x40287e": 4071,
    "684": 4072,
    "\u25810xa6": 4073,
    "\u25810x1211e54": 4074,
    "\u2581cryptbase": 4075,
    "\u2581sr": 4076,
    "\u25810x43f": 4077,
    "\u25810x4614d0": 4078,
    "\u2581removedirectory": 4079,
    "\u25810x4e5c": 4080,
    "\u258128": 4081,
    "\u25812d": 4082,
    "9b5c": 4083,
    "ession": 4084,
    "\u25810x40935d": 4085,
    "\u25810x40935e": 4086,
    "\u25810x40935f": 4087,
    "\u25810x409360": 4088,
    "\u25810x409361": 4089,
    "\u25810x409362": 4090,
    "\u25810x409363": 4091,
    "youwantto": 4092,
    "f38": 4093,
    "runtime": 4094,
    "\u25810xffcb": 4095,
    "920": 4096,
    "f46": 4097,
    "runtime140": 4098,
    "\u2581vcruntime140": 4099,
    "\u25810x41cc": 4100,
    "\u25810x7dbc": 4101,
    "erat": 4102,
    "\u25810x4177": 4103,
    "\u25810x569b48": 4104,
    "item": 4105,
    "\u25810x42f": 4106,
    "\u25810x70a8": 4107,
    "b48": 4108,
    "\u25810x4c0": 4109,
    "\u2581are": 4110,
    "\u25810x7c40": 4111,
    "\u25810x169bc": 4112,
    "\u25810x401000": 4113,
    "1e4": 4114,
    "\u25810x7dbd": 4115,
    "\u25810x41f7": 4116,
    "758": 4117,
    "\u25810x7ec8": 4118,
    "\u25810x43400": 4119,
    "\u25810x3f3000": 4120,
    "\u25810x4307e0": 4121,
    "af4": 4122,
    "\u25810x7ec5": 4123,
    "\u25810x43a4": 4124,
    "\u25810x7ec9": 4125,
    "00e": 4126,
    "withtag": 4127,
    "poolwithtag": 4128,
    "\u2581exallocate": 4129,
    "\u2581exallocatepoolwithtag": 4130,
    "10c": 4131,
    "15c": 4132,
    "\u2581pi": 4133,
    "\u25810x4c10": 4134,
    "\u25810x42e5f8": 4135,
    "404": 4136,
    "fc2": 4137,
    "fa8": 4138,
    "\u25810x7dc1": 4139,
    "\u25810x9030": 4140,
    "\u2581ndr": 4141,
    "\u2581shgetfile": 4142,
    "\u25810x4240": 4143,
    "\u2581ndrd": 4144,
    "ceex": 4145,
    "\u2581memcpy": 4146,
    "738": 4147,
    "ae8": 4148,
    "\u2581setdll": 4149,
    "\u2581isc": 4150,
    "\u25810x40b4": 4151,
    "54c": 4152,
    "\u258114": 4153,
    "\u258130": 4154,
    "\u25810x7f10": 4155,
    "\u25810x42fc38": 4156,
    "\u25810x47ee": 4157,
    "dl": 4158,
    "1f8": 4159,
    "\u25810x3f30": 4160,
    "9d8": 4161,
    "b20": 4162,
    "\u258118": 4163,
    "200": 4164,
    "\u25810x7edc": 4165,
    "\u25810x43b6e": 4166,
    "\u2581ns": 4167,
    "\u25810x42fbf0": 4168,
    "7ec": 4169,
    "\u25810x7e00": 4170,
    "\u25810x70000": 4171,
    "e00": 4172,
    "els": 4173,
    "\u25810xffca": 4174,
    "199": 4175,
    "\u25810x560": 4176,
    "90c": 4177,
    "\u2581shellexecutew": 4178,
    "148": 4179,
    "6e8": 4180,
    "db0": 4181,
    "\u2581nsiserror": 4182,
    "7dc": 4183,
    "\u2581charpre": 4184,
    "d83": 4185,
    "\u2581exed": 4186,
    "\u25810x4540": 4187,
    "\u25810xc8": 4188,
    "\u25810x4208": 4189,
    "\u25810x90f0": 4190,
    "\u2581filenotfound": 4191,
    "178": 4192,
    "fdd": 4193,
    "\u25810x4c51": 4194,
    "963": 4195,
    "\u25810x7ecc": 4196,
    "\u25810x7ecd": 4197,
    "686": 4198,
    "f40": 4199,
    "\u2581exedows": 4200,
    "b10": 4201,
    "605": 4202,
    "\u25810x3f4000": 4203,
    "\u2581registerclassexw": 4204,
    "a0c": 4205,
    "006": 4206,
    "\u25810x1211ce0": 4207,
    "\u258124": 4208,
    "950": 4209,
    "\u25810x1211b08": 4210,
    "\u25810x42e0": 4211,
    "e04": 4212,
    "\u25810x561": 4213,
    "\u25810x7ed1": 4214,
    "\u25810x66": 4215,
    "\u25810xffc8": 4216,
    "\u25810x434": 4217,
    "ere": 4218,
    "6d8": 4219,
    "ad4": 4220,
    "\u25810x4e5e": 4221,
    "af0": 4222,
    "cid": 4223,
    "\u25810x7a2": 4224,
    "114": 4225,
    "60c": 4226,
    "ready": 4227,
    "\u25810x40a0": 4228,
    "\u2581getcomputernamea": 4229,
    "\u2581getprivateprofile": 4230,
    "vice": 4231,
    "794": 4232,
    "\u25810xfff2": 4233,
    "\u25810x9d": 4234,
    "\u25810xfeee015": 4235,
    "dos": 4236,
    "\u25810x484": 4237,
    "\u25810x64000": 4238,
    "\u25810x7e0": 4239,
    "dformat": 4240,
    "\u2581instal": 4241,
    "278": 4242,
    "\u25810x181": 4243,
    "7ac": 4244,
    "\u25810x96": 4245,
    "\u2581lstrc": 4246,
    "\u25810x518": 4247,
    "99b": 4248,
    "b98": 4249,
    "\u25810x424": 4250,
    "378": 4251,
    "\u25810x68000": 4252,
    "\u2581createwindow": 4253,
    "9e8": 4254,
    "\u2581202": 4255,
    "\u2581youm": 4256,
    "ig": 4257,
    "164": 4258,
    "\u2581can": 4259,
    "\u25810x9f": 4260,
    "\u2581createwindowexw": 4261,
    "\u2581sa": 4262,
    "\u25810x56b": 4263,
    "9d0": 4264,
    "\u2581dup": 4265,
    "application": 4266,
    "eec": 4267,
    "d6c": 4268,
    "\u25810x429e": 4269,
    "\u25810x409aa4": 4270,
    "\u25810xfeee011": 4271,
    "ssp": 4272,
    "\u25810x7d20": 4273,
    "\u25810x409aa5": 4274,
    "oem": 4275,
    "\u25810xffd4": 4276,
    "onexit": 4277,
    "\u2581releasesrwlockexclusive": 4278,
    "\u2581setdlldirectoryw": 4279,
    "d8000": 4280,
    "\u25810x1808": 4281,
    "\u2581findnextfilea": 4282,
    "\u25810x81": 4283,
    "\u25810x7070": 4284,
    "\u25810xffc9": 4285,
    "985": 4286,
    "\u25810x468": 4287,
    "\u2581back": 4288,
    "install": 4289,
    "\u25810xf8": 4290,
    "\u25810x7460": 4291,
    "\u25810x7ed4": 4292,
    "\u25810x7ed8": 4293,
    "\u25810x7ed9": 4294,
    "3b8": 4295,
    "mit": 4296,
    "\u25810x415": 4297,
    "\u25810x7f8003": 4298,
    "\u25810x7f8004": 4299,
    "\u25810x7f8005": 4300,
    "\u25810x7f8006": 4301,
    "\u25810x7f8007": 4302,
    "\u25810x7f8008": 4303,
    "\u25810x7f8009": 4304,
    "\u25810x7f800a": 4305,
    "\u25810x7f800b": 4306,
    "\u25810x7f800c": 4307,
    "\u25810x7f800d": 4308,
    "560": 4309,
    "664": 4310,
    "db5": 4311,
    "\u25810xbd": 4312,
    "areex": 4313,
    "\u2581device": 4314,
    "\u25810x7f800e": 4315,
    "dcompareex": 4316,
    "dcompareexchange": 4317,
    "\u2581interlockedcompareexchange": 4318,
    "403": 4319,
    "fad": 4320,
    "\u2581srand": 4321,
    "\u25810x74d0": 4322,
    "310": 4323,
    "\u25810x4607": 4324,
    "\u2581ntquery": 4325,
    "\u25810x7f800f": 4326,
    "\u2581security": 4327,
    "\u25810x1211f50": 4328,
    "\u2581duplic": 4329,
    "\u25810x502dc": 4330,
    "\u2581isctype": 4331,
    "adm": 4332,
    "\u25810x45fb": 4333,
    "11c": 4334,
    "\u25810x11000": 4335,
    "64c": 4336,
    "7d0": 4337,
    "\u2581msvcr90": 4338,
    "\u25810x1211ed8": 4339,
    "697": 4340,
    "6500000": 4341,
    "\u25810x120e6d8": 4342,
    "\u2581setcurrentdirectorya": 4343,
    "\u25810x7edd": 4344,
    "\u2581isvalidlocale": 4345,
    "only": 4346,
    "\u25810x1211fbc": 4347,
    "bd0": 4348,
    "etype": 4349,
    "\u25810x4d5": 4350,
    "\u25810x40a58c": 4351,
    "\u2581your": 4352,
    "\u25810x71c0": 4353,
    "\u25810x1211584": 4354,
    "\u25810x4086": 4355,
    "1e8": 4356,
    "318": 4357,
    "\u25810x40a57c": 4358,
    "784": 4359,
    "7bc": 4360,
    "b4c": 4361,
    "\u2581cl": 4362,
    "990": 4363,
    "\u258111": 4364,
    "\u2581vers": 4365,
    "228": 4366,
    "\u25810x1211fb8": 4367,
    "66e": 4368,
    "\u25810x5265c28": 4369,
    "\u25810x7620": 4370,
    "\u25810x120e6d4": 4371,
    "\u2581setfilepointerex": 4372,
    "ich": 4373,
    "\u2581getsystemtimes": 4374,
    "\u2581setenvironmentvariablea": 4375,
    "\u25810x1211888": 4376,
    "\u25810x1211b74": 4377,
    "has": 4378,
    "\u25810x5f6": 4379,
    "\u2581opena": 4380,
    "\u25810x4200": 4381,
    "\u25810x47e0": 4382,
    "7e8": 4383,
    "998": 4384,
    "stringw": 4385,
    "\u2581initcommoncontrolsex": 4386,
    "\u25810x9e": 4387,
    "\u25810xfeee018": 4388,
    "accel": 4389,
    "778": 4390,
    "fec": 4391,
    "ms": 4392,
    "\u25810x4c4230": 4393,
    "a78": 4394,
    "\u25810x6970": 4395,
    "\u25810x8920": 4396,
    "\u25810x42a730": 4397,
    "\u25810x42a731": 4398,
    "\u25810x4c4248": 4399,
    "\u25810x4c4260": 4400,
    "\u25810x4c4278": 4401,
    "\u25810x4c4290": 4402,
    "\u25810x4c42a8": 4403,
    "\u25810x4c4320": 4404,
    "\u25810x4c4338": 4405,
    "\u25810x4c4350": 4406,
    "\u25810x4c4368": 4407,
    "\u25810x2200220": 4408,
    "a60": 4409,
    "d70": 4410,
    "this": 4411,
    "\u25810x7cb0": 4412,
    "\u25810x411": 4413,
    "kart": 4414,
    "\u25810xbe": 4415,
    "karton": 4416,
    "\u25810x70e0": 4417,
    "\u25810x1211808": 4418,
    "\u25810x1211b50": 4419,
    "sa": 4420,
    "\u25810x72d8": 4421,
    "5e8": 4422,
    "\u2581log": 4423,
    "\u25810x130": 4424,
    "cc000": 4425,
    "\u25810x7ee4": 4426,
    "\u25810x200020": 4427,
    "\u25810x12117f4": 4428,
    "144": 4429,
    "79b": 4430,
    "bcc": 4431,
    "d38": 4432,
    "roll": 4433,
    "\u25810x8554": 4434,
    "e74": 4435,
    "\u25810x7b60": 4436,
    "\u2581getdriv": 4437,
    "ce9": 4438,
    "9c24": 4439,
    "\u25810xff86": 4440,
    "\u2581verset": 4441,
    "conditionmask": 4442,
    "\u2581versetconditionmask": 4443,
    "\u2581getdrivetype": 4444,
    "\u25810xe00": 4445,
    "\u25810x434d": 4446,
    "\u25810x429a81": 4447,
    "\u25810x7ed5": 4448,
    "\u2581sys": 4449,
    "\u25810x416d": 4450,
    "ab5": 4451,
    "\u25810x40a3f": 4452,
    "\u25810x437ae4": 4453,
    "e0c": 4454,
    "\u2581work": 4455,
    "\u25810x437207": 4456,
    "\u25810x437208": 4457,
    "\u25810x437ad2": 4458,
    "\u25810x437ad3": 4459,
    "\u25810x437ae3": 4460,
    "\u25810x437b63": 4461,
    "\u25810x437b64": 4462,
    "\u25810x437b7b": 4463,
    "\u25810x437b7c": 4464,
    "\u25810x437bbd": 4465,
    "\u25810x437bbe": 4466,
    "\u25810x437bce": 4467,
    "\u25810x437bcf": 4468,
    "\u25810x437c42": 4469,
    "\u25810x437c43": 4470,
    "ncy": 4471,
    "\u258135": 4472,
    "\u25810x4604": 4473,
    "\u25810x4605": 4474,
    "\u25810x1211790": 4475,
    "ceb": 4476,
    "ansi": 4477,
    "ning": 4478,
    "\u25810x1211b54": 4479,
    "644": 4480,
    "eb4": 4481,
    "ist": 4482,
    "\u25810x4c5158": 4483,
    "220": 4484,
    "\u25810x7310": 4485,
    "\u2581getoem": 4486,
    "\u25810x429e2b": 4487,
    "\u25810x429e2c": 4488,
    "\u25810x434d1c": 4489,
    "\u25810x43b7a9": 4490,
    "\u25810x43b7aa": 4491,
    "inki": 4492,
    "\u25810x7380": 4493,
    "\u25810x75b0": 4494,
    "\u25810x43b7b8": 4495,
    "\u25810x940000": 4496,
    "run": 4497,
    "70000": 4498,
    "requency": 4499,
    "\u25810x422ebe": 4500,
    "\u25810x43b7b3": 4501,
    "\u25810x43b7b4": 4502,
    "\u25810x43b7ba": 4503,
    "\u25810x43b7c4": 4504,
    "\u258134": 4505,
    "apis": 4506,
    "\u25810x7770": 4507,
    "\u2581getoemcp": 4508,
    "nam": 4509,
    "\u25810x1fa": 4510,
    "cefrequency": 4511,
    "\u2581queryperformancefrequency": 4512,
    "\u25810x7038": 4513,
    "\u25810x99e0": 4514,
    "b68": 4515,
    "printer": 4516,
    "\u2581lstrcata": 4517,
    "61c": 4518,
    "72c": 4519,
    "prec": 4520,
    "\u25810x534": 4521,
    "\u25810x7b98": 4522,
    "620": 4523,
    "9b4": 4524,
    "\u2581print": 4525,
    "\u25810xff69": 4526,
    "\u25810xffd1": 4527,
    "\u2581hels": 4528,
    "\u2581helsinki": 4529,
    "150": 4530,
    "dfc": 4531,
    "\u25810x1210e30": 4532,
    "\u25810x7ee1": 4533,
    "apisansi": 4534,
    "\u2581arefile": 4535,
    "\u2581arefileapisansi": 4536,
    "0048": 4537,
    "\u25810x52668": 4538,
    "744": 4539,
    "\u25810x1211438": 4540,
    "360": 4541,
    "\u25810x46c0": 4542,
    "\u25810x188e4c": 4543,
    "f318": 4544,
    "leasec": 4545,
    "\u25810x4608": 4546,
    "im": 4547,
    "77c": 4548,
    "ail": 4549,
    "onceex": 4550,
    "\u25810x4196": 4551,
    "\u25810x44180": 4552,
    "ecuteonce": 4553,
    "\u2581initonceex": 4554,
    "\u2581initonceexecuteonce": 4555,
    "38c": 4556,
    "\u25810x461518": 4557,
    "7d8": 4558,
    "\u25810x7118": 4559,
    "248": 4560,
    "\u25810x71f8": 4561,
    "\u25810x7268": 4562,
    "\u25810x82c0": 4563,
    "nexplorer": 4564,
    "96c": 4565,
    "d58": 4566,
    "f28": 4567,
    "\u25810x41c": 4568,
    "\u25810x7428": 4569,
    "1b0": 4570,
    "\u25810x7188": 4571,
    "\u25810x7888": 4572,
    "50c": 4573,
    "\u2581duplicate": 4574,
    "d30": 4575,
    "\u25810x7f4": 4576,
    "\u25810x7738": 4577,
    "\u25810x1210cf0": 4578,
    "932": 4579,
    "\u25810x4af4": 4580,
    "\u25810x7348": 4581,
    "\u25810x7578": 4582,
    "\u25810x78f8": 4583,
    "7cc": 4584,
    "a45": 4585,
    "\u25810x4c30": 4586,
    "\u25810x73b8": 4587,
    "\u25810x7498": 4588,
    "790": 4589,
    "\u25810x7508": 4590,
    "\u25810x7658": 4591,
    "\u25810x75e8": 4592,
    "\u25810x76c8": 4593,
    "izn": 4594,
    "iznadm": 4595,
    "\u2581atexit": 4596,
    "\u2581format": 4597,
    "\u2581string": 4598,
    "accelerat": 4599,
    "\u2581triznadm": 4600,
    "led": 4601,
    "\u25810x77a8": 4602,
    "\u25810x7968": 4603,
    "\u25810x7a48": 4604,
    "d5c": 4605,
    "\u25810x7818": 4606,
    "\u25810x7ab8": 4607,
    "\u25810xffed": 4608,
    "14c": 4609,
    "a41": 4610,
    "are": 4611,
    "\u25810xd3d": 4612,
    "\u25810x79d8": 4613,
    "\u25810xffdf": 4614,
    "urc": 4615,
    "youre": 4616,
    "\u25810x164": 4617,
    "\u25810x3b7f": 4618,
    "\u25810x7b28": 4619,
    "\u25810x7c08": 4620,
    "\u25810x7ce8": 4621,
    "\u2581getfileinformationbyhandleex": 4622,
    "ise": 4623,
    "\u25810x7c78": 4624,
    "\u25810x7d58": 4625,
    "\u25810x7eaba8": 4626,
    "clipboardformat": 4627,
    "\u25810x504": 4628,
    "\u25810x1211c14": 4629,
    "\u25810x599b5c": 4630,
    "\u25810x599c24": 4631,
    "\u25810x59bf3c": 4632,
    "\u25810x59bf7c": 4633,
    "\u25810x59c120": 4634,
    "\u25810x59c138": 4635,
    "ethe": 4636,
    "laun": 4637,
    "\u25810x40a59c": 4638,
    "e58": 4639,
    "launch": 4640,
    "\u25810x440": 4641,
    "\u2581regqueryvalu": 4642,
    "\u2581duplicatehandle": 4643,
    "a8c": 4644,
    "fa000": 4645,
    "precise": 4646,
    "preciseasfiletime": 4647,
    "\u2581getsystemtimepreciseasfiletime": 4648,
    "381": 4649,
    "\u25810x4095": 4650,
    "\u2581initializesrwlock": 4651,
    "934": 4652,
    "d85": 4653,
    "mut": 4654,
    "\u25812022030": 4655,
    "bf0": 4656,
    "eb8": 4657,
    "f78": 4658,
    "\u2581king": 4659,
    "18c": 4660,
    "a28": 4661,
    "afc": 4662,
    "eed": 4663,
    "privile": 4664,
    "\u25810x416c": 4665,
    "a8f": 4666,
    "210": 4667,
    "destroy": 4668,
    "\u2581kingkarton": 4669,
    "9260": 4670,
    "\u25810x435018": 4671,
    "a03": 4672,
    "\u25810x97a0": 4673,
    "\u25810x435002": 4674,
    "\u25810x435004": 4675,
    "\u25810x435006": 4676,
    "\u25810x435008": 4677,
    "\u25810x43500a": 4678,
    "\u25810x43500c": 4679,
    "\u25810x43500e": 4680,
    "\u25810x435010": 4681,
    "fc0": 4682,
    "ed000": 4683,
    "\u25810x3010": 4684,
    "\u25810x7ee5": 4685,
    "\u25810x42f318": 4686,
    "\u25810x435014": 4687,
    "ec9": 4688,
    "\u2581strlen": 4689,
    "\u25810x435016": 4690,
    "df8": 4691,
    "e4b8": 4692,
    "\u2581mso": 4693,
    "\u25810x1211dbc": 4694,
    "190": 4695,
    "\u25810x47a00": 4696,
    "d2c": 4697,
    "\u25810x74000": 4698,
    "\u25810x1211f0c": 4699,
    "a32": 4700,
    "\u25810x56c": 4701,
    "fd0": 4702,
    "\u2581openmut": 4703,
    "\u25810x418970": 4704,
    "\u25810x42d498": 4705,
    "\u25810x1210ec0": 4706,
    "aa0": 4707,
    "b2c": 4708,
    "b78": 4709,
    "f9000": 4710,
    "\u25810x87": 4711,
    "\u25810x10a": 4712,
    "1b8": 4713,
    "3a5": 4714,
    "\u25810x4602": 4715,
    "sel": 4716,
    "\u25810x44c2": 4717,
    "\u2581createsemaphorew": 4718,
    "lower": 4719,
    "\u25810x40d8": 4720,
    "\u25810x40e5": 4721,
    "\u25810x75500000": 4722,
    "pri": 4723,
    "\u25810x435012": 4724,
    "20c": 4725,
    "974": 4726,
    "\u25810x4bb0": 4727,
    "1e2": 4728,
    "2c4": 4729,
    "bd4": 4730,
    "\u2581registerclipboardformat": 4731,
    "122": 4732,
    "ority": 4733,
    "\u25810x7b00": 4734,
    "priority": 4735,
    "\u25810x3f5000": 4736,
    "\u25810x1211e80": 4737,
    "srw": 4738,
    "systeminformation": 4739,
    "conditionvariablesrw": 4740,
    "\u2581sleepconditionvariablesrw": 4741,
    "902e0": 4742,
    "\u25810x8a60": 4743,
    "\u25810x4902e0": 4744,
    "\u25810x496790": 4745,
    "\u2581wm": 4746,
    "\u2581flushfile": 4747,
    "\u2581flushfilebuffers": 4748,
    "aba": 4749,
    "hook": 4750,
    "d5000": 4751,
    "program": 4752,
    "\u25810x3f20": 4753,
    "b0000": 4754,
    "\u25810xae": 4755,
    "33c": 4756,
    "7de": 4757,
    "a90000": 4758,
    "\u25810x450": 4759,
    "\u25810x82f0": 4760,
    "\u258108": 4761,
    "profil": 4762,
    "\u25810x40d": 4763,
    "\u25810x5266c": 4764,
    "7ea": 4765,
    "\u25810x210": 4766,
    "3ac": 4767,
    "630": 4768,
    "a54": 4769,
    "\u25810x44f": 4770,
    "privilege": 4771,
    "\u2581removedirectorya": 4772,
    "fe0": 4773,
    "d05": 4774,
    "\u25810x43f6": 4775,
    "7c5": 4776,
    "start": 4777,
    "\u2581getuserdefaultuilanguage": 4778,
    "9a8": 4779,
    "\u25810x408c8d": 4780,
    "\u25810x408c8e": 4781,
    "db8": 4782,
    "e48": 4783,
    "\u2581setupapi": 4784,
    "324": 4785,
    "\u25810x41a9": 4786,
    "\u25810x4c33": 4787,
    "1d0": 4788,
    "fc4": 4789,
    "\u25810x4030": 4790,
    "260": 4791,
    "\u2581reset": 4792,
    "\u25810x9010": 4793,
    "\u25810x4c32d8": 4794,
    "\u25810x4c32f0": 4795,
    "\u25810x3f75e88": 4796,
    "f5000": 4797,
    "b28": 4798,
    "\u25810x41cc54": 4799,
    "\u25810x120f8a6": 4800,
    "\u25810x43501a": 4801,
    "aa6": 4802,
    "f18": 4803,
    "\u25810x3f22": 4804,
    "\u25810x4162": 4805,
    "\u25810xffe8": 4806,
    "\u2581oleacc": 4807,
    "\u25810x478": 4808,
    "6a4": 4809,
    "\u2581new": 4810,
    "\u25810x1211ec8": 4811,
    "15f": 4812,
    "\u2581af": 4813,
    "7170": 4814,
    "\u25810x120fd": 4815,
    "695": 4816,
    "\u2581golfset": 4817,
    "\u2581tlsfree": 4818,
    "\u25810x563a20": 4819,
    "sys": 4820,
    "update": 4821,
    "\u25810x40f6a8": 4822,
    "9b0": 4823,
    "\u2581prop": 4824,
    "\u25810x181b48": 4825,
    "\u25810x1211d14": 4826,
    "2d0": 4827,
    "d90": 4828,
    "\u25810x173": 4829,
    "\u2581apphelp": 4830,
    "eth": 4831,
    "bcat": 4832,
    "\u25810x13b": 4833,
    "fb0": 4834,
    "\u25810x40969": 4835,
    "\u2581propsys": 4836,
    "368": 4837,
    "bcatq": 4838,
    "\u25810xd2": 4839,
    "\u2581clbcatq": 4840,
    "\u25810x43501c": 4841,
    "\u25810x43501e": 4842,
    "\u25810x435020": 4843,
    "\u25810x435022": 4844,
    "\u25810x435028": 4845,
    "\u25810x43502a": 4846,
    "\u25810x43502c": 4847,
    "\u25810x43502e": 4848,
    "\u25810x435030": 4849,
    "\u25810x1211bfc": 4850,
    "\u2581setendoffile": 4851,
    "\u25810x500": 4852,
    "\u25810x7f9": 4853,
    "\u2581mso97": 4854,
    "1b4": 4855,
    "7c4": 4856,
    "\u25810x40e": 4857,
    "\u2581getenvironmentstrings": 4858,
    "f48": 4859,
    "e5000": 4860,
    "\u25810x4169c0": 4861,
    "\u25810x4169c1": 4862,
    "338": 4863,
    "d24": 4864,
    "\u25810x7f5": 4865,
    "\u25810x4175": 4866,
    "\u25810x7f02": 4867,
    "\u25810x12112f8": 4868,
    "\u25810x678": 4869,
    "145": 4870,
    "1c2": 4871,
    "615": 4872,
    "inmodule": 4873,
    "\u25810x509e4": 4874,
    "19e": 4875,
    "a64": 4876,
    "\u25810x42c520": 4877,
    "22c": 4878,
    "374": 4879,
    "ef4": 4880,
    "\u25810x44c250": 4881,
    "736": 4882,
    "962": 4883,
    "e42": 4884,
    "\u25810x2100": 4885,
    "\u25810x424f": 4886,
    "dc3": 4887,
    "\u25810x1211f5c": 4888,
    "\u25810x8650": 4889,
    "gn": 4890,
    "\u25810x181b98": 4891,
    "\u2581openmutexa": 4892,
    "log": 4893,
    "\u25810x3f2": 4894,
    "\u25810x40a5b0": 4895,
    "\u25810x40a5b8": 4896,
    "\u2581lstrcmpi": 4897,
    "\u2581doyouwantto": 4898,
    "\u25810x1f000": 4899,
    "\u2581getsystemdefault": 4900,
    "6c0": 4901,
    "9e0": 4902,
    "60000": 4903,
    "\u25810x4760": 4904,
    "\u25810x40a5b4": 4905,
    "\u25814d5": 4906,
    "\u25810x40a5ae": 4907,
    "\u25810x40a5b2": 4908,
    "\u25810x40a5b6": 4909,
    "\u25810x40a5ba": 4910,
    "723": 4911,
    "running": 4912,
    "\u25810x431828": 4913,
    "b50": 4914,
    "f98": 4915,
    "allyour": 4916,
    "\u25810x44280": 4917,
    "\u2581openanexplorer": 4918,
    "160": 4919,
    "6b5": 4920,
    "d10": 4921,
    "ce000": 4922,
    "\u25810x4012": 4923,
    "9f8": 4924,
    "frominternet": 4925,
    "be8": 4926,
    "128": 4927,
    "\u2581aaa": 4928,
    "\u2581sub": 4929,
    "\u2581writ": 4930,
    "\u25810x402": 4931,
    "\u25810x4111d0": 4932,
    "110": 4933,
    "3e2": 4934,
    "fd4": 4935,
    "c8000": 4936,
    "zone": 4937,
    "\u2581zip": 4938,
    "\u2581append": 4939,
    "\u2581writec": 4940,
    "dc2": 4941,
    "par": 4942,
    "\u25810x439458": 4943,
    "\u2581wakeconditionvariable": 4944,
    "\u25810x8b50": 4945,
    "\u25810xff92": 4946,
    "\u25810x2357b": 4947,
    "gine": 4948,
    "ongle": 4949,
    "ecadwork": 4950,
    "\u25810x76500000": 4951,
    "erif": 4952,
    "\u2581regcreate": 4953,
    "ed2": 4954,
    "\u25810x40e9": 4955,
    "\u2581submit": 4956,
    "d48": 4957,
    "\u25810x7f03": 4958,
    "ht": 4959,
    "960": 4960,
    "dd3": 4961,
    "f05": 4962,
    "em32": 4963,
    "\u25810x1210e34": 4964,
    "9bc": 4965,
    "f85": 4966,
    "poolwork": 4967,
    "\u2581submitthread": 4968,
    "zoneinformation": 4969,
    "\u2581closethreadpoolwork": 4970,
    "\u2581createthreadpoolwork": 4971,
    "\u2581submitthreadpoolwork": 4972,
    "\u2581setfileinformationbyhandle": 4973,
    "354": 4974,
    "79c": 4975,
    "eb000": 4976,
    "a34": 4977,
    "\u25810x181c88": 4978,
    "\u2581gettimezoneinformation": 4979,
    "aaaaaaaaaaaaaaaa": 4980,
    "\u25810x535": 4981,
    "\u25810x181c60": 4982,
    "\u25810x4233": 4983,
    "\u25810x4b40": 4984,
    "918": 4985,
    "ba0": 4986,
    "fa2": 4987,
    "ects": 4988,
    "20302": 4989,
    "\u25810x3020302": 4990,
    "bc9": 4991,
    "\u2581ntquerysysteminformation": 4992,
    "\u25810x5188": 4993,
    "\u25810x1211c94": 4994,
    "9e4": 4995,
    "\u25810x4220": 4996,
    "3cc": 4997,
    "\u258174": 4998,
    "dc000": 4999,
    "\u25810x144": 5000,
    "\u25810x4370": 5001,
    "ffff0000": 5002,
    "5cc": 5003,
    "50c0": 5004,
    "d4000": 5005,
    "\u25810x4aa0": 5006,
    "\u2581regcreatekey": 5007,
    "d35": 5008,
    "\u2581mo": 5009,
    "\u25810x7fc": 5010,
    "\u25810x1211cfc": 5011,
    "\u25810x1211e38": 5012,
    "ons": 5013,
    "valuea": 5014,
    "\u25810x508d0": 5015,
    "\u25810x509a8": 5016,
    "\u25810x1211a44": 5017,
    "142": 5018,
    "3a0": 5019,
    "0070": 5020,
    "\u25810x419c20": 5021,
    "\u25810x1211eac": 5022,
    "\u2581regdelete": 5023,
    "75a": 5024,
    "da000": 5025,
    "\u25810x4041": 5026,
    "\u25810xbcf2": 5027,
    "aab": 5028,
    "atoma": 5029,
    "\u25810x7dc4": 5030,
    "menuitem": 5031,
    "\u25810x1211a00": 5032,
    "fc000": 5033,
    "de000": 5034,
    "625": 5035,
    "\u25810x420fe8": 5036,
    "\u25810x3f75f7c": 5037,
    "e8000": 5038,
    "3ad": 5039,
    "71f": 5040,
    "754": 5041,
    "a68": 5042,
    "ff4": 5043,
    "\u25810x7dc5": 5044,
    "\u25810x1f0001": 5045,
    "647": 5046,
    "db000": 5047,
    "\u25810x41a9f0": 5048,
    "\u25810x4020": 5049,
    "\u25810x455480": 5050,
    "\u25810xfeee009d": 5051,
    "646": 5052,
    "icen": 5053,
    "f6000": 5054,
    "161": 5055,
    "b5c": 5056,
    "\u2581me": 5057,
    "\u25810x7fe": 5058,
    "4000000": 5059,
    "\u2581program": 5060,
    "4000000ffff0000": 5061,
    "ec000": 5062,
    "\u25810xfeedf0": 5063,
    "b70": 5064,
    "dd4": 5065,
    "\u2581add": 5066,
    "\u25810x1211e4c": 5067,
    "\u25810x1211edc": 5068,
    "4bb8": 5069,
    "7675": 5070,
    "blead": 5071,
    "\u25810x6a": 5072,
    "\u25810xb4": 5073,
    "\u2581ismb": 5074,
    "\u2581ismbblead": 5075,
    "75c": 5076,
    "cod": 5077,
    "\u25810x85d0": 5078,
    "\u2581registerwindowmessagea": 5079,
    "\u25810xffe9": 5080,
    "\u25810x1211cb8": 5081,
    "7ce": 5082,
    "\u25810x8f20": 5083,
    "\u25810x455468": 5084,
    "\u25810x5265c3c": 5085,
    "\u2581getsecurityinfo": 5086,
    "a18": 5087,
    "c04": 5088,
    "older": 5089,
    "\u25810x7ee8": 5090,
    "\u2581failedto": 5091,
    "\u25810x3f75f84": 5092,
    "1ec": 5093,
    "\u25810x7ee9": 5094,
    "\u25810x1210d90": 5095,
    "7a0": 5096,
    "ed0": 5097,
    "\u25810x180c": 5098,
    "\u25810x40d9": 5099,
    "\u25810x3f75f8c": 5100,
    "\u2581openprocess": 5101,
    "aa4": 5102,
    "\u25810x567678": 5103,
    "\u2581getmodulehandl": 5104,
    "\u25810x4528": 5105,
    "\u25810x423818": 5106,
    "\u2581getcursor": 5107,
    "\u2581getdrivetypea": 5108,
    "218": 5109,
    "485": 5110,
    "bb8": 5111,
    "3f0": 5112,
    "e6c": 5113,
    "\u25810x42a4": 5114,
    "\u2581launch": 5115,
    "1d4": 5116,
    "d98": 5117,
    "\u25810x562": 5118,
    "\u25810x4195": 5119,
    "\u25810x8f50": 5120,
    "\u25810x120ee": 5121,
    "edp": 5122,
    "ee2": 5123,
    "ff000": 5124,
    "\u25810xcccc": 5125,
    "af8": 5126,
    "b7c": 5127,
    "msg": 5128,
    "ceff": 5129,
    "\u25810x40a92e": 5130,
    "\u25810x40a930": 5131,
    "\u25810x40a932": 5132,
    "\u25810x40a934": 5133,
    "\u25810x40a936": 5134,
    "\u25810x40a938": 5135,
    "\u25810x40a93a": 5136,
    "\u25810x1211ef4": 5137,
    "ass2": 5138,
    "\u2581meip": 5139,
    "a900003": 5140,
    "triesin": 5141,
    "\u25810x42a00": 5142,
    "\u25810x6c000": 5143,
    "\u2581environ": 5144,
    "\u25810x4229c1": 5145,
    "\u2581meipass2": 5146,
    "\u25810x1211a14": 5147,
    "\u25814d5a900003": 5148,
    "\u2581setentriesin": 5149,
    "\u25814d5a9000030000000": 5150,
    "\u25814d5a90000300000004000000ffff0000": 5151,
    "b58": 5152,
    "f90": 5153,
    "uti": 5154,
    "\u25810x4356": 5155,
    "\u25810x7f80": 5156,
    "75e": 5157,
    "ee000": 5158,
    "be0": 5159,
    "3cf0": 5160,
    "d6000": 5161,
    "\u25810x7dd9": 5162,
    "\u25810x410acd": 5163,
    "\u25810x410ace": 5164,
    "\u258119": 5165,
    "\u2581getwindowsdirectoryw": 5166,
    "302": 5167,
    "olec": 5168,
    "\u25810x44c": 5169,
    "\u25810x42e6": 5170,
    "95c": 5171,
    "aa8": 5172,
    "e6000": 5173,
    "\u2581appendw": 5174,
    "\u25810x1211bd0": 5175,
    "\u25810xfeee01b": 5176,
    "3e8": 5177,
    "a6c": 5178,
    "fb000": 5179,
    "fe000": 5180,
    "\u2581appdata": 5181,
    "\u25810x41e1d8": 5182,
    "541": 5183,
    "944": 5184,
    "\u25810x4bcc": 5185,
    "\u25810x429260": 5186,
    "0x": 5187,
    "298": 5188,
    "3b5": 5189,
    "6f1": 5190,
    "b00": 5191,
    "d34": 5192,
    "\u2581error0x": 5193,
    "9c3": 5194,
    "aec": 5195,
    "a31": 5196,
    "df5": 5197,
    "e4000": 5198,
    "\u2581please": 5199,
    "pc": 5200,
    "pp": 5201,
    "304": 5202,
    "618": 5203,
    "\u25810x7bc": 5204,
    "\u25810x120f": 5205,
    "\u25810x42ab": 5206,
    "\u25810x420a0f": 5207,
    "\u25810x420a10": 5208,
    "unmapviewofsection": 5209,
    "964": 5210,
    "9fc": 5211,
    "\u2581qa": 5212,
    "\u25810x2b4": 5213,
    "ffe": 5214,
    "ection": 5215,
    "\u25810x7e30": 5216,
    "6b0": 5217,
    "750": 5218,
    "\u25810x42b4": 5219,
    "\u2581gettempfilename": 5220,
    "648": 5221,
    "935": 5222,
    "940": 5223,
    "\u2581ntunmapviewofsection": 5224,
    "910": 5225,
    "\u25810x47d0": 5226,
    "\u25810x1211788": 5227,
    "7f0": 5228,
    "lcid": 5229,
    "\u25810xffd8": 5230,
    "\u2581strcpy": 5231,
    "\u25810x44000": 5232,
    "a63": 5233,
    "ea0": 5234,
    "\u25810x4125": 5235,
    "\u25810x8660": 5236,
    "acla": 5237,
    "\u25810x9028": 5238,
    "\u2581setentriesinacla": 5239,
    "aut": 5240,
    "\u2581setst": 5241,
    "f44": 5242,
    "f50": 5243,
    "9920": 5244,
    "\u25810x4e80": 5245,
    "\u25810x7c90": 5246,
    "\u2581ntmapviewofsection": 5247,
    "\u25810x40e7": 5248,
    "f71": 5249,
    "ctrl": 5250,
    "158": 5251,
    "2e8": 5252,
    "d72": 5253,
    "\u2581setstdhandle": 5254,
    "\u2581setsecurityinfo": 5255,
    "au": 5256,
    "f2000": 5257,
    "proces": 5258,
    "\u25810x40a540": 5259,
    "d60": 5260,
    "ups": 5261,
    "7c58": 5262,
    "\u25810x44f850": 5263,
    "\u25810x5617a8": 5264,
    "104": 5265,
    "931": 5266,
    "f19": 5267,
    "d2000": 5268,
    "statust": 5269,
    "\u25810x4548": 5270,
    "6b2e": 5271,
    "\u25810x42ae": 5272,
    "\u25810x42eb": 5273,
    "\u25810x430fec": 5274,
    "\u25810x44f8c8": 5275,
    "\u2581heapdestroy": 5276,
    "350": 5277,
    "9c6": 5278,
    "adc": 5279,
    "\u2581fil": 5280,
    "iched": 5281,
    "\u2581riched": 5282,
    "\u25810x44f868": 5283,
    "\u25810x44f880": 5284,
    "\u25810x44f898": 5285,
    "\u25810x44f8b0": 5286,
    "\u2581getfileattributesa": 5287,
    "\u2581getmodulehandleexw": 5288,
    "372": 5289,
    "odos": 5290,
    "84000": 5291,
    "e2000": 5292,
    "\u2581rtlnt": 5293,
    "listmsg": 5294,
    "\u25810x2012": 5295,
    "\u25810x2840": 5296,
    "odoserror": 5297,
    "\u25810x430db0": 5298,
    "\u25810x44f8f8": 5299,
    "\u25810x44f940": 5300,
    "\u25810x44f958": 5301,
    "\u25810x44f970": 5302,
    "\u25810x44f988": 5303,
    "\u2581commctrl": 5304,
    "\u2581draglistmsg": 5305,
    "\u2581rtlntstatust": 5306,
    "\u2581rtlntstatustodoserror": 5307,
    "\u2581ts": 5308,
    "106000": 5309,
    "\u25810x4154": 5310,
    "\u25810x40a53a": 5311,
    "\u25810x40a53c": 5312,
    "\u25810x40a53e": 5313,
    "\u25810x40a542": 5314,
    "\u25810x40a544": 5315,
    "\u25810x42168c": 5316,
    "322": 5317,
    "dbd": 5318,
    "8c000": 5319,
    "image": 5320,
    "\u25810x42d": 5321,
    "\u25810x40a546": 5322,
    "\u25810x41e93e": 5323,
    "\u25810x41ebfa": 5324,
    "\u25810x41ebfb": 5325,
    "\u25810x42168b": 5326,
    "amet": 5327,
    "\u25810xca0000": 5328,
    "\u25810x1211e64": 5329,
    "1f0": 5330,
    "006a": 5331,
    "88000": 5332,
    "d0000": 5333,
    "\u25810x41d": 5334,
    "\u2581regenum": 5335,
    "\u25810x77001000": 5336,
    "\u25810x77002000": 5337,
    "\u25810x77003000": 5338,
    "\u25810x77004000": 5339,
    "\u25810x77005000": 5340,
    "\u25810x77006000": 5341,
    "\u25810x77007000": 5342,
    "\u25810x77008000": 5343,
    "\u25810x77009000": 5344,
    "\u25810x7700a000": 5345,
    "\u25810x7700b000": 5346,
    "\u25810x7700c000": 5347,
    "\u25810x7700d000": 5348,
    "\u25810x7700e000": 5349,
    "\u25810x7700f000": 5350,
    "\u25810x77010000": 5351,
    "\u25810x77011000": 5352,
    "\u25810x77012000": 5353,
    "\u25810x77013000": 5354,
    "\u25810x77014000": 5355,
    "\u25810x77015000": 5356,
    "\u25810x77016000": 5357,
    "\u25810x77017000": 5358,
    "\u25810x77018000": 5359,
    "\u25810x77019000": 5360,
    "\u25810x7701a000": 5361,
    "\u25810x7701b000": 5362,
    "\u25810x7701c000": 5363,
    "\u25810x7701d000": 5364,
    "\u25810x7701e000": 5365,
    "\u25810x7701f000": 5366,
    "\u25810x77020000": 5367,
    "\u25810x77021000": 5368,
    "\u25810x77022000": 5369,
    "\u25810x77023000": 5370,
    "\u25810x77024000": 5371,
    "\u25810x77025000": 5372,
    "\u25810x77026000": 5373,
    "\u25810x77027000": 5374,
    "\u25810x77028000": 5375,
    "\u25810x77029000": 5376,
    "\u25810x7702a000": 5377,
    "\u25810x7702b000": 5378,
    "\u25810x7702c000": 5379,
    "\u25810x7702d000": 5380,
    "\u25810x7702e000": 5381,
    "\u25810x7702f000": 5382,
    "\u25810x77030000": 5383,
    "\u25810x77031000": 5384,
    "\u25810x77032000": 5385,
    "\u25810x77033000": 5386,
    "\u25810x77034000": 5387,
    "\u25810x77035000": 5388,
    "\u25810x77036000": 5389,
    "\u25810x77037000": 5390,
    "\u25810x77038000": 5391,
    "\u25810x77039000": 5392,
    "\u25810x7703a000": 5393,
    "\u25810x7703b000": 5394,
    "\u25810x7703c000": 5395,
    "\u25810x7703d000": 5396,
    "\u25810x7703e000": 5397,
    "\u25810x7703f000": 5398,
    "\u25810x77040000": 5399,
    "\u25810x77041000": 5400,
    "\u25810x77042000": 5401,
    "\u25810x77043000": 5402,
    "\u25810x77044000": 5403,
    "\u25810x77045000": 5404,
    "\u25810x77046000": 5405,
    "\u25810x77047000": 5406,
    "\u25810x77048000": 5407,
    "\u25810x77049000": 5408,
    "\u25810x7704a000": 5409,
    "\u25810x7704b000": 5410,
    "\u25810x7704c000": 5411,
    "\u25810x7704d000": 5412,
    "\u25810x7704e000": 5413,
    "\u25810x7704f000": 5414,
    "\u25810x77050000": 5415,
    "\u25810x77051000": 5416,
    "\u25810x77052000": 5417,
    "\u25810x77053000": 5418,
    "\u25810x77054000": 5419,
    "\u25810x77055000": 5420,
    "\u25810x77056000": 5421,
    "\u25810x77057000": 5422,
    "\u25810x77058000": 5423,
    "\u25810x77059000": 5424,
    "\u25810x7705a000": 5425,
    "\u25810x7705b000": 5426,
    "\u25810x7705c000": 5427,
    "\u25810x7705d000": 5428,
    "\u25810x7705e000": 5429,
    "\u25810x7705f000": 5430,
    "\u25810x77060000": 5431,
    "\u25810x77061000": 5432,
    "\u25810x77062000": 5433,
    "\u25810x77063000": 5434,
    "\u25810x77064000": 5435,
    "\u25810x77065000": 5436,
    "\u25810x77066000": 5437,
    "\u25810x77067000": 5438,
    "\u25810x77068000": 5439,
    "\u25810x77069000": 5440,
    "\u25810x7706a000": 5441,
    "\u25810x7706b000": 5442,
    "\u25810x7706c000": 5443,
    "\u25810x7706d000": 5444,
    "\u25810x7706e000": 5445,
    "\u25810x7706f000": 5446,
    "\u25810x77070000": 5447,
    "\u25810x77071000": 5448,
    "\u25810x77072000": 5449,
    "\u25810x77073000": 5450,
    "\u25810x77074000": 5451,
    "\u25810x77075000": 5452,
    "\u25810x77076000": 5453,
    "\u25810x77077000": 5454,
    "\u25810x77078000": 5455,
    "\u25810x77079000": 5456,
    "\u25810x7707a000": 5457,
    "\u25810x7707b000": 5458,
    "\u25810x7707c000": 5459,
    "\u25810x7707d000": 5460,
    "\u25810x7707e000": 5461,
    "\u25810x7707f000": 5462,
    "\u25810x77080000": 5463,
    "\u25810x77081000": 5464,
    "\u25810x77082000": 5465,
    "\u25810x77083000": 5466,
    "\u25810x77084000": 5467,
    "\u25810x77085000": 5468,
    "\u25810x77086000": 5469,
    "\u25810x77087000": 5470,
    "\u25810x77088000": 5471,
    "\u25810x77089000": 5472,
    "\u25810x7708a000": 5473,
    "\u25810x7708b000": 5474,
    "\u25810x7708c000": 5475,
    "\u25810x7708d000": 5476,
    "\u25810x7708e000": 5477,
    "\u25810x7708f000": 5478,
    "\u25810x77090000": 5479,
    "\u25810x77091000": 5480,
    "\u25810x77092000": 5481,
    "\u25810x77093000": 5482,
    "\u25810x77094000": 5483,
    "\u25810x77095000": 5484,
    "\u25810x77096000": 5485,
    "\u25810x77097000": 5486,
    "\u25810x77098000": 5487,
    "\u25810x77099000": 5488,
    "\u25810x7709a000": 5489,
    "\u25810x7709b000": 5490,
    "\u25810x7709c000": 5491,
    "\u25810x7709d000": 5492,
    "\u25810x7709e000": 5493,
    "\u25810x7709f000": 5494,
    "\u25810x770a0000": 5495,
    "\u25810x770a1000": 5496,
    "\u25810x770a2000": 5497,
    "\u25810x770a3000": 5498,
    "\u25810x770a4000": 5499,
    "\u25810x770a5000": 5500,
    "\u25810x770a6000": 5501,
    "\u25810x770a7000": 5502,
    "\u25810x770a8000": 5503,
    "\u25810x770a9000": 5504,
    "\u25810x770aa000": 5505,
    "\u25810x770ab000": 5506,
    "\u25810x770ac000": 5507,
    "\u25810x770ad000": 5508,
    "\u25810x770ae000": 5509,
    "\u25810x770af000": 5510,
    "\u25810x770b0000": 5511,
    "\u25810x770b1000": 5512,
    "\u25810x770b2000": 5513,
    "\u25810x770b3000": 5514,
    "\u25810x770b4000": 5515,
    "\u25810x770b5000": 5516,
    "\u25810x770b6000": 5517,
    "\u25810x770b7000": 5518,
    "\u25810x770b8000": 5519,
    "\u25810x770b9000": 5520,
    "\u25810x770ba000": 5521,
    "\u25810x770bb000": 5522,
    "\u25810x770bc000": 5523,
    "\u25810x770bd000": 5524,
    "\u25810x770be000": 5525,
    "\u25810x770bf000": 5526,
    "\u25810x770c0000": 5527,
    "\u25810x770c1000": 5528,
    "\u25810x770c2000": 5529,
    "\u25810x770c3000": 5530,
    "\u25810x770c4000": 5531,
    "\u25810x770c5000": 5532,
    "\u25810x770c6000": 5533,
    "\u25810x770c7000": 5534,
    "\u25810x770c8000": 5535,
    "\u25810x770c9000": 5536,
    "\u25810x770ca000": 5537,
    "\u25810x770cb000": 5538,
    "\u25810x770cc000": 5539,
    "\u25810x770cd000": 5540,
    "\u25810x770ce000": 5541,
    "\u25810x770cf000": 5542,
    "\u25810x770d0000": 5543,
    "\u25810x770d1000": 5544,
    "\u25810x770d2000": 5545,
    "\u25810x770d3000": 5546,
    "\u25810x770d4000": 5547,
    "\u25810x770d5000": 5548,
    "\u25810x770d6000": 5549,
    "\u25810x770d7000": 5550,
    "\u25810x770d8000": 5551,
    "\u25810x770d9000": 5552,
    "\u25810x770da000": 5553,
    "\u25810x770db000": 5554,
    "\u25810x770dc000": 5555,
    "\u25810x770dd000": 5556,
    "\u25810x770de000": 5557,
    "\u25810x770df000": 5558,
    "\u25810x770e0000": 5559,
    "\u25810x770e1000": 5560,
    "\u25810x770e2000": 5561,
    "\u25810x770e3000": 5562,
    "\u25810x770e4000": 5563,
    "\u25810x770e5000": 5564,
    "\u25810x770e6000": 5565,
    "\u25810x770e7000": 5566,
    "\u25810x770e8000": 5567,
    "\u25810x770e9000": 5568,
    "\u25810x770ea000": 5569,
    "\u25810x770eb000": 5570,
    "\u25810x770ec000": 5571,
    "\u25810x770ed000": 5572,
    "\u25810x770ee000": 5573,
    "\u25810x770ef000": 5574,
    "\u25810x770f0000": 5575,
    "\u25810x770f1000": 5576,
    "\u25810x770f2000": 5577,
    "\u25810x770f3000": 5578,
    "\u25810x770f4000": 5579,
    "\u25810x770f5000": 5580,
    "\u25810x770f6000": 5581,
    "\u25810x770f7000": 5582,
    "\u25810x770f8000": 5583,
    "\u25810x770f9000": 5584,
    "\u25810x770fa000": 5585,
    "\u25810x770fb000": 5586,
    "\u25810x770fc000": 5587,
    "\u25810x770fd000": 5588,
    "\u25810x770fe000": 5589,
    "\u25810x770ff000": 5590,
    "\u25810x77100000": 5591,
    "\u25810x77101000": 5592,
    "\u25810x77102000": 5593,
    "\u25810x77103000": 5594,
    "\u25810x77104000": 5595,
    "\u25810x77105000": 5596,
    "\u25810x77106000": 5597,
    "\u25810x77107000": 5598,
    "\u25810x77108000": 5599,
    "\u25810x77109000": 5600,
    "\u25810x7710a000": 5601,
    "\u25810x7710b000": 5602,
    "\u25810x7710c000": 5603,
    "\u25810x7710d000": 5604,
    "\u25810x7710e000": 5605,
    "\u25810x7710f000": 5606,
    "\u25810x77110000": 5607,
    "\u25810x77111000": 5608,
    "\u25810x77112000": 5609,
    "\u25810x77113000": 5610,
    "\u25810x77114000": 5611,
    "\u25810x77115000": 5612,
    "\u25810x77116000": 5613,
    "\u25810x77117000": 5614,
    "\u25810x77118000": 5615,
    "\u25810x77119000": 5616,
    "\u25810x7711a000": 5617,
    "\u25810x7711b000": 5618,
    "\u25810x7711c000": 5619,
    "\u25810x7711d000": 5620,
    "\u25810x7711e000": 5621,
    "\u25810x7711f000": 5622,
    "\u25810x77120000": 5623,
    "\u25810x77121000": 5624,
    "\u25810x77122000": 5625,
    "\u25810x77123000": 5626,
    "\u25810x77124000": 5627,
    "\u25810x77125000": 5628,
    "\u25810x77126000": 5629,
    "\u25810x77127000": 5630,
    "\u25810x77128000": 5631,
    "\u25810x77129000": 5632,
    "\u25810x7712a000": 5633,
    "\u25810x7712b000": 5634,
    "\u25810x7712c000": 5635,
    "\u25810x7712d000": 5636,
    "\u25810x7712e000": 5637,
    "\u25810x7712f000": 5638,
    "\u25810x77130000": 5639,
    "\u25810x77131000": 5640,
    "\u25810x77132000": 5641,
    "\u25810x77133000": 5642,
    "\u25810x77134000": 5643,
    "\u25810x77135000": 5644,
    "\u25810x77136000": 5645,
    "\u25810x77137000": 5646,
    "\u25810x77138000": 5647,
    "\u25810x77139000": 5648,
    "\u25810x7713a000": 5649,
    "\u25810x7713b000": 5650,
    "\u25810x7713c000": 5651,
    "\u25810x7713d000": 5652,
    "\u25810x7713e000": 5653,
    "\u25810x7713f000": 5654,
    "\u25810x77140000": 5655,
    "\u25810x77141000": 5656,
    "\u25810x77142000": 5657,
    "\u25810x77143000": 5658,
    "\u25810x77144000": 5659,
    "\u25810x77145000": 5660,
    "\u25810x77146000": 5661,
    "\u25810x77147000": 5662,
    "\u25810x77148000": 5663,
    "\u25810x77149000": 5664,
    "\u25810x7714a000": 5665,
    "\u25810x7714b000": 5666,
    "\u25810x7714c000": 5667,
    "\u25810x7714d000": 5668,
    "\u25810x7714e000": 5669,
    "\u25810x7714f000": 5670,
    "\u25810x77150000": 5671,
    "\u25810x77151000": 5672,
    "\u25810x77152000": 5673,
    "\u25810x77153000": 5674,
    "\u25810x77154000": 5675,
    "\u25810x77155000": 5676,
    "\u25810x77156000": 5677,
    "\u25810x77157000": 5678,
    "\u25810x77158000": 5679,
    "\u25810x77159000": 5680,
    "\u25810x7715a000": 5681,
    "\u25810x7715b000": 5682,
    "\u25810x7715c000": 5683,
    "\u25810x7715d000": 5684,
    "\u25810x7715e000": 5685,
    "\u25810x7715f000": 5686,
    "\u25810x77160000": 5687,
    "\u25810x77161000": 5688,
    "\u25810x77162000": 5689,
    "\u25810x77163000": 5690,
    "\u25810x77164000": 5691,
    "\u25810x77165000": 5692,
    "\u25810x77166000": 5693,
    "\u25810x77167000": 5694,
    "\u25810x77168000": 5695,
    "\u25810x77169000": 5696,
    "\u25810x7716a000": 5697,
    "\u25810x7716b000": 5698,
    "\u25810x7716c000": 5699,
    "\u25810x7716d000": 5700,
    "\u25810x7716e000": 5701,
    "\u25810x7716f000": 5702,
    "\u25810x77170000": 5703,
    "\u25810x77171000": 5704,
    "\u25810x77172000": 5705,
    "\u25810x77173000": 5706,
    "\u25810x77174000": 5707,
    "\u25810x77175000": 5708,
    "\u25810x77176000": 5709,
    "\u25810x77177000": 5710,
    "\u25810x77178000": 5711,
    "\u25810x77179000": 5712,
    "\u25810x7717a000": 5713,
    "\u25810x7717b000": 5714,
    "\u25810x7717c000": 5715,
    "\u25810x7717d000": 5716,
    "\u25810x7717e000": 5717,
    "\u25810x7717f000": 5718,
    "\u25810x77180000": 5719,
    "\u25810x77181000": 5720,
    "\u25810x77182000": 5721,
    "\u25810x77183000": 5722,
    "\u25810x77184000": 5723,
    "\u25810x77185000": 5724,
    "\u25810x77186000": 5725,
    "\u25810x77187000": 5726,
    "\u25810x77188000": 5727,
    "\u25810x77189000": 5728,
    "\u25810x7718a000": 5729,
    "\u25810x7718b000": 5730,
    "\u25810x7718c000": 5731,
    "\u25810x7718d000": 5732,
    "\u25810x7718e000": 5733,
    "\u25810x7718f000": 5734,
    "\u25810x77190000": 5735,
    "\u25810x77191000": 5736,
    "\u25810x77192000": 5737,
    "\u25810x77193000": 5738,
    "\u25810x77194000": 5739,
    "\u25810x77195000": 5740,
    "\u25810x77196000": 5741,
    "\u25810x77197000": 5742,
    "\u25810x77198000": 5743,
    "\u25810x77199000": 5744,
    "\u25810x7719a000": 5745,
    "\u25810x7719b000": 5746,
    "\u25810x7719c000": 5747,
    "\u25810x7719d000": 5748,
    "\u25810x7719e000": 5749,
    "\u25810x7719f000": 5750,
    "\u25810x771a0000": 5751,
    "\u25810x771a1000": 5752,
    "\u25810x771a2000": 5753,
    "\u25810x771a3000": 5754,
    "\u25810x771a4000": 5755,
    "\u25810x771a5000": 5756,
    "\u25810x771a6000": 5757,
    "\u25810x771a7000": 5758,
    "\u25810x771a8000": 5759,
    "\u25810x771a9000": 5760,
    "\u25810x771aa000": 5761,
    "\u25810x771ab000": 5762,
    "\u25810x771ac000": 5763,
    "\u25810x771ad000": 5764,
    "\u2581application": 5765,
    "\u2581physicalmemory": 5766,
    "bbc": 5767,
    "fic": 5768,
    "\u25810x47b1": 5769,
    "\u25810x9810": 5770,
    "\u25810x771ae000": 5771,
    "\u25810x771af000": 5772,
    "\u25810x771b0000": 5773,
    "\u25810x771b1000": 5774,
    "\u25810x771b2000": 5775,
    "\u25810x771b3000": 5776,
    "\u25810x771b4000": 5777,
    "\u25810x771b5000": 5778,
    "\u25810x771b6000": 5779,
    "\u25810x771b7000": 5780,
    "\u25810x771b8000": 5781,
    "\u25810x771b9000": 5782,
    "\u25810x771ba000": 5783,
    "\u25810x771bb000": 5784,
    "\u25810x771bc000": 5785,
    "\u25810x771bd000": 5786,
    "\u25810x771be000": 5787,
    "\u25810x771bf000": 5788,
    "bb4": 5789,
    "\u25810x771c0000": 5790,
    "\u25810x771c1000": 5791,
    "\u25810x771c2000": 5792,
    "\u25810x771c3000": 5793,
    "\u25810x771c4000": 5794,
    "\u25810x771c5000": 5795,
    "\u25810x771c6000": 5796,
    "\u25810x40a7": 5797,
    "\u25810x7ee000": 5798,
    "3a4": 5799,
    "a66": 5800,
    "bd7": 5801,
    "ed4": 5802,
    "\u25810x4b80": 5803,
    "\u25810x7f8002": 5804,
    "\u25810x2840284": 5805,
    "a74": 5806,
    "fbc": 5807,
    "\u25810x7500": 5808,
    "\u25810x7dc9": 5809,
    "\u2581getfull": 5810,
    "\u25810x4093e4": 5811,
    "\u25810x44e4b8": 5812,
    "936": 5813,
    "\u25810x8cb0": 5814,
    "f20": 5815,
    "\u25810x4cb": 5816,
    "\u25810xffdc": 5817,
    "\u25810x77000": 5818,
    "\u25810x7f8010": 5819,
    "672": 5820,
    "9cc": 5821,
    "ae2": 5822,
    "a6e6": 5823,
    "\u2581internet": 5824,
    "9e5": 5825,
    "de5": 5826,
    "6968": 5827,
    "\u2581this": 5828,
    "\u25810x3820": 5829,
    "\u25810x417a": 5830,
    "\u25810x8430": 5831,
    "\u25810x1733c4": 5832,
    "\u25810x4228e1": 5833,
    "\u25810xfffffffe": 5834,
    "vironmentstringsa": 5835,
    "\u2581om": 5836,
    "30000": 5837,
    "\u25810x12116c0": 5838,
    "\u2581shgetfileinfow": 5839,
    "00b": 5840,
    "1e0": 5841,
    "2ac": 5842,
    "91c": 5843,
    "384": 5844,
    "6c5": 5845,
    "e0000": 5846,
    "regist": 5847,
    "\u25810x8ce0": 5848,
    "secor": 5849,
    "\u2581omsecor": 5850,
    "\u25810x422980": 5851,
    "\u25810x423cf0": 5852,
    "\u2581getexit": 5853,
    "\u25810x42286e": 5854,
    "\u25810x42286f": 5855,
    "\u25810x4228e2": 5856,
    "\u25810x422963": 5857,
    "\u25810x422964": 5858,
    "\u25810x42297f": 5859,
    "\u25810x4229c2": 5860,
    "\u25810x4229fa": 5861,
    "\u25810x4229fb": 5862,
    "\u25810x422a0d": 5863,
    "\u25810x422a0e": 5864,
    "\u25810x42329e": 5865,
    "\u25810x42329f": 5866,
    "\u25810x4233fc": 5867,
    "\u25810x423cef": 5868,
    "00f": 5869,
    "6e5": 5870,
    "f35": 5871,
    "\u25810x41aa": 5872,
    "\u2581cannot": 5873,
    "\u25810x1211fa0": 5874,
    "9b8": 5875,
    "9fe": 5876,
    "20000": 5877,
    "76f72": 5878,
    "\u25810x350": 5879,
    "\u25810x7f7e": 5880,
    "72697": 5881,
    "\u25810x40c7": 5882,
    "\u2581pleasec": 5883,
    "1646d": 5884,
    "68656c": 5885,
    "\u2581776f72": 5886,
    "\u25817472697": 5887,
    "a6e61646d": 5888,
    "6b2e68656c": 5889,
    "\u25817472697a6e61646d": 5890,
    "\u2581776f726b2e68656c": 5891,
    "\u25817472697a6e61646d73696e6b692e6669": 5892,
    "\u2581776f726b2e68656c73696e6b692e6669": 5893,
    "1cb": 5894,
    "\u25810xd000": 5895,
    "\u25810x429903": 5896,
    "\u25810xd8": 5897,
    "\u25810x443": 5898,
    "\u25810x429902": 5899,
    "\u25810x42990c": 5900,
    "\u25810x42990d": 5901,
    "\u25810x429920": 5902,
    "\u25810x429921": 5903,
    "1f4": 5904,
    "already": 5905,
    "\u25810x4603": 5906,
    "\u25810x42992a": 5907,
    "\u25810x42992b": 5908,
    "aad": 5909,
    "7978": 5910,
    "ally": 5911,
    "aveb": 5912,
    "avebeen": 5913,
    "\u25810x3810": 5914,
    "\u25810xffea": 5915,
    "youreally": 5916,
    "\u25810x417b50": 5917,
    "\u2581lo": 5918,
    "\u25810xde": 5919,
    "\u25810x115": 5920,
    "\u25810x2280": 5921,
    "\u2581stem32": 5922,
    "\u25810x12117e8": 5923,
    "\u2581messageboxw": 5924,
    "103": 5925,
    "\u25810x44e": 5926,
    "\u25810x6ce": 5927,
    "\u25810x41c4": 5928,
    "\u25810x7ddd": 5929,
    "\u2581lstrcmpw": 5930,
    "\u25810x7bc00000": 5931,
    "265": 5932,
    "df4": 5933,
    "006c": 5934,
    "6160": 5935,
    "form": 5936,
    "valuew": 5937,
    "\u25810x12117fc": 5938,
    "d78": 5939,
    "e90": 5940,
    "0068": 5941,
    "6564": 5942,
    "\u25810x40a2": 5943,
    "f4e4": 5944,
    "network": 5945,
    "\u25810x7dd0": 5946,
    "\u25810x8fc0": 5947,
    "205": 5948,
    "\u25810x1211e90": 5949,
    "\u25810x6f00": 5950,
    "3de": 5951,
    "\u25810x7e50": 5952,
    "\u2581youmust": 5953,
    "658": 5954,
    "6a8": 5955,
    "bed": 5956,
    "e05": 5957,
    "\u25810x572": 5958,
    "sand": 5959,
    "\u25810x8420": 5960,
    "\u25817z6": 5961,
    "\u25817z72": 5962,
    "\u25810x3010301": 5963,
    "198": 5964,
    "aa5": 5965,
    "\u2581mail": 5966,
    "\u25810x7dcc": 5967,
    "\u25810x1211e40": 5968,
    "\u2581registerclipboardformata": 5969,
    "424": 5970,
    "734": 5971,
    "\u2581fre": 5972,
    "filespec": 5973,
    "\u2581getmessagew": 5974,
    "ea20": 5975,
    "\u25810x1860": 5976,
    "\u25810x411555": 5977,
    "\u25810x411556": 5978,
    "\u25810x169bc9c": 5979,
    "\u2581removefilespec": 5980,
    "945": 5981,
    "lien": 5982,
    "\u25810x600": 5983,
    "\u25810x4066": 5984,
    "\u25810x4210": 5985,
    "\u25810x8490": 5986,
    "ce10": 5987,
    "\u25810x7dcd": 5988,
    "\u25810x1211e0c": 5989,
    "1a1": 5990,
    "88c": 5991,
    "bb0": 5992,
    "ipe": 5993,
    "68c8": 5994,
    "\u25810x42c5a0": 5995,
    "\u25810x42c5b8": 5996,
    "\u25810x439440": 5997,
    "\u25810x1211180": 5998,
    "1eb": 5999,
    "\u2581lib": 6000,
    "\u25810xfeee0108": 6001,
    "\u2581removefilespecw": 6002,
    "19b": 6003,
    "709": 6004,
    "7ad": 6005,
    "\u25810x4126": 6006,
    "\u25810x41cb": 6007,
    "\u25810x7dd4": 6008,
    "\u25810x42abc0": 6009,
    "\u25810x42fc68": 6010,
    "b82": 6011,
    "\u25810x42f1": 6012,
    "\u25810x7e51": 6013,
    "\u2581charprevw": 6014,
    "accelerators": 6015,
    "\u2581loadaccelerators": 6016,
    "\u25810x5658": 6017,
    "\u25810x6d006c": 6018,
    "\u25810xfeedf000": 6019,
    "processmemory": 6020,
    "ph": 6021,
    "1d5": 6022,
    "b42": 6023,
    "9d50": 6024,
    "\u25810x1b5": 6025,
    "\u25810x7dd1": 6026,
    "\u25810x7dd5": 6027,
    "\u25810x7dd8": 6028,
    "\u25810x7ddc": 6029,
    "dff": 6030,
    "f42": 6031,
    "idto": 6032,
    "\u25810x4300": 6033,
    "\u25810x7c000": 6034,
    "\u25810x42c570": 6035,
    "\u2581tsl": 6036,
    "\u2581issp": 6037,
    "\u25810x429d": 6038,
    "\u2581isspace": 6039,
    "\u25810x40935c": 6040,
    "\u25810x4093ec": 6041,
    "\u25810x6f006e": 6042,
    "\u25810x710070": 6043,
    "\u25810x770076": 6044,
    "\u25810x790078": 6045,
    "6d4": 6046,
    "a85": 6047,
    "\u25810x565": 6048,
    "\u25810x42a6": 6049,
    "\u25810x690068": 6050,
    "\u25810x6b006a": 6051,
    "\u25810x730072": 6052,
    "\u25810x750074": 6053,
    "\u25810x7b007a": 6054,
    "\u25810x7d007c": 6055,
    "\u25810x7f007e": 6056,
    "2cc": 6057,
    "\u2581884": 6058,
    "767574": 6059,
    "\u25810x77767574": 6060,
    "3f8": 6061,
    "905": 6062,
    "activ": 6063,
    "\u25810xbb": 6064,
    "\u25810x43a": 6065,
    "reate": 6066,
    "\u25810x57c": 6067,
    "session": 6068,
    "\u25810x7b7a": 6069,
    "\u25810x411218": 6070,
    "\u25810x42d8c6": 6071,
    "\u2581setenvironmentvariablew": 6072,
    "235": 6073,
    "545": 6074,
    "\u25810x1211f14": 6075,
    "14d": 6076,
    "58c": 6077,
    "vert": 6078,
    "\u2581oem": 6079,
    "\u25810x99d0": 6080,
    "\u25810x7b7a7978": 6081,
    "f6e6": 6082,
    "\u25810x5b5": 6083,
    "\u25810x415c": 6084,
    "versioninfow": 6085,
    "712": 6086,
    "76e": 6087,
    "4140": 6088,
    "\u25810x42018": 6089,
    "f2c": 6090,
    "fig": 6091,
    "\u25810x1210f64": 6092,
    "da2": 6093,
    "drl66": 6094,
    "\u25810x8e90": 6095,
    "\u2581tsldrl66": 6096,
    "ce5": 6097,
    "7d7c": 6098,
    "f3c": 6099,
    "f68": 6100,
    "fa6": 6101,
    "3cf8": 6102,
    "66d": 6103,
    "ebc": 6104,
    "\u258133": 6105,
    "727170": 6106,
    "\u25810x4235": 6107,
    "\u25810x73727170": 6108,
    "804": 6109,
    "a94": 6110,
    "626160": 6111,
    "ocreate": 6112,
    "\u25810x5040": 6113,
    "\u25810x6766": 6114,
    "\u25810x120ff": 6115,
    "erify": 6116,
    "\u25810xdf": 6117,
    "\u2581verify": 6118,
    "\u25810x63626160": 6119,
    "\u25810xfeedf": 6120,
    "\u25810x1211d2c": 6121,
    "\u25810x67666564": 6122,
    "364": 6123,
    "\u25810x97b0": 6124,
    "ax": 6125,
    "e5c": 6126,
    "90000": 6127,
    "\u25810x1211d44": 6128,
    "138": 6129,
    "6a6968": 6130,
    "\u25810x40a4": 6131,
    "\u25810x412e": 6132,
    "\u25810x486d": 6133,
    "\u25810xffc0": 6134,
    "\u25810x4012db": 6135,
    "\u25810x6b6a6968": 6136,
    "7d4": 6137,
    "chr": 6138,
    "e94": 6139,
    "son": 6140,
    "\u25810x411b": 6141,
    "\u25810x44e9": 6142,
    "348": 6143,
    "dd0": 6144,
    "dd8": 6145,
    "e2c": 6146,
    "\u25810x160": 6147,
    "\u25810x8410": 6148,
    "76b": 6149,
    "ert": 6150,
    "fox": 6151,
    "ualfox": 6152,
    "\u25810x46b": 6153,
    "\u25810x40f5": 6154,
    "\u25810xffeb": 6155,
    "processto": 6156,
    "arta": 6157,
    "f6e6d6c": 6158,
    "\u25810x4139": 6159,
    "\u25810x42df": 6160,
    "\u25810x6f6e6d6c": 6161,
    "741": 6162,
    "965": 6163,
    "\u2581qt": 6164,
    "\u25810x4e39": 6165,
    "\u25810x1210bd7": 6166,
    "6f0": 6167,
    "d14": 6168,
    "option": 6169,
    "\u25810x3b7": 6170,
    "9dc": 6171,
    "\u2581ie": 6172,
    "\u2581437": 6173,
    "\u2581ntm": 6174,
    "\u2581ntmarta": 6175,
    "\u25810x7f7e7d7c": 6176,
    "2c0": 6177,
    "eac": 6178,
    "proced": 6179,
    "\u25810x42b": 6180,
    "\u25810x3f24": 6181,
    "\u25810xff87": 6182,
    "692": 6183,
    "\u2581ls": 6184,
    "processtoken": 6185,
    "\u2581openprocesstoken": 6186,
    "9a0": 6187,
    "9d6": 6188,
    "find": 6189,
    "\u2581exp": 6190,
    "\u25810x4966": 6191,
    "installed": 6192,
    "\u25810x1211d50": 6193,
    "\u25810x77000723": 6194,
    "5f0": 6195,
    "d7c": 6196,
    "\u25810x411c": 6197,
    "\u2581runonce": 6198,
    "\u25810x103": 6199,
    "\u25810x406c": 6200,
    "\u25810x4076": 6201,
    "\u2581unlock": 6202,
    "a98": 6203,
    "gex": 6204,
    "\u25810x4eb": 6205,
    "\u25810x1211e98": 6206,
    "9d4": 6207,
    "aler": 6208,
    "ible": 6209,
    "\u25810x42ec": 6210,
    "\u25810x7ce0": 6211,
    "\u25810x100fdd": 6212,
    "1b1": 6213,
    "628": 6214,
    "f5e": 6215,
    "fae": 6216,
    "\u25810xd1": 6217,
    "\u25810x8028": 6218,
    "\u25810x10005c": 6219,
    "d82": 6220,
    "\u2581vie": 6221,
    "10060": 6222,
    "\u25810x4b4": 6223,
    "\u2581movefilew": 6224,
    "123": 6225,
    "e64": 6226,
    "\u25810xaf": 6227,
    "\u2581evie": 6228,
    "772": 6229,
    "6c00": 6230,
    "\u2581psc": 6231,
    "\u25810x5f3b": 6232,
    "268": 6233,
    "uld": 6234,
    "\u25810x2e7": 6235,
    "\u25810xffd5": 6236,
    "53a0": 6237,
    "af40": 6238,
    "ock32": 6239,
    "\u2581wsock32": 6240,
    "\u25810x409364": 6241,
    "f79": 6242,
    "core": 6243,
    "ablet": 6244,
    "1ac": 6245,
    "35c": 6246,
    "\u25810x4060": 6247,
    "e60": 6248,
    "f51": 6249,
    "5234": 6250,
    "\u25810x208": 6251,
    "ld": 6252,
    "ad2": 6253,
    "b97": 6254,
    "\u25810x28c": 6255,
    "568": 6256,
    "a24": 6257,
    "d00": 6258,
    "\u25810x40b7": 6259,
    "\u25810x1211e8c": 6260,
    "5b2": 6261,
    "762": 6262,
    "7b0": 6263,
    "b18": 6264,
    "e40": 6265,
    "\u25810x4ac": 6266,
    "\u25810x4444": 6267,
    "\u25810x8d90": 6268,
    "\u25810x482854": 6269,
    "\u25810x482870": 6270,
    "\u25810x4770": 6271,
    "\u25810x40f660": 6272,
    "\u25810x412565": 6273,
    "\u2581writeconsole": 6274,
    "632": 6275,
    "a3c": 6276,
    "7363": 6277,
    "l6660d": 6278,
    "\u25810x452": 6279,
    "\u25810x824": 6280,
    "\u25810x412566": 6281,
    "\u25810x3f31": 6282,
    "f83": 6283,
    "pop": 6284,
    "\u25810x421": 6285,
    "\u25810x698": 6286,
    "\u25810x1810": 6287,
    "\u25810x40ad": 6288,
    "\u2581module": 6289,
    "tochar": 6290,
    "\u25810x42dfe8": 6291,
    "\u25810x454bb8": 6292,
    "\u25810x12119a0": 6293,
    "\u2581oemtochar": 6294,
    "\u2581userprofil": 6295,
    "pk": 6296,
    "\u25810xdc": 6297,
    "\u25810x7df9": 6298,
    "\u25810x40938": 6299,
    "\u25810x3f6000": 6300,
    "\u25810x483cf8": 6301,
    "sion": 6302,
    "\u25810x7eec": 6303,
    "\u25810x40943": 6304,
    "\u25810x4238a8": 6305,
    "\u25810x4238d8": 6306,
    "drl6660drl6660drl6660drl6660drl6660": 6307,
    "bdc": 6308,
    "\u2581files": 6309,
    "\u2581dllonexit": 6310,
    "0064": 6311,
    "3e3d": 6312,
    "\u2581module32": 6313,
    "486": 6314,
    "650": 6315,
    "\u25810x120e690": 6316,
    "\u25810x120e698": 6317,
    "3d1": 6318,
    "fb4": 6319,
    "fed": 6320,
    "\u25810x3001": 6321,
    "\u2581systemtim": 6322,
    "\u2581physicaldriv": 6323,
    "sb": 6324,
    "66a": 6325,
    "da8": 6326,
    "\u258150": 6327,
    "\u25810x490": 6328,
    "\u25810x522": 6329,
    "\u25810x7a4": 6330,
    "\u25810x8330": 6331,
    "edownload": 6332,
    "\u25810x1211f68": 6333,
    "\u25810x431f": 6334,
    "eresource": 6335,
    "\u25810x3fb000": 6336,
    "\u2581shellexecutea": 6337,
    "\u2581physicaldrive0": 6338,
    "7c2": 6339,
    "0066": 6340,
    "formatw": 6341,
    "\u25810x8340": 6342,
    "\u25810x3f7000": 6343,
    "666": 6344,
    "\u25810xc4": 6345,
    "\u2581writeconsolew": 6346,
    "77f": 6347,
    "f5c": 6348,
    "6d7363": 6349,
    "\u25810x3f8000": 6350,
    "\u25810xe06d7363": 6351,
    "\u25810xfeee009e": 6352,
    "2c2": 6353,
    "dcc": 6354,
    "f74": 6355,
    "\u2581all": 6356,
    "\u25810x6300": 6357,
    "\u25810x437116": 6358,
    "\u25810x437117": 6359,
    "\u2581freeresource": 6360,
    "\u25810x7df8": 6361,
    "\u25810x12112": 6362,
    "\u25810x630062": 6363,
    "\u25810x650064": 6364,
    "\u25810x670066": 6365,
    "\u25810x6ce0000": 6366,
    "bf4": 6367,
    "\u25810x610060": 6368,
    "\u2581getconsolemode": 6369,
    "inth": 6370,
    "\u25810x43b6e9": 6371,
    "7f4": 6372,
    "bc4": 6373,
    "ower": 6374,
    "\u25810xec": 6375,
    "\u2581updat": 6376,
    "\u25810x43b6f3": 6377,
    "\u25810x238": 6378,
    "\u2581oemtochara": 6379,
    "710": 6380,
    "a83": 6381,
    "\u25810x40c4": 6382,
    "\u25810x483d": 6383,
    "\u25810xfeee00a0": 6384,
    "\u2581commandline": 6385,
    "7d5": 6386,
    "ange": 6387,
    "\u25810x413d": 6388,
    "\u25810x1211b38": 6389,
    "a0e": 6390,
    "\u25810xfe": 6391,
    "\u25810x1211968": 6392,
    "9eb": 6393,
    "b7e": 6394,
    "1110": 6395,
    "99b9": 6396,
    "\u25810x40b5": 6397,
    "\u25810xd3da80": 6398,
    "\u25810x1211878": 6399,
    "\u25810x1211e58": 6400,
    "37c": 6401,
    "42c": 6402,
    "argvw": 6403,
    "block": 6404,
    "toargvw": 6405,
    "\u25810x491994": 6406,
    "\u2581commandlinetoargvw": 6407,
    "685": 6408,
    "indi": 6409,
    "\u2581command": 6410,
    "4444": 6411,
    "\u25810xf1": 6412,
    "\u25810x2b2": 6413,
    "\u25810x492": 6414,
    "\u25810x4218": 6415,
    "195": 6416,
    "a43": 6417,
    "3130": 6418,
    "5410": 6419,
    "583": 6420,
    "bfc": 6421,
    "ce1": 6422,
    "try": 6423,
    "software": 6424,
    "244": 6425,
    "391": 6426,
    "3b0": 6427,
    "a7c": 6428,
    "dlg": 6429,
    "f69": 6430,
    "\u25810x41ad": 6431,
    "406": 6432,
    "medi": 6433,
    "driver": 6434,
    "\u25810x4178": 6435,
    "\u25810x3f9000": 6436,
    "\u25810x3fa000": 6437,
    "\u25810xb2": 6438,
    "\u25810xc2": 6439,
    "\u25810x604": 6440,
    "\u25810x41ab": 6441,
    "\u25810x41de00": 6442,
    "\u25810x10000000": 6443,
    "\u2581getprivateprofilestringa": 6444,
    "70e": 6445,
    "77b": 6446,
    "f10": 6447,
    "\u2581cb": 6448,
    "\u25810xffee": 6449,
    "\u25810x4093a5": 6450,
    "\u25810x4093a6": 6451,
    "\u25810x4093a7": 6452,
    "\u25810x4093a8": 6453,
    "\u25810x4093a9": 6454,
    "\u25810x4093aa": 6455,
    "\u25810x4093ab": 6456,
    "\u2581lcmapstringa": 6457,
    "xf": 6458,
    "c01": 6459,
    "dee": 6460,
    "pla": 6461,
    "24c": 6462,
    "5f4": 6463,
    "7e2": 6464,
    "desk": 6465,
    "lack": 6466,
    "llow": 6467,
    "\u2581cqa": 6468,
    "\u2581scqa": 6469,
    "\u2581pscqa": 6470,
    "7f9": 6471,
    "fd8": 6472,
    "20c0": 6473,
    "lity": 6474,
    "\u25810x120e": 6475,
    "\u25810x1211ddc": 6476,
    "f91": 6477,
    "pdf": 6478,
    "othe": 6479,
    "\u25810xfeee013": 6480,
    "6ab": 6481,
    "7fc": 6482,
    "lot": 6483,
    "now": 6484,
    "ptr": 6485,
    "\u2581ftp": 6486,
    "\u25810x407b": 6487,
    "\u25810x45d1": 6488,
    "\u2581wtsapi32": 6489,
    "\u2581verifyversioninfow": 6490,
    "b3c": 6491,
    "00000000": 6492,
    "\u25810x461548": 6493,
    "\u25810x12117c8": 6494,
    "tinue": 6495,
    "\u2581directory": 6496,
    "yourcomputer": 6497,
    "90e": 6498,
    "eyo": 6499,
    "rey": 6500,
    "days": 6501,
    "edby": 6502,
    "\u2581bord": 6503,
    "dealer": 6504,
    "mediat": 6505,
    "\u25811days": 6506,
    "ontinue": 6507,
    "havebeen": 6508,
    "\u2581dialogs": 6509,
    "allcadwork": 6510,
    "\u25810x1211d60": 6511,
    "\u2581doyoureally": 6512,
    "\u2581intermediat": 6513,
    "\u2581openanexploreron": 6514,
    "111": 6515,
    "34b": 6516,
    "389": 6517,
    "743": 6518,
    "\u25810x474": 6519,
    "\u25810x4ab": 6520,
    "\u25810x1814": 6521,
    "5bc": 6522,
    "606": 6523,
    "7c0": 6524,
    "7d6": 6525,
    "d74": 6526,
    "3bd0": 6527,
    "\u25810x1824": 6528,
    "\u25810x41f6": 6529,
    "\u2581getuserdefaultlcid": 6530,
    "6b3": 6531,
    "\u25810x700": 6532,
    "\u25810x565848": 6533,
    "\u25810x1211ecc": 6534,
    "774": 6535,
    "7f8": 6536,
    "b64": 6537,
    "fcc": 6538,
    "\u258103": 6539,
    "0012": 6540,
    "ea4": 6541,
    "param": 6542,
    "\u25810xff50": 6543,
    "dfdc": 6544,
    "\u25810xd3": 6545,
    "\u25810x4048": 6546,
    "\u25810x41b1": 6547,
    "\u25810x7730": 6548,
    "\u25810x697070": 6549,
    "2838": 6550,
    "\u25810x409e": 6551,
    "101": 6552,
    "6808": 6553,
    "andar": 6554,
    "270": 6555,
    "f1b": 6556,
    "okup": 6557,
    "\u25810xc3": 6558,
    "a00000": 6559,
    "\u25810x232": 6560,
    "\u2581coinitialize": 6561,
    "isation": 6562,
    "\u25810x4156": 6563,
    "\u2581loadacceleratorsw": 6564,
    "578": 6565,
    "9ec": 6566,
    "b9b": 6567,
    "eexist": 6568,
    "\u25810x88c0": 6569,
    "\u2581lookup": 6570,
    "\u25810x4540e0": 6571,
    "\u2581fileexist": 6572,
    "6fc": 6573,
    "bf8": 6574,
    "f3e": 6575,
    "\u25810xe8": 6576,
    "\u25810x10b": 6577,
    "\u25810x42a403": 6578,
    "\u25810x42a404": 6579,
    "\u25810x42a405": 6580,
    "\u25810x42a406": 6581,
    "\u25810x42a407": 6582,
    "\u25810x42a408": 6583,
    "\u25810x42a409": 6584,
    "\u25810x42a40a": 6585,
    "\u25810x42a40b": 6586,
    "\u25810x42a40c": 6587,
    "\u25810x42a40d": 6588,
    "\u25810x42a40e": 6589,
    "\u25810x42a40f": 6590,
    "152": 6591,
    "7a5": 6592,
    "ort": 6593,
    "69c0": 6594,
    "\u25810xef": 6595,
    "client": 6596,
    "ataddress": 6597,
    "systemtime": 6598,
    "003": 6599,
    "5d4": 6600,
    "f9e": 6601,
    "edcc": 6602,
    "frame": 6603,
    "\u25810x1211e88": 6604,
    "\u2581accessviolationataddress": 6605,
    "96d": 6606,
    "scroll": 6607,
    "\u25810x41e2": 6608,
    "\u2581findwindoww": 6609,
    "1918": 6610,
    "resourc": 6611,
    "\u25810x1818": 6612,
    "\u25810x4a40": 6613,
    "335": 6614,
    "3ef0": 6615,
    "reen": 6616,
    "\u25810x40a40": 6617,
    "ds": 6618,
    "201": 6619,
    "d0b": 6620,
    "\u25810xe2": 6621,
    "\u25810x4b8": 6622,
    "\u25810xffda": 6623,
    "\u25810x2d4df": 6624,
    "\u25810x4153a0": 6625,
    "\u25810x6781d8": 6626,
    "\u2581regqueryvalueexa": 6627,
    "7a4": 6628,
    "bd8": 6629,
    "\u2581if": 6630,
    "\u25810x8830": 6631,
    "\u25810x419638": 6632,
    "5ac": 6633,
    "706": 6634,
    "d65": 6635,
    "times": 6636,
    "\u25810xd5": 6637,
    "\u25810x50e10": 6638,
    "\u25810x44ea20": 6639,
    "ae00": 6640,
    "etime": 6641,
    "\u25810x99a0": 6642,
    "\u25810x7e3000": 6643,
    "\u25810x7e4000": 6644,
    "\u25810x1211fe4": 6645,
    "\u2581freeenvironmentstringsa": 6646,
    "915": 6647,
    "b45": 6648,
    "\u25810x4ec": 6649,
    "147": 6650,
    "3ae": 6651,
    "6ad": 6652,
    "\u25810xb7": 6653,
    "\u25810x431": 6654,
    "\u25810x3f23": 6655,
    "\u25810xffdb": 6656,
    "978": 6657,
    "9d1": 6658,
    "\u25810xeb": 6659,
    "sessionid": 6660,
    "\u2581isbadwrite": 6661,
    "771": 6662,
    "9ce": 6663,
    "004c": 6664,
    "\u2581for": 6665,
    "applet": 6666,
    "\u25810x798": 6667,
    "\u25810xe9a": 6668,
    "\u25810x4342": 6669,
    "752": 6670,
    "a7b": 6671,
    "\u25810x4dc": 6672,
    "\u25810x4033e6": 6673,
    "\u25810x698b8c": 6674,
    "\u25810x4c50c0": 6675,
    "\u2581isbadwriteptr": 6676,
    "80c": 6677,
    "b34": 6678,
    "imer": 6679,
    "\u2581qt5": 6680,
    "\u25810x2439": 6681,
    "\u25810x4a80": 6682,
    "\u25810x1210f8c": 6683,
    "\u25810x1211a4c": 6684,
    "43b": 6685,
    "upp": 6686,
    "\u25810x562838": 6687,
    "\u25810x563888": 6688,
    "\u25810x563a08": 6689,
    "\u25810x569b30": 6690,
    "\u2581lstrcmpia": 6691,
    "764": 6692,
    "da4": 6693,
    "onsolec": 6694,
    "\u25810x184c": 6695,
    "\u25810x7eed": 6696,
    "\u25810x9110": 6697,
    "\u25810x9210": 6698,
    "\u25810xfeee009f": 6699,
    "\u2581getconsolec": 6700,
    "\u2581localrealloc": 6701,
    "73b": 6702,
    "\u25810x1830": 6703,
    "\u2581getwindowdc": 6704,
    "75b": 6705,
    "79a": 6706,
    "7f2": 6707,
    "\u25810x1848": 6708,
    "2ec": 6709,
    "903": 6710,
    "d43": 6711,
    "ef8": 6712,
    "\u25810x1838": 6713,
    "etw": 6714,
    "b47c": 6715,
    "\u2581fast": 6716,
    "\u25810xba8": 6717,
    "\u25810x1828": 6718,
    "194": 6719,
    "7f7": 6720,
    "\u25810x272": 6721,
    "\u25810x6e6": 6722,
    "\u25810x1820": 6723,
    "\u25810x4d80": 6724,
    "ofaddress": 6725,
    "\u25810x42ce10": 6726,
    "\u25810x42e5c8": 6727,
    "\u25810x42e5e0": 6728,
    "\u25810x2000000": 6729,
    "cons": 6730,
    "ff40": 6731,
    "\u25810x1840": 6732,
    "3be": 6733,
    "67b": 6734,
    "756": 6735,
    "9640": 6736,
    "9852": 6737,
    "\u25810x183c": 6738,
    "\u25810x423e": 6739,
    "325": 6740,
    "3f2": 6741,
    "f64": 6742,
    "\u2581cau": 6743,
    "gistry": 6744,
    "\u25810x2f2": 6745,
    "\u25810x1104": 6746,
    "\u25810x1844": 6747,
    "\u25810x1854": 6748,
    "\u25810x40b9": 6749,
    "\u2581caution": 6750,
    "\u25810x42fc20": 6751,
    "7e5": 6752,
    "\u25810xda": 6753,
    "\u25810x1850": 6754,
    "\u25810x4285c0": 6755,
    "\u25810x42e598": 6756,
    "\u25810x1211de8": 6757,
    "\u2581getconsolecp": 6758,
    "cho": 6759,
    "\u25810xed": 6760,
    "\u25810x182c": 6761,
    "\u25810x120f7": 6762,
    "\u25810x418a00": 6763,
    "\u25810x418a30": 6764,
    "installation": 6765,
    "641": 6766,
    "9ac": 6767,
    "aa3": 6768,
    "b91": 6769,
    "enh": 6770,
    "\u2581dat": 6771,
    "\u25810x7eac": 6772,
    "\u25810x1211984": 6773,
    "6b2": 6774,
    "\u25810x171": 6775,
    "\u25810x186c": 6776,
    "\u25810x573c": 6777,
    "va": 6778,
    "7b4": 6779,
    "929": 6780,
    "a3f": 6781,
    "\u25810x1834": 6782,
    "\u25810x1858": 6783,
    "\u25810x4491": 6784,
    "1c6": 6785,
    "9da": 6786,
    "a1b": 6787,
    "1ef0": 6788,
    "\u2581getstringtypea": 6789,
    "\u25810x185c": 6790,
    "\u25810x181bc0": 6791,
    "\u25810x1211ca4": 6792,
    "\u2581filetimetosystemtime": 6793,
    "2d1": 6794,
    "3534": 6795,
    "5678": 6796,
    "move": 6797,
    "\u25810xd4": 6798,
    "\u25810x5b2": 6799,
    "\u25810x1868": 6800,
    "\u25810x1878": 6801,
    "\u25810x4c97": 6802,
    "\u25810x4208e0": 6803,
    "forcadwork": 6804,
    "715": 6805,
    "hash": 6806,
    "roniz": 6807,
    "\u25810x3f28": 6808,
    "\u25810x8820": 6809,
    "\u25810x448ad0": 6810,
    "1a3": 6811,
    "694": 6812,
    "\u2581date": 6813,
    "\u2581from": 6814,
    "\u25810x42db": 6815,
    "\u2581gdiplus": 6816,
    "\u2581synchroniz": 6817,
    "imetofiletime": 6818,
    "\u2581comparestringa": 6819,
    "d4e": 6820,
    "\u2581ro": 6821,
    "500000": 6822,
    "\u25810x4e2": 6823,
    "\u25810x7fa": 6824,
    "\u25810x1874": 6825,
    "\u25810x42c070": 6826,
    "\u25810x47ee08": 6827,
    "\u2581riched20": 6828,
    "ve": 6829,
    "b46": 6830,
    "\u25810x187c": 6831,
    "\u25810x1211fb0": 6832,
    "\u2581getthreadpriority": 6833,
    "30c": 6834,
    "ell": 6835,
    "ecode": 6836,
    "\u25810x9230": 6837,
    "b880": 6838,
    "\u25810x3f29": 6839,
    "\u25810x4130": 6840,
    "\u25810x419ce0": 6841,
    "763": 6842,
    "a67": 6843,
    "52e8": 6844,
    "ails": 6845,
    "mple": 6846,
    "etween": 6847,
    "\u25810x43c": 6848,
    "\u25810x4e300": 6849,
    "\u25810x1211f08": 6850,
    "f43": 6851,
    "\u25810x1864": 6852,
    "\u25810x1870": 6853,
    "\u25810x4420": 6854,
    "\u2581onexit": 6855,
    "\u25810x593748": 6856,
    "\u2581charlower": 6857,
    "67e": 6858,
    "\u25810x7d0": 6859,
    "\u25810x424e": 6860,
    "f34": 6861,
    "fa3": 6862,
    "\u25810x4c78": 6863,
    "\u25810xebad": 6864,
    "\u2581qt5core": 6865,
    "localfiletime": 6866,
    "\u2581filetimetolocalfiletime": 6867,
    "230": 6868,
    "93d": 6869,
    "b94": 6870,
    "enter": 6871,
    "\u2581sldrl6660drl6660drl6660drl6660drl6660drl6660drl6660drl6660": 6872,
    "mi": 6873,
    "b05": 6874,
    "dcode": 6875,
    "\u25810x42eab0": 6876,
    "5c5": 6877,
    "7b5": 6878,
    "ontrol": 6879,
    "\u25810x40ca": 6880,
    "\u25810x45d0": 6881,
    "7e3": 6882,
    "a75": 6883,
    "c0c": 6884,
    "d22": 6885,
    "d55": 6886,
    "\u2581ext": 6887,
    "a5958": 6888,
    "14c8": 6889,
    "4005": 6890,
    "d310": 6891,
    "\u25810x9c8": 6892,
    "\u25810x1211b58": 6893,
    "\u25810xfeee019": 6894,
    "\u2581charpreva": 6895,
    "17f": 6896,
    "1a6": 6897,
    "5a0": 6898,
    "gcc": 6899,
    "\u2581libgcc": 6900,
    "\u25810x5607a8": 6901,
    "\u2581shgetfileinfoa": 6902,
    "a42": 6903,
    "f00": 6904,
    "\u2581afx": 6905,
    "ongles": 6906,
    "\u25810x4179": 6907,
    "\u25810x43b4": 6908,
    "\u25810x46b4": 6909,
    "3dc": 6910,
    "6a9": 6911,
    "bd6": 6912,
    "b445": 6913,
    "\u25810x3b3": 6914,
    "\u25810x3f21": 6915,
    "\u25810x4070": 6916,
    "\u25810xfeee00a1": 6917,
    "a12": 6918,
    "d9b": 6919,
    "972c": 6920,
    "ffa0": 6921,
    "fileex": 6922,
    "\u25810x3f4": 6923,
    "\u25810x4780": 6924,
    "visualfox": 6925,
    "\u25810x42c020": 6926,
    "\u25810xebad74": 6927,
    "\u25810x1153ef0": 6928,
    "\u25810x1211ba4": 6929,
    "\u2581vfp": 6930,
    "uldnot": 6931,
    "\u2581winht": 6932,
    "\u25810x42c024": 6933,
    "\u25810x42c028": 6934,
    "\u25810x7ba00000": 6935,
    "\u25810xfeee00a2": 6936,
    "13d": 6937,
    "51b": 6938,
    "97c": 6939,
    "\u25810x3020": 6940,
    "\u25810x40af": 6941,
    "\u25810x4208df": 6942,
    "\u25810x7a22f8": 6943,
    "visualfoxpro": 6944,
    "e5d5c": 6945,
    "\u25810x5ab": 6946,
    "\u25810x4af460": 6947,
    "etofiletime": 6948,
    "\u25810x5f5e5d5c": 6949,
    "\u2581systemtimetofiletime": 6950,
    "5655": 6951,
    "\u25810mb": 6952,
    "\u2581cal": 6953,
    "\u25810x120faac": 6954,
    "\u25810x5b5a5958": 6955,
    "115": 6956,
    "64e": 6957,
    "7ee": 6958,
    "6b61": 6959,
    "f6fc": 6960,
    "\u25810x42d0": 6961,
    "12b8": 6962,
    "\u25810x4106": 6963,
    "\u25810x120e6a0": 6964,
    "\u25810x5265c50": 6965,
    "\u25810xba": 6966,
    "\u25810x510": 6967,
    "\u25810x3f25": 6968,
    "\u2581service": 6969,
    "\u2581setcurrentdirectoryw": 6970,
    "b38": 6971,
    "7a90": 6972,
    "a4c4": 6973,
    "\u2581tow": 6974,
    "utton": 6975,
    "\u25810x9a": 6976,
    "7c6": 6977,
    "eab": 6978,
    "f8a": 6979,
    "\u25810x457c": 6980,
    "\u25810x1210f88": 6981,
    "mt": 6982,
    "2f0": 6983,
    "det": 6984,
    "\u25810x584": 6985,
    "\u25810x417d20": 6986,
    "\u25810x41ae00": 6987,
    "\u25810x41af40": 6988,
    "\u25810x7e5000": 6989,
    "\u25810x12117b0": 6990,
    "\u25810x1211f58": 6991,
    "\u2581applicationerror": 6992,
    "745": 6993,
    "912": 6994,
    "3c24": 6995,
    "\u25810x4d0": 6996,
    "\u25810x5000": 6997,
    "\u25810x40a020": 6998,
    "\u25810x41ad50": 6999,
    "\u25810x42b070": 7000,
    "\u25810x42eaa6": 7001,
    "\u25810x42eaba": 7002,
    "\u25810x42eac4": 7003,
    "\u25810x1211eb4": 7004,
    "14f": 7005,
    "a33": 7006,
    "dca": 7007,
    "6cbe": 7008,
    "9e00": 7009,
    "c018": 7010,
    "\u25810x4609": 7011,
    "\u25810xfffff8": 7012,
    "510": 7013,
    "emo": 7014,
    "1d1c": 7015,
    "\u2581logme": 7016,
    "\u25810x3820382": 7017,
    "\u25810xfeee016": 7018,
    "\u25810xfeee00a3": 7019,
    "\u25810xfeee00a4": 7020,
    "143": 7021,
    "642": 7022,
    "9e2": 7023,
    "ati": 7024,
    "brows": 7025,
    "\u25810x4e3": 7026,
    "\u25810x598": 7027,
    "\u25810x1211708": 7028,
    "\u25810xfeee00a5": 7029,
    "765": 7030,
    "d13": 7031,
    "\u25810x44d": 7032,
    "\u2581class": 7033,
    "\u25810x3f27": 7034,
    "\u25810x4de8": 7035,
    "\u25810x9050": 7036,
    "\u25810x77002": 7037,
    "\u25810x406698": 7038,
    "\u2581formatmessagea": 7039,
    "6d6": 7040,
    "a62": 7041,
    "dio": 7042,
    "ff2": 7043,
    "001a": 7044,
    "\u25810xdb": 7045,
    "\u25810x7a40": 7046,
    "\u25810x4b4a4": 7047,
    "12a": 7048,
    "993": 7049,
    "e20": 7050,
    "e054": 7051,
    "\u25810xc5": 7052,
    "\u25810x4155": 7053,
    "\u25810x5375": 7054,
    "\u25810x7eab78": 7055,
    "\u25810x3810381": 7056,
    "2ed": 7057,
    "3a1": 7058,
    "b24": 7059,
    "bec": 7060,
    "6408": 7061,
    "isplay": 7062,
    "f4e4d4c": 7063,
    "\u25810x40e4": 7064,
    "\u25810x45cd": 7065,
    "\u25810x4b4a4948": 7066,
    "\u25810x4f4e4d4c": 7067,
    "\u2581fileexistsw": 7068,
    "181": 7069,
    "ece": 7070,
    "fdc": 7071,
    "pass": 7072,
    "565554": 7073,
    "\u25810x51a0": 7074,
    "\u25810x57565554": 7075,
    "334": 7076,
    "b7b": 7077,
    "\u2581x0": 7078,
    "\u25817z8": 7079,
    "\u25817z2e": 7080,
    "\u25810x3332": 7081,
    "\u25810x4ec0": 7082,
    "\u25810x1210f80": 7083,
    "\u25810xfeee00a6": 7084,
    "\u2581regsetvalueexa": 7085,
    "402": 7086,
    "6aa": 7087,
    "6ec": 7088,
    "e0e": 7089,
    "e3a": 7090,
    "\u25810xf4": 7091,
    "\u2581users": 7092,
    "\u25810x1211ebc": 7093,
    "\u25810x2280228": 7094,
    "\u2581getcursorpos": 7095,
    "ep": 7096,
    "766": 7097,
    "util": 7098,
    "64544": 7099,
    "orary": 7100,
    "\u25810xe7": 7101,
    "\u25817z30": 7102,
    "3e3d3c": 7103,
    "config": 7104,
    "\u2581default": 7105,
    "\u25810x3f3e3d3c": 7106,
    "\u25810x43424140": 7107,
    "\u25810x47464544": 7108,
    "su": 7109,
    "1a5": 7110,
    "\u258102a": 7111,
    "\u25810xb1": 7112,
    "\u25810x488": 7113,
    "\u25810x3736": 7114,
    "\u25810x40c8": 7115,
    "\u25810xfff1": 7116,
    "\u25810x1211b34": 7117,
    "5a7": 7118,
    "a2c": 7119,
    "anew": 7120,
    "\u2581vfp6": 7121,
    "author": 7122,
    "\u25810x2f2e2": 7123,
    "\u25810x437038": 7124,
    "\u2581msvcr100": 7125,
    "\u25810x12110d8": 7126,
    "\u25810x1211338": 7127,
    "\u25810x1211ad4": 7128,
    "\u25810x37363534": 7129,
    "ak": 7130,
    "f03": 7131,
    "fa0": 7132,
    "fb8": 7133,
    "61514": 7134,
    "a3938": 7135,
    "\u2581stdio": 7136,
    "\u25810x413b": 7137,
    "\u25810x44d5": 7138,
    "\u25810x71a0": 7139,
    "\u25810x416b50": 7140,
    "\u25810x4540b0": 7141,
    "\u25810x1211b84": 7142,
    "\u25810x17161514": 7143,
    "\u25810x2f2e2d2c": 7144,
    "\u25810x33323130": 7145,
    "\u25810x3b3a3938": 7146,
    "264": 7147,
    "wer": 7148,
    "22120": 7149,
    "62524": 7150,
    "a2928": 7151,
    "1a1918": 7152,
    "1e1d1c": 7153,
    "\u25810x4079": 7154,
    "\u25810x6978": 7155,
    "\u25810x1b1a1918": 7156,
    "\u25810x1f1e1d1c": 7157,
    "\u25810x23222120": 7158,
    "\u25810x27262524": 7159,
    "\u25810x2b2a2928": 7160,
    "362": 7161,
    "9df": 7162,
    "aca": 7163,
    "f47": 7164,
    "180f": 7165,
    "copy": 7166,
    "25150": 7167,
    "anden": 7168,
    "\u25810x4090": 7169,
    "\u25810x181be8": 7170,
    "\u25810x4af478": 7171,
    "\u25810x1211690": 7172,
    "\u25810x53525150": 7173,
    "d3d": 7174,
    "24ac": 7175,
    "7c80": 7176,
    "latsb": 7177,
    "\u25810x433": 7178,
    "\u2581calloc": 7179,
    "\u25810x43a4c8": 7180,
    "vb": 7181,
    "a25": 7182,
    "d15": 7183,
    "eb0": 7184,
    "\u2581ur": 7185,
    "\u25810xc7": 7186,
    "\u25810x1d4": 7187,
    "\u25810x447": 7188,
    "\u2581convert": 7189,
    "\u25810x181c10": 7190,
    "\u2581expanden": 7191,
    "\u2581writeprivateprofile": 7192,
    "b6c": 7193,
    "yourpc": 7194,
    "drawing": 7195,
    "\u25810x423f": 7196,
    "\u25810x437800": 7197,
    "\u25810x1211d8c": 7198,
    "62c": 7199,
    "9fa2": 7200,
    "orgex": 7201,
    "\u25810xfb": 7202,
    "\u25810x118": 7203,
    "\u25810x47c": 7204,
    "\u25810x8850": 7205,
    "\u25810x5f3b5c": 7206,
    "\u25810x5f3c24": 7207,
    "\u25810x5f5f30": 7208,
    "\u25810x5f5f70": 7209,
    "\u25810x5f6114": 7210,
    "\u25810x5f612c": 7211,
    "\u25810xfffffffc": 7212,
    "61e": 7213,
    "791": 7214,
    "7ff": 7215,
    "\u25810xe4": 7216,
    "\u25810x9cc0": 7217,
    "\u25810x2d4d9": 7218,
    "\u25810x80000": 7219,
    "\u25810x419cb0": 7220,
    "\u25810x42180f": 7221,
    "\u25810x421810": 7222,
    "\u2581writeprocessmemory": 7223,
    "25c": 7224,
    "f5b": 7225,
    "6178": 7226,
    "a448": 7227,
    "d250": 7228,
    "\u25810x7e20": 7229,
    "\u25810x8cd8": 7230,
    "\u2581charupp": 7231,
    "\u25810x181c38": 7232,
    "\u25810x455438": 7233,
    "a65": 7234,
    "ave": 7235,
    "uet": 7236,
    "\u25810x16b": 7237,
    "\u25810x830": 7238,
    "\u25810x416dd3": 7239,
    "\u25810x416dd4": 7240,
    "\u25810x42a0a4": 7241,
    "\u25810xfeee00bc": 7242,
    "\u2581regopenkeya": 7243,
    "\u2581lookupprivilege": 7244,
    "1ae": 7245,
    "242": 7246,
    "1740": 7247,
    "9228": 7248,
    "9f40": 7249,
    "\u25810x7d27": 7250,
    "\u2581msvcr71": 7251,
    "lotter": 7252,
    "c85": 7253,
    "dfe": 7254,
    "pkg": 7255,
    "18d5": 7256,
    "5648": 7257,
    "7a00": 7258,
    "output": 7259,
    "\u25810x59e": 7260,
    "connect": 7261,
    "\u25810x1002": 7262,
    "\u25810x6ab8": 7263,
    "\u2581strcpyw": 7264,
    "\u25810x41e208": 7265,
    "3b2": 7266,
    "6a0": 7267,
    "d20": 7268,
    "bcb8": 7269,
    "\u2581164": 7270,
    "\u25810xdd": 7271,
    "\u25810x503": 7272,
    "\u25810x40a3d1": 7273,
    "\u25810x40a3d2": 7274,
    "\u25810x40a3d3": 7275,
    "\u2581towlower": 7276,
    "\u25810x1211d7c": 7277,
    "\u25810xfeee00a7": 7278,
    "e014": 7279,
    "ableto": 7280,
    "usttoken": 7281,
    "\u25810x12108": 7282,
    "\u25810x435024": 7283,
    "\u25810x4e2de0": 7284,
    "\u25810x1211cbc": 7285,
    "\u25810xfeee00a8": 7286,
    "245": 7287,
    "4010": 7288,
    "\u2581cho": 7289,
    "\u25810x4a4": 7290,
    "\u2581licen": 7291,
    "\u25810x435026": 7292,
    "\u25810x435032": 7293,
    "privileges": 7294,
    "\u2581setscroll": 7295,
    "\u25810xfeee00a9": 7296,
    "usttokenprivileges": 7297,
    "gs": 7298,
    "36b": 7299,
    "40f": 7300,
    "d45": 7301,
    "e38": 7302,
    "\u25810xb9": 7303,
    "\u25810x470": 7304,
    "eengine": 7305,
    "\u25810x40b0": 7306,
    "\u25810x48b0": 7307,
    "available": 7308,
    "\u25810x40e500": 7309,
    "\u25810x1211a38": 7310,
    "\u2581formatmessagew": 7311,
    "exten": 7312,
    "\u25810xb6": 7313,
    "ssetup": 7314,
    "\u25810x42ed": 7315,
    "\u25810x1211dc4": 7316,
    "\u25810x1211e50": 7317,
    "initializeengine": 7318,
    "\u2581failedtoinitializeengine": 7319,
    "134": 7320,
    "f8f": 7321,
    "ioc": 7322,
    "zip": 7323,
    "002a": 7324,
    "\u25810xe5": 7325,
    "releas": 7326,
    "llowing": 7327,
    "\u25810x7e8c": 7328,
    "\u25810x41aa80": 7329,
    "\u25810xfeee00aa": 7330,
    "166": 7331,
    "e9a": 7332,
    "727c": 7333,
    "keya": 7334,
    "node": 7335,
    "\u25810x41aab0": 7336,
    "\u25810x1211ad0": 7337,
    "\u25810x54500000": 7338,
    "9c5": 7339,
    "db4": 7340,
    "e70": 7341,
    "upd": 7342,
    "98e0": 7343,
    "\u25810xd6": 7344,
    "\u25810x112": 7345,
    "\u25810x132": 7346,
    "updated": 7347,
    "\u25810x4013": 7348,
    "\u25810x4140": 7349,
    "\u25810xfeee00ac": 7350,
    "634": 7351,
    "760": 7352,
    "7df": 7353,
    "tob": 7354,
    "wil": 7355,
    "30ec": 7356,
    "ache": 7357,
    "c0f0": 7358,
    "\u2581cod": 7359,
    "\u25810x515": 7360,
    "\u25810x4640": 7361,
    "\u25810xfeee00ab": 7362,
    "\u25810xfeee00ae": 7363,
    "\u2581thisprogram": 7364,
    "3030": 7365,
    "\u25810xe6": 7366,
    "\u25810x45b1": 7367,
    "\u25810xa010": 7368,
    "fication": 7369,
    "\u25810x461500": 7370,
    "\u2581iswindow": 7371,
    "\u25810x1210f84": 7372,
    "bb5": 7373,
    "db2": 7374,
    "db3": 7375,
    "web": 7376,
    "503c": 7377,
    "ffcb": 7378,
    "\u25810x1e0": 7379,
    "\u25810x40a5bc": 7380,
    "\u25810xfeee00ad": 7381,
    "\u2581installation": 7382,
    "\u2581getsystemdefaultuilanguage": 7383,
    "fs": 7384,
    "d51": 7385,
    "f39": 7386,
    "remov": 7387,
    "before": 7388,
    "lientin": 7389,
    "\u25810x7d40": 7390,
    "\u25810x8de0": 7391,
    "\u25810x1211e94": 7392,
    "558": 7393,
    "6eb": 7394,
    "d69": 7395,
    "dc67": 7396,
    "itis": 7397,
    "pire": 7398,
    "sthe": 7399,
    "word": 7400,
    "\u2581cpp": 7401,
    "advis": 7402,
    "\u2581demo": 7403,
    "fromth": 7404,
    "\u25810x4ee0": 7405,
    "\u25810x5ab0": 7406,
    "\u25810x88e0": 7407,
    "beforeyou": 7408,
    "\u2581regqueryvalueexw": 7409,
    "28c": 7410,
    "cue": 7411,
    "artn": 7412,
    "atik": 7413,
    "grey": 7414,
    "undb": 7415,
    "acode": 7416,
    "eexpi": 7417,
    "inres": 7418,
    "\u2581itis": 7419,
    "edpipe": 7420,
    "inting": 7421,
    "stries": 7422,
    "edfiles": 7423,
    "groundb": 7424,
    "withthi": 7425,
    "\u25810x419b": 7426,
    "\u25810x4e00": 7427,
    "\u25810xa020": 7428,
    "\u2581prints": 7429,
    "catalogs": 7430,
    "continue": 7431,
    "inrescue": 7432,
    "\u25810x12000": 7433,
    "debughook": 7434,
    "isalready": 7435,
    "ofcadwork": 7436,
    "\u2581clientin": 7437,
    "abletoquit": 7438,
    "informatik": 7439,
    "sbeforeyou": 7440,
    "\u25810x1211e00": 7441,
    "\u2581itisadvis": 7442,
    "\u2581startfile": 7443,
    "groundblack": 7444,
    "clientnumber": 7445,
    "\u2581pleasecheck": 7446,
    "withthissetup": 7447,
    "\u2581cppdebughook": 7448,
    "allyourrunning": 7449,
    "inrescueapplet": 7450,
    "\u2581doyouwanttore": 7451,
    "\u2581dialogswindows": 7452,
    "\u2581backgroundblack": 7453,
    "sbeforeyoucontinue": 7454,
    "\u2581doyoureallywantto": 7455,
    "\u2581itisadvisabletoquit": 7456,
    "\u2581logmeinrescueapplet": 7457,
    "allyourrunningapplication": 7458,
    "sbeforeyoucontinuewiththissetup": 7459,
    "\u2581itisadvisabletoquitallyourrunningapplication": 7460,
    "\u25810xb5": 7461,
    "\u25810xce": 7462,
    "\u25810x8258": 7463,
    "\u25810x409ab4": 7464,
    "\u25810x409ab5": 7465,
    "\u25810x40a3d4": 7466,
    "95b": 7467,
    "7dcc": 7468,
    "filesfrom": 7469,
    "\u25810x1211d4c": 7470,
    "390": 7471,
    "63c": 7472,
    "7f6": 7473,
    "ab2": 7474,
    "\u2581os": 7475,
    "adc0": 7476,
    "f0f9": 7477,
    "ontext": 7478,
    "\u25810x53e4": 7479,
    "\u25810x83e014": 7480,
    "\u25810x1210e2b": 7481,
    "\u2581globaladd": 7482,
    "\u2581charlowerbuff": 7483,
    "dce": 7484,
    "004a": 7485,
    "\u25810x458": 7486,
    "\u25810x532": 7487,
    "\u25810xac0": 7488,
    "\u25810x2d4d": 7489,
    "\u25810x1210dec": 7490,
    "\u25810x1210f28": 7491,
    "\u2581regcreatekeyexa": 7492,
    "f3d": 7493,
    "\u25811c": 7494,
    "6b70": 7495,
    "\u25810x5d2": 7496,
    "\u25810x4b00": 7497,
    "\u25810x4de9": 7498,
    "\u25810xffd6": 7499,
    "\u25810x40300c": 7500,
    "\u25810x1210d1b": 7501,
    "\u25810x12119b0": 7502,
    "vironmentblock": 7503,
    "175": 7504,
    "e82": 7505,
    "\u25810xf2": 7506,
    "\u2581call": 7507,
    "\u25810x41ce": 7508,
    "thiscomputer": 7509,
    "74e": 7510,
    "e14": 7511,
    "enu": 7512,
    "f084": 7513,
    "laser": 7514,
    "\u25810x413f": 7515,
    "\u25810x9170": 7516,
    "\u25810x97c0": 7517,
    "\u25810x40958": 7518,
    "\u25810x1211ea8": 7519,
    "\u2581createsemaphorea": 7520,
    "\u2581outputdebugstringw": 7521,
    "2fc": 7522,
    "d63": 7523,
    "\u25810xb3": 7524,
    "\u25810x4450": 7525,
    "\u25810x51c3": 7526,
    "\u25810x12119f4": 7527,
    "\u25810x2050000": 7528,
    "\u25810xfeee00b1": 7529,
    "ddf": 7530,
    "14de": 7531,
    "76b4": 7532,
    "dec5b": 7533,
    "\u25810xee": 7534,
    "\u25810x44ed": 7535,
    "\u2581change": 7536,
    "675": 7537,
    "9aa": 7538,
    "ore": 7539,
    "11bc": 7540,
    "12a0": 7541,
    "a064": 7542,
    "d1ff": 7543,
    "place": 7544,
    "\u25810x150": 7545,
    "\u25810x1211f8c": 7546,
    "174": 7547,
    "20e": 7548,
    "540": 7549,
    "5ec": 7550,
    "61b": 7551,
    "b1b": 7552,
    "\u25810xbf": 7553,
    "\u2581coun": 7554,
    "dified": 7555,
    "instan": 7556,
    "\u25810x49b0": 7557,
    "\u25810x28fd0": 7558,
    "\u25810x1211684": 7559,
    "\u25810xfeee00af": 7560,
    "\u25810xfeee00b0": 7561,
    "\u2581getvolumeinformationw": 7562,
    "170": 7563,
    "1de": 7564,
    "a1c": 7565,
    "d64": 7566,
    "f6e": 7567,
    "\u25810xef4": 7568,
    "\u25810x4040": 7569,
    "\u25810x57eb": 7570,
    "\u2581readonly": 7571,
    "dfor": 7572,
    "\u25810x40a6": 7573,
    "\u25810x40f4": 7574,
    "\u25810x4194": 7575,
    "\u25810x46b3": 7576,
    "\u25810x120fe": 7577,
    "\u25810x430a80": 7578,
    "\u25810x1211a30": 7579,
    "15e": 7580,
    "ae6": 7581,
    "a4a1": 7582,
    "dbc0": 7583,
    "\u2581inf": 7584,
    "\u25810x288": 7585,
    "\u2581query": 7586,
    "\u2581shell": 7587,
    "procedure": 7588,
    "\u25810x417d50": 7589,
    "\u25810x1211dd8": 7590,
    "tokeninformation": 7591,
    "a22": 7592,
    "d12": 7593,
    "6925": 7594,
    "fbf8": 7595,
    "\u25810x1900": 7596,
    "\u25810x40762": 7597,
    "\u25810x100098": 7598,
    "\u25810x40a3d5": 7599,
    "\u25810x40a3d6": 7600,
    "\u25810x40a3d7": 7601,
    "\u25810x4175f4": 7602,
    "licenceson": 7603,
    "\u25810xfeedf200": 7604,
    "b90": 7605,
    "e7e": 7606,
    "\u25810x41b": 7607,
    "\u25810xa030": 7608,
    "\u2581gettext": 7609,
    "17c": 7610,
    "793": 7611,
    "9ee": 7612,
    "fdb": 7613,
    "icli": 7614,
    "prop": 7615,
    "\u2581sfc": 7616,
    "\u2581ssp": 7617,
    "\u2581sspicli": 7618,
    "\u25810x40a230": 7619,
    "vm": 7620,
    "132": 7621,
    "48b": 7622,
    "556": 7623,
    "a7e": 7624,
    "git": 7625,
    "\u2581ldr": 7626,
    "df0ad": 7627,
    "\u2581comp": 7628,
    "\u25810x439470": 7629,
    "\u25810x120f7a8": 7630,
    "\u25810xfeee00b2": 7631,
    "\u25810xfeee00b3": 7632,
    "\u25810xfeee00b4": 7633,
    "2fe": 7634,
    "6ac": 7635,
    "73c": 7636,
    "fb9": 7637,
    "40a3": 7638,
    "7578": 7639,
    "\u25810x7aa": 7640,
    "\u25810x421708": 7641,
    "1dd": 7642,
    "f24": 7643,
    "\u2581ab": 7644,
    "lear": 7645,
    "efolder": 7646,
    "\u25810x572c": 7647,
    "73e": 7648,
    "e18": 7649,
    "ff5": 7650,
    "\u2581dx": 7651,
    "\u25810x2357": 7652,
    "\u25810xf000": 7653,
    "\u25810x1211eb0": 7654,
    "\u25810x2357b78": 7655,
    "f02": 7656,
    "\u25810x4820": 7657,
    "\u25810x4a60": 7658,
    "\u2581classes": 7659,
    "\u25810x1211894": 7660,
    "\u25810xfeee00b5": 7661,
    "\u2581gettempfilenamew": 7662,
    "1a8": 7663,
    "398": 7664,
    "3f4": 7665,
    "f32": 7666,
    "\u25810x464": 7667,
    "\u25810x4055": 7668,
    "\u25810x120f9": 7669,
    "550": 7670,
    "612": 7671,
    "6d0": 7672,
    "e69": 7673,
    "9a9c": 7674,
    "dddc": 7675,
    "\u25810x244": 7676,
    "\u2581ifyou": 7677,
    "located": 7678,
    "\u25810x4016": 7679,
    "\u25810x4043": 7680,
    "\u25810xc0000": 7681,
    "willinstall": 7682,
    "405": 7683,
    "b30": 7684,
    "d9a": 7685,
    "2aa8": 7686,
    "\u2581qae": 7687,
    "belocated": 7688,
    "\u25810x1211e84": 7689,
    "\u2581gettokeninformation": 7690,
    "08c": 7691,
    "a71": 7692,
    "2c3c": 7693,
    "88a8": 7694,
    "\u25810x10e": 7695,
    "\u25810x41db": 7696,
    "\u25810x4364": 7697,
    "\u25810x4551": 7698,
    "\u25810x9090": 7699,
    "\u25810x14475": 7700,
    "\u25810x1210e10": 7701,
    "lu": 7702,
    "1d1": 7703,
    "1ed": 7704,
    "93b": 7705,
    "faa": 7706,
    "50f4": 7707,
    "\u25810xc6": 7708,
    "\u25810xfd": 7709,
    "\u25810x4680": 7710,
    "\u25810x4a30": 7711,
    "\u25810xfeee00b7": 7712,
    "6b8": 7713,
    "7f5": 7714,
    "001e": 7715,
    "0026": 7716,
    "a7d4": 7717,
    "b0cbc": 7718,
    "toyour": 7719,
    "\u25810x4c00": 7720,
    "\u25810xfeee00b8": 7721,
    "693": 7722,
    "7dd": 7723,
    "dda": 7724,
    "4330": 7725,
    "74f9": 7726,
    "9c80": 7727,
    "f3ed": 7728,
    "2acb2": 7729,
    "ultip": 7730,
    "\u25810x47a": 7731,
    "\u2581b2acb2": 7732,
    "outputcp": 7733,
    "\u25810x40a92c": 7734,
    "\u25810x40a93c": 7735,
    "\u25810x71000000": 7736,
    "a4d": 7737,
    "cc2": 7738,
    "93a8": 7739,
    "\u25810x4031": 7740,
    "\u25810x8818": 7741,
    "\u25810x8819": 7742,
    "\u2581network": 7743,
    "ultipleob": 7744,
    "972": 7745,
    "ec5": 7746,
    "9053": 7747,
    "\u2581tol": 7748,
    "textw": 7749,
    "handler": 7750,
    "rl6660d": 7751,
    "\u25810x40ea": 7752,
    "\u25810x41d8": 7753,
    "\u25810x5670": 7754,
    "\u25810x9820": 7755,
    "\u2581tolower": 7756,
    "\u25810x121192f": 7757,
    "\u25810x1211b8c": 7758,
    "\u25810x1211ec0": 7759,
    "\u25810xfeee00b6": 7760,
    "\u25810xfeee00b9": 7761,
    "\u2581destroywindow": 7762,
    "f8e7": 7763,
    "\u2581rsa": 7764,
    "ethis": 7765,
    "\u25810x3f26": 7766,
    "\u25810x4034": 7767,
    "\u25810x4533": 7768,
    "\u25810x8e50": 7769,
    "\u25810x90c0": 7770,
    "\u2581dialog": 7771,
    "\u2581folder": 7772,
    "\u2581rsaenh": 7773,
    "selection": 7774,
    "\u25810x1210f30": 7775,
    "1b5": 7776,
    "bde": 7777,
    "\u25810xcb": 7778,
    "\u2581dxgi": 7779,
    "\u2581dxgidebug": 7780,
    "\u2581getconsoleoutputcp": 7781,
    "hs": 7782,
    "356": 7783,
    "b71": 7784,
    "7d38": 7785,
    "f062": 7786,
    "\u25810x602": 7787,
    "\u25810x6e7": 7788,
    "\u25810x4561": 7789,
    "\u25810x40a538": 7790,
    "\u25810x12117ec": 7791,
    "\u25810xfeee00bb": 7792,
    "\u2581localfilet": 7793,
    "\u2581localfiletimetofiletime": 7794,
    "48c": 7795,
    "735": 7796,
    "779": 7797,
    "d94": 7798,
    "4367": 7799,
    "bcac": 7800,
    "deee": 7801,
    "updat": 7802,
    "aramet": 7803,
    "\u25810x81a0": 7804,
    "\u25810x40f690": 7805,
    "\u25810x417c10": 7806,
    "\u25810x1211d88": 7807,
    "722": 7808,
    "\u2581us": 7809,
    "6c42": 7810,
    "\u25810x40e8": 7811,
    "\u25810x48c0": 7812,
    "\u25810x417be0": 7813,
    "\u25810x1211b80": 7814,
    "611": 7815,
    "9f2": 7816,
    "c2b": 7817,
    "ede": 7818,
    "row": 7819,
    "eral": 7820,
    "f7f0": 7821,
    "\u25810x4650": 7822,
    "\u25810xffd9": 7823,
    "deleteatom": 7824,
    "\u2581setfiletime": 7825,
    "\u2581globaldeleteatom": 7826,
    "604": 7827,
    "7ed": 7828,
    "\u25813d": 7829,
    "lang": 7830,
    "\u25810x4197": 7831,
    "\u25810x4239": 7832,
    "\u25810x42c0e0": 7833,
    "\u25810xfeee00ba": 7834,
    "\u2581getfullnamew": 7835,
    "1fc": 7836,
    "ad5": 7837,
    "fb5": 7838,
    "0054": 7839,
    "bf3c": 7840,
    "d0d4": 7841,
    "ocus": 7842,
    "\u25810x59d": 7843,
    "\u25810x4644": 7844,
    "\u25810x46b5": 7845,
    "\u25810x7e94": 7846,
    "\u2581flatsb": 7847,
    "6d9": 7848,
    "9f4": 7849,
    "bc1": 7850,
    "c0b": 7851,
    "ddc": 7852,
    "f14": 7853,
    "45a2": 7854,
    "ec43": 7855,
    "enti": 7856,
    "\u25810x4bc298": 7857,
    "\u2581movefilea": 7858,
    "sh": 7859,
    "23d": 7860,
    "2b0": 7861,
    "332": 7862,
    "3c5": 7863,
    "e78": 7864,
    "e100": 7865,
    "croll": 7866,
    "langid": 7867,
    "\u25810x4b0": 7868,
    "\u25810x4720": 7869,
    "\u25810x7e95": 7870,
    "\u25810x881c": 7871,
    "\u25810x881d": 7872,
    "\u25810x12116fc": 7873,
    "\u2581getscroll": 7874,
    "codeprocess": 7875,
    "\u25810xfeee00bd": 7876,
    "\u25810xfeee00d7": 7877,
    "\u2581getexitcodeprocess": 7878,
    "23b": 7879,
    "e1c": 7880,
    "f66": 7881,
    "f8b": 7882,
    "536c": 7883,
    "56c8": 7884,
    "ddb8": 7885,
    "\u25810x1bc": 7886,
    "\u25810x40a548": 7887,
    "\u25810x40b3a0": 7888,
    "\u2581cocreate": 7889,
    "\u25810xfeee00be": 7890,
    "105": 7891,
    "d91": 7892,
    "f0b": 7893,
    "fff3": 7894,
    "\u2581cre": 7895,
    "sions": 7896,
    "dialog": 7897,
    "\u25810x44c4": 7898,
    "\u25810x4bc328": 7899,
    "\u25810x4bc358": 7900,
    "initializeex": 7901,
    "\u2581coinitializeex": 7902,
    "914": 7903,
    "w32": 7904,
    "49c0": 7905,
    "atic": 7906,
    "\u25810x4fc": 7907,
    "\u25810x4100": 7908,
    "\u25810x4b20": 7909,
    "\u25810x83e6": 7910,
    "\u25810x8821": 7911,
    "\u25810xfeee00bf": 7912,
    "422": 7913,
    "9ab": 7914,
    "dfa": 7915,
    "6a68": 7916,
    "9448": 7917,
    "\u25810x4084": 7918,
    "\u25810x88b0": 7919,
    "\u2581getmenu": 7920,
    "\u25810x42ae20": 7921,
    "\u25810x42c4f0": 7922,
    "\u25810x1210ee0": 7923,
    "\u25810x1210f50": 7924,
    "673": 7925,
    "713": 7926,
    "e68": 7927,
    "005c": 7928,
    "a6fb": 7929,
    "bc20": 7930,
    "fail": 7931,
    "\u25810x593": 7932,
    "\u25810x412b": 7933,
    "\u25810x412d": 7934,
    "\u2581fastfail": 7935,
    "\u25810x1210f70": 7936,
    "\u25810x1211e74": 7937,
    "ac5": 7938,
    "7818": 7939,
    "a84f1": 7940,
    "\u25810x419a": 7941,
    "\u25810x431d": 7942,
    "\u25810x53e0": 7943,
    "\u25810x16000": 7944,
    "\u25810x42a402": 7945,
    "\u25810x42a410": 7946,
    "\u25810x1210e90": 7947,
    "\u25810xfeee00c0": 7948,
    "3c54": 7949,
    "a9a8": 7950,
    "f738": 7951,
    "fc1b": 7952,
    "focus": 7953,
    "\u25810xca": 7954,
    "\u25810x300": 7955,
    "\u25810x412c": 7956,
    "\u25810x7c16": 7957,
    "controlset": 7958,
    "\u25810x121189c": 7959,
    "\u25810x100fdd58": 7960,
    "\u25810xfeee00c1": 7961,
    "\u2581currentcontrolset": 7962,
    "610": 7963,
    "73d": 7964,
    "ba8": 7965,
    "main": 7966,
    "\u25810x6b2": 7967,
    "context": 7968,
    "ewindow": 7969,
    "\u25810x4740": 7970,
    "\u2581winhttp": 7971,
    "\u25810x41f6c0": 7972,
    "\u25810x41f750": 7973,
    "\u25810x42aa58": 7974,
    "\u25810x42f188": 7975,
    "\u25810x42f1a0": 7976,
    "\u25810x46b188": 7977,
    "\u25810x7ee001": 7978,
    "\u25810x7ee002": 7979,
    "\u25810x7ee003": 7980,
    "\u25810x7ee004": 7981,
    "\u25810x7ee005": 7982,
    "\u25810x7ee006": 7983,
    "\u25810x7ee007": 7984,
    "\u25810x7ee008": 7985,
    "\u25810x7ee009": 7986,
    "\u25810x7ee00a": 7987,
    "\u25810x7ee00b": 7988,
    "\u25810x7ee00c": 7989,
    "\u25810x7ee00d": 7990,
    "\u25810x7ee00e": 7991,
    "\u25810x7ee00f": 7992,
    "\u25810x7ee010": 7993,
    "\u25810x7ee011": 7994,
    "\u25810x7ee012": 7995,
    "\u25810x7ee013": 7996,
    "\u25810x7ee014": 7997,
    "\u25810x7ee015": 7998,
    "\u25810x7ee016": 7999,
    "\u25810x7ee017": 8000,
    "\u25810x7ee018": 8001,
    "\u25810x7ee019": 8002,
    "\u25810xc0000409": 8003,
    "\u2581globalrealloc": 8004,
    "48d": 8005,
    "55c": 8006,
    "b74": 8007,
    "bf5": 8008,
    "4e9c": 8009,
    "bd10": 8010,
    "f844": 8011,
    "anual": 8012,
    "\u25810x3c0": 8013,
    "\u25810x990": 8014,
    "\u25810x4105": 8015,
    "\u25810x7e90": 8016,
    "\u25810x41f780": 8017,
    "\u25810xe9a1c0": 8018,
    "\u25810x1211904": 8019,
    "\u25810xfeee00c2": 8020,
    "\u2581registerservicectrlhandler": 8021,
    "lg": 8022,
    "1d3": 8023,
    "2d8": 8024,
    "6a5": 8025,
    "deb": 8026,
    "1cb0": 8027,
    "3811": 8028,
    "\u2581sdl": 8029,
    "\u25810x4032": 8030,
    "\u25810x4500": 8031,
    "\u25810x42e388": 8032,
    "\u25810x431810": 8033,
    "\u25810xba8b68": 8034,
    "\u25810x12118d8": 8035,
    "\u25810x1211bf4": 8036,
    "\u25810xfeee00c3": 8037,
    "234": 8038,
    "40d": 8039,
    "969": 8040,
    "9a2": 8041,
    "f95": 8042,
    "\u25810x4b2": 8043,
    "correct": 8044,
    "\u25810x4122": 8045,
    "\u25810x7e8d": 8046,
    "\u2581myarg1": 8047,
    "\u2581dialogbox": 8048,
    "\u2581getmenuitem": 8049,
    "154": 8050,
    "b54": 8051,
    "43d4": 8052,
    "f5fb": 8053,
    "\u25810x4a70": 8054,
    "\u25810x8e60": 8055,
    "\u25810x1210fc0": 8056,
    "\u25810x1211d24": 8057,
    "92c": 8058,
    "ba4": 8059,
    "bda": 8060,
    "d26": 8061,
    "f82": 8062,
    "1800": 8063,
    "2468": 8064,
    "30c4": 8065,
    "f8e4": 8066,
    "endar": 8067,
    "\u25810x427": 8068,
    "\u25810x4ed": 8069,
    "\u25810x8828": 8070,
    "calendar": 8071,
    "\u2581licence": 8072,
    "\u25810x4e39b4": 8073,
    "\u25810x1210fa0": 8074,
    "\u25810xfeee00c4": 8075,
    "\u2581cocreateinstan": 8076,
    "6be": 8077,
    "a9c": 8078,
    "ecd": 8079,
    "ac18": 8080,
    "ffd1ff": 8081,
    "request": 8082,
    "\u25810x4554b0": 8083,
    "\u25810x1210e70": 8084,
    "\u25810x12115c4": 8085,
    "\u25810x1211cd0": 8086,
    "bc3": 8087,
    "7064": 8088,
    "popup": 8089,
    "trect": 8090,
    "\u2581line": 8091,
    "\u25810x45d3": 8092,
    "\u25810x4880": 8093,
    "\u25810xfeee00c6": 8094,
    "\u2581gettempfilenamea": 8095,
    "179": 8096,
    "345": 8097,
    "638": 8098,
    "bab": 8099,
    "beb": 8100,
    "\u2581lmi": 8101,
    "\u25810x452b": 8102,
    "\u25810x4908": 8103,
    "\u2581enable": 8104,
    "\u25810x584d24": 8105,
    "\u25810x1210e40": 8106,
    "\u25810x1211eb8": 8107,
    "33b": 8108,
    "97b": 8109,
    "a91": 8110,
    "eff": 8111,
    "f8e": 8112,
    "top": 8113,
    "wit": 8114,
    "1848": 8115,
    "dd48": 8116,
    "\u25810x9070": 8117,
    "\u25810x503a8": 8118,
    "\u25810xfeee00c7": 8119,
    "ry": 8120,
    "767": 8121,
    "005a": 8122,
    "57a9": 8123,
    "da1c": 8124,
    "\u25810x413": 8125,
    "\u25810x7ce1": 8126,
    "\u25810x8824": 8127,
    "\u25810x51af1": 8128,
    "\u25810x51afc": 8129,
    "\u25810x51b56": 8130,
    "\u25810x51b68": 8131,
    "namedpipe": 8132,
    "\u25810xfeee00c5": 8133,
    "cc3": 8134,
    "0010": 8135,
    "005e": 8136,
    "43e5": 8137,
    "6a6c": 8138,
    "b354": 8139,
    "\u25810xcf": 8140,
    "\u25810xfa": 8141,
    "\u25810x54a8": 8142,
    "\u2581lstrcpyw": 8143,
    "\u25810x121178c": 8144,
    "ci": 8145,
    "77e": 8146,
    "apt": 8147,
    "e35": 8148,
    "9464": 8149,
    "f5f0": 8150,
    "\u25810x22c": 8151,
    "\u25810x498": 8152,
    "\u25810x5d0": 8153,
    "\u25810x81a1": 8154,
    "\u25810x8a70": 8155,
    "\u25810xbcf290": 8156,
    "\u25810x120e6d0": 8157,
    "\u25810xfeee00c8": 8158,
    "9a4": 8159,
    "alle": 8160,
    "\u25810xf3": 8161,
    "\u25810x8825": 8162,
    "\u2581selectan": 8163,
    "\u25810xfeee01c": 8164,
    "7b2": 8165,
    "\u25810xf6": 8166,
    "\u25810x920": 8167,
    "\u25810x2269": 8168,
    "\u25810x88d0": 8169,
    "\u2581cancel": 8170,
    "\u25810x5265c64": 8171,
    "\u25810xfeee00ca": 8172,
    "do": 8173,
    "b92": 8174,
    "84ce": 8175,
    "9918": 8176,
    "d591": 8177,
    "pies": 8178,
    "\u25810xd7": 8179,
    "\u25810xe3": 8180,
    "\u25810xf5": 8181,
    "\u25810xf9": 8182,
    "\u25810x3cc": 8183,
    "fileexw": 8184,
    "\u25810x49d0": 8185,
    "\u25810x7e91": 8186,
    "\u25810x78000": 8187,
    "\u25810x567a88": 8188,
    "\u25810x1211ea0": 8189,
    "18e": 8190,
    "315": 8191,
    "570": 8192,
    "d3f": 8193,
    "f07": 8194,
    "0014": 8195,
    "5060": 8196,
    "98c0": 8197,
    "60577": 8198,
    "\u2581pass": 8199,
    "\u25810x3f8": 8200,
    "\u25810x4a5": 8201,
    "\u25810x41d0": 8202,
    "\u25810x5900": 8203,
    "\u2581ldrget": 8204,
    "registry": 8205,
    "\u25810x58000000": 8206,
    "\u25810xfeee00c9": 8207,
    "\u25810xfeee00cb": 8208,
    "\u2581getfullnamea": 8209,
    "procedureaddress": 8210,
    "\u2581ldrgetprocedureaddress": 8211,
    "845": 8212,
    "ccb": 8213,
    "ial": 8214,
    "002c": 8215,
    "ee43": 8216,
    "ec97c": 8217,
    "\u25810x6e4": 8218,
    "\u25810x41b8": 8219,
    "997": 8220,
    "2218": 8221,
    "\u25810x45c": 8222,
    "created": 8223,
    "\u25810x2300": 8224,
    "\u25810x4108": 8225,
    "\u25810x4ad0": 8226,
    "formation": 8227,
    "\u25810x4170d4": 8228,
    "\u25810x4170d5": 8229,
    "\u25810x42c0a4": 8230,
    "\u25810x1210f00": 8231,
    "13c": 8232,
    "231": 8233,
    "311": 8234,
    "352": 8235,
    "943": 8236,
    "\u2581pb": 8237,
    "48ee": 8238,
    "\u25810x457e": 8239,
    "\u25810x8c20": 8240,
    "\u2581lcidto": 8241,
    "codethread": 8242,
    "\u25810x1211af4": 8243,
    "\u2581lcidtolocalename": 8244,
    "\u2581removedirectoryw": 8245,
    "\u2581getexitcodethread": 8246,
    "125": 8247,
    "238": 8248,
    "926": 8249,
    "001c": 8250,
    "feb8": 8251,
    "olcid": 8252,
    "apture": 8253,
    "enamet": 8254,
    "\u25810x8e40": 8255,
    "\u25810x4086e": 8256,
    "\u25810x435403": 8257,
    "\u25810x435404": 8258,
    "\u25810x435405": 8259,
    "\u25810x435406": 8260,
    "\u25810x537500": 8261,
    "\u25810x6e7ab8": 8262,
    "\u2581deviceioc": 8263,
    "enametolcid": 8264,
    "\u2581globalfind": 8265,
    "\u2581getthreadtimes": 8266,
    "\u2581localenametolcid": 8267,
    "fd3": 8268,
    "0056": 8269,
    "f250": 8270,
    "fc360": 8271,
    "\u25812022": 8272,
    "\u25810x711": 8273,
    "\u25810x2900": 8274,
    "\u25810x40b2": 8275,
    "\u25810x4150": 8276,
    "\u25810xa210": 8277,
    "\u25810x409411": 8278,
    "\u25810x1211784": 8279,
    "memorystatus": 8280,
    "\u2581globalmemorystatus": 8281,
    "bin": 8282,
    "edf": 8283,
    "433b": 8284,
    "9380": 8285,
    "a7b0": 8286,
    "lipr": 8287,
    "stina": 8288,
    "\u25810x1fe": 8289,
    "\u25810x1880": 8290,
    "indirect": 8291,
    "stination": 8292,
    "\u25810x409412": 8293,
    "\u25810x409413": 8294,
    "\u25810x409414": 8295,
    "\u25810x409415": 8296,
    "\u25810x409416": 8297,
    "\u25810x409417": 8298,
    "\u25810x40a3e9": 8299,
    "\u25810x40a3ea": 8300,
    "\u25810x40a3eb": 8301,
    "\u25810x40a3ec": 8302,
    "\u25810x40a3ed": 8303,
    "\u25810x40a3ee": 8304,
    "\u25810x40a3ef": 8305,
    "\u25810x417cd8": 8306,
    "\u25810x42d4b0": 8307,
    "\u25810x7a2328": 8308,
    "\u25810x1000130": 8309,
    "\u25810x1211df4": 8310,
    "77d": 8311,
    "d95": 8312,
    "e4f": 8313,
    "0046": 8314,
    "32f1": 8315,
    "drag": 8316,
    "ed24": 8317,
    "\u25810x1074": 8318,
    "\u25810x7c91": 8319,
    "\u25810x8ef0": 8320,
    "\u25810x3b7fc": 8321,
    "\u2581thefile": 8322,
    "\u25810x230022": 8323,
    "\u25810x435407": 8324,
    "\u25810x550054": 8325,
    "\u25810x570056": 8326,
    "\u25810x590058": 8327,
    "\u25810x5b005a": 8328,
    "\u25810x5d005c": 8329,
    "\u25810x5f005e": 8330,
    "\u25810x1210ed0": 8331,
    "\u2581deviceiocontrol": 8332,
    "240": 8333,
    "e31": 8334,
    "84d8": 8335,
    "\u25812db": 8336,
    "extex": 8337,
    "\u25810xc9": 8338,
    "\u2581sample": 8339,
    "\u25810x10020": 8340,
    "\u25810x42e0f0": 8341,
    "316": 8342,
    "376": 8343,
    "a5b": 8344,
    "d7b": 8345,
    "b820": 8346,
    "\u25813db": 8347,
    "\u2581next": 8348,
    "\u25810x4336": 8349,
    "\u25810x47ab": 8350,
    "\u25810x8834": 8351,
    "\u25810x94c0": 8352,
    "\u2581screen": 8353,
    "\u25810x41e1c0": 8354,
    "\u25810x121185c": 8355,
    "\u25810x1211994": 8356,
    "\u2581regenumkey": 8357,
    "ik": 8358,
    "67c": 8359,
    "725": 8360,
    "4158": 8361,
    "\u2581tim": 8362,
    "\u25810x414b": 8363,
    "\u25810x4324": 8364,
    "\u25810x435408": 8365,
    "\u25810x435409": 8366,
    "\u25810x43540a": 8367,
    "\u25810x43540b": 8368,
    "\u25810x43540c": 8369,
    "\u25810x441806": 8370,
    "\u25810x441808": 8371,
    "\u25810x44180a": 8372,
    "\u25810x447088": 8373,
    "drb": 8374,
    "12e7": 8375,
    "7f48": 8376,
    "bbbb": 8377,
    "ddc0": 8378,
    "\u25812drb": 8379,
    "\u25812dvb": 8380,
    "\u25810x7541": 8381,
    "\u25810x882c": 8382,
    "\u2581creater": 8383,
[...]
