{
    "<pad>": 0,
    "<unk>": 1,
    "<mask>": 2,
    "\u25810": 3,
    "\u25810x": 4,
    "00": 5,
    "er": 6,
    "ne": 7,
    "32": 8,
    "\u2581k": 9,
    "l32": 10,
    "erne": 11,
    "ernel32": 12,
    "\u2581kernel32": 13,
    "\u25810x1": 14,
    "et": 15,
    "\u25810x4": 16,
    "\u25810x0": 17,
    "ee": 18,
    "al": 19,
    "get": 20,
    "ti": 21,
    "\u25810xf": 22,
    "\u2581get": 23,
    "0000": 24,
    "ec": 25,
    "in": 26,
    "ad": 27,
    "\u25810x7": 28,
    "oc": 29,
    "re": 30,
    "eee": 31,
    "st": 32,
    "\u25810xfeee": 33,
    "iti": 34,
    "\u25810xfeee00": 35,
    "le": 36,
    "ss": 37,
    "one": 38,
    "pr": 39,
    "\u25810x12": 40,
    "ar": 41,
    "proc": 42,
    "\u2581c": 43,
    "\u2581getproc": 44,
    "us": 45,
    "\u25810x77": 46,
    "dre": 47,
    "addre": 48,
    "address": 49,
    "\u2581getprocaddress": 50,
    "user": 51,
    "\u2581user": 52,
    "val": 53,
    "cal": 54,
    "sec": 55,
    "secti": 56,
    "riti": 57,
    "ritical": 58,
    "riticalsecti": 59,
    "\u2581user32": 60,
    "ls": 61,
    "ue": 62,
    "on": 63,
    "value": 64,
    "\u25810x121": 65,
    "\u25810x40": 66,
    "\u2581n": 67,
    "getvalue": 68,
    "lsgetvalue": 69,
    "\u2581none": 70,
    "000000": 71,
    "or": 72,
    "\u2581s": 73,
    "\u25810xfeee000": 74,
    "loc": 75,
    "har": 76,
    "\u25810x77000000": 77,
    "f0": 78,
    "en": 79,
    "ecriticalsecti": 80,
    "ter": 81,
    "\u2581m": 82,
    "ff": 83,
    "ap": 84,
    "\u25810x1211": 85,
    "xt": 86,
    "de": 87,
    "\u2581in": 88,
    "la": 89,
    "te": 90,
    "next": 91,
    "\u2581char": 92,
    "\u2581charnext": 93,
    "err": 94,
    "\u25810x46": 95,
    "error": 96,
    "\u2581f": 97,
    "a0": 98,
    "last": 99,
    "lasterror": 100,
    "\u2581t": 101,
    "\u2581l": 102,
    "000": 103,
    "iz": 104,
    "aliz": 105,
    "\u25810xfeee0001": 106,
    "itializ": 107,
    "\u2581initializ": 108,
    "is": 109,
    "\u2581initializecriticalsecti": 110,
    "\u2581tlsgetvalue": 111,
    "an": 112,
    "by": 113,
    "he": 114,
    "str": 115,
    "em": 116,
    "heap": 117,
    "bc": 118,
    "\u2581set": 119,
    "\u2581heap": 120,
    "alloc": 121,
    "\u2581en": 122,
    "\u25810x8": 123,
    "\u2581is": 124,
    "\u25810xfa0": 125,
    "40": 126,
    "co": 127,
    "and": 128,
    "\u25810x5": 129,
    "\u25810x45": 130,
    "po": 131,
    "byte": 132,
    "\u2581flsgetvalue": 133,
    "\u2581d": 134,
    "rt": 135,
    "ow": 136,
    "lea": 137,
    "ing": 138,
    "\u25810x2": 139,
    "\u2581w": 140,
    "poin": 141,
    "\u2581charnexta": 142,
    "93": 143,
    "\u2581lo": 144,
    "string": 145,
    "\u25810x100": 146,
    "\u2581load": 147,
    "\u25810x40a": 148,
    "pointer": 149,
    "onex": 150,
    "90": 151,
    "00000": 152,
    "\u2581ms": 153,
    "\u25810x41": 154,
    "depointer": 155,
    "\u2581initializecriticalsectionex": 156,
    "dbc": 157,
    "lead": 158,
    "cm": 159,
    "dbcs": 160,
    "\u2581isdbcs": 161,
    "\u2581isdbcslead": 162,
    "\u2581isdbcsleadbyte": 163,
    "vc": 164,
    "\u25810x45f0": 165,
    "10": 166,
    "\u2581msvc": 167,
    "fi": 168,
    "\u25810x4093": 169,
    "\u2581msvcrt": 170,
    "\u2581getlasterror": 171,
    "inf": 172,
    "\u25810x43": 173,
    "nt": 174,
    "id": 175,
    "\u25810x40a5": 176,
    "\u2581setlasterror": 177,
    "\u25810x10": 178,
    "\u25810xc": 179,
    "\u2581heapalloc": 180,
    "d0": 181,
    "local": 182,
    "\u2581charnextw": 183,
    "66": 184,
    "\u25810x3": 185,
    "hand": 186,
    "e4": 187,
    "cmp": 188,
    "stem": 189,
    "ystem": 190,
    "ind": 191,
    "\u25810x1210": 192,
    "ecriticalsection": 193,
    "\u25810x400000": 194,
    "read": 195,
    "info": 196,
    "leav": 197,
    "60": 198,
    "ll": 199,
    "\u2581leav": 200,
    "\u2581leavecriticalsection": 201,
    "mo": 202,
    "ffff": 203,
    "criticalsecti": 204,
    "criticalsection": 205,
    "tercriticalsection": 206,
    "\u2581entercriticalsection": 207,
    "\u25810x42": 208,
    "\u2581mem": 209,
    "li": 210,
    "indow": 211,
    "\u2581memcmp": 212,
    "\u2581enco": 213,
    "\u2581encodepointer": 214,
    "78": 215,
    "ul": 216,
    "locale": 217,
    "du": 218,
    "50": 219,
    "\u25810x41f0": 220,
    "\u25810x41f040": 221,
    "\u2581dll": 222,
    "dule": 223,
    "module": 224,
    "\u2581getmodule": 225,
    "\u25810x4e4": 226,
    "\u2581loadstring": 227,
    "ex": 228,
    "ess": 229,
    "\u2581initializecriticalsection": 230,
    "f8": 231,
    "10000": 232,
    "ulti": 233,
    "indows": 234,
    "idec": 235,
    "idechar": 236,
    "70": 237,
    "ur": 238,
    "ed": 239,
    "\u2581windows": 240,
    "ea": 241,
    "\u25810x1000": 242,
    "\u2581system": 243,
    "unt": 244,
    "eco": 245,
    "c0": 246,
    "\u2581system32": 247,
    "\u25810xff": 248,
    "ent": 249,
    "\u25810xc000": 250,
    "ree": 251,
    "infoa": 252,
    "handle": 253,
    "\u2581getlocale": 254,
    "vi": 255,
    "\u2581loadstringa": 256,
    "count": 257,
    "ac": 258,
    "file": 259,
    "30": 260,
    "\u25810x6": 261,
    "br": 262,
    "20": 263,
    "ary": 264,
    "\u2581getc": 265,
    "brary": 266,
    "op": 267,
    "18": 268,
    "\u25810x1211f": 269,
    "free": 270,
    "b0": 271,
    "sp": 272,
    "ect": 273,
    "ag": 274,
    "\u25810x4690": 275,
    "yp": 276,
    "\u25810x46f0": 277,
    "om": 278,
    "e0": 279,
    "\u2581deco": 280,
    "\u2581decodepointer": 281,
    "\u25810x44": 282,
    "di": 283,
    "ate": 284,
    "it": 285,
    "spin": 286,
    "spincount": 287,
    "andspincount": 288,
    "\u2581initializecriticalsectionandspincount": 289,
    "\u25810x78": 290,
    "\u2581getlocaleinfoa": 291,
    "ment": 292,
    "library": 293,
    "rent": 294,
    "\u25810x46d0": 295,
    "tet": 296,
    "80": 297,
    "\u25810x47": 298,
    "urrent": 299,
    "\u25810x40a5d": 300,
    "\u25810x400": 301,
    "\u25810xfffff": 302,
    "\u25810xfeee001": 303,
    "let": 304,
    "\u2581a": 305,
    "\u25810xf00": 306,
    "\u25810xfffffff": 307,
    "hread": 308,
    "\u25810x77d": 309,
    "\u25810x77d10000": 310,
    "\u25810x9": 311,
    "ce": 312,
    "\u25810x7e": 313,
    "\u25810x7d": 314,
    "dr": 315,
    "process": 316,
    "01": 317,
    "\u2581getst": 318,
    "\u2581loadlibrary": 319,
    "bytet": 320,
    "\u2581multi": 321,
    "bytetow": 322,
    "\u2581multibytetow": 323,
    "\u2581multibytetowidechar": 324,
    "b8": 325,
    "l66": 326,
    "\u25810x10c": 327,
    "\u25810x1211d": 328,
    "ey": 329,
    "na": 330,
    "l6660": 331,
    "lock": 332,
    "28": 333,
    "me": 334,
    "tr": 335,
    "\u25810x4610": 336,
    "drl6660": 337,
    "\u2581cre": 338,
    "cc": 339,
    "\u2581heapfree": 340,
    "lo": 341,
    "ype": 342,
    "\u2581re": 343,
    "14": 344,
    "tion": 345,
    "thread": 346,
    "rect": 347,
    "\u2581getmodulehand": 348,
    "\u2581getcurrent": 349,
    "\u2581g": 350,
    "ch": 351,
    "\u2581getmodulehandlea": 352,
    "\u25810xfeee01": 353,
    "un": 354,
    "drl6660drl6660": 355,
    "age": 356,
    "\u25810x4378": 357,
    "\u2581gets": 358,
    "filet": 359,
    "hi": 360,
    "def": 361,
    "a8": 362,
    "58": 363,
    "d4": 364,
    "\u25810x1210e": 365,
    "key": 366,
    "\u2581inter": 367,
    "94": 368,
    "64": 369,
    "tom": 370,
    "var": 371,
    "fc": 372,
    "\u25810x1210f": 373,
    "rector": 374,
    "34": 375,
    "\u2581ap": 376,
    "so": 377,
    "\u2581interlock": 378,
    "\u25810xa": 379,
    "12": 380,
    "cmap": 381,
    "\u2581lcmap": 382,
    "\u2581lcmapstring": 383,
    "ut": 384,
    "director": 385,
    "d8": 386,
    "ual": 387,
    "\u2581getsystem": 388,
    "38": 389,
    "tomulti": 390,
    "\u2581widechar": 391,
    "tomultibyte": 392,
    "\u2581widechartomultibyte": 393,
    "a4": 394,
    "98": 395,
    "virt": 396,
    "\u2581p": 397,
    "virtual": 398,
    "tu": 399,
    "\u2581create": 400,
    "ri": 401,
    "\u2581interlocked": 402,
    "56": 403,
    "rst": 404,
    "ers": 405,
    "\u2581virtual": 406,
    "\u2581lstr": 407,
    "\u2581local": 408,
    "rement": 409,
    "bad": 410,
    "f4": 411,
    "\u25810x40933": 412,
    "aa": 413,
    "\u25810x1211e": 414,
    "\u2581reg": 415,
    "\u25810xfeee002": 416,
    "handlew": 417,
    "5c": 418,
    "\u25810x40934": 419,
    "ear": 420,
    "open": 421,
    "74": 422,
    "ptr": 423,
    "\u2581isbad": 424,
    "directory": 425,
    "\u2581getmodulehandlew": 426,
    "\u25810xcd": 427,
    "vw": 428,
    "mm": 429,
    "\u25810xffffffff": 430,
    "readptr": 431,
    "\u2581isbadreadptr": 432,
    "\u25810x90": 433,
    "lm": 434,
    "xy": 435,
    "\u25810x14": 436,
    "klm": 437,
    "xyz": 438,
    "opq": 439,
    "7c": 440,
    "ghi": 441,
    "rstu": 442,
    "\u2581abc": 443,
    "opqrstu": 444,
    "vwxyz": 445,
    "defghi": 446,
    "nopqrstu": 447,
    "klmnopqrstu": 448,
    "\u2581abcdefghi": 449,
    "klmnopqrstuvwxyz": 450,
    "orm": 451,
    "68": 452,
    "exw": 453,
    "\u25810x104": 454,
    "\u25810x70": 455,
    "b4": 456,
    "bu": 457,
    "\u25810x78000000": 458,
    "\u25810x435": 459,
    "\u25810x42a": 460,
    "\u2581getfilet": 461,
    "\u25810x20": 462,
    "vers": 463,
    "dhandle": 464,
    "\u25810x5f8": 465,
    "\u25810x5f800000": 466,
    "\u25810x7de": 467,
    "ol": 468,
    "qu": 469,
    "mea": 470,
    "e8": 471,
    "\u2581getfiletype": 472,
    "versi": 473,
    "\u25810x77e": 474,
    "\u25810x77e10000": 475,
    "\u2581getstdhandle": 476,
    "\u2581read": 477,
    "earch": 478,
    "f5": 479,
    "\u25810x12119": 480,
    "vir": 481,
    "\u25810x54": 482,
    "viron": 483,
    "mp": 484,
    "\u25810x18": 485,
    "c8": 486,
    "\u25810xfeee0004": 487,
    "ab": 488,
    "infow": 489,
    "vironment": 490,
    "54": 491,
    "sw": 492,
    "\u2581lcmapstringw": 493,
    "\u2581var": 494,
    "filena": 495,
    "\u25810x4c": 496,
    "dc": 497,
    "\u25810xfeee004": 498,
    "f2": 499,
    "1c": 500,
    "lsalloc": 501,
    "\u2581search": 502,
    "sset": 503,
    "lsset": 504,
    "lssetvalue": 505,
    "quer": 506,
    "\u25810xfeee0002": 507,
    "\u25810xb": 508,
    "comm": 509,
    "\u2581o": 510,
    "\u25810xf001": 511,
    "\u25810xfeee0000": 512,
    "inc": 513,
    "26": 514,
    "\u25810x88": 515,
    "wa": 516,
    "\u2581ex": 517,
    "db": 518,
    "tup": 519,
    "increment": 520,
    "\u2581interlockedincrement": 521,
    "at": 522,
    "24": 523,
    "artup": 524,
    "\u25810x1211c": 525,
    "15": 526,
    "\u2581apis": 527,
    "fa": 528,
    "um": 529,
    "9c": 530,
    "\u2581getmodulefilena": 531,
    "api": 532,
    "line": 533,
    "16": 534,
    "\u25810x12117": 535,
    "\u2581getstartup": 536,
    "put": 537,
    "\u2581getcurrentthread": 538,
    "\u2581loadlibraryexw": 539,
    "2c": 540,
    "96": 541,
    "andline": 542,
    "pre": 543,
    "\u2581getcomm": 544,
    "\u25810x80": 545,
    "rite": 546,
    "\u2581getcommandline": 547,
    "\u25810x48": 548,
    "\u2581localalloc": 549,
    "onso": 550,
    "\u25810x4d": 551,
    "ft": 552,
    "filea": 553,
    "window": 554,
    "\u25810x79": 555,
    "\u25810xfeee003": 556,
    "\u25810x40a3": 557,
    "\u2581getcurrentthreadid": 558,
    "\u25810x7a": 559,
    "ra": 560,
    "\u25810x8000": 561,
    "\u25810x200": 562,
    "\u25810x7f8": 563,
    "temp": 564,
    "onsole": 565,
    "ber": 566,
    "\u2581getversi": 567,
    "\u25810xfeee0003": 568,
    "mess": 569,
    "\u2581loadstringw": 570,
    "44": 571,
    "f7": 572,
    "vironmentstring": 573,
    "\u2581loadlibrarya": 574,
    "se": 575,
    "\u25810x42a40": 576,
    "\u25810x800": 577,
    "f6": 578,
    "\u25811": 579,
    "\u2581h": 580,
    "e7": 581,
    "drl6660drl6660drl6660drl6660": 582,
    "\u25810x102": 583,
    "da": 584,
    "eb": 585,
    "lob": 586,
    "\u2581getcp": 587,
    "\u2581glob": 588,
    "\u2581getcpinfo": 589,
    "valid": 590,
    "a6": 591,
    "\u2581gdi": 592,
    "\u25810x4350": 593,
    "91": 594,
    "\u2581open": 595,
    "form": 596,
    "\u25810x7b": 597,
    "ng": 598,
    "71": 599,
    "88": 600,
    "\u25810x7f800": 601,
    "\u2581co": 602,
    "eex": 603,
    "3c": 604,
    "\u25810xfeee0005": 605,
    "ation": 606,
    "directoryw": 607,
    "\u2581ad": 608,
    "\u2581de": 609,
    "vironmentstringsw": 610,
    "\u2581so": 611,
    "\u25810x73": 612,
    "\u2581hkey": 613,
    "ware": 614,
    "\u2581b": 615,
    "\u25810xf003": 616,
    "\u2581flssetvalue": 617,
    "ftware": 618,
    "\u25810x7000": 619,
    "\u2581software": 620,
    "\u2581lstrle": 621,
    "\u25810xfeee006": 622,
    "\u25810xf002": 623,
    "ic": 624,
    "a2": 625,
    "pres": 626,
    "\u2581flsalloc": 627,
    "\u25810x43780": 628,
    "\u25810xfeee005": 629,
    "present": 630,
    "97": 631,
    "\u25810xfeee008": 632,
    "int": 633,
    "bug": 634,
    "\u25810xfff": 635,
    "\u25810xd": 636,
    "es": 637,
    "b2": 638,
    "\u2581x": 639,
    "\u2581getcurrentprocess": 640,
    "\u2581getti": 641,
    "ob": 642,
    "num": 643,
    "\u2581virtualalloc": 644,
    "type": 645,
    "ime": 646,
    "\u2581win": 647,
    "debug": 648,
    "789": 649,
    "dex": 650,
    "\u25810x4a": 651,
    "\u25810x7c": 652,
    "vari": 653,
    "e6": 654,
    "\u2581gdi32": 655,
    "api32": 656,
    "\u2581sh": 657,
    "\u25810x75": 658,
    "\u2581ws": 659,
    "cep": 660,
    "ve": 661,
    "1234": 662,
    "56789": 663,
    "\u258101234": 664,
    "\u25810123456789": 665,
    "f3": 666,
    "\u2581getlocaleinfow": 667,
    "list": 668,
    "e5": 669,
    "ception": 670,
    "\u2581adv": 671,
    "print": 672,
    "\u2581advapi32": 673,
    "\u25810x7e70": 674,
    "locales": 675,
    "\u25810x1c": 676,
    "92": 677,
    "\u2581str": 678,
    "met": 679,
    "\u25810xfeee007": 680,
    "bo": 681,
    "messag": 682,
    "1a": 683,
    "95": 684,
    "sour": 685,
    "b5": 686,
    "filetime": 687,
    "\u25810x4e": 688,
    "\u25810x72": 689,
    "number": 690,
    "\u25810x4750": 691,
    "\u25810x71": 692,
    "\u25810xfeee0006": 693,
    "directorya": 694,
    "\u2581li": 695,
    "mode": 696,
    "ba": 697,
    "\u25810x50": 698,
    "dec": 699,
    "\u25810x16": 700,
    "\u2581global": 701,
    "write": 702,
    "\u25810xe": 703,
    "exa": 704,
    "b3": 705,
    "input": 706,
    "\u2581l1": 707,
    "\u2581locales": 708,
    "\u25810x76": 709,
    "f1": 710,
    "lose": 711,
    "ck": 712,
    "\u25810x460": 713,
    "\u25810x120": 714,
    "ckcount": 715,
    "\u2581gettickcount": 716,
    "\u2581getstring": 717,
    "\u2581page": 718,
    "\u2581lcmapstringex": 719,
    "ot": 720,
    "\u2581getstartupinfoa": 721,
    "\u2581al": 722,
    "b6": 723,
    "\u2581wsprint": 724,
    "\u25810x7ee": 725,
    "9e": 726,
    "\u2581getcommandlinea": 727,
    "76": 728,
    "\u25810xfeee0007": 729,
    "\u2581getmodulefilenamea": 730,
    "\u2581lstrlena": 731,
    "\u25810x4670": 732,
    "\u25810x74": 733,
    "\u2581core": 734,
    "c4": 735,
    "\u25810x53": 736,
    "\u2581quer": 737,
    "\u25810x7de0": 738,
    "\u2581current": 739,
    "\u2581getnumber": 740,
    "ofc": 741,
    "ofconsole": 742,
    "\u2581getnumberofconsole": 743,
    "\u2581geten": 744,
    "\u2581com": 745,
    "\u2581getac": 746,
    "d5": 747,
    "ith": 748,
    "\u25810x7d90": 749,
    "b1": 750,
    "\u2581fi": 751,
    "9a": 752,
    "\u2581library": 753,
    "b7": 754,
    "typew": 755,
    "\u2581getstringtypew": 756,
    "\u2581temp": 757,
    "inputs": 758,
    "\u2581getnumberofconsoleinputs": 759,
    "d3": 760,
    "mew": 761,
    "\u2581getsystemti": 762,
    "11": 763,
    "erform": 764,
    "erforman": 765,
    "\u2581queryp": 766,
    "\u2581queryperforman": 767,
    "\u25810x43540": 768,
    "\u2581getthread": 769,
    "5f": 770,
    "d6": 771,
    "cp": 772,
    "fil": 773,
    "\u25810x60": 774,
    "decrement": 775,
    "\u2581interlockeddecrement": 776,
    "\u2581getsystemdirectoryw": 777,
    "900": 778,
    "\u2581getacp": 779,
    "1e": 780,
    "tered": 781,
    "\u2581with": 782,
    "\u2581altered": 783,
    "d2": 784,
    "variab": 785,
    "\u25810x12115": 786,
    "pool": 787,
    "8c": 788,
    "\u25810x5f5": 789,
    "e9": 790,
    "ila": 791,
    "\u25810x4094": 792,
    "75": 793,
    "\u2581readwrite": 794,
    "\u2581free": 795,
    "ting": 796,
    "dll": 797,
    "fea": 798,
    "f00": 799,
    "processor": 800,
    "im": 801,
    "\u25810x5f500000": 802,
    "\u25810x4b": 803,
    "ture": 804,
    "up": 805,
    "query": 806,
    "\u2581regopen": 807,
    "\u2581getprocess": 808,
    "\u2581regopenkey": 809,
    "a5": 810,
    "35": 811,
    "rom": 812,
    "\u25810x49": 813,
    "\u2581find": 814,
    "\u25810x1211e0": 815,
    "d1": 816,
    "unter": 817,
    "e2": 818,
    "dexception": 819,
    "\u25810x7ea": 820,
    "set": 821,
    "from": 822,
    "36": 823,
    "filter": 824,
    "sfiletime": 825,
    "ceco": 826,
    "cecounter": 827,
    "\u2581queryperformancecounter": 828,
    "unhandle": 829,
    "dexceptionfilter": 830,
    "unhandledexceptionfilter": 831,
    "\u25810x40a5ce": 832,
    "\u25810x40a5d0": 833,
    "\u25810x40a5d2": 834,
    "\u25810x40a5d4": 835,
    "\u25810x40a5d6": 836,
    "\u25810x40a5d8": 837,
    "\u25810x40a5da": 838,
    "\u2581getmessag": 839,
    "\u2581api": 840,
    "1000": 841,
    "feature": 842,
    "\u2581isprocessor": 843,
    "featurepresent": 844,
    "\u2581isprocessorfeaturepresent": 845,
    "cpy": 846,
    "\u2581getcurrentprocessid": 847,
    "cre": 848,
    "\u25810x1211dd4": 849,
    "\u2581fr": 850,
    "\u2581getversion": 851,
    "\u25810x12116": 852,
    "f9": 853,
    "72": 854,
    "inform": 855,
    "\u25810xffc": 856,
    "information": 857,
    "eext": 858,
    "4c": 859,
    "\u25810x42b": 860,
    "\u25810x40a58": 861,
    "defa": 862,
    "\u25810x436": 863,
    "defaul": 864,
    "\u25810x40936": 865,
    "eextra": 866,
    "eextrainfo": 867,
    "\u2581getmessageextrainfo": 868,
    "106": 869,
    "\u2581getsystemtimea": 870,
    "bb": 871,
    "\u2581regi": 872,
    "\u2581getsystemtimeasfiletime": 873,
    "55": 874,
    "\u25810x43500": 875,
    "stringa": 876,
    "\u2581delet": 877,
    "\u25810x1211dc0": 878,
    "nd": 879,
    "6c": 880,
    "image": 881,
    "db10": 882,
    "source": 883,
    "af": 884,
    "\u2581bor": 885,
    "\u25812": 886,
    "db10106": 887,
    "\u25810x1db10106": 888,
    "9b": 889,
    "400": 890,
    "\u25810x3f2": 891,
    "\u25810x17": 892,
    "17": 893,
    "\u25810x8c": 894,
    "to": 895,
    "\u25810x40933d": 896,
    "\u25810x40933e": 897,
    "\u25810x40933f": 898,
    "\u25810x409340": 899,
    "\u25810x409341": 900,
    "land": 901,
    "\u2581borland": 902,
    "\u25810x409342": 903,
    "\u25810x409343": 904,
    "create": 905,
    "\u2581setunhandledexceptionfilter": 906,
    "\u25810x526": 907,
    "\u25810x220": 908,
    "\u2581getversionex": 909,
    "eeen": 910,
    "\u2581freeen": 911,
    "default": 912,
    "ction": 913,
    "\u2581invalid": 914,
    "\u2581setfile": 915,
    "9d": 916,
    "\u25810x30": 917,
    "\u2581getmodulefilenamew": 918,
    "\u2581out": 919,
    "fd": 920,
    "\u2581init": 921,
    "\u2581strn": 922,
    "\u2581getprocessheap": 923,
    "handl": 924,
    "acc": 925,
    "hel": 926,
    "fw": 927,
    "\u2581wsprintfw": 928,
    "\u2581getstartupinfow": 929,
    "\u25810xfffffff6": 930,
    "con": 931,
    "a7": 932,
    "\u2581strncmp": 933,
    "\u25810xfeee0": 934,
    "13": 935,
    "tri": 936,
    "\u25810x105": 937,
    "\u2581r": 938,
    "\u2581getenvironmentstringsw": 939,
    "\u25810x82": 940,
    "bute": 941,
    "tribute": 942,
    "\u2581freeenvironmentstringsw": 943,
    "term": 944,
    "bd": 945,
    "ttribute": 946,
    "fileattribute": 947,
    "\u25810x2a": 948,
    "enu": 949,
    "ble": 950,
    "dep": 951,
    "\u2581pf": 952,
    "22": 953,
    "\u25810xfffffff5": 954,
    "5d": 955,
    "\u25810xfffffff4": 956,
    "e3": 957,
    "\u25810x42b40": 958,
    "filew": 959,
    "\u25810x50000": 960,
    "\u2581lstrcmp": 961,
    "\u2581lstrcpy": 962,
    "\u25810x13": 963,
    "\u25810x69": 964,
    "48": 965,
    "bit": 966,
    "\u2581wa": 967,
    "\u2581getcommandlinew": 968,
    "access": 969,
    "\u25810x7ec": 970,
    "\u2581image": 971,
    "\u2581freelibrary": 972,
    "\u25810x43640": 973,
    "\u2581key": 974,
    "e1": 975,
    "ys": 976,
    "stru": 977,
    "atet": 978,
    "99": 979,
    "ant": 980,
    "urs": 981,
    "lass": 982,
    "37": 983,
    "struction": 984,
    "menu": 985,
    "ster": 986,
    "\u25810x9000": 987,
    "pa": 988,
    "va": 989,
    "\u25810x47b0": 990,
    "\u2581isvalid": 991,
    "\u2581output": 992,
    "\u2581outputdebug": 993,
    "\u2581setfilepointer": 994,
    "fb": 995,
    "fe": 996,
    "\u2581imagelist": 997,
    "d7": 998,
    "\u2581tlsalloc": 999,
    "ger": 1000,
    "version": 1001,
    "pri": 1002,
    "\u2581write": 1003,
    "\u2581getthreadlocale": 1004,
    "7e": 1005,
    "a9": 1006,
    "lus": 1007,
    "drl6660drl6660drl6660drl6660drl6660drl6660drl6660drl6660": 1008,
    "\u2581close": 1009,
    "\u2581exit": 1010,
    "a1": 1011,
    "002": 1012,
    "ata": 1013,
    "\u2581readfile": 1014,
    "33": 1015,
    "\u25810x56": 1016,
    "\u25810x7e71": 1017,
    "\u2581getw": 1018,
    "\u2581virtualquery": 1019,
    "rag": 1020,
    "\u2581virtualfree": 1021,
    "\u2581outputdebugstringa": 1022,
    "day": 1023,
    "5e": 1024,
    "\u2581register": 1025,
    "f10000": 1026,
    "\u25810x7830": 1027,
    "\u25810x77f10000": 1028,
    "\u25810x52": 1029,
    "ating": 1030,
    "ack": 1031,
    "\u2581gettemp": 1032,
    "\u25810x42900": 1033,
    "c2": 1034,
    "\u25810x180": 1035,
    "\u25810x1211f8": 1036,
    "\u25810x12114": 1037,
    "\u25810x5265c": 1038,
    "tim": 1039,
    "\u25810x7de1": 1040,
    "variable": 1041,
    "\u2581loadlibraryw": 1042,
    "\u25810x8810": 1043,
    "resource": 1044,
    "\u25810x44d4": 1045,
    "\u25810x408": 1046,
    "\u2581mac": 1047,
    "hine": 1048,
    "\u2581drag": 1049,
    "\u2581tlssetvalue": 1050,
    "b9": 1051,
    "\u2581machine": 1052,
    "be": 1053,
    "a3": 1054,
    "42": 1055,
    "hreadpool": 1056,
    "\u25810x422": 1057,
    "ang": 1058,
    "arg": 1059,
    "vaila": 1060,
    "\u25810x15": 1061,
    "vailable": 1062,
    "\u2581createt": 1063,
    "ition": 1064,
    "ursor": 1065,
    "\u2581heapcreate": 1066,
    "ecount": 1067,
    "\u2581available": 1068,
    "dition": 1069,
    "dd": 1070,
    "\u25810x12116d8": 1071,
    "84": 1072,
    "ies": 1073,
    "\u25810x7810": 1074,
    "\u25810x1211758": 1075,
    "meta": 1076,
    "ae": 1077,
    "\u25810x3f": 1078,
    "\u2581sl": 1079,
    "\u2581closehandle": 1080,
    "timer": 1081,
    "\u2581e": 1082,
    "ho": 1083,
    "\u2581malloc": 1084,
    "\u25810x4096": 1085,
    "19": 1086,
    "defaultdll": 1087,
    "directories": 1088,
    "\u2581setdefaultdll": 1089,
    "\u2581setdefaultdlldirectories": 1090,
    "\u2581ole": 1091,
    "\u25810xf0019": 1092,
    "\u2581setthread": 1093,
    "edc": 1094,
    "\u25810x410": 1095,
    "\u2581instruction": 1096,
    "\u25810x22": 1097,
    "i64": 1098,
    "\u2581xmm": 1099,
    "\u2581xmmi64": 1100,
    "\u2581instructions": 1101,
    "\u2581getfileattribute": 1102,
    "ro": 1103,
    "point": 1104,
    "\u25810x8a": 1105,
    "\u25810x7d91": 1106,
    "\u25810x1f4": 1107,
    "metafile": 1108,
    "\u2581access": 1109,
    "\u25810x1a": 1110,
    "boar": 1111,
    "\u25810x1210d": 1112,
    "bits": 1113,
    "eexw": 1114,
    "handlecount": 1115,
    "\u25810x1211e04": 1116,
    "lic": 1117,
    "\u2581sethandlecount": 1118,
    "39": 1119,
    "00c": 1120,
    "nw": 1121,
    "\u25810x1211918": 1122,
    "\u2581app": 1123,
    "\u25810x2000": 1124,
    "map": 1125,
    "\u2581lread": 1126,
    "debugger": 1127,
    "debuggerpresent": 1128,
    "\u2581initterm": 1129,
    "ile": 1130,
    "52": 1131,
    "sa": 1132,
    "\u2581lstrcmpa": 1133,
    "780": 1134,
    "loating": 1135,
    "\u25810x57": 1136,
    "\u25810x21000": 1137,
    "\u2581isdebuggerpresent": 1138,
    "\u25810x121194": 1139,
    "fromstr": 1140,
    "\u2581globalalloc": 1141,
    "ef": 1142,
    "908": 1143,
    "board": 1144,
    "lor": 1145,
    "depage": 1146,
    "\u25810x11": 1147,
    "ct": 1148,
    "\u2581shel": 1149,
    "der": 1150,
    "text": 1151,
    "\u25810x1f400": 1152,
    "close": 1153,
    "codepage": 1154,
    "\u2581isvalidcodepage": 1155,
    "\u25810x12118": 1156,
    "ion": 1157,
    "\u2581getversionexa": 1158,
    "\u25810xfeee00c": 1159,
    "\u25810x78c": 1160,
    "\u25810x78c00000": 1161,
    "\u25810x5265c14": 1162,
    "\u25810x28": 1163,
    "3a": 1164,
    "cursor": 1165,
    "\u25810x19": 1166,
    "lsfree": 1167,
    "\u25810x409": 1168,
    "time": 1169,
    "end": 1170,
    "31": 1171,
    "eric": 1172,
    "\u25810x7ee00": 1173,
    "\u25810xfeee0008": 1174,
    "\u25810x1211b": 1175,
    "\u25810x1210ec": 1176,
    "\u2581exitprocess": 1177,
    "\u25810x38": 1178,
    "metafilebits": 1179,
    "\u25810x8f": 1180,
    "ma": 1181,
    "3e": 1182,
    "bf": 1183,
    "46": 1184,
    "9f": 1185,
    "\u2581regopenkeyexw": 1186,
    "df": 1187,
    "icon": 1188,
    "\u2581relea": 1189,
    "\u25810x7aa0": 1190,
    "\u25810x770": 1191,
    "ov": 1192,
    "930": 1193,
    "\u2581localfree": 1194,
    "\u25810x1e": 1195,
    "\u25810x79d0": 1196,
    "yn": 1197,
    "first": 1198,
    "de9": 1199,
    "\u25810x40a5cc": 1200,
    "\u25810x40a5dc": 1201,
    "1b": 1202,
    "inmetafilebits": 1203,
    "57": 1204,
    "eep": 1205,
    "low": 1206,
    "bc0": 1207,
    "ute": 1208,
    "\u25810x4615": 1209,
    "748": 1210,
    "rive": 1211,
    "\u25810x44d4b8": 1212,
    "realloc": 1213,
    "\u2581regopenkeyexa": 1214,
    "pro": 1215,
    "27": 1216,
    "\u25810x58": 1217,
    "\u2581drive": 1218,
    "\u25810xfeee0009": 1219,
    "ors": 1220,
    "\u2581wait": 1221,
    "\u2581getwinmetafilebits": 1222,
    "180": 1223,
    "\u25810xfde9": 1224,
    "\u2581getconsole": 1225,
    "\u25810x1b": 1226,
    "\u25810x4d70": 1227,
    "\u25810xfeee000b": 1228,
    "aaaa": 1229,
    "\u25810xfeee000a": 1230,
    "51": 1231,
    "ad0": 1232,
    "\u25810x41c0": 1233,
    "\u25810x4290": 1234,
    "ngu": 1235,
    "\u2581vari": 1236,
    "prot": 1237,
    "\u2581dragob": 1238,
    "\u25810x1211f97": 1239,
    "\u25810xfeee000c": 1240,
    "yarg": 1241,
    "\u25810xfeee010": 1242,
    "\u2581delete": 1243,
    "color": 1244,
    "\u25810x1211528": 1245,
    "message": 1246,
    "nguage": 1247,
    "\u2581floating": 1248,
    "ange": 1249,
    "\u2581fin": 1250,
    "\u2581virtualprot": 1251,
    "not": 1252,
    "7b": 1253,
    "53": 1254,
    "\u25810x7eab": 1255,
    "\u2581findre": 1256,
    "\u2581sleep": 1257,
    "d9": 1258,
    "date": 1259,
    "ilanguage": 1260,
    "allock": 1261,
    "\u25810x70cc": 1262,
    "\u25810x41c044": 1263,
    "\u25810x1f": 1264,
    "\u25810xfeee000e": 1265,
    "ee0": 1266,
    "\u2581gen": 1267,
    "cea": 1268,
    "\u2581setc": 1269,
    "\u25810xcc": 1270,
    "\u25810x1211c18": 1271,
    "\u25810xfeee000d": 1272,
    "rw": 1273,
    "\u25810xfeee0010": 1274,
    "\u25810xfeee0015": 1275,
    "\u25810xfeee0014": 1276,
    "\u2581flsfree": 1277,
    "\u2581globallock": 1278,
    "ditionvariable": 1279,
    "\u25810x23": 1280,
    "\u2581virtualprotect": 1281,
    "\u2581loadcursor": 1282,
    "\u2581getfile": 1283,
    "\u25810xfeee0016": 1284,
    "\u2581shell32": 1285,
    "\u25810x67": 1286,
    "\u25810x40933c": 1287,
    "\u25810xfeee0013": 1288,
    "\u25810xfeee000f": 1289,
    "\u25810xfeee0012": 1290,
    "\u25810x84": 1291,
    "\u25810x2c": 1292,
    "iv": 1293,
    "\u25810xfeee0011": 1294,
    "ity": 1295,
    "vie": 1296,
    "2e": 1297,
    "\u2581con": 1298,
    "\u25810x1211dcc": 1299,
    "aps": 1300,
    "pal": 1301,
    "palet": 1302,
    "\u25810x8b": 1303,
    "\u25810x5a": 1304,
    "off": 1305,
    "\u2581getfileattributesw": 1306,
    "wait": 1307,
    "\u25810x3f7": 1308,
    "initializ": 1309,
    "2000": 1310,
    "\u25810x409344": 1311,
    "7d": 1312,
    "\u2581generic": 1313,
    "\u25810x4f": 1314,
    "ord": 1315,
    "308": 1316,
    "\u25810x1804": 1317,
    "older": 1318,
    "gi": 1319,
    "ctl32": 1320,
    "\u2581comctl32": 1321,
    "folder": 1322,
    "\u25810x43400": 1323,
    "\u25810x24": 1324,
    "errormode": 1325,
    "\u2581seterrormode": 1326,
    "ock": 1327,
    "\u2581aaa": 1328,
    "\u2581loadlibraryexa": 1329,
    "change": 1330,
    "\u25810x32": 1331,
    "\u2581exe": 1332,
    "\u25810x21": 1333,
    "offile": 1334,
    "62": 1335,
    "\u2581registerc": 1336,
    "\u2581getsystemdirectorya": 1337,
    "\u2581nt": 1338,
    "\u25810x7f00": 1339,
    "\u2581writefile": 1340,
    "\u25810x1211908": 1341,
    "vic": 1342,
    "\u25810x99": 1343,
    "3b": 1344,
    "ynch": 1345,
    "\u2581synch": 1346,
    "\u25810x12114b8": 1347,
    "1f": 1348,
    "\u25810x40c": 1349,
    "5b": 1350,
    "\u2581createfilea": 1351,
    "\u2581waitf": 1352,
    "\u25810x7f": 1353,
    "\u2581wsprintfa": 1354,
    "flow": 1355,
    "pare": 1356,
    "300": 1357,
    "\u25810x4790": 1358,
    "\u2581creates": 1359,
    "\u25810x10000": 1360,
    "econ": 1361,
    "ryp": 1362,
    "\u25810x69000000": 1363,
    "lp": 1364,
    "ccc": 1365,
    "ts": 1366,
    "bers": 1367,
    "ive": 1368,
    "\u25810x1211718": 1369,
    "\u25810x1211fd8": 1370,
    "\u25810xa0": 1371,
    "79": 1372,
    "\u25810x88a0": 1373,
    "\u25810x1211958": 1374,
    "div": 1375,
    "\u2581lstrlenw": 1376,
    "rypt": 1377,
    "\u25810x1211f7c": 1378,
    "3d": 1379,
    "ision": 1380,
    "\u25810x8e": 1381,
    "rwlock": 1382,
    "\u25810x40b3": 1383,
    "ric": 1384,
    "sc": 1385,
    "ero": 1386,
    "\u25810xfeee001a": 1387,
    "\u2581se": 1388,
    "77": 1389,
    "\u25810x1211e08": 1390,
    "500000": 1391,
    "\u2581gettempa": 1392,
    "\u25810xfeee0019": 1393,
    "inal": 1394,
    "\u25810xfeee0017": 1395,
    "\u2581compare": 1396,
    "all": 1397,
    "\u25810x1211fd0": 1398,
    "\u2581shget": 1399,
    "oper": 1400,
    "\u25810x101": 1401,
    "ordinal": 1402,
    "trol": 1403,
    "\u2581ordinal": 1404,
    "\u25810x47c0": 1405,
    "2a": 1406,
    "\u2581fibers": 1407,
    "\u25810xfeee0018": 1408,
    "\u2581file": 1409,
    "\u25810x1211c0": 1410,
    "eexa": 1411,
    "\u2581findfirst": 1412,
    "\u25810x1210f8": 1413,
    "processlist": 1414,
    "\u2581getconsoleprocesslist": 1415,
    "5a": 1416,
    "\u25810x29": 1417,
    "\u25810x41a0": 1418,
    "\u25810x4614": 1419,
    "ok": 1420,
    "tem": 1421,
    "\u25810x4600": 1422,
    "23": 1423,
    "73": 1424,
    "59": 1425,
    "\u25810xfeee001c": 1426,
    "\u25810x98": 1427,
    "out": 1428,
    "\u2581un": 1429,
    "\u25810x3c": 1430,
    "\u25810x4000": 1431,
    "\u25810x83": 1432,
    "7a": 1433,
    "\u25810x4710": 1434,
    "\u25814": 1435,
    "5500000": 1436,
    "mem": 1437,
    "\u2581crypt": 1438,
    "\u25810x65500000": 1439,
    "\u2581clo": 1440,
    "\u25810x1212000": 1441,
    "\u2581getcurrentdirectorya": 1442,
    "\u25810x25": 1443,
    "\u2581ole32": 1444,
    "\u25810x7ee01": 1445,
    "\u2581loadcursora": 1446,
    "\u25810x97": 1447,
    "\u2581setmenu": 1448,
    "\u2581getde": 1449,
    "\u2581releas": 1450,
    "\u2581variant": 1451,
    "sourcea": 1452,
    "\u25810x80c0": 1453,
    "\u25810xfeee001d": 1454,
    "\u2581heaprealloc": 1455,
    "\u2581getkey": 1456,
    "messagea": 1457,
    "\u2581exis": 1458,
    "\u2581existing": 1459,
    "\u2581deletecriticalsection": 1460,
    "\u2581getuser": 1461,
    "leob": 1462,
    "\u25810x434": 1463,
    "\u25810x41a044": 1464,
    "ay": 1465,
    "\u2581createa": 1466,
    "environment": 1467,
    "\u25810x48400": 1468,
    "89": 1469,
    "\u25810x40a5a0": 1470,
    "\u25810xfeee001b": 1471,
    "lphi": 1472,
    "\u2581delphi": 1473,
    "25": 1474,
    "\u25810x1211dd0": 1475,
    "initialize": 1476,
    "oy": 1477,
    "\u25810x1211748": 1478,
    "messagew": 1479,
    "meto": 1480,
    "ockob": 1481,
    "\u25810x1211d0": 1482,
    "\u2581getstockob": 1483,
    "\u25810x1210e4": 1484,
    "\u2581lstrcpyna": 1485,
    "\u25810x34": 1486,
    "\u25810x1210e0": 1487,
    "buff": 1488,
    "\u25810x1d": 1489,
    "\u25810x2d": 1490,
    "\u25810x40a59e": 1491,
    "\u25810x40a5a2": 1492,
    "\u25810x40a5a4": 1493,
    "\u25810x40a5a6": 1494,
    "\u25810x40a5a8": 1495,
    "\u25810x40a5aa": 1496,
    "508": 1497,
    "\u25810x700c": 1498,
    "stroy": 1499,
    "\u25810x214": 1500,
    "660": 1501,
    "65": 1502,
    "\u25810x169": 1503,
    "variant": 1504,
    "\u25810x4340": 1505,
    "\u25810x1210f0": 1506,
    "0000000": 1507,
    "\u25810x4088": 1508,
    "\u2581getdc": 1509,
    "\u25810x12119c0": 1510,
    "sk": 1511,
    "\u25810x1211a": 1512,
    "variablea": 1513,
    "isk": 1514,
    "clus": 1515,
    "ory": 1516,
    "\u25810x79f0": 1517,
    "\u25810x412": 1518,
    "operation": 1519,
    "\u25810x5d": 1520,
    "call": 1521,
    "\u25810x94": 1522,
    "\u2581closet": 1523,
    "\u2581closethreadpool": 1524,
    "\u2581createthreadpool": 1525,
    "\u2581z": 1526,
    "lush": 1527,
    "cy": 1528,
    "\u25810x1211948": 1529,
    "a256": 1530,
    "und": 1531,
    "\u25810x7ec0": 1532,
    "\u25810x2e": 1533,
    "clusive": 1534,
    "srwlock": 1535,
    "\u2581sha256": 1536,
    "exclusive": 1537,
    "srwlockexclusive": 1538,
    "1d": 1539,
    "\u25810x4093e8": 1540,
    "\u2581th": 1541,
    "\u25810x704c": 1542,
    "\u25810x40935d": 1543,
    "\u25810x40935e": 1544,
    "\u25810x40935f": 1545,
    "\u25810x409360": 1546,
    "\u25810x409361": 1547,
    "\u25810x409362": 1548,
    "\u25810x409363": 1549,
    "\u25810x4093e5": 1550,
    "\u25810x4093e6": 1551,
    "\u25810x4093e7": 1552,
    "\u2581setenvironment": 1553,
    "3f": 1554,
    "\u25810x708c": 1555,
    "\u25810x44c2": 1556,
    "\u25810x1210ea": 1557,
    "29": 1558,
    "\u25810x2b": 1559,
    "\u2581setcurrent": 1560,
    "\u2581getdevic": 1561,
    "\u25810x3f75f": 1562,
    "61": 1563,
    "\u25810x1210ed": 1564,
    "ub": 1565,
    "ecaps": 1566,
    "\u2581findclose": 1567,
    "\u2581getdevicecaps": 1568,
    "\u25810x4428": 1569,
    "\u25810x7d10": 1570,
    "6b": 1571,
    "\u25810x1210ee": 1572,
    "namea": 1573,
    "\u25810x8001": 1574,
    "\u25810xfeee001f": 1575,
    "\u2581findresourcea": 1576,
    "box": 1577,
    "\u25810x1211780": 1578,
    "\u25810x1211308": 1579,
    "\u25810x1211578": 1580,
    "\u25810xfeee001e": 1581,
    "lip": 1582,
    "memory": 1583,
    "\u25810x8d": 1584,
    "system": 1585,
    "7f": 1586,
    "\u2581enum": 1587,
    "erflow": 1588,
    "\u2581getversionexw": 1589,
    "\u2581createfilew": 1590,
    "\u25810x1211f28": 1591,
    "\u25810xfeee0020": 1592,
    "41": 1593,
    "\u25810x2e7": 1594,
    "valu": 1595,
    "6a": 1596,
    "\u25810xfeee018": 1597,
    "21": 1598,
    "\u2581pr": 1599,
    "view": 1600,
    "\u2581olea": 1601,
    "\u25810x4093e9": 1602,
    "\u25810x4093ea": 1603,
    "\u25810x4093eb": 1604,
    "\u2581setmenuinfo": 1605,
    "\u25810x42a1": 1606,
    "\u25810x1211e30": 1607,
    "\u2581getkeyboard": 1608,
    "\u25810x3f75f30": 1609,
    "\u25810x37": 1610,
    "yscolor": 1611,
    "\u25810x46b0": 1612,
    "\u2581getwindow": 1613,
    "\u25810x7090": 1614,
    "\u2581getsyscolor": 1615,
    "67": 1616,
    "\u25810x566": 1617,
    "profile": 1618,
    "69": 1619,
    "metric": 1620,
    "emap": 1621,
    "\u25810x593": 1622,
    "\u25810x414": 1623,
    "\u2581getsysteminfo": 1624,
    "edex": 1625,
    "\u2581releasedc": 1626,
    "\u25810x4730": 1627,
    "\u25810xd0": 1628,
    "\u2581interlockedex": 1629,
    "\u2581interlockedexchange": 1630,
    "\u25810x4df0": 1631,
    "\u2581control": 1632,
    "\u2581u": 1633,
    "vice": 1634,
    "ray": 1635,
    "\u25810x68": 1636,
    "\u2581tr": 1637,
    "ecute": 1638,
    "ping": 1639,
    "\u25810x33": 1640,
    "\u25810xa000": 1641,
    "\u25810x40a93": 1642,
    "comp": 1643,
    "\u25810x3a": 1644,
    "\u2581deletefilea": 1645,
    "63": 1646,
    "fo": 1647,
    "\u25810x1211f2c": 1648,
    "f08": 1649,
    "soft": 1650,
    "filemap": 1651,
    "\u2581getclass": 1652,
    "filemapping": 1653,
    "\u25810xffff": 1654,
    "\u25810x1211e4": 1655,
    "\u25810x55": 1656,
    "bstr": 1657,
    "bstrfrom": 1658,
    "\u2581varbstrfrom": 1659,
    "\u25810x437808": 1660,
    "\u25810x169b": 1661,
    "\u2581mo": 1662,
    "imeto": 1663,
    "\u25810x437806": 1664,
    "\u25810x43780a": 1665,
    "\u25810x43780c": 1666,
    "\u25810x43780e": 1667,
    "\u25810x437810": 1668,
    "\u25810x437812": 1669,
    "\u25810x437814": 1670,
    "\u25810x437816": 1671,
    "\u25810x437818": 1672,
    "\u25810x43781a": 1673,
    "\u25810x43781c": 1674,
    "\u25810x43781e": 1675,
    "\u2581i": 1676,
    "\u2581getd": 1677,
    "\u25810x43a4": 1678,
    "\u2581initializes": 1679,
    "2f": 1680,
    "\u2581st": 1681,
    "\u2581pi": 1682,
    "lw": 1683,
    "\u25810x40b": 1684,
    "\u25810x8811": 1685,
    "orsing": 1686,
    "orsingleob": 1687,
    "\u25810x7930": 1688,
    "\u25810x1211fcc": 1689,
    "45": 1690,
    "\u25810x64": 1691,
    "2b": 1692,
    "\u2581msvcr": 1693,
    "icro": 1694,
    "\u25810x4614d0": 1695,
    "qui": 1696,
    "\u25810x5c": 1697,
    "icrosoft": 1698,
    "\u2581waitforsingleob": 1699,
    "\u25810x1211728": 1700,
    "deg": 1701,
    "\u2581remo": 1702,
    "degear": 1703,
    "\u2581codegear": 1704,
    "de0": 1705,
    "548": 1706,
    "\u25810x3e": 1707,
    "help": 1708,
    "\u2581mon": 1709,
    "\u25810xfeee0021": 1710,
    "8d": 1711,
    "\u25810x31": 1712,
    "\u2581registerclass": 1713,
    "ena": 1714,
    "\u25810x35": 1715,
    "\u25810xc00": 1716,
    "\u25810x1211efc": 1717,
    "\u25810x8260": 1718,
    "informationby": 1719,
    "metrics": 1720,
    "\u25810x4af4": 1721,
    "\u2581getsystemmetrics": 1722,
    "2d": 1723,
    "\u25810xfeee0022": 1724,
    "\u25810x4e30": 1725,
    "\u25810x7850": 1726,
    "\u2581dra": 1727,
    "\u25810x36": 1728,
    "\u2581gdip": 1729,
    "back": 1730,
    "\u25810x67000000": 1731,
    "\u25810x7eaba8": 1732,
    "\u2581creat": 1733,
    "\u2581loadicon": 1734,
    "callback": 1735,
    "\u2581version": 1736,
    "host": 1737,
    "\u25810x4ab0": 1738,
    "essage": 1739,
    "pooltimer": 1740,
    "ork": 1741,
    "erre": 1742,
    "\u25810xa2": 1743,
    "\u25810x1211f20": 1744,
    "\u25810x1211fd4": 1745,
    "\u25810x405": 1746,
    "lwapi": 1747,
    "\u2581shlwapi": 1748,
    "\u2581createfilemapping": 1749,
    "\u2581setcurrentdirectorya": 1750,
    "pos": 1751,
    "\u2581sets": 1752,
    "vate": 1753,
    "\u25810x89": 1754,
    "320": 1755,
    "\u2581map": 1756,
    "\u25810x1211dc8": 1757,
    "\u2581message": 1758,
    "ug": 1759,
    "\u2581crt": 1760,
    "\u2581flush": 1761,
    "head": 1762,
    "ries": 1763,
    "\u25810xfeee0024": 1764,
    "ull": 1765,
    "\u2581type": 1766,
    "\u25810x440": 1767,
    "\u25810x1211c98": 1768,
    "\u25810x169bc": 1769,
    "\u25818": 1770,
    "\u2581mar": 1771,
    "\u25810x7340": 1772,
    "pref": 1773,
    "\u25810x2f": 1774,
    "\u25810x85": 1775,
    "6d": 1776,
    "\u25810x39": 1777,
    "\u25810x47a0": 1778,
    "eent": 1779,
    "6e": 1780,
    "base": 1781,
    "\u2581nov": 1782,
    "\u25810x91": 1783,
    "\u2581createsemap": 1784,
    "\u25810x1211ccc": 1785,
    "\u2581comparestring": 1786,
    "stry": 1787,
    "\u25810x61": 1788,
    "\u2581microsoft": 1789,
    "\u25810xfeee0023": 1790,
    "sup": 1791,
    "\u2581sep": 1792,
    "\u25810x66": 1793,
    "\u2581process": 1794,
    "\u2581shfolder": 1795,
    "polic": 1796,
    "quire": 1797,
    "\u25810x40a5ac": 1798,
    "\u25810xfeee0026": 1799,
    "\u25810xfeee0027": 1800,
    "teent": 1801,
    "\u25810x4960": 1802,
    "teentries": 1803,
    "\u25810xfeee0025": 1804,
    "paletteentries": 1805,
    "of": 1806,
    "\u2581lock": 1807,
    "\u25810x3b": 1808,
    "main": 1809,
    "qa": 1810,
    "\u2581ch": 1811,
    "\u25810x3d": 1812,
    "\u2581messagebox": 1813,
    "9000": 1814,
    "erredu": 1815,
    "\u25810x4076": 1816,
    "preferredu": 1817,
    "\u2581setprocess": 1818,
    "preferreduilanguage": 1819,
    "vol": 1820,
    "private": 1821,
    "privi": 1822,
    "\u25810x65": 1823,
    "\u25810x46a0": 1824,
    "\u25810x77002": 1825,
    "\u25810x1211cc0": 1826,
    "\u2581getkeyboardtype": 1827,
    "preferreduilanguages": 1828,
    "6f": 1829,
    "yarg1": 1830,
    "\u25810x5b": 1831,
    "\u2581loadresource": 1832,
    "\u2581fmode": 1833,
    "\u25810x8cc0": 1834,
    "\u25810x1211f88": 1835,
    "privateprofile": 1836,
    "\u25810xfee": 1837,
    "\u25810x8f70": 1838,
    "\u2581draw": 1839,
    "\u2581v": 1840,
    "\u2581oc": 1841,
    "\u25810x121194c": 1842,
    "ember": 1843,
    "\u2581aug": 1844,
    "\u25810x40a66": 1845,
    "leg": 1846,
    "\u2581gettime": 1847,
    "\u25810x40a582": 1848,
    "\u25810x40a584": 1849,
    "\u25810x40a586": 1850,
    "\u25810x40a588": 1851,
    "\u25810x40a58a": 1852,
    "xit": 1853,
    "\u2581aa": 1854,
    "280": 1855,
    "\u25810x43f6": 1856,
    "\u25810x7540": 1857,
    "\u25810x40a580": 1858,
    "full": 1859,
    "policy": 1860,
    "lipboard": 1861,
    "\u25810x40a57e": 1862,
    "568": 1863,
    "\u2581dw": 1864,
    "\u25810x4bd0": 1865,
    "\u2581rt": 1866,
    "\u2581regquery": 1867,
    "a04": 1868,
    "earchmode": 1869,
    "\u2581setsearchmode": 1870,
    "700": 1871,
    "\u2581sun": 1872,
    "\u2581setenvironmentvariablea": 1873,
    "\u2581rtl": 1874,
    "yarg2": 1875,
    "heme": 1876,
    "delet": 1877,
    "\u25810x7d00": 1878,
    "\u25810xb8": 1879,
    "privileg": 1880,
    "\u25810x4620": 1881,
    "\u25810x42a0": 1882,
    "\u25810x44c250": 1883,
    "deppolicy": 1884,
    "c3": 1885,
    "endoffile": 1886,
    "4e": 1887,
    "\u2581sat": 1888,
    "\u2581setprocessdeppolicy": 1889,
    "\u25810x63": 1890,
    "\u25810x1211f74": 1891,
    "c9": 1892,
    "uary": 1893,
    "\u2581dec": 1894,
    "\u2581uxt": 1895,
    "\u25810x4086": 1896,
    "\u2581uxtheme": 1897,
    "\u2581may": 1898,
    "\u25810x1211f64": 1899,
    "\u2581createfilemappinga": 1900,
    "sday": 1901,
    "\u2581tue": 1902,
    "\u2581wed": 1903,
    "conditionvariable": 1904,
    "\u2581ac": 1905,
    "termin": 1906,
    "bar": 1907,
    "\u2581destroy": 1908,
    "\u2581oleinitialize": 1909,
    "hor": 1910,
    "spac": 1911,
    "\u2581wak": 1912,
    "ink": 1913,
    "\u25810x4606": 1914,
    "\u25810x95": 1915,
    "43": 1916,
    "\u258117": 1917,
    "afear": 1918,
    "\u25810x44e4": 1919,
    "\u2581setwindow": 1920,
    "\u25810xaa": 1921,
    "\u25810x120fa": 1922,
    "econditionvariable": 1923,
    "\u2581of": 1924,
    "\u25810x1211f84": 1925,
    "49": 1926,
    "\u25810x198": 1927,
    "\u25810x1210e8": 1928,
    "\u2581ofresource": 1929,
    "\u25810xa8": 1930,
    "fp": 1931,
    "volu": 1932,
    "\u25810x1211f78": 1933,
    "c1": 1934,
    "\u2581termin": 1935,
    "\u25810x4418": 1936,
    "\u25810x42a00": 1937,
    "\u2581lstrcpya": 1938,
    "\u2581registry": 1939,
    "\u2581getenvironment": 1940,
    "\u2581ntdll": 1941,
    "\u25810x121178": 1942,
    "\u2581getmain": 1943,
    "ust": 1944,
    "iskfree": 1945,
    "iskfreespac": 1946,
    "\u2581getdiskfreespac": 1947,
    "47": 1948,
    "\u25810x19a": 1949,
    "ename": 1950,
    "\u2581rand": 1951,
    "\u25810x45f4": 1952,
    "quiresrwlockexclusive": 1953,
    "\u2581em": 1954,
    "\u25810x461518": 1955,
    "\u25810xa7": 1956,
    "suped": 1957,
    "buffers": 1958,
    "\u25810x45f2": 1959,
    "\u25810x4356": 1960,
    "myarg2": 1961,
    "spec": 1962,
    "\u25810x7cd0": 1963,
    "volume": 1964,
    "\u25810x8a40": 1965,
    "\u25810xfeee0028": 1966,
    "work": 1967,
    "\u2581getsystempaletteentries": 1968,
    "utex": 1969,
    "\u25810x45f5": 1970,
    "afearray": 1971,
    "env": 1972,
    "mapi": 1973,
    "\u25810x45f1": 1974,
    "c6": 1975,
    "708": 1976,
    "\u25810x75500000": 1977,
    "\u25810x7bd0": 1978,
    "\u25810x1211c04": 1979,
    "variablew": 1980,
    "\u2581tmp": 1981,
    "\u25810x45f6": 1982,
    "\u25810x121193": 1983,
    "\u2581filet": 1984,
    "\u25810x7270": 1985,
    "\u2581filetimeto": 1986,
    "\u25810x45f3": 1987,
    "\u25810x45f9": 1988,
    "\u2581dwmapi": 1989,
    "\u25810x45f7": 1990,
    "\u25810x45f8": 1991,
    "listhead": 1992,
    "yarg1myarg2": 1993,
    "\u2581initializeslisthead": 1994,
    "roll": 1995,
    "\u25810x45fa": 1996,
    "\u2581loadicona": 1997,
    "\u2581cryptbase": 1998,
    "len": 1999,
    "mask": 2000,
    "\u2581registerwindow": 2001,
    "\u25810x7de4": 2002,
    "\u25810x7de5": 2003,
    "\u25810x121157c": 2004,
    "brus": 2005,
    "\u2581getsystemtime": 2006,
    "keyw": 2007,
    "untime": 2008,
    "\u25810xff8": 2009,
    "\u25810x45fe": 2010,
    "\u25810x4601": 2011,
    "\u2581process32": 2012,
    "\u2581getwindows": 2013,
    "ken": 2014,
    "namew": 2015,
    "\u2581currentversion": 2016,
    "\u2581cop": 2017,
    "\u25810xa1": 2018,
    "\u25810x4e50": 2019,
    "\u25810x7700": 2020,
    "eck": 2021,
    "zero": 2022,
    "\u25810x12117a4": 2023,
    "state": 2024,
    "\u25810x45ff": 2025,
    "aaaaaaaa": 2026,
    "\u2581no": 2027,
    "\u25810x45fd": 2028,
    "\u25810x1211ee0": 2029,
    "\u2581floatingpoint": 2030,
    "188": 2031,
    "byzero": 2032,
    "overflow": 2033,
    "isionbyzero": 2034,
    "\u25810x53000000": 2035,
    "\u25810x100000": 2036,
    "\u2581invalidvariant": 2037,
    "\u25810x86": 2038,
    "vchost": 2039,
    "\u2581findnext": 2040,
    "gn": 2041,
    "f80": 2042,
    "que": 2043,
    "\u2581svchost": 2044,
    "\u25810x1211bc0": 2045,
    "\u2581lstrcpynw": 2046,
    "\u25810x7ab0": 2047,
    "\u25810x40966": 2048,
    "as": 2049,
    "\u25810x4012": 2050,
    "\u25810x40958": 2051,
    "\u25810x7300": 2052,
    "\u25810x4800": 2053,
    "f04": 2054,
    "\u25810x44280": 2055,
    "\u2581error": 2056,
    "\u25810x4cb0": 2057,
    "ervice": 2058,
    "\u25810x6970": 2059,
    "\u2581inst": 2060,
    "b88": 2061,
    "ed8": 2062,
    "\u25810x1211c94": 2063,
    "\u2581setfileattribute": 2064,
    "tro": 2065,
    "\u25810x12119ac": 2066,
    "ca": 2067,
    "\u25810xe0": 2068,
    "\u25810x7a80": 2069,
    "\u25810x410ac": 2070,
    "\u25810x4c30": 2071,
    "\u25810x7150": 2072,
    "\u25810x78a0": 2073,
    "ad4": 2074,
    "palette": 2075,
    "808": 2076,
    "\u25810xa3": 2077,
    "\u2581copy": 2078,
    "\u2581mul": 2079,
    "\u2581muldiv": 2080,
    "\u25810x1211d04": 2081,
    "\u25810x4d50": 2082,
    "\u2581ts": 2083,
    "typ": 2084,
    "\u2581setup": 2085,
    "\u2581setdll": 2086,
    "cad": 2087,
    "\u25810x7900": 2088,
    "\u25810xfeee0029": 2089,
    "\u25810x73f0": 2090,
    "\u25810xfeee002a": 2091,
    "\u25810x27": 2092,
    "\u25810x9b": 2093,
    "\u2581varr": 2094,
    "4fromstr": 2095,
    "\u25810x7ad0": 2096,
    "valueexa": 2097,
    "\u25810x1211a04": 2098,
    "volumeinformation": 2099,
    "bool": 2100,
    "\u2581loc": 2101,
    "\u25810x437820": 2102,
    "\u25810x1210ec0": 2103,
    "\u2581getvolumeinformation": 2104,
    "\u25810x9c": 2105,
    "\u25810x420": 2106,
    "\u25810x72a0": 2107,
    "viewoffile": 2108,
    "formata": 2109,
    "\u25810x4df00": 2110,
    "\u25810xbc": 2111,
    "\u25810x4370": 2112,
    "\u2581localiz": 2113,
    "\u2581localization": 2114,
    "\u25810x437804": 2115,
    "\u25810xfeee002d": 2116,
    "\u25810x71b0": 2117,
    "648": 2118,
    "\u25810x51": 2119,
    "\u25810xfeee002c": 2120,
    "trols": 2121,
    "\u2581getclassinfoa": 2122,
    "token": 2123,
    "\u25810x169bc9c": 2124,
    "\u25810xfeee002f": 2125,
    "\u25810xfeee002b": 2126,
    "\u25817": 2127,
    "\u2581createthread": 2128,
    "4d": 2129,
    "\u2581userenv": 2130,
    "\u2581gettempw": 2131,
    "\u25810xfeee002e": 2132,
    "a00": 2133,
    "\u25810x7ff": 2134,
    "\u25810x364": 2135,
    "able": 2136,
    "\u25810x4760": 2137,
    "\u25810x92": 2138,
    "ec0": 2139,
    "\u2581tsl": 2140,
    "\u25810x1211508": 2141,
    "\u2581createprocess": 2142,
    "4f": 2143,
    "lec": 2144,
    "\u25810x42a4": 2145,
    "condition": 2146,
    "\u25810xa4": 2147,
    "\u2581exem": 2148,
    "\u2581exemyarg1myarg2": 2149,
    "\u25810x80000000": 2150,
    "\u2581findfirstfilea": 2151,
    "\u2581po": 2152,
    "localename": 2153,
    "drl66": 2154,
    "barcad": 2155,
    "\u25810x4607": 2156,
    "\u25810x7690": 2157,
    "barcadero": 2158,
    "\u2581tsldrl66": 2159,
    "\u2581embarcadero": 2160,
    "ei": 2161,
    "ip": 2162,
    "\u25810x1002": 2163,
    "\u25810x42c0": 2164,
    "\u2581globalfree": 2165,
    "108": 2166,
    "\u25810x450": 2167,
    "\u25810x4630": 2168,
    "\u25810x1211e14": 2169,
    "340": 2170,
    "7c8": 2171,
    "\u2581setdlldirectoryw": 2172,
    "ut32": 2173,
    "\u25810xb0": 2174,
    "\u2581oleaut32": 2175,
    "\u25810x41f7": 2176,
    "85": 2177,
    "\u25810x40b4": 2178,
    "closekey": 2179,
    "\u2581regclosekey": 2180,
    "\u25810x4400": 2181,
    "ast": 2182,
    "\u25810x4012db": 2183,
    "\u25810x44e4b8": 2184,
    "bitmap": 2185,
    "\u25810x534": 2186,
    "\u25810x77e0": 2187,
    "\u2581err": 2188,
    "brush": 2189,
    "\u25810x350": 2190,
    "\u25810xfeee0030": 2191,
    "edi": 2192,
    "\u2581sys": 2193,
    "link": 2194,
    "\u25810xac": 2195,
    "\u25810x7060": 2196,
    "cor": 2197,
    "pack": 2198,
    "\u25810xfeee0031": 2199,
    "\u25810x40935c": 2200,
    "\u25810x4093e4": 2201,
    "940": 2202,
    "\u2581ra": 2203,
    "\u25810xa6": 2204,
    "\u25810x5266": 2205,
    "orsafearray": 2206,
    "\u25810x1211ea": 2207,
    "\u25816": 2208,
    "enum": 2209,
    "\u25810x78d0": 2210,
    "controls": 2211,
    "\u25810x1211f00": 2212,
    "cb": 2213,
    "secur": 2214,
    "\u2581controlfp": 2215,
    "4a": 2216,
    "140": 2217,
    "ial": 2218,
    "\u25810x435000": 2219,
    "\u25810x26": 2220,
    "\u25810x93": 2221,
    "\u2581shgetfile": 2222,
    "\u25810x4cf0": 2223,
    "\u25810x7ec1": 2224,
    "\u25810x30000": 2225,
    "\u25810x40a59c": 2226,
    "df0": 2227,
    "\u25810x9a": 2228,
    "\u25810x1211928": 2229,
    "\u2581lockresource": 2230,
    "lect": 2231,
    "\u25810x40b7": 2232,
    "\u25810x1211f24": 2233,
    "\u25810x62": 2234,
    "\u25810x478": 2235,
    "aff": 2236,
    "\u25810xfeee0033": 2237,
    "\u25810x508": 2238,
    "\u25810xfeee0032": 2239,
    "ym": 2240,
    "\u2581q": 2241,
    "\u25810x5f": 2242,
    "\u2581createwindow": 2243,
    "\u25810x7d50": 2244,
    "\u2581form": 2245,
    "\u2581getthreadpreferreduilanguages": 2246,
    "cd": 2247,
    "\u2581prec": 2248,
    "\u2581point": 2249,
    "rectory": 2250,
    "\u2581errata": 2251,
    "edirectory": 2252,
    "\u2581precision": 2253,
    "\u2581stem": 2254,
    "l6660d": 2255,
    "\u25810x7b40": 2256,
    "\u2581stem32": 2257,
    "\u2581charpre": 2258,
    "\u25810x96": 2259,
    "\u2581commode": 2260,
    "\u25810xfeee0034": 2261,
    "\u25810xfeee0035": 2262,
    "\u2581ns": 2263,
    "\u25810x59": 2264,
    "common": 2265,
    "\u25810x44f8": 2266,
    "\u2581corexit": 2267,
    "\u2581corexitprocess": 2268,
    "hook": 2269,
    "hore": 2270,
    "\u2581initcommon": 2271,
    "\u2581initcommoncontrols": 2272,
    "gical": 2273,
    "logical": 2274,
    "\u25810x45fc": 2275,
    "\u2581nsis": 2276,
    "\u2581nsiserror": 2277,
    "delete": 2278,
    "\u2581getdate": 2279,
    "\u2581getlogical": 2280,
    "83": 2281,
    "eall": 2282,
    "\u25810xfeee0046": 2283,
    "\u2581getuserdefault": 2284,
    "iseex": 2285,
    "\u2581raiseex": 2286,
    "\u25810x1211f70": 2287,
    "\u2581raiseexception": 2288,
    "atex": 2289,
    "\u2581remov": 2290,
    "formatex": 2291,
    "drl6660drl6660drl6660drl6660drl6660": 2292,
    "b00": 2293,
    "\u2581wakeall": 2294,
    "\u25810xfeee0036": 2295,
    "\u2581messageboxa": 2296,
    "\u2581wakeallconditionvariable": 2297,
    "\u25810x3f2000": 2298,
    "\u25810xfeee0037": 2299,
    "\u25810xc8": 2300,
    "\u25810xfeee0045": 2301,
    "\u2581findfirstfilew": 2302,
    "ong": 2303,
    "\u25810x480": 2304,
    "\u2581strcmp": 2305,
    "\u25810xfeee0038": 2306,
    "ans": 2307,
    "\u2581getprivateprofile": 2308,
    "\u2581initializeconditionvariable": 2309,
    "\u25810xad": 2310,
    "\u25810x40f6": 2311,
    "\u25810xfeee003d": 2312,
    "c5": 2313,
    "\u25810xfeee0047": 2314,
    "ta": 2315,
    "\u25810x409364": 2316,
    "\u25810x4093ec": 2317,
    "\u25810xfeee003e": 2318,
    "\u25810x1211f80": 2319,
    "\u25810x6d": 2320,
    "\u25810x115": 2321,
    "security": 2322,
    "\u25810xfeee004a": 2323,
    "\u25810x45fb": 2324,
    "\u25810x7870": 2325,
    "long": 2326,
    "ument": 2327,
    "\u25810x75d0": 2328,
    "\u25810x7750": 2329,
    "\u25810xfeee0043": 2330,
    "\u25810xfeee0048": 2331,
    "dl": 2332,
    "408": 2333,
    "f000": 2334,
    "\u25810x74e0": 2335,
    "\u25810xfeee003b": 2336,
    "item": 2337,
    "\u25810x7e00": 2338,
    "\u25810xfeee0039": 2339,
    "\u25810xfeee003a": 2340,
    "og": 2341,
    "\u25810xfeee0040": 2342,
    "\u25810x40a5b0": 2343,
    "\u2581noaccess": 2344,
    "\u25810x1211fc8": 2345,
    "\u25810xfeee0041": 2346,
    "setinformation": 2347,
    "\u25810x9f": 2348,
    "\u25810x1211c08": 2349,
    "\u25810x1211c90": 2350,
    "\u25810xfeee003f": 2351,
    "\u25810xfeee0044": 2352,
    "\u25810x40a5ae": 2353,
    "\u25810x40a5b2": 2354,
    "\u25810x40a5b4": 2355,
    "\u25810x40a5b6": 2356,
    "\u25810x40a5b8": 2357,
    "\u25810x40a5ba": 2358,
    "\u25810x1211e44": 2359,
    "\u25810xfeee0042": 2360,
    "cef": 2361,
    "\u25810x72d0": 2362,
    "\u25810x7a50": 2363,
    "\u25813": 2364,
    "data": 2365,
    "\u25810x428": 2366,
    "\u25810x7cf0": 2367,
    "\u25810xfeee003c": 2368,
    "\u25810xfeee0049": 2369,
    "bl": 2370,
    "\u25810x7210": 2371,
    "\u25810x4093a5": 2372,
    "\u25810x4093a6": 2373,
    "\u25810x4093a7": 2374,
    "\u25810x4093a8": 2375,
    "\u25810x4093a9": 2376,
    "\u25810x4093aa": 2377,
    "\u25810x4093ab": 2378,
    "\u25810xfeee004d": 2379,
    "ethread": 2380,
    "\u25810x4700": 2381,
    "\u25810x7be0": 2382,
    "\u25810x404": 2383,
    "\u25810x75a0": 2384,
    "\u25810xfeee004b": 2385,
    "a44": 2386,
    "\u25810x7390": 2387,
    "\u25810x7600": 2388,
    "\u25810x771": 2389,
    "\u25810xfeee004c": 2390,
    "\u25810x6f": 2391,
    "valuea": 2392,
    "\u25810x7ae0": 2393,
    "\u25810x401": 2394,
    "localtime": 2395,
    "b08": 2396,
    "00210": 2397,
    "\u25810x1211dfc": 2398,
    "\u2581registerclipboard": 2399,
    "pt": 2400,
    "blt": 2401,
    "toma": 2402,
    "am": 2403,
    "\u25810x407": 2404,
    "\u25810x4605": 2405,
    "\u25810x7720": 2406,
    "il": 2407,
    "\u25810x7030": 2408,
    "b48": 2409,
    "\u25810x7660": 2410,
    "\u25810x71e0": 2411,
    "\u2581move": 2412,
    "\u25810x76f0": 2413,
    "\u25810x42a190": 2414,
    "coree": 2415,
    "\u25810x7240": 2416,
    "\u2581getmenu": 2417,
    "\u2581mscoree": 2418,
    "\u2581getfileinformationby": 2419,
    "driv": 2420,
    "\u25810x43f0": 2421,
    "\u25810x76c0": 2422,
    "\u25810x7c000000": 2423,
    "\u25810xfeee0050": 2424,
    "\u25810xfeee0055": 2425,
    "\u25810xfeee005e": 2426,
    "fac": 2427,
    "net": 2428,
    "ool": 2429,
    "\u2581show": 2430,
    "\u25810x4604": 2431,
    "\u25810xfeee004e": 2432,
    "008": 2433,
    "ec8": 2434,
    "\u25810x7b10": 2435,
    "\u25810x87": 2436,
    "\u25810x7480": 2437,
    "\u25810x1211db8": 2438,
    "\u25810xfeee0054": 2439,
    "\u25810x600": 2440,
    "\u2581regdelete": 2441,
    "\u25810xfeee0053": 2442,
    "\u25810x1808": 2443,
    "\u25810x7180": 2444,
    "\u2581format": 2445,
    "\u25810xfeee004f": 2446,
    "bk": 2447,
    "ret": 2448,
    "mutex": 2449,
    "\u25810xa5": 2450,
    "\u2581getlocaleinfo": 2451,
    "\u25810x7a20": 2452,
    "\u25810x7ba0": 2453,
    "\u25810xfeee0051": 2454,
    "\u25810xfeee0052": 2455,
    "\u25810xfeee0064": 2456,
    "\u2581unhandledexceptionfilter": 2457,
    "\u25810x56c": 2458,
    "ateprocess": 2459,
    "tin": 2460,
    "\u25810x406": 2461,
    "\u25810x4015": 2462,
    "\u2581comparestringex": 2463,
    "\u2581getlocaleinfoex": 2464,
    "218": 2465,
    "\u25810x7330": 2466,
    "\u25810xfeee005c": 2467,
    "linkw": 2468,
    "\u25810xa9": 2469,
    "\u25810x1210f64": 2470,
    "\u25810xfeee0056": 2471,
    "\u25810xfeee0057": 2472,
    "\u25810x7990": 2473,
    "\u25810xb3": 2474,
    "\u25810x7360": 2475,
    "\u25810x77b0": 2476,
    "\u25810xfeee005f": 2477,
    "\u25810x8090": 2478,
    "\u25810x1211e58": 2479,
    "sn": 2480,
    "iled": 2481,
    "\u25810x7120": 2482,
    "\u2581terminateprocess": 2483,
    "\u2581regset": 2484,
    "\u25810xfeee0059": 2485,
    "\u2581heapsetinformation": 2486,
    "\u2581acquiresrwlockexclusive": 2487,
    "\u25810x644": 2488,
    "package": 2489,
    "\u25810xfeee0058": 2490,
    "\u25810xfeee0063": 2491,
    "\u25810x604": 2492,
    "\u25810x70c0": 2493,
    "\u25810xfeee005a": 2494,
    "exit": 2495,
    "\u25810x7840": 2496,
    "\u25810x79c0": 2497,
    "\u25810xfeee0065": 2498,
    "\u25810xfeee0068": 2499,
    "\u2581createdirectorya": 2500,
    "ns": 2501,
    "bd0": 2502,
    "wind": 2503,
    "\u2581mei": 2504,
    "affin": 2505,
    "itymask": 2506,
    "\u25810x4c42": 2507,
    "\u25810x74b0": 2508,
    "\u25810x7570": 2509,
    "\u25810xfeee005b": 2510,
    "affinitymask": 2511,
    "\u2581setfilepointerex": 2512,
    "reque": 2513,
    "\u25810x140": 2514,
    "\u25810x1211fc4": 2515,
    "\u25810x6c": 2516,
    "\u25810x4010": 2517,
    "\u25810x7510": 2518,
    "\u2581release": 2519,
    "8b": 2520,
    "gex": 2521,
    "sourcew": 2522,
    "\u25810x73c0": 2523,
    "\u25810x7450": 2524,
    "\u25810xfeee0060": 2525,
    "\u25810xfeee0069": 2526,
    "\u2581getwindowsdirectorya": 2527,
    "e48": 2528,
    "\u258132": 2529,
    "\u2581wts": 2530,
    "ext": 2531,
    "\u2581lstrc": 2532,
    "\u25810x7420": 2533,
    "\u25810xfeee005d": 2534,
    "\u25810xfeee0066": 2535,
    "\u2581getfileattributesa": 2536,
    "\u25810x429": 2537,
    "\u25810x4608": 2538,
    "\u25810x1211e40": 2539,
    "\u25810x1211f34": 2540,
    "\u25810xfeee0061": 2541,
    "th": 2542,
    "format": 2543,
    "ss2": 2544,
    "atus": 2545,
    "pass2": 2546,
    "texta": 2547,
    "\u25810x7630": 2548,
    "\u2581waitfor": 2549,
    "\u2581meipass2": 2550,
    "\u25810x1211d30": 2551,
    "\u25810xfeee0062": 2552,
    "\u25810x81": 2553,
    "\u25810xab": 2554,
    "\u25810x3f3": 2555,
    "\u25810x8230": 2556,
    "\u25810x1211dbc": 2557,
    "\u25810x1211ef8": 2558,
    "\u25810xfeee0067": 2559,
    "pla": 2560,
    "\u25810x1211d08": 2561,
    "\u2581regcreate": 2562,
    "cf": 2563,
    "par": 2564,
    "\u25810x403": 2565,
    "\u2581rtlun": 2566,
    "\u25810x70f0": 2567,
    "\u25810x7960": 2568,
    "\u2581rtlunwind": 2569,
    "eg": 2570,
    "\u25810xae": 2571,
    "\u25810x496": 2572,
    "\u25810xb000": 2573,
    "instruction": 2574,
    "668": 2575,
    "\u2581cl": 2576,
    "\u2581end": 2577,
    "\u25810x7b70": 2578,
    "validate": 2579,
    "\u2581heapvalidate": 2580,
    "\u2581removedirectory": 2581,
    "\u25810x1211f04": 2582,
    "ech": 2583,
    "\u25810x4602": 2584,
    "\u25810x7780": 2585,
    "\u2581fe": 2586,
    "\u25810x181": 2587,
    "\u25810x461": 2588,
    "\u25810x4196": 2589,
    "\u2581lstrcmpi": 2590,
    "\u2581getlocaltime": 2591,
    "\u2581getprocessaffinitymask": 2592,
    "81": 2593,
    "\u2581up": 2594,
    "\u2581getfull": 2595,
    "\u25810x42a403": 2596,
    "\u25810x42a404": 2597,
    "\u25810x42a405": 2598,
    "\u25810x42a406": 2599,
    "\u25810x42a407": 2600,
    "\u25810x42a408": 2601,
    "\u25810x42a409": 2602,
    "\u25810x42a40a": 2603,
    "\u25810x42a40b": 2604,
    "\u25810x42a40c": 2605,
    "\u25810x42a40d": 2606,
    "\u25810x42a40e": 2607,
    "\u25810x42a40f": 2608,
    "\u25810xfeee006b": 2609,
    "d24": 2610,
    "\u2581send": 2611,
    "\u25810x3000": 2612,
    "packageid": 2613,
    "\u2581getcurrentpackageid": 2614,
    "status": 2615,
    "\u25810x57c": 2616,
    "\u25810xebad": 2617,
    "uilanguage": 2618,
    "\u25810x7910": 2619,
    "ncy": 2620,
    "ymbo": 2621,
    "\u25810xcf": 2622,
    "ymbolic": 2623,
    "\u25810x47a00": 2624,
    "\u25810x1211e28": 2625,
    "\u2581regcreatekey": 2626,
    "\u2581sldrl6660drl6660drl6660drl6660drl6660drl6660drl6660drl6660": 2627,
    "\u25810x121193c": 2628,
    "\u25810x2100210": 2629,
    "tes": 2630,
    "\u2581comm": 2631,
    "\u25810x44180": 2632,
    "c7": 2633,
    "\u25810x6a6": 2634,
    "windows": 2635,
    "\u25810x4e39": 2636,
    "\u25810x566f": 2637,
    "cefreque": 2638,
    "\u2581lstrcata": 2639,
    "cefrequency": 2640,
    "\u25810xfeee006a": 2641,
    "\u25810xfeee0070": 2642,
    "\u2581registerwindowmessagew": 2643,
    "\u2581queryperformancefrequency": 2644,
    "ater": 2645,
    "scri": 2646,
    "\u25810x10005c": 2647,
    "ymboliclinkw": 2648,
    "\u2581createsymboliclinkw": 2649,
    "4b": 2650,
    "sti": 2651,
    "3ef0": 2652,
    "files": 2653,
    "\u25810x4bb0": 2654,
    "\u25810x49c8": 2655,
    "\u25810xffe1": 2656,
    "\u25810xfeee0077": 2657,
    "vis": 2658,
    "code": 2659,
    "lation": 2660,
    "special": 2661,
    "stringw": 2662,
    "specialfolder": 2663,
    "\u2581freelibraryw": 2664,
    "\u2581shgetspecialfolder": 2665,
    "\u25815": 2666,
    "\u25810xebad74": 2667,
    "\u25810x1153ef0": 2668,
    "enh": 2669,
    "hen": 2670,
    "urns": 2671,
    "areex": 2672,
    "horeexw": 2673,
    "returns": 2674,
    "ornumber": 2675,
    "poolwait": 2676,
    "\u2581runtime": 2677,
    "callbacks": 2678,
    "compareex": 2679,
    "\u2581setupapi": 2680,
    "hencallback": 2681,
    "\u25810xfeee0079": 2682,
    "processwrite": 2683,
    "\u2581waitforthread": 2684,
    "hencallbackreturns": 2685,
    "pooltimercallbacks": 2686,
    "\u2581flushprocesswrite": 2687,
    "\u2581setthreadpoolwait": 2688,
    "\u2581createsemaphoreexw": 2689,
    "\u2581setthreadpooltimer": 2690,
    "\u2581closethreadpoolwait": 2691,
    "\u2581closethreadpooltimer": 2692,
    "\u2581createthreadpoolwait": 2693,
    "\u2581interlockedcompareex": 2694,
    "\u2581createthreadpooltimer": 2695,
    "\u2581flushprocesswritebuffers": 2696,
    "\u2581getcurrentprocessornumber": 2697,
    "\u2581freelibrarywhencallbackreturns": 2698,
    "\u2581waitforthreadpooltimercallbacks": 2699,
    "\u25810x430": 2700,
    "\u25810x4300": 2701,
    "\u25810x4af460": 2702,
    "\u2581setendoffile": 2703,
    "\u25810xea": 2704,
    "onexit": 2705,
    "\u25810x28c": 2706,
    "\u25810x4c50": 2707,
    "\u25810xfeee006c": 2708,
    "\u25810xfeee006e": 2709,
    "\u25810x1211f50": 2710,
    "\u2581interlockedcompareexchange": 2711,
    "b8c": 2712,
    "\u2581dup": 2713,
    "unlock": 2714,
    "\u25810x5b2": 2715,
    "\u25810xfeee0076": 2716,
    "d38": 2717,
    "handler": 2718,
    "\u25810xfeee006f": 2719,
    "\u25810xfeee0078": 2720,
    "\u2581gettickcount64": 2721,
    "938": 2722,
    "\u25810xffe0": 2723,
    "\u25810xfeee006d": 2724,
    "\u25810xfeee007a": 2725,
    "\u25810xfeee007b": 2726,
    "d000": 2727,
    "\u25810x7e0": 2728,
    "hot": 2729,
    "\u25810xaf": 2730,
    "echeck": 2731,
    "\u25810xfffe": 2732,
    "lecs": 2733,
    "\u25810x188": 2734,
    "variablecs": 2735,
    "\u2581sleepcondition": 2736,
    "\u2581sleepconditionvariablecs": 2737,
    "\u2581exp": 2738,
    "\u25810xffe4": 2739,
    "\u25810x120faa8": 2740,
    "\u25810xfeee0071": 2741,
    "\u2581findwindow": 2742,
    "\u2581getenvironmentvariablew": 2743,
    "stitu": 2744,
    "\u25810x418": 2745,
    "\u2581select": 2746,
    "\u2581findresourcew": 2747,
    "\u2581registerclassa": 2748,
    "ati": 2749,
    "onts": 2750,
    "ontsub": 2751,
    "\u25810x1009": 2752,
    "stitutes": 2753,
    "\u2581fontsub": 2754,
    "\u2581fontsubstitutes": 2755,
    "\u2581sc": 2756,
    "load": 2757,
    "bound": 2758,
    "\u25810x423": 2759,
    "\u25810xfeee0074": 2760,
    "\u2581getthreaduilanguage": 2761,
    "add": 2762,
    "\u25810x432": 2763,
    "\u25810xfeee0073": 2764,
    "\u25810x46e0": 2765,
    "\u25810x7eab78": 2766,
    "\u25810xfeee0072": 2767,
    "010": 2768,
    "\u25810x4420": 2769,
    "\u25810x4692": 2770,
    "\u25810x7f8003": 2771,
    "\u25810x7f8004": 2772,
    "\u25810x7f8005": 2773,
    "\u25810x7f8006": 2774,
    "\u25810x7f8007": 2775,
    "\u25810x7f8008": 2776,
    "\u25810x7f8009": 2777,
    "\u25810x7f800a": 2778,
    "\u25810x7f800b": 2779,
    "\u25810x7f800c": 2780,
    "\u25810x7f800d": 2781,
    "\u25810x7f800e": 2782,
    "\u25810x7f800f": 2783,
    "\u25810x1211f18": 2784,
    "\u2581createdirectoryw": 2785,
    "apshot": 2786,
    "\u2581prop": 2787,
    "\u25810xffbb": 2788,
    "\u25810xffbd": 2789,
    "\u25810xffbe": 2790,
    "\u2581septem": 2791,
    "\u25810x461548": 2792,
    "\u25810xfeee0075": 2793,
    "\u2581initcommoncontrolsex": 2794,
    "a4c4": 2795,
    "help32": 2796,
    "\u25810xffba": 2797,
    "\u25810xffbc": 2798,
    "\u2581apphelp": 2799,
    "\u2581getexit": 2800,
    "oolhelp32": 2801,
    "\u25810xfeee007c": 2802,
    "\u25810xfeee0094": 2803,
    "os": 2804,
    "sys": 2805,
    "\u2581oct": 2806,
    "\u25810xffb8": 2807,
    "\u25810xffb9": 2808,
    "\u2581oleacc": 2809,
    "oom": 2810,
    "\u2581ext": 2811,
    "\u25810xffe5": 2812,
    "snapshot": 2813,
    "\u2581propsys": 2814,
    "oolhelp32snapshot": 2815,
    "\u2581createtoolhelp32snapshot": 2816,
    "atq": 2817,
    "ceex": 2818,
    "bcatq": 2819,
    "\u25810x509": 2820,
    "\u25810xffb7": 2821,
    "\u25810xfffd": 2822,
    "\u2581memset": 2823,
    "\u2581clbcatq": 2824,
    "\u25810x437038": 2825,
    "fx": 2826,
    "uter": 2827,
    "descri": 2828,
    "\u2581strlen": 2829,
    "\u25810x12117f4": 2830,
    "\u25810x1211808": 2831,
    "\u25810x7d94": 2832,
    "\u25810x7d95": 2833,
    "\u25810xffb6": 2834,
    "\u25810xfffc": 2835,
    "\u2581regenum": 2836,
    "284": 2837,
    "\u25810x4af478": 2838,
    "\u25810x5e": 2839,
    "\u25810x1005": 2840,
    "\u2581registerclipboardformata": 2841,
    "\u25810xffbf": 2842,
    "\u2581process32next": 2843,
    "eek": 2844,
    "ert": 2845,
    "\u2581wm": 2846,
    "\u2581feb": 2847,
    "\u25810x4c10": 2848,
    "\u25810x3f20": 2849,
    "\u25810xffb5": 2850,
    "\u25810xfffb": 2851,
    "\u2581duplic": 2852,
    "windowproc": 2853,
    "004": 2854,
    "eni": 2855,
    "oem": 2856,
    "pril": 2857,
    "tober": 2858,
    "\u25810x9d": 2859,
    "\u2581febr": 2860,
    "\u2581april": 2861,
    "\u2581august": 2862,
    "\u25810x40a58c": 2863,
    "\u2581november": 2864,
    "\u2581september": 2865,
    "\u2581apr": 2866,
    "computer": 2867,
    "\u2581createw": 2868,
    "\u2581createsemaphore": 2869,
    "name": 2870,
    "\u2581beg": 2871,
    "ority": 2872,
    "\u25810x44f9": 2873,
    "\u25810x7d27": 2874,
    "priority": 2875,
    "\u2581createpalette": 2876,
    "\u25810x40a6": 2877,
    "\u25810x5375": 2878,
    "5c4": 2879,
    "750": 2880,
    "index": 2881,
    "\u25810x6e": 2882,
    "\u25810x2d4": 2883,
    "\u25810x40a57c": 2884,
    "\u25810xfeee007e": 2885,
    "\u25810xfeee0081": 2886,
    "\u2581deletefilew": 2887,
    "\u2581setthreadlocale": 2888,
    "\u2581getfileinformationbyhandl": 2889,
    "une": 2890,
    "tive": 2891,
    "\u25810xfeee007d": 2892,
    "\u2581createmutex": 2893,
    "26c": 2894,
    "\u2581ws2": 2895,
    "\u25810x1211e1c": 2896,
    "\u25810xfeee007f": 2897,
    "\u2581getcomputer": 2898,
    "lex": 2899,
    "ssp": 2900,
    "zone": 2901,
    "\u2581setfileinformationby": 2902,
    "988": 2903,
    "tern": 2904,
    "\u2581div": 2905,
    "\u25810xbe": 2906,
    "\u25810xc0": 2907,
    "\u25810xfeee0082": 2908,
    "\u2581gettimezone": 2909,
    "\u2581globalunlock": 2910,
    "\u2581gettimezoneinformation": 2911,
    "\u2581createexw": 2912,
    "\u25810xfeee0086": 2913,
    "ram": 2914,
    "\u25810xffb4": 2915,
    "\u25810x1211edc": 2916,
    "\u25810xfeee0080": 2917,
    "\u2581getcurrentdirectoryw": 2918,
    "388": 2919,
    "vio": 2920,
    "\u25810x7de8": 2921,
    "\u25810x1211e4c": 2922,
    "\u25810xfeee0087": 2923,
    "\u25810xf0": 2924,
    "\u25810xffe6": 2925,
    "\u25810x1211f5c": 2926,
    "\u25810xfffa": 2927,
    "violation": 2928,
    "\u25810xfeee0083": 2929,
    "uly": 2930,
    "anuary": 2931,
    "\u2581march": 2932,
    "\u2581october": 2933,
    "\u2581december": 2934,
    "\u2581february": 2935,
    "atch": 2936,
    "\u2581thu": 2937,
    "nesday": 2938,
    "\u25810xffcd": 2939,
    "\u2581monday": 2940,
    "\u2581sunday": 2941,
    "\u25810x12111": 2942,
    "\u2581tuesday": 2943,
    "\u2581wednesday": 2944,
    "\u25810x76500000": 2945,
    "\u25810xfeee0084": 2946,
    "ursday": 2947,
    "\u2581thursday": 2948,
    "\u25810xfeee0085": 2949,
    "\u2581fri": 2950,
    "failed": 2951,
    "\u2581interfac": 2952,
    "\u2581mapvirtual": 2953,
    "5c8": 2954,
    "iday": 2955,
    "\u2581ass": 2956,
    "urday": 2957,
    "\u25810x10b": 2958,
    "\u25810xffa0": 2959,
    "\u2581friday": 2960,
    "\u2581getdriv": 2961,
    "\u2581saturday": 2962,
    "\u25810x41f": 2963,
    "\u25810x42ed": 2964,
    "\u25810x7de9": 2965,
    "\u25810xffa1": 2966,
    "\u25810x435002": 2967,
    "\u25810x435004": 2968,
    "\u25810x435006": 2969,
    "\u25810x435008": 2970,
    "\u25810x43500a": 2971,
    "\u25810x43500c": 2972,
    "\u25810x43500e": 2973,
    "\u25810x435010": 2974,
    "\u25810x435018": 2975,
    "723": 2976,
    "b000": 2977,
    "valueexw": 2978,
    "\u25810x435014": 2979,
    "\u25810xfeee0088": 2980,
    "\u25810xfeee008c": 2981,
    "\u2581enumsystem": 2982,
    "348": 2983,
    "hed": 2984,
    "anget": 2985,
    "\u25810xffa2": 2986,
    "\u2581shellex": 2987,
    "\u25810x435016": 2988,
    "\u25810x1211fc0": 2989,
    "\u2581getdrivet": 2990,
    "\u25810xfeee0089": 2991,
    "\u25810xd8": 2992,
    "\u2581outof": 2993,
    "\u25810xfeee008e": 2994,
    "\u2581outofmemory": 2995,
    "\u2581findnextfilea": 2996,
    "100": 2997,
    "5000": 2998,
    "\u25810x606": 2999,
    "\u25810x56b8": 3000,
    "\u25810x120ee": 3001,
    "\u25810xfeee008a": 3002,
    "\u25810xfeee008b": 3003,
    "\u25810x7df0": 3004,
    "rl": 3005,
    "\u25810x44d5": 3006,
    "\u25810xffcf": 3007,
    "\u2581exception": 3008,
    "\u2581y": 3009,
    "\u25810x44d2": 3010,
    "\u25810xffb3": 3011,
    "\u25810xffce": 3012,
    "\u25810x1211790": 3013,
    "las": 3014,
    "pop": 3015,
    "afec": 3016,
    "ecte": 3017,
    "printf": 3018,
    "\u25810xffa3": 3019,
    "\u25810xffe2": 3020,
    "\u25810x63000000": 3021,
    "cid": 3022,
    "\u25810x502": 3023,
    "\u25810x59e": 3024,
    "\u25810xffb0": 3025,
    "\u25810xfff9": 3026,
    "ternal": 3027,
    "\u25810xffb1": 3028,
    "descript": 3029,
    "\u2581setfileattributesa": 3030,
    "\u2581def": 3031,
    "\u25810x5ab0": 3032,
    "\u25810xffb2": 3033,
    "securitydescript": 3034,
    "alog": 3035,
    "\u25810x437": 3036,
    "\u25810x40a3d1": 3037,
    "\u25810x40a3d2": 3038,
    "\u25810x40a3d3": 3039,
    "\u25810xfeee008d": 3040,
    "scroll": 3041,
    "changet": 3042,
    "\u25810x1211f44": 3043,
    "\u2581openprocess": 3044,
    "\u2581variantchanget": 3045,
    "dialog": 3046,
    "afecall": 3047,
    "\u25810xffa4": 3048,
    "exception": 3049,
    "orgex": 3050,
    "\u25810xb4": 3051,
    "\u25810x40f": 3052,
    "\u25810x435012": 3053,
    "\u25810x1211eac": 3054,
    "\u2581gettempfilena": 3055,
    "208": 3056,
    "sid": 3057,
    "\u2581post": 3058,
    "\u25810x40e5": 3059,
    "\u2581showwindow": 3060,
    "cs": 3061,
    "ertion": 3062,
    "\u2581stack": 3063,
    "\u25810x4c50c0": 3064,
    "privileged": 3065,
    "\u2581assertion": 3066,
    "\u2581tsldrl666": 3067,
    "\u2581accessviolation": 3068,
    "\u2581shgetspecialfolderw": 3069,
    "b14": 3070,
    "aa40": 3071,
    "\u25810x6b": 3072,
    "\u25810xffe3": 3073,
    "\u25810x12112": 3074,
    "\u2581interfacen": 3075,
    "ins": 3076,
    "teger": 3077,
    "\u2581integer": 3078,
    "styp": 3079,
    "\u25810x4095": 3080,
    "\u25810xfeee0097": 3081,
    "sum": 3082,
    "\u2581disk": 3083,
    "\u25810x45b1": 3084,
    "\u2581remove": 3085,
    "\u2581msvcr90": 3086,
    "a08": 3087,
    "calls": 3088,
    "found": 3089,
    "\u25810xb7": 3090,
    "\u25810x4c0": 3091,
    "\u25810x4967": 3092,
    "\u2581regqueryvalueexa": 3093,
    "b8a": 3094,
    "de8": 3095,
    "\u25810x584": 3096,
    "\u25810x44ed": 3097,
    "\u25810x697070": 3098,
    "\u2581duplicate": 3099,
    "\u2581getdiskfreespaceexa": 3100,
    "\u25810xffa5": 3101,
    "\u25810xfeee008f": 3102,
    "pip": 3103,
    "\u2581setbk": 3104,
    "\u25810xffa6": 3105,
    "\u25810xffcc": 3106,
    "\u2581module": 3107,
    "\u25810x40a3d4": 3108,
    "\u2581external": 3109,
    "\u25810x1211f48": 3110,
    "nam": 3111,
    "deni": 3112,
    "rl6660d": 3113,
    "\u25810xffa7": 3114,
    "\u2581module32": 3115,
    "any": 3116,
    "\u25810x12110": 3117,
    "\u25810xfeee0098": 3118,
    "\u2581comparestringw": 3119,
    "b78": 3120,
    "ow64": 3121,
    "section": 3122,
    "filename": 3123,
    "notfound": 3124,
    "insafecall": 3125,
    "\u2581exceptioninsafecall": 3126,
    "302": 3127,
    "ond": 3128,
    "\u25810x9e": 3129,
    "\u25810x407b": 3130,
    "\u25810xfeee0090": 3131,
    "\u25810xfeee0091": 3132,
    "\u25810xfeee0092": 3133,
    "\u25810xfeee0093": 3134,
    "\u25819": 3135,
    "e000": 3136,
    "\u25810xd3": 3137,
    "\u25810x46c0": 3138,
    "argument": 3139,
    "\u2581mapvirtualkeyw": 3140,
    "f0c": 3141,
    "ecast": 3142,
    "\u25810xbb": 3143,
    "\u25810x107": 3144,
    "\u25810x7dec": 3145,
    "\u25810x7ded": 3146,
    "\u25810xffc6": 3147,
    "\u2581windowsnt": 3148,
    "\u2581privileged": 3149,
    "\u2581assertionfailed": 3150,
    "\u2581releasesrwlockexclusive": 3151,
    "263": 3152,
    "688": 3153,
    "ere": 3154,
    "ccess": 3155,
    "under": 3156,
    "\u2581rang": 3157,
    "verflow": 3158,
    "\u25810x40a9": 3159,
    "creating": 3160,
    "leaccess": 3161,
    "\u2581rangecheck": 3162,
    "clas": 3163,
    "outof": 3164,
    "\u2581chit": 3165,
    "\u2581toom": 3166,
    "bounds": 3167,
    "pointo": 3168,
    "anyopen": 3169,
    "otsuped": 3170,
    "callsnot": 3171,
    "classtyp": 3172,
    "floating": 3173,
    "indexoutof": 3174,
    "\u25810x1211a44": 3175,
    "\u25810x1211e2c": 3176,
    "\u25810xfeee0099": 3177,
    "anyopenfiles": 3178,
    "callsnotsuped": 3179,
    "classtypecast": 3180,
    "floatingpoint": 3181,
    "pointoverflow": 3182,
    "divisionbyzero": 3183,
    "\u2581errorcreating": 3184,
    "\u2581divisionbyzero": 3185,
    "indexoutofbounds": 3186,
    "pointeroperation": 3187,
    "\u2581integeroverflow": 3188,
    "\u2581invalidfilename": 3189,
    "\u2581rangecheckerror": 3190,
    "\u2581toomanyopenfiles": 3191,
    "\u2581externalexception": 3192,
    "\u2581interfacenotsuped": 3193,
    "\u2581errorcreatingvariant": 3194,
    "\u2581invalidfloatingpoint": 3195,
    "\u2581variantcallsnotsuped": 3196,
    "\u2581floatingpointoverflow": 3197,
    "\u2581floatingpointdivisionbyzero": 3198,
    "\u2581invalidfloatingpointoperation": 3199,
    "bey": 3200,
    "beyond": 3201,
    "denied": 3202,
    "numeric": 3203,
    "typecon": 3204,
    "\u25810xfff7": 3205,
    "underflow": 3206,
    "\u2581diskfull": 3207,
    "\u25810x12116c0": 3208,
    "\u25810xfeee0095": 3209,
    "\u2581fileaccess": 3210,
    "\u2581readbeyond": 3211,
    "numericinput": 3212,
    "typeconversion": 3213,
    "\u2581stackoverflow": 3214,
    "\u2581fileaccessdenied": 3215,
    "\u2581invalidnumericinput": 3216,
    "\u2581readbeyondendoffile": 3217,
    "\u2581invalidclasstypecast": 3218,
    "\u2581privilegedinstruction": 3219,
    "\u2581floatingpointunderflow": 3220,
    "\u2581invalidpointeroperation": 3221,
    "\u2581invalidvariantoperation": 3222,
    "\u2581invalidvarianttypeconversion": 3223,
    "758": 3224,
    "\u25810xac0": 3225,
    "\u25810x8814": 3226,
    "\u2581duplicatehandle": 3227,
    "\u2581getenvironmentstring": 3228,
    "kg": 3229,
    "patch": 3230,
    "\u25810x419": 3231,
    "\u25810x78f0": 3232,
    "\u25810xfeee0096": 3233,
    "own": 3234,
    "fff0": 3235,
    "\u25810xffa8": 3236,
    "\u25810x40a3d5": 3237,
    "\u25810x40a3d6": 3238,
    "\u25810x40a3d7": 3239,
    "\u25810xfeedf0": 3240,
    "\u25810xfeee009a": 3241,
    "\u25810x701": 3242,
    "\u25810xffe7": 3243,
    "mbb": 3244,
    "per": 3245,
    "lient": 3246,
    "\u25810x46b": 3247,
    "\u2581ismbb": 3248,
    "\u25810x4195": 3249,
    "\u25810xffa9": 3250,
    "\u25810x77000": 3251,
    "\u2581ismbblead": 3252,
    "\u2581memcpy": 3253,
    "paint": 3254,
    "\u25810x1075": 3255,
    "\u25810x4364": 3256,
    "\u25810x7aa40": 3257,
    "\u25810x1211e24": 3258,
    "\u2581mapviewoffile": 3259,
    "\u25810x4603": 3260,
    "once": 3261,
    "\u25810xeb": 3262,
    "\u25810x43501a": 3263,
    "\u25810x700": 3264,
    "\u25810x121188": 3265,
    "\u2581iswindow": 3266,
    "928": 3267,
    "fon": 3268,
    "inst": 3269,
    "class": 3270,
    "\u2581execute": 3271,
    "\u25810x410acd": 3272,
    "\u25810x410ace": 3273,
    "\u25810x44f8e0": 3274,
    "\u25810x46b188": 3275,
    "584": 3276,
    "3000": 3277,
    "ypeex": 3278,
    "\u25810x110": 3279,
    "\u25810x8815": 3280,
    "\u2581variantchangetypeex": 3281,
    "\u2581getenvironmentstrings": 3282,
    "mod": 3283,
    "\u25810x41d8": 3284,
    "\u25810x4551": 3285,
    "ed4": 3286,
    "\u25810x160": 3287,
    "\u25810x44c4": 3288,
    "\u25810xffaa": 3289,
    "c08": 3290,
    "oemcp": 3291,
    "onceex": 3292,
    "\u25810x4292": 3293,
    "\u25810x4e00": 3294,
    "\u25810x80e0": 3295,
    "\u25810x8410": 3296,
    "ecuteonce": 3297,
    "\u2581getoemcp": 3298,
    "\u2581initonceex": 3299,
    "\u2581initonceexecuteonce": 3300,
    "948": 3301,
    "sub": 3302,
    "ects": 3303,
    "atible": 3304,
    "\u25810x7f0": 3305,
    "\u25810x4540": 3306,
    "pen": 3307,
    "\u2581dis": 3308,
    "\u25810x70a8": 3309,
    "\u25810x584d24": 3310,
    "\u25810x1211e50": 3311,
    "\u25810xfeee009b": 3312,
    "\u2581loadcursorw": 3313,
    "a48": 3314,
    "\u25810x421": 3315,
    "\u25810x7e80": 3316,
    "\u25810x1211e98": 3317,
    "269": 3318,
    "neg": 3319,
    "\u25810xffcb": 3320,
    "\u25810x1211cb8": 3321,
    "\u25810x1211d2c": 3322,
    "\u25810xfeee009c": 3323,
    "\u2581createwindowexa": 3324,
    "ce8": 3325,
    "lay": 3326,
    "mul": 3327,
    "xor": 3328,
    "esst": 3329,
    "idiv": 3330,
    "popup": 3331,
    "\u25810x202": 3332,
    "\u2581varcy": 3333,
    "\u2581varor": 3334,
    "\u2581varr8": 3335,
    "\u25810xfff8": 3336,
    "\u2581varadd": 3337,
    "\u2581varand": 3338,
    "\u2581varcmp": 3339,
    "\u2581vardiv": 3340,
    "\u2581varmod": 3341,
    "\u2581varmul": 3342,
    "\u2581varneg": 3343,
    "\u2581varnot": 3344,
    "\u2581varsub": 3345,
    "\u2581varxor": 3346,
    "processt": 3347,
    "\u2581vardate": 3348,
    "\u2581varidiv": 3349,
    "\u25810x100300": 3350,
    "\u25810x1211cd0": 3351,
    "\u2581varcyfromstr": 3352,
    "\u2581vari4fromstr": 3353,
    "\u2581varr4fromstr": 3354,
    "\u2581varr8fromstr": 3355,
    "\u2581vardatefromstr": 3356,
    "328": 3357,
    "rgn": 3358,
    "\u25810x7c000": 3359,
    "\u2581varbool": 3360,
    "\u25810x13fff0": 3361,
    "\u2581varbstrfromcy": 3362,
    "\u2581varboolfromstr": 3363,
    "\u2581varbstrfrombool": 3364,
    "\u2581varbstrfromdate": 3365,
    "ecomp": 3366,
    "\u25810xdc": 3367,
    "\u2581resum": 3368,
    "\u25810xffd3": 3369,
    "\u25810x461500": 3370,
    "\u25810x1211f10": 3371,
    "\u2581resumethread": 3372,
    "\u25810xc4": 3373,
    "\u2581reset": 3374,
    "\u25810x5937": 3375,
    "\u25810x8280": 3376,
    "\u2581gettext": 3377,
    "\u25810x43501c": 3378,
    "\u25810x43501e": 3379,
    "\u25810x435020": 3380,
    "\u25810x435022": 3381,
    "\u25810x435028": 3382,
    "\u25810x43502a": 3383,
    "\u25810x43502c": 3384,
    "\u25810x43502e": 3385,
    "\u25810x435030": 3386,
    "\u2581shellexecute": 3387,
    "b60": 3388,
    "imag": 3389,
    "\u2581tlsfree": 3390,
    "\u25810x121178c": 3391,
    "nect": 3392,
    "\u2581copyfilea": 3393,
    "\u2581getenvironmentvariablea": 3394,
    "c00": 3395,
    "\u25810xde": 3396,
    "\u25810x7e89": 3397,
    "\u25810xba": 3398,
    "\u25810x7c90": 3399,
    "\u25810x99a0": 3400,
    "\u25810x401000": 3401,
    "processmemory": 3402,
    "\u2581enumsystemlocales": 3403,
    "gu": 3404,
    "248": 3405,
    "fore": 3406,
    "lower": 3407,
    "\u25810x40b8": 3408,
    "\u2581try": 3409,
    "ervic": 3410,
    "\u25810x4020": 3411,
    "\u25810x88c0": 3412,
    "allocate": 3413,
    "\u25810x537500": 3414,
    "360": 3415,
    "has": 3416,
    "ort": 3417,
    "\u25810x45d3": 3418,
    "\u25810x7df1": 3419,
    "\u25810x8330": 3420,
    "dlg": 3421,
    "e04": 3422,
    "2de0": 3423,
    "icli": 3424,
    "\u2581ric": 3425,
    "\u2581ssp": 3426,
    "formatw": 3427,
    "service": 3428,
    "\u25810xffc5": 3429,
    "\u2581riched": 3430,
    "\u2581sspicli": 3431,
    "\u25810x1211784": 3432,
    "\u25810x1211ddc": 3433,
    "327": 3434,
    "ee8": 3435,
    "\u25810x6a": 3436,
    "\u25810xc5": 3437,
    "\u25810x990": 3438,
    "\u2581charlower": 3439,
    "\u2581isvalidlocale": 3440,
    "\u25810xbf": 3441,
    "\u2581update": 3442,
    "\u2581charpreva": 3443,
    "ecompatible": 3444,
    "\u2581createcompatible": 3445,
    "aterect": 3446,
    "\u25810xffec": 3447,
    "defaultu": 3448,
    "\u25810x1211d7c": 3449,
    "\u2581getvolumeinformationa": 3450,
    "lication": 3451,
    "\u25810x42a402": 3452,
    "\u25810x42a410": 3453,
    "\u2581shgetfileinfoa": 3454,
    "504": 3455,
    "\u2581lib": 3456,
    "\u25810x40b5": 3457,
    "\u25810x4e2de0": 3458,
    "\u2581sfc": 3459,
    "\u25810x7230": 3460,
    "\u25810x1211ea0": 3461,
    "ession": 3462,
    "\u25810x8340": 3463,
    "\u2581lstrcmpia": 3464,
    "\u2581dx": 3465,
    "\u2581os": 3466,
    "destroy": 3467,
    "\u25810x47e0": 3468,
    "\u25810xa264": 3469,
    "\u2581createprocessa": 3470,
    "148": 3471,
    "d08": 3472,
    "d30": 3473,
    "dc0": 3474,
    "\u25810x40c7": 3475,
    "\u25810x41f6": 3476,
    "\u25810xffd2": 3477,
    "\u25810xfeee009d": 3478,
    "defaultuilanguage": 3479,
    "prog": 3480,
    "\u25810xf8": 3481,
    "valuew": 3482,
    "\u2581unmap": 3483,
    "\u25810x40ab": 3484,
    "\u25810x7bf0": 3485,
    "\u2581unmapviewoffile": 3486,
    "\u2581registerclassexa": 3487,
    "\u2581getvolumeinformationw": 3488,
    "288": 3489,
    "526": 3490,
    "ton": 3491,
    "a000": 3492,
    "pipe": 3493,
    "\u25810x4227": 3494,
    "\u25810x8e90": 3495,
    "\u25810xffca": 3496,
    "\u25810x1211ad4": 3497,
    "\u2581getsyscolorbrush": 3498,
    "541": 3499,
    "oken": 3500,
    "para": 3501,
    "\u25810x7b90": 3502,
    "\u25810x7e74": 3503,
    "\u25810x7e75": 3504,
    "\u25810x7e88": 3505,
    "\u2581setfileattributesw": 3506,
    "663": 3507,
    "\u25810x40aa": 3508,
    "\u25810x41ce": 3509,
    "\u25810x7eac": 3510,
    "\u25810x8ad0": 3511,
    "\u25810x9020": 3512,
    "\u25810x1211ec8": 3513,
    "120": 3514,
    "\u2581dxgi": 3515,
    "\u25810x566f18": 3516,
    "\u2581dxgidebug": 3517,
    "\u2581defwindowproc": 3518,
    "3880": 3519,
    "\u2581rsa": 3520,
    "\u25810x605": 3521,
    "\u25810x181b": 3522,
    "\u25810x7b00": 3523,
    "\u2581rsaenh": 3524,
    "\u25810x1211f30": 3525,
    "\u2581variantorsafearray": 3526,
    "\u2581errorcreatingvariantorsafearray": 3527,
    "\u2581variantorsafearrayindexoutofbounds": 3528,
    "301": 3529,
    "d48": 3530,
    "e1d": 3531,
    "session": 3532,
    "\u25810x435403": 3533,
    "\u25810x435404": 3534,
    "\u25810x435405": 3535,
    "\u25810x435406": 3536,
    "\u2581createmutexa": 3537,
    "\u2581getstringtyp": 3538,
    "\u2581process32first": 3539,
    "\u2581invalidargument": 3540,
    "6a0": 3541,
    "cel": 3542,
    "mar": 3543,
    "annot": 3544,
    "sourc": 3545,
    "\u25810x3f4": 3546,
    "\u25810x7af0": 3547,
    "\u2581lstrcmpw": 3548,
    "systemtime": 3549,
    "\u2581flushfile": 3550,
    "vironmentstringsa": 3551,
    "\u2581flushfilebuffers": 3552,
    "da0": 3553,
    "ffc": 3554,
    "\u25810xe3": 3555,
    "\u25810x4d5": 3556,
    "\u25810xfeee009e": 3557,
    "localfiletime": 3558,
    "\u2581filetimetolocalfiletime": 3559,
    "chr": 3560,
    "fc8": 3561,
    "stre": 3562,
    "\u25810xfc": 3563,
    "\u25810x2b4": 3564,
    "\u25810x9c8": 3565,
    "\u25810x435407": 3566,
    "210": 3567,
    "wow64": 3568,
    "\u25810x4222": 3569,
    "\u25810xffc7": 3570,
    "\u25810x44000": 3571,
    "144": 3572,
    "920": 3573,
    "\u25810x424": 3574,
    "\u25810x50e": 3575,
    "\u25810x54a4c4": 3576,
    "\u2581setscroll": 3577,
    "\u25810x77000723": 3578,
    "processtoken": 3579,
    "\u2581openprocesstoken": 3580,
    "a4c": 3581,
    "\u25810xd7": 3582,
    "\u25810xf1": 3583,
    "\u25810x40c4": 3584,
    "\u25810x7e78": 3585,
    "\u25810x435408": 3586,
    "\u25810x435409": 3587,
    "\u25810x43540a": 3588,
    "\u25810x43540b": 3589,
    "\u25810x43540c": 3590,
    "\u25810xfeee009f": 3591,
    "\u2581setenvironmentvariablew": 3592,
    "6e0": 3593,
    "9c8": 3594,
    "f58": 3595,
    "\u25810x7e79": 3596,
    "\u25810x7ee000": 3597,
    "\u25810x121189c": 3598,
    "\u2581getcursor": 3599,
    "\u2581getuserdefaultlocalename": 3600,
    "pkg": 3601,
    "prec": 3602,
    "\u25810x502dc": 3603,
    "\u25810x50850": 3604,
    "\u25810x7f8002": 3605,
    "\u25810x7f8010": 3606,
    "\u2581regsetvalueexa": 3607,
    "ly": 3608,
    "410": 3609,
    "\u25810xc7": 3610,
    "\u25810xd1": 3611,
    "\u2581begin": 3612,
    "\u25810x43540d": 3613,
    "\u25810x1211fb8": 3614,
    "\u25810xfeee00a1": 3615,
    "l6660drl6660drl6660drl6660drl6660drl6660drl6660drl6660drl6660": 3616,
    "datoma": 3617,
    "\u25810x1b2": 3618,
    "\u25810x7e7c": 3619,
    "\u25810x7e7d": 3620,
    "\u25810xfff6": 3621,
    "\u25810x12119f0": 3622,
    "\u25810xfeee00a0": 3623,
    "5bc": 3624,
    "92e": 3625,
    "\u25810x1fa": 3626,
    "\u25810x40938": 3627,
    "\u25810xfeee00a2": 3628,
    "\u2581comparestringa": 3629,
    "\u25810x448": 3630,
    "\u25810x409411": 3631,
    "\u25810x409412": 3632,
    "\u25810x409413": 3633,
    "\u25810x409414": 3634,
    "\u25810x409415": 3635,
    "\u25810x409416": 3636,
    "\u25810x409417": 3637,
    "\u25810x40a3e9": 3638,
    "\u25810x40a3ea": 3639,
    "\u25810x40a3eb": 3640,
    "\u25810x40a3ec": 3641,
    "\u25810x40a3ed": 3642,
    "\u25810x40a3ee": 3643,
    "\u25810x40a3ef": 3644,
    "\u25810x43540e": 3645,
    "\u25810x43540f": 3646,
    "\u25810x44d250": 3647,
    "\u25810x593748": 3648,
    "lcid": 3649,
    "okup": 3650,
    "\u25810xe7": 3651,
    "\u25810xe8": 3652,
    "\u25810x607": 3653,
    "\u2581trans": 3654,
    "unction": 3655,
    "\u2581lookup": 3656,
    "608": 3657,
    "prop": 3658,
    "\u25810xdb": 3659,
    "\u25810xdf": 3660,
    "\u25810xffc8": 3661,
    "\u25810xffc9": 3662,
    "\u2581getdateformatex": 3663,
    "\u2581gettimeformatex": 3664,
    "\u2581isvalidlocalename": 3665,
    "tt": 3666,
    "684": 3667,
    "\u2581the": 3668,
    "\u25810xe4": 3669,
    "\u2581enumsystemlocalesex": 3670,
    "isea": 3671,
    "lorer": 3672,
    "\u25810xd4": 3673,
    "\u25810x41c": 3674,
    "\u25810x3020": 3675,
    "econsole": 3676,
    "precisea": 3677,
    "\u25810x1211d4c": 3678,
    "\u25810x1211f1c": 3679,
    "\u2581filenotfound": 3680,
    "\u2581getsystemtimeprecisea": 3681,
    "a84": 3682,
    "e00": 3683,
    "fa3": 3684,
    "\u25810x4235": 3685,
    "\u25810x429000": 3686,
    "\u25810xfeee00a3": 3687,
    "\u2581shgetfileinfow": 3688,
    "588": 3689,
    "ce1": 3690,
    "\u25810x2100": 3691,
    "\u25810x4229": 3692,
    "\u25810x42ff": 3693,
    "\u2581findnextfilew": 3694,
    "\u2581writeprivateprofile": 3695,
    "\u2581are": 3696,
    "\u25810x57eb": 3697,
    "\u25810xfeedf": 3698,
    "\u25810x7eabc0": 3699,
    "\u2581exitthread": 3700,
    "\u2581getsystemtimepreciseasfiletime": 3701,
    "be8": 3702,
    "\u2581fre": 3703,
    "longa": 3704,
    "\u25810x7e81": 3705,
    "\u25810x7e85": 3706,
    "\u2581globalf": 3707,
    "atethread": 3708,
    "\u25810xfeee00bc": 3709,
    "\u2581getprivateprofilestringa": 3710,
    "9fc": 3711,
    "lid": 3712,
    "lipr": 3713,
    "\u25810xffab": 3714,
    "\u2581updatewindow": 3715,
    "788": 3716,
    "keya": 3717,
    "\u25810x20019": 3718,
    "\u25810x40a5bc": 3719,
    "reate": 3720,
    "\u2581transla": 3721,
    "\u2581sendmessagea": 3722,
    "\u2581removedirectorya": 3723,
    "\u2581filetimetosystemtime": 3724,
    "2e0": 3725,
    "ed1": 3726,
    "7000": 3727,
    "\u25810x475": 3728,
    "\u25810x7e84": 3729,
    "\u25810xa263": 3730,
    "\u25810x12108": 3731,
    "\u25810x1211738": 3732,
    "\u25810x12119a0": 3733,
    "\u25810xfeee00a4": 3734,
    "\u2581getlogicalprocessor": 3735,
    "ace": 3736,
    "etch": 3737,
    "\u25810x468": 3738,
    "\u25810x47f": 3739,
    "\u25810x4b6": 3740,
    "\u25810xfeee00a5": 3741,
    "drag": 3742,
    "regi": 3743,
    "\u25810xf4": 3744,
    "console": 3745,
    "\u25810x4033": 3746,
    "\u25810xffe8": 3747,
    "\u25810x350b8": 3748,
    "\u25810x4093a4": 3749,
    "\u25810x4093ac": 3750,
    "\u25810x44c280": 3751,
    "\u25810x44d500": 3752,
    "\u25810x566b14": 3753,
    "\u2581messageboxw": 3754,
    "d88": 3755,
    "dos": 3756,
    "\u25810x40ca": 3757,
    "\u25810x11000": 3758,
    "\u2581dispatch": 3759,
    "\u25810xd2": 3760,
    "\u2581strcpy": 3761,
    "\u25810x120f5": 3762,
    "\u25810x1210c": 3763,
    "\u25810x12118f8": 3764,
    "\u25810x10000000": 3765,
    "dis": 3766,
    "croll": 3767,
    "\u25810x7da0": 3768,
    "\u25810xffc4": 3769,
    "\u25810x169be": 3770,
    "\u2581getscroll": 3771,
    "\u2581getlogicalprocessorinformation": 3772,
    "7b7": 3773,
    "ypea": 3774,
    "\u25810x1211f40": 3775,
    "\u25810x1211f54": 3776,
    "\u2581terminatethread": 3777,
    "\u2581createsemaphorew": 3778,
    "344": 3779,
    "382": 3780,
    "a78": 3781,
    "ea8": 3782,
    "00220": 3783,
    "\u25810xec": 3784,
    "\u25810x40a0": 3785,
    "\u25810x2200220": 3786,
    "\u25810xfeee00a6": 3787,
    "\u25810xfeee00a7": 3788,
    "\u2581registerwindowmessagea": 3789,
    "184": 3790,
    "edu": 3791,
    "eec": 3792,
    "procedu": 3793,
    "\u2581onexit": 3794,
    "\u2581charprevw": 3795,
    "\u25810xfeee00a8": 3796,
    "\u2581setthreadpreferreduilanguages": 3797,
    "aw": 3798,
    "162": 3799,
    "marta": 3800,
    "\u25810x1b5": 3801,
    "\u25810xffd0": 3802,
    "\u2581unlock": 3803,
    "\u2581ntmarta": 3804,
    "\u25810xfeee00a9": 3805,
    "\u2581getdrivetypea": 3806,
    "\u2581createprocessw": 3807,
    "103": 3808,
    "160": 3809,
    "gro": 3810,
    "hash": 3811,
    "\u2581tryac": 3812,
    "\u25810x1211118": 3813,
    "\u2581tryacquiresrwlockexclusive": 3814,
    "\u25810xef": 3815,
    "\u25810x696": 3816,
    "\u25810x4041": 3817,
    "\u25810x43440": 3818,
    "\u2581globalad": 3819,
    "\u25810xfeee00aa": 3820,
    "de2": 3821,
    "f85": 3822,
    "ore": 3823,
    "datet": 3824,
    "\u25810xf3": 3825,
    "\u25810x3bc": 3826,
    "\u25810x4b40": 3827,
    "\u25810x4c42c0": 3828,
    "\u2581explorer": 3829,
    "\u25810xfeee00ab": 3830,
    "145": 3831,
    "74c": 3832,
    "804": 3833,
    "ad2": 3834,
    "\u25810xb6": 3835,
    "\u25810xc3": 3836,
    "\u25810xfe": 3837,
    "\u25810x40f0": 3838,
    "\u25810x7db0": 3839,
    "\u25810x9030": 3840,
    "\u25810x1211d60": 3841,
    "\u25810xfeee00ac": 3842,
    "\u2581getfullnamea": 3843,
    "db2": 3844,
    "log": 3845,
    "ffa0": 3846,
    "apture": 3847,
    "\u25810x416": 3848,
    "\u25810x5a4": 3849,
    "\u25810x5ab": 3850,
    "\u25810x4aa0": 3851,
    "\u25810xffc2": 3852,
    "\u25810x4e39b4": 3853,
    "\u25810x1211cf8": 3854,
    "\u25810x1211f14": 3855,
    "\u25810xfeee00ad": 3856,
    "\u25810xfeee00ae": 3857,
    "80c": 3858,
    "\u25810x205": 3859,
    "\u25810x97a0": 3860,
    "\u25810xffef": 3861,
    "698": 3862,
    "adm": 3863,
    "\u2581437": 3864,
    "\u25810xbca": 3865,
    "\u25810x3f28": 3866,
    "\u25810x42e9": 3867,
    "\u25810x1211ef0": 3868,
    "3c4": 3869,
    "cc8": 3870,
    "\u25810xb5": 3871,
    "\u25810xf7": 3872,
    "\u2581star": 3873,
    "\u25810x4175": 3874,
    "\u25810xfff4": 3875,
    "\u25810x40593": 3876,
    "\u2581findwindowa": 3877,
    "f78": 3878,
    "pleob": 3879,
    "\u25810xbd": 3880,
    "\u25810xfb": 3881,
    "\u25810x402": 3882,
    "\u2581enable": 3883,
    "formulti": 3884,
    "itthread": 3885,
    "\u25810x120f8": 3886,
    "formultipleob": 3887,
    "\u2581createwindowexw": 3888,
    "381": 3889,
    "\u25810xee": 3890,
    "ground": 3891,
    "\u25810x602": 3892,
    "\u2581setst": 3893,
    "\u2581riched20": 3894,
    "\u2581systemti": 3895,
    "\u2581setfiletime": 3896,
    "220": 3897,
    "irect": 3898,
    "textw": 3899,
    "\u25810xe6": 3900,
    "\u25810x4368": 3901,
    "\u25810x7d98": 3902,
    "\u25810x7d99": 3903,
    "\u25810xffac": 3904,
    "rlhandler": 3905,
    "\u25810x42ff40": 3906,
    "\u25810x12117c8": 3907,
    "imetofiletime": 3908,
    "ad8": 3909,
    "top": 3910,
    "\u25810xb2": 3911,
    "stream": 3912,
    "\u25810x164": 3913,
    "\u25810x41e9": 3914,
    "foreground": 3915,
    "foregroundwindow": 3916,
    "\u2581getuserdefaultuilanguage": 3917,
    "978": 3918,
    "b70": 3919,
    "fdd": 3920,
    "\u2581wr": 3921,
    "\u25810xd5": 3922,
    "\u25810xf2": 3923,
    "\u2581freere": 3924,
    "\u2581iswow64": 3925,
    "\u25810x1211e38": 3926,
    "\u25810x1211eb4": 3927,
    "\u2581freeresource": 3928,
    "\u2581getcursorpos": 3929,
    "\u2581setstdhandle": 3930,
    "\u2581iswow64process": 3931,
    "a8b": 3932,
    "ff8": 3933,
    "\u25810xfa": 3934,
    "\u2581peek": 3935,
    "\u25810x42e": 3936,
    "indirect": 3937,
    "\u25810x429260": 3938,
    "ry": 3939,
    "a43": 3940,
    "eatom": 3941,
    "named": 3942,
    "\u25810xb9": 3943,
    "context": 3944,
    "\u25810x42ec": 3945,
    "\u25810x40152c": 3946,
    "\u25810x1211e20": 3947,
    "\u25810x1211ed8": 3948,
    "\u2581coinitialize": 3949,
    "\u2581getsystemdefault": 3950,
    "a88": 3951,
    "ocus": 3952,
    "\u2581add": 3953,
    "\u25810xca": 3954,
    "\u25810x79a0": 3955,
    "\u25810xffc3": 3956,
    "e90": 3957,
    "\u2581ie": 3958,
    "guar": 3959,
    "focus": 3960,
    "\u25810xda": 3961,
    "\u25810xf9": 3962,
    "\u25810x4c4": 3963,
    "\u25810x500": 3964,
    "\u25810x412c": 3965,
    "\u25810x4470": 3966,
    "\u25810x90f0": 3967,
    "\u2581getcomputernamea": 3968,
    "stack": 3969,
    "program": 3970,
    "\u25810x17d4": 3971,
    "\u25810x42ad": 3972,
    "\u25810xfff5": 3973,
    "\u2581selectob": 3974,
    "\u25810x1211fbc": 3975,
    "\u25810xfeee00b1": 3976,
    "a81": 3977,
    "\u25810xb1": 3978,
    "\u25810xd6": 3979,
    "\u2581evie": 3980,
    "\u25810x20a": 3981,
    "\u25810x4357": 3982,
    "\u25810x45d1": 3983,
    "\u25810x4770": 3984,
    "\u25810x1211954": 3985,
    "\u25810xfeee00af": 3986,
    "\u25810xfeee00b0": 3987,
    "\u2581getmodulehandl": 3988,
    "230": 3989,
    "c84": 3990,
    "c88": 3991,
    "ee4": 3992,
    "f48": 3993,
    "lang": 3994,
    "\u2581psc": 3995,
    "\u2581vie": 3996,
    "drive": 3997,
    "\u25810xce": 3998,
    "\u25810x4030": 3999,
    "\u25810x42d0": 4000,
    "\u25810x4680": 4001,
    "\u25810x4a80": 4002,
    "\u25810xffad": 4003,
    "sessionid": 4004,
    "\u25810x10021f": 4005,
    "\u25810x419638": 4006,
    "aaaaaaaaaaaaaaaa": 4007,
    "904": 4008,
    "fc2": 4009,
    "antee": 4010,
    "\u25810xcb": 4011,
    "\u25810xe2": 4012,
    "langid": 4013,
    "\u25810x444": 4014,
    "\u25810x42eb": 4015,
    "\u25810x577f": 4016,
    "\u25810x5026c": 4017,
    "guarantee": 4018,
    "\u25810x100098": 4019,
    "\u25810x43a4c8": 4020,
    "stackguarantee": 4021,
    "\u2581initializesrwlock": 4022,
    "\u2581setthreadstackguarantee": 4023,
    "ine": 4024,
    "50f8": 4025,
    "\u25810xc2": 4026,
    "active": 4027,
    "\u25810x43f": 4028,
    "\u25810x3010": 4029,
    "\u2581formatmessagea": 4030,
    "atoma": 4031,
    "upper": 4032,
    "\u25810x43b4": 4033,
    "\u25810x9010": 4034,
    "\u25810x40a40": 4035,
    "\u25810x200020": 4036,
    "\u25810x1211e90": 4037,
    "d4c": 4038,
    "fc1": 4039,
    "fd8": 4040,
    "\u25810xc9": 4041,
    "\u25810xd9": 4042,
    "\u25810xed": 4043,
    "\u25810x4066": 4044,
    "\u25810x46b1": 4045,
    "\u25810x7d9c": 4046,
    "\u25810x7d9d": 4047,
    "\u2581regcreatekeyexa": 4048,
    "\u25810x10f": 4049,
    "\u25810x40d": 4050,
    "\u25810x4089": 4051,
    "\u25810x4228": 4052,
    "\u25810x44c9": 4053,
    "\u25810x4609": 4054,
    "\u25810x7500": 4055,
    "\u25810xfeee00b4": 4056,
    "\u2581localrealloc": 4057,
    "123": 4058,
    "ab0": 4059,
    "lgi": 4060,
    "\u2581mid": 4061,
    "\u25810xc6": 4062,
    "\u25810xf6": 4063,
    "\u25810x3f25": 4064,
    "\u25810x4371": 4065,
    "\u2581createfon": 4066,
    "\u25810xfeee00b2": 4067,
    "\u25810xfeee00b3": 4068,
    "1e2": 4069,
    "af0": 4070,
    "fd4": 4071,
    "izn": 4072,
    "visi": 4073,
    "accel": 4074,
    "\u2581writ": 4075,
    "iznadm": 4076,
    "\u25810x490": 4077,
    "etchblt": 4078,
    "\u25810xffc1": 4079,
    "\u2581triznadm": 4080,
    "\u25810x1211ed4": 4081,
    "\u25810xfeee00d7": 4082,
    "fa6": 4083,
    "fox": 4084,
    "srw": 4085,
    "\u25810xdd": 4086,
    "\u25810x7b80": 4087,
    "\u25810x7d20": 4088,
    "\u25810xfeee00b5": 4089,
    "conditionvariablesrw": 4090,
    "\u2581sleepconditionvariablesrw": 4091,
    "7b0": 4092,
    "tsb": 4093,
    "tons": 4094,
    "\u2581ate": 4095,
    "latsb": 4096,
    "\u2581midi": 4097,
    "\u25810x5a1": 4098,
    "\u25810x4122": 4099,
    "\u25810x4c32": 4100,
    "\u2581atexit": 4101,
    "fy": 4102,
    "23a": 4103,
    "\u25810x603": 4104,
    "\u25810x4a40": 4105,
    "\u25810x7da1": 4106,
    "\u25810x56b880": 4107,
    "\u2581setbkcolor": 4108,
    "332": 4109,
    "34c": 4110,
    "b84": 4111,
    "d83": 4112,
    "f6e": 4113,
    "\u2581qa": 4114,
    "da93": 4115,
    "\u25810xc1": 4116,
    "\u25810x41e": 4117,
    "\u25810x1211f4c": 4118,
    "\u2581getmenuitem": 4119,
    "\u2581getmessagea": 4120,
    "\u2581getfileinformationbyhandleex": 4121,
    "vm": 4122,
    "687": 4123,
    "een": 4124,
    "\u2581op": 4125,
    "\u25810x43f00": 4126,
    "\u25810xfffffffc": 4127,
    "\u2581getwindowsdirectoryw": 4128,
    "\u2581wakeconditionvariable": 4129,
    "f4c": 4130,
    "atom": 4131,
    "\u2581check": 4132,
    "visible": 4133,
    "\u25810x40ea": 4134,
    "\u25810x7460": 4135,
    "\u25810x4096a0": 4136,
    "\u25810x40a3f0": 4137,
    "323": 4138,
    "cod": 4139,
    "ubm": 4140,
    "\u25810xe9": 4141,
    "\u2581subm": 4142,
    "\u2581wnet": 4143,
    "visual": 4144,
    "\u25810x41c4": 4145,
    "\u25810x4450": 4146,
    "\u25810xffc0": 4147,
    "poolwork": 4148,
    "\u25810x4e300": 4149,
    "\u25810x4093d1": 4150,
    "\u25810x4093d2": 4151,
    "\u25810x4093d3": 4152,
    "\u25810x409696": 4153,
    "\u25810x409698": 4154,
    "\u25810x40969a": 4155,
    "\u25810x40969c": 4156,
    "\u25810x40969e": 4157,
    "\u25810x4096a2": 4158,
    "\u25810x40a92e": 4159,
    "\u25810x40a930": 4160,
    "\u25810x40a932": 4161,
    "\u25810x40a934": 4162,
    "\u25810x40a936": 4163,
    "\u25810x40a938": 4164,
    "\u25810x40a93a": 4165,
    "\u25810x44f928": 4166,
    "\u2581submitthread": 4167,
    "\u2581closethreadpoolwork": 4168,
    "\u2581createthreadpoolwork": 4169,
    "\u2581submitthreadpoolwork": 4170,
    "\u2581setfileinformationbyhandle": 4171,
    "98c": 4172,
    "bcc": 4173,
    "e08": 4174,
    "\u2581cp": 4175,
    "\u25810xe1": 4176,
    "\u25810xf5": 4177,
    "\u25810xffae": 4178,
    "\u25810x4786e0": 4179,
    "deleteatom": 4180,
    "codeprocess": 4181,
    "\u25810xfeee00b7": 4182,
    "\u2581globaldeleteatom": 4183,
    "\u2581getexitcodeprocess": 4184,
    "70b": 4185,
    "d40": 4186,
    "f99": 4187,
    "\u2581opens": 4188,
    "\u25810x7ee0": 4189,
    "\u2581gdiplus": 4190,
    "\u25810x5b2bd0": 4191,
    "\u25810xfeee00b6": 4192,
    "\u25810xfeee00b8": 4193,
    "\u2581heapdestroy": 4194,
    "wer": 4195,
    "block": 4196,
    "\u25810xe5": 4197,
    "\u25810x71a0": 4198,
    "\u25810x7e8c": 4199,
    "\u2581deleteob": 4200,
    "\u25810xfeee00b9": 4201,
    "\u2581module32next": 4202,
    "ways": 4203,
    "\u25810x181c": 4204,
    "\u25810x7a10": 4205,
    "\u25810x99d0": 4206,
    "\u2581always": 4207,
    "\u25810x42c0e0": 4208,
    "\u2581charupper": 4209,
    "\u25810xfeee00bb": 4210,
    "951": 4211,
    "eff": 4212,
    "extex": 4213,
    "\u25810xfd": 4214,
    "\u25810x3f23": 4215,
    "\u25810x3f29": 4216,
    "\u25810x413a": 4217,
    "\u25810x7da4": 4218,
    "\u25810x7da5": 4219,
    "\u25810x7e8d": 4220,
    "\u25810x7e90": 4221,
    "\u25810xffd8": 4222,
    "\u25810x1211438": 4223,
    "\u2581lookupprivileg": 4224,
    "270": 4225,
    "\u25810x413": 4226,
    "\u2581append": 4227,
    "\u2581geticon": 4228,
    "\u25810x45d154": 4229,
    "\u25810x1210e34": 4230,
    "\u25810x1211938": 4231,
    "\u2581regenumkey": 4232,
    "rl6660dl6660d": 4233,
    "\u2581getlogicaldrive": 4234,
    "\u2581gettempfilenamea": 4235,
    "av": 4236,
    "py": 4237,
    "365": 4238,
    "632": 4239,
    "ioc": 4240,
    "ync": 4241,
    "array": 4242,
    "async": 4243,
    "\u25810x4226": 4244,
    "\u25810x97b0": 4245,
    "\u25810x7d2778": 4246,
    "bc8": 4247,
    "d10": 4248,
    "\u2581vc": 4249,
    "textout": 4250,
    "\u25810x7ec4": 4251,
    "\u25810x7ec5": 4252,
    "\u25810x85d0": 4253,
    "\u25810xffdf": 4254,
    "asynckey": 4255,
    "\u25810x1211d50": 4256,
    "\u25810xfeee00ba": 4257,
    "\u2581getasynckey": 4258,
    "\u2581getasynckeystate": 4259,
    "ansi": 4260,
    "place": 4261,
    "tings": 4262,
    "layout": 4263,
    "\u25810x40e": 4264,
    "\u25810x409a": 4265,
    "\u25810x7e91": 4266,
    "\u25810x1211e00": 4267,
    "\u25810x1211f3c": 4268,
    "\u2581application": 4269,
    "\u2581charlowerbuff": 4270,
    "\u2581getlogicaldrivestring": 4271,
    "w32": 4272,
    "\u2581isc": 4273,
    "\u25810x22e": 4274,
    "\u25810x3f24": 4275,
    "\u25810x42b4": 4276,
    "\u25810x466b": 4277,
    "\u25810xffdd": 4278,
    "\u25810xffea": 4279,
    "\u25810x455120": 4280,
    "codethread": 4281,
    "\u25810xfeee00bd": 4282,
    "\u25810xfeee00be": 4283,
    "\u2581formatmessagew": 4284,
    "\u2581getexitcodethread": 4285,
    "544": 4286,
    "ild": 4287,
    "ac68": 4288,
    "\u25810x7a40": 4289,
    "\u25810xfeed": 4290,
    "\u25810xffed": 4291,
    "\u2581getfullnamew": 4292,
    "12c": 4293,
    "move": 4294,
    "\u2581call": 4295,
    "\u25810x488": 4296,
    "\u25810x4b4": 4297,
    "\u25810xbd4": 4298,
    "\u25810x53e0": 4299,
    "topwindow": 4300,
    "\u25810xcf0000": 4301,
    "\u2581translate": 4302,
    "\u25810xfeedf000": 4303,
    "3d1": 4304,
    "anag": 4305,
    "\u2581cqa": 4306,
    "flush": 4307,
    "\u2581scqa": 4308,
    "\u2581pscqa": 4309,
    "\u25810xffaf": 4310,
    "\u25810xffeb": 4311,
    "\u2581cannot": 4312,
    "usttoken": 4313,
    "\u25810x54000": 4314,
    "\u25810x42b408": 4315,
    "sh": 4316,
    "179": 4317,
    "50c": 4318,
    "744": 4319,
    "996": 4320,
    "aa5": 4321,
    "9138": 4322,
    "\u2581vers": 4323,
    "\u2581wave": 4324,
    "anager": 4325,
    "emutex": 4326,
    "\u25810x422a": 4327,
    "\u25810x4b80": 4328,
    "\u25810x7cc0": 4329,
    "\u25810x7da8": 4330,
    "\u25810x7da9": 4331,
    "\u25810x40a3d0": 4332,
    "\u2581settimer": 4333,
    "privileges": 4334,
    "\u25810x1211898": 4335,
    "\u25810xfeee00bf": 4336,
    "\u2581releasemutex": 4337,
    "usttokenprivileges": 4338,
    "65c": 4339,
    "7c4": 4340,
    "98b": 4341,
    "\u25810x40d6": 4342,
    "\u25810x7100": 4343,
    "stringlen": 4344,
    "\u25810xfeee00c0": 4345,
    "\u2581getmodulehandleexw": 4346,
    "\u2581getuserdefaultlcid": 4347,
    "ix": 4348,
    "ty": 4349,
    "407": 4350,
    "560": 4351,
    "b7b": 4352,
    "d6c": 4353,
    "f92": 4354,
    "\u25810x7c70": 4355,
    "\u25810x40bd4": 4356,
    "\u25810x42b403": 4357,
    "\u25810x42b404": 4358,
    "\u25810x42b405": 4359,
    "\u25810x42b406": 4360,
    "\u25810x42b407": 4361,
    "\u25810x42b409": 4362,
    "\u25810x42b40a": 4363,
    "\u25810x42b40b": 4364,
    "\u25810x42b40c": 4365,
    "\u25810x42b40d": 4366,
    "\u25810x42b40e": 4367,
    "\u25810x42b40f": 4368,
    "\u25810x43f6b0": 4369,
    "\u25810x4692b0": 4370,
    "\u2581movefilew": 4371,
    "\u25810xfeee00c1": 4372,
    "\u25810xfeee00c2": 4373,
    "\u25810xfeee00c3": 4374,
    "\u2581globalfind": 4375,
    "\u2581getusernamea": 4376,
    "\u2581defwindowproca": 4377,
    "\u2581globaladdatoma": 4378,
    "260": 4379,
    "3b0": 4380,
    "ocket": 4381,
    "\u25810x7bc": 4382,
    "\u25810x1327": 4383,
    "\u25810x7c40": 4384,
    "\u25810x7e30": 4385,
    "\u25810x40300": 4386,
    "\u25810x577fd8": 4387,
    "\u2581allocate": 4388,
    "windowshook": 4389,
    "\u25810xfeee00c4": 4390,
    "\u2581getconsolemode": 4391,
    "\u2581regqueryvalueexw": 4392,
    "securitydescriptor": 4393,
    "53c": 4394,
    "615": 4395,
    "esid": 4396,
    "\u2581cpp": 4397,
    "\u25810x40e6": 4398,
    "\u25810x4e80": 4399,
    "\u25810x56b4": 4400,
    "\u25810x7ea0": 4401,
    "debughook": 4402,
    "\u2581createdi": 4403,
    "andinitializ": 4404,
    "\u2581cppdebughook": 4405,
    "andinitializesid": 4406,
    "\u2581allocateandinitializesid": 4407,
    "68c": 4408,
    "7e0": 4409,
    "\u2581ma": 4410,
    "apis": 4411,
    "\u25810x41d": 4412,
    "\u25810x4780": 4413,
    "\u25810x7dac": 4414,
    "\u25810x7dad": 4415,
    "\u25810xffdb": 4416,
    "apisansi": 4417,
    "\u2581arefile": 4418,
    "\u2581arefileapisansi": 4419,
    "\u2581lookupprivilege": 4420,
    "\u2581removedirectoryw": 4421,
    "1c4": 4422,
    "984": 4423,
    "aa8": 4424,
    "ee2": 4425,
    "edit": 4426,
    "\u2581ldr": 4427,
    "ectex": 4428,
    "solid": 4429,
    "\u25810xffe9": 4430,
    "\u25810x40000": 4431,
    "\u2581waveout": 4432,
    "\u25810x436408": 4433,
    "metofiletime": 4434,
    "\u2581systemtimetofiletime": 4435,
    "741": 4436,
    "mous": 4437,
    "\u2581ver": 4438,
    "40284": 4439,
    "\u25810x45c": 4440,
    "\u25810x4484": 4441,
    "\u25810x4718": 4442,
    "\u25810x74d0": 4443,
    "\u25810x7620": 4444,
    "\u25810x78c0": 4445,
    "\u25810x100fdd": 4446,
    "\u25810x1211518": 4447,
    "\u25810x1211e0c": 4448,
    "\u25810x1211f6c": 4449,
    "\u25810x2840284": 4450,
    "tokeninformation": 4451,
    "799": 4452,
    "ctr": 4453,
    "fd6": 4454,
    "rac": 4455,
    "\u2581nto": 4456,
    "\u25810x415": 4457,
    "\u25810x549": 4458,
    "\u25810x7e94": 4459,
    "\u25810x7e95": 4460,
    "ervicect": 4461,
    "\u25810x1327ec": 4462,
    "\u25810x434000": 4463,
    "\u25810x435402": 4464,
    "\u25810x436403": 4465,
    "\u25810x436404": 4466,
    "\u25810x436405": 4467,
    "\u25810x436406": 4468,
    "\u25810x436407": 4469,
    "\u25810x436409": 4470,
    "\u25810x43640a": 4471,
    "\u25810x43640b": 4472,
    "\u25810x43640c": 4473,
    "\u25810x43640d": 4474,
    "\u25810x43640e": 4475,
    "\u25810x43640f": 4476,
    "\u25810x5b2be8": 4477,
    "\u25810x7d2790": 4478,
    "\u25810x1211cf0": 4479,
    "104": 4480,
    "fd5": 4481,
    "instan": 4482,
    "\u25810x180c": 4483,
    "\u25810x6f00": 4484,
    "\u25810x7070": 4485,
    "\u2581regedit": 4486,
    "procedure": 4487,
    "\u25810x1211e8c": 4488,
    "\u25810xfeee00c6": 4489,
    "\u25810xfeee00c8": 4490,
    "501": 4491,
    "d5c": 4492,
    "de4": 4493,
    "981e": 4494,
    "9fad": 4495,
    "\u25810x44c418": 4496,
    "\u25810xfeee00c5": 4497,
    "\u25810xfeee00c7": 4498,
    "66c": 4499,
    "gcc": 4500,
    "\u25810x415e": 4501,
    "\u25810x4374": 4502,
    "\u25810x6900": 4503,
    "\u2581libgcc": 4504,
    "\u2581setcurrentdirectoryw": 4505,
    "\u2581afx": 4506,
    "longw": 4507,
    "propa": 4508,
    "runtime": 4509,
    "\u25810x41e4": 4510,
    "\u25810x84b0": 4511,
    "\u25810xffd5": 4512,
    "\u25810x4cb00": 4513,
    "\u25810x100220": 4514,
    "\u2581getconso": 4515,
    "\u2581gettokeninformation": 4516,
    "\u2581freeenvironmentstringsa": 4517,
    "\u2581sn": 4518,
    "3564": 4519,
    "e5f0": 4520,
    "ee08": 4521,
    "\u2581inf": 4522,
    "\u25810x438": 4523,
    "\u25810x56fc": 4524,
    "\u25810x8310": 4525,
    "\u25810xffdc": 4526,
    "\u25810xffde": 4527,
    "\u2581settext": 4528,
    "\u25810x57eb18": 4529,
    "\u25810xfeee00c9": 4530,
    "\u25810xfeee00ca": 4531,
    "\u25810xfeee00cb": 4532,
    "36c": 4533,
    "550": 4534,
    "b1e0": 4535,
    "de23": 4536,
    "dlg32": 4537,
    "connect": 4538,
    "\u25810x4360": 4539,
    "\u25810x43a2": 4540,
    "\u25810x8c60": 4541,
    "\u2581flatsb": 4542,
    "\u2581verset": 4543,
    "\u2581msvcr71": 4544,
    "\u25810x4093f1": 4545,
    "\u25810x4093f2": 4546,
    "\u25810x4093f3": 4547,
    "\u25810x409431": 4548,
    "\u25810x409432": 4549,
    "\u25810x409433": 4550,
    "\u25810x409434": 4551,
    "\u25810x409435": 4552,
    "\u25810x409436": 4553,
    "\u25810x409437": 4554,
    "\u25810x42a1d8": 4555,
    "\u25810x435410": 4556,
    "\u25810x44edc0": 4557,
    "\u25810x1211d8c": 4558,
    "\u25810x1211e5c": 4559,
    "conditionmask": 4560,
    "\u2581regsetvalueexw": 4561,
    "\u2581versetconditionmask": 4562,
    "bac": 4563,
    "dd4": 4564,
    "e88": 4565,
    "ff4": 4566,
    "git": 4567,
    "006c": 4568,
    "346d": 4569,
    "9cac": 4570,
    "e7f4": 4571,
    "\u25810x433": 4572,
    "\u25810x61e2": 4573,
    "\u25810x7f10": 4574,
    "\u25810xcccc": 4575,
    "\u25810xff90": 4576,
    "\u25810x406698": 4577,
    "\u2581waitformultipleob": 4578,
    "e4d3": 4579,
    "leng": 4580,
    "\u25810x56fb": 4581,
    "\u25810x69a0": 4582,
    "\u2581comdlg32": 4583,
    "runtime140": 4584,
    "\u25810x1211bfc": 4585,
    "\u25810x1211fb0": 4586,
    "\u25810x169bcfc": 4587,
    "\u2581dllonexit": 4588,
    "\u2581vcruntime140": 4589,
    "\u2581setthreadpriority": 4590,
    "ld": 4591,
    "012": 4592,
    "acl": 4593,
    "d00": 4594,
    "f88": 4595,
    "usp": 4596,
    "9cd1": 4597,
    "d63d": 4598,
    "\u2581getob": 4599,
    "\u25810x3820": 4600,
    "\u25810x5374": 4601,
    "\u25810x71c0": 4602,
    "\u25810x7ef0": 4603,
    "\u25810x509e4": 4604,
    "\u25810x188e04": 4605,
    "56c": 4606,
    "ade": 4607,
    "3566": 4608,
    "with": 4609,
    "56e1d": 4610,
    "\u25810x42c": 4611,
    "\u25810x44c": 4612,
    "\u25810x6cc": 4613,
    "\u25810x70e0": 4614,
    "\u25810x7df4": 4615,
    "\u25810x7df5": 4616,
    "\u25810xffd4": 4617,
    "\u25810xffd9": 4618,
    "\u25810x120ed": 4619,
    "\u25810x539138": 4620,
    "\u25810x6d006c": 4621,
    "\u25810x6f006e": 4622,
    "\u25810x710070": 4623,
    "\u25810x770076": 4624,
    "\u25810x790078": 4625,
    "solidbrush": 4626,
    "\u25810x1211d24": 4627,
    "\u2581globalrealloc": 4628,
    "\u2581createsolidbrush": 4629,
    "\u2581setfileinformationbyhandlew": 4630,
    "\u2581getfileinformationbyhandleexw": 4631,
    "da4": 4632,
    "7583": 4633,
    "\u2581bit": 4634,
    "anden": 4635,
    "b006a": 4636,
    "f2920": 4637,
    "meters": 4638,
    "\u25810x427": 4639,
    "\u25810x5d5": 4640,
    "\u25810x4085": 4641,
    "\u25810x7020": 4642,
    "\u25810x8cf0": 4643,
    "\u25810xffd6": 4644,
    "\u25810x690068": 4645,
    "\u25810x6b006a": 4646,
    "\u25810x730072": 4647,
    "\u25810x750074": 4648,
    "\u25810x7b007a": 4649,
    "\u25810x7d007c": 4650,
    "\u25810x7f007e": 4651,
    "parameters": 4652,
    "\u25810x1211d14": 4653,
    "\u25810x7bc00000": 4654,
    "\u2581setwindowpos": 4655,
    "314": 4656,
    "a69": 4657,
    "bvm": 4658,
    "ceb": 4659,
    "f20": 4660,
    "tiv": 4661,
    "632af": 4662,
    "b2f85": 4663,
    "167583": 4664,
    "7c9fad": 4665,
    "9cd1fa": 4666,
    "direct": 4667,
    "\u25810x238": 4668,
    "\u25810x23c": 4669,
    "\u25810x4b0": 4670,
    "\u2581opent": 4671,
    "\u25810x7320": 4672,
    "\u25810x8cb0": 4673,
    "\u2581isctype": 4674,
    "\u25810x475648": 4675,
    "\u25810x600700": 4676,
    "\u25810x1211684": 4677,
    "\u25810x1211de8": 4678,
    "\u2581loadiconw": 4679,
    "\u25810xfeee00cc": 4680,
    "\u2581openthread": 4681,
    "memorystatus": 4682,
    "\u2581globalmemorystatus": 4683,
    "ax": 4684,
    "1e0": 4685,
    "209": 4686,
    "802": 4687,
    "draw": 4688,
    "\u2581ini": 4689,
    "54d83": 4690,
    "\u25810x1d4": 4691,
    "\u25810x3f5": 4692,
    "\u25810x501": 4693,
    "\u25810x4153": 4694,
    "\u25810x7dc8": 4695,
    "\u25810x8f20": 4696,
    "\u2581environ": 4697,
    "\u25810x4033e6": 4698,
    "\u25810x41f6c0": 4699,
    "\u25810x41f750": 4700,
    "\u25810x41f780": 4701,
    "\u2581expanden": 4702,
    "\u25810x1211d44": 4703,
    "\u2581globalhandle": 4704,
    "bb9": 4705,
    "dc4": 4706,
    "f50": 4707,
    "32cs": 4708,
    "d978": 4709,
    "\u2581rect": 4710,
    "\u2581snap": 4711,
    "17346d": 4712,
    "f6eb8a": 4713,
    "locate": 4714,
    "e5f09fc": 4715,
    "\u25810x100b": 4716,
    "\u25810x4840": 4717,
    "\u25810x99e0": 4718,
    "\u2581th32cs": 4719,
    "\u25810x43f698": 4720,
    "\u25810x549ad4": 4721,
    "\u25810x6970a0": 4722,
    "\u25810xa263e8": 4723,
    "\u2581wtsapi32": 4724,
    "\u25810xfeee00cd": 4725,
    "\u25810xfeee00ce": 4726,
    "ab8": 4727,
    "ill": 4728,
    "\u25810x4238": 4729,
    "\u25810x48b0": 4730,
    "\u2581calloc": 4731,
    "writeptr": 4732,
    "\u25810xfeee00cf": 4733,
    "\u2581getmessagew": 4734,
    "\u2581isbadwriteptr": 4735,
    "\u2581systemparameters": 4736,
    "979": 4737,
    "64c8": 4738,
    "66b0": 4739,
    "bd00": 4740,
    "53b2f85": 4741,
    "fa6d63d": 4742,
    "ocument": 4743,
    "\u25810x3f26": 4744,
    "\u25810x7e20": 4745,
    "\u2581extrac": 4746,
    "14556e1d": 4747,
    "54d83b88": 4748,
    "659cd1fa": 4749,
    "ed8632af": 4750,
    "hmetafile": 4751,
    "\u25810x100093": 4752,
    "\u25810x1211708": 4753,
    "\u25810x121192f": 4754,
    "\u25810x1211f0c": 4755,
    "\u2581writeconsole": 4756,
    "90a": 4757,
    "a4a": 4758,
    "d5700": 4759,
    "dibits": 4760,
    "\u25810x40f4": 4761,
    "\u25810x419a": 4762,
    "\u25810x4ec0": 4763,
    "\u25810x7dc0": 4764,
    "\u25810x3020302": 4765,
    "\u2581destroywindow": 4766,
    "\u2581invalidaterect": 4767,
    "mt": 4768,
    "204": 4769,
    "ba8": 4770,
    "e18": 4771,
    "50f4": 4772,
    "length": 4773,
    "parent": 4774,
    "\u25810x2d0": 4775,
    "\u25810x702": 4776,
    "\u25810x7710": 4777,
    "\u25810x7890": 4778,
    "ac689cac": 4779,
    "bd00e4d3": 4780,
    "d978de23": 4781,
    "\u25810x12113": 4782,
    "3564f2920": 4783,
    "687f6eb8a": 4784,
    "9353b2f85": 4785,
    "clipboard": 4786,
    "e7e5f09fc": 4787,
    "\u25810x47f108": 4788,
    "fb0": 4789,
    "f2e4": 4790,
    "\u25810x7b60": 4791,
    "\u25810x8430": 4792,
    "\u2581ldrget": 4793,
    "register": 4794,
    "\u25810x107568": 4795,
    "\u2581document": 4796,
    "procedureaddress": 4797,
    "\u2581ldrgetprocedureaddress": 4798,
    "lu": 4799,
    "130": 4800,
    "1e4": 4801,
    "a0c": 4802,
    "b18": 4803,
    "b8b": 4804,
    "c8c": 4805,
    "f76": 4806,
    "\u2581eh": 4807,
    "\u2581rb": 4808,
    "ebb5": 4809,
    "ce0000": 4810,
    "\u25810x5e0": 4811,
    "\u25810x3810": 4812,
    "\u25810x47f0": 4813,
    "\u25810x4ee0": 4814,
    "\u25810x8a80": 4815,
    "7997c9fad": 4816,
    "\u25810x4093d4": 4817,
    "\u25810x40a3d8": 4818,
    "\u25810x4bb04c": 4819,
    "\u25810x56fbf8": 4820,
    "2c659cd1fa": 4821,
    "9214556e1d": 4822,
    "e7ac689cac": 4823,
    "e7f417346d": 4824,
    "\u25810x1211b5c": 4825,
    "ge": 4826,
    "e3a": 4827,
    "16e7": 4828,
    "erat": 4829,
    "imer": 4830,
    "ocreate": 4831,
    "\u25810x4533": 4832,
    "\u25810x47d0": 4833,
    "\u25810x7f02": 4834,
    "\u2581device": 4835,
    "accelerat": 4836,
    "tindirect": 4837,
    "\u25810x77002c": 4838,
    "\u25810x121185c": 4839,
    "\u2581createfontindirect": 4840,
    "fc0": 4841,
    "\u2581fa": 4842,
    "12de": 4843,
    "1492": 4844,
    "core": 4845,
    "\u2581fill": 4846,
    "\u25810x417": 4847,
    "\u25810x43b": 4848,
    "\u25810x452b": 4849,
    "\u25810x4a60": 4850,
    "\u25810x4c79": 4851,
    "\u25810x5357": 4852,
    "fxstring": 4853,
    "\u25810x43a4b0": 4854,
    "\u2581endpaint": 4855,
    "a6ed8632af": 4856,
    "\u25810x12115c4": 4857,
    "\u25810x1211b78": 4858,
    "\u25810x1211f38": 4859,
    "3566fa6d63d": 4860,
    "\u2581beginpaint": 4861,
    "704": 4862,
    "b3e2": 4863,
    "d1e5": 4864,
    "\u2581yap": 4865,
    "dater": 4866,
    "f3526": 4867,
    "ordacl": 4868,
    "\u25810x208": 4869,
    "\u2581debug": 4870,
    "\u25810x9170": 4871,
    "\u25810x12069": 4872,
    "\u25810x3010301": 4873,
    "\u2581gettextext": 4874,
    "\u2581shellexecutew": 4875,
    "securitydescriptordacl": 4876,
    "168": 4877,
    "90c": 4878,
    "d0a": 4879,
    "4042": 4880,
    "\u25810x59d": 4881,
    "\u25810x414a": 4882,
    "\u25810x7310": 4883,
    "\u25810xba8b": 4884,
    "\u2581getclip": 4885,
    "\u2581replace": 4886,
    "\u25810x3f4000": 4887,
    "\u25810x56c750": 4888,
    "\u2581setconso": 4889,
    "\u25810x1210d1c": 4890,
    "\u25810x1210d3c": 4891,
    "\u25810x1211950": 4892,
    "\u25810x1211db0": 4893,
    "\u25810x1211fe4": 4894,
    "\u25810x6ce0000": 4895,
    "332d978de23": 4896,
    "b29353b2f85": 4897,
    "f3526167583": 4898,
    "\u2581settextcolor": 4899,
    "hl": 4900,
    "ms": 4901,
    "200": 4902,
    "40c": 4903,
    "24fc": 4904,
    "56ac": 4905,
    "b474": 4906,
    "idto": 4907,
    "onit": 4908,
    "\u25810x7ed": 4909,
    "\u25810x980": 4910,
    "\u25810x44c0": 4911,
    "\u25810x475f": 4912,
    "\u25810x7cb0": 4913,
    "\u25810xff91": 4914,
    "\u25810xfff3": 4915,
    "\u25810x508d0": 4916,
    "\u25810x3f3000": 4917,
    "\u25810x990f58": 4918,
    "\u2581cocreate": 4919,
    "\u2581deletedc": 4920,
    "querysystem": 4921,
    "\u2581translatemessage": 4922,
    "querysysteminformation": 4923,
    "404": 4924,
    "eac": 4925,
    "ad2de": 4926,
    "b08ac": 4927,
    "clipr": 4928,
    "e4698": 4929,
    "efff8": 4930,
    "\u258150f8": 4931,
    "996da0": 4932,
    "\u25810x288": 4933,
    "24fc360": 4934,
    "located": 4935,
    "\u25810x7770": 4936,
    "\u25810x7db1": 4937,
    "1492d1e5": 4938,
    "179ad2de": 4939,
    "940efff8": 4940,
    "b3e2d5700": 4941,
    "belocated": 4942,
    "e46984042": 4943,
    "namedpipe": 4944,
    "45bd00e4d3": 4945,
    "c0e7f417346d": 4946,
    "d387997c9fad": 4947,
    "de23564f2920": 4948,
    "f2e454d83b88": 4949,
    "f39214556e1d": 4950,
    "fc1e7e5f09fc": 4951,
    "1492d1e5b08ac": 4952,
    "2c332d978de23": 4953,
    "66b0687f6eb8a": 4954,
    "996da0940efff8": 4955,
    "\u258150f8e46984042": 4956,
    "b3e2d570024fc360": 4957,
    "\u2581comparefiletime": 4958,
    "\u2581outputdebugstringw": 4959,
    "996da0940efff8179ad2de": 4960,
    "b3e2d570024fc3601492d1e5b08ac": 4961,
    "\u258150f8e46984042996da0940efff8179ad2de": 4962,
    "370": 4963,
    "ba6": 4964,
    "d28": 4965,
    "f82": 4966,
    "hlp": 4967,
    "ows": 4968,
    "\u2581ro": 4969,
    "2468": 4970,
    "6000": 4971,
    "\u25810x4b00": 4972,
    "\u25810x7380": 4973,
    "\u25810xffda": 4974,
    "\u25810x509a8": 4975,
    "\u25810x437800": 4976,
    "\u25810x1210ed8": 4977,
    "\u25810x1211dc4": 4978,
    "110": 4979,
    "11c": 4980,
    "646": 4981,
    "ache": 4982,
    "\u25810x41e0": 4983,
    "\u25810x4f00": 4984,
    "\u25810x5936": 4985,
    "\u25810x73d0": 4986,
    "menuitem": 4987,
    "\u25810x12117ec": 4988,
    "\u25810x1211e70": 4989,
    "16e7e7ac689cac": 4990,
    "50f445bd00e4d3": 4991,
    "601": 4992,
    "620": 4993,
    "64c": 4994,
    "70c": 4995,
    "934": 4996,
    "aaa": 4997,
    "d7c": 4998,
    "d84": 4999,
    "ded": 5000,
    "\u2581wcs": 5001,
    "\u25810x5d0": 5002,
    "\u25810x3f27": 5003,
    "\u25810x75b0": 5004,
    "\u25810xd000": 5005,
    "vieworgex": 5006,
    "\u25810x435024": 5007,
    "\u25810x1211a30": 5008,
    "\u25810x1211e54": 5009,
    "\u25810xfeee010f": 5010,
    "\u2581writeconsolew": 5011,
    "\u2581getsystemdefaultlangid": 5012,
    "605": 5013,
    "d3c": 5014,
    "ec4": 5015,
    "9994": 5016,
    "\u2581vfp": 5017,
    "\u2581susp": 5018,
    "\u25810x4289": 5019,
    "\u25810x52aa": 5020,
    "\u25810x7db4": 5021,
    "\u25810x7db5": 5022,
    "\u2581suspend": 5023,
    "\u25810x42c070": 5024,
    "\u25810x42c0a8": 5025,
    "\u25810x435026": 5026,
    "\u25810x435032": 5027,
    "\u2581msvcr100": 5028,
    "\u2581setcursor": 5029,
    "\u25810xfeee00da": 5030,
    "218a6ed8632af": 5031,
    "b1e02c659cd1fa": 5032,
    "\u2581suspendthread": 5033,
    "38803566fa6d63d": 5034,
    "568f2e454d83b88": 5035,
    "64c8f3526167583": 5036,
    "70bde23564f2920": 5037,
    "\u2581getthreadpriority": 5038,
    "\u2581createcompatibledc": 5039,
    "a86": 5040,
    "fa0": 5041,
    "fe8": 5042,
    "owne": 5043,
    "ryto": 5044,
    "\u25810x43b7": 5045,
    "\u25810x7c91": 5046,
    "\u25810x8420": 5047,
    "\u25810x7456ac": 5048,
    "\u25810x1211768": 5049,
    "\u25810x1211960": 5050,
    "servicehandle": 5051,
    "\u2581module32nextw": 5052,
    "\u2581getdiskfreespacea": 5053,
    "\u2581closeservicehandle": 5054,
    "124": 5055,
    "3d0": 5056,
    "530": 5057,
    "f7c": 5058,
    "\u2581rec": 5059,
    "\u25810x18cc": 5060,
    "\u25810x8b50": 5061,
    "entpoint": 5062,
    "\u25810x40a3f1": 5063,
    "\u25810x40a3f2": 5064,
    "\u25810x1211cec": 5065,
    "\u2581lstrcmpiw": 5066,
    "\u2581lcmapstringa": 5067,
    "c00b29353b2f85": 5068,
    "340fc1e7e5f09fc": 5069,
    "53cf39214556e1d": 5070,
    "f2218a6ed8632af": 5071,
    "feac0e7f417346d": 5072,
    "\u2581getdateformata": 5073,
    "\u2581getstringtypea": 5074,
    "b474d387997c9fad": 5075,
    "eee2c332d978de23": 5076,
    "\u2581writeprocessmemory": 5077,
    "114": 5078,
    "363": 5079,
    "\u2581sw": 5080,
    "atal": 5081,
    "times": 5082,
    "\u25810x3f6": 5083,
    "\u25810x6a0": 5084,
    "calling": 5085,
    "ortable": 5086,
    "\u25810x40e4": 5087,
    "\u25810x44ee": 5088,
    "\u25810x4640": 5089,
    "\u2581bitblt": 5090,
    "\u25810x120f9": 5091,
    "afunction": 5092,
    "\u25810x429010": 5093,
    "\u25810x1211f58": 5094,
    "\u2581charlowerbuffw": 5095,
    "\u2581gettextextentpoint": 5096,
    "9c1": 5097,
    "b0b": 5098,
    "f98": 5099,
    "child": 5100,
    "reent": 5101,
    "\u25810x44d": 5102,
    "\u2581fatal": 5103,
    "\u25810x42bc": 5104,
    "\u25810x7e9c": 5105,
    "datetime": 5106,
    "emaphore": 5107,
    "textouta": 5108,
    "\u25810x4093d0": 5109,
    "\u25810x4093f4": 5110,
    "\u25810x40a3f3": 5111,
    "\u25810x40a3f4": 5112,
    "\u25810x40a3f5": 5113,
    "\u25810x40a3f6": 5114,
    "\u25810x40a3f7": 5115,
    "\u25810x43f668": 5116,
    "\u25810x7eabf0": 5117,
    "\u25810x12116fc": 5118,
    "\u2581regopenkeya": 5119,
    "7e50f445bd00e4d3": 5120,
    "a8166b0687f6eb8a": 5121,
    "c9b1e02c659cd1fa": 5122,
    "\u2581regdeletevaluea": 5123,
    "26916e7e7ac689cac": 5124,
    "3570bde23564f2920": 5125,
    "97feac0e7f417346d": 5126,
    "\u2581gettempfilenamew": 5127,
    "\u2581readprocessmemory": 5128,
    "3f4": 5129,
    "5f6": 5130,
    "7a0": 5131,
    "93c": 5132,
    "fa2": 5133,
    "\u2581qt": 5134,
    "rchr": 5135,
    "\u2581kill": 5136,
    "\u25810x4220": 5137,
    "\u25810x4990": 5138,
    "\u25810x61f6": 5139,
    "\u25810x7e50": 5140,
    "\u25810x7e98": 5141,
    "\u25810x7e99": 5142,
    "\u25810x7e9d": 5143,
    "\u25810x7ea4": 5144,
    "\u25810x8ae0": 5145,
    "\u25810x429018": 5146,
    "\u25810xfeee00d0": 5147,
    "\u2581cocreateinstan": 5148,
    "no": 5149,
    "2d5": 5150,
    "5c3": 5151,
    "cc4": 5152,
    "f200": 5153,
    "\u2581vfp6": 5154,
    "foxpro": 5155,
    "ontrol": 5156,
    "\u2581wsast": 5157,
    "\u25810x40ac": 5158,
    "\u25810x53ae": 5159,
    "\u25810xffee": 5160,
    "settings": 5161,
    "\u2581appendw": 5162,
    "\u25810x429001": 5163,
    "\u25810x429002": 5164,
    "\u25810x429003": 5165,
    "\u25810x429004": 5166,
    "\u25810x429005": 5167,
    "\u25810x429006": 5168,
    "\u25810x429007": 5169,
    "\u25810x429008": 5170,
    "\u25810x429009": 5171,
    "\u25810x42900a": 5172,
    "\u25810x42900b": 5173,
    "\u25810x42900c": 5174,
    "\u25810x42900d": 5175,
    "\u25810x42900e": 5176,
    "\u25810x42900f": 5177,
    "\u25810x429011": 5178,
    "\u25810x429012": 5179,
    "\u25810x429013": 5180,
    "\u25810x429014": 5181,
    "\u25810x429015": 5182,
    "\u25810x429016": 5183,
    "\u25810x429017": 5184,
    "\u25810x429019": 5185,
    "\u25810x5374d0": 5186,
    "\u25810x1211e18": 5187,
    "\u25810xfeee00db": 5188,
    "\u2581wsastartup": 5189,
    "visualfoxpro": 5190,
    "20eee2c332d978de23": 5191,
    "76b474d387997c9fad": 5192,
    "9994c00b29353b2f85": 5193,
    "gl": 5194,
    "34f1": 5195,
    "\u25810x470": 5196,
    "\u25810x40f1": 5197,
    "\u25810x4239": 5198,
    "\u25810x465b": 5199,
    "\u25810x4720": 5200,
    "\u25810x7ec8": 5201,
    "\u25810x7ec9": 5202,
    "\u25810xea6b": 5203,
    "\u2581freesid": 5204,
    "atomnamea": 5205,
    "\u25810x40a670": 5206,
    "\u25810xbca320": 5207,
    "\u25810x1211cbc": 5208,
    "\u2581getactive": 5209,
    "\u2581killtimer": 5210,
    "dosdatetime": 5211,
    "\u2581unregister": 5212,
    "\u2581getconsolec": 5213,
    "\u2581shellexecutea": 5214,
    "\u2581filetimetodosdatetime": 5215,
    "el": 5216,
    "644": 5217,
    "det": 5218,
    "dfc": 5219,
    "002a": 5220,
    "781e": 5221,
    "f078": 5222,
    "\u2581run": 5223,
    "datere": 5224,
    "header": 5225,
    "\u25810x4a4": 5226,
    "\u25810x532": 5227,
    "\u25810x5e3": 5228,
    "\u25810x120f": 5229,
    "\u25810x3f2a": 5230,
    "\u25810x44f5": 5231,
    "\u25810x7ea5": 5232,
    "\u25810x7ea9": 5233,
    "\u25810x4300e0": 5234,
    "\u25810x4540e0": 5235,
    "\u25810x56b47c": 5236,
    "\u25810x12114bc": 5237,
    "\u2581copyfilew": 5238,
    "\u2581deviceioc": 5239,
    "\u25810xfeee00d1": 5240,
    "\u25810xfeee00d2": 5241,
    "\u2581getactivewindow": 5242,
    "\u2581globalfindatoma": 5243,
    "83f2218a6ed8632af": 5244,
    "b7853cf39214556e1d": 5245,
    "ce1568f2e454d83b88": 5246,
    "efa8166b0687f6eb8a": 5247,
    "981e64c8f3526167583": 5248,
    "ffa038803566fa6d63d": 5249,
    "244": 5250,
    "970": 5251,
    "b30": 5252,
    "hort": 5253,
    "specw": 5254,
    "\u25810x147": 5255,
    "\u25810x572": 5256,
    "\u25810x5bc": 5257,
    "\u25810x412d": 5258,
    "\u25810x4a20": 5259,
    "\u25810x7b98": 5260,
    "\u25810x7ea1": 5261,
    "cmanager": 5262,
    "\u25810x4c79ac": 5263,
    "\u25810x1210dec": 5264,
    "\u25810x1210e2c": 5265,
    "\u2581documents": 5266,
    "\u25810xfeee00d6": 5267,
    "\u25810xfeee00d8": 5268,
    "\u25810xfeee0122": 5269,
    "165": 5270,
    "b7a": 5271,
    "msg": 5272,
    "red": 5273,
    "\u25810x49d0": 5274,
    "\u25810x7ea8": 5275,
    "\u25810x40a666": 5276,
    "\u25810x40a668": 5277,
    "\u25810x40a66a": 5278,
    "\u2581getshort": 5279,
    "\u25810xfeee00d3": 5280,
    "\u25810xfeee00d5": 5281,
    "\u2581getfiletime": 5282,
    "\u2581openscmanager": 5283,
    "d30c9b1e02c659cd1fa": 5284,
    "da93340fc1e7e5f09fc": 5285,
    "16ce1568f2e454d83b88": 5286,
    "34f17e50f445bd00e4d3": 5287,
    "66397feac0e7f417346d": 5288,
    "74b7853cf39214556e1d": 5289,
    "\u2581createcompatiblebitmap": 5290,
    "32a": 5291,
    "9a0": 5292,
    "9a2": 5293,
    "ign": 5294,
    "ver": 5295,
    "\u2581zw": 5296,
    "288d": 5297,
    "endar": 5298,
    "\u25810x7ce0": 5299,
    "\u25810x7e51": 5300,
    "\u25810x82d0": 5301,
    "calendar": 5302,
    "frompoint": 5303,
    "\u25810x40a66c": 5304,
    "\u25810x43a480": 5305,
    "\u25810x5a1fd4": 5306,
    "\u25810x1211994": 5307,
    "\u25810xfeee00d4": 5308,
    "\u25810xfeee00d9": 5309,
    "\u2581localfilet": 5310,
    "\u2581removefile": 5311,
    "\u2581getconsolecp": 5312,
    "\u2581deviceiocontrol": 5313,
    "\u2581createsemaphorea": 5314,
    "\u2581localfiletimetofiletime": 5315,
    "cc7": 5316,
    "db0": 5317,
    "ed2": 5318,
    "f162": 5319,
    "\u25810x4c5": 5320,
    "\u25810xffd1": 5321,
    "\u25810x120de": 5322,
    "\u25810x2e7ea": 5323,
    "\u25810x40a66e": 5324,
    "\u25810x40a672": 5325,
    "\u25810x496760": 5326,
    "\u25810x120f558": 5327,
    "\u25810x1210e20": 5328,
    "\u25810x1211dd8": 5329,
    "\u25810x1211e60": 5330,
    "\u25810x1211e94": 5331,
    "uninitialize": 5332,
    "d09994c00b29353b2f85": 5333,
    "\u2581getforegroundwindow": 5334,
    "12de83f2218a6ed8632af": 5335,
    "6cd30c9b1e02c659cd1fa": 5336,
    "ebb53570bde23564f2920": 5337,
    "398": 5338,
    "678": 5339,
    "f54": 5340,
    "for": 5341,
    "arch": 5342,
    "rand": 5343,
    "\u25810x130": 5344,
    "\u25810x411": 5345,
    "\u25810x4eb": 5346,
    "\u25810xbac": 5347,
    "\u25810x4106": 5348,
    "\u25810x41b8": 5349,
    "\u25810x7db8": 5350,
    "\u25810x7db9": 5351,
    "\u25810x8c70": 5352,
    "\u25810xa010": 5353,
    "\u2581window": 5354,
    "\u25810x10011": 5355,
    "\u25810x409aa4": 5356,
    "\u25810x1211e88": 5357,
    "\u25810x1211eb8": 5358,
    "\u2581enumcalendar": 5359,
    "\u2581removefilespecw": 5360,
    "326": 5361,
    "730": 5362,
    "78c": 5363,
    "e68": 5364,
    "fdb": 5365,
    "eb50": 5366,
    "f27b": 5367,
    "inki": 5368,
    "reen": 5369,
    "\u2581wine": 5370,
    "proper": 5371,
    "screen": 5372,
    "\u25810x439": 5373,
    "\u25810x574": 5374,
    "\u25810x42db": 5375,
    "\u25810x44e5": 5376,
    "\u25810x573c": 5377,
    "\u25810x409aa5": 5378,
    "\u25810xfeee00dc": 5379,
    "\u2581dispatchmessagea": 5380,
    "f9226916e7e7ac689cac": 5381,
    "23a20eee2c332d978de23": 5382,
    "fd6efa8166b0687f6eb8a": 5383,
    "ea66397feac0e7f417346d": 5384,
    "aa0": 5385,
    "ac8": 5386,
    "ecc": 5387,
    "9193": 5388,
    "e8c1": 5389,
    "ddata": 5390,
    "lgitem": 5391,
    "\u25810x7f4": 5392,
    "\u25810x7f7": 5393,
    "\u25810xedc": 5394,
    "\u25810x40e9": 5395,
    "\u25810x4ad0": 5396,
    "\u25810x53c8": 5397,
    "boarddata": 5398,
    "\u25810x1210e30": 5399,
    "\u2581getdlgitem": 5400,
    "1f0": 5401,
    "720": 5402,
    "app": 5403,
    "d2c": 5404,
    "fe0": 5405,
    "10a4": 5406,
    "ctrl": 5407,
    "glti": 5408,
    "\u2581int": 5409,
    "sters": 5410,
    "\u25810x45ad": 5411,
    "\u25810x7428": 5412,
    "\u25810x7c16": 5413,
    "\u25810x7ead": 5414,
    "\u2581interne": 5415,
    "\u25810x4153a0": 5416,
    "\u25810x7ee001": 5417,
    "\u25810x7ee002": 5418,
    "\u25810x7ee003": 5419,
    "\u25810x7ee004": 5420,
    "\u25810x7ee005": 5421,
    "\u25810x7ee006": 5422,
    "\u25810x7ee007": 5423,
    "\u25810x7ee008": 5424,
    "\u25810x7ee009": 5425,
    "\u25810x7ee00a": 5426,
    "\u25810x7ee00b": 5427,
    "\u25810x7ee00c": 5428,
    "\u25810x7ee00d": 5429,
    "\u25810x7ee00e": 5430,
    "\u25810x7ee00f": 5431,
    "\u25810x7ee010": 5432,
    "\u25810x7ee011": 5433,
    "\u25810x7ee012": 5434,
    "\u25810x7ee013": 5435,
    "\u25810x7ee014": 5436,
    "\u25810x7ee015": 5437,
    "\u25810x7ee016": 5438,
    "\u25810x7ee017": 5439,
    "\u25810x7ee018": 5440,
    "\u25810x7ee019": 5441,
    "\u25810x1211fa0": 5442,
    "\u2581registers": 5443,
    "\u25810xfeee00dd": 5444,
    "\u2581getwindowrect": 5445,
    "ervicectrlhandler": 5446,
    "29981e64c8f3526167583": 5447,
    "1a34f17e50f445bd00e4d3": 5448,
    "288dda93340fc1e7e5f09fc": 5449,
    "34416ce1568f2e454d83b88": 5450,
    "36574b7853cf39214556e1d": 5451,
    "e712de83f2218a6ed8632af": 5452,
    "\u2581registerservicectrlhandler": 5453,
    "38c": 5454,
    "6d7": 5455,
    "sel": 5456,
    "xec": 5457,
    "\u25810x8b60": 5458,
    "\u2581starts": 5459,
    "\u2581string": 5460,
    "\u2581getlast": 5461,
    "\u2581winexec": 5462,
    "lientrect": 5463,
    "\u25810x40f6a8": 5464,
    "activepopup": 5465,
    "\u2581initialize": 5466,
    "\u2581getclientrect": 5467,
    "\u2581module32first": 5468,
    "\u2581getlastactivepopup": 5469,
    "1c0": 5470,
    "902": 5471,
    "run": 5472,
    "\u2581di": 5473,
    "\u2581x0": 5474,
    "\u25810x44e": 5475,
    "\u25810x1a14": 5476,
    "\u25810x4c46": 5477,
    "\u25810x7738": 5478,
    "\u25810x4d500": 5479,
    "\u2581gethost": 5480,
    "\u2581sprintf": 5481,
    "\u25810x409410": 5482,
    "\u25810x409418": 5483,
    "\u25810x40a3e8": 5484,
    "\u25810x59e340": 5485,
    "\u25810x5ab0a0": 5486,
    "\u25810x120faa4": 5487,
    "\u25810x1211f08": 5488,
    "f16276b474d387997c9fad": 5489,
    "f27bffa038803566fa6d63d": 5490,
    "faebb53570bde23564f2920": 5491,
    "fc2d09994c00b29353b2f85": 5492,
    "781ef9226916e7e7ac689cac": 5493,
    "900fd6efa8166b0687f6eb8a": 5494,
    "3de": 5495,
    "8c7": 5496,
    "b10": 5497,
    "b5c": 5498,
    "b80": 5499,
    "ttp": 5500,
    "\u2581he": 5501,
    "d8e4": 5502,
    "alize": 5503,
    "\u25810x280": 5504,
    "\u25810x504": 5505,
    "\u25810xe00": 5506,
    "\u25810x40f8": 5507,
    "\u25810x4732": 5508,
    "\u25810x7118": 5509,
    "\u25810x7348": 5510,
    "\u25810x7730": 5511,
    "\u25810x82f0": 5512,
    "\u25810x8f30": 5513,
    "\u25810xffd7": 5514,
    "\u25810x42b410": 5515,
    "\u25810x4c4308": 5516,
    "\u25810x980218": 5517,
    "\u25810xba8b68": 5518,
    "\u25810x1211cfc": 5519,
    "\u25810xfeee00de": 5520,
    "\u2581destroyicon": 5521,
    "\u2581getthreadcontext": 5522,
    "754": 5523,
    "7a7": 5524,
    "ac5": 5525,
    "f84": 5526,
    "26db": 5527,
    "\u2581qt5": 5528,
    "store": 5529,
    "\u2581ming": 5530,
    "\u25810x4b1": 5531,
    "listmsg": 5532,
    "\u25810x1076": 5533,
    "\u25810x412b": 5534,
    "\u25810x4a70": 5535,
    "\u25810x7038": 5536,
    "\u25810x7188": 5537,
    "\u25810x71f8": 5538,
    "\u25810x7268": 5539,
    "\u25810x72d8": 5540,
    "\u25810x73b8": 5541,
    "\u25810x7498": 5542,
    "\u25810x82c0": 5543,
    "\u25810x8de0": 5544,
    "\u25810x120cb": 5545,
    "\u2581commctrl": 5546,
    "\u25810x1211cb4": 5547,
    "\u2581draglistmsg": 5548,
    "\u2581regqueryinfo": 5549,
    "\u2581getdiskfreespaceexw": 5550,
    "10a46cd30c9b1e02c659cd1fa": 5551,
    "123ea66397feac0e7f417346d": 5552,
    "\u2581writeprivateprofilestringa": 5553,
    "710": 5554,
    "b40": 5555,
    "f28": 5556,
    "fic": 5557,
    "7528": 5558,
    "adc0": 5559,
    "hell": 5560,
    "quit": 5561,
    "\u2581work": 5562,
    "enable": 5563,
    "\u25810x232": 5564,
    "\u25810x1074": 5565,
    "\u25810x40e7": 5566,
    "\u25810x7508": 5567,
    "\u25810x7578": 5568,
    "\u25810x8ce0": 5569,
    "\u25810x17d38": 5570,
    "\u2581program": 5571,
    "\u2581postquit": 5572,
    "\u25810x1211584": 5573,
    "\u2581safearray": 5574,
    "\u25810xfeee00df": 5575,
    "\u25810xfeee00e0": 5576,
    "\u2581postquitmessage": 5577,
    "958": 5578,
    "d0c": 5579,
    "dc6": 5580,
    "f70": 5581,
    "\u258112": 5582,
    "52fa": 5583,
    "71e0": 5584,
    "\u2581hels": 5585,
    "\u2581getbk": 5586,
    "\u25810x4080": 5587,
    "\u25810x48c0": 5588,
    "\u25810x4cc0": 5589,
    "\u25810x75e8": 5590,
    "\u25810x7658": 5591,
    "\u25810x76c8": 5592,
    "\u25810x7eb0": 5593,
    "\u25810x8c90": 5594,
    "\u25810x40400": 5595,
    "\u2581helsinki": 5596,
    "\u25810x1210eb0": 5597,
    "\u2581setbkmode": 5598,
    "\u25810xfeee00e1": 5599,
    "\u25810xfeee00e2": 5600,
    "\u25810xfeee00e3": 5601,
    "\u2581fatalerror": 5602,
    "versioninfow": 5603,
    "\u2581systemparametersinfoa": 5604,
    "61529981e64c8f3526167583": 5605,
    "bac23a20eee2c332d978de23": 5606,
    "9c81a34f17e50f445bd00e4d3": 5607,
    "cccf16276b474d387997c9fad": 5608,
    "f3e712de83f2218a6ed8632af": 5609,
    "f6f27bffa038803566fa6d63d": 5610,
    "38900fd6efa8166b0687f6eb8a": 5611,
    "95136574b7853cf39214556e1d": 5612,
    "126": 5613,
    "66a": 5614,
    "94c": 5615,
    "eeb": 5616,
    "ef0": 5617,
    "fig": 5618,
    "dcf6": 5619,
    "ebut": 5620,
    "rame": 5621,
    "\u2581line": 5622,
    "fileex": 5623,
    "\u25810x71b": 5624,
    "\u25810xf96": 5625,
    "\u25810x40f5": 5626,
    "\u25810x411b": 5627,
    "\u25810x419c": 5628,
    "\u25810x4230": 5629,
    "\u25810x4c00": 5630,
    "\u25810x6014": 5631,
    "\u25810x7260": 5632,
    "\u25810x78f8": 5633,
    "\u25810x7ab8": 5634,
    "mousebut": 5635,
    "\u25810x1211ed0": 5636,
    "\u25810xfeee00e4": 5637,
    "\u2581process32nextw": 5638,
    "578": 5639,
    "ea4": 5640,
    "f5c": 5641,
    "pix": 5642,
    "range": 5643,
    "\u25810x77a8": 5644,
    "\u25810x7d58": 5645,
    "\u25810x7eb4": 5646,
    "\u25810x8f50": 5647,
    "\u25810x60000": 5648,
    "\u25810x7a900": 5649,
    "\u2581getdesk": 5650,
    "\u25810x405000": 5651,
    "\u25810x407bed": 5652,
    "\u25810x407bee": 5653,
    "\u25810x42b402": 5654,
    "\u25810x43f620": 5655,
    "\u25810x7c000c": 5656,
    "\u25810x1211f8c": 5657,
    "\u2581movefilea": 5658,
    "\u25810xfeee00e5": 5659,
    "mousebuttons": 5660,
    "\u2581findwindoww": 5661,
    "\u2581processidto": 5662,
    "\u2581setwindowtexta": 5663,
    "\u2581getcomputernamew": 5664,
    "\u2581getdesktopwindow": 5665,
    "\u2581processidtosessionid": 5666,
    "dcbac23a20eee2c332d978de23": 5667,
    "f99faebb53570bde23564f2920": 5668,
    "fa3fc2d09994c00b29353b2f85": 5669,
    "f07834416ce1568f2e454d83b88": 5670,
    "\u2581getnumberofconsolemousebuttons": 5671,
    "74e": 5672,
    "9f0": 5673,
    "ist": 5674,
    "rec": 5675,
    "\u258115": 5676,
    "1520": 5677,
    "6264": 5678,
    "9c4f": 5679,
    "ress": 5680,
    "pixel": 5681,
    "output": 5682,
    "\u25810x210": 5683,
    "\u25810x5aa": 5684,
    "\u25810x4164": 5685,
    "\u25810x4346": 5686,
    "\u25810x4c90": 5687,
    "\u25810x7818": 5688,
    "\u25810x7888": 5689,
    "\u25810x7968": 5690,
    "\u25810x79d8": 5691,
    "\u25810x7a48": 5692,
    "\u25810x7b28": 5693,
    "\u25810x7c08": 5694,
    "\u25810x7c78": 5695,
    "\u25810x7ce8": 5696,
    "\u25810x7eb5": 5697,
    "\u25810x40b3a0": 5698,
    "\u25810x1210ed0": 5699,
    "\u25810x1211e68": 5700,
    "\u25810x71000000": 5701,
    "\u2581initializesecuritydescriptor": 5702,
    "ha": 5703,
    "18c": 5704,
    "3a0": 5705,
    "558": 5706,
    "5d0": 5707,
    "7f0": 5708,
    "a47": 5709,
    "bf0": 5710,
    "f38": 5711,
    "f65": 5712,
    "was": 5713,
    "undr": 5714,
    "\u2581mpr": 5715,
    "enter": 5716,
    "param": 5717,
    "\u25810x2012": 5718,
    "\u25810x4900": 5719,
    "\u25810x7eb1": 5720,
    "\u25810x8af0": 5721,
    "\u25810x10020": 5722,
    "\u25810x50e10": 5723,
    "\u25810x1211c84": 5724,
    "\u25810xfeee00e6": 5725,
    "\u25810xfeee00e7": 5726,
    "\u25810xfeee00e8": 5727,
    "\u25810xfeee00e9": 5728,
    "\u25810xfeee00f4": 5729,
    "\u2581readconsole": 5730,
    "\u2581getusernamew": 5731,
    "a4c4288dda93340fc1e7e5f09fc": 5732,
    "ac10a46cd30c9b1e02c659cd1fa": 5733,
    "26db61529981e64c8f3526167583": 5734,
    "5d95136574b7853cf39214556e1d": 5735,
    "9193781ef9226916e7e7ac689cac": 5736,
    "10c": 5737,
    "573": 5738,
    "b20": 5739,
    "be0": 5740,
    "fa1": 5741,
    "\u2581ob": 5742,
    "3436": 5743,
    "75ac": 5744,
    "archiv": 5745,
    "\u25810x466": 5746,
    "\u25810x40d4": 5747,
    "\u25810x46ec": 5748,
    "\u25810x7eb8": 5749,
    "\u25810x7eb9": 5750,
    "\u25810x8c30": 5751,
    "flushkey": 5752,
    "\u25810x2d4db": 5753,
    "popupmenu": 5754,
    "\u25810x436410": 5755,
    "\u2581internet": 5756,
    "\u25810x1211888": 5757,
    "\u25810xfeee00ea": 5758,
    "\u2581regflushkey": 5759,
    "3c8": 5760,
    "3e8": 5761,
    "540": 5762,
    "964": 5763,
    "a41": 5764,
    "cem": 5765,
    "e24": 5766,
    "f2c": 5767,
    "utd": 5768,
    "e740": 5769,
    "\u2581ins": 5770,
    "cache": 5771,
    "vicea": 5772,
    "\u25810x3a4": 5773,
    "\u25810x5bd4": 5774,
    "\u25810x7061": 5775,
    "\u2581unglti": 5776,
    "\u2581appdata": 5777,
    "\u2581qt5core": 5778,
    "\u25810x41f738": 5779,
    "\u25810x436402": 5780,
    "\u25810x452bf8": 5781,
    "\u25810x4540b0": 5782,
    "\u25810x1211480": 5783,
    "\u25810xfeee00eb": 5784,
    "\u25810xfeee00ec": 5785,
    "\u25810xfeee00ee": 5786,
    "\u25810xfeee00f3": 5787,
    "7cf99faebb53570bde23564f2920": 5788,
    "a4af3e712de83f2218a6ed8632af": 5789,
    "cc7123ea66397feac0e7f417346d": 5790,
    "e8c1f6f27bffa038803566fa6d63d": 5791,
    "921": 5792,
    "ac4": 5793,
    "ecta": 5794,
    "\u2581wink": 5795,
    "\u25810x3cc": 5796,
    "\u25810x43e": 5797,
    "\u25810x412e": 5798,
    "\u25810x42e2": 5799,
    "\u25810x45c2": 5800,
    "\u25810x8d60": 5801,
    "\u25810x40aba": 5802,
    "\u25810xb33880": 5803,
    "\u25810x1211ef4": 5804,
    "\u25810x17d4f08": 5805,
    "\u25810xfeee00ed": 5806,
    "\u25810xfeee00ef": 5807,
    "\u25810xfeee00f1": 5808,
    "\u25810xfeee00f6": 5809,
    "\u25810xfeee00f7": 5810,
    "\u25810xfeee00f8": 5811,
    "\u2581enablewindow": 5812,
    "\u2581getdrivetype": 5813,
    "\u2581regcreatekeyexw": 5814,
    "384": 5815,
    "502": 5816,
    "7f4": 5817,
    "bb8": 5818,
    "91e9": 5819,
    "\u2581low": 5820,
    "angle": 5821,
    "\u25810x5b5": 5822,
    "\u25810x10e9": 5823,
    "\u25810x4100": 5824,
    "\u25810x42ac": 5825,
    "\u25810x44e8": 5826,
    "\u25810x7ebc": 5827,
    "\u25810x7ebd": 5828,
    "\u25810x43300": 5829,
    "\u25810x40a230": 5830,
    "\u25810x43a438": 5831,
    "\u25810x4c5108": 5832,
    "\u2581imagehlp": 5833,
    "fxstring39": 5834,
    "stretchblt": 5835,
    "\u25810x1211894": 5836,
    "\u25810xfeee00f0": 5837,
    "\u25810xfeee00f2": 5838,
    "\u25810xfeee00f9": 5839,
    "\u25810xfeee00fa": 5840,
    "\u25810xfeee00fd": 5841,
    "stretchbltmode": 5842,
    "\u2581lookupprivilegevaluea": 5843,
    "6a0dcbac23a20eee2c332d978de23": 5844,
    "a43fa3fc2d09994c00b29353b2f85": 5845,
    "b7b38900fd6efa8166b0687f6eb8a": 5846,
    "d8e49c81a34f17e50f445bd00e4d3": 5847,
    "e48f07834416ce1568f2e454d83b88": 5848,
    "304": 5849,
    "664": 5850,
    "9c6": 5851,
    "e30": 5852,
    "chto": 5853,
    "speci": 5854,
    "\u2581swit": 5855,
    "\u25810x43c": 5856,
    "\u25810x41ab": 5857,
    "\u25810x4a30": 5858,
    "\u25810x4bc0": 5859,
    "semaphore": 5860,
    "\u25810x409668": 5861,
    "\u25810x5ab070": 5862,
    "\u2581switchto": 5863,
    "\u25810x1210f70": 5864,
    "\u25810x1211eb0": 5865,
    "\u2581drawtexta": 5866,
    "\u25810xfeee00f5": 5867,
    "\u25810xfeee00fe": 5868,
    "\u2581cannotopen": 5869,
    "\u2581getprofile": 5870,
    "\u2581snapmodule": 5871,
    "\u2581createbitmap": 5872,
    "\u2581registerclassexw": 5873,
    "\u2581setsecuritydescriptordacl": 5874,
    "16c": 5875,
    "1a8": 5876,
    "dd8": 5877,
    "\u25817z": 5878,
    "vert": 5879,
    "leave": 5880,
    "owned": 5881,
    "\u25810x57e": 5882,
    "\u25810x4040": 5883,
    "\u25810x7a90": 5884,
    "\u25810x9210": 5885,
    "\u2581insert": 5886,
    "\u25810x4093d5": 5887,
    "\u25810x4093d6": 5888,
    "\u25810x4093d7": 5889,
    "\u25810x4093f0": 5890,
    "\u25810x4093f5": 5891,
    "\u25810x4093f6": 5892,
    "\u25810x4093f7": 5893,
    "\u25810x40957e": 5894,
    "\u25810x409580": 5895,
    "\u25810x409582": 5896,
    "\u25810x409584": 5897,
    "\u25810x409586": 5898,
    "\u25810x409588": 5899,
    "\u25810x40958a": 5900,
    "\u25810x409666": 5901,
    "\u25810x40966a": 5902,
    "\u25810x40966c": 5903,
    "\u25810x40966e": 5904,
    "\u25810x409670": 5905,
    "\u25810x409672": 5906,
    "\u25810x40b3df": 5907,
    "\u25810x40b3e0": 5908,
    "\u25810x40b3e1": 5909,
    "\u25810x40b3e2": 5910,
    "\u25810x40b3e3": 5911,
    "\u25810x40b3e4": 5912,
    "\u25810x40b3e5": 5913,
    "\u25810x42ed70": 5914,
    "\u25810xa26430": 5915,
    "\u25810x5265c28": 5916,
    "\u25810xfeedf200": 5917,
    "\u25810xfeee00fb": 5918,
    "\u2581getdrivetypew": 5919,
    "3d1cccf16276b474d387997c9fad": 5920,
    "209cc7123ea66397feac0e7f417346d": 5921,
    "37e8c1f6f27bffa038803566fa6d63d": 5922,
    "501a4af3e712de83f2218a6ed8632af": 5923,
    "52faa4c4288dda93340fc1e7e5f09fc": 5924,
    "6fa43fa3fc2d09994c00b29353b2f85": 5925,
    "2da": 5926,
    "7d0": 5927,
    "b0c": 5928,
    "fd0": 5929,
    "ted": 5930,
    "5150": 5931,
    "qual": 5932,
    "\u25810x4de": 5933,
    "\u25810xccc": 5934,
    "\u25810x441f": 5935,
    "\u25810x7dbc": 5936,
    "\u25810x7dbd": 5937,
    "\u2581begind": 5938,
    "\u25810x421708": 5939,
    "\u25810x57c144": 5940,
    "\u25810x77002b": 5941,
    "\u2581dragmove": 5942,
    "\u2581sysalloc": 5943,
    "\u25810x1210d90": 5944,
    "\u25810x12110fc": 5945,
    "\u25810x1211788": 5946,
    "\u2581dragleave": 5947,
    "\u25810xfeee00fc": 5948,
    "\u2581regenumkeyexw": 5949,
    "740": 5950,
    "fc4": 5951,
    "\u2581bc": 5952,
    "7170": 5953,
    "e024": 5954,
    "f6e6": 5955,
    "f9f8": 5956,
    "\u2581print": 5957,
    "\u25810x41d7": 5958,
    "\u25810x42a2": 5959,
    "\u25810x42c2": 5960,
    "\u25810x4820": 5961,
    "\u25810x4867": 5962,
    "\u2581enddrag": 5963,
    "\u25810x40593d": 5964,
    "\u25810x40593e": 5965,
    "\u2581isdialog": 5966,
    "imagecount": 5967,
    "\u2581begindrag": 5968,
    "\u2581dragenter": 5969,
    "\u25810xfeee0100": 5970,
    "\u2581regdeletekeya": 5971,
    "\u2581releasesemaphore": 5972,
    "dcf6ac10a46cd30c9b1e02c659cd1fa": 5973,
    "34365d95136574b7853cf39214556e1d": 5974,
    "75289193781ef9226916e7e7ac689cac": 5975,
    "9c4f7cf99faebb53570bde23564f2920": 5976,
    "ed1d8e49c81a34f17e50f445bd00e4d3": 5977,
    "3fa": 5978,
    "51a": 5979,
    "5b0": 5980,
    "d44": 5981,
    "dio": 5982,
    "toc": 5983,
    "\u258167": 5984,
    "3cd8": 5985,
    "a7b0": 5986,
    "\u2581fil": 5987,
    "emenu": 5988,
    "\u25810x4f0": 5989,
    "\u25810x6b2": 5990,
    "undrect": 5991,
    "\u25810x4073": 5992,
    "\u25810x42b2": 5993,
    "\u25810x43e6": 5994,
    "\u25810x4404": 5995,
    "\u25810x8ab0": 5996,
    "\u25810x58000": 5997,
    "textlength": 5998,
    "\u25810x1210f50": 5999,
    "\u25810x1211c14": 6000,
    "\u2581createpen": 6001,
    "\u25810x54500000": 6002,
    "\u25810xfeee00ff": 6003,
    "\u2581peekmessagea": 6004,
    "\u2581getkeyboardlayout": 6005,
    "\u2581getwindowtextlength": 6006,
    "358": 6007,
    "570": 6008,
    "945": 6009,
    "b58": 6010,
    "f24": 6011,
    "f3c": 6012,
    "f68": 6013,
    "its": 6014,
    "new": 6015,
    "\u2581ls": 6016,
    "\u2581ur": 6017,
    "40ad": 6018,
    "device": 6019,
    "\u25810x355": 6020,
    "resourc": 6021,
    "\u25810x4013": 6022,
    "\u25810x460c": 6023,
    "\u25810x523e": 6024,
    "\u2581handler": 6025,
    "\u25810x442806": 6026,
    "\u25810x442808": 6027,
    "\u25810x44280a": 6028,
    "\u25810x44280c": 6029,
    "\u25810x44280e": 6030,
    "\u25810x442810": 6031,
    "\u25810x442812": 6032,
    "\u25810x442814": 6033,
    "\u25810x442816": 6034,
    "\u25810x442818": 6035,
    "\u25810x44281a": 6036,
    "\u25810x44281c": 6037,
    "\u25810x44281e": 6038,
    "\u25810x45b178": 6039,
    "\u25810x460658": 6040,
    "\u25810x58eb50": 6041,
    "\u25810x593700": 6042,
    "\u25810x593730": 6043,
    "\u25810x6cc560": 6044,
    "\u25810x6f1520": 6045,
    "\u2581intersec": 6046,
    "\u25810x12069c0": 6047,
    "\u25810xfeee0101": 6048,
    "\u25810xfeee0102": 6049,
    "\u2581getdateformatw": 6050,
    "instructioncache": 6051,
    "\u2581flushinstructioncache": 6052,
    "75ac26db61529981e64c8f3526167583": 6053,
    "b7e48f07834416ce1568f2e454d83b88": 6054,
    "71e06a0dcbac23a20eee2c332d978de23": 6055,
    "91e9b7b38900fd6efa8166b0687f6eb8a": 6056,
    "ea6fa43fa3fc2d09994c00b29353b2f85": 6057,
    "1a5": 6058,
    "1c9": 6059,
    "a50": 6060,
    "d16": 6061,
    "d50": 6062,
    "ebc": 6063,
    "89f0": 6064,
    "bcol": 6065,
    "init": 6066,
    "byname": 6067,
    "eexist": 6068,
    "onitor": 6069,
    "ownload": 6070,
    "\u25810x4072": 6071,
    "\u25810x40d5": 6072,
    "\u25810x4184": 6073,
    "\u25810x4500": 6074,
    "\u25810x4524": 6075,
    "\u25810x442030": 6076,
    "\u25810x45d338": 6077,
    "freestring": 6078,
    "\u25810x1210ebc": 6079,
    "\u25810x1210ecc": 6080,
    "\u25810x1211dac": 6081,
    "\u25810x3820382": 6082,
    "\u2581fileexist": 6083,
    "\u25810xfeee0103": 6084,
    "\u25810xfeee0104": 6085,
    "\u2581getenhmetafile": 6086,
    "\u2581dispatchmessagew": 6087,
    "ik": 6088,
    "324": 6089,
    "54c": 6090,
    "770": 6091,
    "a3f": 6092,
    "a8c": 6093,
    "b4c": 6094,
    "b90": 6095,
    "f21": 6096,
    "ialog": 6097,
    "selfc": 6098,
    "6d7363": 6099,
    "\u25810x4031": 6100,
    "\u25810x43c3": 6101,
    "\u25810x4860": 6102,
    "archivec": 6103,
    "\u25810x107538": 6104,
    "\u25810x45c238": 6105,
    "\u25810x1211850": 6106,
    "\u25810x1211b8c": 6107,
    "\u2581getdibits": 6108,
    "\u25810xe06d7363": 6109,
    "\u25810xfeee0105": 6110,
    "\u2581gethostbyname": 6111,
    "\u2581cannotopenselfc": 6112,
    "7b73d1cccf16276b474d387997c9fad": 6113,
    "bb209cc7123ea66397feac0e7f417346d": 6114,
    "40852faa4c4288dda93340fc1e7e5f09fc": 6115,
    "98bdcf6ac10a46cd30c9b1e02c659cd1fa": 6116,
    "9b9c4f7cf99faebb53570bde23564f2920": 6117,
    "142": 6118,
    "28c": 6119,
    "b44": 6120,
    "bas": 6121,
    "e38": 6122,
    "e4c": 6123,
    "f60": 6124,
    "e4a5": 6125,
    "malloc": 6126,
    "parama": 6127,
    "\u25810x22c": 6128,
    "\u25810x778": 6129,
    "aaaaaaa": 6130,
    "\u25810x4090": 6131,
    "\u25810x40e2": 6132,
    "\u25810x44c1": 6133,
    "\u25810x8c20": 6134,
    "\u25810x120ff": 6135,
    "\u25810x41e9c8": 6136,
    "\u25810x426264": 6137,
    "\u25810x1211904": 6138,
    "\u25810x1211da4": 6139,
    "andsettings": 6140,
    "\u2581sysfreestring": 6141,
    "aaaaaaaaaaaaaaa": 6142,
    "\u2581applicationdata": 6143,
    "\u2581aaaaaaaaaaaaaaaaa": 6144,
    "drl6660drl6660drl6660": 6145,
    "\u2581documentsandsettings": 6146,
    "\u2581aaaaaaaaaaaaaaaaaaaaaaaaaaaaaaaa": 6147,
    "565": 6148,
    "b5a": 6149,
    "oci": 6150,
    "\u2581log": 6151,
    "\u2581off": 6152,
    "ca0000": 6153,
    "lass32": 6154,
    "\u25810x4301": 6155,
    "\u25810x7bf8": 6156,
    "\u25810x54a7b0": 6157,
    "\u2581fillrect": 6158,
    "\u25810x80ca0000": 6159,
    "\u2581unregisterclass": 6160,
    "\u2581windowfrompoint": 6161,
    "\u2581getprivateprofilestringw": 6162,
    "2d57b73d1cccf16276b474d387997c9fad": 6163,
    "db75ac26db61529981e64c8f3526167583": 6164,
    "b0bed1d8e49c81a34f17e50f445bd00e4d3": 6165,
    "1a0": 6166,
    "760": 6167,
    "b50": 6168,
    "ed0": 6169,
    "\u2581sp": 6170,
    "1918": 6171,
    "thon": 6172,
    "727170": 6173,
    "\u25810x103": 6174,
    "\u25810x497": 6175,
    "\u2581srand": 6176,
    "\u2581track": 6177,
    "fileexw": 6178,
    "\u25810x40a4": 6179,
    "\u25810x4740": 6180,
    "\u25810x7ed0": 6181,
    "\u25810xfff2": 6182,
    "function": 6183,
    "\u25810x44c400": 6184,
    "\u25810x12119a4": 6185,
    "\u25810x3810381": 6186,
    "\u25810x73727170": 6187,
    "\u25810xfeee0112": 6188,
    "\u2581callwindowproc": 6189,
    "\u2581sysallocstringlen": 6190,
    "\u2581getlogicaldrivestringsa": 6191,
    "290": 6192,
    "380": 6193,
    "e19": 6194,
    "ef2": 6195,
    "f8c": 6196,
    "0060": 6197,
    "0064": 6198,
    "\u2581pbvm": 6199,
    "cement": 6200,
    "\u25810x118": 6201,
    "\u25810xbb5": 6202,
    "\u2581stdio": 6203,
    "monitor": 6204,
    "\u25810x1223": 6205,
    "\u25810x409e": 6206,
    "\u25810x471c": 6207,
    "\u25810x4880": 6208,
    "\u25810x9810": 6209,
    "\u2581offset": 6210,
    "\u25810xccccc": 6211,
    "\u2581connect": 6212,
    "placement": 6213,
    "\u25810x181b70": 6214,
    "\u25810x405004": 6215,
    "\u25810x42d0e0": 6216,
    "\u25810x44d4d0": 6217,
    "\u25810x44d4e8": 6218,
    "\u25810x450928": 6219,
    "\u25810x4df006": 6220,
    "\u25810x4df008": 6221,
    "\u25810x4df00a": 6222,
    "\u25810x4df00c": 6223,
    "\u25810x4df00e": 6224,
    "\u25810x4df010": 6225,
    "\u25810x4df012": 6226,
    "\u25810x4df014": 6227,
    "\u25810x4df016": 6228,
    "\u25810x4df018": 6229,
    "\u25810x4df01a": 6230,
    "\u25810x4df01c": 6231,
    "\u25810x4df01e": 6232,
    "\u25810x56c34c": 6233,
    "orarchivec": 6234,
    "\u2581setwindowshook": 6235,
    "9a237e8c1f6f27bffa038803566fa6d63d": 6236,
    "da4501a4af3e712de83f2218a6ed8632af": 6237,
    "32375289193781ef9226916e7e7ac689cac": 6238,
    "a171e06a0dcbac23a20eee2c332d978de23": 6239,
    "b5ea6fa43fa3fc2d09994c00b29353b2f85": 6240,
    "fa334365d95136574b7853cf39214556e1d": 6241,
    "40adb7e48f07834416ce1568f2e454d83b88": 6242,
    "6398bdcf6ac10a46cd30c9b1e02c659cd1fa": 6243,
    "1e8": 6244,
    "1eb": 6245,
    "30c": 6246,
    "5e8": 6247,
    "918": 6248,
    "cat": 6249,
    "94c4": 6250,
    "80228": 6251,
    "ssoci": 6252,
    "\u2581winh": 6253,
    "a00000": 6254,
    "\u25810x426": 6255,
    "\u25810x4ab": 6256,
    "\u2581equal": 6257,
    "\u25810x12eb": 6258,
    "\u25810x4154": 6259,
    "\u25810x452c": 6260,
    "\u25810x458b": 6261,
    "\u25810x8e50": 6262,
    "\u25810x97c0": 6263,
    "\u25810xf000": 6264,
    "\u25810x53000": 6265,
    "\u2581creater": 6266,
    "\u25810x430138": 6267,
    "\u25810x7061c0": 6268,
    "\u25810x120f5d0": 6269,
    "\u25810x12117e8": 6270,
    "\u25810x12117fc": 6271,
    "\u25810x2280228": 6272,
    "\u25810x100fdd58": 6273,
    "\u25810x7ba00000": 6274,
    "\u25810xcccccccc": 6275,
    "\u2581switchtothread": 6276,
    "798": 6277,
    "7b8": 6278,
    "944": 6279,
    "ac0": 6280,
    "bfc": 6281,
    "f6c": 6282,
    "f90": 6283,
    "\u2581lz": 6284,
    "6ahi": 6285,
    "7574": 6286,
    "\u2581net": 6287,
    "\u2581aaag": 6288,
    "\u2581aaak": 6289,
    "\u2581aaal": 6290,
    "horgex": 6291,
    "\u25810x126": 6292,
    "\u25810x12f1": 6293,
    "\u25810x1810": 6294,
    "\u25810x6300": 6295,
    "\u25810x7701": 6296,
    "\u25810x8820": 6297,
    "\u25810x8ba0": 6298,
    "\u25810x9960": 6299,
    "\u25810xa020": 6300,
    "\u2581dialog": 6301,
    "\u2581varian": 6302,
    "\u25810x4cf00": 6303,
    "\u25810x51000": 6304,
    "\u25810x414b8a": 6305,
    "\u25810x414b8b": 6306,
    "\u25810x43f650": 6307,
    "\u25810x4450d0": 6308,
    "\u25810x461530": 6309,
    "\u25810x71be48": 6310,
    "\u2581createen": 6311,
    "brushorgex": 6312,
    "\u25810x1210e10": 6313,
    "\u25810x1210f54": 6314,
    "\u25810x1210f60": 6315,
    "\u25810x12118d8": 6316,
    "\u25810x1211e64": 6317,
    "\u25810xfeee0106": 6318,
    "\u25810xfeee0141": 6319,
    "\u2581createpipe": 6320,
    "\u2581getkeystate": 6321,
    "\u2581replaceicon": 6322,
    "\u2581virtualallocex": 6323,
    "\u2581getfileattributes": 6324,
    "46bb209cc7123ea66397feac0e7f417346d": 6325,
    "afda4501a4af3e712de83f2218a6ed8632af": 6326,
    "3202d57b73d1cccf16276b474d387997c9fad": 6327,
    "6232375289193781ef9226916e7e7ac689cac": 6328,
    "eeb9b9c4f7cf99faebb53570bde23564f2920": 6329,
    "tl": 6330,
    "297": 6331,
    "774": 6332,
    "a87": 6333,
    "b04": 6334,
    "d63": 6335,
    "thr": 6336,
    "0066": 6337,
    "1554": 6338,
    "llip": 6339,
    "\u2581gthr": 6340,
    "\u25810x244": 6341,
    "\u25810x474": 6342,
    "\u25810x6b6": 6343,
    "cliprgn": 6344,
    "nection": 6345,
    "\u25810x8490": 6346,
    "\u2581myarg1": 6347,
    "\u2581mingw32": 6348,
    "\u25810x403000": 6349,
    "\u25810x412468": 6350,
    "\u25810x630062": 6351,
    "\u25810x650064": 6352,
    "\u25810x670066": 6353,
    "\u25810x1211e84": 6354,
    "\u25810xfffffffe": 6355,
    "\u2581insertmenu": 6356,
    "\u2581enumresourc": 6357,
    "dateresourcea": 6358,
    "2w": 6359,
    "gs": 6360,
    "268": 6361,
    "32c": 6362,
    "563": 6363,
    "5cc": 6364,
    "768": 6365,
    "9c4": 6366,
    "9d8": 6367,
    "axi": 6368,
    "d22": 6369,
    "34cc": 6370,
    "a6968": 6371,
    "atedi": 6372,
    "\u2581poly": 6373,
    "dibcol": 6374,
    "\u25810x242": 6375,
    "tassoci": 6376,
    "\u25810x3aeb": 6377,
    "\u25810x4216": 6378,
    "\u25810x42e3": 6379,
    "\u25810x7714": 6380,
    "\u2581yapaxi": 6381,
    "atedicon": 6382,
    "\u25810x1210d1": 6383,
    "\u25810x409694": 6384,
    "\u25810x4096a4": 6385,
    "\u25810x40a92c": 6386,
    "\u25810x40a93c": 6387,
    "\u25810x410f08": 6388,
    "\u25810x448468": 6389,
    "\u25810x44ee08": 6390,
    "\u25810x4b6270": 6391,
    "\u25810x610060": 6392,
    "\u2581setfocus": 6393,
    "\u25810x1210e28": 6394,
    "\u25810x350b8d6": 6395,
    "\u25810x6b6a6968": 6396,
    "\u25810xfeee0107": 6397,
    "\u25810xfeee0108": 6398,
    "\u25810xfeee0109": 6399,
    "\u25810xfeee010a": 6400,
    "\u25810xfeee010d": 6401,
    "\u25810xfeee010e": 6402,
    "\u25810xfeee0111": 6403,
    "\u25810xfeee0113": 6404,
    "\u25810xfeee0125": 6405,
    "ervicestatus": 6406,
    "\u2581shgetmalloc": 6407,
    "dibcolortable": 6408,
    "\u2581extractassoci": 6409,
    "\u2581regdeletekeyw": 6410,
    "\u2581module32firstw": 6411,
    "\u2581cocreateinstance": 6412,
    "\u2581extractassociatedicon": 6413,
    "8c740852faa4c4288dda93340fc1e7e5f09fc": 6414,
    "a6fa334365d95136574b7853cf39214556e1d": 6415,
    "cebdb75ac26db61529981e64c8f3526167583": 6416,
    "601b5ea6fa43fa3fc2d09994c00b29353b2f85": 6417,
    "94c49a237e8c1f6f27bffa038803566fa6d63d": 6418,
    "212": 6419,
    "386": 6420,
    "880": 6421,
    "9c0": 6422,
    "f44": 6423,
    "fb8": 6424,
    "\u25814d5": 6425,
    "\u2581lls": 6426,
    "enabled": 6427,
    "ervicew": 6428,
    "\u25810x4445": 6429,
    "\u25810x4590": 6430,
    "\u25810x7c20": 6431,
    "\u25810x7dc1": 6432,
    "\u25810x8650": 6433,
    "\u2581llseek": 6434,
    "\u25810x20009": 6435,
    "\u25810x41cea": 6436,
    "\u2581gdipset": 6437,
    "\u25810x45d350": 6438,
    "\u25810x57c168": 6439,
    "\u25810x1000000": 6440,
    "\u25810x1211a3c": 6441,
    "\u25810x1211e78": 6442,
    "\u25810xfeee010b": 6443,
    "\u25810xfeee010c": 6444,
    "\u25810xfeee0110": 6445,
    "\u2581getclassinfo": 6446,
    "\u2581iswindowenabled": 6447,
    "\u2581openthreadtoken": 6448,
    "ew": 6449,
    "310": 6450,
    "738": 6451,
    "a64": 6452,
    "ba0": 6453,
    "eb8": 6454,
    "f36": 6455,
    "f74": 6456,
    "f7fd5": 6457,
    "\u2581aaaq": 6458,
    "\u25810x150": 6459,
    "\u25810x554": 6460,
    "\u25810x5d3": 6461,
    "\u2581query": 6462,
    "\u25810x3f75": 6463,
    "\u25810x413d": 6464,
    "\u25810x42ea": 6465,
    "\u25810x4483": 6466,
    "\u25810x120ec": 6467,
    "\u25810x3f5000": 6468,
    "\u25810x40b7b2": 6469,
    "\u25810x4175f4": 6470,
    "\u25810x461054": 6471,
    "\u25810x461080": 6472,
    "\u25810x4614a0": 6473,
    "\u25810x4614b8": 6474,
    "\u25810x4614e8": 6475,
    "\u25810x461560": 6476,
    "\u25810x461578": 6477,
    "\u25810x461590": 6478,
    "\u25810x4615a8": 6479,
    "\u25810x4615c0": 6480,
    "\u25810x473210": 6481,
    "\u25810x1211b90": 6482,
    "\u25810xc000000": 6483,
    "\u2581createdib": 6484,
    "\u2581getbkcolor": 6485,
    "\u2581createfontindirecta": 6486,
    "ba846bb209cc7123ea66397feac0e7f417346d": 6487,
    "f7fd591e9b7b38900fd6efa8166b0687f6eb8a": 6488,
    "34ccb0bed1d8e49c81a34f17e50f445bd00e4d3": 6489,
    "e73202d57b73d1cccf16276b474d387997c9fad": 6490,
    "661": 6491,
    "960": 6492,
    "96c": 6493,
    "dd0": 6494,
    "e2a": 6495,
    "ene": 6496,
    "005c": 6497,
    "\u25810x4f4": 6498,
    "\u2581ntohl": 6499,
    "\u2581start": 6500,
    "\u25810x406c": 6501,
    "\u25810x40e8": 6502,
    "\u25810x4c49": 6503,
    "\u25810x9850": 6504,
    "\u25810xff92": 6505,
    "\u2581command": 6506,
    "viewextex": 6507,
    "\u25810x460d28": 6508,
    "freememory": 6509,
    "\u25810x1210e90": 6510,
    "\u25810xfeee0115": 6511,
    "ab5": 6512,
    "e2b": 6513,
    "ven": 6514,
    "\u258120": 6515,
    "1cd0": 6516,
    "a630": 6517,
    "\u2581msg": 6518,
    "54190": 6519,
    "b6550": 6520,
    "decla": 6521,
    "ected": 6522,
    "767574": 6523,
    "conven": 6524,
    "redwith": 6525,
    "\u25810x41ea": 6526,
    "\u25810x427d": 6527,
    "\u25810x42e8": 6528,
    "\u25810x8f00": 6529,
    "\u25810x43e6d0": 6530,
    "\u25810x43e708": 6531,
    "\u25810x43e740": 6532,
    "\u25810x46ec80": 6533,
    "\u25810x53c820": 6534,
    "\u25810x53e050": 6535,
    "convention": 6536,
    "\u25810x1210f8c": 6537,
    "\u25810x1211884": 6538,
    "\u25810x1211d10": 6539,
    "\u2581getparent": 6540,
    "\u25810x77767574": 6541,
    "\u25810xfeee0114": 6542,
    "\u25810xfeee0116": 6543,
    "\u25810xfeee0123": 6544,
    "declaredwith": 6545,
    "callingconvention": 6546,
    "\u2581getprivateprofilesection": 6547,
    "605afda4501a4af3e712de83f2218a6ed8632af": 6548,
    "cea6398bdcf6ac10a46cd30c9b1e02c659cd1fa": 6549,
    "e8cebdb75ac26db61529981e64c8f3526167583": 6550,
    "fc8c740852faa4c4288dda93340fc1e7e5f09fc": 6551,
    "ee2eeb9b9c4f7cf99faebb53570bde23564f2920": 6552,
    "122": 6553,
    "ff0": 6554,
    "op2": 6555,
    "rop2": 6556,
    "e7d7c": 6557,
    "\u2581imag": 6558,
    "7a7978": 6559,
    "\u25810x4aa": 6560,
    "\u25810x52c": 6561,
    "\u25810x570": 6562,
    "entryto": 6563,
    "\u25810x4460": 6564,
    "\u25810x5284": 6565,
    "\u25810x9500": 6566,
    "\u25810x20535": 6567,
    "\u25810x460cdc": 6568,
    "\u25810x56fc28": 6569,
    "\u25810x57eb48": 6570,
    "\u25810x1211ebc": 6571,
    "entrytodata": 6572,
    "\u25810x7b7a7978": 6573,
    "\u25810x7f7e7d7c": 6574,
    "\u25810xfeee011b": 6575,
    "\u25810xfeee011d": 6576,
    "\u25810xfeee0121": 6577,
    "\u25810xfeee0124": 6578,
    "\u2581gdipcreate": 6579,
    "\u2581commandline": 6580,
    "\u2581setmenuitem": 6581,
    "\u2581getscrollpos": 6582,
    "\u2581setscrollpos": 6583,
    "\u2581imagedirectory": 6584,
    "\u2581createdibsection": 6585,
    "\u2581registerclipboardformatw": 6586,
    "\u2581expandenvironmentstringsa": 6587,
    "\u2581imagedirectoryentrytodata": 6588,
    "ws": 6589,
    "15f": 6590,
    "202": 6591,
    "3e6": 6592,
    "528": 6593,
    "5d8": 6594,
    "7e8": 6595,
    "963": 6596,
    "d3b": 6597,
    "ens": 6598,
    "f10": 6599,
    "mdi": 6600,
    "19f3": 6601,
    "\u2581atl": 6602,
    "\u2581aaad": 6603,
    "\u2581aaar": 6604,
    "\u2581winc": 6605,
    "\u25810x6d3": 6606,
    "f6e6d6c": 6607,
    "\u25810x405c": 6608,
    "\u25810x408c": 6609,
    "\u25810x423a": 6610,
    "\u25810x48b8": 6611,
    "\u25810x8b10": 6612,
    "\u25810x8ee0": 6613,
    "\u2581querys": 6614,
    "\u25810x12e00": 6615,
    "\u25810x1a000": 6616,
    "\u25810x70000": 6617,
    "nection2w": 6618,
    "\u25810x40300c": 6619,
    "\u25810x434002": 6620,
    "\u25810x434004": 6621,
    "\u25810x434006": 6622,
    "\u25810x434008": 6623,
    "\u25810x43400a": 6624,
    "\u25810x43400c": 6625,
    "\u25810x43400e": 6626,
    "\u25810x434010": 6627,
    "\u25810x434014": 6628,
    "\u25810x434016": 6629,
    "\u25810x434018": 6630,
    "\u25810x523e40": 6631,
    "\u25810x69a078": 6632,
    "aterectrgn": 6633,
    "\u25810x12110a8": 6634,
    "\u25810x1211900": 6635,
    "\u25810x1211ea4": 6636,
    "\u25810x53aef9f8": 6637,
    "\u25810x6f6e6d6c": 6638,
    "\u25810xfeee0117": 6639,
    "\u25810xfeee0118": 6640,
    "\u25810xfeee0119": 6641,
    "\u25810xfeee011a": 6642,
    "\u25810xfeee011c": 6643,
    "\u25810xfeee0120": 6644,
    "\u25810xfeee0126": 6645,
    "\u25810xfeee0153": 6646,
    "\u2581winclass32": 6647,
    "allocateheap": 6648,
    "\u2581createrectrgn": 6649,
    "\u2581getthreadtimes": 6650,
    "\u2581rtlallocateheap": 6651,
    "155440adb7e48f07834416ce1568f2e454d83b88": 6652,
    "15601b5ea6fa43fa3fc2d09994c00b29353b2f85": 6653,
    "b6550a171e06a0dcbac23a20eee2c332d978de23": 6654,
    "fd86232375289193781ef9226916e7e7ac689cac": 6655,
    "5dfc8c740852faa4c4288dda93340fc1e7e5f09fc": 6656,
    "940ba846bb209cc7123ea66397feac0e7f417346d": 6657,
    "e024a6fa334365d95136574b7853cf39214556e1d": 6658,
    "ffcea6398bdcf6ac10a46cd30c9b1e02c659cd1fa": 6659,
    "a20": 6660,
    "a61": 6661,
    "aa1": 6662,
    "ae0": 6663,
    "fec": 6664,
    "\u2581d0": 6665,
    "tice": 6666,
    "\u2581dos": 6667,
    "\u2581mfc": 6668,
    "argvw": 6669,
    "\u25810x234": 6670,
    "\u25810x27c": 6671,
    "\u2581monit": 6672,
    "toargvw": 6673,
    "\u25810x44dc": 6674,
    "\u25810x46f4": 6675,
    "\u25810x76b5": 6676,
    "\u25810x7712": 6677,
    "\u25810x7718": 6678,
    "\u25810x79b0": 6679,
    "\u25810x88e0": 6680,
    "\u2581failed": 6681,
    "\u25810x403008": 6682,
    "\u25810x434012": 6683,
    "\u25810x12119b0": 6684,
    "\u25810x1211a08": 6685,
    "\u25810x1211df8": 6686,
    "\u25810x1211e10": 6687,
    "\u25810xfeee011e": 6688,
    "\u25810xfeee011f": 6689,
    "\u2581fileexistsw": 6690,
    "lectrlhandler": 6691,
    "\u2581readconsolew": 6692,
    "\u2581gettextmetric": 6693,
    "\u2581regdeletevaluew": 6694,
    "\u2581commandlinetoargvw": 6695,
    "\u2581setconsolectrlhandler": 6696,
    "001": 6697,
    "2f8": 6698,
    "97d": 6699,
    "bc4": 6700,
    "d58": 6701,
    "f18": 6702,
    "\u258142": 6703,
    "\u258192": 6704,
    "\u2581ab": 6705,
    "\u2581om": 6706,
    "001c": 6707,
    "6564": 6708,
    "7b71": 6709,
    "9d90": 6710,
    "fill": 6711,
    "9e314": 6712,
    "activ": 6713,
    "secor": 6714,
    "ension": 6715,
    "\u25810x41b": 6716,
    "\u25810x576": 6717,
    "\u25810x4377": 6718,
    "\u25810x5000": 6719,
    "\u25810x6002": 6720,
    "\u25810x6026": 6721,
    "\u25810x605c": 6722,
    "\u25810x7ecc": 6723,
    "\u25810x7ecd": 6724,
    "\u25810xa030": 6725,
    "\u2581wtsget": 6726,
    "detected": 6727,
    "\u25810xf003f": 6728,
    "\u2581omsecor": 6729,
    "\u25810x40a540": 6730,
    "\u25810x40bd41": 6731,
    "\u25810x40bd42": 6732,
    "\u25810x4184c0": 6733,
    "\u25810x4195f0": 6734,
    "\u25810x419620": 6735,
    "\u25810x41b868": 6736,
    "\u25810x5d5bd0": 6737,
    "\u25810x1210e70": 6738,
    "\u25810x1210ee0": 6739,
    "\u2581loadbitmap": 6740,
    "\u2581wtsgetactiv": 6741,
    "econsolesessionid": 6742,
    "\u2581fatalerrordetected": 6743,
    "\u2581getfileinformationbyhandle": 6744,
    "\u2581wtsgetactiveconsolesessionid": 6745,
    "f3605afda4501a4af3e712de83f2218a6ed8632af": 6746,
    "7dee2eeb9b9c4f7cf99faebb53570bde23564f2920": 6747,
    "b8fd86232375289193781ef9226916e7e7ac689cac": 6748,
    "e3ae73202d57b73d1cccf16276b474d387997c9fad": 6749,
    "5a0": 6750,
    "a80": 6751,
    "ae8": 6752,
    "d14": 6753,
    "d8c": 6754,
    "oex": 6755,
    "rap": 6756,
    "\u258100": 6757,
    "\u2581sy": 6758,
    "0012": 6759,
    "icst": 6760,
    "\u25817zs": 6761,
    "inter": 6762,
    "\u25810x109": 6763,
    "\u25810x184": 6764,
    "\u2581shell": 6765,
    "\u25810x4060": 6766,
    "\u25810x419b": 6767,
    "\u25810x44a4": 6768,
    "\u25810x45bc": 6769,
    "\u25810x4930": 6770,
    "\u25810x5aa8": 6771,
    "\u25810x7d40": 6772,
    "\u2581strcat": 6773,
    "\u2581convert": 6774,
    "\u2581msvcr80": 6775,
    "\u25810x4086dd": 6776,
    "\u25810x40f660": 6777,
    "\u25810x4300a8": 6778,
    "\u2581failedto": 6779,
    "\u25810x1210e40": 6780,
    "\u25810x1210f35": 6781,
    "\u25810x1211ba8": 6782,
    "\u25810xfeee0127": 6783,
    "\u25810xfeee0128": 6784,
    "\u2581stretchblt": 6785,
    "\u2581regcreatekeya": 6786,
    "uf": 6787,
    "118": 6788,
    "650": 6789,
    "675": 6790,
    "d80": 6791,
    "dc8": 6792,
    "fdc": 6793,
    "lib": 6794,
    "ung": 6795,
    "\u258110": 6796,
    "004c": 6797,
    "5560": 6798,
    "76b3": 6799,
    "copy": 6800,
    "ovet": 6801,
    "\u2581pro": 6802,
    "digit": 6803,
    "\u2581aaap": 6804,
    "buffer": 6805,
    "\u25810x236": 6806,
    "\u25810x3c0": 6807,
    "\u25810x544": 6808,
    "\u25810x636": 6809,
    "\u2581ntice": 6810,
    "\u25810x1500": 6811,
    "\u25810x40de": 6812,
    "\u25810x4224": 6813,
    "\u25810x42e4": 6814,
    "\u25810x437a": 6815,
    "\u25810x8660": 6816,
    "\u25810x8d80": 6817,
    "\u25810x8df0": 6818,
    "\u2581atlget": 6819,
    "00000004": 6820,
    "ffff0000": 6821,
    "\u25810x2e7eb": 6822,
    "\u25810x403004": 6823,
    "\u25810x430070": 6824,
    "\u25810x4c0218": 6825,
    "\u2581lstrcpyw": 6826,
    "\u25810x1210e27": 6827,
    "\u25810x1211c24": 6828,
    "\u25810x2000000": 6829,
    "\u25810x58000000": 6830,
    "\u25810xfeee0129": 6831,
    "\u25810xfeee012a": 6832,
    "\u25810xfeee012b": 6833,
    "\u25810xfeee012c": 6834,
    "\u25810xfeee012d": 6835,
    "\u25810xfeee012e": 6836,
    "vironmentblock": 6837,
    "\u2581getwindowtexta": 6838,
    "environmentblock": 6839,
    "\u2581enumresourcename": 6840,
    "\u2581createenvironmentblock": 6841,
    "\u2581destroyenvironmentblock": 6842,
    "f7b6550a171e06a0dcbac23a20eee2c332d978de23": 6843,
    "5419094c49a237e8c1f6f27bffa038803566fa6d63d": 6844,
    "9e314f7fd591e9b7b38900fd6efa8166b0687f6eb8a": 6845,
    "e4a5e8cebdb75ac26db61529981e64c8f3526167583": 6846,
    "fs": 6847,
    "80a": 6848,
    "9a8": 6849,
    "dcc": 6850,
    "\u2581py": 6851,
    "\u2581sa": 6852,
    "\u2581ta": 6853,
    "0010": 6854,
    "002c": 6855,
    "003c": 6856,
    "stdc": 6857,
    "\u25810x5b4": 6858,
    "\u2581movet": 6859,
    "\u2581space": 6860,
    "\u25810x2804": 6861,
    "\u25810x40b6": 6862,
    "\u25810x44aa": 6863,
    "\u25810x4550": 6864,
    "\u25810x457c": 6865,
    "\u25810x4e40": 6866,
    "\u25810x6294": 6867,
    "\u2581lineto": 6868,
    "\u25810x2e7ec": 6869,
    "\u2581libstdc": 6870,
    "filenamea": 6871,
    "\u25810x61e240": 6872,
    "\u25810xea6b70": 6873,
    "\u2581movetoex": 6874,
    "\u25810x1210e1b": 6875,
    "\u25810x1210f00": 6876,
    "\u25810x1210f94": 6877,
    "\u25810x1211a4c": 6878,
    "\u25810x1211f90": 6879,
    "\u2581libgccw32": 6880,
    "\u2581createicon": 6881,
    "\u2581getclipbox": 6882,
    "\u2581getclassinfoexa": 6883,
    "\u2581setstretchbltmode": 6884,
    "1b0": 6885,
    "448": 6886,
    "724": 6887,
    "bf8": 6888,
    "ead": 6889,
    "f9f": 6890,
    "ier": 6891,
    "dc68": 6892,
    "lear": 6893,
    "\u25810x458": 6894,
    "\u2581lopen": 6895,
    "fileexa": 6896,
    "\u25810x4042": 6897,
    "\u25810x4130": 6898,
    "\u25810x4174": 6899,
    "\u25810x449e": 6900,
    "\u25810x4650": 6901,
    "\u25810x86d8": 6902,
    "\u25810x8fc0": 6903,
    "\u2581memchr": 6904,
    "\u25810x120eb": 6905,
    "\u25810x422a0": 6906,
    "\u25810x603cd8": 6907,
    "\u25810x800000": 6908,
    "\u2581dosdatet": 6909,
    "\u25810x1210e2f": 6910,
    "\u25810x20000000": 6911,
    "\u2581getwindowdc": 6912,
    "\u2581createdialog": 6913,
    "\u2581createmutexw": 6914,
    "\u2581postmessagea": 6915,
    "\u2581wtsfreememory": 6916,
    "\u2581defwindowprocw": 6917,
    "\u2581regqueryvaluea": 6918,
    "\u2581iswindowvisible": 6919,
    "\u2581enumcalendarinfoa": 6920,
    "\u2581dosdatetimetofiletime": 6921,
    "\u2581registerservicectrlhandlerexa": 6922,
    "2da34ccb0bed1d8e49c81a34f17e50f445bd00e4d3": 6923,
    "a65dfc8c740852faa4c4288dda93340fc1e7e5f09fc": 6924,
    "fa215601b5ea6fa43fa3fc2d09994c00b29353b2f85": 6925,
    "59b8fd86232375289193781ef9226916e7e7ac689cac": 6926,
    "7b71155440adb7e48f07834416ce1568f2e454d83b88": 6927,
    "979f3605afda4501a4af3e712de83f2218a6ed8632af": 6928,
    "718": 6929,
    "9b8": 6930,
    "a3c": 6931,
    "b74": 6932,
    "e78": 6933,
    "fe4": 6934,
    "\u258116": 6935,
    "1bec": 6936,
    "7680": 6937,
    "f550": 6938,
    "page": 6939,
    "tify": 6940,
    "\u2581tra": 6941,
    "ignal": 6942,
    "\u25810x237": 6943,
    "\u25810x447": 6944,
    "\u25810x44f": 6945,
    "\u25810x4ac": 6946,
    "startup": 6947,
    "\u25810x11c8": 6948,
    "\u25810x3700": 6949,
    "\u25810x4048": 6950,
    "\u25810x41eb": 6951,
    "\u25810x4232": 6952,
    "\u25810x429f": 6953,
    "\u25810x435f": 6954,
    "\u25810x4660": 6955,
    "\u25810x2e7ed": 6956,
    "\u25810x2e7f0": 6957,
    "\u2581restore": 6958,
    "\u25810x100012": 6959,
    "\u25810x404180": 6960,
    "\u25810x404184": 6961,
    "\u25810x404190": 6962,
    "\u25810x409389": 6963,
    "\u25810x40938a": 6964,
    "\u25810x1210f98": 6965,
    "\u25810x1211f60": 6966,
    "\u2581findresourc": 6967,
    "\u2581charupperbuff": 6968,
    "\u2581gdiplusstartup": 6969,
    "\u2581createfilemappingw": 6970,
    "174": 6971,
    "5b8": 6972,
    "690": 6973,
    "906": 6974,
    "d81": 6975,
    "ff2": 6976,
    "ify": 6977,
    "orr": 6978,
    "\u2581zn": 6979,
    "0022": 6980,
    "1218": 6981,
    "17fd": 6982,
    "4d40": 6983,
    "bb8c": 6984,
    "font": 6985,
    "fram": 6986,
    "unct": 6987,
    "26160": 6988,
    "queue": 6989,
    "\u2581aaah": 6990,
    "\u25810x173": 6991,
    "\u25810x194": 6992,
    "\u25810x5f9": 6993,
    "\u2581lower": 6994,
    "\u2581punct": 6995,
    "\u2581upper": 6996,
    "\u25810x1900": 6997,
    "\u25810x4295": 6998,
    "\u25810x44e9": 6999,
    "\u25810x4c70": 7000,
    "\u25810x6ade": 7001,
    "\u25810x7715": 7002,
    "\u25810x7716": 7003,
    "\u25810x8710": 7004,
    "\u25810x900c": 7005,
    "\u2581xdigit": 7006,
    "\u25810x120f7": 7007,
    "\u25810x120fd": 7008,
    "\u25810x2e7ee": 7009,
    "\u25810x2e7ef": 7010,
    "\u25810x2e7f1": 7011,
    "\u25810x2e7f2": 7012,
    "\u25810x40abd": 7013,
    "\u25810x404178": 7014,
    "\u25810x4086de": 7015,
    "\u25810x4086df": 7016,
    "\u25810x4086e0": 7017,
    "\u25810x4086e1": 7018,
    "\u25810x4086e2": 7019,
    "\u25810x4086e3": 7020,
    "\u25810x4088ce": 7021,
    "\u25810x4088d0": 7022,
    "\u25810x4088d2": 7023,
    "\u25810x4088d4": 7024,
    "\u25810x4088d6": 7025,
    "\u25810x4088d8": 7026,
    "\u25810x4088da": 7027,
    "\u25810x409355": 7028,
    "\u25810x409356": 7029,
    "\u25810x409357": 7030,
    "\u25810x409358": 7031,
    "\u25810x409359": 7032,
    "\u25810x40935a": 7033,
    "\u25810x40935b": 7034,
    "\u25810x40938b": 7035,
    "\u25810x40938c": 7036,
    "\u25810x40938d": 7037,
    "\u25810x40938e": 7038,
    "\u25810x40938f": 7039,
    "\u25810x4093cd": 7040,
    "\u25810x4093ce": 7041,
    "\u25810x4093cf": 7042,
    "\u25810x4093e1": 7043,
    "\u25810x4093e2": 7044,
    "\u25810x4093e3": 7045,
    "\u25810x409430": 7046,
    "\u25810x409438": 7047,
    "\u25810x40a53a": 7048,
    "\u25810x40a53c": 7049,
    "\u25810x40a53e": 7050,
    "\u25810x40a542": 7051,
    "\u25810x40a544": 7052,
    "\u25810x40a546": 7053,
    "\u25810x423590": 7054,
    "\u25810x42e908": 7055,
    "\u25810x42e950": 7056,
    "\u25810x430880": 7057,
    "\u25810x434001": 7058,
    "\u25810x434003": 7059,
    "\u25810x434005": 7060,
    "\u25810x434007": 7061,
    "\u25810x434009": 7062,
    "\u25810x43400b": 7063,
    "\u25810x43400d": 7064,
    "\u25810x43400f": 7065,
    "\u25810x434011": 7066,
    "\u25810x434015": 7067,
    "\u25810x434017": 7068,
    "\u25810x448ad0": 7069,
    "\u25810x44d280": 7070,
    "\u25810x44e500": 7071,
    "\u25810x44f910": 7072,
    "\u25810x45b1c0": 7073,
    "\u25810x4606a0": 7074,
    "\u25810x46b1d0": 7075,
    "\u25810x4967a8": 7076,
    "\u25810x585560": 7077,
    "\u25810x1000140": 7078,
    "\u25810x1210f20": 7079,
    "\u25810x1210fa0": 7080,
    "\u25810x1210fc0": 7081,
    "\u25810x1211ce4": 7082,
    "\u2581myarg1myarg2": 7083,
    "\u2581couninitialize": 7084,
    "\u2581getlogicaldrivestringsw": 7085,
    "47ffcea6398bdcf6ac10a46cd30c9b1e02c659cd1fa": 7086,
    "573e3ae73202d57b73d1cccf16276b474d387997c9fad": 7087,
    "7447dee2eeb9b9c4f7cf99faebb53570bde23564f2920": 7088,
    "ffa0e024a6fa334365d95136574b7853cf39214556e1d": 7089,
    "2c0": 7090,
    "3c0": 7091,
    "801": 7092,
    "a6c": 7093,
    "aba": 7094,
    "ce5": 7095,
    "fe6": 7096,
    "tex": 7097,
    "uld": 7098,
    "\u258103": 7099,
    "0016": 7100,
    "0034": 7101,
    "1f20": 7102,
    "4656": 7103,
    "\u2581cnt": 7104,
    "\u2581sav": 7105,
    "ablea": 7106,
    "aller": 7107,
    "666564": 7108,
    "uldnot": 7109,
    "\u25810x2b2": 7110,
    "\u25810x454": 7111,
    "\u25810x45b": 7112,
    "\u25810x4ba": 7113,
    "\u25810x4f8": 7114,
    "\u25810x514": 7115,
    "\u2581initi": 7116,
    "prepare": 7117,
    "\u25810x40b9": 7118,
    "\u25810x4155": 7119,
    "\u25810x5dcc": 7120,
    "\u2581client": 7121,
    "\u2581redraw": 7122,
    "\u2581savedc": 7123,
    "keyboard": 7124,
    "registry": 7125,
    "\u25810x2000ec": 7126,
    "\u25810x434013": 7127,
    "\u25810x434019": 7128,
    "\u25810x4b6288": 7129,
    "\u25810x1210f84": 7130,
    "\u25810x1211bb0": 7131,
    "\u2581enddialog": 7132,
    "\u2581restoredc": 7133,
    "\u25810x63626160": 7134,
    "\u25810x67666564": 7135,
    "\u25810xfeee012f": 7136,
    "\u2581getmonitor": 7137,
    "prepareheader": 7138,
    "\u2581redrawwindow": 7139,
    "006": 7140,
    "99c": 7141,
    "a96": 7142,
    "d70": 7143,
    "d78": 7144,
    "dup": 7145,
    "e10": 7146,
    "\u2581db": 7147,
    "0024": 7148,
    "0030": 7149,
    "0052": 7150,
    "35b2": 7151,
    "90058": 7152,
    "f003e": 7153,
    "\u25810x153": 7154,
    "\u25810x2fa": 7155,
    "\u25810x310": 7156,
    "\u25810x378": 7157,
    "\u25810x8f7": 7158,
    "ervicea": 7159,
    "\u25810x423b": 7160,
    "\u25810x4d20": 7161,
    "\u25810x5700": 7162,
    "\u25810x5d98": 7163,
    "\u25810x71be": 7164,
    "\u25810x8e20": 7165,
    "\u2581signal": 7166,
    "\u2581verify": 7167,
    "\u25810x47900": 7168,
    "\u25810x7a940": 7169,
    "\u25810x7b340": 7170,
    "\u25810x110010": 7171,
    "\u25810x7c16a0": 7172,
    "\u25810x1210e00": 7173,
    "\u25810x1210e1c": 7174,
    "\u25810x1211eec": 7175,
    "\u2581dialogbox": 7176,
    "\u25810xfeee0130": 7177,
    "\u2581createdibitmap": 7178,
    "\u2581setwindowlonga": 7179,
    "\u2581process32firstw": 7180,
    "ab0940ba846bb209cc7123ea66397feac0e7f417346d": 7181,
    "f76f7b6550a171e06a0dcbac23a20eee2c332d978de23": 7182,
    "20c": 7183,
    "298": 7184,
    "5f0": 7185,
    "aa6": 7186,
    "b46": 7187,
    "b7c": 7188,
    "e6c": 7189,
    "eb3": 7190,
    "uni": 7191,
    "\u258128": 7192,
    "001a": 7193,
    "0050": 7194,
    "0054": 7195,
    "005a": 7196,
    "1a1c": 7197,
    "star": 7198,
    "\u2581dw2": 7199,
    "70000": 7200,
    "f005e": 7201,
    "power": 7202,
    "\u2581aaac": 7203,
    "utdown": 7204,
    "\u25810x3f8": 7205,
    "\u25810x449": 7206,
    "\u25810xe10": 7207,
    "\u2581htons": 7208,
    "\u2581power": 7209,
    "oclient": 7210,
    "\u25810x4050": 7211,
    "\u25810x4150": 7212,
    "\u25810x4244": 7213,
    "\u25810x43b3": 7214,
    "\u25810x4ddc": 7215,
    "\u25810x5356": 7216,
    "\u25810x5a64": 7217,
    "\u25810x6038": 7218,
    "\u25810x7002": 7219,
    "\u25810x7026": 7220,
    "\u25810x7541": 7221,
    "\u25810x8aa0": 7222,
    "\u25810x8bd0": 7223,
    "outputcp": 7224,
    "\u25810x40c58": 7225,
    "\u25810x5265d": 7226,
    "\u2581screent": 7227,
    "\u2581strcpyw": 7228,
    "\u25810x230022": 7229,
    "\u25810x410040": 7230,
    "\u25810x550054": 7231,
    "\u25810x570056": 7232,
    "\u25810x590058": 7233,
    "\u25810x5b005a": 7234,
    "\u25810x5d005c": 7235,
    "\u25810x5f005e": 7236,
    "\u25810xbca938": 7237,
    "\u2581getfocus": 7238,
    "\u25810x1210e24": 7239,
    "\u25810x1210e2b": 7240,
    "\u25810x1210ef4": 7241,
    "\u25810x1210f30": 7242,
    "\u25810x1211ea8": 7243,
    "\u25810x20535e0": 7244,
    "\u2581openmutex": 7245,
    "\u2581rectangle": 7246,
    "\u25810xfeee0142": 7247,
    "\u25810xfeee0143": 7248,
    "versioninfoa": 7249,
    "\u2581screentoclient": 7250,
    "\u2581setwindoworgex": 7251,
    "\u2581getstringtypeexa": 7252,
    "\u2581getdiskfreespacew": 7253,
    "\u2581setforegroundwindow": 7254,
    "ke": 7255,
    "rn": 7256,
    "71f": 7257,
    "d09": 7258,
    "d98": 7259,
    "pha": 7260,
    "003a": 7261,
    "3130": 7262,
    "cher": 7263,
    "lsid": 7264,
    "\u2581oem": 7265,
    "70026": 7266,
    "761e4": 7267,
    "90028": 7268,
    "f001e": 7269,
    "f002e": 7270,
    "model": 7271,
    "\u2581aaan": 7272,
    "tochar": 7273,
    "\u25810x43a": 7274,
    "\u25810x28c3": 7275,
    "\u25810x40b2": 7276,
    "\u25810x4127": 7277,
    "\u25810x4160": 7278,
    "\u25810x4233": 7279,
    "\u25810x5d5c": 7280,
    "\u25810x6015": 7281,
    "\u25810x8a70": 7282,
    "\u25810x120af": 7283,
    "\u25810xd000c": 7284,
    "\u25810xf000e": 7285,
    "\u25810x1002e1": 7286,
    "\u25810x10753c": 7287,
    "\u25810x130012": 7288,
    "\u25810x150014": 7289,
    "\u25810x170016": 7290,
    "\u25810x190018": 7291,
    "\u25810x1b001a": 7292,
    "\u25810x1d001c": 7293,
    "\u25810x1f001e": 7294,
    "\u25810x210020": 7295,
    "\u25810x250024": 7296,
    "\u25810x270026": 7297,
    "\u25810x290028": 7298,
    "\u25810x2b002a": 7299,
    "\u25810x2d002c": 7300,
    "\u25810x2f002e": 7301,
    "\u25810x3d003c": 7302,
    "\u25810x3f003e": 7303,
    "\u25810x42a000": 7304,
    "\u25810x430042": 7305,
    "\u25810x450044": 7306,
    "\u25810x469280": 7307,
    "\u25810x470046": 7308,
    "\u25810x490048": 7309,
    "\u25810x4b004a": 7310,
    "\u25810x4d004c": 7311,
    "\u25810x4f004e": 7312,
    "\u25810x510050": 7313,
    "\u25810x530052": 7314,
    "\u2581appmodel": 7315,
    "\u25810x1210e80": 7316,
    "\u25810x1210f34": 7317,
    "\u25810x1210f40": 7318,
    "\u25810x1210f90": 7319,
    "\u2581oemtochar": 7320,
    "\u25810xfeee0131": 7321,
    "\u25810xfeee0140": 7322,
    "\u2581midistream": 7323,
    "\u2581regconnect": 7324,
    "belocatedint": 7325,
    "\u2581loadbitmapa": 7326,
    "\u2581setvieworgex": 7327,
    "uldnotbelocatedint": 7328,
    "\u2581regconnectregistry": 7329,
    "\u2581zwquerysysteminformation": 7330,
    "16ab0940ba846bb209cc7123ea66397feac0e7f417346d": 7331,
    "297fa215601b5ea6fa43fa3fc2d09994c00b29353b2f85": 7332,
    "327b71155440adb7e48f07834416ce1568f2e454d83b88": 7333,
    "3de47ffcea6398bdcf6ac10a46cd30c9b1e02c659cd1fa": 7334,
    "b7a5419094c49a237e8c1f6f27bffa038803566fa6d63d": 7335,
    "ba6e4a5e8cebdb75ac26db61529981e64c8f3526167583": 7336,
    "f82a65dfc8c740852faa4c4288dda93340fc1e7e5f09fc": 7337,
    "761e42da34ccb0bed1d8e49c81a34f17e50f445bd00e4d3": 7338,
    "1de": 7339,
    "7d8": 7340,
    "7ec": 7341,
    "9e0": 7342,
    "d90": 7343,
    "db1": 7344,
    "e44": 7345,
    "f30": 7346,
    "f40": 7347,
    "fa8": 7348,
    "poly": 7349,
    "\u2581zip": 7350,
    "ecomm": 7351,
    "tempty": 7352,
    "\u25810x41a": 7353,
    "\u25810x824": 7354,
    "\u25810x4025": 7355,
    "\u25810x407c": 7356,
    "\u25810x409d": 7357,
    "\u25810x40d9": 7358,
    "\u25810x45c3": 7359,
    "\u25810x46d1": 7360,
    "\u25810x4830": 7361,
    "\u25810x62bc": 7362,
    "\u25810x8c80": 7363,
    "\u25810x8ef0": 7364,
    "00000000": 7365,
    "\u25810x50e80": 7366,
    "rectempty": 7367,
    "\u25810x350034": 7368,
    "\u25810x370036": 7369,
    "\u25810x4220a0": 7370,
    "\u25810x428e90": 7371,
    "\u25810x475f5c": 7372,
    "\u25810x4c32c0": 7373,
    "\u25810x1210e50": 7374,
    "\u25810x1210f5c": 7375,
    "\u25810x121191c": 7376,
    "\u25810x1211a3f": 7377,
    "\u25810x1211de4": 7378,
    "\u25810x2050000": 7379,
    "\u25810xfeee0132": 7380,
    "\u25810xfeee0133": 7381,
    "\u25810xfeee0134": 7382,
    "\u25810xfeee0135": 7383,
    "\u25810xfeee0136": 7384,
    "\u25810xfeee0137": 7385,
    "\u25810xfeee0138": 7386,
    "\u25810xfeee0139": 7387,
    "\u25810xfeee013a": 7388,
    "\u25810xfeee013b": 7389,
    "\u25810xfeee013c": 7390,
    "\u25810xfeee0156": 7391,
    "\u2581rectvisible": 7392,
    "\u2581regenumkeyexa": 7393,
    "\u2581getwindowlonga": 7394,
    "\u2581openfilemapping": 7395,
    "ml": 7396,
    "5fc": 7397,
    "a10": 7398,
    "a68": 7399,
    "afc": 7400,
    "\u2581mb": 7401,
    "\u2581sdl": 7402,
    "\u2581tim": 7403,
    "30032": 7404,
    "90038": 7405,
    "iconic": 7406,
    "\u25810x472": 7407,
    "\u25810x4ed": 7408,
    "\u25810x53c": 7409,
    "\u25810x754": 7410,
    "erclass": 7411,
    "\u25810x12f2": 7412,
    "\u25810x2002": 7413,
    "\u25810x4032": 7414,
    "\u25810x4554": 7415,
    "\u25810x4568": 7416,
    "\u25810x4624": 7417,
    "\u25810x4ba0": 7418,
    "\u25810x4da0": 7419,
    "\u25810x4fa0": 7420,
    "\u25810x5165": 7421,
    "\u25810x5332": 7422,
    "\u25810x5ebc": 7423,
    "\u25810x8028": 7424,
    "\u25810x10e97c": 7425,
    "\u25810x310030": 7426,
    "\u25810x330032": 7427,
    "\u25810x390038": 7428,
    "\u25810x3b003a": 7429,
    "\u25810x41f070": 7430,
    "\u25810x484003": 7431,
    "\u25810x484004": 7432,
    "\u25810x484005": 7433,
    "\u25810x484006": 7434,
    "\u25810x484007": 7435,
    "\u25810x484008": 7436,
    "\u25810x484009": 7437,
    "\u25810x48400a": 7438,
    "\u25810x48400b": 7439,
    "\u25810x48400c": 7440,
    "\u25810x48400d": 7441,
    "\u25810x48400e": 7442,
    "\u25810x48400f": 7443,
    "\u25810x66bb8c": 7444,
    "\u25810x770012": 7445,
    "\u2581isiconic": 7446,
    "\u2581querydos": 7447,
    "\u25810x1210e23": 7448,
    "\u25810x1210e68": 7449,
    "\u25810x1210f88": 7450,
    "\u25810x1211a00": 7451,
    "\u2581borland32": 7452,
    "\u2581timecheck": 7453,
    "\u25810xfeee013d": 7454,
    "\u25810xfeee013e": 7455,
    "\u25810xfeee013f": 7456,
    "\u25810xfeee0144": 7457,
    "\u25810xfeee0147": 7458,
    "\u2581getsystemmenu": 7459,
    "\u2581regenumvaluew": 7460,
    "\u2581timecheckerclass": 7461,
    "\u2581getconsoleoutputcp": 7462,
    "1bffa0e024a6fa334365d95136574b7853cf39214556e1d": 7463,
    "35b259b8fd86232375289193781ef9226916e7e7ac689cac": 7464,
    "407f76f7b6550a171e06a0dcbac23a20eee2c332d978de23": 7465,
    "76b3979f3605afda4501a4af3e712de83f2218a6ed8632af": 7466,
    "783de47ffcea6398bdcf6ac10a46cd30c9b1e02c659cd1fa": 7467,
    "005": 7468,
    "170": 7469,
    "306": 7470,
    "409": 7471,
    "a45": 7472,
    "a5e": 7473,
    "b28": 7474,
    "b79": 7475,
    "c04": 7476,
    "emo": 7477,
    "fed": 7478,
    "tof": 7479,
    "\u2581ar": 7480,
    "\u2581ff": 7481,
    "\u2581la": 7482,
    "1c12": 7483,
    "98f5": 7484,
    "e220": 7485,
    "ea30": 7486,
    "lags": 7487,
    "owno": 7488,
    "328e2": 7489,
    "9a0c3": 7490,
    "d65f6": 7491,
    "ffcdd": 7492,
    "lease": 7493,
    "1cd071": 7494,
    "showno": 7495,
    "\u25810x1f1": 7496,
    "\u2581alpha": 7497,
    "\u2581cntrl": 7498,
    "\u2581digit": 7499,
    "98f5b70": 7500,
    "9d90bcc": 7501,
    "\u25810x4070": 7502,
    "\u25810x4114": 7503,
    "\u25810x451f": 7504,
    "\u25810x4868": 7505,
    "\u25810x5444": 7506,
    "\u25810x5ddc": 7507,
    "\u25810x7ed1": 7508,
    "\u2581unhook": 7509,
    "17fd7680": 7510,
    "ea30a630": 7511,
    "toscreen": 7512,
    "\u2581setrect": 7513,
    "\u2581winhttp": 7514,
    "19f3328e2": 7515,
    "\u25810x450000": 7516,
    "\u25810x4de648": 7517,
    "\u25810x61e258": 7518,
    "\u25810x9c8f08": 7519,
    "9a0c3ffcdd": 7520,
    "shownolock": 7521,
    "\u25810x1210df0": 7522,
    "\u25810x1210e60": 7523,
    "\u25810x1210f80": 7524,
    "\u25810x12116dc": 7525,
    "\u25810x1211e34": 7526,
    "9d90bcc1bec": 7527,
    "\u25810x10009880": 7528,
    "\u25810xfeee0145": 7529,
    "\u25810xfeee0146": 7530,
    "\u25810xfeee0148": 7531,
    "\u25810xfeee0149": 7532,
    "windowshookex": 7533,
    "\u2581safearrayget": 7534,
    "keyboardlayout": 7535,
    "\u2581getclassnamea": 7536,
    "1cd07119f3328e2": 7537,
    "98f5b70ea30a630": 7538,
    "\u2581clienttoscreen": 7539,
    "\u2581dragshownolock": 7540,
    "17fd76809d90bcc1bec": 7541,
    "\u2581unhookwindowshookex": 7542,
    "98f5b70ea30a6309a0c3ffcdd": 7543,
    "\u2581writeprivateprofilestringw": 7544,
    "1cd07119f3328e217fd76809d90bcc1bec": 7545,
    "98f5b70ea30a6309a0c3ffcdd1cd07119f3328e217fd76809d90bcc1bec": 7546,
    "mi": 7547,
    "5e0": 7548,
    "76c": 7549,
    "7c3": 7550,
    "ce6": 7551,
    "ico": 7552,
    "5f00": 7553,
    "aret": 7554,
    "\u2581pur": 7555,
    "\u2581beep": 7556,
    "\u2581inet": 7557,
    "\u2581ptin": 7558,
    "\u25810x425": 7559,
    "\u25810x491": 7560,
    "\u25810x412a": 7561,
    "\u25810x4180": 7562,
    "\u25810x42f8": 7563,
    "\u25810x4754": 7564,
    "\u25810x7250": 7565,
    "\u25810x7c00": 7566,
    "\u25810xb068": 7567,
    "\u25810xfff1": 7568,
    "\u2581socket": 7569,
    "\u2581traits": 7570,
    "\u25810x42d40": 7571,
    "\u25810x50f78": 7572,
    "\u25810x52000": 7573,
    "\u2581strrchr": 7574,
    "microsoft": 7575,
    "scrollbar": 7576,
    "\u25810x43451a": 7577,
    "\u25810x1210e8c": 7578,
    "\u25810x1210f68": 7579,
    "\u25810x1211f98": 7580,
    "\u25810x10005c64": 7581,
    "\u25810xfeee014a": 7582,
    "\u25810xfeee014b": 7583,
    "\u25810xfeee014c": 7584,
    "\u25810xfeee0155": 7585,
    "\u25810xfeee019d": 7586,
    "stringformat": 7587,
    "\u2581getprocessversion": 7588,
    "d65f69e314f7fd591e9b7b38900fd6efa8166b0687f6eb8a": 7589,
    "ee4b7a5419094c49a237e8c1f6f27bffa038803566fa6d63d": 7590,
    "240": 7591,
    "2f0": 7592,
    "51c": 7593,
    "93e": 7594,
    "a70": 7595,
    "b21": 7596,
    "bc2": 7597,
    "d60": 7598,
    "dd3": 7599,
    "ivq": 7600,
    "a6cc": 7601,
    "eee8": 7602,
    "notin": 7603,
    "lassob": 7604,
    "\u25810x1f0": 7605,
    "\u25810x240": 7606,
    "\u25810x3e8": 7607,
    "\u25810x4c1": 7608,
    "\u25810x518": 7609,
    "\u2581drayn": 7610,
    "\u25810x1814": 7611,
    "\u25810x4018": 7612,
    "\u25810x45e4": 7613,
    "\u25810x4635": 7614,
    "\u25810x46dc": 7615,
    "\u25810x58db": 7616,
    "\u25810x8554": 7617,
    "\u2581printf": 7618,
    "\u2581realize": 7619,
    "secapture": 7620,
    "\u25810x42a400": 7621,
    "\u25810x441fe8": 7622,
    "\u25810x4e39cc": 7623,
    "\u25810x4e39e4": 7624,
    "\u25810x528468": 7625,
    "\u25810x52aa50": 7626,
    "\u25810x61f680": 7627,
    "\u25810xbb5b60": 7628,
    "\u25810x1210e08": 7629,
    "\u25810x1210e48": 7630,
    "\u25810x1210e58": 7631,
    "\u25810x1210ea0": 7632,
    "\u25810x1210f28": 7633,
    "\u25810x1210f44": 7634,
    "\u25810x12118e0": 7635,
    "\u25810x1211a14": 7636,
    "\u25810x1211ba4": 7637,
    "\u25810x1211c4c": 7638,
    "\u25810x169bef4": 7639,
    "\u25810x2d4dbfc": 7640,
    "\u25810x5265c3c": 7641,
    "\u2581selectpalette": 7642,
    "\u2581gettimeformatw": 7643,
    "\u2581realizepalette": 7644,
    "\u2581releasecapture": 7645,
    "\u2581getprofilestringa": 7646,
    "microsoftvisualfoxpro": 7647,
    "2c4": 7648,
    "330": 7649,
    "670": 7650,
    "806": 7651,
    "9d4": 7652,
    "d20": 7653,
    "d34": 7654,
    "db8": 7655,
    "df8": 7656,
    "e40": 7657,
    "e50": 7658,
    "f64": 7659,
    "sul": 7660,
    "\u258175": 7661,
    "b918": 7662,
    "d560": 7663,
    "fail": 7664,
    "\u2581fast": 7665,
    "displa": 7666,
    "\u25810x11c": 7667,
    "\u25810x1fd": 7668,
    "\u25810x4cb": 7669,
    "\u25810x4d3": 7670,
    "\u25810x120a": 7671,
    "\u25810x4011": 7672,
    "\u25810x4016": 7673,
    "\u25810x43e4": 7674,
    "\u25810x4493": 7675,
    "\u25810x4910": 7676,
    "\u25810x4f60": 7677,
    "\u25810x8a60": 7678,
    "\u25810x9560": 7679,
    "\u2581unpack": 7680,
    "\u25810x450aa8": 7681,
    "\u2581addatoma": 7682,
    "\u2581lockfile": 7683,
    "\u2581setclass": 7684,
    "\u25810x1210e18": 7685,
    "\u25810x1210e84": 7686,
    "\u25810x1210e88": 7687,
    "\u25810x1210f10": 7688,
    "\u25810x12119f4": 7689,
    "\u25810x1211b84": 7690,
    "\u25810xfeee014d": 7691,
    "\u25810xfeee014e": 7692,
    "\u25810xfeee014f": 7693,
    "\u25810xfeee0150": 7694,
    "\u25810xfeee0154": 7695,
    "\u2581enumdispla": 7696,
    "\u2581unlockfile": 7697,
    "\u2581getimagecount": 7698,
    "\u2581getscrollinfo": 7699,
    "\u2581getfileattributesexw": 7700,
    "114f82a65dfc8c740852faa4c4288dda93340fc1e7e5f09fc": 7701,
    "3fa327b71155440adb7e48f07834416ce1568f2e454d83b88": 7702,
    "65c297fa215601b5ea6fa43fa3fc2d09994c00b29353b2f85": 7703,
    "89f07447dee2eeb9b9c4f7cf99faebb53570bde23564f2920": 7704,
    "ac516ab0940ba846bb209cc7123ea66397feac0e7f417346d": 7705,
    "ca761e42da34ccb0bed1d8e49c81a34f17e50f445bd00e4d3": 7706,
    "1c12ba6e4a5e8cebdb75ac26db61529981e64c8f3526167583": 7707,
    "9a35b259b8fd86232375289193781ef9226916e7e7ac689cac": 7708,
    "2b0": 7709,
    "3b8": 7710,
    "737": 7711,
    "935": 7712,
    "a46": 7713,
    "b5b": 7714,
    "clu": 7715,
    "d18": 7716,
    "e54": 7717,
    "lnd": 7718,
    "\u2581ti": 7719,
    "1514": 7720,
    "2625": 7721,
    "3534": 7722,
    "bd000": 7723,
    "d0000": 7724,
    "icows": 7725,
    "lndmm": 7726,
    "userw": 7727,
    "\u2581this": 7728,
    "adc0de": 7729,
    "drives": 7730,
    "points": 7731,
    "\u25810x43d": 7732,
    "\u25810x493": 7733,
    "\u2581clsid": 7734,
    "\u2581exclu": 7735,
    "\u2581mfc42": 7736,
    "\u25810x3736": 7737,
    "\u25810x405b": 7738,
    "\u25810x40e0": 7739,
    "\u25810x41c6": 7740,
    "\u25810x43dc": 7741,
    "\u25810x46ac": 7742,
    "\u25810x4828": 7743,
    "\u25810x4980": 7744,
    "\u25810x4d40": 7745,
    "\u25810x7ea6": 7746,
    "\u25810x8828": 7747,
    "\u2581gdipget": 7748,
    "\u2581unicows": 7749,
    "\u25810x181bc0": 7750,
    "\u25810x40e558": 7751,
    "\u25810x41d780": 7752,
    "\u25810x41f000": 7753,
    "\u25810x4687e0": 7754,
    "\u25810x696e18": 7755,
    "\u25810x6ade80": 7756,
    "\u2581borlndmm": 7757,
    "\u2581fastfail": 7758,
    "\u25810x1210e17": 7759,
    "\u25810x1210e1f": 7760,
    "\u25810x1210e4c": 7761,
    "\u25810x1210eb4": 7762,
    "\u25810x1210ef0": 7763,
    "\u25810x1211a28": 7764,
    "\u25810x1211fa4": 7765,
    "\u2581mapwindow": 7766,
    "\u25810xdeadc0de": 7767,
    "\u25810xfeee0151": 7768,
    "\u25810xfeee0152": 7769,
    "\u2581getcapture": 7770,
    "\u2581setcapture": 7771,
    "initializeex": 7772,
    "\u2581setscrollinfo": 7773,
    "\u2581coinitializeex": 7774,
    "\u2581getwindowlongw": 7775,
    "\u2581openscmanagerw": 7776,
    "\u2581createpopupmenu": 7777,
    "\u2581mapwindowpoints": 7778,
    "\u2581getlogicaldrives": 7779,
    "\u2581setthreadcontext": 7780,
    "\u2581getwindowtextlengtha": 7781,
    "15c": 7782,
    "5dc": 7783,
    "64b": 7784,
    "70e": 7785,
    "784": 7786,
    "910": 7787,
    "929": 7788,
    "9c2": 7789,
    "9e8": 7790,
    "ain": 7791,
    "bd8": 7792,
    "byt": 7793,
    "c10": 7794,
    "dca": 7795,
    "e4f": 7796,
    "f93": 7797,
    "rnl": 7798,
    "\u258111": 7799,
    "b3a3": 7800,
    "ed24": 7801,
    "quir": 7802,
    "task": 7803,
    "\u2581qae": 7804,
    "b33f4": 7805,
    "upted": 7806,
    "acquir": 7807,
    "hookex": 7808,
    "python": 7809,
    "\u25810x334": 7810,
    "\u25810x44a": 7811,
    "\u25810x49c": 7812,
    "\u25810x4ff": 7813,
    "\u25810x568": 7814,
    "\u25810x4021": 7815,
    "\u25810x4104": 7816,
    "\u25810x41c7": 7817,
    "\u25810x41f4": 7818,
    "\u25810x48f8": 7819,
    "\u25810x4dc8": 7820,
    "\u25810x534d": 7821,
    "\u25810x7190": 7822,
    "\u25810x7dc4": 7823,
    "\u25810x85a0": 7824,
    "\u25810x8e30": 7825,
    "\u25810xa36c": 7826,
    "\u2581scroll": 7827,
    "\u25810x537b7": 7828,
    "\u2581getlong": 7829,
    "\u25810x1733c4": 7830,
    "\u25810x42a1a8": 7831,
    "\u25810x42a1c0": 7832,
    "\u25810x441806": 7833,
    "\u25810x441808": 7834,
    "\u25810x44180a": 7835,
    "\u25810x44180c": 7836,
    "\u25810x44180e": 7837,
    "\u25810x441810": 7838,
    "\u25810x441812": 7839,
    "\u25810x441814": 7840,
    "\u25810x441816": 7841,
    "\u25810x441818": 7842,
    "\u25810x44181a": 7843,
    "\u25810x44181c": 7844,
    "\u25810x44181e": 7845,
    "\u25810x442804": 7846,
    "\u25810x442820": 7847,
    "\u25810x44c0b8": 7848,
    "\u25810x535735": 7849,
    "\u25810x535736": 7850,
    "\u25810x77002d": 7851,
    "\u2581callnext": 7852,
    "acquirecon": 7853,
    "\u25810x1210e14": 7854,
    "\u25810x1210e44": 7855,
    "\u25810x1210eac": 7856,
    "\u25810x1210f08": 7857,
    "\u25810x1210f18": 7858,
    "\u25810x1210f24": 7859,
    "\u25810x1211b60": 7860,
    "\u25810x1211b88": 7861,
    "\u25810x1211c60": 7862,
    "\u25810x1211fb4": 7863,
    "\u2581errorcode": 7864,
    "\u25810xfeee0157": 7865,
    "\u2581sfxstring39": 7866,
    "\u2581getatomnamea": 7867,
    "00000004000000": 7868,
    "\u2581peeknamedpipe": 7869,
    "\u2581callnexthookex": 7870,
    "\u2581cryptacquirecon": 7871,
    "00000004000000ffff0000": 7872,
    "17407f76f7b6550a171e06a0dcbac23a20eee2c332d978de23": 7873,
    "41d65f69e314f7fd591e9b7b38900fd6efa8166b0687f6eb8a": 7874,
    "b33f4573e3ae73202d57b73d1cccf16276b474d387997c9fad": 7875,
    "db21bffa0e024a6fa334365d95136574b7853cf39214556e1d": 7876,
    "1c65c297fa215601b5ea6fa43fa3fc2d09994c00b29353b2f85": 7877,
    "50ca761e42da34ccb0bed1d8e49c81a34f17e50f445bd00e4d3": 7878,
    "7c476b3979f3605afda4501a4af3e712de83f2218a6ed8632af": 7879,
    "154": 7880,
    "641": 7881,
    "7eb": 7882,
    "b55": 7883,
    "c8b": 7884,
    "e5c": 7885,
    "f72": 7886,
    "ice": 7887,
    "34e8": 7888,
    "e1e0": 7889,
    "f2e2": 7890,
    "\u2581acm": 7891,
    "\u2581env": 7892,
    "\u2581pat": 7893,
    "orsup": 7894,
    "byteex": 7895,
    "llipse": 7896,
    "\u25810x4c3": 7897,
    "\u25810x4d4": 7898,
    "\u25810x50c": 7899,
    "\u25810x5a2": 7900,
    "\u25810x5dc": 7901,
    "declipr": 7902,
    "ectlock": 7903,
    "patcher": 7904,
    "\u25810x12f0": 7905,
    "\u25810x3332": 7906,
    "\u25810x403b": 7907,
    "\u25810x40b1": 7908,
    "\u25810x411c": 7909,
    "\u25810x4284": 7910,
    "\u25810x4940": 7911,
    "\u25810x4b30": 7912,
    "\u25810x5352": 7913,
    "\u25810x80a0": 7914,
    "\u25810x8be0": 7915,
    "\u2581crtdll": 7916,
    "\u2581patblt": 7917,
    "notowned": 7918,
    "\u25810x13000": 7919,
    "\u2581getopen": 7920,
    "itialized": 7921,
    "\u25810x407bba": 7922,
    "\u25810x44eef0": 7923,
    "\u25810x5bc008": 7924,
    "decliprect": 7925,
    "\u25810x1210e0b": 7926,
    "\u25810x1210fb8": 7927,
    "\u2581findatoma": 7928,
    "\u2581getfileex": 7929,
    "\u2581roundrect": 7930,
    "\u2581setactive": 7931,
    "\u25810xfeedf090": 7932,
    "\u2581monitorsup": 7933,
    "\u2581geticoninfo": 7934,
    "functionnotin": 7935,
    "ectlocknotowned": 7936,
    "\u2581getwindoworgex": 7937,
    "\u2581excludecliprect": 7938,
    "\u2581setactivewindow": 7939,
    "\u2581isdbcsleadbyteex": 7940,
    "\u2581verifyversioninfow": 7941,
    "functionnotinitialized": 7942,
    "\u2581monitorsupfunctionnotinitialized": 7943,
    "13c": 7944,
    "14c": 7945,
    "1ec": 7946,
    "444": 7947,
    "658": 7948,
    "794": 7949,
    "7ac": 7950,
    "977": 7951,
    "980": 7952,
    "9a3": 7953,
    "9e4": 7954,
    "amo": 7955,
    "b94": 7956,
    "dln": 7957,
    "e2c": 7958,
    "e60": 7959,
    "f73": 7960,
    "the": 7961,
    "1374": 7962,
    "4040": 7963,
    "ecut": 7964,
    "f331": 7965,
    "24140": 7966,
    "64544": 7967,
    "e3d3c": 7968,
    "\u25810x106": 7969,
    "\u25810x538": 7970,
    "\u25810x4074": 7971,
    "\u25810x4120": 7972,
    "\u25810x41ec": 7973,
    "\u25810x43d8": 7974,
    "\u25810x4810": 7975,
    "\u25810x574c": 7976,
    "\u25810x6027": 7977,
    "\u25810x7170": 7978,
    "\u25810x7713": 7979,
    "\u25810x7950": 7980,
    "\u25810x8d00": 7981,
    "\u2581acmdln": 7982,
    "\u25810x2e7f3": 7983,
    "\u25810x418f3": 7984,
    "\u25810x5c000": 7985,
    "\u2581setrop2": 7986,
    "\u25810x40015f": 7987,
    "\u25810x4031c0": 7988,
    "\u25810x407bb9": 7989,
    "\u25810x40a3f8": 7990,
    "\u25810x4106b0": 7991,
[...]
