{
    "<pad>": 0,
    "<unk>": 1,
    "<mask>": 2,
    "\u25810": 3,
    "\u25810x": 4,
    "00": 5,
    "er": 6,
    "ne": 7,
    "32": 8,
    "l32": 9,
    "\u2581k": 10,
    "erne": 11,
    "\u2581kerne": 12,
    "\u2581kernel32": 13,
    "\u25810x1": 14,
    "\u25810x4": 15,
    "et": 16,
    "\u25810x0": 17,
    "ee": 18,
    "get": 19,
    "al": 20,
    "ti": 21,
    "\u2581get": 22,
    "\u25810xf": 23,
    "0000": 24,
    "in": 25,
    "ec": 26,
    "ad": 27,
    "oc": 28,
    "\u25810x7": 29,
    "re": 30,
    "st": 31,
    "eee": 32,
    "\u25810xfeee": 33,
    "\u25810x12": 34,
    "\u25810xfeee00": 35,
    "le": 36,
    "ar": 37,
    "iti": 38,
    "ss": 39,
    "\u2581c": 40,
    "pr": 41,
    "us": 42,
    "one": 43,
    "\u25810x121": 44,
    "user": 45,
    "\u2581user": 46,
    "\u2581user32": 47,
    "\u25810x40": 48,
    "proc": 49,
    "\u2581m": 50,
    "val": 51,
    "ls": 52,
    "ue": 53,
    "value": 54,
    "\u2581getproc": 55,
    "getvalue": 56,
    "lsgetvalue": 57,
    "dre": 58,
    "har": 59,
    "addre": 60,
    "address": 61,
    "\u2581getprocaddress": 62,
    "\u25810x77": 63,
    "f0": 64,
    "on": 65,
    "or": 66,
    "\u2581n": 67,
    "\u2581s": 68,
    "\u2581none": 69,
    "\u25810xfeee000": 70,
    "cal": 71,
    "loc": 72,
    "000000": 73,
    "sec": 74,
    "secti": 75,
    "riti": 76,
    "ritical": 77,
    "riticalsecti": 78,
    "xt": 79,
    "next": 80,
    "\u2581char": 81,
    "\u25810x77000000": 82,
    "\u2581charnext": 83,
    "en": 84,
    "ff": 85,
    "ter": 86,
    "\u25810x1211": 87,
    "em": 88,
    "la": 89,
    "de": 90,
    "ap": 91,
    "err": 92,
    "error": 93,
    "\u2581t": 94,
    "40": 95,
    "ecriticalsecti": 96,
    "\u25810x46": 97,
    "last": 98,
    "lasterror": 99,
    "\u2581f": 100,
    "\u25810xfeee0001": 101,
    "\u2581l": 102,
    "te": 103,
    "\u2581in": 104,
    "000": 105,
    "\u2581tlsgetvalue": 106,
    "str": 107,
    "rt": 108,
    "an": 109,
    "a0": 110,
    "\u25810x41": 111,
    "\u2581ms": 112,
    "\u2581charnexta": 113,
    "he": 114,
    "vc": 115,
    "by": 116,
    "cm": 117,
    "\u2581msvc": 118,
    "\u2581set": 119,
    "\u2581msvcrt": 120,
    "is": 121,
    "\u25810x45": 122,
    "\u25810x409": 123,
    "heap": 124,
    "co": 125,
    "alloc": 126,
    "and": 127,
    "iz": 128,
    "aliz": 129,
    "\u2581heap": 130,
    "itializ": 131,
    "\u25810x8": 132,
    "\u2581en": 133,
    "\u2581initializ": 134,
    "\u2581initializecriticalsecti": 135,
    "bc": 136,
    "\u2581flsgetvalue": 137,
    "\u25810x5": 138,
    "po": 139,
    "cmp": 140,
    "\u25810x1210": 141,
    "\u25810x4093": 142,
    "ing": 143,
    "ow": 144,
    "\u25810x40a": 145,
    "\u2581w": 146,
    "string": 147,
    "\u2581d": 148,
    "\u25810x2": 149,
    "\u2581is": 150,
    "\u25810x100": 151,
    "\u2581lo": 152,
    "poin": 153,
    "\u2581load": 154,
    "byte": 155,
    "lea": 156,
    "\u2581mem": 157,
    "00000": 158,
    "\u2581memcmp": 159,
    "pointer": 160,
    "\u25810xfa0": 161,
    "90": 162,
    "\u25810x41f0": 163,
    "\u25810x41f040": 164,
    "depointer": 165,
    "\u25810x43": 166,
    "66": 167,
    "\u25810x40a5": 168,
    "\u2581getlasterror": 169,
    "\u25810x45f0": 170,
    "10": 171,
    "\u2581setlasterror": 172,
    "fi": 173,
    "local": 174,
    "\u25810xc": 175,
    "nt": 176,
    "dbc": 177,
    "inf": 178,
    "lead": 179,
    "id": 180,
    "dbcs": 181,
    "\u2581isdbcs": 182,
    "\u2581isdbcslead": 183,
    "\u2581isdbcsleadbyte": 184,
    "\u25810x10": 185,
    "\u2581charnextw": 186,
    "\u2581heapalloc": 187,
    "\u25810x42": 188,
    "d0": 189,
    "hand": 190,
    "e4": 191,
    "\u25810x400000": 192,
    "ind": 193,
    "stem": 194,
    "\u25810x3": 195,
    "onex": 196,
    "ystem": 197,
    "60": 198,
    "mo": 199,
    "info": 200,
    "ll": 201,
    "\u2581initializecriticalsectionex": 202,
    "ffff": 203,
    "indow": 204,
    "locale": 205,
    "ecriticalsection": 206,
    "ul": 207,
    "78": 208,
    "\u2581loadstring": 209,
    "\u2581enco": 210,
    "leav": 211,
    "\u2581encodepointer": 212,
    "\u2581leav": 213,
    "\u2581leavecriticalsection": 214,
    "li": 215,
    "du": 216,
    "criticalsecti": 217,
    "criticalsection": 218,
    "tercriticalsection": 219,
    "\u2581entercriticalsection": 220,
    "50": 221,
    "dule": 222,
    "module": 223,
    "read": 224,
    "\u2581dll": 225,
    "\u2581getmodule": 226,
    "f8": 227,
    "indows": 228,
    "infoa": 229,
    "\u25810x4e4": 230,
    "\u2581initializecriticalsection": 231,
    "\u2581windows": 232,
    "\u2581loadstringa": 233,
    "ulti": 234,
    "idec": 235,
    "idechar": 236,
    "\u25810xff": 237,
    "ed": 238,
    "\u25810xc000": 239,
    "unt": 240,
    "\u2581getlocale": 241,
    "\u2581system": 242,
    "ur": 243,
    "ex": 244,
    "\u2581system32": 245,
    "eco": 246,
    "c0": 247,
    "ess": 248,
    "ree": 249,
    "ent": 250,
    "ea": 251,
    "count": 252,
    "handle": 253,
    "\u2581getlocaleinfoa": 254,
    "10000": 255,
    "\u25810x46f0": 256,
    "\u25810x1210e": 257,
    "ac": 258,
    "70": 259,
    "file": 260,
    "30": 261,
    "ir": 262,
    "\u25810x1000": 263,
    "\u2581getc": 264,
    "\u25810x44": 265,
    "op": 266,
    "free": 267,
    "\u25810x400": 268,
    "sp": 269,
    "20": 270,
    "18": 271,
    "dr": 272,
    "l66": 273,
    "om": 274,
    "br": 275,
    "ary": 276,
    "b0": 277,
    "\u25810x4690": 278,
    "\u25810x1210f": 279,
    "yp": 280,
    "l6660": 281,
    "\u2581deco": 282,
    "\u2581decodepointer": 283,
    "ect": 284,
    "brary": 285,
    "\u25810x6": 286,
    "spin": 287,
    "spincount": 288,
    "andspincount": 289,
    "\u2581initializecriticalsectionandspincount": 290,
    "\u25810x47": 291,
    "\u25810x1211f": 292,
    "drl6660": 293,
    "ment": 294,
    "ate": 295,
    "\u25810x1211d": 296,
    "\u2581v": 297,
    "e0": 298,
    "rent": 299,
    "tet": 300,
    "urrent": 301,
    "it": 302,
    "\u25810xfffff": 303,
    "drl6660drl6660": 304,
    "\u2581a": 305,
    "80": 306,
    "\u25810xfffffff": 307,
    "\u25810x40a5d": 308,
    "let": 309,
    "\u25810x78": 310,
    "library": 311,
    "\u25810xf00": 312,
    "ce": 313,
    "\u25810x9": 314,
    "\u25810x46d0": 315,
    "14": 316,
    "\u2581getst": 317,
    "b8": 318,
    "na": 319,
    "bytet": 320,
    "\u2581multi": 321,
    "bytetow": 322,
    "\u2581multibytetow": 323,
    "\u2581multibytetowidechar": 324,
    "hread": 325,
    "cc": 326,
    "process": 327,
    "\u25810x7e": 328,
    "\u25810x7d": 329,
    "12": 330,
    "ey": 331,
    "lo": 332,
    "\u2581loadlibrary": 333,
    "ag": 334,
    "lock": 335,
    "\u25810x77d": 336,
    "\u25810x77d10000": 337,
    "\u25810x4610": 338,
    "\u2581heapfree": 339,
    "ut": 340,
    "aa": 341,
    "ype": 342,
    "\u2581getmodulehand": 343,
    "\u25810x10c": 344,
    "so": 345,
    "\u25810x40933": 346,
    "\u25810x4378": 347,
    "reate": 348,
    "\u2581getmodulehandlea": 349,
    "irect": 350,
    "44": 351,
    "28": 352,
    "\u2581re": 353,
    "irector": 354,
    "\u2581g": 355,
    "fc": 356,
    "d4": 357,
    "\u2581getcurrent": 358,
    "tom": 359,
    "ri": 360,
    "\u25810xfeee001": 361,
    "hi": 362,
    "def": 363,
    "58": 364,
    "\u2581gets": 365,
    "director": 366,
    "me": 367,
    "tion": 368,
    "thread": 369,
    "\u2581inter": 370,
    "un": 371,
    "filet": 372,
    "\u25810x42a": 373,
    "key": 374,
    "ch": 375,
    "\u25810xfeee0": 376,
    "\u2581interlock": 377,
    "tomulti": 378,
    "\u2581widechar": 379,
    "tomultibyte": 380,
    "\u2581widechartomultibyte": 381,
    "\u2581local": 382,
    "\u2581lstr": 383,
    "56": 384,
    "38": 385,
    "age": 386,
    "\u25810x12119": 387,
    "a8": 388,
    "34": 389,
    "d8": 390,
    "cmap": 391,
    "\u2581lcmap": 392,
    "\u25810x40934": 393,
    "\u2581lcmapstring": 394,
    "\u2581getsystem": 395,
    "\u25810x45f": 396,
    "\u2581interlocked": 397,
    "\u2581ap": 398,
    "\u25810x1211e": 399,
    "rst": 400,
    "ers": 401,
    "tu": 402,
    "\u25810x435": 403,
    "64": 404,
    "directory": 405,
    "\u2581create": 406,
    "rement": 407,
    "98": 408,
    "\u2581p": 409,
    "5c": 410,
    "a4": 411,
    "\u2581reg": 412,
    "handlew": 413,
    "\u25810x14": 414,
    "bu": 415,
    "\u25810xffffffff": 416,
    "open": 417,
    "\u2581getmodulehandlew": 418,
    "\u25810xcd": 419,
    "\u25810x104": 420,
    "\u25810x4093e": 421,
    "\u25810x88": 422,
    "f4": 423,
    "\u25810x18": 424,
    "vw": 425,
    "7c": 426,
    "mm": 427,
    "68": 428,
    "lm": 429,
    "xy": 430,
    "klm": 431,
    "opq": 432,
    "\u2581abc": 433,
    "ghi": 434,
    "xyz": 435,
    "uvw": 436,
    "defghi": 437,
    "opqrst": 438,
    "uvwxyz": 439,
    "\u2581abcdefghi": 440,
    "opqrstuvwxyz": 441,
    "ual": 442,
    "klmn": 443,
    "\u25810xfeee002": 444,
    "klmnopqrstuvwxyz": 445,
    "ear": 446,
    "\u25810x70": 447,
    "\u2581vi": 448,
    "\u25810x20": 449,
    "ersi": 450,
    "put": 451,
    "rtual": 452,
    "1c": 453,
    "\u25810x5f8": 454,
    "\u25810x5f800000": 455,
    "orm": 456,
    "mea": 457,
    "\u2581virtual": 458,
    "74": 459,
    "b4": 460,
    "\u25810x90": 461,
    "\u25810xa": 462,
    "\u2581o": 463,
    "\u2581lcmapstringw": 464,
    "\u25810x42a40": 465,
    "\u2581getfilet": 466,
    "dhandle": 467,
    "\u2581read": 468,
    "16": 469,
    "i32": 470,
    "\u2581getfiletype": 471,
    "vir": 472,
    "viron": 473,
    "\u25810x54": 474,
    "\u25810x78000000": 475,
    "\u2581getstdhandle": 476,
    "\u25810xfeee0004": 477,
    "onso": 478,
    "vironment": 479,
    "\u2581var": 480,
    "3c": 481,
    "versi": 482,
    "um": 483,
    "filena": 484,
    "drl6660drl6660drl6660drl6660": 485,
    "earch": 486,
    "f5": 487,
    "tr": 488,
    "\u2581localalloc": 489,
    "onsole": 490,
    "db": 491,
    "comm": 492,
    "\u25810x48": 493,
    "ber": 494,
    "exw": 495,
    "ol": 496,
    "sw": 497,
    "\u2581x": 498,
    "at": 499,
    "24": 500,
    "\u25810x40a3": 501,
    "tup": 502,
    "artup": 503,
    "26": 504,
    "ab": 505,
    "dc": 506,
    "inc": 507,
    "\u2581apis": 508,
    "emp": 509,
    "\u25810xfeee004": 510,
    "\u2581getstartup": 511,
    "\u2581getmodulefilena": 512,
    "line": 513,
    "\u25810xfeee01": 514,
    "54": 515,
    "\u25810xfeee0002": 516,
    "\u25810xfeee0000": 517,
    "increment": 518,
    "\u2581interlockedincrement": 519,
    "\u2581ex": 520,
    "2c": 521,
    "e8": 522,
    "94": 523,
    "andline": 524,
    "\u2581getcomm": 525,
    "\u25810x102": 526,
    "e10000": 527,
    "\u25810xf001": 528,
    "\u25810x77e10000": 529,
    "\u25810x460": 530,
    "lob": 531,
    "\u25810x7de": 532,
    "\u2581getcommandline": 533,
    "\u2581glob": 534,
    "\u2581search": 535,
    "\u25810x12117": 536,
    "\u2581getcurrentthread": 537,
    "9c": 538,
    "sset": 539,
    "lsset": 540,
    "lssetvalue": 541,
    "filea": 542,
    "ic": 543,
    "\u2581getversi": 544,
    "pre": 545,
    "wa": 546,
    "qu": 547,
    "bug": 548,
    "\u25810xb": 549,
    "debug": 550,
    "infow": 551,
    "se": 552,
    "\u2581getcurrentthreadid": 553,
    "\u25810x79": 554,
    "\u25810x7f8": 555,
    "\u25810x8000": 556,
    "a6": 557,
    "a2": 558,
    "f6": 559,
    "lsalloc": 560,
    "of": 561,
    "\u25810x80": 562,
    "\u25810x4350": 563,
    "num": 564,
    "91": 565,
    "vironmentstring": 566,
    "\u2581getti": 567,
    "\u2581lstrle": 568,
    "rite": 569,
    "\u25810xfeee003": 570,
    "\u25810x800": 571,
    "\u2581loadlibrarya": 572,
    "\u25810xfeee0003": 573,
    "71": 574,
    "\u2581open": 575,
    "window": 576,
    "\u2581ad": 577,
    "\u25810x200": 578,
    "\u25810x7f800": 579,
    "15": 580,
    "bad": 581,
    "number": 582,
    "\u2581getcp": 583,
    "\u2581getcpinfo": 584,
    "input": 585,
    "\u2581h": 586,
    "quer": 587,
    "\u25810x7a": 588,
    "\u25810x7000": 589,
    "\u2581loadlibraryexw": 590,
    "\u2581sh": 591,
    "\u25810xfeee0005": 592,
    "55": 593,
    "da": 594,
    "ng": 595,
    "\u25810x43780": 596,
    "ptr": 597,
    "\u2581isbad": 598,
    "b2": 599,
    "\u25810xf003": 600,
    "\u2581de": 601,
    "directoryw": 602,
    "\u2581getnumber": 603,
    "valid": 604,
    "ofc": 605,
    "ofconsole": 606,
    "\u2581getnumberofconsole": 607,
    "\u25810xfeee008": 608,
    "directorya": 609,
    "vironmentstringsw": 610,
    "eex": 611,
    "int": 612,
    "f2": 613,
    "\u25810x1211c": 614,
    "form": 615,
    "\u25810x4a": 616,
    "\u25810xfeee006": 617,
    "ck": 618,
    "pres": 619,
    "\u25810xfff": 620,
    "present": 621,
    "\u25810x43540": 622,
    "ckcount": 623,
    "\u2581gettickcount": 624,
    "fa": 625,
    "readptr": 626,
    "\u2581isbadreadptr": 627,
    "\u25810x4750": 628,
    "\u2581ws": 629,
    "inputs": 630,
    "\u2581getnumberofconsoleinputs": 631,
    "\u2581hkey": 632,
    "\u25810xf002": 633,
    "\u25810x7c": 634,
    "ation": 635,
    "\u2581b": 636,
    "type": 637,
    "11": 638,
    "\u25810x120": 639,
    "es": 640,
    "exa": 641,
    "oft": 642,
    "api32": 643,
    "ware": 644,
    "76": 645,
    "iv": 646,
    "b3": 647,
    "oftware": 648,
    "\u2581software": 649,
    "c4": 650,
    "sour": 651,
    "\u25810x4094": 652,
    "9e": 653,
    "ba": 654,
    "\u25810x50": 655,
    "mode": 656,
    "\u2581adv": 657,
    "\u2581advapi32": 658,
    "17": 659,
    "print": 660,
    "789": 661,
    "\u2581global": 662,
    "\u2581getstartupinfoa": 663,
    "\u25810xfeee005": 664,
    "d5": 665,
    "dex": 666,
    "\u25810xe": 667,
    "f7": 668,
    "1234": 669,
    "\u2581temp": 670,
    "56789": 671,
    "\u258101234": 672,
    "\u25810123456789": 673,
    "900": 674,
    "b5": 675,
    "\u25810x7e70": 676,
    "b1": 677,
    "bo": 678,
    "\u2581getcurrentprocess": 679,
    "96": 680,
    "list": 681,
    "im": 682,
    "\u2581str": 683,
    "cep": 684,
    "\u25810x7b": 685,
    "ime": 686,
    "b6": 687,
    "\u2581gd": 688,
    "lose": 689,
    "\u25810xd": 690,
    "ception": 691,
    "\u2581virtualalloc": 692,
    "b7": 693,
    "\u2581getmodulefilenamea": 694,
    "\u2581wsprint": 695,
    "\u2581getcommandlinea": 696,
    "400": 697,
    "\u2581flssetvalue": 698,
    "88": 699,
    "dec": 700,
    "\u2581al": 701,
    "\u25810xfeee0006": 702,
    "4c": 703,
    "95": 704,
    "1a": 705,
    "1e": 706,
    "ile": 707,
    "ith": 708,
    "\u2581flsalloc": 709,
    "\u2581lstrlena": 710,
    "\u25810x4e": 711,
    "\u2581loadstringw": 712,
    "\u2581co": 713,
    "\u2581getstring": 714,
    "ot": 715,
    "filetime": 716,
    "\u25810x4c": 717,
    "d6": 718,
    "cp": 719,
    "e7": 720,
    "var": 721,
    "\u25810xfeee0007": 722,
    "d3": 723,
    "vari": 724,
    "\u25810x73": 725,
    "a5": 726,
    "\u2581alter": 727,
    "b40": 728,
    "\u25810xffc": 729,
    "\u2581with": 730,
    "\u25810x7d90": 731,
    "\u2581altered": 732,
    "f3": 733,
    "\u2581getac": 734,
    "ting": 735,
    "locales": 736,
    "\u25810xfeee007": 737,
    "\u25810x7ee": 738,
    "\u2581com": 739,
    "typew": 740,
    "\u2581getstringtypew": 741,
    "92": 742,
    "\u25810x4670": 743,
    "d2": 744,
    "\u25810x40933d": 745,
    "\u25810x40933e": 746,
    "\u2581geten": 747,
    "\u25810x40933f": 748,
    "\u25810x409340": 749,
    "\u25810x409341": 750,
    "\u25810x409342": 751,
    "\u25810x409343": 752,
    "dll": 753,
    "48": 754,
    "\u25810x436": 755,
    "stringa": 756,
    "\u2581current": 757,
    "\u2581getacp": 758,
    "\u25810x1211dd4": 759,
    "13": 760,
    "\u2581locales": 761,
    "\u25810x4d": 762,
    "\u2581find": 763,
    "ve": 764,
    "b9": 765,
    "\u2581page": 766,
    "decrement": 767,
    "\u2581interlockeddecrement": 768,
    "\u25810x1211e0": 769,
    "\u25810x72": 770,
    "8c": 771,
    "cpy": 772,
    "\u25811": 773,
    "\u2581out": 774,
    "f00": 775,
    "\u25810x53": 776,
    "\u2581quer": 777,
    "mew": 778,
    "e2": 779,
    "\u2581getversion": 780,
    "\u2581getthread": 781,
    "fr": 782,
    "up": 783,
    "write": 784,
    "fil": 785,
    "\u25810x12116": 786,
    "\u2581getsystemdirectoryw": 787,
    "\u25810x71": 788,
    "\u25810x1211dc0": 789,
    "\u25810x5f5": 790,
    "35": 791,
    "\u25810x16": 792,
    "\u25810x1c": 793,
    "\u25810x5f500000": 794,
    "\u2581free": 795,
    "\u2581regopen": 796,
    "\u2581regopenkey": 797,
    "\u25810x526": 798,
    "erform": 799,
    "erforman": 800,
    "\u2581queryp": 801,
    "\u2581queryperforman": 802,
    "106": 803,
    "defa": 804,
    "defaul": 805,
    "\u2581win": 806,
    "\u25810x49": 807,
    "\u25810x40935": 808,
    "\u25810x43500": 809,
    "from": 810,
    "\u2581fr": 811,
    "1000": 812,
    "\u2581gdi32": 813,
    "19": 814,
    "\u2581getsystemti": 815,
    "\u2581getlocaleinfow": 816,
    "db10": 817,
    "75": 818,
    "eb": 819,
    "\u25810x76": 820,
    "\u25810x42b40": 821,
    "\u25810x1210d": 822,
    "source": 823,
    "\u2581delet": 824,
    "\u25810x40a5ce": 825,
    "\u25810x40a5d0": 826,
    "\u25810x40a5d2": 827,
    "\u25810x40a5d4": 828,
    "\u25810x40a5d6": 829,
    "\u25810x40a5d8": 830,
    "\u25810x40a5da": 831,
    "\u25810x75": 832,
    "72": 833,
    "c8": 834,
    "db10106": 835,
    "\u25810x1db10106": 836,
    "93": 837,
    "\u2581lstrcmp": 838,
    "\u25810x12115": 839,
    "nd": 840,
    "\u25810x4b": 841,
    "\u2581malloc": 842,
    "\u2581output": 843,
    "\u2581outputdebug": 844,
    "dexception": 845,
    "\u2581getcurrentprocessid": 846,
    "default": 847,
    "unter": 848,
    "filter": 849,
    "drl6660drl6660drl6660drl6660drl6660drl6660drl6660drl6660": 850,
    "\u25810x7de0": 851,
    "unhandle": 852,
    "dexceptionfilter": 853,
    "unhandledexceptionfilter": 854,
    "create": 855,
    "\u25810x42900": 856,
    "tt": 857,
    "a7": 858,
    "fea": 859,
    "\u25810x74": 860,
    "\u2581li": 861,
    "84": 862,
    "ceco": 863,
    "cecounter": 864,
    "\u2581queryperformancecounter": 865,
    "bb": 866,
    "e5": 867,
    "\u25810x43640": 868,
    "99": 869,
    "\u2581r": 870,
    "\u2581readwrite": 871,
    "acc": 872,
    "36": 873,
    "hel": 874,
    "af": 875,
    "e6": 876,
    "\u2581outputdebugstringa": 877,
    "\u25810x105": 878,
    "\u2581cre": 879,
    "processor": 880,
    "\u2581core": 881,
    "\u2581init": 882,
    "\u2581getprocess": 883,
    "\u2581bor": 884,
    "ob": 885,
    "\u2581invalid": 886,
    "ger": 887,
    "bd": 888,
    "ture": 889,
    "\u2581lcmapstringex": 890,
    "\u2581getversionex": 891,
    "sfiletime": 892,
    "image": 893,
    "set": 894,
    "\u25810x50000": 895,
    "\u25810x44d4": 896,
    "\u25810x4418": 897,
    "22": 898,
    "land": 899,
    "\u2581borland": 900,
    "\u25810x40936": 901,
    "a9": 902,
    "inform": 903,
    "\u25810x220": 904,
    "information": 905,
    "\u2581regi": 906,
    "\u2581getsystemtimea": 907,
    "\u2581getsystemtimeasfiletime": 908,
    "\u25810x410": 909,
    "variab": 910,
    "\u2581lstrcpy": 911,
    "ys": 912,
    "eeen": 913,
    "\u2581freeen": 914,
    "f1": 915,
    "term": 916,
    "handl": 917,
    "dep": 918,
    "d7": 919,
    "39": 920,
    "\u25810x1210ec": 921,
    "access": 922,
    "feature": 923,
    "\u2581isprocessor": 924,
    "featurepresent": 925,
    "\u2581isprocessorfeaturepresent": 926,
    "\u25810x19": 927,
    "to": 928,
    "\u2581library": 929,
    "\u2581setfile": 930,
    "\u2581l1": 931,
    "\u25810x52": 932,
    "37": 933,
    "d1": 934,
    "filew": 935,
    "fw": 936,
    "\u2581getmodulefilenamew": 937,
    "\u2581wsprintfw": 938,
    "\u25810xfffffff6": 939,
    "\u25810x2a": 940,
    "map": 941,
    "\u2581setunhandledexceptionfilter": 942,
    "\u25810x60": 943,
    "\u25810x30": 944,
    "be": 945,
    "\u2581getenvironmentstringsw": 946,
    "a3": 947,
    "mess": 948,
    "pa": 949,
    "\u2581getthreadlocale": 950,
    "\u2581freeenvironmentstringsw": 951,
    "vi": 952,
    "\u2581strn": 953,
    "\u2581gett": 954,
    "\u25810x8810": 955,
    "780": 956,
    "bute": 957,
    "ribute": 958,
    "\u25810xfffffff5": 959,
    "\u2581readfile": 960,
    "\u25810x180": 961,
    "\u25810xfffffff4": 962,
    "6c": 963,
    "ila": 964,
    "ttribute": 965,
    "fileattribute": 966,
    "\u2581e": 967,
    "\u2581image": 968,
    "\u2581gettemp": 969,
    "3e": 970,
    "97": 971,
    "urs": 972,
    "\u2581close": 973,
    "\u25810x12114": 974,
    "day": 975,
    "\u2581getcommandlinew": 976,
    "\u25810x17": 977,
    "\u2581lstrcmpa": 978,
    "9d": 979,
    "debugger": 980,
    "\u2581globalalloc": 981,
    "debuggerpresent": 982,
    "\u2581setfilepointer": 983,
    "\u25810x9000": 984,
    "\u25810x1211e04": 985,
    "c2": 986,
    "bf": 987,
    "\u2581strncmp": 988,
    "\u25810x47b0": 989,
    "resource": 990,
    "\u25810x70cc": 991,
    "\u25810x15": 992,
    "\u2581isdebuggerpresent": 993,
    "ef": 994,
    "ies": 995,
    "itprocess": 996,
    "\u25810x5265c": 997,
    "3a": 998,
    "\u25810x7830": 999,
    "ay": 1000,
    "\u2581getprocessheap": 1001,
    "\u2581getstartupinfow": 1002,
    "defaultdll": 1003,
    "directories": 1004,
    "\u2581setdefaultdll": 1005,
    "\u2581setdefaultdlldirectories": 1006,
    "\u25810x88a0": 1007,
    "002": 1008,
    "\u25810x1211f8": 1009,
    "pool": 1010,
    "lass": 1011,
    "\u2581write": 1012,
    "\u2581key": 1013,
    "1f": 1014,
    "\u25810x7e71": 1015,
    "ating": 1016,
    "\u25810x13": 1017,
    "\u2581fi": 1018,
    "\u2581imagelist": 1019,
    "arg": 1020,
    "ae": 1021,
    "\u25812": 1022,
    "nw": 1023,
    "der": 1024,
    "\u25810x1a": 1025,
    "ata": 1026,
    "33": 1027,
    "ang": 1028,
    "ant": 1029,
    "9f": 1030,
    "ction": 1031,
    "\u2581tlssetvalue": 1032,
    "ecount": 1033,
    "\u2581closehandle": 1034,
    "\u25810x3f": 1035,
    "\u25810x12116d8": 1036,
    "7e": 1037,
    "df": 1038,
    "\u2581heapcreate": 1039,
    "\u25810x4290": 1040,
    "ster": 1041,
    "\u25810x44d4b8": 1042,
    "\u25810x2000": 1043,
    "de9": 1044,
    "\u2581ole": 1045,
    "\u25810x8c": 1046,
    "\u2581isvalid": 1047,
    "lic": 1048,
    "1b": 1049,
    "\u2581localfree": 1050,
    "\u2581initterm": 1051,
    "handlecount": 1052,
    "\u25810x41c0": 1053,
    "\u2581access": 1054,
    "\u2581pf": 1055,
    "\u25810x7d91": 1056,
    "\u2581sethandlecount": 1057,
    "allock": 1058,
    "\u25810xfde9": 1059,
    "\u2581freelibrary": 1060,
    "42": 1061,
    "5500000": 1062,
    "\u2581app": 1063,
    "\u25810x1f4": 1064,
    "\u2581lread": 1065,
    "\u25810x1211918": 1066,
    "\u2581regopenkeyexa": 1067,
    "7b": 1068,
    "\u2581globallock": 1069,
    "\u25810x7810": 1070,
    "ard": 1071,
    "\u2581mac": 1072,
    "ursor": 1073,
    "edc": 1074,
    "\u2581loadlibraryw": 1075,
    "\u2581getversionexa": 1076,
    "hine": 1077,
    "\u2581shel": 1078,
    "\u25810x41c044": 1079,
    "met": 1080,
    "\u2581machine": 1081,
    "\u25810x422": 1082,
    "atet": 1083,
    "ontr": 1084,
    "\u25810x1210f8": 1085,
    "\u2581aaa": 1086,
    "eric": 1087,
    "\u2581register": 1088,
    "board": 1089,
    "\u25810x48400": 1090,
    "46": 1091,
    "point": 1092,
    "a1": 1093,
    "stru": 1094,
    "\u25810x5265c14": 1095,
    "\u25810x40933c": 1096,
    "loating": 1097,
    "mp": 1098,
    "ble": 1099,
    "close": 1100,
    "e1": 1101,
    "\u25810x82": 1102,
    "\u25810x8a": 1103,
    "f10000": 1104,
    "e9": 1105,
    "va": 1106,
    "\u25810x77f10000": 1107,
    "vironmentvariab": 1108,
    "fromstr": 1109,
    "\u25810x21000": 1110,
    "ct": 1111,
    "\u25810x43400": 1112,
    "\u25810x409344": 1113,
    "\u2581sl": 1114,
    "\u25810x7ee00": 1115,
    "struction": 1116,
    "\u25810x22": 1117,
    "rive": 1118,
    "lor": 1119,
    "7d": 1120,
    "\u2581api": 1121,
    "\u2581drive": 1122,
    "end": 1123,
    "\u2581getfileattribute": 1124,
    "\u25810x1211b": 1125,
    "\u25810x28": 1126,
    "\u25810x1f400": 1127,
    "\u2581virtualfree": 1128,
    "\u25810x1210e0": 1129,
    "\u25810x1210ee": 1130,
    "\u25810x1210e4": 1131,
    "ion": 1132,
    "\u2581tlsalloc": 1133,
    "ho": 1134,
    "\u25810x8f": 1135,
    "\u2581fin": 1136,
    "\u25810x1210f0": 1137,
    "query": 1138,
    "\u2581findre": 1139,
    "9a": 1140,
    "\u25810x1f": 1141,
    "\u2581setc": 1142,
    "first": 1143,
    "aaaa": 1144,
    "\u25810x79d0": 1145,
    "\u25810x7aa0": 1146,
    "ov": 1147,
    "yarg": 1148,
    "31": 1149,
    "\u2581pr": 1150,
    "ack": 1151,
    "lus": 1152,
    "older": 1153,
    "folder": 1154,
    "\u2581loadlibraryexa": 1155,
    "52": 1156,
    "\u25810xf0019": 1157,
    "\u25810x7de1": 1158,
    "\u25810x1e": 1159,
    "\u2581exitprocess": 1160,
    "908": 1161,
    "\u25810x1210ea": 1162,
    "\u25810x5a": 1163,
    "sa": 1164,
    "\u25810x38": 1165,
    "\u25810x4f": 1166,
    "\u2581createt": 1167,
    "ro": 1168,
    "\u2581getsystemdirectorya": 1169,
    "\u2581gen": 1170,
    "\u25810x1211758": 1171,
    "\u2581wsprintfa": 1172,
    "\u2581getconsole": 1173,
    "ange": 1174,
    "\u25810x11": 1175,
    "\u25810xfeee0008": 1176,
    "\u2581delete": 1177,
    "ip": 1178,
    "9b": 1179,
    "\u25810x7ec": 1180,
    "00c": 1181,
    "2000": 1182,
    "dd": 1183,
    "\u2581shell32": 1184,
    "depage": 1185,
    "lsfree": 1186,
    "codepage": 1187,
    "\u2581isvalidcodepage": 1188,
    "\u2581vari": 1189,
    "\u25810x1211dcc": 1190,
    "\u25810x40b3": 1191,
    "89": 1192,
    "cursor": 1193,
    "\u2581generic": 1194,
    "tim": 1195,
    "sourc": 1196,
    "f9": 1197,
    "\u25810x23": 1198,
    "\u25810x41a0": 1199,
    "\u2581lstrlenw": 1200,
    "low": 1201,
    "e3": 1202,
    "79": 1203,
    "\u25810x40a5cc": 1204,
    "\u25810x40a5dc": 1205,
    "fd": 1206,
    "\u2581getd": 1207,
    "\u2581floating": 1208,
    "86": 1209,
    "ord": 1210,
    "text": 1211,
    "\u25810x1210ed": 1212,
    "change": 1213,
    "\u25810x12118": 1214,
    "ma": 1215,
    "\u25810x4600": 1216,
    "\u2581gettempa": 1217,
    "not": 1218,
    "5f": 1219,
    "\u25810x4093e8": 1220,
    "\u25810x4093e5": 1221,
    "\u25810x4093e6": 1222,
    "\u25810x4093e7": 1223,
    "ctl32": 1224,
    "\u2581comctl32": 1225,
    "\u25810x1804": 1226,
    "\u25810xfeee0009": 1227,
    "\u2581shget": 1228,
    "\u25810x1b": 1229,
    "\u2581wa": 1230,
    "api": 1231,
    "\u25810xfeee00c": 1232,
    "\u25810x47c0": 1233,
    "color": 1234,
    "\u2581relea": 1235,
    "57": 1236,
    "vaila": 1237,
    "vailable": 1238,
    "eexw": 1239,
    "\u25810x41a044": 1240,
    "version": 1241,
    "\u2581exe": 1242,
    "\u25810xfeee000b": 1243,
    "\u25810x67": 1244,
    "\u2581setthread": 1245,
    "initializ": 1246,
    "\u25810x1211fd8": 1247,
    "errormode": 1248,
    "\u2581seterrormode": 1249,
    "\u25810x2c": 1250,
    "\u2581available": 1251,
    "\u2581createfilea": 1252,
    "\u2581file": 1253,
    "\u25810xfeee000a": 1254,
    "\u25810x7ee0": 1255,
    "aps": 1256,
    "\u25810x1211a": 1257,
    "time": 1258,
    "ccc": 1259,
    "\u25810x1211958": 1260,
    "2e": 1261,
    "\u25810x4340": 1262,
    "\u25810xfeee000c": 1263,
    "\u2581getcurrentdirectorya": 1264,
    "prot": 1265,
    "\u2581instruction": 1266,
    "icon": 1267,
    "\u25810x99": 1268,
    "\u2581loadcursor": 1269,
    "i64": 1270,
    "\u25810x69": 1271,
    "\u25810x4093e9": 1272,
    "\u25810x4093ea": 1273,
    "\u25810x4093eb": 1274,
    "77": 1275,
    "off": 1276,
    "\u2581xmm": 1277,
    "\u2581xmmi64": 1278,
    "\u2581instructions": 1279,
    "53": 1280,
    "\u25810x40c": 1281,
    "timer": 1282,
    "\u2581virtualprot": 1283,
    "vic": 1284,
    "ee0": 1285,
    "ad0": 1286,
    "\u25810x1211dd0": 1287,
    "\u25810x1211908": 1288,
    "inal": 1289,
    "enu": 1290,
    "\u25810x12114b8": 1291,
    "\u25810x24": 1292,
    "\u25810x1211fd0": 1293,
    "\u25810x32": 1294,
    "\u2581ord": 1295,
    "offile": 1296,
    "\u2581ordinal": 1297,
    "2a": 1298,
    "ond": 1299,
    "bc0": 1300,
    "\u25810x10000": 1301,
    "\u25810x1212000": 1302,
    "\u25810xcc": 1303,
    "flow": 1304,
    "\u25810x3f2": 1305,
    "5d": 1306,
    "\u2581virtualprotect": 1307,
    "\u2581sets": 1308,
    "5b": 1309,
    "\u25810x58": 1310,
    "\u25810xfeee000e": 1311,
    "62": 1312,
    "\u25810x40a5a0": 1313,
    "3d": 1314,
    "\u25810xfeee0014": 1315,
    "\u25810xfeee0015": 1316,
    "cs": 1317,
    "\u25810xfeee000d": 1318,
    "pal": 1319,
    "palet": 1320,
    "\u25810xfeee0010": 1321,
    "fe": 1322,
    "ock": 1323,
    "eexa": 1324,
    "\u2581dr": 1325,
    "\u2581exis": 1326,
    "\u25810x41f7": 1327,
    "\u2581existing": 1328,
    "\u25810x1211718": 1329,
    "\u25810x44c2": 1330,
    "\u25810x40a59e": 1331,
    "\u25810x40a5a2": 1332,
    "\u25810x40a5a4": 1333,
    "\u25810x40a5a6": 1334,
    "\u25810x40a5a8": 1335,
    "\u25810x40a5aa": 1336,
    "\u25810x1211780": 1337,
    "\u25810x1211f7c": 1338,
    "\u2581flsfree": 1339,
    "\u25810xfeee0016": 1340,
    "ute": 1341,
    "hreadpool": 1342,
    "\u2581findresourc": 1343,
    "\u2581findfirst": 1344,
    "eep": 1345,
    "\u25810xfeee000f": 1346,
    "\u25810xfeee0013": 1347,
    "\u2581lstrcpyna": 1348,
    "\u25810xfeee0012": 1349,
    "div": 1350,
    "\u2581getfile": 1351,
    "65": 1352,
    "message": 1353,
    "\u2581writefile": 1354,
    "\u25810xfeee0011": 1355,
    "\u25810x2e7": 1356,
    "ors": 1357,
    "ision": 1358,
    "ontrol": 1359,
    "lp": 1360,
    "realloc": 1361,
    "\u25810x42a1": 1362,
    "processlist": 1363,
    "\u2581getconsoleprocesslist": 1364,
    "\u25810x29": 1365,
    "\u2581getkey": 1366,
    "d9": 1367,
    "ryp": 1368,
    "\u25810xfeee010": 1369,
    "agea": 1370,
    "41": 1371,
    "3f": 1372,
    "oper": 1373,
    "ember": 1374,
    "\u2581seten": 1375,
    "\u25810x7f00": 1376,
    "rypt": 1377,
    "a256": 1378,
    "\u25810x4730": 1379,
    "\u2581getfileattributesw": 1380,
    "\u25810x25": 1381,
    "\u2581sha256": 1382,
    "\u2581registerc": 1383,
    "\u2581findresourcea": 1384,
    "\u2581se": 1385,
    "\u25810x12119c0": 1386,
    "\u25810x8001": 1387,
    "\u2581setcurrent": 1388,
    "7a": 1389,
    "0000000": 1390,
    "\u25810x1211c0": 1391,
    "\u25810x1210e8": 1392,
    "\u2581th": 1393,
    "1d": 1394,
    "5e": 1395,
    "\u2581setenvironmentvariab": 1396,
    "\u2581deletecriticalsection": 1397,
    "fb": 1398,
    "3b": 1399,
    "\u2581ole32": 1400,
    "\u25810x69000000": 1401,
    "\u2581createa": 1402,
    "\u25810x56": 1403,
    "messagea": 1404,
    "\u25810x214": 1405,
    "\u2581sleep": 1406,
    "yn": 1407,
    "initialize": 1408,
    "\u2581variant": 1409,
    "\u25810xfeee012": 1410,
    "\u2581un": 1411,
    "5a": 1412,
    "\u25810x34": 1413,
    "\u2581getde": 1414,
    "\u25810x3c": 1415,
    "\u2581loadcursora": 1416,
    "mem": 1417,
    "\u25810x4790": 1418,
    "ity": 1419,
    "\u2581regopenkeyexw": 1420,
    "menu": 1421,
    "\u25810x8811": 1422,
    "\u2581getkeyboard": 1423,
    "\u25810x21": 1424,
    "73": 1425,
    "63": 1426,
    "\u2581crypt": 1427,
    "ok": 1428,
    "\u25810x8b": 1429,
    "\u25810x43f0": 1430,
    "\u25810x1211948": 1431,
    "\u25810x65500000": 1432,
    "\u25810x434": 1433,
    "\u25810x4428": 1434,
    "6a": 1435,
    "59": 1436,
    "\u25810x1211d0": 1437,
    "508": 1438,
    "\u25810x1d": 1439,
    "ial": 1440,
    "\u2581wait": 1441,
    "\u25810x4af4": 1442,
    "\u25814": 1443,
    "isk": 1444,
    "priv": 1445,
    "\u2581releas": 1446,
    "\u25810x1211528": 1447,
    "\u25810x700c": 1448,
    "operation": 1449,
    "\u2581findclose": 1450,
    "\u25810x47a0": 1451,
    "\u25810x1211f28": 1452,
    "pare": 1453,
    "\u2581olea": 1454,
    "box": 1455,
    "ockob": 1456,
    "\u2581getstockob": 1457,
    "vicec": 1458,
    "polic": 1459,
    "\u2581setprocess": 1460,
    "\u25810x44180": 1461,
    "vie": 1462,
    "\u2581compare": 1463,
    "messagew": 1464,
    "\u25810x1210f4": 1465,
    "\u25810x1211e30": 1466,
    "23": 1467,
    "\u25810x2d": 1468,
    "\u25810xfeee0017": 1469,
    "pro": 1470,
    "policy": 1471,
    "\u2581setcurrentdirectorya": 1472,
    "ping": 1473,
    "\u25810x5266": 1474,
    "lphi": 1475,
    "\u2581delphi": 1476,
    "\u25810xd0": 1477,
    "\u2581control": 1478,
    "\u2581creat": 1479,
    "8a": 1480,
    "25": 1481,
    "ero": 1482,
    "filemap": 1483,
    "\u25810x4606": 1484,
    "earchmode": 1485,
    "filemapping": 1486,
    "\u2581setsearchmode": 1487,
    "\u2581gdip": 1488,
    "deppolicy": 1489,
    "\u2581createfilew": 1490,
    "\u25810x78c": 1491,
    "\u2581mo": 1492,
    "\u25810xfeee0018": 1493,
    "\u2581deletefilea": 1494,
    "\u2581setprocessdeppolicy": 1495,
    "edex": 1496,
    "\u25810x4076": 1497,
    "windows": 1498,
    "\u2581interlockedex": 1499,
    "ory": 1500,
    "erflow": 1501,
    "essage": 1502,
    "\u25810x4615": 1503,
    "\u25810x121194c": 1504,
    "\u2581interlockedexchange": 1505,
    "vicecaps": 1506,
    "\u2581getdevicecaps": 1507,
    "\u25810x1211e4": 1508,
    "\u25810x78c00000": 1509,
    "ition": 1510,
    "\u2581getdc": 1511,
    "\u25810xfeee0019": 1512,
    "namea": 1513,
    "2f": 1514,
    "\u25810x84": 1515,
    "\u25810x704c": 1516,
    "\u2581msvcr": 1517,
    "\u25810xfeee001a": 1518,
    "\u25810x440": 1519,
    "\u25810x77002": 1520,
    "\u25810x4000": 1521,
    "180": 1522,
    "\u25810x708c": 1523,
    "oy": 1524,
    "\u2581aa": 1525,
    "memory": 1526,
    "ts": 1527,
    "ondition": 1528,
    "und": 1529,
    "67": 1530,
    "date": 1531,
    "2d": 1532,
    "\u25810x46b0": 1533,
    "748": 1534,
    "\u25810x405": 1535,
    "stroy": 1536,
    "ngu": 1537,
    "\u25810x44c250": 1538,
    "300": 1539,
    "\u25810x2b": 1540,
    "wait": 1541,
    "\u2581getkeyboardtype": 1542,
    "\u2581z": 1543,
    "yscolor": 1544,
    "\u2581getsyscolor": 1545,
    "308": 1546,
    "eto": 1547,
    "\u25810x4356": 1548,
    "\u25810x40a5ac": 1549,
    "\u25810x8e": 1550,
    "\u2581nt": 1551,
    "\u25810x2e": 1552,
    "\u25810xa0": 1553,
    "\u25810x67000000": 1554,
    "\u2581createfilemapping": 1555,
    "metri": 1556,
    "cy": 1557,
    "lw": 1558,
    "\u25810x43a4": 1559,
    "\u25810x44e4": 1560,
    "\u25810x83": 1561,
    "\u25810xfeee001c": 1562,
    "comp": 1563,
    "nguage": 1564,
    "\u25810x43f6": 1565,
    "\u2581getsysteminfo": 1566,
    "\u25810x45f2": 1567,
    "\u25810x4960": 1568,
    "7f": 1569,
    "sk": 1570,
    "\u25810x45f4": 1571,
    "a04": 1572,
    "gi": 1573,
    "\u25810x37": 1574,
    "valu": 1575,
    "\u25810x45f5": 1576,
    "\u25810xfeee001b": 1577,
    "\u25810x45f1": 1578,
    "\u25810x45f3": 1579,
    "\u25810x1211728": 1580,
    "\u2581u": 1581,
    "\u25810x45f6": 1582,
    "ilanguage": 1583,
    "all": 1584,
    "\u25810x437808": 1585,
    "82": 1586,
    "bstr": 1587,
    "bstrfrom": 1588,
    "\u2581shfolder": 1589,
    "\u25810xfeee014": 1590,
    "\u2581varbstrfrom": 1591,
    "ray": 1592,
    "\u25810x7f": 1593,
    "\u25810x45f7": 1594,
    "\u25810x45f8": 1595,
    "out": 1596,
    "spec": 1597,
    "\u25810x42a0": 1598,
    "\u25810x47a": 1599,
    "\u25810x45f9": 1600,
    "\u25810x45fa": 1601,
    "\u25810x40935d": 1602,
    "\u25810x40935e": 1603,
    "\u25810x40935f": 1604,
    "\u25810x409360": 1605,
    "\u25810x409361": 1606,
    "\u25810x409362": 1607,
    "\u25810x409363": 1608,
    "\u25810x437806": 1609,
    "\u25810x43780a": 1610,
    "\u25810x43780c": 1611,
    "\u25810x43780e": 1612,
    "\u25810x437810": 1613,
    "\u25810x437812": 1614,
    "\u25810x437814": 1615,
    "\u25810x437816": 1616,
    "\u25810x437818": 1617,
    "\u25810x43781a": 1618,
    "\u25810x43781c": 1619,
    "\u25810x43781e": 1620,
    "\u25810x1211f20": 1621,
    "\u25810x45fe": 1622,
    "\u25810x4601": 1623,
    "help": 1624,
    "27": 1625,
    "\u25810x79f0": 1626,
    "\u25810x45ff": 1627,
    "\u25810x46a0": 1628,
    "\u2581getuser": 1629,
    "\u2581releasedc": 1630,
    "lwapi": 1631,
    "\u2581shlwapi": 1632,
    "\u2581setenvironmentvariablea": 1633,
    "85": 1634,
    "660": 1635,
    "\u25810x45fd": 1636,
    "\u25810x1211f2c": 1637,
    "\u25810x33": 1638,
    "9000": 1639,
    "\u2581remo": 1640,
    "\u2581message": 1641,
    "\u25810x1211ccc": 1642,
    "2b": 1643,
    "imeto": 1644,
    "\u2581enum": 1645,
    "buff": 1646,
    "\u25810xfeee001d": 1647,
    "\u25810x3a": 1648,
    "\u25810x4607": 1649,
    "\u25810x1211e08": 1650,
    "\u25810x1211f88": 1651,
    "ug": 1652,
    "\u25810x121157c": 1653,
    "\u25810x41f": 1654,
    "\u25810x7d10": 1655,
    "\u2581mon": 1656,
    "\u25810x12117a4": 1657,
    "\u2581createfilemappinga": 1658,
    "\u25810x101": 1659,
    "\u25810x121178": 1660,
    "host": 1661,
    "\u25810x97": 1662,
    "metrics": 1663,
    "\u2581getversionexw": 1664,
    "\u2581getsystemmetrics": 1665,
    "yarg1": 1666,
    "\u25810x31": 1667,
    "\u25810x57": 1668,
    "\u25810x40b": 1669,
    "\u2581loadresource": 1670,
    "\u2581of": 1671,
    "21": 1672,
    "sc": 1673,
    "6d": 1674,
    "ft": 1675,
    "\u25810x42a00": 1676,
    "\u2581nov": 1677,
    "de0": 1678,
    "ynch": 1679,
    "\u2581synch": 1680,
    "len": 1681,
    "base": 1682,
    "\u2581sep": 1683,
    "\u2581messagebox": 1684,
    "c3": 1685,
    "\u258117": 1686,
    "\u2581waitf": 1687,
    "\u2581ofresource": 1688,
    "\u25810x75500000": 1689,
    "ull": 1690,
    "\u25810x98": 1691,
    "\u25810x1211efc": 1692,
    "\u2581mar": 1693,
    "\u2581error": 1694,
    "\u25810x8f70": 1695,
    "am": 1696,
    "\u2581creates": 1697,
    "51": 1698,
    "\u25810x40958": 1699,
    "29": 1700,
    "lush": 1701,
    "yarg2": 1702,
    "ersion": 1703,
    "\u25810x7ea": 1704,
    "\u2581version": 1705,
    "\u25810xfeee001f": 1706,
    "view": 1707,
    "\u2581type": 1708,
    "\u25810xfeee001e": 1709,
    "\u25810x1211d30": 1710,
    "onditionvariab": 1711,
    "\u2581oleinitialize": 1712,
    "69": 1713,
    "bers": 1714,
    "\u2581getclass": 1715,
    "\u2581getwindow": 1716,
    "\u2581tmp": 1717,
    "\u2581inst": 1718,
    "\u2581heaprealloc": 1719,
    "rw": 1720,
    "\u2581oc": 1721,
    "\u2581aug": 1722,
    "\u25810x410ac": 1723,
    "\u2581apr": 1724,
    "\u25810x1211c04": 1725,
    "aw": 1726,
    "\u25810x1211c94": 1727,
    "\u2581sun": 1728,
    "\u25810x35": 1729,
    "\u25810x3e": 1730,
    "\u25810x8cc0": 1731,
    "\u25810xfeee0020": 1732,
    "\u25810x1210ec0": 1733,
    "bit": 1734,
    "\u25810x36": 1735,
    "call": 1736,
    "\u25810x4012": 1737,
    "\u25810x1211f0": 1738,
    "\u25810x80c0": 1739,
    "\u2581lock": 1740,
    "\u2581fmode": 1741,
    "\u25810x4093e4": 1742,
    "280": 1743,
    "\u25810x1002": 1744,
    "\u2581virtualquery": 1745,
    "hem": 1746,
    "\u2581ts": 1747,
    "full": 1748,
    "\u25810x3b": 1749,
    "ub": 1750,
    "leob": 1751,
    "\u25810x2f": 1752,
    "onc": 1753,
    "\u2581tr": 1754,
    "\u2581fibers": 1755,
    "sup": 1756,
    "uary": 1757,
    "\u2581dec": 1758,
    "\u2581may": 1759,
    "\u2581sat": 1760,
    "\u25810x7090": 1761,
    "\u25810x1211748": 1762,
    "\u2581pi": 1763,
    "sday": 1764,
    "\u2581tue": 1765,
    "\u2581wed": 1766,
    "aaaaaaaa": 1767,
    "\u25810x39": 1768,
    "myarg2": 1769,
    "\u25810x41c": 1770,
    "\u25810x55": 1771,
    "soft": 1772,
    "profile": 1773,
    "\u25810x1211cc0": 1774,
    "\u2581process": 1775,
    "\u25810x1211f74": 1776,
    "ries": 1777,
    "\u25810x68": 1778,
    "\u25810xc00": 1779,
    "endoffile": 1780,
    "ei": 1781,
    "heme": 1782,
    "6b": 1783,
    "\u25810x4e50": 1784,
    "\u25810x3d": 1785,
    "main": 1786,
    "vice": 1787,
    "ad4": 1788,
    "\u2581uxt": 1789,
    "\u2581uxtheme": 1790,
    "\u2581i": 1791,
    "variant": 1792,
    "\u25810xfeee0021": 1793,
    "lip": 1794,
    "\u2581tsl": 1795,
    "stry": 1796,
    "\u25818": 1797,
    "yarg1myarg2": 1798,
    "eent": 1799,
    "icro": 1800,
    "\u25810x4614": 1801,
    "\u25810x100000": 1802,
    "\u25810x95": 1803,
    "\u25810x4800": 1804,
    "vol": 1805,
    "\u25810x7d00": 1806,
    "ileg": 1807,
    "teent": 1808,
    "teentries": 1809,
    "paletteentries": 1810,
    "il": 1811,
    "env": 1812,
    "lew": 1813,
    "drl66": 1814,
    "\u2581tsldrl66": 1815,
    "\u25810x94": 1816,
    "\u25810x1211d04": 1817,
    "\u25810x4620": 1818,
    "\u2581registerclass": 1819,
    "icrosoft": 1820,
    "\u25810x4093ec": 1821,
    "\u25810xfeee0022": 1822,
    "\u2581regquery": 1823,
    "ive": 1824,
    "item": 1825,
    "6e": 1826,
    "\u2581st": 1827,
    "spac": 1828,
    "\u25810x4012db": 1829,
    "\u25810x44e4b8": 1830,
    "61": 1831,
    "suped": 1832,
    "\u25810xaa": 1833,
    "\u25810xff8": 1834,
    "\u2581loadicon": 1835,
    "qa": 1836,
    "6f": 1837,
    "\u25810xfee": 1838,
    "rect": 1839,
    "delet": 1840,
    "\u25810x350": 1841,
    "iskfree": 1842,
    "iskfreespac": 1843,
    "\u2581getdiskfreespac": 1844,
    "as": 1845,
    "og": 1846,
    "\u25810x7850": 1847,
    "320": 1848,
    "\u25810xffff": 1849,
    "\u25810x1211f84": 1850,
    "410": 1851,
    "\u2581clo": 1852,
    "vchost": 1853,
    "\u2581setup": 1854,
    "\u25810x40b7": 1855,
    "\u25810x8d": 1856,
    "\u2581microsoft": 1857,
    "\u25810x53000000": 1858,
    "\u25810x4c4": 1859,
    "\u25810x1211a04": 1860,
    "ust": 1861,
    "fo": 1862,
    "\u25810x91": 1863,
    "\u25810x44c": 1864,
    "\u2581setdll": 1865,
    "\u25810x4bd0": 1866,
    "\u2581svchost": 1867,
    "\u25810x1211308": 1868,
    "188": 1869,
    "srw": 1870,
    "\u25810x1211578": 1871,
    "\u2581gettime": 1872,
    "\u25810x45fc": 1873,
    "\u2581getmain": 1874,
    "8d": 1875,
    "\u2581dw": 1876,
    "afear": 1877,
    "\u25810x404": 1878,
    "\u25810x1211f78": 1879,
    "\u25810x4540": 1880,
    "\u25810x47a00": 1881,
    "\u25810x169": 1882,
    "\u25810x44280": 1883,
    "l6660d": 1884,
    "\u25810x7930": 1885,
    "fp": 1886,
    "\u25810x45fb": 1887,
    "700": 1888,
    "utex": 1889,
    "volu": 1890,
    "\u25810x7cd0": 1891,
    "\u25810x85": 1892,
    "\u2581registry": 1893,
    "\u25810x5b": 1894,
    "lipboard": 1895,
    "\u2581lstrcpya": 1896,
    "\u25810x64": 1897,
    "\u25810x1211ee0": 1898,
    "b88": 1899,
    "\u2581no": 1900,
    "\u25810xfeee0024": 1901,
    "\u25810x61": 1902,
    "\u25810x89": 1903,
    "\u2581stem": 1904,
    "32next": 1905,
    "\u25810x420": 1906,
    "\u2581stem32": 1907,
    "drl6660drl6660drl6660drl6660drl6660": 1908,
    "mapi": 1909,
    "\u25810xfeee0025": 1910,
    "zero": 1911,
    "\u25810x65": 1912,
    "\u25810x1211bc0": 1913,
    "\u25810xfeee0023": 1914,
    "\u25810x4605": 1915,
    "\u2581floatingpoint": 1916,
    "ypec": 1917,
    "byzero": 1918,
    "\u25810xa000": 1919,
    "overflow": 1920,
    "isionbyzero": 1921,
    "emap": 1922,
    "\u25810x40f6": 1923,
    "\u2581dwmapi": 1924,
    "afearray": 1925,
    "\u2581cryptbase": 1926,
    "668": 1927,
    "f80": 1928,
    "\u25810x12119ac": 1929,
    "rtl": 1930,
    "\u2581getenvironmentvariab": 1931,
    "\u25817": 1932,
    "708": 1933,
    "private": 1934,
    "\u25810x508": 1935,
    "\u25810x8a40": 1936,
    "940": 1937,
    "privateprofile": 1938,
    "\u2581mei": 1939,
    "\u25810x4ab0": 1940,
    "ush": 1941,
    "\u2581rtl": 1942,
    "\u25810x40a59c": 1943,
    "\u25810x1211fcc": 1944,
    "\u25810xfeee0027": 1945,
    "\u2581filet": 1946,
    "\u2581filetimeto": 1947,
    "\u25810xfeee0026": 1948,
    "\u2581getsystempaletteentries": 1949,
    "system": 1950,
    "volume": 1951,
    "\u2581userenv": 1952,
    "\u25810x4093a5": 1953,
    "\u25810x4093a6": 1954,
    "\u25810x4093a7": 1955,
    "\u25810x4093a8": 1956,
    "\u25810x4093a9": 1957,
    "\u25810x4093aa": 1958,
    "\u25810x4093ab": 1959,
    "pos": 1960,
    "ontro": 1961,
    "ss2": 1962,
    "pass2": 1963,
    "\u25810x63": 1964,
    "\u2581closet": 1965,
    "\u2581meipass2": 1966,
    "onditionvariable": 1967,
    "\u2581closethreadpool": 1968,
    "\u2581createthreadpool": 1969,
    "ame": 1970,
    "\u2581setdlldirectoryw": 1971,
    "stringw": 1972,
    "cor": 1973,
    "ut32": 1974,
    "\u25810x66": 1975,
    "\u2581oleaut32": 1976,
    "formata": 1977,
    "\u25810x4608": 1978,
    "\u25810x1211fd4": 1979,
    "\u2581flush": 1980,
    "\u2581ext": 1981,
    "\u25810x198": 1982,
    "\u2581exem": 1983,
    "\u2581exemyarg1myarg2": 1984,
    "brush": 1985,
    "\u2581draw": 1986,
    "\u25810x414": 1987,
    "\u2581destroy": 1988,
    "\u25810x1210f64": 1989,
    "\u2581ch": 1990,
    "clus": 1991,
    "valueexa": 1992,
    "closekey": 1993,
    "\u2581regclosekey": 1994,
    "eck": 1995,
    "\u25810x450": 1996,
    "\u2581loadicona": 1997,
    "termin": 1998,
    "ontrols": 1999,
    "\u2581getwindows": 2000,
    "\u25810x424": 2001,
    "\u25810x40a5b0": 2002,
    "\u25810x42a190": 2003,
    "\u25810x1211f24": 2004,
    "\u2581mul": 2005,
    "\u2581muldiv": 2006,
    "\u2581setwindow": 2007,
    "\u25810x40a5b8": 2008,
    "568": 2009,
    "\u25810x7ff": 2010,
    "548": 2011,
    "\u25810x4604": 2012,
    "\u25810x40a5ae": 2013,
    "\u25810x40a5b2": 2014,
    "\u25810x40a5b4": 2015,
    "\u25810x40a5b6": 2016,
    "\u25810x40a5ba": 2017,
    "\u25810x437820": 2018,
    "\u25810x1211508": 2019,
    "\u25810x1211e44": 2020,
    "\u25810xfeee0028": 2021,
    "\u2581controlfp": 2022,
    "bool": 2023,
    "\u2581varr": 2024,
    "4fromstr": 2025,
    "\u2581map": 2026,
    "\u25810xe0": 2027,
    "\u2581termin": 2028,
    "\u25810x30000": 2029,
    "\u2581lstrcpynw": 2030,
    "\u25810x40a540": 2031,
    "\u25810x437804": 2032,
    "\u2581shgetfile": 2033,
    "\u25810x41f6": 2034,
    "\u2581findfirstfilea": 2035,
    "\u25810x7700": 2036,
    "\u25810x10005c": 2037,
    "\u25810xfeee018": 2038,
    "\u2581getclassinfoa": 2039,
    "ec0": 2040,
    "\u25810x19a": 2041,
    "\u25810x7ad0": 2042,
    "\u25810x7ec0": 2043,
    "\u25810x8260": 2044,
    "\u25810x4602": 2045,
    "\u25810x40a53a": 2046,
    "\u25810x40a53c": 2047,
    "\u25810x40a53e": 2048,
    "\u25810x40a542": 2049,
    "\u25810x40a544": 2050,
    "\u2581initializes": 2051,
    "ken": 2052,
    "\u25810x40a546": 2053,
    "ecute": 2054,
    "exclus": 2055,
    "\u2581corex": 2056,
    "srwlock": 2057,
    "\u25810x4400": 2058,
    "exclusive": 2059,
    "srwlockexclusive": 2060,
    "lg": 2061,
    "special": 2062,
    "\u2581charpre": 2063,
    "specialfolder": 2064,
    "\u2581shgetspecialfolder": 2065,
    "\u2581commode": 2066,
    "\u2581findnext": 2067,
    "\u25810x1211e58": 2068,
    "b2b": 2069,
    "state": 2070,
    "\u25810x42c0": 2071,
    "\u2581corexitprocess": 2072,
    "\u2581currentversion": 2073,
    "\u2581ns": 2074,
    "\u25810x1808": 2075,
    "data": 2076,
    "\u25810x478": 2077,
    "\u25810x1211f64": 2078,
    "26c": 2079,
    "ink": 2080,
    "\u25810x5c": 2081,
    "\u25810x42a403": 2082,
    "\u25810x42a404": 2083,
    "\u25810x42a405": 2084,
    "\u25810x42a406": 2085,
    "\u25810x42a407": 2086,
    "\u25810x42a408": 2087,
    "\u25810x42a409": 2088,
    "\u25810x42a40a": 2089,
    "\u25810x42a40b": 2090,
    "\u25810x42a40c": 2091,
    "\u25810x42a40d": 2092,
    "\u25810x42a40e": 2093,
    "\u25810x42a40f": 2094,
    "\u2581nsis": 2095,
    "viewoffile": 2096,
    "\u2581nsiserror": 2097,
    "aa8": 2098,
    "orsing": 2099,
    "orsingleob": 2100,
    "\u2581setfileattribute": 2101,
    "\u2581po": 2102,
    "informationby": 2103,
    "\u2581sys": 2104,
    "c1": 2105,
    "th": 2106,
    "\u25810xb0": 2107,
    "\u25810x1211928": 2108,
    "\u2581getvolume": 2109,
    "\u2581getvolumeinformation": 2110,
    "f08": 2111,
    "\u25810xfeee016": 2112,
    "\u2581messageboxa": 2113,
    "\u25810xa8": 2114,
    "\u25810xfeee002a": 2115,
    "namew": 2116,
    "\u25810xfeee002d": 2117,
    "\u25810x92": 2118,
    "\u25810x96": 2119,
    "\u25810x435000": 2120,
    "\u25813": 2121,
    "\u25810x4614d0": 2122,
    "\u2581noaccess": 2123,
    "\u2581lockresource": 2124,
    "\u25810xfeee0029": 2125,
    "\u2581waitforsingleob": 2126,
    "\u25810x9c": 2127,
    "palette": 2128,
    "\u2581createthread": 2129,
    "\u2581findfirstfilew": 2130,
    "head": 2131,
    "\u25810x181": 2132,
    "arc": 2133,
    "\u25810xfeee002c": 2134,
    "\u2581sldrl6660drl6660drl6660drl6660drl6660drl6660drl6660drl6660": 2135,
    "\u25810x7de4": 2136,
    "\u25810x7de5": 2137,
    "\u25810x1211f00": 2138,
    "\u25810xfeee002f": 2139,
    "orsafearray": 2140,
    "\u25810xfeee002e": 2141,
    "back": 2142,
    "\u25810xfeee002b": 2143,
    "d24": 2144,
    "ork": 2145,
    "atex": 2146,
    "\u2581err": 2147,
    "\u2581drag": 2148,
    "commonc": 2149,
    "\u25810x120f": 2150,
    "\u25810x407b": 2151,
    "\u2581initcommonc": 2152,
    "\u2581initcommoncontrols": 2153,
    "\u2581ac": 2154,
    "\u2581form": 2155,
    "\u2581rand": 2156,
    "\u2581registerwindow": 2157,
    "8e": 2158,
    "emutex": 2159,
    "buffers": 2160,
    "callback": 2161,
    "\u25810x406": 2162,
    "\u25810x4af460": 2163,
    "\u25810x1211dc8": 2164,
    "100": 2165,
    "7c8": 2166,
    "ument": 2167,
    "\u25810x26": 2168,
    "\u2581code": 2169,
    "\u25810x4196": 2170,
    "pooltimer": 2171,
    "que": 2172,
    "\u25810xa7": 2173,
    "\u25810x480": 2174,
    "\u25810x4700": 2175,
    "gear": 2176,
    "\u2581codegear": 2177,
    "\u258132": 2178,
    "coree": 2179,
    "\u2581mscoree": 2180,
    "\u25810xfeee0030": 2181,
    "\u2581move": 2182,
    "83": 2183,
    "token": 2184,
    "irectory": 2185,
    "createkey": 2186,
    "edirectory": 2187,
    "\u25810xfeee0031": 2188,
    "\u2581regcreatekey": 2189,
    "ast": 2190,
    "ire": 2191,
    "\u2581exit": 2192,
    "\u25810xb000": 2193,
    "\u25810x1211e40": 2194,
    "ename": 2195,
    "\u25810x4d70": 2196,
    "\u25810x7270": 2197,
    "\u25810xfeee0033": 2198,
    "mask": 2199,
    "\u25810x509": 2200,
    "\u25810xfeee0032": 2201,
    "\u2581createsemap": 2202,
    "8b": 2203,
    "\u25810x1211db8": 2204,
    "\u2581shgetspecialfolderw": 2205,
    "\u2581prec": 2206,
    "\u2581point": 2207,
    "\u2581errata": 2208,
    "\u2581precision": 2209,
    "\u2581createprocess": 2210,
    "con": 2211,
    "4e": 2212,
    "\u2581cop": 2213,
    "\u25810x430": 2214,
    "\u25810x88c0": 2215,
    "\u25810x10b": 2216,
    "\u25810xfeee0034": 2217,
    "\u25810x4e39": 2218,
    "\u25810x7bd0": 2219,
    "\u25810xfeee0035": 2220,
    "ais": 2221,
    "roll": 2222,
    "\u25810x40a66": 2223,
    "\u25810x40935c": 2224,
    "\u25810x5b2b": 2225,
    "\u25810xfeee0046": 2226,
    "\u25810x432": 2227,
    "\u25810x644": 2228,
    "\u25810x4af478": 2229,
    "quire": 2230,
    "\u25810xb8": 2231,
    "\u25810xfeee0045": 2232,
    "erre": 2233,
    "\u25810x40f": 2234,
    "\u25810xfeee0036": 2235,
    "\u25810xfeee0037": 2236,
    "47": 2237,
    "code": 2238,
    "\u25810x1211f04": 2239,
    "\u25810x140": 2240,
    "\u25810x40e5": 2241,
    "\u25810x4710": 2242,
    "\u25810xfeee0038": 2243,
    "areex": 2244,
    "\u2581rais": 2245,
    "ervice": 2246,
    "\u2581raiseex": 2247,
    "compareex": 2248,
    "\u25810x1211ea": 2249,
    "\u25810xfeee003d": 2250,
    "\u25810xfeee0047": 2251,
    "\u2581raiseexception": 2252,
    "\u2581interlockedcompareex": 2253,
    "delete": 2254,
    "\u2581remov": 2255,
    "\u25810x80000000": 2256,
    "\u25810xfeee003e": 2257,
    "\u2581gettempw": 2258,
    "648": 2259,
    "\u25810x78a0": 2260,
    "\u25810x1211f80": 2261,
    "\u2581interlockedcompareexchange": 2262,
    "a81": 2263,
    "d500": 2264,
    "\u25810xfeee003a": 2265,
    "\u25810xfeee003b": 2266,
    "808": 2267,
    "hor": 2268,
    "\u25810xfeee004a": 2269,
    "\u2581q": 2270,
    "toma": 2271,
    "\u2581msvcr90": 2272,
    "\u25810x1211f50": 2273,
    "\u25810xfeee0040": 2274,
    "\u25810x27": 2275,
    "\u25810x81": 2276,
    "\u25810x4630": 2277,
    "\u25810xfeee003f": 2278,
    "\u25810xfeee0041": 2279,
    "\u25810xfeee0043": 2280,
    "\u25810xfeee0048": 2281,
    "\u25810xa4": 2282,
    "\u25810x7300": 2283,
    "\u25810xfeee0039": 2284,
    "\u25810xfeee0044": 2285,
    "\u2581createwindow": 2286,
    "\u25810xc8": 2287,
    "\u2581copy": 2288,
    "\u25810x4300": 2289,
    "\u2581strlen": 2290,
    "listhead": 2291,
    "\u25810xfeee0042": 2292,
    "\u2581initializeslisthead": 2293,
    "\u25810x7c90": 2294,
    "\u25810xfeee003c": 2295,
    "81": 2296,
    "ca": 2297,
    "aa40": 2298,
    "\u25810xfeee0049": 2299,
    "\u25810xfeee004b": 2300,
    "\u25810xfeee004d": 2301,
    "pref": 2302,
    "\u25810x43f00": 2303,
    "\u25810xfeee004c": 2304,
    "\u2581createdirectorya": 2305,
    "\u2581getfileattributesa": 2306,
    "c6": 2307,
    "ialog": 2308,
    "fac": 2309,
    "exit": 2310,
    "8f": 2311,
    "enum": 2312,
    "\u25810xa3": 2313,
    "\u2581globalfree": 2314,
    "c9": 2315,
    "\u2581ntdll": 2316,
    "\u2581cl": 2317,
    "localtime": 2318,
    "ec8": 2319,
    "driv": 2320,
    "ethread": 2321,
    "\u2581getdate": 2322,
    "ech": 2323,
    "able": 2324,
    "gn": 2325,
    "ool": 2326,
    "sourcew": 2327,
    "setinformation": 2328,
    "\u25810x6d": 2329,
    "\u25810x86": 2330,
    "\u25810x9b": 2331,
    "\u25810x71b0": 2332,
    "\u25810x7540": 2333,
    "\u25810x8814": 2334,
    "\u25810xfeee0055": 2335,
    "sn": 2336,
    "wind": 2337,
    "\u25810xfeee005e": 2338,
    "\u2581getuserdefault": 2339,
    "lect": 2340,
    "\u25810xfeed": 2341,
    "ta": 2342,
    "\u25810x7150": 2343,
    "\u25810x7a80": 2344,
    "\u25810xfeee0050": 2345,
    "\u25810xb3": 2346,
    "\u25810x59e": 2347,
    "\u25810x44d2": 2348,
    "\u2581format": 2349,
    "\u2581strcpy": 2350,
    "\u25810xfeee004e": 2351,
    "\u2581registerclipboard": 2352,
    "\u2581unhandledexceptionfilter": 2353,
    "004": 2354,
    "\u25810x9a": 2355,
    "valuea": 2356,
    "\u25810xfeee0054": 2357,
    "\u2581exp": 2358,
    "\u25810x7340": 2359,
    "\u2581setupapi": 2360,
    "\u25810x1211ef8": 2361,
    "\u25810x93": 2362,
    "\u25810xa1": 2363,
    "\u25810x5ab0": 2364,
    "ans": 2365,
    "par": 2366,
    "\u25810x59": 2367,
    "\u25810x4bb0": 2368,
    "\u25810x8815": 2369,
    "\u2581getfull": 2370,
    "\u25810x409364": 2371,
    "\u25810xfeee004f": 2372,
    "\u25810xfeee0053": 2373,
    "\u2581ws2": 2374,
    "\u25810xac": 2375,
    "\u2581rtlun": 2376,
    "\u25810x1211e28": 2377,
    "\u25810xfeee0052": 2378,
    "erredu": 2379,
    "\u25810x7900": 2380,
    "preferredu": 2381,
    "\u2581rtlunwind": 2382,
    "\u25810xfeee0051": 2383,
    "\u25810xfeee0064": 2384,
    "\u2581findresourcew": 2385,
    "preferreduilanguage": 2386,
    "iled": 2387,
    "\u25810xffe1": 2388,
    "\u25810x12111": 2389,
    "c5": 2390,
    "di": 2391,
    "\u2581fe": 2392,
    "\u25810x1211dbc": 2393,
    "\u25810xfeee0056": 2394,
    "format": 2395,
    "\u25810x73f0": 2396,
    "\u25810xfeee005c": 2397,
    "\u25816": 2398,
    "hook": 2399,
    "\u25810xa2": 2400,
    "bitmap": 2401,
    "\u25810xfeee0057": 2402,
    "723": 2403,
    "\u25810x4603": 2404,
    "\u25810x1211e14": 2405,
    "\u25810x7aa40": 2406,
    "\u25810x121193c": 2407,
    "\u25810xfeee005f": 2408,
    "\u2581getsystemtime": 2409,
    "preferreduilanguages": 2410,
    "b08": 2411,
    "ong": 2412,
    "\u2581send": 2413,
    "\u25810xfeee0059": 2414,
    "\u25810xfeee005a": 2415,
    "\u2581heapsetinformation": 2416,
    "108": 2417,
    "files": 2418,
    "echeck": 2419,
    "32first": 2420,
    "\u25810x7d50": 2421,
    "\u25810xfeee0058": 2422,
    "\u25810xfeee0063": 2423,
    "740": 2424,
    "meta": 2425,
    "\u25810xffe0": 2426,
    "\u25810xfeee005b": 2427,
    "\u25810xfeee0065": 2428,
    "\u2581setfilepointerex": 2429,
    "pack": 2430,
    "\u25810x4df0": 2431,
    "\u25810x7d94": 2432,
    "\u25810x7d95": 2433,
    "\u25810x1211e50": 2434,
    "\u2581setendoffile": 2435,
    "\u25810x461518": 2436,
    "\u2581findwindow": 2437,
    "aa4": 2438,
    "croll": 2439,
    "\u25810xa6": 2440,
    "\u25810x4095": 2441,
    "\u25810x72a0": 2442,
    "\u2581getprivateprofile": 2443,
    "rl6660d": 2444,
    "\u2581apphelp": 2445,
    "\u2581tsldrl666": 2446,
    "\u25810xfeee0060": 2447,
    "\u25810xfeee0068": 2448,
    "cd": 2449,
    "\u25810xffe4": 2450,
    "\u2581oleacc": 2451,
    "\u25810xfeee0061": 2452,
    "atq": 2453,
    "ops": 2454,
    "bcatq": 2455,
    "opsys": 2456,
    "\u25810x40b4": 2457,
    "\u2581clbcatq": 2458,
    "\u2581propsys": 2459,
    "\u25810x1211ed": 2460,
    "\u2581regdelete": 2461,
    "aff": 2462,
    "500000": 2463,
    "\u25810x46b": 2464,
    "\u25810x4010": 2465,
    "\u25810xfeee005d": 2466,
    "\u25810xfeee0062": 2467,
    "\u25810xfeee0069": 2468,
    "long": 2469,
    "\u25810xfeee0066": 2470,
    "\u2581y": 2471,
    "menuitem": 2472,
    "\u25810x1211f70": 2473,
    "\u25810x584": 2474,
    "\u2581createdirectoryw": 2475,
    "cb": 2476,
    "\u2581sept": 2477,
    "\u2581getexit": 2478,
    "\u2581terminate": 2479,
    "008": 2480,
    "\u2581oct": 2481,
    "\u25810x78d0": 2482,
    "\u25810x40a582": 2483,
    "\u25810x40a584": 2484,
    "\u25810x40a586": 2485,
    "\u25810x40a588": 2486,
    "\u25810x40a58a": 2487,
    "\u2581registerclassa": 2488,
    "\u25810x600": 2489,
    "\u25810xfeee0067": 2490,
    "\u25810x3f3": 2491,
    "\u2581module": 2492,
    "\u25810x40a580": 2493,
    "\u25810x1211790": 2494,
    "name": 2495,
    "\u25810x46c0": 2496,
    "\u25810x1211dfc": 2497,
    "\u2581terminateprocess": 2498,
    "\u25810x40a3d1": 2499,
    "\u25810x40a3d2": 2500,
    "\u25810x40a3d3": 2501,
    "\u25810x40a57e": 2502,
    "\u25810x1211e2c": 2503,
    "hot": 2504,
    "lation": 2505,
    "\u25810xffbb": 2506,
    "\u25810x1211f5c": 2507,
    "\u25810xffb8": 2508,
    "\u25810xffb9": 2509,
    "\u25810xffbc": 2510,
    "\u25810xffbd": 2511,
    "\u25810xffbe": 2512,
    "\u25810xfffe": 2513,
    "\u25810x77000": 2514,
    "localename": 2515,
    "802": 2516,
    "\u25810x5375": 2517,
    "\u25810xffb6": 2518,
    "\u25810xffb7": 2519,
    "\u25810xffba": 2520,
    "\u25810xffe5": 2521,
    "bl": 2522,
    "\u2581feb": 2523,
    "\u25810x7b40": 2524,
    "\u25810xffb5": 2525,
    "\u25810xfffc": 2526,
    "\u2581regset": 2527,
    "\u25810x10000000": 2528,
    "\u25810x1009": 2529,
    "\u25810xffe2": 2530,
    "\u25810xfffd": 2531,
    "privileg": 2532,
    "\u25810x12112": 2533,
    "instruction": 2534,
    "\u2581getlocaltime": 2535,
    "add": 2536,
    "eb8": 2537,
    "une": 2538,
    "\u25810x6b": 2539,
    "\u25810x4e30": 2540,
    "564": 2541,
    "cre": 2542,
    "\u2581run": 2543,
    "tober": 2544,
    "\u2581febr": 2545,
    "\u2581april": 2546,
    "\u2581august": 2547,
    "\u2581november": 2548,
    "\u2581september": 2549,
    "ert": 2550,
    "\u25810x2d4": 2551,
    "\u25810xfffb": 2552,
    "\u25810x410acd": 2553,
    "\u25810x410ace": 2554,
    "\u25810x46b188": 2555,
    "\u2581removedirectory": 2556,
    "\u25810xfeee006b": 2557,
    "\u25810xfeee0077": 2558,
    "eni": 2559,
    "\u2581crt": 2560,
    "bound": 2561,
    "\u25810x7ab0": 2562,
    "\u2581show": 2563,
    "handler": 2564,
    "\u25810x44c4": 2565,
    "\u2581loc": 2566,
    "gical": 2567,
    "\u25810xffbf": 2568,
    "\u25810xfeee0070": 2569,
    "\u25810xfeee0079": 2570,
    "oem": 2571,
    "ypea": 2572,
    "apshot": 2573,
    "\u25810x403": 2574,
    "logical": 2575,
    "\u25810x1005": 2576,
    "\u25810x76500000": 2577,
    "284": 2578,
    "hore": 2579,
    "\u25810x7be0": 2580,
    "\u25810xffe6": 2581,
    "\u25810x40a3d4": 2582,
    "\u25810x584d24": 2583,
    "\u25810x1211a44": 2584,
    "\u25810x1211e1c": 2585,
    "\u25810x1211fc8": 2586,
    "\u25810xfeee006a": 2587,
    "\u2581getenvironmentvariablew": 2588,
    "help32": 2589,
    "\u25810x7750": 2590,
    "\u25810xffb4": 2591,
    "\u2581localiz": 2592,
    "\u2581regenum": 2593,
    "oolhelp32": 2594,
    "\u2581getlogical": 2595,
    "\u2581localization": 2596,
    "quiresrwlockexclusive": 2597,
    "\u2581initcommoncontrolsex": 2598,
    "dlg": 2599,
    "emb": 2600,
    "work": 2601,
    "urity": 2602,
    "\u25810x51": 2603,
    "\u25810x7690": 2604,
    "\u25810x12110": 2605,
    "\u25815": 2606,
    "\u25810x412": 2607,
    "\u25810x43f": 2608,
    "\u25810x41ce": 2609,
    "\u25810x42eb": 2610,
    "snapshot": 2611,
    "oolhelp32snapshot": 2612,
    "\u2581createtoolhelp32snapshot": 2613,
    "cef": 2614,
    "pla": 2615,
    "\u25810x41d8": 2616,
    "\u25810x4364": 2617,
    "\u25810xfeee0078": 2618,
    "\u2581deletefilew": 2619,
    "ym": 2620,
    "uly": 2621,
    "anuary": 2622,
    "\u2581march": 2623,
    "\u25810x7060": 2624,
    "\u2581october": 2625,
    "\u2581december": 2626,
    "\u2581february": 2627,
    "\u2581getwindowsdirectorya": 2628,
    "link": 2629,
    "failed": 2630,
    "nesday": 2631,
    "\u2581monday": 2632,
    "\u2581sunday": 2633,
    "\u2581tuesday": 2634,
    "\u25810x42a402": 2635,
    "\u25810x42a410": 2636,
    "\u25810x7f8003": 2637,
    "\u25810x7f8004": 2638,
    "\u25810x7f8005": 2639,
    "\u25810x7f8006": 2640,
    "\u25810x7f8007": 2641,
    "\u25810x7f8008": 2642,
    "\u25810x7f8009": 2643,
    "\u25810x7f800a": 2644,
    "\u25810x7f800b": 2645,
    "\u25810x7f800c": 2646,
    "\u25810x7f800d": 2647,
    "\u25810x7f800e": 2648,
    "\u25810x7f800f": 2649,
    "\u2581wednesday": 2650,
    "\u25810xfeee006e": 2651,
    "e04": 2652,
    "ffc": 2653,
    "stat": 2654,
    "\u2581thu": 2655,
    "\u25810x4041": 2656,
    "\u25810x41f6c0": 2657,
    "\u25810x41f750": 2658,
    "\u25810x41f780": 2659,
    "\u25810x121178c": 2660,
    "\u25810xfeee006c": 2661,
    "\u2581getdiskfreespaceexa": 2662,
    "\u2581con": 2663,
    "ursday": 2664,
    "\u25810x110": 2665,
    "\u25810x364": 2666,
    "\u25810x990": 2667,
    "\u25810x45b1": 2668,
    "\u25810x3f2000": 2669,
    "\u2581thursday": 2670,
    "\u25810xfeee006f": 2671,
    "\u25810xfeee007a": 2672,
    "oom": 2673,
    "iday": 2674,
    "\u2581fri": 2675,
    "urday": 2676,
    "unlock": 2677,
    "varian": 2678,
    "\u25810x99a0": 2679,
    "\u25810xfffa": 2680,
    "\u2581friday": 2681,
    "formatex": 2682,
    "\u2581saturday": 2683,
    "\u25810xfeee007b": 2684,
    "\u2581registerwindowmessagew": 2685,
    "blt": 2686,
    "eek": 2687,
    "texta": 2688,
    "status": 2689,
    "\u25810xffb3": 2690,
    "\u25810xfeee0076": 2691,
    "\u2581process32next": 2692,
    "index": 2693,
    "\u25810x72d0": 2694,
    "\u25810xfeee006d": 2695,
    "fx": 2696,
    "\u2581div": 2697,
    "\u25810x401": 2698,
    "\u25810x77e0": 2699,
    "\u2581remove": 2700,
    "\u25810xfeee0094": 2701,
    "bk": 2702,
    "nal": 2703,
    "\u25810x45d3": 2704,
    "\u25810x74e0": 2705,
    "\u25810xffb1": 2706,
    "\u2581registerclipboardformata": 2707,
    "\u25810x7210": 2708,
    "\u25810xffb0": 2709,
    "\u25810xffb2": 2710,
    "\u25810xffcd": 2711,
    "\u25810xffcf": 2712,
    "\u25810x7c000": 2713,
    "\u25810x40a3d5": 2714,
    "\u25810x40a3d6": 2715,
    "\u25810x40a3d7": 2716,
    "\u25810x1211784": 2717,
    "\u25810xfeee0074": 2718,
    "\u2581dup": 2719,
    "\u25810xad": 2720,
    "\u2581outof": 2721,
    "\u25810x40b8": 2722,
    "\u25810x7a50": 2723,
    "\u25810xfff9": 2724,
    "\u25810x1211cd0": 2725,
    "\u25810x1211fc4": 2726,
    "\u25810xfeee0071": 2727,
    "\u25810xfeee0073": 2728,
    "\u2581outofmemory": 2729,
    "os": 2730,
    "e00": 2731,
    "\u25810xc0": 2732,
    "\u25810x1211d7c": 2733,
    "\u25810x1211ddc": 2734,
    "\u2581wts": 2735,
    "olation": 2736,
    "security": 2737,
    "\u25810x435018": 2738,
    "zone": 2739,
    "\u25810xcf": 2740,
    "\u25810xffa0": 2741,
    "\u25810xffce": 2742,
    "\u25810x435002": 2743,
    "\u25810x435004": 2744,
    "\u25810x435006": 2745,
    "\u25810x435008": 2746,
    "\u25810x43500a": 2747,
    "\u25810x43500c": 2748,
    "\u25810x43500e": 2749,
    "\u25810x435010": 2750,
    "\u25810x435014": 2751,
    "\u25810x435016": 2752,
    "\u25810x1211cb8": 2753,
    "\u25810xfeee0072": 2754,
    "tive": 2755,
    "\u2581ass": 2756,
    "\u25810xfeee0075": 2757,
    "\u25810xfeee007c": 2758,
    "\u2581gettimezone": 2759,
    "\u2581gettimezoneinformation": 2760,
    "184": 2761,
    "ext": 2762,
    "uter": 2763,
    "\u25810x160": 2764,
    "\u25810xffa1": 2765,
    "\u2581interfac": 2766,
    "\u25819": 2767,
    "\u25810x10021f": 2768,
    "\u25810xffa2": 2769,
    "metafile": 2770,
    "\u2581gettempfilena": 2771,
    "4f": 2772,
    "keyw": 2773,
    "\u25810x6c": 2774,
    "\u25810x7ae0": 2775,
    "\u2581lstrcmpi": 2776,
    "\u25810x1211f34": 2777,
    "698": 2778,
    "mbb": 2779,
    "org": 2780,
    "\u2581ismbb": 2781,
    "\u25810x4195": 2782,
    "\u25810x75d0": 2783,
    "computer": 2784,
    "\u25810x435403": 2785,
    "\u25810x435404": 2786,
    "\u25810x435405": 2787,
    "\u25810x435406": 2788,
    "\u2581ismbblead": 2789,
    "\u2581regqueryvalueexa": 2790,
    "\u25810xaf": 2791,
    "\u2581comm": 2792,
    "\u25810x7600": 2793,
    "\u25810xffe7": 2794,
    "\u2581exception": 2795,
    "\u25810xab": 2796,
    "\u25810x120ee": 2797,
    "\u25810x1211ad4": 2798,
    "\u2581getcomputer": 2799,
    "las": 2800,
    "\u25810x57c": 2801,
    "\u25810x40ab": 2802,
    "\u25810x7660": 2803,
    "\u25810x435407": 2804,
    "\u2581charpreva": 2805,
    "d30": 2806,
    "load": 2807,
    "anget": 2808,
    "ecall": 2809,
    "orgex": 2810,
    "\u25810xffa3": 2811,
    "d40": 2812,
    "b000": 2813,
    "\u25810xa5": 2814,
    "\u25810xffe3": 2815,
    "violation": 2816,
    "a4c4": 2817,
    "\u25810x419": 2818,
    "\u25810xffc6": 2819,
    "\u25810x435408": 2820,
    "\u25810x435409": 2821,
    "\u25810x43540a": 2822,
    "\u25810x43540b": 2823,
    "\u25810x43540c": 2824,
    "\u2581shgetfileinfoa": 2825,
    "5c4": 2826,
    "\u2581up": 2827,
    "\u2581priv": 2828,
    "\u25810xffcb": 2829,
    "exception": 2830,
    "\u2581createmutex": 2831,
    "e48": 2832,
    "3880": 2833,
    "drivet": 2834,
    "afecall": 2835,
    "\u25810xffa4": 2836,
    "\u25810x40593": 2837,
    "\u25810x1211ea0": 2838,
    "\u2581getdrivet": 2839,
    "kg": 2840,
    "ater": 2841,
    "\u25810x76f0": 2842,
    "\u25810x7ec1": 2843,
    "\u25810x435012": 2844,
    "\u25810x43540d": 2845,
    "\u2581createpalette": 2846,
    "ins": 2847,
    "lec": 2848,
    "d000": 2849,
    "\u25810x502": 2850,
    "\u2581stack": 2851,
    "\u25810x7390": 2852,
    "\u2581memset": 2853,
    "\u25810xfeee01c": 2854,
    "lex": 2855,
    "ecte": 2856,
    "calls": 2857,
    "teger": 2858,
    "\u25810x9f": 2859,
    "ertion": 2860,
    "\u25810x76c0": 2861,
    "\u2581integer": 2862,
    "\u25810x54a4c4": 2863,
    "\u2581assertion": 2864,
    "\u25810x77000723": 2865,
    "\u25810xfeee0081": 2866,
    "\u2581getfileinformationby": 2867,
    "found": 2868,
    "reque": 2869,
    "changet": 2870,
    "\u25810x53e0": 2871,
    "\u25810x75a0": 2872,
    "\u25810x43540e": 2873,
    "\u25810x43540f": 2874,
    "\u25810x1211f18": 2875,
    "\u25810xfeee007e": 2876,
    "\u2581interfacen": 2877,
    "\u2581globalunlock": 2878,
    "\u2581variantchanget": 2879,
    "\u2581accessviolation": 2880,
    "45": 2881,
    "2de0": 2882,
    "\u25810x40c4": 2883,
    "\u25810x7720": 2884,
    "\u25810x429000": 2885,
    "\u25810x1211d2c": 2886,
    "\u25810xfeee007d": 2887,
    "\u25810xfeee0086": 2888,
    "5c8": 2889,
    "\u2581emb": 2890,
    "adero": 2891,
    "ernal": 2892,
    "\u25810x7ba0": 2893,
    "\u2581embarc": 2894,
    "\u25810x1211e4c": 2895,
    "\u25810xfeee007f": 2896,
    "\u2581embarcadero": 2897,
    "10c": 2898,
    "ere": 2899,
    "atch": 2900,
    "00210": 2901,
    "\u2581disk": 2902,
    "\u25810x1210c": 2903,
    "\u25810xfeee0082": 2904,
    "l6660drl6660drl6660drl6660drl6660drl6660drl6660drl6660drl6660": 2905,
    "any": 2906,
    "deni": 2907,
    "\u25810x4d50": 2908,
    "\u25810x7030": 2909,
    "\u25810xffa5": 2910,
    "\u25810xfff7": 2911,
    "\u25810xfeee0080": 2912,
    "\u25810xfeee0087": 2913,
    "\u25810x42c": 2914,
    "\u25810x181b": 2915,
    "\u25810x4066": 2916,
    "\u25810x4086": 2917,
    "\u25810x7240": 2918,
    "\u25810x7870": 2919,
    "\u25810xffa6": 2920,
    "\u25810xffcc": 2921,
    "\u2581duplic": 2922,
    "\u25810x4e2de0": 2923,
    "\u25810x1211ec8": 2924,
    "\u25810xfeee0083": 2925,
    "da0": 2926,
    "ccess": 2927,
    "\u25810x40a0": 2928,
    "\u25810x7a20": 2929,
    "filename": 2930,
    "\u25810x409411": 2931,
    "\u25810x409412": 2932,
    "\u25810x409413": 2933,
    "\u25810x409414": 2934,
    "\u25810x409415": 2935,
    "\u25810x409416": 2936,
    "\u25810x409417": 2937,
    "\u25810x44d250": 2938,
    "\u2581external": 2939,
    "\u25810x1211c08": 2940,
    "\u2581x0": 2941,
    "\u25810x7180": 2942,
    "\u25810xffa7": 2943,
    "insafecall": 2944,
    "\u2581exceptioninsafecall": 2945,
    "bits": 2946,
    "under": 2947,
    "\u25810x5d": 2948,
    "\u25810x71e0": 2949,
    "notfound": 2950,
    "\u25810xfeee0084": 2951,
    "\u25810xfeee0085": 2952,
    "a84": 2953,
    "pip": 2954,
    "affin": 2955,
    "\u25810xd8": 2956,
    "ileged": 2957,
    "itymask": 2958,
    "\u25810x120de": 2959,
    "\u25810x12108": 2960,
    "\u2581privileged": 2961,
    "affinitymask": 2962,
    "ret": 2963,
    "inst": 2964,
    "verflow": 2965,
    "ypecast": 2966,
    "\u25810x8090": 2967,
    "leaccess": 2968,
    "\u25810x1211edc": 2969,
    "cid": 2970,
    "clas": 2971,
    "\u2581chit": 2972,
    "\u2581rang": 2973,
    "\u2581toom": 2974,
    "classt": 2975,
    "pointo": 2976,
    "anyopen": 2977,
    "\u25810x4235": 2978,
    "callsnot": 2979,
    "creating": 2980,
    "floating": 2981,
    "\u2581shellex": 2982,
    "\u25810x121188": 2983,
    "echeckerror": 2984,
    "anyopenfiles": 2985,
    "callsnotsuped": 2986,
    "classtypecast": 2987,
    "floatingpoint": 2988,
    "pointoverflow": 2989,
    "divisionbyzero": 2990,
    "\u2581errorcreating": 2991,
    "\u2581divisionbyzero": 2992,
    "pointeroperation": 2993,
    "\u2581assertionfailed": 2994,
    "\u2581integeroverflow": 2995,
    "\u2581invalidfilename": 2996,
    "\u2581rangecheckerror": 2997,
    "\u2581toomanyopenfiles": 2998,
    "\u2581errorcreatingvariant": 2999,
    "\u2581invalidfloatingpoint": 3000,
    "\u2581variantcallsnotsuped": 3001,
    "\u2581floatingpointoverflow": 3002,
    "\u2581floatingpointdivisionbyzero": 3003,
    "\u2581invalidfloatingpointoperation": 3004,
    "bey": 3005,
    "outof": 3006,
    "beyond": 3007,
    "bounds": 3008,
    "denied": 3009,
    "ttypec": 3010,
    "\u2581lstrc": 3011,
    "numeric": 3012,
    "otsuped": 3013,
    "\u25810x4cb0": 3014,
    "\u25810xffc7": 3015,
    "ttypecon": 3016,
    "\u25810x43440": 3017,
    "underflow": 3018,
    "\u2581diskfull": 3019,
    "indexoutof": 3020,
    "\u25810x12116c0": 3021,
    "\u25810xfeee008c": 3022,
    "\u2581fileaccess": 3023,
    "\u2581readbeyond": 3024,
    "numericinput": 3025,
    "varianttypecon": 3026,
    "\u2581stackoverflow": 3027,
    "\u2581invalidvariant": 3028,
    "indexoutofbounds": 3029,
    "conditionvariable": 3030,
    "\u2581fileaccessdenied": 3031,
    "\u2581externalexception": 3032,
    "\u2581interfacenotsuped": 3033,
    "\u2581invalidnumericinput": 3034,
    "\u2581readbeyondendoffile": 3035,
    "varianttypeconversion": 3036,
    "\u2581invalidclasstypecast": 3037,
    "\u2581privilegedinstruction": 3038,
    "\u2581floatingpointunderflow": 3039,
    "\u2581invalidpointeroperation": 3040,
    "\u2581invalidvariantoperation": 3041,
    "\u2581invalidvarianttypeconversion": 3042,
    "\u25810x188": 3043,
    "\u25810x407": 3044,
    "\u25810xfeee0088": 3045,
    "\u25810xfeee0089": 3046,
    "ncy": 3047,
    "sti": 3048,
    "\u25810x87": 3049,
    "\u25810x77b0": 3050,
    "\u25810x7990": 3051,
    "argument": 3052,
    "cefreque": 3053,
    "cefrequency": 3054,
    "\u25810xfeee008b": 3055,
    "\u25810xfeee008e": 3056,
    "\u2581getenvironmentstring": 3057,
    "\u2581queryperformancefrequency": 3058,
    "de8": 3059,
    "5000": 3060,
    "lorer": 3061,
    "\u25810x41e": 3062,
    "\u25810x40a6": 3063,
    "\u25810x4222": 3064,
    "\u25810xffca": 3065,
    "\u2581findnextfilea": 3066,
    "6e0": 3067,
    "mod": 3068,
    "nam": 3069,
    "tes": 3070,
    "\u2581wak": 3071,
    "\u25810x74b0": 3072,
    "\u25810x7cf0": 3073,
    "\u25810xfeee008a": 3074,
    "\u2581regcreatekeyexa": 3075,
    "\u25810x7510": 3076,
    "\u25810x7570": 3077,
    "\u25810xffa8": 3078,
    "\u25810x120f5": 3079,
    "\u25810x100098": 3080,
    "\u25810x1211e98": 3081,
    "87": 3082,
    "340": 3083,
    "pop": 3084,
    "\u25810x4088": 3085,
    "\u25810x42ff": 3086,
    "\u25810x7480": 3087,
    "eg": 3088,
    "b8c": 3089,
    "enh": 3090,
    "\u25810xa9": 3091,
    "\u25810x47f": 3092,
    "\u25810x4b6": 3093,
    "\u25810x40b5": 3094,
    "\u25810x7360": 3095,
    "\u2581openprocess": 3096,
    "ior": 3097,
    "\u25810xae": 3098,
    "\u2581reset": 3099,
    "\u25810x70c0": 3100,
    "\u25810x7330": 3101,
    "\u25810xffa9": 3102,
    "\u25810x350b8": 3103,
    "\u25810x4093a4": 3104,
    "\u25810x4093ac": 3105,
    "\u25810x44c280": 3106,
    "\u25810x44d500": 3107,
    "\u25810x4540e0": 3108,
    "\u25810x1211d60": 3109,
    "388": 3110,
    "928": 3111,
    "class": 3112,
    "\u2581strcmp": 3113,
    "\u25810xfeee008d": 3114,
    "504": 3115,
    "prior": 3116,
    "\u25810x7840": 3117,
    "lication": 3118,
    "\u2581getvolumeinformationw": 3119,
    "priority": 3120,
    "\u25810x43501a": 3121,
    "\u25810x537500": 3122,
    "\u2581getprocessaffinitymask": 3123,
    "664": 3124,
    "oemcp": 3125,
    "\u25810x3000": 3126,
    "\u25810xffc5": 3127,
    "\u25810xffd3": 3128,
    "\u2581getoemcp": 3129,
    "\u2581lstrcmpw": 3130,
    "3c8": 3131,
    "ypeex": 3132,
    "\u2581post": 3133,
    "\u25810x423": 3134,
    "\u2581select": 3135,
    "\u2581release": 3136,
    "\u25810x406698": 3137,
    "\u2581setthreadlocale": 3138,
    "\u2581variantchangetypeex": 3139,
    "\u2581getenvironmentstrings": 3140,
    "sid": 3141,
    "sum": 3142,
    "\u25810x50e": 3143,
    "\u25810x7450": 3144,
    "windowproc": 3145,
    "\u2581getthreadpreferreduilanguages": 3146,
    "783": 3147,
    "\u25810xf0": 3148,
    "\u25810x46e0": 3149,
    "\u25810x7f80": 3150,
    "\u25810xfff8": 3151,
    "\u25810x50850": 3152,
    "ram": 3153,
    "\u25810xbe": 3154,
    "\u25810x73c0": 3155,
    "\u25810xffaa": 3156,
    "\u25810x1211118": 3157,
    "\u25810x1211d08": 3158,
    "\u2581setfileattributesa": 3159,
    "sub": 3160,
    "ects": 3161,
    "\u25810x7120": 3162,
    "\u25810x7420": 3163,
    "\u25810x7630": 3164,
    "\u25810x79c0": 3165,
    "\u25810xffc9": 3166,
    "b78": 3167,
    "fon": 3168,
    "linkw": 3169,
    "\u25810x42b": 3170,
    "\u25810x4089": 3171,
    "\u25810x70a8": 3172,
    "\u25810x40a5bc": 3173,
    "\u2581lstrcata": 3174,
    "pen": 3175,
    "\u25810x4292": 3176,
    "\u25810x1211438": 3177,
    "\u25810xfeee0097": 3178,
    "econditionvariable": 3179,
    "cf": 3180,
    "\u25810x40d": 3181,
    "\u2581mapviewoffile": 3182,
    "mul": 3183,
    "neg": 3184,
    "xor": 3185,
    "idiv": 3186,
    "stitu": 3187,
    "\u25810x6f": 3188,
    "\u2581varcy": 3189,
    "\u2581varor": 3190,
    "\u2581varr8": 3191,
    "\u25810x412c": 3192,
    "\u2581varadd": 3193,
    "\u2581varand": 3194,
    "\u2581varcmp": 3195,
    "\u2581vardiv": 3196,
    "\u2581varmod": 3197,
    "\u2581varmul": 3198,
    "\u2581varneg": 3199,
    "\u2581varnot": 3200,
    "\u2581varsub": 3201,
    "\u2581varxor": 3202,
    "\u2581varbool": 3203,
    "\u2581vardate": 3204,
    "\u2581varidiv": 3205,
    "\u2581explorer": 3206,
    "\u25810x7c000000": 3207,
    "\u25810xfeee008f": 3208,
    "\u2581varcyfromstr": 3209,
    "\u2581vari4fromstr": 3210,
    "\u2581varr4fromstr": 3211,
    "\u2581varr8fromstr": 3212,
    "\u2581varbstrfromcy": 3213,
    "\u2581varboolfromstr": 3214,
    "\u2581vardatefromstr": 3215,
    "\u2581varbstrfrombool": 3216,
    "\u2581varbstrfromdate": 3217,
    "a08": 3218,
    "onts": 3219,
    "\u25810x62": 3220,
    "ontsub": 3221,
    "\u25810x4609": 3222,
    "\u25810xffc8": 3223,
    "stitutes": 3224,
    "\u25810x40b44": 3225,
    "\u2581fontsub": 3226,
    "\u25810x43501c": 3227,
    "\u25810x43501e": 3228,
    "\u25810x435020": 3229,
    "\u25810x435022": 3230,
    "\u25810x435028": 3231,
    "\u25810x43502a": 3232,
    "\u25810x43502c": 3233,
    "\u25810x43502e": 3234,
    "\u25810x435030": 3235,
    "\u2581fontsubstitutes": 3236,
    "rl": 3237,
    "\u25810x47e0": 3238,
    "\u25810x40a538": 3239,
    "\u25810xfeee0098": 3240,
    "360": 3241,
    "\u2581wm": 3242,
    "\u25810x70f0": 3243,
    "\u25810x7960": 3244,
    "\u25810xffd2": 3245,
    "\u25810xffec": 3246,
    "\u25810x40a40": 3247,
    "\u2581getcurrentdirectoryw": 3248,
    "ffa0": 3249,
    "\u25810x7b10": 3250,
    "\u25810x7e80": 3251,
    "valueexw": 3252,
    "\u25810x100220": 3253,
    "\u25810x1211d8c": 3254,
    "\u25810x2100210": 3255,
    "\u2581getlocaleinfo": 3256,
    "py": 3257,
    "162": 3258,
    "\u2581sc": 3259,
    "\u25810x40a548": 3260,
    "\u2581duplicate": 3261,
    "\u25810xfeee0090": 3262,
    "\u2581enumsystem": 3263,
    "\u2581shellexecute": 3264,
    "c7": 3265,
    "f58": 3266,
    "esst": 3267,
    "\u25810x9d": 3268,
    "printf": 3269,
    "unction": 3270,
    "\u25810x4368": 3271,
    "\u25810x7b70": 3272,
    "processt": 3273,
    "\u25810x42ff40": 3274,
    "\u25810xfeee0091": 3275,
    "\u25810xfeee0093": 3276,
    "\u25810xfeee0099": 3277,
    "\u2581filenotfound": 3278,
    "\u2581acquiresrwlockexclusive": 3279,
    "d38": 3280,
    "has": 3281,
    "pkg": 3282,
    "para": 3283,
    "stringex": 3284,
    "\u25810xfeee0092": 3285,
    "\u2581comparestringex": 3286,
    "\u2581getlocaleinfoex": 3287,
    "\u25810x402": 3288,
    "\u25810x4b40": 3289,
    "\u25810x100300": 3290,
    "ns": 3291,
    "f29": 3292,
    "\u2581def": 3293,
    "\u25810x3f4": 3294,
    "\u25810x44000": 3295,
    "ab0": 3296,
    "rip": 3297,
    "vis": 3298,
    "popup": 3299,
    "\u25810x604": 3300,
    "\u25810x181c": 3301,
    "\u25810x7780": 3302,
    "\u2581update": 3303,
    "\u25810xfeee0095": 3304,
    "\u2581comparestringw": 3305,
    "net": 3306,
    "ton": 3307,
    "oken": 3308,
    "\u25810xfeee009a": 3309,
    "7ec": 3310,
    "b48": 3311,
    "ce1": 3312,
    "hed": 3313,
    "scrip": 3314,
    "\u25810xb7": 3315,
    "package": 3316,
    "\u2581tlsfree": 3317,
    "\u25810x1211d4c": 3318,
    "\u25810xfeee0096": 3319,
    "lient": 3320,
    "\u25810x5f": 3321,
    "bv": 3322,
    "302": 3323,
    "adm": 3324,
    "lcid": 3325,
    "\u25810xfeedf0": 3326,
    "\u2581duplicatehandle": 3327,
    "\u2581getsyscolorbrush": 3328,
    "144": 3329,
    "console": 3330,
    "\u25810x409e": 3331,
    "\u25810x42ad": 3332,
    "\u25810x8230": 3333,
    "\u2581waitfor": 3334,
    "\u25810x419638": 3335,
    "ad2": 3336,
    "\u2581setbk": 3337,
    "\u25810x5026c": 3338,
    "\u25810x1211fc0": 3339,
    "wh": 3340,
    "\u25810x461": 3341,
    "processmemory": 3342,
    "\u25810xdc": 3343,
    "\u25810x408": 3344,
    "\u25810x40aa": 3345,
    "packageid": 3346,
    "\u25810x4e39b4": 3347,
    "\u2581showwindow": 3348,
    "\u2581getcurrentpackageid": 3349,
    "145": 3350,
    "ssp": 3351,
    "\u2581dis": 3352,
    "\u25810xbf": 3353,
    "\u25810x4780": 3354,
    "\u25810x78f0": 3355,
    "\u25810x7bf0": 3356,
    "econsole": 3357,
    "\u25810x41f738": 3358,
    "processtoken": 3359,
    "\u2581openprocesstoken": 3360,
    "1e2": 3361,
    "lay": 3362,
    "\u25810x1211eac": 3363,
    "\u2581setenvironmentvariablew": 3364,
    "bde": 3365,
    "ymbo": 3366,
    "patch": 3367,
    "ession": 3368,
    "ymbolic": 3369,
    "\u25810x7b00": 3370,
    "\u25810x7b90": 3371,
    "\u25810x120f8": 3372,
    "\u25810x4df00": 3373,
    "\u2581loadcursorw": 3374,
    "\u2581errorcreatingvariantorsafearray": 3375,
    "328": 3376,
    "datoma": 3377,
    "\u2581unmap": 3378,
    "\u25810x4770": 3379,
    "\u25810xfff6": 3380,
    "\u2581createw": 3381,
    "\u25810x4540b0": 3382,
    "\u25810x12119f0": 3383,
    "\u2581invalidargument": 3384,
    "\u2581unmapviewoffile": 3385,
    "\u2581variantorsafearray": 3386,
    "\u2581variantorsafearrayindexoutofbounds": 3387,
    "50f8": 3388,
    "nect": 3389,
    "\u25810x4122": 3390,
    "\u25810xffe8": 3391,
    "\u25810x1211808": 3392,
    "\u25810x1211954": 3393,
    "ymboliclinkw": 3394,
    "\u2581createsymboliclinkw": 3395,
    "608": 3396,
    "per": 3397,
    "2468": 3398,
    "when": 3399,
    "\u25810x12117f4": 3400,
    "\u25810x1211f44": 3401,
    "\u2581flushfile": 3402,
    "\u2581createmutexa": 3403,
    "\u2581flushfilebuffers": 3404,
    "izn": 3405,
    "log": 3406,
    "iznadm": 3407,
    "\u25810x411b": 3408,
    "\u25810x11000": 3409,
    "\u2581triznadm": 3410,
    "\u25810xfeee009b": 3411,
    "\u2581createwindowexa": 3412,
    "3000": 3413,
    "pipe": 3414,
    "urns": 3415,
    "\u2581end": 3416,
    "annot": 3417,
    "\u25810x429": 3418,
    "horeexw": 3419,
    "returns": 3420,
    "ornumber": 3421,
    "poolwait": 3422,
    "callbacks": 3423,
    "\u25810x63000000": 3424,
    "processwrite": 3425,
    "whencallback": 3426,
    "\u2581waitforthread": 3427,
    "vironmentstringsa": 3428,
    "pooltimercallbacks": 3429,
    "\u2581flushprocesswrite": 3430,
    "\u2581setthreadpoolwait": 3431,
    "whencallbackreturns": 3432,
    "\u2581createsemaphoreexw": 3433,
    "\u2581setthreadpooltimer": 3434,
    "\u2581closethreadpoolwait": 3435,
    "\u2581closethreadpooltimer": 3436,
    "\u2581createthreadpoolwait": 3437,
    "\u2581createthreadpooltimer": 3438,
    "\u2581flushprocesswritebuffers": 3439,
    "\u2581getcurrentprocessornumber": 3440,
    "\u2581freelibrarywhencallbackreturns": 3441,
    "\u2581waitforthreadpooltimercallbacks": 3442,
    "descrip": 3443,
    "\u25810x415e": 3444,
    "\u25810x1211e38": 3445,
    "\u25810xfeee009c": 3446,
    "\u2581getstringt": 3447,
    "\u2581setfileattributesw": 3448,
    "50c": 3449,
    "ee8": 3450,
    "\u2581beg": 3451,
    "\u25810x7de8": 3452,
    "\u25810x7de9": 3453,
    "\u25810x409f0": 3454,
    "\u25810x1211fb8": 3455,
    "\u2581createprocessa": 3456,
    "\u2581gettickcount64": 3457,
    "288": 3458,
    "66f": 3459,
    "\u25810x5ab": 3460,
    "\u25810xffc4": 3461,
    "\u25810x40a3e9": 3462,
    "\u25810x40a3ea": 3463,
    "\u25810x40a3eb": 3464,
    "\u25810x40a3ec": 3465,
    "\u25810x40a3ed": 3466,
    "\u25810x40a3ee": 3467,
    "\u25810x40a3ef": 3468,
    "\u2581windowsnt": 3469,
    "\u25810xfeee009d": 3470,
    "49": 3471,
    "588": 3472,
    "688": 3473,
    "b38": 3474,
    "b70": 3475,
    "\u25810x421": 3476,
    "\u25810x4aa0": 3477,
    "allocate": 3478,
    "\u25810x4786e0": 3479,
    "\u2581comparestringa": 3480,
    "687": 3481,
    "keya": 3482,
    "\u2581resum": 3483,
    "\u25810x46b1": 3484,
    "\u25810x5b2bd0": 3485,
    "localfiletime": 3486,
    "\u2581resumethread": 3487,
    "\u2581filetimetolocalfiletime": 3488,
    "mar": 3489,
    "\u25810x2b4": 3490,
    "session": 3491,
    "\u25810x4020": 3492,
    "\u25810x4106": 3493,
    "\u25810xfeedf": 3494,
    "140": 3495,
    "148": 3496,
    "tin": 3497,
    "onexit": 3498,
    "\u25810x7f0": 3499,
    "formatw": 3500,
    "\u25810x7f8002": 3501,
    "\u25810x7f8010": 3502,
    "aaaaaaaaaaaaaaaa": 3503,
    "179": 3504,
    "imag": 3505,
    "\u25810xb4": 3506,
    "\u25810x41d": 3507,
    "destroy": 3508,
    "\u25810x7ee000": 3509,
    "uilanguage": 3510,
    "\u2581getfullnamea": 3511,
    "\u2581regsetvalueexa": 3512,
    "208": 3513,
    "bvm": 3514,
    "d88": 3515,
    "\u25810x4cf0": 3516,
    "\u2581gettext": 3517,
    "\u2581lstrcmpia": 3518,
    "rl6660dl6660d": 3519,
    "\u2581module32next": 3520,
    "\u25810x9e": 3521,
    "\u2581append": 3522,
    "\u2581createsemaphore": 3523,
    "\u2581getenvironmentvariablea": 3524,
    "ry": 3525,
    "248": 3526,
    "ee4": 3527,
    "eff": 3528,
    "ync": 3529,
    "async": 3530,
    "ervic": 3531,
    "\u25810x40ea": 3532,
    "\u25810x20019": 3533,
    "9138": 3534,
    "\u25810x7e74": 3535,
    "\u25810x7e75": 3536,
    "asynckey": 3537,
    "stringlen": 3538,
    "\u25810xfeee009e": 3539,
    "\u2581getasynckey": 3540,
    "\u2581getasynckeystate": 3541,
    "348": 3542,
    "d83": 3543,
    "e32": 3544,
    "b2e2": 3545,
    "okup": 3546,
    "once": 3547,
    "\u2581lookup": 3548,
    "\u2581runtime": 3549,
    "202": 3550,
    "\u25810x466": 3551,
    "\u25810x4360": 3552,
    "\u25810x7da0": 3553,
    "\u25810xffc0": 3554,
    "\u2581messageboxw": 3555,
    "\u2581getvolumeinformationa": 3556,
    "799": 3557,
    "icli": 3558,
    "\u2581ssp": 3559,
    "\u25810xd4": 3560,
    "\u25810x205": 3561,
    "\u25810x40e6": 3562,
    "\u25810x7e78": 3563,
    "\u25810x7e79": 3564,
    "\u25810xffab": 3565,
    "\u2581sspicli": 3566,
    "\u25810x461548": 3567,
    "\u2581shgetfileinfow": 3568,
    "1c8": 3569,
    "\u25810x3f20": 3570,
    "\u25810x40d6": 3571,
    "\u25810x4227": 3572,
    "\u25810x7e7c": 3573,
    "\u25810x7e7d": 3574,
    "\u25810xfeee009f": 3575,
    "53c": 3576,
    "74c": 3577,
    "e1d": 3578,
    "pati": 3579,
    "\u25810x44ed": 3580,
    "\u25810x4680": 3581,
    "\u25810x7c91": 3582,
    "\u25810x9802": 3583,
    "\u25810xffd0": 3584,
    "\u25810x1211f54": 3585,
    "\u2581findwindowa": 3586,
    "\u2581gettempfilenamea": 3587,
    "123": 3588,
    "\u25810x7e0": 3589,
    "\u25810x7af0": 3590,
    "\u25810x401000": 3591,
    "\u25810x1210ed0": 3592,
    "\u2581process32first": 3593,
    "bdc": 3594,
    "w32": 3595,
    "with": 3596,
    "\u2581nto": 3597,
    "\u2581sfc": 3598,
    "mpati": 3599,
    "\u25810x4a80": 3600,
    "\u25810x7320": 3601,
    "\u25810xffc2": 3602,
    "\u25810x43f6b0": 3603,
    "\u2581copyfilea": 3604,
    "\u25810xfeee00a1": 3605,
    "4d": 3606,
    "own": 3607,
    "datet": 3608,
    "\u25810x40e": 3609,
    "\u25810x4e00": 3610,
    "\u25810x7e88": 3611,
    "\u25810xfeee00a0": 3612,
    "\u2581os": 3613,
    "\u2581wr": 3614,
    "f000": 3615,
    "timet": 3616,
    "\u25810x40ca": 3617,
    "\u25810x435402": 3618,
    "\u25810xfeee00a2": 3619,
    "\u25810xfeee00bc": 3620,
    "\u2581getdrivetypea": 3621,
    "5648": 3622,
    "tons": 3623,
    "\u2581iswindow": 3624,
    "\u25810x1210e34": 3625,
    "gu": 3626,
    "dfc": 3627,
    "\u2581ri": 3628,
    "drag": 3629,
    "ow64": 3630,
    "marta": 3631,
    "tings": 3632,
    "\u25810xc4": 3633,
    "\u25810x427": 3634,
    "osdatet": 3635,
    "service": 3636,
    "\u25810x4357": 3637,
    "\u25810x7d98": 3638,
    "\u25810x7d99": 3639,
    "\u25810x7e81": 3640,
    "\u25810x40000": 3641,
    "\u2581ntmarta": 3642,
    "\u25810x434000": 3643,
    "\u2581filetimetosystem": 3644,
    "\u2581are": 3645,
    "onceex": 3646,
    "\u25810x42b4": 3647,
    "\u25810x120ec": 3648,
    "\u25810x509e4": 3649,
    "ecuteonce": 3650,
    "hmetafile": 3651,
    "\u25810x980218": 3652,
    "\u2581globalad": 3653,
    "\u25810x1211cf0": 3654,
    "\u2581initonceex": 3655,
    "\u2581setfiletime": 3656,
    "\u2581systemtimet": 3657,
    "\u2581enumsystemlocales": 3658,
    "\u2581getthreaduilanguage": 3659,
    "\u2581initonceexecuteonce": 3660,
    "1e5": 3661,
    "\u2581dx": 3662,
    "valuew": 3663,
    "\u25810x4a40": 3664,
    "\u25810xffc3": 3665,
    "rlhandler": 3666,
    "\u25810x5b2be8": 3667,
    "\u25810x1211eb4": 3668,
    "\u2581formatmessagea": 3669,
    "397": 3670,
    "\u25810xe8": 3671,
    "\u25810x132": 3672,
    "\u25810x549": 3673,
    "\u25810x7230": 3674,
    "sessionid": 3675,
    "\u25810x1211f30": 3676,
    "\u25810xfeee00a3": 3677,
    "\u2581isvalidlocale": 3678,
    "190": 3679,
    "270": 3680,
    "80c": 3681,
    "92d": 3682,
    "996": 3683,
    "9fad": 3684,
    "ched": 3685,
    "fff0": 3686,
    "\u2581fre": 3687,
    "\u2581rsa": 3688,
    "named": 3689,
    "paint": 3690,
    "\u2581dxgi": 3691,
    "\u25810x48b0": 3692,
    "\u25810xfff5": 3693,
    "\u2581riched": 3694,
    "\u2581rsaenh": 3695,
    "mpatible": 3696,
    "\u25810x435410": 3697,
    "\u25810x44c418": 3698,
    "\u25810x1211894": 3699,
    "\u2581dxgidebug": 3700,
    "imetofiletime": 3701,
    "\u2581getsystemdefault": 3702,
    "ld": 3703,
    "804": 3704,
    "\u25810xd3": 3705,
    "\u25810xe4": 3706,
    "\u25810xffd8": 3707,
    "\u2581globalf": 3708,
    "\u25810x42b408": 3709,
    "\u25810x1210dec": 3710,
    "\u2581charprevw": 3711,
    "7b7": 3712,
    "bcc": 3713,
    "tiv": 3714,
    "\u25810xde": 3715,
    "\u25810x12118f8": 3716,
    "\u2581getcomputernamea": 3717,
    "\u2581filetimetosystemtime": 3718,
    "\u2581getfileinformationbyhandl": 3719,
    "904": 3720,
    "6663": 3721,
    "\u25810x10f": 3722,
    "\u25810x7020": 3723,
    "\u25810x7e84": 3724,
    "\u25810x7e85": 3725,
    "\u25810xffdf": 3726,
    "descript": 3727,
    "\u25810xf003f": 3728,
    "\u25810x40a3f0": 3729,
    "\u25810xfeee00a4": 3730,
    "448": 3731,
    "\u25810xf8": 3732,
    "\u2581peek": 3733,
    "\u25810x61e2": 3734,
    "\u25810xffed": 3735,
    "\u25810xfff4": 3736,
    "\u2581unlock": 3737,
    "\u25810x502dc": 3738,
    "\u25810x4093d1": 3739,
    "\u25810x4093d2": 3740,
    "\u25810x4093d3": 3741,
    "\u25810x4093f1": 3742,
    "\u25810x4093f2": 3743,
    "\u25810x4093f3": 3744,
    "\u25810x409431": 3745,
    "\u25810x409432": 3746,
    "\u25810x409433": 3747,
    "\u25810x409434": 3748,
    "\u25810x409435": 3749,
    "\u25810x409436": 3750,
    "\u25810x409437": 3751,
    "\u25810x40a3d0": 3752,
    "\u25810x42a1d8": 3753,
    "\u25810x42b403": 3754,
    "\u25810x42b404": 3755,
    "\u25810x42b405": 3756,
    "\u25810x42b406": 3757,
    "\u25810x42b407": 3758,
    "\u25810x42b409": 3759,
    "\u25810x42b40a": 3760,
    "\u25810x42b40b": 3761,
    "\u25810x42b40c": 3762,
    "\u25810x42b40d": 3763,
    "\u25810x42b40e": 3764,
    "\u25810x42b40f": 3765,
    "\u2581createexw": 3766,
    "\u25810xfeee00a5": 3767,
    "\u2581defwindowproc": 3768,
    "securitydescript": 3769,
    "\u2581removedirectorya": 3770,
    "\u2581setfileinformationby": 3771,
    "ly": 3772,
    "750": 3773,
    "9a0": 3774,
    "\u2581sn": 3775,
    "346d": 3776,
    "e000": 3777,
    "eatom": 3778,
    "\u25810x1b5": 3779,
    "\u25810x41c4": 3780,
    "\u25810x1211cbc": 3781,
    "\u2581exitthread": 3782,
    "\u2581findnextfilew": 3783,
    "33c": 3784,
    "9c8": 3785,
    "f78": 3786,
    "e7f4": 3787,
    "textw": 3788,
    "\u25810xea": 3789,
    "\u25810xfe": 3790,
    "dialog": 3791,
    "\u25810x444": 3792,
    "\u25810x8410": 3793,
    "\u25810x43740": 3794,
    "\u25810x1211c90": 3795,
    "\u25810x1211f14": 3796,
    "\u2581getmodulehandl": 3797,
    "324": 3798,
    "686": 3799,
    "a88": 3800,
    "f54": 3801,
    "169c": 3802,
    "d1fa": 3803,
    "d63d": 3804,
    "eall": 3805,
    "\u25810xffea": 3806,
    "\u2581wakeall": 3807,
    "\u25810x13fff0": 3808,
    "\u25810x188e04": 3809,
    "\u25810x43a4c8": 3810,
    "\u25810x77002c": 3811,
    "\u25810x1211e8c": 3812,
    "\u2581wakeallconditionvariable": 3813,
    "\u2581437": 3814,
    "56e1d": 3815,
    "\u2581writ": 3816,
    "\u25810x164": 3817,
    "\u25810xffeb": 3818,
    "\u25810x12e00": 3819,
    "\u25810x539138": 3820,
    "\u25810x1211ed8": 3821,
    "168": 3822,
    "7cf": 3823,
    "aa5": 3824,
    "run": 3825,
    "hash": 3826,
    "\u25810x415": 3827,
    "\u25810x435f": 3828,
    "\u2581gdiplus": 3829,
    "\u25810x1211c98": 3830,
    "\u25810xfeee00a6": 3831,
    "\u25810xfffffffc": 3832,
    "\u2581getwindowsdirectoryw": 3833,
    "\u2581getprivateprofilestringa": 3834,
    "array": 3835,
    "block": 3836,
    "f2920": 3837,
    "\u25810xba": 3838,
    "\u25810xe3": 3839,
    "\u25810xfc": 3840,
    "576663": 3841,
    "7c9fad": 3842,
    "9cd1fa": 3843,
    "aterect": 3844,
    "\u25810x43a2": 3845,
    "\u25810x4c10": 3846,
    "\u25810x7dec": 3847,
    "\u25810x7ded": 3848,
    "\u25810xffc1": 3849,
    "\u25810xffef": 3850,
    "\u25810x475648": 3851,
    "\u25810x600700": 3852,
    "\u2581dispatch": 3853,
    "\u25810x120faa8": 3854,
    "\u25810xfeee00a7": 3855,
    "\u2581sendmessagea": 3856,
    "cod": 3857,
    "ff8": 3858,
    "\u2581the": 3859,
    "\u25810x5e": 3860,
    "\u25810xf1": 3861,
    "section": 3862,
    "\u25810x1211e00": 3863,
    "\u2581movefilew": 3864,
    "\u2581writeprivateprofile": 3865,
    "584": 3866,
    "ce8": 3867,
    "fd6": 3868,
    "b1e0": 3869,
    "eb8a": 3870,
    "\u25810xbc": 3871,
    "17346d": 3872,
    "a6d63d": 3873,
    "d83b88": 3874,
    "f6eb8a": 3875,
    "\u2581setst": 3876,
    "169ca81": 3877,
    "\u25810x4226": 3878,
    "\u25810x7e00": 3879,
    "\u25810x7e89": 3880,
    "\u25810xffac": 3881,
    "\u25810x42c0e0": 3882,
    "\u25810x43f698": 3883,
    "\u25810x549ad4": 3884,
    "\u25810xfeee00a8": 3885,
    "\u2581setstdhandle": 3886,
    "948": 3887,
    "chr": 3888,
    "dis": 3889,
    "fore": 3890,
    "lang": 3891,
    "\u25810xc7": 3892,
    "\u25810x4289": 3893,
    "\u25810x71a0": 3894,
    "\u25810x7890": 3895,
    "\u25810x7d9c": 3896,
    "\u25810x7d9d": 3897,
    "\u2581getcursor": 3898,
    "codeprocess": 3899,
    "\u25810xfeee00a9": 3900,
    "\u2581getexitcodeprocess": 3901,
    "pp": 3902,
    "230": 3903,
    "301": 3904,
    "32cs": 3905,
    "\u2581snap": 3906,
    "langid": 3907,
    "\u25810x180c": 3908,
    "\u25810x4085": 3909,
    "\u25810x4405": 3910,
    "\u2581calloc": 3911,
    "\u2581th32cs": 3912,
    "14556e1d": 3913,
    "54d83b88": 3914,
    "564f2920": 3915,
    "659cd1fa": 3916,
    "defaultu": 3917,
    "\u2581appendw": 3918,
    "\u25810x40a58c": 3919,
    "\u25810x436408": 3920,
    "\u2581createco": 3921,
    "\u25810xfeee00aa": 3922,
    "\u2581createwindowexw": 3923,
    "\u2581createcompatible": 3924,
    "138": 3925,
    "5bc": 3926,
    "b474": 3927,
    "mous": 3928,
    "\u25810xd7": 3929,
    "\u25810xec": 3930,
    "\u2581prog": 3931,
    "\u25810x202": 3932,
    "\u25810x6a6": 3933,
    "\u25810x4533": 3934,
    "\u25810x7df0": 3935,
    "\u2581freere": 3936,
    "\u25810xfeee00ab": 3937,
    "\u2581freeresource": 3938,
    "43": 3939,
    "ax": 3940,
    "atoma": 3941,
    "\u25810xdb": 3942,
    "\u25810x4dc": 3943,
    "\u25810x7e90": 3944,
    "\u25810x8330": 3945,
    "\u25810xffd5": 3946,
    "66fa6d63d": 3947,
    "687f6eb8a": 3948,
    "\u25810x429260": 3949,
    "\u25810x436403": 3950,
    "\u25810x436404": 3951,
    "\u25810x436405": 3952,
    "\u25810x436406": 3953,
    "\u25810x436407": 3954,
    "\u25810x436409": 3955,
    "\u25810x43640a": 3956,
    "\u25810x43640b": 3957,
    "\u25810x43640c": 3958,
    "\u25810x43640d": 3959,
    "\u25810x43640e": 3960,
    "\u25810x43640f": 3961,
    "\u25810x47f108": 3962,
    "\u25810xfeee00ac": 3963,
    "\u2581application": 3964,
    "9b0": 3965,
    "9cc": 3966,
    "d08": 3967,
    "\u2581ie": 3968,
    "b6ea": 3969,
    "\u25810xdf": 3970,
    "\u25810xef": 3971,
    "\u25810x419a": 3972,
    "\u25810x7500": 3973,
    "\u25810xfeee00ad": 3974,
    "\u25810xfeee00ae": 3975,
    "\u25810xfeee00d7": 3976,
    "754": 3977,
    "d48": 3978,
    "een": 3979,
    "specw": 3980,
    "\u25810x6e": 3981,
    "\u25810xc3": 3982,
    "\u25810xe7": 3983,
    "\u25810x4d3": 3984,
    "\u25810x4e80": 3985,
    "\u25810x7d20": 3986,
    "\u25810xffdb": 3987,
    "7997c9fad": 3988,
    "\u25810x40a57c": 3989,
    "\u25810x4bb04c": 3990,
    "2c659cd1fa": 3991,
    "664169ca81": 3992,
    "9214556e1d": 3993,
    "b2e2576663": 3994,
    "codethread": 3995,
    "e454d83b88": 3996,
    "e7f417346d": 3997,
    "\u25810x1211b5c": 3998,
    "\u25810x1211e0c": 3999,
    "\u2581getexitcodethread": 4000,
    "a48": 4001,
    "b84": 4002,
    "b3e2": 4003,
    "pleob": 4004,
    "\u25810xf3": 4005,
    "\u2581evie": 4006,
    "\u25810x2100": 4007,
    "\u25810x411c": 4008,
    "\u25810x47d0": 4009,
    "\u25810xffde": 4010,
    "formulti": 4011,
    "\u25810x10011": 4012,
    "\u25810x412468": 4013,
    "\u25810x12119a0": 4014,
    "formultipleob": 4015,
    "\u2581coinitialize": 4016,
    "\u2581getconsolemode": 4017,
    "\u2581lookupprivileg": 4018,
    "788": 4019,
    "ea8": 4020,
    "eec": 4021,
    "fic": 4022,
    "66b0": 4023,
    "etch": 4024,
    "regi": 4025,
    "\u2581psc": 4026,
    "\u2581vie": 4027,
    "d5700": 4028,
    "\u25810xf7": 4029,
    "\u25810x408c": 4030,
    "\u25810x414a": 4031,
    "\u25810x41b8": 4032,
    "\u25810x42ec": 4033,
    "\u25810x7e8c": 4034,
    "\u25810x7e8d": 4035,
    "\u25810x7e91": 4036,
    "\u25810x8340": 4037,
    "\u25810xffd9": 4038,
    "\u25810x12113": 4039,
    "\u25810x1211e90": 4040,
    "3566fa6d63d": 4041,
    "\u2581regenumkey": 4042,
    "\u2581removefile": 4043,
    "\u2581updatewindow": 4044,
    "defaultuilanguage": 4045,
    "\u2581getlogicalprocessor": 4046,
    "b9c": 4047,
    "ba8": 4048,
    "\u2581rb": 4049,
    "thon": 4050,
    "upper": 4051,
    "\u25810xeb": 4052,
    "\u25810xf2": 4053,
    "\u25810x7da1": 4054,
    "\u25810xffd4": 4055,
    "\u25810x1211b78": 4056,
    "\u25810x1211ed4": 4057,
    "f20": 4058,
    "prop": 4059,
    "42996": 4060,
    "\u25810x606": 4061,
    "\u25810x466b": 4062,
    "\u25810x7910": 4063,
    "\u25810x990f58": 4064,
    "23564f2920": 4065,
    "\u25810x1210d1c": 4066,
    "\u25810x1210d3c": 4067,
    "\u25810x1211950": 4068,
    "\u25810x1211960": 4069,
    "\u25810x1211e5c": 4070,
    "\u2581removefilespecw": 4071,
    "\u2581initializeconditionvariable": 4072,
    "334": 4073,
    "ab4": 4074,
    "bc8": 4075,
    "atal": 4076,
    "\u25810x6a": 4077,
    "\u25810xc2": 4078,
    "active": 4079,
    "\u25810x238": 4080,
    "\u25810x2d0": 4081,
    "\u2581fatal": 4082,
    "\u25810x4840": 4083,
    "\u25810x7da4": 4084,
    "\u25810x508d0": 4085,
    "\u25810x100093": 4086,
    "\u25810x1211d44": 4087,
    "\u25810x1211dc4": 4088,
    "2c8": 4089,
    "3d1": 4090,
    "910": 4091,
    "24fc": 4092,
    "1492d": 4093,
    "69840": 4094,
    "ad2de": 4095,
    "b08ac": 4096,
    "efff8": 4097,
    "\u258150f8": 4098,
    "da0940": 4099,
    "\u25810x700": 4100,
    "\u2581trans": 4101,
    "24fc360": 4102,
    "e469840": 4103,
    "\u25810x7da5": 4104,
    "\u25810xffad": 4105,
    "\u25810xffe9": 4106,
    "\u2581enable": 4107,
    "1492d1e5": 4108,
    "179ad2de": 4109,
    "indirect": 4110,
    "b3e2d5700": 4111,
    "\u25810x429010": 4112,
    "\u25810x1210e20": 4113,
    "\u25810x12116fc": 4114,
    "\u25810x1211e24": 4115,
    "42996da0940": 4116,
    "c0e7f417346d": 4117,
    "d387997c9fad": 4118,
    "f2e454d83b88": 4119,
    "f39214556e1d": 4120,
    "\u258150f8e469840": 4121,
    "10c664169ca81": 4122,
    "1492d1e5b08ac": 4123,
    "66b0687f6eb8a": 4124,
    "efff8179ad2de": 4125,
    "vironmentblock": 4126,
    "b3e2d570024fc360": 4127,
    "\u258150f8e46984042996da0940": 4128,
    "b3e2d570024fc3601492d1e5b08ac": 4129,
    "\u2581getlogicalprocessorinformation": 4130,
    "\u258150f8e46984042996da0940efff8179ad2de": 4131,
    "741": 4132,
    "c08": 4133,
    "\u25810x4c79": 4134,
    "\u25810x509a8": 4135,
    "deleteatom": 4136,
    "\u25810x1210e2c": 4137,
    "\u25810x1210eb0": 4138,
    "\u2581globaladdatoma": 4139,
    "\u2581globaldeleteatom": 4140,
    "\u2581releasesrwlockexclusive": 4141,
    "hl": 4142,
    "d63": 4143,
    "f07": 4144,
    "7000": 4145,
    "\u25810xf4": 4146,
    "\u25810x1d4": 4147,
    "\u25810x5a1f": 4148,
    "\u25810x79a0": 4149,
    "\u25810x7ea0": 4150,
    "\u25810x80e0": 4151,
    "\u25810xffd6": 4152,
    "\u25810x1211f10": 4153,
    "\u25810x1211f1c": 4154,
    "\u2581charupper": 4155,
    "bde23564f2920": 4156,
    "\u2581getuserdefaultlocalename": 4157,
    "ab8": 4158,
    "dc0": 4159,
    "ebb5": 4160,
    "layout": 4161,
    "virtual": 4162,
    "\u25810x40f0": 4163,
    "\u25810x4ee0": 4164,
    "\u25810xffdc": 4165,
    "\u25810x429001": 4166,
    "\u25810x429018": 4167,
    "\u25810x1211de8": 4168,
    "\u25810xfeee00b1": 4169,
    "\u2581comparefiletime": 4170,
    "rgn": 4171,
    "\u2581wcs": 4172,
    "\u25810xd5": 4173,
    "\u25810xee": 4174,
    "\u25810xfa": 4175,
    "\u25810x59d": 4176,
    "\u25810x40ac": 4177,
    "\u25810x4ec0": 4178,
    "\u25810x52aa": 4179,
    "\u25810x7da8": 4180,
    "\u25810x7da9": 4181,
    "\u25810x7db0": 4182,
    "\u25810xfff3": 4183,
    "\u25810x429002": 4184,
    "\u25810x429003": 4185,
    "\u25810x429004": 4186,
    "\u25810x429005": 4187,
    "\u25810x429006": 4188,
    "\u25810x429007": 4189,
    "\u25810x429008": 4190,
    "\u25810x429009": 4191,
    "\u25810x42900a": 4192,
    "\u25810x42900b": 4193,
    "\u25810x42900c": 4194,
    "\u25810x42900d": 4195,
    "\u25810x42900e": 4196,
    "\u25810x42900f": 4197,
    "\u25810x429011": 4198,
    "\u25810x429012": 4199,
    "\u25810x429013": 4200,
    "\u25810x429014": 4201,
    "\u25810x429015": 4202,
    "\u25810x429016": 4203,
    "\u25810x429017": 4204,
    "\u25810x429019": 4205,
    "\u25810x12114bc": 4206,
    "\u25810xfeee00af": 4207,
    "\u25810xfeee00b0": 4208,
    "b1e02c659cd1fa": 4209,
    "b6eab2e2576663": 4210,
    "38803566fa6d63d": 4211,
    "568f2e454d83b88": 4212,
    "70bde23564f2920": 4213,
    "382": 4214,
    "9f0": 4215,
    "ded": 4216,
    "ioc": 4217,
    "ryto": 4218,
    "\u2581inf": 4219,
    "\u2581yap": 4220,
    "lower": 4221,
    "context": 4222,
    "ocument": 4223,
    "\u25810x41e0": 4224,
    "\u25810x7cc0": 4225,
    "\u2581selectob": 4226,
    "\u25810x1211a30": 4227,
    "\u2581module32nextw": 4228,
    "tokeninformation": 4229,
    "\u2581getdateformatex": 4230,
    "\u2581getuserdefaultlcid": 4231,
    "wer": 4232,
    "\u2581eh": 4233,
    "\u2581qa": 4234,
    "\u2581add": 4235,
    "\u25810xca": 4236,
    "\u25810xce": 4237,
    "\u25810x3bc": 4238,
    "\u25810x18cc": 4239,
    "\u25810x4a60": 4240,
    "\u25810x8280": 4241,
    "\u2581transla": 4242,
    "\u25810x40a3f1": 4243,
    "\u25810x40a3f2": 4244,
    "\u2581createfon": 4245,
    "\u2581setscroll": 4246,
    "\u2581getfullnamew": 4247,
    "b110c664169ca81": 4248,
    "feac0e7f417346d": 4249,
    "16b6eab2e2576663": 4250,
    "b474d387997c9fad": 4251,
    "\u2581gettimeformatex": 4252,
    "\u2581isvalidlocalename": 4253,
    "\u2581enumsystemlocalesex": 4254,
    "red": 4255,
    "\u25810xd6": 4256,
    "calling": 4257,
    "\u25810x40f1": 4258,
    "\u25810x4238": 4259,
    "\u25810x9020": 4260,
    "\u2581program": 4261,
    "afunction": 4262,
    "\u25810x53e050": 4263,
    "\u2581document": 4264,
    "\u25810x1210e30": 4265,
    "\u2581getmodulehandleexw": 4266,
    "204": 4267,
    "314": 4268,
    "68c": 4269,
    "a4c": 4270,
    "ee2": 4271,
    "ist": 4272,
    "a000": 4273,
    "ocus": 4274,
    "ways": 4275,
    "\u25810xed": 4276,
    "\u25810xf9": 4277,
    "\u25810xfb": 4278,
    "\u25810x4f8": 4279,
    "\u25810x602": 4280,
    "\u25810x7460": 4281,
    "\u25810xffae": 4282,
    "\u2581always": 4283,
    "fxstring": 4284,
    "atethread": 4285,
    "\u25810x1327ec": 4286,
    "\u25810x3f3000": 4287,
    "\u25810x4093d4": 4288,
    "\u25810x4093f4": 4289,
    "\u25810x40a3d8": 4290,
    "\u25810x40a3f3": 4291,
    "\u25810x40a3f4": 4292,
    "\u25810x40a3f5": 4293,
    "\u25810x40a3f6": 4294,
    "\u25810x40a3f7": 4295,
    "\u25810x43f668": 4296,
    "\u2581charlower": 4297,
    "53cf39214556e1d": 4298,
    "a8166b0687f6eb8a": 4299,
    "c9b1e02c659cd1fa": 4300,
    "3570bde23564f2920": 4301,
    "3f4": 4302,
    "eac": 4303,
    "ed8": 4304,
    "atom": 4305,
    "\u25810xb6": 4306,
    "\u25810x61f6": 4307,
    "\u25810x7a40": 4308,
    "\u25810x7dac": 4309,
    "\u25810x7dad": 4310,
    "settings": 4311,
    "\u25810x3f4000": 4312,
    "\u25810x8000000": 4313,
    "af0": 4314,
    "db2": 4315,
    "fd5": 4316,
    "lid": 4317,
    "\u25810xb1": 4318,
    "\u25810xcb": 4319,
    "\u25810xe6": 4320,
    "\u25810x4175": 4321,
    "\u25810x42a2": 4322,
    "\u25810x4c42": 4323,
    "\u25810x5374": 4324,
    "\u25810x7e94": 4325,
    "\u25810x8f20": 4326,
    "\u25810x441806": 4327,
    "\u25810x441808": 4328,
    "\u25810x44180a": 4329,
    "\u25810x44180c": 4330,
    "\u25810x44180e": 4331,
    "\u25810x441810": 4332,
    "\u25810x441812": 4333,
    "\u25810x441814": 4334,
    "\u25810x441816": 4335,
    "\u25810x461500": 4336,
    "\u25810x120f558": 4337,
    "\u2581documents": 4338,
    "\u25810xfeee00b4": 4339,
    "d5b110c664169ca81": 4340,
    "397feac0e7f417346d": 4341,
    "76b474d387997c9fad": 4342,
    "98c": 4343,
    "a54": 4344,
    "fc8": 4345,
    "\u25810xbd": 4346,
    "\u25810xd2": 4347,
    "\u25810xe2": 4348,
    "\u2581pbvm": 4349,
    "apture": 4350,
    "\u25810x288": 4351,
    "\u25810x5d0": 4352,
    "\u25810x1075": 4353,
    "\u25810x40b9": 4354,
    "\u25810x7e95": 4355,
    "\u25810xffda": 4356,
    "\u25810xffdd": 4357,
    "usttoken": 4358,
    "\u25810xfeee00b2": 4359,
    "\u25810xfeee00b3": 4360,
    "\u2581registerclassexa": 4361,
    "126": 4362,
    "4416": 4363,
    "lipr": 4364,
    "focus": 4365,
    "longa": 4366,
    "\u25810xbb": 4367,
    "\u25810xc6": 4368,
    "\u25810xc9": 4369,
    "\u25810xd1": 4370,
    "\u25810xd9": 4371,
    "\u25810xda": 4372,
    "\u25810x44e": 4373,
    "\u25810x4b0": 4374,
    "\u25810x4de": 4375,
    "\u25810x42bc": 4376,
    "\u25810x4867": 4377,
    "privileges": 4378,
    "\u2581terminatethread": 4379,
    "b7853cf39214556e1d": 4380,
    "ce1568f2e454d83b88": 4381,
    "efa8166b0687f6eb8a": 4382,
    "usttokenprivileges": 4383,
    "ffa038803566fa6d63d": 4384,
    "\u2581gettokeninformation": 4385,
    "443": 4386,
    "dd4": 4387,
    "ea66": 4388,
    "esid": 4389,
    "longw": 4390,
    "\u25810xb2": 4391,
    "\u25810x42e": 4392,
    "\u25810x3020": 4393,
    "\u25810x3f24": 4394,
    "\u25810x441818": 4395,
    "\u25810x4c79ac": 4396,
    "\u2581allocate": 4397,
    "\u2581getscroll": 4398,
    "andinitializ": 4399,
    "\u2581heapdestroy": 4400,
    "\u2581releasemutex": 4401,
    "andinitializesid": 4402,
    "\u2581allocateandinitializesid": 4403,
    "fy": 4404,
    "104": 4405,
    "d65": 4406,
    "f48": 4407,
    "hlp": 4408,
    "3219": 4409,
    "\u2581cpp": 4410,
    "flush": 4411,
    "\u25810xc5": 4412,
    "\u25810xdd": 4413,
    "\u25810x4ad0": 4414,
    "debughook": 4415,
    "\u2581getconso": 4416,
    "\u25810x121192f": 4417,
    "\u25810xfeedf000": 4418,
    "\u25810xfeee00b5": 4419,
    "\u2581cppdebughook": 4420,
    "\u2581globalrealloc": 4421,
    "d30c9b1e02c659cd1fa": 4422,
    "74b7853cf39214556e1d": 4423,
    "120": 4424,
    "ance": 4425,
    "\u25810xb5": 4426,
    "\u25810x422a": 4427,
    "\u25810x44e5": 4428,
    "\u25810x44f5": 4429,
    "\u25810x7df1": 4430,
    "ofiletime": 4431,
    "\u25810x5a1fd4": 4432,
    "\u2581systemtimetofiletime": 4433,
    "125": 4434,
    "988": 4435,
    "tem": 4436,
    "1365": 4437,
    "a46c": 4438,
    "\u2581isw": 4439,
    "\u25810xf6": 4440,
    "\u25810x4718": 4441,
    "\u25810xb068": 4442,
    "\u2581getdlg": 4443,
    "\u25810x1210b": 4444,
    "\u25810x2e7ea": 4445,
    "\u25810x44181a": 4446,
    "\u25810x44181c": 4447,
    "\u25810x44181e": 4448,
    "\u2581sysalloc": 4449,
    "\u25810x1211d50": 4450,
    "\u2581fatalerror": 4451,
    "\u2581shellexecutew": 4452,
    "\u2581removedirectoryw": 4453,
    "f916b6eab2e2576663": 4454,
    "e32d5b110c664169ca81": 4455,
    "16276b474d387997c9fad": 4456,
    "7bffa038803566fa6d63d": 4457,
    "ebb53570bde23564f2920": 4458,
    "\u2581freeenvironmentstringsa": 4459,
    "127": 4460,
    "lecs": 4461,
    "place": 4462,
    "\u25810xc1": 4463,
    "\u25810xe9": 4464,
    "\u25810x208": 4465,
    "\u25810x413": 4466,
    "\u25810x428": 4467,
    "\u25810x448": 4468,
    "\u25810x42ac": 4469,
    "\u2581sleepc": 4470,
    "\u2581getmenu": 4471,
    "\u2581dllonexit": 4472,
    "\u2581getusernamea": 4473,
    "\u2581formatmessagew": 4474,
    "\u2581lookupprivilege": 4475,
    "onditionvariablecs": 4476,
    "\u2581setthreadpriority": 4477,
    "\u2581sleepconditionvariablecs": 4478,
    "130": 4479,
    "64c": 4480,
    "70c": 4481,
    "ad8": 4482,
    "fcc": 4483,
    "\u2581cqa": 4484,
    "\u2581lib": 4485,
    "\u25810xb9": 4486,
    "\u2581scqa": 4487,
    "\u25810x4c0": 4488,
    "\u2581pscqa": 4489,
    "\u25810x40e4": 4490,
    "\u25810x475f": 4491,
    "\u25810xffd1": 4492,
    "\u25810x40593d": 4493,
    "\u25810x40593e": 4494,
    "\u2581setconso": 4495,
    "\u25810x1210f70": 4496,
    "\u2581globalfind": 4497,
    "\u2581writeconsole": 4498,
    "fd6efa8166b0687f6eb8a": 4499,
    "4416ce1568f2e454d83b88": 4500,
    "e2e32d5b110c664169ca81": 4501,
    "ea66397feac0e7f417346d": 4502,
    "404": 4503,
    "ated": 4504,
    "meters": 4505,
    "\u25810x500": 4506,
    "\u25810xedc": 4507,
    "\u25810x4a20": 4508,
    "\u25810x56fc": 4509,
    "parameters": 4510,
    "\u25810x1210ebc": 4511,
    "\u2581errorcode": 4512,
    "\u2581getcursorpos": 4513,
    "av": 4514,
    "408": 4515,
    "ac5": 4516,
    "ill": 4517,
    "\u2581ma": 4518,
    "\u25810xe1": 4519,
    "\u25810xf5": 4520,
    "python": 4521,
    "\u2581debug": 4522,
    "\u25810xffaf": 4523,
    "\u2581memcpy": 4524,
    "opwindow": 4525,
    "\u25810x1211884": 4526,
    "\u25810x121189c": 4527,
    "\u25810xfeee00b6": 4528,
    "\u25810xfeee00b7": 4529,
    "\u25810xfeee00b8": 4530,
    "3219f916b6eab2e2576663": 4531,
    "704": 4532,
    "e8c1": 4533,
    "visi": 4534,
    "stack": 4535,
    "\u25810x147": 4536,
    "\u25810xbac": 4537,
    "\u25810x8ae0": 4538,
    "\u2581cannot": 4539,
    "\u2581deleteob": 4540,
    "\u25810xfeee00b9": 4541,
    "970": 4542,
    "9a2": 4543,
    "a0c": 4544,
    "fa2": 4545,
    "guar": 4546,
    "antee": 4547,
    "\u25810x3f5": 4548,
    "\u25810x1a14": 4549,
    "\u25810x3f22": 4550,
    "\u25810x53c8": 4551,
    "guarantee": 4552,
    "\u25810x409410": 4553,
    "\u25810x409418": 4554,
    "\u25810x4300e0": 4555,
    "\u25810x59e340": 4556,
    "\u25810x5ab0a0": 4557,
    "\u25810x1211f48": 4558,
    "memorystatus": 4559,
    "stackguarantee": 4560,
    "\u2581getdateformata": 4561,
    "\u2581systemparameters": 4562,
    "\u2581getdiskfreespacea": 4563,
    "\u2581sysallocstringlen": 4564,
    "\u2581globalmemorystatus": 4565,
    "f16276b474d387997c9fad": 4566,
    "a46cd30c9b1e02c659cd1fa": 4567,
    "f27bffa038803566fa6d63d": 4568,
    "faebb53570bde23564f2920": 4569,
    "136574b7853cf39214556e1d": 4570,
    "900fd6efa8166b0687f6eb8a": 4571,
    "\u2581setthreadstackguarantee": 4572,
    "1c4": 4573,
    "de4": 4574,
    "for": 4575,
    "ver": 4576,
    "9e00": 4577,
    "acdb": 4578,
    "ansi": 4579,
    "leng": 4580,
    "loading": 4581,
    "\u25810x4c00": 4582,
    "\u25810x7ec4": 4583,
    "\u25810x7ec5": 4584,
    "\u25810xcf0000": 4585,
    "\u25810x1210ecc": 4586,
    "\u25810xfeee00bb": 4587,
    "\u2581mapvirtual": 4588,
    "\u2581translatem": 4589,
    "\u2581errorloading": 4590,
    "\u2581createprocessw": 4591,
    "2d5": 4592,
    "\u2581op": 4593,
    "idto": 4594,
    "\u25810xe5": 4595,
    "\u2581vers": 4596,
    "\u25810x416": 4597,
    "\u25810x40f5": 4598,
    "\u25810x4f00": 4599,
    "\u25810xffd7": 4600,
    "\u25810x120ed": 4601,
    "pythondll": 4602,
    "\u25810x1210f50": 4603,
    "\u25810x1211cb4": 4604,
    "\u25810x1211db0": 4605,
    "\u2581globalhandle": 4606,
    "\u2581regqueryvalueexw": 4607,
    "\u2581errorloadingpythondll": 4608,
    "10a46cd30c9b1e02c659cd1fa": 4609,
    "123ea66397feac0e7f417346d": 4610,
    "686e2e32d5b110c664169ca81": 4611,
    "7834416ce1568f2e454d83b88": 4612,
    "99faebb53570bde23564f2920": 4613,
    "pi": 4614,
    "nex": 4615,
    "ore": 4616,
    "006a": 4617,
    "\u25810x4ed": 4618,
    "etchblt": 4619,
    "\u25810x78c0": 4620,
    "\u25810x7c70": 4621,
    "\u25810x7f02": 4622,
    "\u25810x100012": 4623,
    "\u25810x41f768": 4624,
    "\u25810x41f7b0": 4625,
    "\u25810x41f7c8": 4626,
    "\u25810x41f7e0": 4627,
    "\u25810x7c000c": 4628,
    "\u25810x120de90": 4629,
    "\u25810x1211708": 4630,
    "\u25810x80000001": 4631,
    "304": 4632,
    "cc8": 4633,
    "807e": 4634,
    "\u25810xfd": 4635,
    "\u25810x498": 4636,
    "\u2581opens": 4637,
    "\u25810x10020": 4638,
    "\u2581riched20": 4639,
    "\u25810x1211dd8": 4640,
    "\u25810xfeee00ba": 4641,
    "cccf16276b474d387997c9fad": 4642,
    "f6f27bffa038803566fa6d63d": 4643,
    "95136574b7853cf39214556e1d": 4644,
    "663": 4645,
    "\u25810x3f6": 4646,
    "\u25810x518": 4647,
    "\u25810x4015": 4648,
    "\u25810x6f00": 4649,
    "\u25810x409aa4": 4650,
    "\u2581settimer": 4651,
    "\u25810x1211d14": 4652,
    "\u25810x1211e20": 4653,
    "\u2581getmenuitem": 4654,
    "\u2581getmessagea": 4655,
    "12c": 4656,
    "ctr": 4657,
    "ebut": 4658,
    "move": 4659,
    "rchr": 4660,
    "\u2581fil": 4661,
    "\u2581atex": 4662,
    "\u25810xf96": 4663,
    "\u25810x7100": 4664,
    "\u2581atexit": 4665,
    "mousebut": 4666,
    "\u25810x7a900": 4667,
    "\u25810x200020": 4668,
    "\u25810x407bed": 4669,
    "\u25810x407bee": 4670,
    "\u25810x409aa5": 4671,
    "\u25810x42c070": 4672,
    "\u25810x42c0a8": 4673,
    "\u25810x43a4b0": 4674,
    "\u25810x43f620": 4675,
    "\u25810x1210e10": 4676,
    "\u25810xfeee00bd": 4677,
    "\u25810xfeee00be": 4678,
    "\u2581setbkcolor": 4679,
    "\u2581findwindoww": 4680,
    "\u2581localrealloc": 4681,
    "acdb3219f916b6eab2e2576663": 4682,
    "f07834416ce1568f2e454d83b88": 4683,
    "imer": 4684,
    "\u25810x1210f60": 4685,
    "\u25810x1211bfc": 4686,
    "mousebuttons": 4687,
    "\u2581getnumberofconsolemousebuttons": 4688,
    "sh": 4689,
    "34c": 4690,
    "398": 4691,
    "66c": 4692,
    "b00": 4693,
    "ectex": 4694,
    "emenu": 4695,
    "eexist": 4696,
    "length": 4697,
    "\u25810x210": 4698,
    "\u25810x3010": 4699,
    "\u25810x412a": 4700,
    "\u25810x7620": 4701,
    "\u25810x7ce0": 4702,
    "\u25810x50e10": 4703,
    "\u25810x404180": 4704,
    "\u25810x404184": 4705,
    "\u25810x404190": 4706,
    "\u25810x12117c8": 4707,
    "\u25810x1211e88": 4708,
    "\u25810x1211fbc": 4709,
    "\u2581fileexist": 4710,
    "\u2581module32first": 4711,
    "\u2581writeconsolew": 4712,
    "\u2581defwindowproca": 4713,
    "7123ea66397feac0e7f417346d": 4714,
    "ac10a46cd30c9b1e02c659cd1fa": 4715,
    "5d95136574b7853cf39214556e1d": 4716,
    "7cf99faebb53570bde23564f2920": 4717,
    "128": 4718,
    "7f4": 4719,
    "f04": 4720,
    "a3f3": 4721,
    "dlg32": 4722,
    "\u25810x74d0": 4723,
    "\u25810xffee": 4724,
    "\u25810x2d4db": 4725,
    "\u2581geticon": 4726,
    "\u25810x404178": 4727,
    "\u25810x42b410": 4728,
    "\u25810x460658": 4729,
    "\u2581imagehlp": 4730,
    "\u25810x1211e60": 4731,
    "\u25810x1211fb0": 4732,
    "\u25810xfeee00bf": 4733,
    "\u2581regopenkeya": 4734,
    "\u2581destroywindow": 4735,
    "\u2581getuserdefaultuilanguage": 4736,
    "sg": 4737,
    "381": 4738,
    "det": 4739,
    "f0c": 4740,
    "gro": 4741,
    "fbf8": 4742,
    "hild": 4743,
    "\u25810x411": 4744,
    "\u25810x504": 4745,
    "\u2581begin": 4746,
    "ocreate": 4747,
    "visible": 4748,
    "\u25810x5bd4": 4749,
    "\u25810x8e90": 4750,
    "validate": 4751,
    "\u25810x120cb": 4752,
    "\u25810x54000": 4753,
    "\u2581msvcr100": 4754,
    "\u25810x12110fc": 4755,
    "\u25810x1211e18": 4756,
    "\u25810x1211ef4": 4757,
    "\u25810x10005c64": 4758,
    "\u25810xfeee00c0": 4759,
    "\u25810xfeee00c1": 4760,
    "\u25810xfeee00c2": 4761,
    "\u25810xfeee00c3": 4762,
    "\u2581heapvalidate": 4763,
    "\u2581registerwindowmessagea": 4764,
    "e8c1f6f27bffa038803566fa6d63d": 4765,
    "lu": 4766,
    "720": 4767,
    "74e": 4768,
    "ba9": 4769,
    "f84": 4770,
    "gcc": 4771,
    "skt": 4772,
    "\u258112": 4773,
    "apis": 4774,
    "\u2581ming": 4775,
    "\u2581wink": 4776,
    "\u25810x605": 4777,
    "\u25810x7a90": 4778,
    "\u25810x7c40": 4779,
    "\u2581libgcc": 4780,
    "apisansi": 4781,
    "\u25810x40aba": 4782,
    "\u2581arefile": 4783,
    "\u2581iswow64": 4784,
    "\u25810x5374d0": 4785,
    "\u25810xb33880": 4786,
    "\u2581comdlg32": 4787,
    "\u25810x1210f54": 4788,
    "\u25810x1211fe4": 4789,
    "\u25810xfeee00c4": 4790,
    "\u2581iswow64process": 4791,
    "\u2581arefileapisansi": 4792,
    "40c": 4793,
    "56c": 4794,
    "etc": 4795,
    "006c": 4796,
    "91e9": 4797,
    "\u2581ver": 4798,
    "archi": 4799,
    "b7b38": 4800,
    "\u2581call": 4801,
    "\u2581ntohl": 4802,
    "\u25810x4030": 4803,
    "\u25810x4404": 4804,
    "\u25810x437800": 4805,
    "\u25810x6d006c": 4806,
    "\u25810x6f006e": 4807,
    "\u25810x710070": 4808,
    "\u25810x770076": 4809,
    "\u25810x790078": 4810,
    "\u25810x1210e70": 4811,
    "\u25810x1210e90": 4812,
    "\u25810x1211e78": 4813,
    "\u25810x1211e84": 4814,
    "\u25810x1211ef0": 4815,
    "\u25810x1211fa0": 4816,
    "\u2581setcurrentdirectoryw": 4817,
    "807e686e2e32d5b110c664169ca81": 4818,
    "9cc7123ea66397feac0e7f417346d": 4819,
    "b7b38900fd6efa8166b0687f6eb8a": 4820,
    "f6ac10a46cd30c9b1e02c659cd1fa": 4821,
    "365d95136574b7853cf39214556e1d": 4822,
    "e48f07834416ce1568f2e454d83b88": 4823,
    "1c9": 4824,
    "ace": 4825,
    "d10": 4826,
    "e30": 4827,
    "90068": 4828,
    "anden": 4829,
    "\u25810x23c": 4830,
    "\u25810x433": 4831,
    "\u2581check": 4832,
    "\u25810x4033": 4833,
    "\u25810x420c": 4834,
    "\u25810x44ee": 4835,
    "\u25810xcccc": 4836,
    "\u25810x120f9": 4837,
    "\u25810x169bc": 4838,
    "namedpipe": 4839,
    "\u25810x40f6a8": 4840,
    "\u25810x5ab070": 4841,
    "\u25810x690068": 4842,
    "\u25810x6b006a": 4843,
    "\u25810x730072": 4844,
    "\u25810x750074": 4845,
    "\u25810x7b007a": 4846,
    "\u25810x7d007c": 4847,
    "\u25810x7f007e": 4848,
    "\u25810x1210e28": 4849,
    "\u25810x1211f40": 4850,
    "ty": 4851,
    "1a0": 4852,
    "3d0": 4853,
    "76b": 4854,
    "cat": 4855,
    "dc6": 4856,
    "\u2581fa": 4857,
    "ee08": 4858,
    "00220": 4859,
    "40284": 4860,
    "ground": 4861,
    "\u25810x45c": 4862,
    "\u25810x4524": 4863,
    "\u25810x45c2": 4864,
    "\u25810x4880": 4865,
    "\u25810xff90": 4866,
    "\u2581device": 4867,
    "\u25810x4d500": 4868,
    "\u2581versetc": 4869,
    "\u25810x4093d0": 4870,
    "\u25810x4093d5": 4871,
    "\u25810x4093d6": 4872,
    "\u25810x4093d7": 4873,
    "\u25810x4093f0": 4874,
    "\u25810x4093f5": 4875,
    "\u25810x4093f6": 4876,
    "\u25810x4093f7": 4877,
    "\u25810x40957e": 4878,
    "\u25810x409580": 4879,
    "\u25810x409582": 4880,
    "\u25810x409584": 4881,
    "\u25810x409586": 4882,
    "\u25810x409588": 4883,
    "\u25810x40958a": 4884,
    "\u25810x40b3df": 4885,
    "\u25810x40b3e0": 4886,
    "\u25810x40b3e1": 4887,
    "\u25810x40b3e2": 4888,
    "\u25810x40b3e3": 4889,
    "\u25810x40b3e4": 4890,
    "\u25810x40b3e5": 4891,
    "\u25810x42b402": 4892,
    "\u25810x435024": 4893,
    "\u25810x435026": 4894,
    "\u25810x435032": 4895,
    "\u25810x56fbf8": 4896,
    "\u2581cocreate": 4897,
    "freestring": 4898,
    "\u25810x1211f3c": 4899,
    "\u25810x2200220": 4900,
    "\u25810x2840284": 4901,
    "onditionmask": 4902,
    "\u2581getmessagew": 4903,
    "\u2581versetconditionmask": 4904,
    "3d1cccf16276b474d387997c9fad": 4905,
    "4f7cf99faebb53570bde23564f2920": 4906,
    "a3f3acdb3219f916b6eab2e2576663": 4907,
    "209cc7123ea66397feac0e7f417346d": 4908,
    "37e8c1f6f27bffa038803566fa6d63d": 4909,
    "160": 4910,
    "3fa": 4911,
    "96e": 4912,
    "b06": 4913,
    "d5c": 4914,
    "6398": 4915,
    "\u25810x1001": 4916,
    "\u25810x100b": 4917,
    "\u25810x40d4": 4918,
    "\u25810x465b": 4919,
    "\u25810x46ec": 4920,
    "\u25810x7db1": 4921,
    "\u25810x7dc0": 4922,
    "\u2581strcat": 4923,
    "\u25810x57c144": 4924,
    "\u2581expanden": 4925,
    "\u2581readprocessmemory": 4926,
    "\u2581waitformultipleob": 4927,
    "4a": 4928,
    "cc4": 4929,
    "e024": 4930,
    "\u25810x439": 4931,
    "\u25810x5aa": 4932,
    "\u25810x4153": 4933,
    "\u25810x4990": 4934,
    "\u25810x8b60": 4935,
    "foreground": 4936,
    "\u25810x1211eb0": 4937,
    "\u25810x1211f0c": 4938,
    "\u2581snapmodule": 4939,
    "\u2581sysfreestring": 4940,
    "foregroundwindow": 4941,
    "a2807e686e2e32d5b110c664169ca81": 4942,
    "110": 4943,
    "442": 4944,
    "\u2581star": 4945,
    "\u25810x470": 4946,
    "\u25810x5bc": 4947,
    "\u2581replace": 4948,
    "\u25810x1211f58": 4949,
    "\u2581getactive": 4950,
    "\u2581gettextext": 4951,
    "\u2581getstringtypea": 4952,
    "\u2581outputdebugstringw": 4953,
    "142": 4954,
    "rar": 4955,
    "a2ff": 4956,
    "adb7": 4957,
    "hort": 4958,
    "\u25810x47c": 4959,
    "\u25810x7ed": 4960,
    "ysystem": 4961,
    "\u25810x4262": 4962,
    "\u25810x4a70": 4963,
    "\u25810x4b80": 4964,
    "\u25810x523e": 4965,
    "\u25810x7070": 4966,
    "\u25810x7db4": 4967,
    "\u25810x7db5": 4968,
    "\u2581winrar": 4969,
    "dosdatet": 4970,
    "\u2581getshort": 4971,
    "dosdatetime": 4972,
    "\u25810xfeee00c5": 4973,
    "\u25810xfeee00c6": 4974,
    "\u25810xfeee00c7": 4975,
    "\u25810xfeee00c8": 4976,
    "\u25810xfeee00c9": 4977,
    "\u25810xfeee00ca": 4978,
    "\u25810xfeee00cb": 4979,
    "\u2581getactivewindow": 4980,
    "\u2581filetimetodosdatetime": 4981,
    "bdcf6ac10a46cd30c9b1e02c659cd1fa": 4982,
    "91e9b7b38900fd6efa8166b0687f6eb8a": 4983,
    "526": 4984,
    "758": 4985,
    "e08": 4986,
    "sel": 4987,
    "usp": 4988,
    "a7b0": 4989,
    "f200": 4990,
    "\u25810x607": 4991,
    "\u25810x42ea": 4992,
    "\u25810x4c90": 4993,
    "\u25810x7730": 4994,
    "\u25810x7b80": 4995,
    "\u25810x45d338": 4996,
    "\u25810x1210f20": 4997,
    "\u25810x1211d10": 4998,
    "\u25810xfeee010f": 4999,
    "\u2581getdlgitem": 5000,
    "\u2581getenhmetafile": 5001,
    "760": 5002,
    "\u2581getob": 5003,
    "resourc": 5004,
    "\u25810x8cf0": 5005,
    "\u25810x1210a": 5006,
    "\u2581environ": 5007,
    "\u25810x41b868": 5008,
    "\u25810x45c238": 5009,
    "\u25810x1210834": 5010,
    "\u25810x1210ee0": 5011,
    "\u2581deviceioc": 5012,
    "andsettings": 5013,
    "windowshook": 5014,
    "\u2581applicationdata": 5015,
    "\u2581documentsandsettings": 5016,
    "7b73d1cccf16276b474d387997c9fad": 5017,
    "a84a3f3acdb3219f916b6eab2e2576663": 5018,
    "bb209cc7123ea66397feac0e7f417346d": 5019,
    "384": 5020,
    "9e6": 5021,
    "b22": 5022,
    "e68": 5023,
    "ff0": 5024,
    "\u2581zw": 5025,
    "ement": 5026,
    "\u2581kill": 5027,
    "\u25810x47f0": 5028,
    "\u25810x71c0": 5029,
    "\u25810x7b60": 5030,
    "\u25810x8b50": 5031,
    "emaphore": 5032,
    "writeptr": 5033,
    "\u2581settext": 5034,
    "\u25810x40b3a0": 5035,
    "\u25810x436410": 5036,
    "\u25810x43a480": 5037,
    "\u2581createdi": 5038,
    "fxstring39": 5039,
    "\u25810x1210e1b": 5040,
    "\u25810x1210e27": 5041,
    "\u2581killtimer": 5042,
    "\u2581cocreateinst": 5043,
    "\u2581isbadwriteptr": 5044,
    "drl6660drl6660drl6660": 5045,
    "bd0": 5046,
    "eb7": 5047,
    "f8c": 5048,
    "lti": 5049,
    "ted": 5050,
    "\u25817z": 5051,
    "3cd8": 5052,
    "eeb9": 5053,
    "inki": 5054,
    "\u2581try": 5055,
    "endar": 5056,
    "ca0000": 5057,
    "\u25810x390": 5058,
    "\u25810xccc": 5059,
    "\u25810x412b": 5060,
    "\u25810x42c2": 5061,
    "\u25810x43c3": 5062,
    "\u25810x44d5": 5063,
    "\u25810x7bf8": 5064,
    "calendar": 5065,
    "ervicect": 5066,
    "\u25810x12069": 5067,
    "\u25810x426264": 5068,
    "\u25810x436402": 5069,
    "\u25810x54a7b0": 5070,
    "\u25810x1210e00": 5071,
    "\u25810x1210e40": 5072,
    "\u25810x80ca0000": 5073,
    "\u2581localfilet": 5074,
    "\u2581getsystemdefaultlangid": 5075,
    "\u2581localfiletimetofiletime": 5076,
    "334365d95136574b7853cf39214556e1d": 5077,
    "adb7e48f07834416ce1568f2e454d83b88": 5078,
    "b0a84a3f3acdb3219f916b6eab2e2576663": 5079,
    "el": 5080,
    "005": 5081,
    "32a": 5082,
    "5b0": 5083,
    "d3b": 5084,
    "ort": 5085,
    "\u2581sy": 5086,
    "times": 5087,
    "\u25810x169b": 5088,
    "\u25810x471c": 5089,
    "\u25810x70e0": 5090,
    "\u25810x7e9c": 5091,
    "\u25810x7ea4": 5092,
    "\u25810x20009": 5093,
    "\u25810x44c400": 5094,
    "\u25810x1211f4c": 5095,
    "\u25810x1211f8c": 5096,
    "\u2581movefilea": 5097,
    "querysystem": 5098,
    "\u2581fileexistsw": 5099,
    "\u2581enumcalendar": 5100,
    "\u2581process32nextw": 5101,
    "\u2581deviceiocontrol": 5102,
    "\u2581globalfindatoma": 5103,
    "querysysteminformation": 5104,
    "1c0": 5105,
    "dc4": 5106,
    "ea4": 5107,
    "msg": 5108,
    "000c": 5109,
    "5440": 5110,
    "acce": 5111,
    "onit": 5112,
    "prog": 5113,
    "\u2581ini": 5114,
    "ocket": 5115,
    "solid": 5116,
    "\u25810x130": 5117,
    "\u25810x20a": 5118,
    "\u25810x488": 5119,
    "\u25810x7e98": 5120,
    "\u25810x7e99": 5121,
    "\u25810x7e9d": 5122,
    "\u25810x7eb0": 5123,
    "\u25810x85d0": 5124,
    "register": 5125,
    "\u25810x44d4d0": 5126,
    "\u25810x44d4e8": 5127,
    "\u25810x450928": 5128,
    "\u25810x484003": 5129,
    "\u25810x484004": 5130,
    "\u25810x484005": 5131,
    "\u25810x484006": 5132,
    "\u25810x484007": 5133,
    "\u25810x484008": 5134,
    "\u25810x484009": 5135,
    "\u25810x48400a": 5136,
    "\u25810x48400b": 5137,
    "\u25810x48400c": 5138,
    "\u25810x48400d": 5139,
    "\u25810x48400e": 5140,
    "\u25810x48400f": 5141,
    "\u25810x120f878": 5142,
    "\u25810x121085c": 5143,
    "\u25810x1210e50": 5144,
    "\u25810x1210f00": 5145,
    "\u25810x1210fa0": 5146,
    "\u25810x1210fc0": 5147,
    "\u25810x1211f6c": 5148,
    "\u2581getconsolec": 5149,
    "b9c4f7cf99faebb53570bde23564f2920": 5150,
    "2d57b73d1cccf16276b474d387997c9fad": 5151,
    "9a237e8c1f6f27bffa038803566fa6d63d": 5152,
    "a2ffa2807e686e2e32d5b110c664169ca81": 5153,
    "fa334365d95136574b7853cf39214556e1d": 5154,
    "6398bdcf6ac10a46cd30c9b1e02c659cd1fa": 5155,
    "1cb": 5156,
    "1e0": 5157,
    "55c": 5158,
    "5d0": 5159,
    "ce5": 5160,
    "\u2581he": 5161,
    "94c4": 5162,
    "anag": 5163,
    "buil": 5164,
    "\u2581afx": 5165,
    "ce0000": 5166,
    "\u2581wsast": 5167,
    "\u25810x7ea1": 5168,
    "\u25810x7ead": 5169,
    "\u25810x430138": 5170,
    "\u25810x120f5d0": 5171,
    "\u25810x1210df0": 5172,
    "\u25810x1210e2f": 5173,
    "\u25810xfeee00cc": 5174,
    "\u25810xfeee00cd": 5175,
    "\u25810xfeee00ce": 5176,
    "\u2581wsastartup": 5177,
    "\u2581readconsole": 5178,
    "\u2581invalidaterect": 5179,
    "\u2581mapvirtualkeyw": 5180,
    "218": 5181,
    "684": 5182,
    "958": 5183,
    "d84": 5184,
    "\u2581lz": 5185,
    "draw": 5186,
    "beloc": 5187,
    "buffa": 5188,
    "ccccc": 5189,
    "\u2581aaag": 5190,
    "\u2581aaak": 5191,
    "\u2581aaal": 5192,
    "anager": 5193,
    "\u25810x418": 5194,
    "\u25810x475": 5195,
    "\u25810x40f8": 5196,
    "\u25810x7cb0": 5197,
    "\u25810x7ea5": 5198,
    "\u25810x7ea8": 5199,
    "\u25810x7ea9": 5200,
    "\u25810x7eac": 5201,
    "\u25810x7eb1": 5202,
    "\u25810x7eb4": 5203,
    "\u25810x7eb5": 5204,
    "\u25810x7eb8": 5205,
    "\u25810x7eb9": 5206,
    "belocated": 5207,
    "\u25810x40a054": 5208,
    "\u25810x40a055": 5209,
    "\u25810x43f650": 5210,
    "\u25810x1210f40": 5211,
    "\u25810x1211e70": 5212,
    "\u25810x6ce0000": 5213,
    "\u25810xcccccccc": 5214,
    "\u25810xfeee00cf": 5215,
    "\u2581lcmapstringa": 5216,
    "\u2581setwindowpos": 5217,
    "\u2581createsemaphorew": 5218,
    "46bb209cc7123ea66397feac0e7f417346d": 5219,
    "3202d57b73d1cccf16276b474d387997c9fad": 5220,
    "34b0a84a3f3acdb3219f916b6eab2e2576663": 5221,
    "64a2ffa2807e686e2e32d5b110c664169ca81": 5222,
    "eeb9b9c4f7cf99faebb53570bde23564f2920": 5223,
    "1e6": 5224,
    "tsb": 5225,
    "win": 5226,
    "latsb": 5227,
    "archiv": 5228,
    "\u25810x42e4": 5229,
    "\u25810x4a30": 5230,
    "\u25810x120fa": 5231,
    "\u2581gethost": 5232,
    "\u2581handler": 5233,
    "\u25810x45b178": 5234,
    "\u25810x4de648": 5235,
    "\u25810x77002b": 5236,
    "\u25810x1210f8c": 5237,
    "\u25810x1211da4": 5238,
    "\u25810x1211ed0": 5239,
    "\u25810x1211f08": 5240,
    "\u2581regdeletevaluea": 5241,
    "198": 5242,
    "b58": 5243,
    "e88": 5244,
    "e94": 5245,
    "tind": 5246,
    "parent": 5247,
    "\u25810x40a4": 5248,
    "\u25810x4184": 5249,
    "\u25810x7ebc": 5250,
    "\u25810x7ebd": 5251,
    "\u25810x7ef0": 5252,
    "entpoint": 5253,
    "\u2581getlast": 5254,
    "tindirect": 5255,
    "\u25810x40a3e8": 5256,
    "\u25810x4106b0": 5257,
    "\u25810x410f08": 5258,
    "\u25810x4b6270": 5259,
    "\u25810x1210e60": 5260,
    "\u25810x1210e80": 5261,
    "\u25810x1210ef4": 5262,
    "\u25810x1210f5c": 5263,
    "\u25810x1211e64": 5264,
    "\u25810x350b8d6": 5265,
    "activepopup": 5266,
    "\u2581regqueryinfo": 5267,
    "\u2581createfontindirect": 5268,
    "\u2581getlastactivepopup": 5269,
    "a6fa334365d95136574b7853cf39214556e1d": 5270,
    "5440adb7e48f07834416ce1568f2e454d83b88": 5271,
    "94c49a237e8c1f6f27bffa038803566fa6d63d": 5272,
    "ea6398bdcf6ac10a46cd30c9b1e02c659cd1fa": 5273,
    "3a4": 5274,
    "650": 5275,
    "710": 5276,
    "d4c": 5277,
    "ed2": 5278,
    "7115": 5279,
    "reen": 5280,
    "\u2581isc": 5281,
    "accel": 5282,
    "\u2581rect": 5283,
    "screen": 5284,
    "\u25810x107": 5285,
    "\u25810x42d0": 5286,
    "\u25810x4450": 5287,
    "\u25810x9960": 5288,
    "\u2581gdipset": 5289,
    "\u2581msvcr71": 5290,
    "\u25810x45d350": 5291,
    "\u25810x57c168": 5292,
    "\u2581wtsapi32": 5293,
    "\u25810x1210e1c": 5294,
    "\u25810x1210ef0": 5295,
    "\u25810x1210f30": 5296,
    "\u25810x1211eb8": 5297,
    "\u25810xfeee0122": 5298,
    "\u2581processidto": 5299,
    "\u2581getwindowrect": 5300,
    "\u2581module32firstw": 5301,
    "\u2581regsetvalueexw": 5302,
    "securitydescriptor": 5303,
    "\u2581gettextextentpoint": 5304,
    "\u2581processidtosessionid": 5305,
    "30c": 5306,
    "axi": 5307,
    "ign": 5308,
    "\u2581sw": 5309,
    "002a": 5310,
    "314f7": 5311,
    "aaaaa": 5312,
    "\u2581aaad": 5313,
    "\u2581aaaq": 5314,
    "\u2581hels": 5315,
    "\u2581work": 5316,
    "\u25810x12f1": 5317,
    "\u25810x427d": 5318,
    "\u25810x4720": 5319,
    "\u25810x4868": 5320,
    "\u25810x7c20": 5321,
    "\u25810x90f0": 5322,
    "\u25810xff91": 5323,
    "\u2581yapaxi": 5324,
    "itthread": 5325,
    "atomnamea": 5326,
    "\u25810x40b7b2": 5327,
    "\u25810x44edc0": 5328,
    "\u25810x7ee001": 5329,
    "\u25810x7ee002": 5330,
    "\u25810x7ee003": 5331,
    "\u25810x7ee004": 5332,
    "\u25810x7ee005": 5333,
    "\u25810x7ee006": 5334,
    "\u25810x7ee007": 5335,
    "\u25810x7ee008": 5336,
    "\u25810x7ee009": 5337,
    "\u25810x7ee00a": 5338,
    "\u25810x7ee00b": 5339,
    "\u25810x7ee00c": 5340,
    "\u25810x7ee00d": 5341,
    "\u25810x7ee00e": 5342,
    "\u25810x7ee00f": 5343,
    "\u25810x7ee010": 5344,
    "\u25810x7ee011": 5345,
    "\u25810x7ee012": 5346,
    "\u25810x7ee013": 5347,
    "\u25810x7ee014": 5348,
    "\u25810x7ee015": 5349,
    "\u25810x7ee016": 5350,
    "\u25810x7ee017": 5351,
    "\u25810x7ee018": 5352,
    "\u25810x7ee019": 5353,
    "\u2581helsinki": 5354,
    "\u25810x120faa4": 5355,
    "\u25810x1210e2b": 5356,
    "\u25810x1210f10": 5357,
    "\u25810x1210f84": 5358,
    "\u25810x1210f94": 5359,
    "\u25810x58000000": 5360,
    "aaaaaaaaaaaaa": 5361,
    "\u2581getconsolecp": 5362,
    "\u2581aaaaaaaaaaaaaaaaaaa": 5363,
    "\u2581setthreadpreferreduilanguages": 5364,
    "\u2581aaaaaaaaaaaaaaaaaaaaaaaaaaaaaaaa": 5365,
    "fd591e9b7b38900fd6efa8166b0687f6eb8a": 5366,
    "ba846bb209cc7123ea66397feac0e7f417346d": 5367,
    "e73202d57b73d1cccf16276b474d387997c9fad": 5368,
    "no": 5369,
    "3c7": 5370,
    "444": 5371,
    "770": 5372,
    "774": 5373,
    "esp": 5374,
    "fa0": 5375,
    "fb8": 5376,
    "fe8": 5377,
    "conv": 5378,
    "core": 5379,
    "ctrl": 5380,
    "output": 5381,
    "proper": 5382,
    "\u25810x437": 5383,
    "\u25810x1810": 5384,
    "\u25810x41d7": 5385,
    "\u25810x42a4": 5386,
    "\u25810x42e3": 5387,
    "\u25810x73d0": 5388,
    "\u25810x7db8": 5389,
    "\u25810x7db9": 5390,
    "\u2581dialog": 5391,
    "lientrect": 5392,
    "\u25810x1210e23": 5393,
    "\u25810x1210ea0": 5394,
    "\u2581cannotopen": 5395,
    "\u2581getclientrect": 5396,
    "\u2581writeprocessmemory": 5397,
    "md": 5398,
    "738": 5399,
    "ce6": 5400,
    "new": 5401,
    "6ahi": 5402,
    "glti": 5403,
    "\u2581ins": 5404,
    "\u2581rec": 5405,
    "decla": 5406,
    "drive": 5407,
    "conven": 5408,
    "malloc": 5409,
    "\u25810x242": 5410,
    "\u25810x4aa": 5411,
    "\u2581opent": 5412,
    "\u2581power": 5413,
    "listmsg": 5414,
    "redwith": 5415,
    "\u25810x418e": 5416,
    "\u25810x7c16": 5417,
    "\u25810x8f30": 5418,
    "\u25810x9030": 5419,
    "\u2581unglti": 5420,
    "\u2581strcpyw": 5421,
    "\u25810x181b70": 5422,
    "\u25810x434002": 5423,
    "\u25810x434004": 5424,
    "\u25810x434006": 5425,
    "\u25810x434008": 5426,
    "\u25810x43400a": 5427,
    "\u25810x43400c": 5428,
    "\u25810x43400e": 5429,
    "\u25810x434010": 5430,
    "\u25810x434014": 5431,
    "\u25810x434016": 5432,
    "\u25810x434018": 5433,
    "\u25810x46ec80": 5434,
    "\u25810x53c820": 5435,
    "\u2581commctrl": 5436,
    "convention": 5437,
    "\u25810x1210f68": 5438,
    "\u25810x1210f80": 5439,
    "\u25810x1211b8c": 5440,
    "\u2581openthread": 5441,
    "declaredwith": 5442,
    "\u2581draglistmsg": 5443,
    "\u2581myarg1myarg2": 5444,
    "callingconvention": 5445,
    "ee2eeb9b9c4f7cf99faebb53570bde23564f2920": 5446,
    "16c": 5447,
    "370": 5448,
    "8c8": 5449,
    "9c0": 5450,
    "ab5": 5451,
    "edu": 5452,
    "\u258110": 5453,
    "\u258115": 5454,
    "lseek": 5455,
    "\u2581imag": 5456,
    "\u25810x454": 5457,
    "entryto": 5458,
    "procedu": 5459,
    "\u25810x4216": 5460,
    "\u25810x48c0": 5461,
    "\u25810x5284": 5462,
    "\u25810x7a10": 5463,
    "\u25810x8ce0": 5464,
    "\u25810x9010": 5465,
    "\u25810x20535": 5466,
    "\u2581strrchr": 5467,
    "\u25810x434012": 5468,
    "\u25810x1000000": 5469,
    "\u25810x1210e24": 5470,
    "\u25810x1210f44": 5471,
    "\u25810x1211a3c": 5472,
    "\u25810x5265c28": 5473,
    "entrytodata": 5474,
    "\u25810x71000000": 5475,
    "\u2581imagedirectory": 5476,
    "\u2581imagedirectoryentrytodata": 5477,
    "\u2581setfileinformationbyhandlew": 5478,
    "\u2581getfileinformationbyhandleexw": 5479,
    "ac8": 5480,
    "b80": 5481,
    "bar": 5482,
    "d0c": 5483,
    "f60": 5484,
    "fe0": 5485,
    "ream": 5486,
    "propa": 5487,
    "\u2581aaap": 5488,
    "\u25810x237": 5489,
    "\u25810x490": 5490,
    "\u25810x4d4": 5491,
    "\u25810x7b3": 5492,
    "\u25810x406c": 5493,
    "\u25810x40d5": 5494,
    "\u25810x410e": 5495,
    "\u25810x42bd": 5496,
    "\u25810x43b4": 5497,
    "\u25810x4860": 5498,
    "\u25810x7dc8": 5499,
    "\u2581insert": 5500,
    "\u25810x523e40": 5501,
    "\u2581getdeskt": 5502,
    "\u25810x1210e18": 5503,
    "\u25810x12110a8": 5504,
    "\u25810x1211d9c": 5505,
    "\u2581getdesktopwindow": 5506,
    "32434b0a84a3f3acdb3219f916b6eab2e2576663": 5507,
    "3ae73202d57b73d1cccf16276b474d387997c9fad": 5508,
    "940ba846bb209cc7123ea66397feac0e7f417346d": 5509,
    "e024a6fa334365d95136574b7853cf39214556e1d": 5510,
    "ffcea6398bdcf6ac10a46cd30c9b1e02c659cd1fa": 5511,
    "36c": 5512,
    "558": 5513,
    "666": 5514,
    "\u2581bc": 5515,
    "\u2581py": 5516,
    "447d": 5517,
    "\u2581bit": 5518,
    "\u25810x486": 5519,
    "\u25810x4050": 5520,
    "\u25810x40e2": 5521,
    "\u25810x416a": 5522,
    "\u25810x75b0": 5523,
    "\u25810x7770": 5524,
    "\u25810x411c10": 5525,
    "\u25810x41f000": 5526,
    "\u25810x441804": 5527,
    "\u25810x442808": 5528,
    "\u25810x4606a0": 5529,
    "solidbrush": 5530,
    "\u25810x1210e08": 5531,
    "\u25810x1210e8c": 5532,
    "\u25810x1210eb4": 5533,
    "\u25810x1210f98": 5534,
    "\u2581setcursor": 5535,
    "\u25810x10021ff0": 5536,
    "\u25810x10022020": 5537,
    "\u2581createsolidbrush": 5538,
    "1e8": 5539,
    "3a0": 5540,
    "786": 5541,
    "b23": 5542,
    "b7c": 5543,
    "f4c": 5544,
    "thr": 5545,
    "de47": 5546,
    "snot": 5547,
    "clipr": 5548,
    "\u2581gthr": 5549,
    "lass32": 5550,
    "\u25810x532": 5551,
    "\u25810x702": 5552,
    "\u25810x4484": 5553,
    "\u25810x44aa": 5554,
    "\u25810x4e40": 5555,
    "\u25810x7310": 5556,
    "\u25810x97a0": 5557,
    "\u25810x120fe": 5558,
    "\u25810x169be": 5559,
    "\u2581mingw32": 5560,
    "\u25810x4184c0": 5561,
    "\u25810x4195f0": 5562,
    "\u25810x419620": 5563,
    "\u25810x420c60": 5564,
    "\u25810x43a438": 5565,
    "\u25810x442806": 5566,
    "\u25810x44280a": 5567,
    "\u25810x44280c": 5568,
    "\u25810x44280e": 5569,
    "\u25810x442810": 5570,
    "\u25810x442812": 5571,
    "\u25810x442814": 5572,
    "\u25810x442816": 5573,
    "\u25810x442818": 5574,
    "\u25810x44281a": 5575,
    "\u25810x44281c": 5576,
    "\u25810x44281e": 5577,
    "\u25810x1210df8": 5578,
    "\u25810x1210e17": 5579,
    "\u25810x1210e48": 5580,
    "\u25810x1210e68": 5581,
    "\u25810x1210eac": 5582,
    "\u25810x1210f24": 5583,
    "\u25810x1210f28": 5584,
    "\u25810x1211738": 5585,
    "\u25810x1211898": 5586,
    "\u25810x3020302": 5587,
    "\u2581libgccw32": 5588,
    "\u25810xfeee00da": 5589,
    "\u2581shgetmalloc": 5590,
    "servicehandle": 5591,
    "\u2581closeservicehandle": 5592,
    "\u2581systemparametersinfoa": 5593,
    "\u2581writeprivateprofilestringa": 5594,
    "fa264a2ffa2807e686e2e32d5b110c664169ca81": 5595,
    "314f7fd591e9b7b38900fd6efa8166b0687f6eb8a": 5596,
    "71155440adb7e48f07834416ce1568f2e454d83b88": 5597,
    "78c": 5598,
    "d7a": 5599,
    "ec4": 5600,
    "ecc": 5601,
    "\u2581qt": 5602,
    "6000": 5603,
    "prec": 5604,
    "parama": 5605,
    "\u25810x2012": 5606,
    "\u25810x4098": 5607,
    "\u25810x42ae": 5608,
    "\u25810x4377": 5609,
    "\u25810x45bc": 5610,
    "\u25810x82f0": 5611,
    "\u25810x8ad0": 5612,
    "\u25810x40300": 5613,
    "\u2581movefil": 5614,
    "\u2581strncpy": 5615,
    "\u25810x2000ec": 5616,
    "\u25810x3f5000": 5617,
    "\u25810x40a670": 5618,
    "\u25810x1210dfb": 5619,
    "\u25810x1210e1f": 5620,
    "\u25810x1210e58": 5621,
    "\u25810x1210e84": 5622,
    "\u25810x1210e88": 5623,
    "\u25810x1210f14": 5624,
    "\u25810x1210f34": 5625,
    "\u25810x1210f88": 5626,
    "\u25810x1210f90": 5627,
    "\u25810x1211cfc": 5628,
    "\u2581setbkmode": 5629,
    "\u2581getfiletime": 5630,
    "\u2581getstringtyp": 5631,
    "\u2581createsemaphorea": 5632,
    "1b0": 5633,
    "2e0": 5634,
    "363": 5635,
    "7d0": 5636,
    "5560": 5637,
    "selfc": 5638,
    "sters": 5639,
    "\u2581aaah": 5640,
    "\u2581susp": 5641,
    "\u25810x334": 5642,
    "\u25810x43e": 5643,
    "dlgitem": 5644,
    "program": 5645,
    "\u25810x8f50": 5646,
    "\u25810xc068": 5647,
    "\u25810xe068": 5648,
    "archivec": 5649,
    "\u25810x2e7eb": 5650,
    "\u2581suspend": 5651,
    "\u25810x41f030": 5652,
    "\u25810x441820": 5653,
    "\u2581createen": 5654,
    "\u25810x120fed0": 5655,
    "\u25810x1210df3": 5656,
    "\u25810x1210df4": 5657,
    "\u25810x1210df9": 5658,
    "\u25810x1210e03": 5659,
    "\u25810x1210e0b": 5660,
    "\u25810x1210e13": 5661,
    "\u25810x1210e14": 5662,
    "\u25810x1210e2d": 5663,
    "\u25810x1210e4c": 5664,
    "\u25810x1210f08": 5665,
    "\u25810x1210f0c": 5666,
    "\u25810x1210f18": 5667,
    "\u25810x1210f4c": 5668,
    "\u25810x1210f58": 5669,
    "\u25810x1210fb8": 5670,
    "\u2581registers": 5671,
    "\u2581gdipcreate": 5672,
    "\u2581settextcolor": 5673,
    "\u2581shellexecutea": 5674,
    "\u2581suspendthread": 5675,
    "\u2581cannotopenselfc": 5676,
    "ervicectrlhandler": 5677,
    "\u2581dispatchmessagew": 5678,
    "\u2581lookupprivilegevaluea": 5679,
    "\u2581registerservicectrlhandler": 5680,
    "19094c49a237e8c1f6f27bffa038803566fa6d63d": 5681,
    "3e3ae73202d57b73d1cccf16276b474d387997c9fad": 5682,
    "9e314f7fd591e9b7b38900fd6efa8166b0687f6eb8a": 5683,
    "446": 5684,
    "646": 5685,
    "7b8": 5686,
    "906": 5687,
    "9a8": 5688,
    "a3f": 5689,
    "d0a": 5690,
    "1218": 5691,
    "init": 5692,
    "isea": 5693,
    "\u2581pro": 5694,
    "param": 5695,
    "\u25810x1b2": 5696,
    "\u25810x45b": 5697,
    "\u25810x4a4": 5698,
    "\u25810x4346": 5699,
    "\u25810x4d20": 5700,
    "\u25810x9500": 5701,
    "precisea": 5702,
    "\u25810x2e7ec": 5703,
    "\u25810x40e558": 5704,
    "\u25810x61e240": 5705,
    "\u25810x1210ded": 5706,
    "\u25810x1210dee": 5707,
    "\u25810x1210def": 5708,
    "\u25810x1210df1": 5709,
    "\u25810x1210df2": 5710,
    "\u25810x1210df5": 5711,
    "\u25810x1210df6": 5712,
    "\u25810x1210df7": 5713,
    "\u25810x1210dfa": 5714,
    "\u25810x1210dfc": 5715,
    "\u25810x1210dfd": 5716,
    "\u25810x1210dfe": 5717,
    "\u25810x1210dff": 5718,
    "\u25810x1210e01": 5719,
    "\u25810x1210e02": 5720,
    "\u25810x1210e04": 5721,
    "\u25810x1210e05": 5722,
    "\u25810x1210e06": 5723,
    "\u25810x1210e07": 5724,
    "\u25810x1210e09": 5725,
    "\u25810x1210e0a": 5726,
    "\u25810x1210e0c": 5727,
    "\u25810x1210e0d": 5728,
    "\u25810x1210e0e": 5729,
    "\u25810x1210e0f": 5730,
    "\u25810x1210e11": 5731,
    "\u25810x1210e12": 5732,
    "\u25810x1210e15": 5733,
    "\u25810x1210e16": 5734,
    "\u25810x1210e19": 5735,
    "\u25810x1210e1a": 5736,
    "\u25810x1210e1d": 5737,
    "\u25810x1210e1e": 5738,
    "\u25810x1210e21": 5739,
    "\u25810x1210e22": 5740,
    "\u25810x1210e25": 5741,
    "\u25810x1210e26": 5742,
    "\u25810x1210e29": 5743,
    "\u25810x1210e2a": 5744,
    "\u25810x1210e2e": 5745,
    "\u25810x1210e31": 5746,
    "\u25810x1210e32": 5747,
    "\u25810x1210e33": 5748,
    "\u25810x1210e35": 5749,
    "\u25810x1210e36": 5750,
    "\u25810x1210e37": 5751,
    "\u25810x1210e38": 5752,
    "\u25810x1210e39": 5753,
    "\u25810x1210e3a": 5754,
    "\u25810x1210e3b": 5755,
    "\u25810x1210e3c": 5756,
    "\u25810x1210e3d": 5757,
    "\u25810x1210e3e": 5758,
    "\u25810x1210e3f": 5759,
    "\u25810x1210e41": 5760,
    "\u25810x1210e42": 5761,
    "\u25810x1210e43": 5762,
    "\u25810x1210e44": 5763,
    "\u25810x1210e45": 5764,
    "\u25810x1210e46": 5765,
    "\u25810x1210e47": 5766,
    "\u25810x1210e49": 5767,
    "\u25810x1210e4a": 5768,
    "\u25810x1210e4b": 5769,
    "\u25810x1210e4d": 5770,
    "\u25810x1210e4e": 5771,
    "\u25810x1210e4f": 5772,
    "\u25810x1210e51": 5773,
    "\u25810x1210e52": 5774,
    "\u25810x1210e53": 5775,
    "\u25810x1210e54": 5776,
    "\u25810x1210e55": 5777,
    "\u25810x1210e56": 5778,
    "\u25810x1210e57": 5779,
    "\u25810x1210e59": 5780,
    "\u25810x1210e5a": 5781,
    "\u25810x1210e5b": 5782,
    "\u25810x1210e5c": 5783,
    "\u25810x1210e5d": 5784,
    "\u25810x1210e5e": 5785,
    "\u25810x1210e5f": 5786,
    "\u25810x1210e61": 5787,
    "\u25810x1210e62": 5788,
    "\u25810x1210e63": 5789,
    "\u25810x1210e64": 5790,
    "\u25810x1210e65": 5791,
    "\u25810x1210e66": 5792,
    "\u25810x1210e67": 5793,
    "\u25810x1210e69": 5794,
    "\u25810x1210e6a": 5795,
    "\u25810x1210e6b": 5796,
    "\u25810x1210e6c": 5797,
    "\u25810x1210e6d": 5798,
    "\u25810x1210e6e": 5799,
    "\u25810x1210e6f": 5800,
    "\u25810x1210e71": 5801,
    "\u25810x1210e72": 5802,
    "\u25810x1210e73": 5803,
    "\u25810x1210e74": 5804,
    "\u25810x1210e75": 5805,
    "\u25810x1210e76": 5806,
    "\u25810x1210e77": 5807,
    "\u25810x1210e78": 5808,
    "\u25810x1210e79": 5809,
    "\u25810x1210e7a": 5810,
    "\u25810x1210e7b": 5811,
    "\u25810x1210e7c": 5812,
    "\u25810x1210e7d": 5813,
    "\u25810x1210e7e": 5814,
    "\u25810x1210e7f": 5815,
    "\u25810x1210e81": 5816,
    "\u25810x1210e82": 5817,
    "\u25810x1210e83": 5818,
    "\u25810x1210e85": 5819,
    "\u25810x1210e86": 5820,
    "\u25810x1210e87": 5821,
    "\u25810x1210e89": 5822,
    "\u25810x1210e8a": 5823,
    "\u25810x1210e8b": 5824,
    "\u25810x1210e8d": 5825,
    "\u25810x1210e9f": 5826,
    "\u25810x1210ea1": 5827,
    "\u25810x1210ea2": 5828,
    "\u25810x1210ea3": 5829,
    "\u25810x1210ea4": 5830,
    "\u25810x1210ea5": 5831,
    "\u25810x1210ea6": 5832,
    "\u25810x1210ea7": 5833,
    "\u25810x1210ea8": 5834,
    "\u25810x1210ea9": 5835,
    "\u25810x1210eaa": 5836,
    "\u25810x1210eab": 5837,
    "\u25810x1210ead": 5838,
    "\u25810x1210eae": 5839,
    "\u25810x1210eaf": 5840,
    "\u25810x1210eb1": 5841,
    "\u25810x1210eb2": 5842,
    "\u25810x1210eb3": 5843,
    "\u25810x1210eb5": 5844,
    "\u25810x1210eb6": 5845,
    "\u25810x1210eb7": 5846,
    "\u25810x1210eb8": 5847,
    "\u25810x1210eb9": 5848,
    "\u25810x1210eba": 5849,
    "\u25810x1210ebb": 5850,
    "\u25810x1210ebd": 5851,
    "\u25810x1210ebe": 5852,
    "\u25810x1210ebf": 5853,
    "\u25810x1210ec1": 5854,
    "\u25810x1210ec2": 5855,
    "\u25810x1210ec3": 5856,
    "\u25810x1210ec4": 5857,
    "\u25810x1210ec5": 5858,
    "\u25810x1210ec6": 5859,
    "\u25810x1210ec7": 5860,
    "\u25810x1210ec8": 5861,
    "\u25810x1210ec9": 5862,
    "\u25810x1210eca": 5863,
    "\u25810x1210ecb": 5864,
    "\u25810x1210ee8": 5865,
    "\u25810x1210ef8": 5866,
    "\u25810x1210efc": 5867,
    "\u25810x1211e68": 5868,
    "\u25810x10009880": 5869,
    "\u25810xfeee00d0": 5870,
    "\u2581beginpaint": 5871,
    "\u2581unregister": 5872,
    "\u2581gettempfilenamew": 5873,
    "\u2581getsystemtimeprecisea": 5874,
    "5a0": 5875,
    "d3c": 5876,
    "f88": 5877,
    "pix": 5878,
    "edit": 5879,
    "\u2581tim": 5880,
    "ected": 5881,
    "reent": 5882,
    "byname": 5883,
    "fileex": 5884,
    "\u25810x18c": 5885,
    "\u25810x426": 5886,
    "\u25810x43a": 5887,
    "\u25810x3810": 5888,
    "\u25810x40de": 5889,
    "\u25810x449e": 5890,
    "\u25810x84b0": 5891,
    "\u25810x8af0": 5892,
    "\u2581unpack": 5893,
    "\u2581regedit": 5894,
    "\u25810x434001": 5895,
    "\u25810x434003": 5896,
    "\u25810x434005": 5897,
    "\u25810x434007": 5898,
    "\u25810x434009": 5899,
    "\u25810x43400b": 5900,
    "\u25810x43400d": 5901,
    "\u25810x43400f": 5902,
    "\u25810x434011": 5903,
    "\u25810x434015": 5904,
    "\u25810x434017": 5905,
    "\u25810x603cd8": 5906,
    "\u25810x1210e8e": 5907,
    "\u25810x1210e8f": 5908,
    "\u25810x1210e91": 5909,
    "\u25810x1210e92": 5910,
    "\u25810x1210e93": 5911,
    "\u25810x1210e94": 5912,
    "\u25810x1210e95": 5913,
    "\u25810x1210e96": 5914,
    "\u25810x1210e97": 5915,
    "\u25810x1210e98": 5916,
    "\u25810x1210e99": 5917,
    "\u25810x1210e9a": 5918,
    "\u25810x1210e9b": 5919,
    "\u25810x1210e9c": 5920,
    "\u25810x1210e9d": 5921,
    "\u25810x1210e9e": 5922,
    "\u25810x1210ecd": 5923,
    "\u25810x1210ece": 5924,
    "\u25810x1210ecf": 5925,
    "\u25810x1210ed1": 5926,
    "\u25810x1210ed2": 5927,
    "\u25810x1210ed3": 5928,
    "\u25810x1210ed4": 5929,
    "\u25810x1210ed5": 5930,
    "\u25810x1210ed6": 5931,
    "\u25810x1210ed7": 5932,
    "\u25810x1210ed8": 5933,
    "\u25810x1210ed9": 5934,
    "\u25810x1210eda": 5935,
    "\u25810x1210edb": 5936,
    "\u25810x1210edc": 5937,
    "\u25810x1210edd": 5938,
    "\u25810x1210ede": 5939,
    "\u25810x1210edf": 5940,
    "\u25810x1210ee1": 5941,
    "\u25810x1210ee2": 5942,
    "\u25810x1210ee3": 5943,
    "\u25810x1210ee4": 5944,
    "\u25810x1210ee5": 5945,
    "\u25810x1210ee6": 5946,
    "\u25810x1210ee7": 5947,
    "\u25810x1210ee9": 5948,
    "\u25810x1210eea": 5949,
    "\u25810x1210eeb": 5950,
    "\u25810x1210eec": 5951,
    "\u25810x1210eed": 5952,
    "\u25810x1210eee": 5953,
    "\u25810x1210eef": 5954,
    "\u25810x1210ef1": 5955,
    "\u25810x1210ef2": 5956,
    "\u25810x1210ef3": 5957,
    "\u25810x1210ef5": 5958,
    "\u25810x1210ef6": 5959,
    "\u25810x1210ef7": 5960,
    "\u25810x1210ef9": 5961,
    "\u25810x1210efa": 5962,
    "\u25810x1210efb": 5963,
    "\u25810x1210efd": 5964,
    "\u25810x1210efe": 5965,
    "\u25810x1210eff": 5966,
    "\u25810x1210f01": 5967,
    "\u25810x1210f02": 5968,
    "\u25810x1210f03": 5969,
    "\u25810x1210f04": 5970,
    "\u25810x1210f05": 5971,
    "\u25810x1210f06": 5972,
    "\u25810x1210f07": 5973,
    "\u25810x1210f09": 5974,
    "\u25810x1210f0a": 5975,
    "\u25810x1210f0b": 5976,
    "\u25810x1210f0d": 5977,
    "\u25810x1210f0e": 5978,
    "\u25810x1210f0f": 5979,
    "\u25810x1210f11": 5980,
    "\u25810x1210f12": 5981,
    "\u25810x1210f13": 5982,
    "\u25810x1210f15": 5983,
    "\u25810x1210f16": 5984,
    "\u25810x1210f17": 5985,
    "\u25810x1210f19": 5986,
    "\u25810x1210f1a": 5987,
    "\u25810x1210f1b": 5988,
    "\u25810x1210f1c": 5989,
    "\u25810x1210f1d": 5990,
    "\u25810x1210f1e": 5991,
    "\u25810x1210f1f": 5992,
    "\u25810x1210f21": 5993,
    "\u25810x1210f22": 5994,
    "\u25810x1210f23": 5995,
    "\u25810x1210f25": 5996,
    "\u25810x1210f26": 5997,
    "\u25810x1210f27": 5998,
    "\u25810x1210f29": 5999,
    "\u25810x1210f2a": 6000,
    "\u25810x1210f2b": 6001,
    "\u25810x1210f2c": 6002,
    "\u25810x1210f2d": 6003,
    "\u25810x1210f2e": 6004,
    "\u25810x1210f2f": 6005,
    "\u25810x1210f31": 6006,
    "\u25810x1210f32": 6007,
    "\u25810x1210f33": 6008,
    "\u25810x1210f35": 6009,
    "\u25810x1210f36": 6010,
    "\u25810x1210f37": 6011,
    "\u25810x1210f38": 6012,
    "\u25810x1210f39": 6013,
    "\u25810x1210f3a": 6014,
    "\u25810x1210f3b": 6015,
    "\u25810x1210f3c": 6016,
    "\u25810x1210f3d": 6017,
    "\u25810x1210f3e": 6018,
    "\u25810x1210f3f": 6019,
    "\u25810x1210f41": 6020,
    "\u25810x1210f42": 6021,
    "\u25810x1210f43": 6022,
    "\u25810x1210f45": 6023,
    "\u25810x1210f46": 6024,
    "\u25810x1210f47": 6025,
    "\u25810x1210f48": 6026,
    "\u25810x1210f49": 6027,
    "\u25810x1210f4a": 6028,
    "\u25810x1210f4b": 6029,
    "\u25810x1210f4d": 6030,
    "\u25810x1210f4e": 6031,
    "\u25810x1210f4f": 6032,
    "\u25810x1210f51": 6033,
    "\u25810x1210f52": 6034,
    "\u25810x1210f53": 6035,
    "\u25810x1210f55": 6036,
    "\u25810x1210f56": 6037,
    "\u25810x1210f57": 6038,
    "\u25810x1210f59": 6039,
    "\u25810x1210f5a": 6040,
    "\u25810x1210f5b": 6041,
    "\u25810x1210f5d": 6042,
    "\u25810x1210f5e": 6043,
    "\u25810x1210f5f": 6044,
    "\u25810x1210f61": 6045,
    "\u25810x1210f62": 6046,
    "\u25810x1210f63": 6047,
    "\u25810x1210f65": 6048,
    "\u25810x1210f66": 6049,
    "\u25810x1210f67": 6050,
    "\u25810x1210f69": 6051,
    "\u25810x1210f6a": 6052,
    "\u25810x1210f6b": 6053,
    "\u25810x1210f6c": 6054,
    "\u25810x1210f6d": 6055,
    "\u25810x1210f6e": 6056,
    "\u25810x1210f6f": 6057,
    "\u25810x1210f71": 6058,
    "\u25810x1210f72": 6059,
    "\u25810x1210f73": 6060,
    "\u25810x1210f74": 6061,
    "\u25810x1210f75": 6062,
    "\u25810x1210f76": 6063,
    "\u25810x1210f77": 6064,
    "\u25810x1210f78": 6065,
    "\u25810x1210f79": 6066,
    "\u25810x1210f7a": 6067,
    "\u25810x1210f7b": 6068,
    "\u25810x1210f7c": 6069,
    "\u25810x1210f7d": 6070,
    "\u25810x1210f7e": 6071,
    "\u25810x1210f7f": 6072,
    "\u25810x1210f81": 6073,
    "\u25810x1210f82": 6074,
    "\u25810x1210f83": 6075,
    "\u25810x1210f85": 6076,
    "\u25810x1210f86": 6077,
    "\u25810x1210f87": 6078,
    "\u25810x1210f89": 6079,
    "\u25810x1210f8a": 6080,
    "\u25810x1210f8b": 6081,
    "\u25810x1210f8d": 6082,
    "\u25810x1210f8e": 6083,
    "\u25810x1210f8f": 6084,
    "\u25810x1210f91": 6085,
    "\u25810x1210f92": 6086,
    "\u25810x1210f93": 6087,
    "\u25810x1210f95": 6088,
    "\u25810x1210f96": 6089,
    "\u25810x1210f97": 6090,
    "\u25810x1210f99": 6091,
    "\u25810x1210f9a": 6092,
    "\u25810x12118d8": 6093,
    "\u25810x20000000": 6094,
    "\u25810xfeee00d6": 6095,
    "\u25810xfeee00d8": 6096,
    "lectrlhandler": 6097,
    "\u2581getkeyboardlayout": 6098,
    "\u2581setconsolectrlhandler": 6099,
    "fccfa264a2ffa2807e686e2e32d5b110c664169ca81": 6100,
    "447dee2eeb9b9c4f7cf99faebb53570bde23564f2920": 6101,
    "7b71155440adb7e48f07834416ce1568f2e454d83b88": 6102,
    "9e0032434b0a84a3f3acdb3219f916b6eab2e2576663": 6103,
    "386": 6104,
    "4c8": 6105,
    "563": 6106,
    "984": 6107,
    "a65": 6108,
    "b5a": 6109,
    "be3": 6110,
    "bfc": 6111,
    "fig": 6112,
    "ows": 6113,
    "rac": 6114,
    "1f20": 6115,
    "enter": 6116,
    "pixel": 6117,
    "\u25810x118": 6118,
    "\u25810x417": 6119,
    "\u25810x4048": 6120,
    "\u25810x40e7": 6121,
    "\u25810x8310": 6122,
    "\u2581llseek": 6123,
    "flushkey": 6124,
    "\u25810x2e7ed": 6125,
    "\u25810x409389": 6126,
    "\u25810x40938a": 6127,
    "\u25810x4300a8": 6128,
    "\u25810x434013": 6129,
    "\u25810x434019": 6130,
    "\u2581deletedc": 6131,
    "\u2581endpaint": 6132,
    "\u25810x1210d98": 6133,
    "\u25810x1210fb0": 6134,
    "\u25810x1211c84": 6135,
    "\u25810x1211ce4": 6136,
    "\u25810xfeee00d1": 6137,
    "\u25810xfeee00d2": 6138,
    "\u25810xfeee00d3": 6139,
    "\u25810xfeee00d9": 6140,
    "uninitialize": 6141,
    "\u2581regflushkey": 6142,
    "\u2581gethostbyname": 6143,
    "\u2581getthreadcontext": 6144,
    "\u2581translatemessage": 6145,
    "380": 6146,
    "\u258192": 6147,
    "\u2581wi": 6148,
    "17fd": 6149,
    "5060": 6150,
    "aller": 6151,
    "\u2581aaac": 6152,
    "\u2581aaar": 6153,
    "visual": 6154,
    "\u25810x310": 6155,
    "\u2581getdi": 6156,
    "\u25810x41ef": 6157,
    "\u25810x4900": 6158,
    "\u25810x22802": 6159,
    "\u25810x2e7ee": 6160,
    "\u25810x2e7ef": 6161,
    "\u25810x2e7f0": 6162,
    "\u25810x2e7f1": 6163,
    "\u25810x2e7f2": 6164,
    "\u25810x40abd": 6165,
    "semaphore": 6166,
    "\u25810x409355": 6167,
    "\u25810x409356": 6168,
    "\u25810x409357": 6169,
    "\u25810x409358": 6170,
    "\u25810x409359": 6171,
    "\u25810x40935a": 6172,
    "\u25810x40935b": 6173,
    "\u25810x40938b": 6174,
    "\u25810x40938c": 6175,
    "\u25810x40938d": 6176,
    "\u25810x40938e": 6177,
    "\u25810x40938f": 6178,
    "\u25810x4093e1": 6179,
    "\u25810x4093e2": 6180,
    "\u25810x4093e3": 6181,
    "\u25810x409430": 6182,
    "\u25810x409438": 6183,
    "\u25810x40a666": 6184,
    "\u25810x40a668": 6185,
    "\u25810x40a66a": 6186,
    "\u25810x40a66c": 6187,
    "\u25810x40a66e": 6188,
    "\u25810x40a672": 6189,
    "\u25810x4153a0": 6190,
    "\u25810x423590": 6191,
    "\u25810x430070": 6192,
    "\u25810x44d280": 6193,
    "\u25810x44e500": 6194,
    "\u25810x46b1d0": 6195,
    "\u25810x585560": 6196,
    "orarchivec": 6197,
    "\u25810x1210f9b": 6198,
    "\u25810x1210f9c": 6199,
    "\u25810x1210f9d": 6200,
    "\u25810x1210f9e": 6201,
    "\u25810x1210f9f": 6202,
    "\u25810x1210fa1": 6203,
    "\u25810x1210fa2": 6204,
    "\u25810x1210fa3": 6205,
    "\u25810x1210fa4": 6206,
    "\u25810x1210fa5": 6207,
    "\u25810x1210fa6": 6208,
    "\u25810x1210fa7": 6209,
    "\u25810x1210fa8": 6210,
    "\u25810x1210fa9": 6211,
    "\u25810x1210faa": 6212,
    "\u25810x1210fab": 6213,
    "\u25810x1210fac": 6214,
    "\u25810x1210fad": 6215,
    "\u25810x1210fae": 6216,
    "\u25810x1210faf": 6217,
    "\u25810x1210fb1": 6218,
    "\u25810x1210fb2": 6219,
    "\u25810x1210fb3": 6220,
    "\u25810x1210fb4": 6221,
    "\u25810x1210fb5": 6222,
    "\u25810x1210fb6": 6223,
    "\u25810x1210fb7": 6224,
    "\u25810x1210fb9": 6225,
    "\u25810x1210fba": 6226,
    "\u25810x1210fbb": 6227,
    "\u25810x1210fbc": 6228,
    "\u25810x1210fbd": 6229,
    "\u25810x1210fbe": 6230,
    "\u25810x1210fbf": 6231,
    "\u25810x3010301": 6232,
    "\u25810xfeee00d4": 6233,
    "\u25810xfeee00d5": 6234,
    "\u2581getdrivetype": 6235,
    "\u2581createcompatibledc": 6236,
    "\u2581getsystemtimepreciseasfiletime": 6237,
    "573e3ae73202d57b73d1cccf16276b474d387997c9fad": 6238,
    "64fccfa264a2ffa2807e686e2e32d5b110c664169ca81": 6239,
    "ffa0e024a6fa334365d95136574b7853cf39214556e1d": 6240,
    "170": 6241,
    "645": 6242,
    "784": 6243,
    "b36": 6244,
    "d28": 6245,
    "\u258167": 6246,
    "30a6": 6247,
    "9d90": 6248,
    "dd1c": 6249,
    "ress": 6250,
    "\u25810x6d3": 6251,
    "\u25810x7bc": 6252,
    "\u25810x4228": 6253,
    "\u25810x4258": 6254,
    "\u25810x4500": 6255,
    "\u25810x8ee0": 6256,
    "\u2581bitblt": 6257,
    "\u2581flatsb": 6258,
    "\u2581sybase": 6259,
    "\u25810x120ff": 6260,
    "\u25810x42d40": 6261,
    "\u25810x40a230": 6262,
    "\u25810x4b6288": 6263,
    "\u25810xffffff": 6264,
    "\u25810x12119a4": 6265,
    "\u25810xfeee00db": 6266,
    "\u25810xfffffffe": 6267,
    "\u2581getfileversion": 6268,
    "\u2581getfileinformationbyhandle": 6269,
    "1d4": 6270,
    "290": 6271,
    "a69": 6272,
    "app": 6273,
    "f50": 6274,
    "\u2581net": 6275,
    "16ab0": 6276,
    "leave": 6277,
    "\u25810x464": 6278,
    "\u25810x544": 6279,
    "\u25810x10e9": 6280,
    "\u25810x40d8": 6281,
    "\u25810x419b": 6282,
    "\u25810x42b2": 6283,
    "\u25810x696e": 6284,
    "\u25810x7380": 6285,
    "\u25810x7f10": 6286,
    "detected": 6287,
    "\u25810x47900": 6288,
    "\u25810x7a940": 6289,
    "popupmenu": 6290,
    "\u25810x120de50": 6291,
    "\u25810x120ec44": 6292,
    "\u25810x120ec58": 6293,
    "\u25810x12115c4": 6294,
    "\u25810xc000000": 6295,
    "\u2581safearray": 6296,
    "\u25810x100012dfc": 6297,
    "\u2581errorcode126": 6298,
    "\u2581setwindowtexta": 6299,
    "\u2581fatalerrordetected": 6300,
    "de47ffcea6398bdcf6ac10a46cd30c9b1e02c659cd1fa": 6301,
    "f69e314f7fd591e9b7b38900fd6efa8166b0687f6eb8a": 6302,
    "16ab0940ba846bb209cc7123ea66397feac0e7f417346d": 6303,
    "ge": 6304,
    "3c4": 6305,
    "530": 6306,
    "a5e": 6307,
    "ac4": 6308,
    "emt": 6309,
    "rag": 6310,
    "7680": 6311,
    "\u25817zs": 6312,
    "\u25810x4b4": 6313,
    "\u25810x8f7": 6314,
    "\u25810xe10": 6315,
    "\u25810x4013": 6316,
    "\u25810x4100": 6317,
    "\u25810x44e8": 6318,
    "\u25810x79b0": 6319,
    "\u25810x9210": 6320,
    "\u2581begind": 6321,
    "\u2581varian": 6322,
    "\u25810x169bf": 6323,
    "\u25810x40400": 6324,
    "\u25810x40c58": 6325,
    "\u25810x407bba": 6326,
    "\u25810x40f660": 6327,
    "\u25810x41f034": 6328,
    "\u25810x41f038": 6329,
    "textlength": 6330,
    "\u25810x1211ba8": 6331,
    "\u25810x20535e0": 6332,
    "\u2581lstrcmpiw": 6333,
    "\u25810xfeedf200": 6334,
    "\u2581getdrivetypew": 6335,
    "\u2581regdeletekeya": 6336,
    "\u2581getlogicaldrive": 6337,
    "\u2581regcreatekeyexw": 6338,
    "\u2581releasesemaphore": 6339,
    "conditionvariablesrw": 6340,
    "\u2581getwindowtextlength": 6341,
    "\u2581sleepconditionvariablesrw": 6342,
    "675": 6343,
    "7a0": 6344,
    "b20": 6345,
    "be0": 6346,
    "19f3": 6347,
    "b7a54": 6348,
    "\u2581aaam": 6349,
    "\u2581aaan": 6350,
    "\u2581fill": 6351,
    "bcolor": 6352,
    "\u25810x44d": 6353,
    "\u25810x4f0": 6354,
    "\u25810x61f": 6355,
    "\u25810x4025": 6356,
    "\u25810x4160": 6357,
    "\u25810x4220": 6358,
    "\u25810x429f": 6359,
    "\u25810x5a64": 6360,
    "\u25810x5265d": 6361,
    "\u2581enddrag": 6362,
    "\u25810x407bb9": 6363,
    "\u25810x43f000": 6364,
    "\u25810x800000": 6365,
    "\u2581dragmove": 6366,
    "\u25810x1211e54": 6367,
    "\u25810x2000000": 6368,
    "\u2581begindrag": 6369,
    "\u2581dragenter": 6370,
    "\u2581dragleave": 6371,
    "327b71155440adb7e48f07834416ce1568f2e454d83b88": 6372,
    "b7a5419094c49a237e8c1f6f27bffa038803566fa6d63d": 6373,
    "ba9e0032434b0a84a3f3acdb3219f916b6eab2e2576663": 6374,
    "f07447dee2eeb9b9c4f7cf99faebb53570bde23564f2920": 6375,
    "18c": 6376,
    "1c5": 6377,
    "350": 6378,
    "6d7": 6379,
    "918": 6380,
    "9e0": 6381,
    "b5b": 6382,
    "bd8": 6383,
    "ff4": 6384,
    "alize": 6385,
    "extex": 6386,
    "\u2581this": 6387,
    "\u25810x496": 6388,
    "\u25810x2804": 6389,
    "\u25810x4105": 6390,
    "\u25810x412d": 6391,
    "\u25810x4200": 6392,
    "\u25810x4224": 6393,
    "\u25810x4640": 6394,
    "\u25810x8820": 6395,
    "\u25810x43300": 6396,
    "\u25810x405000": 6397,
    "\u25810x421708": 6398,
    "\u25810x450000": 6399,
    "\u25810x475f5c": 6400,
    "freememory": 6401,
    "imagecount": 6402,
    "\u25810x1211ea4": 6403,
    "\u2581copyfilew": 6404,
    "\u2581loadiconw": 6405,
    "\u25810xfeee00dc": 6406,
    "\u2581enablewindow": 6407,
    "\u2581regenumkeyexw": 6408,
    "119": 6409,
    "ae0": 6410,
    "afc": 6411,
    "b50": 6412,
    "f75": 6413,
    "rup": 6414,
    "lear": 6415,
    "angle": 6416,
    "\u2581endd": 6417,
    "\u2581winc": 6418,
    "rupted": 6419,
    "\u25810x232": 6420,
    "\u25810x378": 6421,
    "\u25810x52c": 6422,
    "erclass": 6423,
    "\u25810x4624": 6424,
    "\u25810x7710": 6425,
    "\u25810x7dbc": 6426,
    "\u25810x7dbd": 6427,
    "\u25810x8430": 6428,
    "\u25810x8f00": 6429,
    "\u2581msvcr80": 6430,
    "\u25810x4c42c0": 6431,
    "\u25810x770012": 6432,
    "\u25810x77002d": 6433,
    "\u25810x121191c": 6434,
    "\u2581timecheck": 6435,
    "\u25810xfeee00dd": 6436,
    "\u25810xfeee00de": 6437,
    "\u2581winclass32": 6438,
    "\u2581peekmessagea": 6439,
    "\u2581timecheckerclass": 6440,
    "\u2581getlogicaldrivestring": 6441,
    "1bffa0e024a6fa334365d95136574b7853cf39214556e1d": 6442,
    "8a64fccfa264a2ffa2807e686e2e32d5b110c664169ca81": 6443,
    "783de47ffcea6398bdcf6ac10a46cd30c9b1e02c659cd1fa": 6444,
    "200": 6445,
    "260": 6446,
    "38c": 6447,
    "405": 6448,
    "407": 6449,
    "b0c": 6450,
    "d14": 6451,
    "fb0": 6452,
    "ned": 6453,
    "ung": 6454,
    "\u258100": 6455,
    "\u258141": 6456,
    "\u2581ro": 6457,
    "1bec": 6458,
    "98f5": 6459,
    "chto": 6460,
    "d071": 6461,
    "\u2581zip": 6462,
    "309a0": 6463,
    "328e2": 6464,
    "activ": 6465,
    "b70ea": 6466,
    "c3ffc": 6467,
    "\u2581swit": 6468,
    "lassob": 6469,
    "\u25810x1f8": 6470,
    "\u25810x204": 6471,
    "\u25810x240": 6472,
    "9d90bcc": 6473,
    "\u25810x42f8": 6474,
    "\u25810x451f": 6475,
    "\u25810x7260": 6476,
    "17fd7680": 6477,
    "cmanager": 6478,
    "d07119f3": 6479,
    "30a6309a0": 6480,
    "98f5b70ea": 6481,
    "c3ffcdd1c": 6482,
    "\u25810x45b1c0": 6483,
    "\u25810x61e258": 6484,
    "\u2581switchto": 6485,
    "\u2581dialogbox": 6486,
    "9d90bcc1bec": 6487,
    "328e217fd7680": 6488,
    "\u2581openscmanager": 6489,
    "c3ffcdd1cd07119f3": 6490,
    "98f5b70ea30a6309a0": 6491,
    "\u2581wakeconditionvariable": 6492,
    "328e217fd76809d90bcc1bec": 6493,
    "\u2581getfileinformationbyhandleex": 6494,
    "98f5b70ea30a6309a0c3ffcdd1cd07119f3": 6495,
    "98f5b70ea30a6309a0c3ffcdd1cd07119f3328e217fd76809d90bcc1bec": 6496,
    "aa6": 6497,
    "b13": 6498,
    "b30": 6499,
    "e4c": 6500,
    "e58": 6501,
    "fd0": 6502,
    "\u2581kic": 6503,
    "rwlock": 6504,
    "connect": 6505,
    "\u25810x4078": 6506,
    "\u25810x4295": 6507,
    "\u25810x42db": 6508,
    "\u25810x5000": 6509,
    "\u25810x7190": 6510,
    "\u25810x7df4": 6511,
    "\u25810x99d0": 6512,
    "\u2581wtsget": 6513,
    "\u25810x50f78": 6514,
    "\u2581connect": 6515,
    "\u2581freesid": 6516,
    "\u25810x42a400": 6517,
    "\u25810x1210d90": 6518,
    "\u25810x1211b60": 6519,
    "\u25810x1211cf4": 6520,
    "\u25810x169bc9c": 6521,
    "\u25810xfeee00df": 6522,
    "\u25810xfeee00e0": 6523,
    "\u25810xfeee00e1": 6524,
    "\u25810xfeee00e2": 6525,
    "\u25810xfeee00e3": 6526,
    "stringformat": 6527,
    "\u2581wtsgetactiv": 6528,
    "\u2581createbitmap": 6529,
    "\u2581readconsolew": 6530,
    "\u2581getdateformatw": 6531,
    "econsolesessionid": 6532,
    "\u2581enumcalendarinfoa": 6533,
    "\u2581initializesrwlock": 6534,
    "\u2581wtsgetactiveconsolesessionid": 6535,
    "a3ba9e0032434b0a84a3f3acdb3219f916b6eab2e2576663": 6536,
    "d65f69e314f7fd591e9b7b38900fd6efa8166b0687f6eb8a": 6537,
    "ee4b7a5419094c49a237e8c1f6f27bffa038803566fa6d63d": 6538,
    "ee8a64fccfa264a2ffa2807e686e2e32d5b110c664169ca81": 6539,
    "ws": 6540,
    "yo": 6541,
    "15c": 6542,
    "38e": 6543,
    "7ad": 6544,
    "7dd": 6545,
    "978": 6546,
    "ayn": 6547,
    "b04": 6548,
    "b52": 6549,
    "bb8": 6550,
    "d2c": 6551,
    "ena": 6552,
    "ubm": 6553,
    "\u258113": 6554,
    "\u258175": 6555,
    "b918": 6556,
    "e220": 6557,
    "\u2581low": 6558,
    "store": 6559,
    "\u2581subm": 6560,
    "buffer": 6561,
    "\u25810x438": 6562,
    "\u2581drayn": 6563,
    "\u25810x4060": 6564,
    "\u25810x4150": 6565,
    "\u25810x4754": 6566,
    "\u25810x58db": 6567,
    "\u25810x6b22": 6568,
    "\u25810x7df5": 6569,
    "\u25810x82c0": 6570,
    "\u25810x8a80": 6571,
    "\u2581myarg1": 6572,
    "poolwork": 6573,
    "\u25810x120af": 6574,
    "\u2581creater": 6575,
    "vieworgex": 6576,
    "\u25810x528468": 6577,
    "\u25810x52aa50": 6578,
    "\u25810x61f680": 6579,
    "\u25810x2d4dbfc": 6580,
    "\u25810xfeee00e4": 6581,
    "\u2581submitthread": 6582,
    "\u2581getfileattributes": 6583,
    "\u2581closethreadpoolwork": 6584,
    "\u2581createthreadpoolwork": 6585,
    "\u2581submitthreadpoolwork": 6586,
    "\u2581setfileinformationbyhandle": 6587,
    "1a8": 6588,
    "3c0": 6589,
    "7e8": 6590,
    "ae9": 6591,
    "bc4": 6592,
    "ed0": 6593,
    "f93": 6594,
    "copy": 6595,
    "dc68": 6596,
    "buffw": 6597,
    "lease": 6598,
    "speci": 6599,
    "\u2581inet": 6600,
    "device": 6601,
    "\u25810x234": 6602,
    "\u25810x4ac": 6603,
    "\u25810x5f9": 6604,
    "\u2581track": 6605,
    "\u2581tryac": 6606,
    "startup": 6607,
    "\u25810x120a": 6608,
    "\u25810x12f2": 6609,
    "\u25810x40b1": 6610,
    "\u25810x7ec8": 6611,
    "\u25810x7ec9": 6612,
    "\u25810x89c0": 6613,
    "\u25810x8df0": 6614,
    "\u25810xff92": 6615,
    "\u25810x120fd": 6616,
    "\u25810x181bc0": 6617,
    "\u25810x42a000": 6618,
    "brushorgex": 6619,
    "\u25810x1211904": 6620,
    "\u25810x1211dac": 6621,
    "\u25810x1211e3c": 6622,
    "\u2581createpen": 6623,
    "\u2581destroyen": 6624,
    "\u25810xfeee00e5": 6625,
    "\u2581gdiplusstartup": 6626,
    "\u2581dispatchmessagea": 6627,
    "\u2581createcompatiblebitmap": 6628,
    "\u2581createenvironmentblock": 6629,
    "\u2581destroyenvironmentblock": 6630,
    "\u2581tryacquiresrwlockexclusive": 6631,
    "3fa327b71155440adb7e48f07834416ce1568f2e454d83b88": 6632,
    "89f07447dee2eeb9b9c4f7cf99faebb53570bde23564f2920": 6633,
    "ac516ab0940ba846bb209cc7123ea66397feac0e7f417346d": 6634,
    "124": 6635,
    "158": 6636,
    "1f0": 6637,
    "44e": 6638,
    "96c": 6639,
    "99c": 6640,
    "a3c": 6641,
    "ad5": 6642,
    "ati": 6643,
    "f5c": 6644,
    "249a": 6645,
    "font": 6646,
    "\u25810x11c8": 6647,
    "\u25810x12f0": 6648,
    "\u25810x4230": 6649,
    "\u25810x4233": 6650,
    "\u25810x5267": 6651,
    "\u25810x7250": 6652,
    "\u25810x8490": 6653,
    "\u25810x9560": 6654,
    "\u25810x97b0": 6655,
    "\u25810x9910": 6656,
    "\u25810x120ce": 6657,
    "\u25810x19000": 6658,
    "\u25810x41d780": 6659,
    "\u25810x696e18": 6660,
    "\u25810x12117ec": 6661,
    "\u25810x1211b90": 6662,
    "\u25810x1211c60": 6663,
    "\u25810x7bc00000": 6664,
    "\u2581regenumkeyexa": 6665,
    "\u2581getcomputernamew": 6666,
    "737": 6667,
    "7c0": 6668,
    "d6c": 6669,
    "f57": 6670,
    "fe4": 6671,
    "\u258116": 6672,
    "\u258142": 6673,
    "31d9": 6674,
    "cher": 6675,
    "b33f4": 6676,
    "\u2581poly": 6677,
    "\u2581lopen": 6678,
    "\u25810x4244": 6679,
    "\u25810x4284": 6680,
    "\u25810x4c70": 6681,
    "\u25810x573c": 6682,
    "\u25810x574c": 6683,
    "\u25810x71d0": 6684,
    "\u25810xf000": 6685,
    "\u25810x41cea": 6686,
    "\u25810x43680": 6687,
    "\u2581sprintf": 6688,
    "\u25810x409ea0": 6689,
    "\u25810x422f20": 6690,
    "\u25810x42901a": 6691,
    "\u25810x42a1a8": 6692,
    "\u25810x42a1c0": 6693,
    "\u25810xfeee00e6": 6694,
    "\u25810xfeee00e7": 6695,
    "\u25810xfeee00e8": 6696,
    "\u25810xfeee00e9": 6697,
    "\u2581wtsfreememory": 6698,
    "\u2581registerservicectrlhandlerexa": 6699,
    "41d65f69e314f7fd591e9b7b38900fd6efa8166b0687f6eb8a": 6700,
    "b33f4573e3ae73202d57b73d1cccf16276b474d387997c9fad": 6701,
    "db21bffa0e024a6fa334365d95136574b7853cf39214556e1d": 6702,
    "1aac516ab0940ba846bb209cc7123ea66397feac0e7f417346d": 6703,
    "330": 6704,
    "394": 6705,
    "570": 6706,
    "90c": 6707,
    "9d4": 6708,
    "acl": 6709,
    "est": 6710,
    "a6cc": 6711,
    "\u25814d5": 6712,
    "table": 6713,
    "\u25810x4f3": 6714,
    "\u25810x5a4": 6715,
    "\u25810x40d9": 6716,
    "\u25810x4104": 6717,
    "\u25810x41ec": 6718,
    "\u25810x4534": 6719,
    "\u25810x4ba0": 6720,
    "\u25810x5265": 6721,
    "\u25810x85a0": 6722,
    "\u25810x89e0": 6723,
    "\u25810x8ab0": 6724,
    "function": 6725,
    "\u25810x44eef0": 6726,
    "\u25810x5bc008": 6727,
    "\u2581isdialog": 6728,
    "\u25810x1211788": 6729,
    "\u25810x1211bb0": 6730,
    "\u25810x1211d5c": 6731,
    "\u25810x1211f90": 6732,
    "bcolortable": 6733,
    "\u25810xfeee00ea": 6734,
    "\u25810xfeee00eb": 6735,
    "\u25810xfeee00ec": 6736,
    "\u25810xfeee00f1": 6737,
    "\u25810xfeee00f4": 6738,
    "\u25810xfeee00f6": 6739,
    "\u25810xfeee00f7": 6740,
    "\u2581createpipe": 6741,
    "\u2581replaceicon": 6742,
    "\u2581getdiskfreespaceexw": 6743,
    "rn": 6744,
    "tw": 6745,
    "921": 6746,
    "930": 6747,
    "95b": 6748,
    "a00": 6749,
    "a50": 6750,
    "are": 6751,
    "cac": 6752,
    "e50": 6753,
    "ens": 6754,
    "f28": 6755,
    "f7c": 6756,
    "fc4": 6757,
    "git": 6758,
    "sul": 6759,
    "34e8": 6760,
    "4040": 6761,
    "741a": 6762,
    "qual": 6763,
    "sult": 6764,
    "emtoc": 6765,
    "6d7363": 6766,
    "\u25810x1814": 6767,
    "\u25810x4830": 6768,
    "\u25810x4cc0": 6769,
    "\u25810x71f0": 6770,
    "\u25810x7920": 6771,
    "\u25810x7c00": 6772,
    "\u25810x8420": 6773,
    "\u2581oemtoc": 6774,
    "00000004": 6775,
    "ffff0000": 6776,
    "\u25810x2e7f3": 6777,
    "\u25810x40851b": 6778,
    "\u25810x40851c": 6779,
    "\u25810x40a3f8": 6780,
    "\u25810x40e500": 6781,
    "\u25810x415ea0": 6782,
    "\u25810x41d810": 6783,
    "\u25810x41d840": 6784,
    "\u25810x440540": 6785,
    "\u25810x47a000": 6786,
    "\u25810x56fc28": 6787,
    "\u25810x1211d5a": 6788,
    "\u25810x3781000": 6789,
    "\u2581oemtochar": 6790,
    "\u25810xe06d7363": 6791,
    "\u25810xfeee00ed": 6792,
    "\u25810xfeee00ee": 6793,
    "\u25810xfeee00ef": 6794,
    "\u25810xfeee00f0": 6795,
    "\u25810xfeee00f8": 6796,
    "\u2581destroyicon": 6797,
    "\u2581zwquerysysteminformation": 6798,
    "b1ee4b7a5419094c49a237e8c1f6f27bffa038803566fa6d63d": 6799,
    "eb7a3ba9e0032434b0a84a3f3acdb3219f916b6eab2e2576663": 6800,
    "f1ee8a64fccfa264a2ffa2807e686e2e32d5b110c664169ca81": 6801,
    "ln": 6802,
    "122": 6803,
    "376": 6804,
    "3cd": 6805,
    "5e0": 6806,
    "756": 6807,
    "929": 6808,
    "94c": 6809,
    "9c6": 6810,
    "df8": 6811,
    "ico": 6812,
    "utd": 6813,
    "005c": 6814,
    "5d14": 6815,
    "97b1": 6816,
    "\u2581qt5": 6817,
    "mutex": 6818,
    "nexec": 6819,
    "ension": 6820,
    "\u25810x150": 6821,
    "\u25810x184": 6822,
    "\u25810x3aea": 6823,
    "\u25810x4040": 6824,
    "\u25810x41f4": 6825,
    "\u25810x4236": 6826,
    "\u25810x49d0": 6827,
    "\u25810x4d40": 6828,
    "\u25810x57b7": 6829,
    "\u25810xfff1": 6830,
    "\u25810xfff2": 6831,
    "\u2581extrac": 6832,
    "\u2581winexec": 6833,
    "\u25810x40f118": 6834,
    "\u25810x410668": 6835,
    "\u25810x43c310": 6836,
    "\u25810x44c9b0": 6837,
    "\u25810x44c9f0": 6838,
    "\u25810x4e39cc": 6839,
    "\u25810x4e39e4": 6840,
    "\u25810x1211584": 6841,
    "\u25810x1211cc8": 6842,
    "\u25810xfeee00f2": 6843,
    "\u25810xfeee00f3": 6844,
    "\u25810xfeee00f5": 6845,
    "\u25810xfeee00f9": 6846,
    "\u25810xfeee00fa": 6847,
    "\u2581commandline": 6848,
    "\u2581sfxstring39": 6849,
    "gr": 6850,
    "ml": 6851,
    "154": 6852,
    "1b4": 6853,
    "3e6": 6854,
    "552": 6855,
    "5e8": 6856,
    "5fc": 6857,
    "604": 6858,
    "9b8": 6859,
    "9e8": 6860,
    "a68": 6861,
    "a8c": 6862,
    "d22": 6863,
    "d44": 6864,
    "de2": 6865,
    "lag": 6866,
    "\u2581ta": 6867,
    "0064": 6868,
    "5c80": 6869,
    "a330": 6870,
    "f331": 6871,
    "quit": 6872,
    "queue": 6873,
    "\u25810x355": 6874,
    "\u25810x538": 6875,
    "\u25810x1074": 6876,
    "\u25810x4080": 6877,
    "\u25810x40d7": 6878,
    "\u25810x41e9": 6879,
    "\u25810x43e4": 6880,
    "\u25810x4635": 6881,
    "\u25810x46bd": 6882,
    "\u25810x46d1": 6883,
    "\u25810x5317": 6884,
    "\u25810x7428": 6885,
    "\u25810x7dc1": 6886,
    "\u25810x8650": 6887,
    "\u25810x169bd": 6888,
    "\u25810x7bf80": 6889,
    "\u25810x10011c": 6890,
    "\u25810x42e360": 6891,
    "\u25810x484002": 6892,
    "\u25810x484010": 6893,
    "\u25810x7c16a0": 6894,
    "\u2581dosdatet": 6895,
    "\u2581intersec": 6896,
    "\u2581postquit": 6897,
    "\u25810x1211a3f": 6898,
    "\u25810x1211df8": 6899,
    "\u25810xfeee00fb": 6900,
    "\u2581getprofile": 6901,
    "\u2581postquitmessage": 6902,
    "\u2581getthreadpriority": 6903,
    "\u2581getsystemdefaultlcid": 6904,
    "\u2581dosdatetimetofiletime": 6905,
    "72eb7a3ba9e0032434b0a84a3f3acdb3219f916b6eab2e2576663": 6906,
    "115": 6907,
    "14c": 6908,
    "1ec": 6909,
    "220": 6910,
    "3c6": 6911,
    "403": 6912,
    "5cc": 6913,
    "71f": 6914,
    "730": 6915,
    "990": 6916,
    "994": 6917,
    "d13": 6918,
    "d80": 6919,
    "e80": 6920,
    "ee3": 6921,
    "the": 6922,
    "26ed": 6923,
    "33c4": 6924,
    "b9f8": 6925,
    "hell": 6926,
    "irec": 6927,
    "rand": 6928,
    "tify": 6929,
    "\u2581msg": 6930,
    "\u2581line": 6931,
    "f55060": 6932,
    "\u25810x468": 6933,
    "\u25810x28e7": 6934,
    "\u25810x4053": 6935,
    "\u25810x40e0": 6936,
    "\u25810x41cc": 6937,
    "\u25810x44da": 6938,
    "\u25810x4930": 6939,
    "\u25810x4da0": 6940,
    "\u25810x4f80": 6941,
    "\u25810x120eb": 6942,
    "\u25810x1733c4": 6943,
    "\u25810x4533d8": 6944,
    "\u25810x5bd4a8": 6945,
    "\u25810x8f7ab8": 6946,
    "\u2581setfocus": 6947,
    "\u25810x1211cec": 6948,
    "\u2581openmutex": 6949,
    "\u25810xfeee00fc": 6950,
    "\u25810xfeee00fd": 6951,
    "\u2581regdeletekeyw": 6952,
    "\u2581cocreateinstance": 6953,
    "\u2581expandenvironmentstringsa": 6954,
    "210": 6955,
    "2c2": 6956,
    "396": 6957,
    "642": 6958,
    "690": 6959,
    "9c2": 6960,
    "9d8": 6961,
    "a41": 6962,
    "d85": 6963,
    "e28": 6964,
    "f40": 6965,
    "f98": 6966,
    "\u2581ls": 6967,
    "0060": 6968,
    "3a68": 6969,
    "b6774": 6970,
    "icows": 6971,
    "\u25810x452": 6972,
    "\u2581getbk": 6973,
    "\u25810x1824": 6974,
    "\u25810x3f28": 6975,
    "\u25810x4070": 6976,
    "\u25810x4090": 6977,
    "\u25810x4116": 6978,
    "\u25810x43a5": 6979,
    "\u25810x4425": 6980,
    "\u25810x44f8": 6981,
    "\u25810x7ca0": 6982,
    "\u25810x7e20": 6983,
    "\u25810x8850": 6984,
    "\u2581unicows": 6985,
    "\u25810x53e020": 6986,
    "\u25810xfeee00fe": 6987,
    "\u25810xfeee00ff": 6988,
    "\u25810xfeee0100": 6989,
    "\u25810xfeee0101": 6990,
    "\u25810xfeee0102": 6991,
    "\u25810xfeee0141": 6992,
    "\u2581movefileexa": 6993,
    "\u2581openthreadtoken": 6994,
    "35db21bffa0e024a6fa334365d95136574b7853cf39214556e1d": 6995,
    "121889f07447dee2eeb9b9c4f7cf99faebb53570bde23564f2920": 6996,
    "b6774783de47ffcea6398bdcf6ac10a46cd30c9b1e02c659cd1fa": 6997,
    "b9183fa327b71155440adb7e48f07834416ce1568f2e454d83b88": 6998,
    "d88b33f4573e3ae73202d57b73d1cccf16276b474d387997c9fad": 6999,
    "e22041d65f69e314f7fd591e9b7b38900fd6efa8166b0687f6eb8a": 7000,
    "mt": 7001,
    "169": 7002,
    "265": 7003,
    "28c": 7004,
    "3dc": 7005,
    "565": 7006,
    "6a0": 7007,
    "798": 7008,
    "9c4": 7009,
    "a6c": 7010,
    "d00": 7011,
    "e2a": 7012,
    "emo": 7013,
    "f0b": 7014,
    "f73": 7015,
    "0066": 7016,
    "645b": 7017,
    "a511": 7018,
    "aret": 7019,
    "e740": 7020,
    "eee8": 7021,
    "undr": 7022,
    "30062": 7023,
    "argvw": 7024,
    "range": 7025,
    "\u25810x13e": 7026,
    "\u25810xe00": 7027,
    "toargvw": 7028,
    "\u25810x42e5": 7029,
    "\u25810x4310": 7030,
    "\u25810x7118": 7031,
    "\u25810x7348": 7032,
    "\u25810x7580": 7033,
    "\u25810x7ab8": 7034,
    "00000000": 7035,
    "\u2581gdipget": 7036,
    "\u25810x45d340": 7037,
    "\u25810x52aa68": 7038,
    "\u25810x58db80": 7039,
    "\u25810x630062": 7040,
    "\u25810x650064": 7041,
    "\u25810x670066": 7042,
    "\u2581lstrcpyw": 7043,
    "stretchblt": 7044,
    "\u25810x12117e8": 7045,
    "\u25810x1211994": 7046,
    "\u25810x1211b88": 7047,
    "\u25810x1211ba4": 7048,
    "\u25810x1211ebc": 7049,
    "\u2581getparent": 7050,
    "\u2581powerbuil": 7051,
    "\u25810x10021f60": 7052,
    "\u25810x10021fd8": 7053,
    "\u25810xfeee0103": 7054,
    "\u25810xfeee0104": 7055,
    "initializeex": 7056,
    "stretchbltmode": 7057,
    "\u2581getsystemmenu": 7058,
    "\u2581coinitializeex": 7059,
    "\u2581getthreadtimes": 7060,
    "\u2581switchtothread": 7061,
    "\u2581virtualallocex": 7062,
    "\u2581commandlinetoargvw": 7063,
    "550": 7064,
    "5b8": 7065,
    "620": 7066,
    "a80": 7067,
    "adi": 7068,
    "anc": 7069,
    "ead": 7070,
    "fc2": 7071,
    "\u258111": 7072,
    "\u2581db": 7073,
    "0010": 7074,
    "1390": 7075,
    "plac": 7076,
    "\u2581env": 7077,
    "36a5e": 7078,
    "50413": 7079,
    "5c33c": 7080,
    "owned": 7081,
    "18f331": 7082,
    "aa31d9": 7083,
    "\u25810x449": 7084,
    "\u25810x528": 7085,
    "\u2581bb000": 7086,
    "1cbb9f8": 7087,
    "\u25810x407c": 7088,
    "\u25810x4174": 7089,
    "\u25810x4590": 7090,
    "\u25810x45d5": 7091,
    "\u25810x7038": 7092,
    "\u25810x7188": 7093,
    "\u25810x71f8": 7094,
    "\u25810x7268": 7095,
    "\u25810x72d8": 7096,
    "\u25810x73b8": 7097,
    "\u25810x7498": 7098,
    "\u25810x8ba0": 7099,
    "1c950413": 7100,
    "26ed249a": 7101,
    "\u25810x43600": 7102,
    "\u2581qt5core": 7103,
    "5c33c645b": 7104,
    "placement": 7105,
    "\u25810x10753c": 7106,
    "\u25810x10e97c": 7107,
    "\u25810x401f20": 7108,
    "\u25810x405004": 7109,
    "\u25810x4404f8": 7110,
    "\u25810x610060": 7111,
    "\u25810x121177c": 7112,
    "\u25810x12117fc": 7113,
    "\u25810x1211938": 7114,
    "741a1cbb9f8": 7115,
    "\u25810xfeee0105": 7116,
    "\u25810xfeee0112": 7117,
    "\u2581setconsole": 7118,
    "f55060aa31d9": 7119,
    "\u2581bb00018f331": 7120,
    "\u2581enumresourc": 7121,
    "26ed249a36a5e": 7122,
    "\u2581createdialog": 7123,
    "\u2581callwindowproc": 7124,
    "\u2581process32firstw": 7125,
    "\u2581getstringtypeexa": 7126,
    "1c950413741a1cbb9f8": 7127,
    "5c33c645bf55060aa31d9": 7128,
    "26ed249a36a5e1c950413741a1cbb9f8": 7129,
    "\u2581bb00018f3315c33c645bf55060aa31d9": 7130,
    "d0a1aac516ab0940ba846bb209cc7123ea66397feac0e7f417346d": 7131,
    "57121889f07447dee2eeb9b9c4f7cf99faebb53570bde23564f2920": 7132,
    "5c80b1ee4b7a5419094c49a237e8c1f6f27bffa038803566fa6d63d": 7133,
    "93b9183fa327b71155440adb7e48f07834416ce1568f2e454d83b88": 7134,
    "768": 7135,
    "9b7": 7136,
    "aa1": 7137,
    "ani": 7138,
    "db0": 7139,
    "e78": 7140,
    "fc0": 7141,
    "\u25810526": 7142,
    "onitor": 7143,
    "ordacl": 7144,
    "\u25810x3b2": 7145,
    "\u25810x41b": 7146,
    "\u25810x4a8": 7147,
    "\u2581equal": 7148,
    "textout": 7149,
    "\u25810x4110": 7150,
    "\u25810x43f7": 7151,
    "\u25810x4b20": 7152,
    "\u25810x7130": 7153,
    "\u25810x7508": 7154,
    "\u25810x7578": 7155,
    "\u25810x75e8": 7156,
    "\u25810x7658": 7157,
    "\u25810x76c8": 7158,
    "\u25810x7738": 7159,
    "\u25810x77a8": 7160,
    "\u25810x7818": 7161,
    "\u25810x7888": 7162,
    "\u25810x78f8": 7163,
    "\u25810x7968": 7164,
    "\u25810x79d8": 7165,
    "\u25810x7a48": 7166,
    "\u25810x7b28": 7167,
    "\u25810x7b98": 7168,
    "\u25810x7c08": 7169,
    "\u25810x7c78": 7170,
    "\u25810x7ce8": 7171,
    "\u25810x7d58": 7172,
    "\u25810x8030": 7173,
    "\u25810x8a60": 7174,
    "\u25810x8b00": 7175,
    "\u25810x43570": 7176,
    "\u258105265d14": 7177,
    "\u25810x4175f4": 7178,
    "\u25810x41eee8": 7179,
    "\u25810x5ab940": 7180,
    "\u25810x1211ea8": 7181,
    "\u25810x1211fa4": 7182,
    "\u2581regcreatekeya": 7183,
    "securitydescriptordacl": 7184,
    "338": 7185,
    "5ec": 7186,
    "6c8": 7187,
    "7a8": 7188,
    "7d8": 7189,
    "92c": 7190,
    "d54": 7191,
    "df0": 7192,
    "e44": 7193,
    "lib": 7194,
    "\u2581vc": 7195,
    "0012": 7196,
    "0054": 7197,
    "2127": 7198,
    "a5bc": 7199,
    "adc0": 7200,
    "20382": 7201,
    "5bce0": 7202,
    "9e69d": 7203,
    "model": 7204,
    "\u25818754": 7205,
    "7ddd7a": 7206,
    "a33096": 7207,
    "b06202": 7208,
    "f54d40": 7209,
    "fromid": 7210,
    "stream": 7211,
    "\u25810x298": 7212,
    "\u25810x43c": 7213,
    "1390aa4": 7214,
    "4040dc6": 7215,
    "\u25810x2002": 7216,
    "\u25810x4021": 7217,
    "\u25810x415f": 7218,
    "\u25810x4189": 7219,
    "\u25810x43ef": 7220,
    "\u25810x4483": 7221,
    "\u25810x460c": 7222,
    "\u25810x4740": 7223,
    "\u25810x7170": 7224,
    "\u25810x8828": 7225,
    "\u25810x8ef0": 7226,
    "\u25810x99e0": 7227,
    "\u2581window": 7228,
    "keyboard": 7229,
    "5bce0a511": 7230,
    "\u25810x17a6cc": 7231,
    "\u25810x471cb0": 7232,
    "\u258187542127": 7233,
    "\u2581appmodel": 7234,
    "b062023a68": 7235,
    "fromidlist": 7236,
    "\u25810x12069c0": 7237,
    "\u25810x120cbdc": 7238,
    "\u25810x3820382": 7239,
    "7ddd7a9e69d": 7240,
    "\u25810xfeee0125": 7241,
    "4040dc6a33096": 7242,
    "f54d401390aa4": 7243,
    "\u2581couninitialize": 7244,
    "\u2581shgetfromidlist": 7245,
    "\u2581unregisterclass": 7246,
    "\u258187542127b062023a68": 7247,
    "4040dc6a330965bce0a511": 7248,
    "f54d401390aa47ddd7a9e69d": 7249,
    "\u258187542127b062023a684040dc6a330965bce0a511": 7250,
    "55cf1ee8a64fccfa264a2ffa2807e686e2e32d5b110c664169ca81": 7251,
    "b572eb7a3ba9e0032434b0a84a3f3acdb3219f916b6eab2e2576663": 7252,
    "72d0a1aac516ab0940ba846bb209cc7123ea66397feac0e7f417346d": 7253,
    "97b135db21bffa0e024a6fa334365d95136574b7853cf39214556e1d": 7254,
    "uf": 7255,
    "19b": 7256,
    "390": 7257,
    "50e": 7258,
    "598": 7259,
    "914": 7260,
    "b1a": 7261,
    "b98": 7262,
    "bcf": 7263,
    "d07": 7264,
    "f38": 7265,
    "\u2581di": 7266,
    "003c": 7267,
    "004c": 7268,
    "c37c": 7269,
    "ecta": 7270,
    "edac": 7271,
    "fcc0": 7272,
    "cache": 7273,
    "enuhi": 7274,
    "incor": 7275,
    "\u25810x11c": 7276,
    "\u25810x1f0": 7277,
    "\u25810x474": 7278,
    "\u25810x568": 7279,
    "\u25810xdfc": 7280,
    "esystem": 7281,
    "\u25810x120c": 7282,
    "\u25810x1288": 7283,
    "\u25810x15e1": 7284,
    "\u25810x1900": 7285,
    "\u25810x2d00": 7286,
    "\u25810x2f08": 7287,
    "\u25810x33ea": 7288,
    "\u25810x390a": 7289,
    "\u25810x3b5a": 7290,
    "\u25810x405b": 7291,
    "\u25810x41c6": 7292,
    "\u25810x4910": 7293,
    "\u25810x7530": 7294,
    "\u2581bcrypt": 7295,
    "\u2581menuhi": 7296,
    "\u2581onexit": 7297,
    "\u25810x1f000": 7298,
    "\u25810x50e80": 7299,
    "\u25810x40e510": 7300,
    "\u25810x442820": 7301,
    "\u25810x44ef08": 7302,
    "\u25810x57b738": 7303,
    "\u25810x1211d5b": 7304,
    "\u2581borland32": 7305,
    "\u2581enddialog": 7306,
    "\u25810x10009380": 7307,
    "\u25810xfeee0106": 7308,
    "\u2581menuhistroy": 7309,
    "\u2581insertmenuitem": 7310,
    "\u2581registerclassexw": 7311,
    "\u2581getprivateprofilesection": 7312,
    "fs": 7313,
    "578": 7314,
    "5d8": 7315,
    "790": 7316,
    "927": 7317,
    "93c": 7318,
    "bf8": 7319,
    "d98": 7320,
    "dc8": 7321,
    "e0c": 7322,
    "e10": 7323,
    "e40": 7324,
    "f46": 7325,
    "ff2": 7326,
    "fff": 7327,
    "fox": 7328,
    "lnd": 7329,
    "\u25817b": 7330,
    "0052": 7331,
    "\u2581log": 7332,
    "\u2581new": 7333,
    "lndmm": 7334,
    "\u2581aaai": 7335,
    "drives": 7336,
    "enable": 7337,
    "metric": 7338,
    "ontext": 7339,
    "\u25810x103": 7340,
    "\u25810x128": 7341,
    "\u25810x519": 7342,
    "\u25810x5a2": 7343,
    "\u25810x5ff": 7344,
    "\u25810xaca": 7345,
    "\u2581print": 7346,
    "\u2581query": 7347,
    "ecannot": 7348,
    "\u25810x1500": 7349,
    "\u25810x1800": 7350,
    "\u25810x3700": 7351,
    "\u25810x44e9": 7352,
    "\u25810x45a1": 7353,
    "\u25810x4820": 7354,
    "\u25810x4d63": 7355,
    "\u25810x53a5": 7356,
    "\u25810x5aa8": 7357,
    "\u25810x7290": 7358,
    "\u25810x7950": 7359,
    "\u2581querys": 7360,
    "dresourc": 7361,
    "\u25810x4067c": 7362,
    "\u25810x52660": 7363,
    "\u25810x409ab4": 7364,
    "\u25810x409ab5": 7365,
    "\u25810x40de88": 7366,
    "\u25810x414af4": 7367,
    "\u25810x442804": 7368,
    "\u25810x44d418": 7369,
    "\u25810x50db10": 7370,
    "\u2581arequire": 7371,
    "\u2581borlndmm": 7372,
    "\u25810x1211240": 7373,
    "\u25810x1211254": 7374,
    "winmetafile": 7375,
    "\u25810xfeee0107": 7376,
    "\u25810xfeee0108": 7377,
    "\u25810xfeee0109": 7378,
    "\u25810xfeee010a": 7379,
    "\u25810xfeee010d": 7380,
    "\u25810xfeee010e": 7381,
    "\u25810xfeee0111": 7382,
    "\u25810xfeee0153": 7383,
    "\u2581getbkcolor": 7384,
    "\u2581tsldrl6662": 7385,
    "\u2581getshortnamea": 7386,
    "dresourcecannot": 7387,
    "winmetafilebits": 7388,
    "\u2581setwindowshook": 7389,
    "\u2581microsoftvisual": 7390,
    "\u2581getlogicaldrives": 7391,
    "dresourcecannotbelocated": 7392,
    "\u2581arequiredresourcecannotbelocated": 7393,
    "675b6774783de47ffcea6398bdcf6ac10a46cd30c9b1e02c659cd1fa": 7394,
    "d3bd88b33f4573e3ae73202d57b73d1cccf16276b474d387997c9fad": 7395,
    "acc55cf1ee8a64fccfa264a2ffa2807e686e2e32d5b110c664169ca81": 7396,
    "155": 7397,
    "534": 7398,
    "ba0": 7399,
    "bb2": 7400,
    "f68": 7401,
    "ff5": 7402,
    "0016": 7403,
    "3a24": 7404,
    "fest": 7405,
    "vert": 7406,
    "inter": 7407,
    "\u2581beep": 7408,
    "\u25810x182": 7409,
    "\u25810x3e8": 7410,
    "\u25810x3f8": 7411,
    "\u25810x4d5": 7412,
    "\u25810x4e0": 7413,
    "\u25810x506": 7414,
    "anifest": 7415,
    "current": 7416,
    "monitor": 7417,
    "\u25810x4180": 7418,
    "\u25810x4280": 7419,
    "\u25810x42f6": 7420,
    "\u25810x436c": 7421,
    "\u25810x4978": 7422,
    "\u25810x8840": 7423,
    "\u25810x9170": 7424,
    "outputcp": 7425,
    "\u25810x60000": 7426,
    "frompoint": 7427,
    "\u25810x44c9c8": 7428,
    "\u25810x44ca08": 7429,
    "\u25810x4533f0": 7430,
    "\u25810x12119dc": 7431,
    "\u25810x1211a68": 7432,
    "\u25810x1211ad0": 7433,
    "\u2581getfileex": 7434,
    "\u25810xfeee010b": 7435,
    "\u25810xfeee010c": 7436,
    "\u25810xfeee0110": 7437,
    "\u2581getimagecount": 7438,
    "\u2581gettextmetric": 7439,
    "\u2581peeknamedpipe": 7440,
    "\u2581regdeletevaluew": 7441,
    "\u2581registerclipboardformatw": 7442,
    "su": 7443,
    "1c6": 7444,
    "2c4": 7445,
    "306": 7446,
    "358": 7447,
    "79c": 7448,
    "915": 7449,
    "9d0": 7450,
    "b21": 7451,
    "bb4": 7452,
    "e4f": 7453,
    "e5c": 7454,
    "f70": 7455,
    "\u25814c": 7456,
    "ce90": 7457,
    "def0": 7458,
    "owno": 7459,
    "\u2581int": 7460,
    "\u2581mfc": 7461,
    "\u2581off": 7462,
    "clear": 7463,
    "nativ": 7464,
    "\u258112e9": 7465,
    "\u25814142": 7466,
    "\u258141de": 7467,
    "\u258192ec": 7468,
    "\u2581aca7": 7469,
    "showno": 7470,
    "\u25810x236": 7471,
    "\u25810x565": 7472,
    "\u25810x684": 7473,
    "\u2581htons": 7474,
    "ervicea": 7475,
    "fileexw": 7476,
    "undrect": 7477,
    "\u25810x4155": 7478,
    "\u25810x423a": 7479,
    "\u25810x423b": 7480,
    "\u25810x43e6": 7481,
    "\u25810x4738": 7482,
    "\u25810x4950": 7483,
    "\u25810x4bc0": 7484,
    "\u25810x4c50": 7485,
    "\u25810x4c68": 7486,
    "\u25810x5b98": 7487,
    "\u25810x8060": 7488,
    "\u25810x88e0": 7489,
    "\u2581getsid": 7490,
    "a5bcc37c": 7491,
    "\u2581interne": 7492,
    "\u25810x110010": 7493,
    "\u25810x42eb28": 7494,
    "\u25810x45d560": 7495,
    "\u2581aca73a24": 7496,
    "\u2581getnativ": 7497,
    "shownolock": 7498,
    "\u25810x1211768": 7499,
    "\u25810x1211888": 7500,
    "\u25810x3810381": 7501,
    "\u25810x5f900000": 7502,
    "\u25810xfeee0113": 7503,
    "\u2581stretchblt": 7504,
    "\u258141dea5bcc37c": 7505,
    "\u2581postmessagea": 7506,
    "keyboardlayout": 7507,
    "\u2581dragshownolock": 7508,
    "\u2581getnativesystem": 7509,
    "\u2581getforegroundwindow": 7510,
    "adb572eb7a3ba9e0032434b0a84a3f3acdb3219f916b6eab2e2576663": 7511,
    "da93b9183fa327b71155440adb7e48f07834416ce1568f2e454d83b88": 7512,
    "f00e22041d65f69e314f7fd591e9b7b38900fd6efa8166b0687f6eb8a": 7513,
    "7865c80b1ee4b7a5419094c49a237e8c1f6f27bffa038803566fa6d63d": 7514,
    "ed257121889f07447dee2eeb9b9c4f7cf99faebb53570bde23564f2920": 7515,
    "150": 7516,
    "38b": 7517,
    "934": 7518,
    "a38": 7519,
    "aa0": 7520,
    "ab2": 7521,
    "b10": 7522,
    "b99": 7523,
    "d20": 7524,
    "d34": 7525,
    "d70": 7526,
    "e4d": 7527,
    "f64": 7528,
    "ttp": 7529,
    "0030": 7530,
    "003a": 7531,
    "1884": 7532,
    "3030": 7533,
    "erat": 7534,
    "fram": 7535,
    "bd000": 7536,
    "\u2581data": 7537,
    "emotet": 7538,
    "scroll": 7539,
    "\u25810x22e": 7540,
    "\u25810x230": 7541,
    "\u25810x574": 7542,
    "\u25810x1b00": 7543,
    "\u25810x1d00": 7544,
    "\u25810x2500": 7545,
    "\u25810x4219": 7546,
    "\u25810x4330": 7547,
    "\u25810x4374": 7548,
    "\u25810x4448": 7549,
    "\u25810x451b": 7550,
    "\u25810x45c3": 7551,
    "\u25810x4650": 7552,
    "\u25810x4b00": 7553,
    "\u25810x4ddc": 7554,
    "\u25810x5700": 7555,
    "\u25810x8cb0": 7556,
    "\u25810x8f80": 7557,
    "\u2581starts": 7558,
    "\u25810x13000": 7559,
    "\u25810x50004": 7560,
    "accelerat": 7561,
    "scrollbar": 7562,
    "\u25810x40b750": 7563,
    "\u25810x40f6b0": 7564,
    "\u25810x410040": 7565,
    "\u25810x4150e0": 7566,
    "\u25810x12119bc": 7567,
    "\u25810x1211a08": 7568,
    "\u25810x1211c48": 7569,
    "\u25810x1211d1c": 7570,
    "emotethread": 7571,
    "\u25810xfeee0123": 7572,
    "\u25810xfeee0124": 7573,
    "\u2581deletemenu": 7574,
    "\u2581getwindowlongw": 7575,
    "\u2581regqueryinfokeya": 7576,
    "\u2581setstretchbltmode": 7577,
    "\u2581createremotethread": 7578,
    "\u2581getconsoleoutputcp": 7579,
    "ha": 7580,
    "3e8": 7581,
    "7e0": 7582,
    "943": 7583,
    "a58": 7584,
    "aba": 7585,
    "b3c": 7586,
    "b44": 7587,
    "b62": 7588,
    "be8": 7589,
    "f1e": 7590,
    "fa8": 7591,
    "tex": 7592,
    "\u25810a": 7593,
    "\u258190": 7594,
    "0022": 7595,
    "0034": 7596,
    "004a": 7597,
    "005a": 7598,
    "lags": 7599,
    "nrun": 7600,
    "\u2581ldr": 7601,
    "\u2581mov": 7602,
    "10050": 7603,
    "70026": 7604,
    "90028": 7605,
    "90058": 7606,
    "empty": 7607,
    "etoex": 7608,
    "f001e": 7609,
    "f002e": 7610,
    "f003e": 7611,
    "f005e": 7612,
    "letit": 7613,
    "uthor": 7614,
    "logger": 7615,
    "\u25810x12f": 7616,
    "\u25810x491": 7617,
    "\u25810x5b1": 7618,
    "\u25810x40e1": 7619,
    "\u25810x41d3": 7620,
    "\u25810x41e4": 7621,
    "\u25810x4371": 7622,
    "\u25810x43a3": 7623,
    "\u25810x46ab": 7624,
    "\u25810x4940": 7625,
    "\u25810x4de0": 7626,
    "\u25810x74c0": 7627,
    "\u25810x9940": 7628,
    "\u2581lineto": 7629,
    "\u2581offset": 7630,
    "\u25810x30002": 7631,
    "\u25810x40c75": 7632,
    "\u25810x70006": 7633,
    "\u25810x90008": 7634,
    "\u25810xb000a": 7635,
    "\u25810xd000c": 7636,
    "\u25810xf000e": 7637,
    "\u2581zipnrun": 7638,
    "ataddress": 7639,
    "clipboard": 7640,
    "ofaddress": 7641,
    "\u25810x130012": 7642,
    "\u25810x150014": 7643,
    "\u25810x170016": 7644,
    "\u25810x190018": 7645,
    "\u25810x1b001a": 7646,
    "\u25810x1d001c": 7647,
    "\u25810x1f001e": 7648,
    "\u25810x210020": 7649,
    "\u25810x230022": 7650,
    "\u25810x250024": 7651,
    "\u25810x270026": 7652,
    "\u25810x290028": 7653,
    "\u25810x2b002a": 7654,
    "\u25810x2d002c": 7655,
    "\u25810x2f002e": 7656,
    "\u25810x3d003c": 7657,
    "\u25810x3f003e": 7658,
    "\u25810x3f2074": 7659,
    "\u25810x3f20b4": 7660,
    "\u25810x407629": 7661,
    "\u25810x40762a": 7662,
    "\u25810x40762b": 7663,
    "\u25810x40762c": 7664,
    "\u25810x40762d": 7665,
    "\u25810x40762e": 7666,
    "\u25810x40762f": 7667,
    "\u25810x409335": 7668,
    "\u25810x409336": 7669,
    "\u25810x409337": 7670,
    "\u25810x409338": 7671,
    "\u25810x409339": 7672,
    "\u25810x40933a": 7673,
    "\u25810x40933b": 7674,
    "\u25810x4093cd": 7675,
    "\u25810x4093ce": 7676,
    "\u25810x4093cf": 7677,
    "\u25810x4093d8": 7678,
    "\u25810x4093e0": 7679,
    "\u25810x4093ed": 7680,
    "\u25810x4093ee": 7681,
    "\u25810x4093ef": 7682,
    "\u25810x4093f8": 7683,
    "\u25810x40957c": 7684,
    "\u25810x40958c": 7685,
    "\u25810x40b3de": 7686,
    "\u25810x40b3e6": 7687,
    "\u25810x40b74e": 7688,
    "\u25810x40b752": 7689,
    "\u25810x40b754": 7690,
    "\u25810x40b756": 7691,
    "\u25810x40b758": 7692,
    "\u25810x40b75a": 7693,
    "\u25810x42eae0": 7694,
    "\u25810x430042": 7695,
    "\u25810x44ee08": 7696,
    "\u25810x450044": 7697,
    "\u25810x4634e8": 7698,
    "\u25810x466b40": 7699,
    "\u25810x466b88": 7700,
    "\u25810x470046": 7701,
    "\u25810x490048": 7702,
    "\u25810x4b004a": 7703,
    "\u25810x4d004c": 7704,
    "\u25810x4f004e": 7705,
    "\u25810x510050": 7706,
    "\u25810x530052": 7707,
    "\u25810x550054": 7708,
    "\u25810x570056": 7709,
    "\u25810x590058": 7710,
    "\u25810x5b005a": 7711,
    "\u25810x5d005c": 7712,
    "\u25810x5f005e": 7713,
    "\u2581addatoma": 7714,
    "\u2581movetoex": 7715,
    "getversion": 7716,
    "\u25810x1211f38": 7717,
    "\u25810x2280228": 7718,
    "\u25810x5265c3c": 7719,
    "\u2581drawtexta": 7720,
    "\u25810xfeee011d": 7721,
    "\u25810xfeee0121": 7722,
    "\u25810xfeee0126": 7723,
    "\u2581exttextout": 7724,
    "\u2581openmutexa": 7725,
    "\u2581programdata": 7726,
    "\u2581sendmessagew": 7727,
    "\u2581gettimeformatw": 7728,
    "instructioncache": 7729,
    "\u2581iswindowvisible": 7730,
    "\u2581menuhistroyname": 7731,
    "\u2581getwindowtextlengtha": 7732,
    "\u2581flushinstructioncache": 7733,
    "26c97b135db21bffa0e024a6fa334365d95136574b7853cf39214556e1d": 7734,
    "66372d0a1aac516ab0940ba846bb209cc7123ea66397feac0e7f417346d": 7735,
    "95acc55cf1ee8a64fccfa264a2ffa2807e686e2e32d5b110c664169ca81": 7736,
    "ew": 7737,
    "1f8": 7738,
    "3b8": 7739,
    "44c": 7740,
    "561": 7741,
    "75c": 7742,
    "782": 7743,
    "998": 7744,
    "a20": 7745,
    "a6b": 7746,
    "ae8": 7747,
    "bbe": 7748,
    "f18": 7749,
    "f6c": 7750,
    "fa4": 7751,
    "lys": 7752,
    "\u2581ob": 7753,
    "\u2581sp": 7754,
    "\u2581msv": 7755,
    "\u2581x0a": 7756,
    "\u2581x11": 7757,
    "30032": 7758,
    "90038": 7759,
    "heapp": 7760,
    "recte": 7761,
    "leasec": 7762,
    "\u2581setdi": 7763,
    "\u25810x4286": 7764,
    "\u25810x42e2": 7765,
    "\u25810x43b7": 7766,
    "\u25810x43be": 7767,
    "\u25810x4516": 7768,
    "\u25810x4810": 7769,
    "\u25810x4a5f": 7770,
    "\u25810x4f98": 7771,
    "\u25810x70b0": 7772,
    "\u25810x72b0": 7773,
    "\u25810x7b20": 7774,
    "\u25810x7ce1": 7775,
    "\u25810x8b40": 7776,
    "\u25810x8e50": 7777,
    "\u25810x8f10": 7778,
    "\u25810x8fc0": 7779,
    "\u25810x9810": 7780,
    "\u2581printf": 7781,
    "\u2581convert": 7782,
    "\u25810x310030": 7783,
    "\u25810x330032": 7784,
    "\u25810x350034": 7785,
    "\u25810x370036": 7786,
    "\u25810x390038": 7787,
    "\u25810x3b003a": 7788,
    "\u25810x403000": 7789,
    "\u25810x4289c0": 7790,
    "\u25810x450aa8": 7791,
    "\u25810x1211518": 7792,
    "\u25810x1211b84": 7793,
    "\u25810x1211eec": 7794,
    "\u25810xfeee0114": 7795,
    "\u25810xfeee0115": 7796,
    "\u25810xfeee0116": 7797,
    "\u25810xfeee0117": 7798,
    "\u25810xfeee0118": 7799,
    "\u25810xfeee0119": 7800,
    "\u25810xfeee011a": 7801,
    "\u25810xfeee011b": 7802,
    "\u25810xfeee011c": 7803,
    "\u25810xfeee0120": 7804,
    "\u2581setmenuitem": 7805,
    "\u2581getwindowtexta": 7806,
    "\u2581setwindowlonga": 7807,
    "\u2581setwindowlongw": 7808,
    "\u2581enumresourcename": 7809,
    "\u2581createfilemappingw": 7810,
    "\u2581accessviolationataddress": 7811,
    "1cc": 7812,
    "2f8": 7813,
    "303": 7814,
    "662": 7815,
    "728": 7816,
    "7b0": 7817,
    "925": 7818,
    "b51": 7819,
    "b54": 7820,
    "b56": 7821,
    "byt": 7822,
    "e54": 7823,
    "e6c": 7824,
    "f05": 7825,
    "rnl": 7826,
    "00003": 7827,
    "skrnl": 7828,
    "byteex": 7829,
    "displa": 7830,
    "letion": 7831,
    "lipbox": 7832,
    "\u25810x18e": 7833,
    "\u25810x597": 7834,
    "\u25810x716": 7835,
    "\u25814d5a9": 7836,
    "cliprgn": 7837,
    "runtime": 7838,
    "station": 7839,
    "\u25810x3f26": 7840,
    "\u25810x4072": 7841,
    "\u25810x42d4": 7842,
    "\u25810x4574": 7843,
    "\u25810x4815": 7844,
    "\u25810x4fa0": 7845,
    "\u25810x7220": 7846,
    "\u25810x7370": 7847,
    "\u25810x76a0": 7848,
    "\u25810x7fc0": 7849,
    "\u25810x8830": 7850,
    "\u2581client": 7851,
    "\u2581socket": 7852,
    "\u2581wcslen": 7853,
    "\u25810x10013": 7854,
    "\u25810x42000": 7855,
    "\u25810x47c00": 7856,
    "\u25810x48800": 7857,
    "\u25810x4295b4": 7858,
    "\u25810x44f5a8": 7859,
    "\u25810x486788": 7860,
    "\u2581ntoskrnl": 7861,
    "\u25810x1211da8": 7862,
    "\u2581createdib": 7863,
    "\u25810x56500000": 7864,
    "\u25810xfeee011e": 7865,
    "\u25810xfeee011f": 7866,
    "\u25814d5a900003": 7867,
    "\u2581enumdispla": 7868,
    "\u2581getclipbox": 7869,
    "\u2581getmonitor": 7870,
    "\u2581sysrealloc": 7871,
    "\u2581getatomnamea": 7872,
    "00000004000000": 7873,
    "\u2581openfilemapping": 7874,
    "\u2581isdbcsleadbyteex": 7875,
    "\u2581sysreallocstringlen": 7876,
    "\u2581getuserdefaultlangid": 7877,
    "00000004000000ffff0000": 7878,
    "\u2581getprivateprofilestringw": 7879,
    "\u25814d5a90000300000004000000ffff0000": 7880,
    "19bd3bd88b33f4573e3ae73202d57b73d1cccf16276b474d387997c9fad": 7881,
    "3d0675b6774783de47ffcea6398bdcf6ac10a46cd30c9b1e02c659cd1fa": 7882,
    "119da93b9183fa327b71155440adb7e48f07834416ce1568f2e454d83b88": 7883,
    "125f00e22041d65f69e314f7fd591e9b7b38900fd6efa8166b0687f6eb8a": 7884,
    "143": 7885,
    "1b8": 7886,
    "20c": 7887,
    "32c": 7888,
    "3f8": 7889,
    "3fc": 7890,
    "60c": 7891,
    "76c": 7892,
    "7a7": 7893,
    "7c4": 7894,
    "a60": 7895,
    "a9c": 7896,
    "ad6": 7897,
    "b5c": 7898,
    "b6a": 7899,
    "df2": 7900,
    "ee6": 7901,
    "f35": 7902,
    "fbc": 7903,
    "ify": 7904,
    "\u258120": 7905,
    "dea6": 7906,
    "tooem": 7907,
    "\u25810x258": 7908,
    "\u25810x465": 7909,
    "\u25810x5a1": 7910,
    "\u25810x40b2": 7911,
    "\u25810x40b6": 7912,
    "\u25810x428e": 7913,
    "\u25810x4478": 7914,
    "\u25810x4541": 7915,
    "\u25810x4760": 7916,
    "\u25810x4ac0": 7917,
    "\u25810x65f5": 7918,
    "\u25810x72f0": 7919,
    "\u25810x80a0": 7920,
    "\u25810x8b20": 7921,
    "\u25810x8ec0": 7922,
    "\u2581msvbvm": 7923,
    "\u2581redraw": 7924,
    "\u25810x25000": 7925,
    "\u2581setrect": 7926,
[...]
