{
    "<pad>": 0,
    "<unk>": 1,
    "<mask>": 2,
    "\u25810": 3,
    "\u25810x": 4,
    "00": 5,
    "er": 6,
    "ne": 7,
    "\u25810x0": 8,
    "32": 9,
    "\u2581k": 10,
    "l32": 11,
    "erne": 12,
    "ernel32": 13,
    "\u2581kernel32": 14,
    "et": 15,
    "\u25810x1": 16,
    "get": 17,
    "al": 18,
    "\u25810x4": 19,
    "ee": 20,
    "ti": 21,
    "in": 22,
    "\u2581get": 23,
    "ec": 24,
    "\u25810xf": 25,
    "000": 26,
    "st": 27,
    "oc": 28,
    "\u25810x7": 29,
    "ad": 30,
    "ue": 31,
    "0000": 32,
    "re": 33,
    "\u25810x2": 34,
    "on": 35,
    "us": 36,
    "eee": 37,
    "iti": 38,
    "\u25810xfeee": 39,
    "le": 40,
    "48": 41,
    "\u25810x12": 42,
    "43": 43,
    "one": 44,
    "user": 45,
    "\u2581user": 46,
    "439": 47,
    "\u25810x2439": 48,
    "\u25810x243948": 49,
    "\u2581user32": 50,
    "ls": 51,
    "val": 52,
    "nt": 53,
    "value": 54,
    "\u25810x121": 55,
    "getvalue": 56,
    "lsgetvalue": 57,
    "ss": 58,
    "tion": 59,
    "pr": 60,
    "\u2581in": 61,
    "ar": 62,
    "proc": 63,
    "\u25810xfeee000": 64,
    "cal": 65,
    "sec": 66,
    "riti": 67,
    "calsec": 68,
    "riticalsec": 69,
    "co": 70,
    "loc": 71,
    "or": 72,
    "\u2581n": 73,
    "\u2581none": 74,
    "\u25810x1211": 75,
    "an": 76,
    "\u2581s": 77,
    "at": 78,
    "\u2581getproc": 79,
    "ff": 80,
    "add": 81,
    "\u25810x77": 82,
    "ress": 83,
    "address": 84,
    "\u2581getprocaddress": 85,
    "de": 86,
    "\u2581c": 87,
    "ecriticalsec": 88,
    "000000": 89,
    "\u2581t": 90,
    "f0": 91,
    "fo": 92,
    "\u25810x46": 93,
    "\u2581f": 94,
    "ap": 95,
    "\u2581d": 96,
    "\u25810x40": 97,
    "\u25810x77000000": 98,
    "info": 99,
    "la": 100,
    "\u2581m": 101,
    "err": 102,
    "ent": 103,
    "error": 104,
    "\u2581l": 105,
    "\u25810xfeee0001": 106,
    "last": 107,
    "lasterror": 108,
    "\u2581tlsgetvalue": 109,
    "str": 110,
    "a0": 111,
    "har": 112,
    "mp": 113,
    "iz": 114,
    "ter": 115,
    "aliz": 116,
    "itializ": 117,
    "\u25810x5": 118,
    "\u2581initializ": 119,
    "\u2581initializecriticalsec": 120,
    "ac": 121,
    "li": 122,
    "ex": 123,
    "90": 124,
    "dec": 125,
    "he": 126,
    "ta": 127,
    "00000": 128,
    "and": 129,
    "ing": 130,
    "string": 131,
    "po": 132,
    "\u2581getc": 133,
    "it": 134,
    "oad": 135,
    "\u25810x100": 136,
    "\u2581flsgetvalue": 137,
    "en": 138,
    "\u25810xfeee00": 139,
    "heap": 140,
    "\u2581set": 141,
    "\u25810x8": 142,
    "\u2581load": 143,
    "alloc": 144,
    "poin": 145,
    "\u25810xfa0": 146,
    "nex": 147,
    "\u2581heap": 148,
    "om": 149,
    "\u2581char": 150,
    "em": 151,
    "\u2581charnex": 152,
    "pointer": 153,
    "let": 154,
    "local": 155,
    "depointer": 156,
    "rt": 157,
    "pinfo": 158,
    "\u25810xc": 159,
    "40": 160,
    "tr": 161,
    "exw": 162,
    "ion": 163,
    "\u25810x400000": 164,
    "\u2581w": 165,
    "\u25810x45": 166,
    "\u2581getcpinfo": 167,
    "\u25810x3": 168,
    "ble": 169,
    "ow": 170,
    "onex": 171,
    "\u2581getlasterror": 172,
    "a5": 173,
    "by": 174,
    "\u25810x41": 175,
    "dco": 176,
    "lea": 177,
    "locale": 178,
    "\u2581init": 179,
    "d0": 180,
    "\u2581loadstring": 181,
    "is": 182,
    "\u25810x10": 183,
    "\u2581setlasterror": 184,
    "tionex": 185,
    "\u2581initializecriticalsectionex": 186,
    "stat": 187,
    "ans": 188,
    "\u2581getcpinfoexw": 189,
    "atom": 190,
    "que": 191,
    "\u25810x243948c": 192,
    "lient": 193,
    "dcomp": 194,
    "status": 195,
    "byt": 196,
    "table": 197,
    "tw": 198,
    "queue": 199,
    "trans": 200,
    "letion": 201,
    "action": 202,
    "queuedcomp": 203,
    "letionstatus": 204,
    "queuedcompletionstatus": 205,
    "\u2581ddec": 206,
    "\u2581getqueuedcompletionstatus": 207,
    "transaction": 208,
    "\u2581ddeclient": 209,
    "\u2581ddeclienttransaction": 210,
    "atomtable": 211,
    "\u25810x2439480": 212,
    "\u25810x2439484": 213,
    "\u25810x2439488": 214,
    "\u2581initatomtable": 215,
    "\u25810x1000": 216,
    "10": 217,
    "f8": 218,
    "fi": 219,
    "bc": 220,
    "\u2581ms": 221,
    "unt": 222,
    "\u2581heapalloc": 223,
    "vc": 224,
    "\u25810xc000": 225,
    "\u2581en": 226,
    "e4": 227,
    "\u2581msvc": 228,
    "\u25810x40a5": 229,
    "hand": 230,
    "\u2581msvcrt": 231,
    "\u2581enco": 232,
    "\u2581encodepointer": 233,
    "\u25810xff": 234,
    "localeinfo": 235,
    "\u2581getlocaleinfo": 236,
    "count": 237,
    "ffff": 238,
    "\u25810x45f0": 239,
    "ess": 240,
    "\u2581charnextw": 241,
    "mo": 242,
    "ind": 243,
    "\u2581initializecriticalsection": 244,
    "93": 245,
    "read": 246,
    "\u2581v": 247,
    "\u2581is": 248,
    "ecriticalsection": 249,
    "erc": 250,
    "\u25810x4690": 251,
    "18": 252,
    "ul": 253,
    "\u25810x43": 254,
    "\u25810x1210": 255,
    "leav": 256,
    "du": 257,
    "78": 258,
    "\u2581leav": 259,
    "\u2581leavecriticalsection": 260,
    "\u25810x1211c": 261,
    "\u2581ent": 262,
    "cmp": 263,
    "riticalsection": 264,
    "ercriticalsection": 265,
    "yst": 266,
    "\u2581entercriticalsection": 267,
    "byte": 268,
    "ed": 269,
    "dule": 270,
    "ll": 271,
    "70": 272,
    "module": 273,
    "ystem": 274,
    "66": 275,
    "\u2581getmodule": 276,
    "\u25810x4e4": 277,
    "ur": 278,
    "\u25810x6": 279,
    "indow": 280,
    "eco": 281,
    "50": 282,
    "20": 283,
    "\u2581charnexta": 284,
    "98": 285,
    "\u2581mem": 286,
    "handle": 287,
    "\u2581loadstringa": 288,
    "\u2581dll": 289,
    "\u2581memcmp": 290,
    "30": 291,
    "ulti": 292,
    "idec": 293,
    "\u25810x41f0": 294,
    "idechar": 295,
    "\u25810x41f040": 296,
    "c0": 297,
    "b0": 298,
    "indows": 299,
    "op": 300,
    "\u25810x42": 301,
    "sp": 302,
    "28": 303,
    "60": 304,
    "\u2581windows": 305,
    "\u25810x4093": 306,
    "fr": 307,
    "e0": 308,
    "file": 309,
    "\u25810x7d": 310,
    "\u25810x1211f": 311,
    "spin": 312,
    "spincount": 313,
    "andspincount": 314,
    "\u2581initializecriticalsectionandspincount": 315,
    "process": 316,
    "\u2581deco": 317,
    "\u2581decodepointer": 318,
    "\u25810x46d0": 319,
    "\u2581getlocaleinfoa": 320,
    "sle": 321,
    "me": 322,
    "dbc": 323,
    "\u25810x44": 324,
    "\u25810x46f0": 325,
    "yp": 326,
    "\u2581loadstringw": 327,
    "ey": 328,
    "ce": 329,
    "slead": 330,
    "\u2581isdbc": 331,
    "\u2581isdbcslead": 332,
    "\u2581isdbcsleadbyte": 333,
    "\u2581system": 334,
    "rent": 335,
    "urrent": 336,
    "\u2581system32": 337,
    "ual": 338,
    "\u25810xfffff": 339,
    "ge": 340,
    "d8": 341,
    "id": 342,
    "\u25810xfffffff": 343,
    "irt": 344,
    "irtual": 345,
    "b8": 346,
    "ment": 347,
    "\u25810xf00": 348,
    "a8": 349,
    "ary": 350,
    "\u2581virtual": 351,
    "\u25810x78": 352,
    "\u2581a": 353,
    "br": 354,
    "hread": 355,
    "ate": 356,
    "\u25810xfeee001": 357,
    "di": 358,
    "\u25810x52": 359,
    "\u25810x10c": 360,
    "\u2581getst": 361,
    "dc": 362,
    "\u2581getti": 363,
    "\u25810x7e": 364,
    "free": 365,
    "\u2581getlocaleinfow": 366,
    "key": 367,
    "brary": 368,
    "ck": 369,
    "ect": 370,
    "ckcount": 371,
    "\u2581gettickcount": 372,
    "age": 373,
    "58": 374,
    "68": 375,
    "94": 376,
    "qu": 377,
    "14": 378,
    "d4": 379,
    "hi": 380,
    "\u2581multi": 381,
    "etow": 382,
    "bytetow": 383,
    "\u2581multibytetow": 384,
    "\u2581multibytetowidechar": 385,
    "d1": 386,
    "\u25810x47": 387,
    "\u2581var": 388,
    "38": 389,
    "64": 390,
    "quer": 391,
    "of": 392,
    "34": 393,
    "lock": 394,
    "f800000": 395,
    "\u25810x5f800000": 396,
    "2c": 397,
    "\u2581p": 398,
    "thread": 399,
    "e8": 400,
    "\u25810x400": 401,
    "lo": 402,
    "\u2581cre": 403,
    "f4": 404,
    "\u2581re": 405,
    "ype": 406,
    "5c": 407,
    "12": 408,
    "a4": 409,
    "library": 410,
    "na": 411,
    "map": 412,
    "handlew": 413,
    "\u25810x1211e": 414,
    "\u2581g": 415,
    "vi": 416,
    "\u25810x18": 417,
    "\u2581inter": 418,
    "open": 419,
    "7c": 420,
    "\u2581getmodulehandlew": 421,
    "\u25810x7de": 422,
    "\u2581getcurrent": 423,
    "def": 424,
    "9c": 425,
    "filet": 426,
    "\u25810x1c": 427,
    "rst": 428,
    "\u2581fls": 429,
    "ers": 430,
    "\u2581interlock": 431,
    "\u2581lc": 432,
    "\u2581local": 433,
    "\u2581lcmap": 434,
    "\u2581lcmapstring": 435,
    "74": 436,
    "so": 437,
    "\u25810x9": 438,
    "ut": 439,
    "\u2581gets": 440,
    "1c": 441,
    "un": 442,
    "\u2581loadlibrary": 443,
    "ch": 444,
    "\u25810x20": 445,
    "56": 446,
    "\u2581ap": 447,
    "\u2581interlocked": 448,
    "for": 449,
    "3c": 450,
    "da": 451,
    "rement": 452,
    "tom": 453,
    "tomulti": 454,
    "\u2581widechar": 455,
    "tomultibyte": 456,
    "\u2581widechartomultibyte": 457,
    "fc": 458,
    "\u2581heapfree": 459,
    "b4": 460,
    "\u25810xffffffff": 461,
    "75": 462,
    "\u2581getmodulehand": 463,
    "69": 464,
    "\u25810x1210e": 465,
    "\u25810x1211c98": 466,
    "\u25810x4378": 467,
    "\u2581getmodulehandlea": 468,
    "set": 469,
    "are": 470,
    "\u2581reg": 471,
    "query": 472,
    "rect": 473,
    "6c": 474,
    "aa": 475,
    "vw": 476,
    "19": 477,
    "\u25810x90": 478,
    "54": 479,
    "\u2581co": 480,
    "\u25810x1211d": 481,
    "24": 482,
    "\u25810xfeee0004": 483,
    "lm": 484,
    "\u25810x12117": 485,
    "e1": 486,
    "\u2581virtualquery": 487,
    "nop": 488,
    "xy": 489,
    "xyz": 490,
    "klm": 491,
    "\u2581abc": 492,
    "ghi": 493,
    "uvw": 494,
    "qrst": 495,
    "uvwxyz": 496,
    "nopqrst": 497,
    "defghi": 498,
    "klmnopqrst": 499,
    "\u2581abcdefghi": 500,
    "klmnopqrstuvwxyz": 501,
    "\u25810x4610": 502,
    "\u2581create": 503,
    "\u25810x1210f": 504,
    "\u2581h": 505,
    "rector": 506,
    "\u25810x5266": 507,
    "\u2581getsystem": 508,
    "cc": 509,
    "mm": 510,
    "vers": 511,
    "form": 512,
    "\u25811": 513,
    "name": 514,
    "\u25810x1211c18": 515,
    "ol": 516,
    "\u25810xcd": 517,
    "\u25810x12119": 518,
    "\u2581read": 519,
    "fe": 520,
    "es": 521,
    "oftw": 522,
    "oftware": 523,
    "\u25810x70": 524,
    "\u2581hkey": 525,
    "\u25810xfff": 526,
    "\u25810x4c": 527,
    "\u2581getfilet": 528,
    "\u2581lstr": 529,
    "onso": 530,
    "\u2581software": 531,
    "\u2581getfiletype": 532,
    "91": 533,
    "list": 534,
    "dhandle": 535,
    "\u25810x54": 536,
    "\u25810x3f": 537,
    "d10000": 538,
    "\u2581getstdhandle": 539,
    "\u25810x77d10000": 540,
    "65": 541,
    "onsole": 542,
    "art": 543,
    "d2": 544,
    "\u2581lcmapstringw": 545,
    "88": 546,
    "\u2581ex": 547,
    "\u2581se": 548,
    "db": 549,
    "\u25810xffb": 550,
    "inc": 551,
    "ic": 552,
    "a2": 553,
    "rectory": 554,
    "filename": 555,
    "emp": 556,
    "a3": 557,
    "67": 558,
    "increment": 559,
    "\u2581interlockedincrement": 560,
    "rit": 561,
    "f5": 562,
    "\u25810x48": 563,
    "15": 564,
    "\u25810xfeee0002": 565,
    "setvalue": 566,
    "rite": 567,
    "f9": 568,
    "44": 569,
    "ron": 570,
    "\u2581localalloc": 571,
    "api": 572,
    "\u25810xfeee0000": 573,
    "\u2581b": 574,
    "ab": 575,
    "\u25810x104": 576,
    "viron": 577,
    "artu": 578,
    "arch": 579,
    "\u25810x4670": 580,
    "\u2581fr": 581,
    "\u2581open": 582,
    "\u2581current": 583,
    "from": 584,
    "71": 585,
    "vironment": 586,
    "dr": 587,
    "artupinfo": 588,
    "\u2581getstartupinfo": 589,
    "f1": 590,
    "\u25810x200": 591,
    "d6": 592,
    "\u2581getmodulefilename": 593,
    "42": 594,
    "\u2581gdi": 595,
    "eb": 596,
    "comm": 597,
    "\u2581getcurrentthread": 598,
    "\u25812": 599,
    "a9": 600,
    "valid": 601,
    "ia": 602,
    "\u25810xfeee0003": 603,
    "se": 604,
    "ation": 605,
    "ecount": 606,
    "line": 607,
    "\u2581getconsole": 608,
    "tin": 609,
    "\u2581apis": 610,
    "\u25810x14": 611,
    "a6": 612,
    "ot": 613,
    "80": 614,
    "version": 615,
    "andline": 616,
    "\u2581gdi32": 617,
    "\u25810x79": 618,
    "sw": 619,
    "\u25810x7d90": 620,
    "\u2581getcurrentthreadid": 621,
    "e5": 622,
    "eex": 623,
    "\u2581ad": 624,
    "processlist": 625,
    "\u2581getconsoleprocesslist": 626,
    "\u2581getcomm": 627,
    "directory": 628,
    "\u2581getcommandline": 629,
    "api32": 630,
    "locales": 631,
    "a7": 632,
    "b7": 633,
    "\u2581adv": 634,
    "\u2581advapi32": 635,
    "\u25810x7f": 636,
    "a1": 637,
    "\u2581search": 638,
    "\u25810x80": 639,
    "\u25810xfeee002": 640,
    "\u25810x40933": 641,
    "\u2581o": 642,
    "vironmentstring": 643,
    "\u25810x78000000": 644,
    "\u25810xfeee0": 645,
    "35": 646,
    "\u25810x800": 647,
    "\u2581locales": 648,
    "bad": 649,
    "pre": 650,
    "16": 651,
    "\u2581loadlibraryexw": 652,
    "df": 653,
    "iv": 654,
    "\u25810xfeee0005": 655,
    "\u25810xffc": 656,
    "\u25810x7de0": 657,
    "e7": 658,
    "92": 659,
    "\u2581virtualalloc": 660,
    "mess": 661,
    "\u2581find": 662,
    "ptr": 663,
    "\u2581isbad": 664,
    "up": 665,
    "\u25810xf003": 666,
    "as": 667,
    "time": 668,
    "\u2581flssetvalue": 669,
    "ting": 670,
    "vironmentstringsw": 671,
    "b2": 672,
    "\u25810x88": 673,
    "\u2581de": 674,
    "write": 675,
    "\u25810xf002": 676,
    "72": 677,
    "\u25810xf001": 678,
    "af": 679,
    "\u25810x49": 680,
    "readptr": 681,
    "\u2581isbadreadptr": 682,
    "\u2581flsalloc": 683,
    "\u2581x": 684,
    "bf": 685,
    "c8": 686,
    "\u2581invalid": 687,
    "\u25810x8000": 688,
    "e2": 689,
    "789": 690,
    "\u2581page": 691,
    "\u2581regopen": 692,
    "\u2581regopenkey": 693,
    "b5": 694,
    "\u2581getthread": 695,
    "62": 696,
    "\u2581getcurrentprocess": 697,
    "cep": 698,
    "l66": 699,
    "d5": 700,
    "\u2581lstrle": 701,
    "\u25810x33": 702,
    "1000": 703,
    "ception": 704,
    "95": 705,
    "l6660": 706,
    "\u25810x7b": 707,
    "\u2581temp": 708,
    "08": 709,
    "ber": 710,
    "var": 711,
    "1234": 712,
    "56789": 713,
    "\u258101234": 714,
    "\u25810123456789": 715,
    "ile": 716,
    "\u25810x7f8": 717,
    "f6": 718,
    "yper": 719,
    "11": 720,
    "forman": 721,
    "\u2581quer": 722,
    "\u2581queryper": 723,
    "\u2581queryperforman": 724,
    "acc": 725,
    "fa": 726,
    "type": 727,
    "\u2581creat": 728,
    "int": 729,
    "b9": 730,
    "\u2581readwrite": 731,
    "drl6660": 732,
    "py": 733,
    "\u25810x73": 734,
    "b3": 735,
    "lose": 736,
    "76": 737,
    "a40": 738,
    "enu": 739,
    "\u25810x7000": 740,
    "message": 741,
    "\u25810x1211dc": 742,
    "d3": 743,
    "cecount": 744,
    "cecounter": 745,
    "\u2581queryperformancecounter": 746,
    "e6": 747,
    "e9": 748,
    "dex": 749,
    "\u25810xfeee005": 750,
    "varia": 751,
    "e3": 752,
    "4c": 753,
    "\u25810x7a": 754,
    "bo": 755,
    "to": 756,
    "41": 757,
    "drl6660drl6660": 758,
    "\u2581tls": 759,
    "\u25810x4350": 760,
    "sent": 761,
    "present": 762,
    "\u2581sh": 763,
    "day": 764,
    "ime": 765,
    "\u25810x7c": 766,
    "\u25810x435": 767,
    "f7": 768,
    "\u2581getprocess": 769,
    "\u25810xb": 770,
    "exa": 771,
    "\u25810x7f800": 772,
    "8c": 773,
    "\u25810xfeee0006": 774,
    "\u2581getstartupinfoa": 775,
    "\u2581bor": 776,
    "menu": 777,
    "um": 778,
    "\u2581sl": 779,
    "f2": 780,
    "\u2581win": 781,
    "\u2581str": 782,
    "\u25810x102": 783,
    "\u25810x1211c90": 784,
    "window": 785,
    "\u2581getstring": 786,
    "\u25810x50": 787,
    "eep": 788,
    "lob": 789,
    "f3": 790,
    "61": 791,
    "\u2581glob": 792,
    "filetime": 793,
    "97": 794,
    "ob": 795,
    "\u25817": 796,
    "\u2581getstringtype": 797,
    "ating": 798,
    "\u2581borl": 799,
    "access": 800,
    "pool": 801,
    "dd": 802,
    "\u2581getsystemtime": 803,
    "ure": 804,
    "\u2581sleep": 805,
    "filew": 806,
    "\u2581key": 807,
    "\u2581borland": 808,
    "63": 809,
    "\u2581getstringtypew": 810,
    "directoryw": 811,
    "\u2581lcmapstringex": 812,
    "ay": 813,
    "hine": 814,
    "\u2581mac": 815,
    "55": 816,
    "\u2581machine": 817,
    "\u25810x3394": 818,
    "b1": 819,
    "\u25810x13": 820,
    "fromstr": 821,
    "\u2581loadlibrarya": 822,
    "ith": 823,
    "fil": 824,
    "\u25810x4d": 825,
    "\u25810xa": 826,
    "73": 827,
    "processor": 828,
    "\u25810x19": 829,
    "\u25810x12116": 830,
    "\u2581r": 831,
    "e10000": 832,
    "\u2581getac": 833,
    "\u25810x77e10000": 834,
    "04": 835,
    "decrement": 836,
    "\u2581interlockeddecrement": 837,
    "\u25810xfeee0007": 838,
    "\u2581l1": 839,
    "\u25810xfeee003": 840,
    "\u2581core": 841,
    "99": 842,
    "cpy": 843,
    "\u25810x44f8": 844,
    "\u25810xe": 845,
    "gu": 846,
    "\u2581getthreadlocale": 847,
    "\u2581getmodulefilenamea": 848,
    "messagea": 849,
    "\u2581getacp": 850,
    "b6": 851,
    "\u25810x409": 852,
    "\u2581geten": 853,
    "menuinfo": 854,
    "\u25810x120": 855,
    "\u2581getcommandlinea": 856,
    "\u2581li": 857,
    "\u2581ws": 858,
    "\u25810x71": 859,
    "79": 860,
    "\u2581getprocessheap": 861,
    "\u2581setmenuinfo": 862,
    "ature": 863,
    "feature": 864,
    "\u2581isprocessor": 865,
    "featurepresent": 866,
    "\u2581isprocessorfeaturepresent": 867,
    "il": 868,
    "22": 869,
    "\u25810x8c": 870,
    "asfiletime": 871,
    "print": 872,
    "1a": 873,
    "\u25810x30": 874,
    "\u25810x4000": 875,
    "\u25810x7ee": 876,
    "all": 877,
    "d9": 878,
    "\u25810xfeee004": 879,
    "84": 880,
    "\u25810x4a": 881,
    "ea": 882,
    "cre": 883,
    "\u25810x422": 884,
    "yo": 885,
    "\u25810x75": 886,
    "\u25810x2a": 887,
    "\u25810x4750": 888,
    "\u25810x5265": 889,
    "\u25817z": 890,
    "\u2581api": 891,
    "ction": 892,
    "\u2581getmodulefilenamew": 893,
    "\u25810x72": 894,
    "\u25810x7e70": 895,
    "loating": 896,
    "\u25810x4b": 897,
    "c4": 898,
    "\u25810x32": 899,
    "ies": 900,
    "13": 901,
    "\u25810x1211dc0": 902,
    "\u2581library": 903,
    "65c": 904,
    "\u2581getsystemtimeasfiletime": 905,
    "\u25810x7d91": 906,
    "ork": 907,
    "mode": 908,
    "dexception": 909,
    "hel": 910,
    "filter": 911,
    "\u25810x40a5ce": 912,
    "\u25810x40a5d0": 913,
    "\u25810x40a5d2": 914,
    "\u25810x40a5d4": 915,
    "\u25810x40a5d6": 916,
    "\u25810x40a5d8": 917,
    "\u25810x40a5da": 918,
    "\u2581al": 919,
    "unhandle": 920,
    "dexceptionfilter": 921,
    "unhandledexceptionfilter": 922,
    "\u25810x12115": 923,
    "sour": 924,
    "7b": 925,
    "\u2581getcurrentprocessid": 926,
    "\u25810x7de1": 927,
    "\u25810x1f4": 928,
    "1e": 929,
    "ov": 930,
    "7e": 931,
    "os": 932,
    "\u2581lread": 933,
    "\u25810x105": 934,
    "\u25810x169": 935,
    "\u25810x1211cf8": 936,
    "\u25810x21000": 937,
    "\u2581getversion": 938,
    "106": 939,
    "ive": 940,
    "\u25810x1f400": 941,
    "\u2581lstrlena": 942,
    "\u2581regi": 943,
    "db10": 944,
    "\u2581strn": 945,
    "utes": 946,
    "\u25810x5265c": 947,
    "\u25810xfeee008": 948,
    "\u25810xd": 949,
    "be": 950,
    "inform": 951,
    "\u2581global": 952,
    "\u2581strncmp": 953,
    "\u2581wsprint": 954,
    "source": 955,
    "\u25810x74": 956,
    "\u2581dr": 957,
    "\u2581regopenkeyexw": 958,
    "ionex": 959,
    "\u25810x43780": 960,
    "\u2581getvers": 961,
    "\u2581getversionex": 962,
    "db10106": 963,
    "\u25810x1db10106": 964,
    "bd": 965,
    "\u2581delet": 966,
    "52": 967,
    "\u2581getsystemdirectoryw": 968,
    "\u2581getstartupinfow": 969,
    "900": 970,
    "\u25810x76": 971,
    "first": 972,
    "information": 973,
    "work": 974,
    "put": 975,
    "eeen": 976,
    "\u2581freeen": 977,
    "ack": 978,
    "\u25810xf0019": 979,
    "bu": 980,
    "ef": 981,
    "\u25810x3f75": 982,
    "low": 983,
    "\u25810x220": 984,
    "ba": 985,
    "der": 986,
    "point": 987,
    "\u25810x12116d8": 988,
    "eek": 989,
    "handl": 990,
    "con": 991,
    "\u2581free": 992,
    "ib": 993,
    "\u2581with": 994,
    "\u2581setunhandledexceptionfilter": 995,
    "not": 996,
    "stru": 997,
    "date": 998,
    "nw": 999,
    "\u25810x4e": 1000,
    "33": 1001,
    "filea": 1002,
    "002": 1003,
    "1b": 1004,
    "\u2581alter": 1005,
    "\u2581altered": 1006,
    "num": 1007,
    "00c": 1008,
    "\u2581pf": 1009,
    "\u2581access": 1010,
    "\u25810x1211e2c": 1011,
    "77": 1012,
    "lic": 1013,
    "struction": 1014,
    "\u25810x1211918": 1015,
    "\u2581getenvironmentstringsw": 1016,
    "\u25810xfffffff6": 1017,
    "ag": 1018,
    "908": 1019,
    "\u2581freeenvironmentstringsw": 1020,
    "\u25810x44f9": 1021,
    "\u2581getcommandlinew": 1022,
    "\u25810xfffffff5": 1023,
    "\u25810xfffffff4": 1024,
    "9e": 1025,
    "ult": 1026,
    "\u2581peek": 1027,
    "resource": 1028,
    "ait": 1029,
    "defa": 1030,
    "default": 1031,
    "\u25810x1211dcc": 1032,
    "\u25810x1211e0": 1033,
    "\u2581floating": 1034,
    "urs": 1035,
    "flow": 1036,
    "fb": 1037,
    "\u2581peekmessagea": 1038,
    "\u25810x4428": 1039,
    "fd": 1040,
    "b00": 1041,
    "dep": 1042,
    "ae": 1043,
    "7d": 1044,
    "\u25810x50000": 1045,
    "create": 1046,
    "c2": 1047,
    "\u2581ole": 1048,
    "ock": 1049,
    "\u2581createt": 1050,
    "\u25810x53": 1051,
    "\u25810x7830": 1052,
    "ai": 1053,
    "dll": 1054,
    "aps": 1055,
    "96": 1056,
    "\u25810xfeee01": 1057,
    "variable": 1058,
    "ub": 1059,
    "ad0": 1060,
    "fw": 1061,
    "\u2581wsprintfw": 1062,
    "\u25810x46b0": 1063,
    "\u2581i": 1064,
    "\u25810x40a3": 1065,
    "\u25810x9000": 1066,
    "\u25810x22": 1067,
    "\u25813": 1068,
    "\u25810x12114": 1069,
    "\u25810x2c": 1070,
    "losehandle": 1071,
    "oft": 1072,
    "17": 1073,
    "\u2581process": 1074,
    "met": 1075,
    "\u2581closehandle": 1076,
    "\u2581getfile": 1077,
    "\u2581wc": 1078,
    "\u25810x7ec": 1079,
    "\u2581setfile": 1080,
    "osoft": 1081,
    "\u2581th": 1082,
    "edc": 1083,
    "icr": 1084,
    "icrosoft": 1085,
    "leas": 1086,
    "\u2581process32": 1087,
    "vai": 1088,
    "vaila": 1089,
    "vailable": 1090,
    "53": 1091,
    "\u25810x44f8e0": 1092,
    "close": 1093,
    "\u25810x12117f8": 1094,
    "\u2581microsoft": 1095,
    "\u2581file": 1096,
    "bb": 1097,
    "\u2581lstrcpy": 1098,
    "\u25810x7810": 1099,
    "sub": 1100,
    "51": 1101,
    "\u25810x460": 1102,
    "\u2581heapcreate": 1103,
    "\u25810x28": 1104,
    "sa": 1105,
    "mer": 1106,
    "9d": 1107,
    "7a": 1108,
    "\u25810x42a40": 1109,
    "23": 1110,
    "\u25810x38": 1111,
    "ett": 1112,
    "alett": 1113,
    "hreadpool": 1114,
    "div": 1115,
    "adwork": 1116,
    "\u2581write": 1117,
    "eric": 1118,
    "\u2581currentversion": 1119,
    "bc0": 1120,
    "\u2581available": 1121,
    "cec": 1122,
    "\u2581tlssetvalue": 1123,
    "\u2581regopenkeyexa": 1124,
    "vali": 1125,
    "iant": 1126,
    "\u2581variant": 1127,
    "\u25810x1211b": 1128,
    "oper": 1129,
    "\u25810x5f5": 1130,
    "eexw": 1131,
    "icon": 1132,
    "ember": 1133,
    "a80": 1134,
    "ition": 1135,
    "dition": 1136,
    "\u25810x1f": 1137,
    "\u2581tlsalloc": 1138,
    "validco": 1139,
    "\u2581regist": 1140,
    "ockob": 1141,
    "\u2581getstockob": 1142,
    "handlecount": 1143,
    "variant": 1144,
    "\u2581sethandlecount": 1145,
    "\u25810x17": 1146,
    "lass": 1147,
    "angu": 1148,
    "anguage": 1149,
    "\u25810x1e": 1150,
    "\u2581pr": 1151,
    "ont": 1152,
    "depage": 1153,
    "ision": 1154,
    "\u2581lstrlenw": 1155,
    "\u2581isvalidco": 1156,
    "\u2581isvalidcodepage": 1157,
    "\u25810x40a58": 1158,
    "\u2581setthread": 1159,
    "\u25810x8810": 1160,
    "directorya": 1161,
    "\u2581releas": 1162,
    "operation": 1163,
    "itprocess": 1164,
    "\u25810x1a": 1165,
    "realloc": 1166,
    "\u25810x69": 1167,
    "\u25810x40a": 1168,
    "5f": 1169,
    "\u25810x1211dd4": 1170,
    "\u25810x40933d": 1171,
    "\u25810x40933e": 1172,
    "\u25810x40933f": 1173,
    "\u25810x409340": 1174,
    "\u25810x409341": 1175,
    "\u25810x409342": 1176,
    "\u25810x409343": 1177,
    "\u25810x4c42": 1178,
    "\u2581instruction": 1179,
    "i64": 1180,
    "\u2581xmm": 1181,
    "\u2581xmmi64": 1182,
    "\u2581instructions": 1183,
    "number": 1184,
    "ilanguage": 1185,
    "erflow": 1186,
    "bug": 1187,
    "2e": 1188,
    "\u25810x82": 1189,
    "6d": 1190,
    "lus": 1191,
    "bstr": 1192,
    "bstrfrom": 1193,
    "\u2581varbstrfrom": 1194,
    "\u25810x5f500000": 1195,
    "6a": 1196,
    "vicec": 1197,
    "9f": 1198,
    "input": 1199,
    "drl6660drl6660drl6660drl6660": 1200,
    "\u25810xfeee0008": 1201,
    "\u25810x2000": 1202,
    "debug": 1203,
    "\u2581findfirst": 1204,
    "45": 1205,
    "timer": 1206,
    "\u25810x1211908": 1207,
    "d7": 1208,
    "6b": 1209,
    "37": 1210,
    "\u25810x7aa0": 1211,
    "\u25810x12114b8": 1212,
    "\u25810x7f00": 1213,
    "180": 1214,
    "\u25810x2e": 1215,
    "ursor": 1216,
    "6e": 1217,
    "\u2581shel": 1218,
    "\u2581freelibrary": 1219,
    "\u25810x15": 1220,
    "25": 1221,
    "\u25810x7890": 1222,
    "\u25810x5265c14": 1223,
    "\u25810x1211718": 1224,
    "\u25810x429": 1225,
    "\u25810xfeee0009": 1226,
    "31": 1227,
    "\u25810x1211dc8": 1228,
    "\u25810x1075": 1229,
    "\u25810x79d0": 1230,
    "fol": 1231,
    "\u25810xfeee000a": 1232,
    "\u25810xfeee000b": 1233,
    "\u2581virtualfree": 1234,
    "folder": 1235,
    "ata": 1236,
    "\u25810xfeee000c": 1237,
    "\u2581con": 1238,
    "\u25810x101": 1239,
    "\u25810x569": 1240,
    "480": 1241,
    "\u2581findclose": 1242,
    "400": 1243,
    "\u25810xfeee000e": 1244,
    "\u25810xfeee000d": 1245,
    "ity": 1246,
    "edi": 1247,
    "\u25810xfeee000f": 1248,
    "\u25810x1211758": 1249,
    "\u25810x7e71": 1250,
    "load": 1251,
    "\u2581st": 1252,
    "ee0": 1253,
    "ero": 1254,
    "\u25810x410": 1255,
    "e44": 1256,
    "\u2581sy": 1257,
    "5e": 1258,
    "\u25810x47b0": 1259,
    "21": 1260,
    "\u25810x4630": 1261,
    "\u25810xfeee0010": 1262,
    "\u2581heaprealloc": 1263,
    "\u2581app": 1264,
    "\u2581flsfree": 1265,
    "\u2581mon": 1266,
    "\u25810xfeee0014": 1267,
    "\u25810xfeee0015": 1268,
    "\u2581nt": 1269,
    "\u25810xfeee0016": 1270,
    "\u25810xfeee0013": 1271,
    "\u25810xfeee0012": 1272,
    "og": 1273,
    "lp": 1274,
    "\u25810xfeee0011": 1275,
    "und": 1276,
    "\u25810x56": 1277,
    "lor": 1278,
    "\u2581code": 1279,
    "\u25810x1211f8": 1280,
    "308": 1281,
    "sup": 1282,
    "\u2581out": 1283,
    "780": 1284,
    "\u25810x3e": 1285,
    "\u25810x68": 1286,
    "chan": 1287,
    "\u25810x4967": 1288,
    "cursor": 1289,
    "\u25810x169bf": 1290,
    "your": 1291,
    "7f": 1292,
    "\u2581drive": 1293,
    "\u25810x1211b0": 1294,
    "\u25810x40a5dc": 1295,
    "\u25810x40a5cc": 1296,
    "\u25810x16": 1297,
    "sti": 1298,
    "\u25810x70cc": 1299,
    "\u2581getde": 1300,
    "de9": 1301,
    "gear": 1302,
    "\u2581codegear": 1303,
    "6f": 1304,
    "\u25810x3f75f": 1305,
    "lphi": 1306,
    "\u2581delphi": 1307,
    "004": 1308,
    "\u25810x11": 1309,
    "rectories": 1310,
    "ord": 1311,
    "59": 1312,
    "mage": 1313,
    "attr": 1314,
    "\u2581getdc": 1315,
    "2000": 1316,
    "attrib": 1317,
    "\u25810x4015": 1318,
    "ger": 1319,
    "vicecaps": 1320,
    "\u2581getdevicecaps": 1321,
    "directories": 1322,
    "930": 1323,
    "27": 1324,
    "isk": 1325,
    "\u2581getversionexa": 1326,
    "\u25810x1211ef0": 1327,
    "29": 1328,
    "\u2581gen": 1329,
    "\u25810x60": 1330,
    "\u2581com": 1331,
    "640": 1332,
    "008": 1333,
    "\u25810x58": 1334,
    "\u2581font": 1335,
    "gi": 1336,
    "ame": 1337,
    "\u2581shell32": 1338,
    "stit": 1339,
    "attributes": 1340,
    "cy": 1341,
    "\u25810x10000": 1342,
    "\u2581setdefault": 1343,
    "\u25810x423": 1344,
    "substit": 1345,
    "substitutes": 1346,
    "\u2581fontsubstitutes": 1347,
    "\u2581loadlibraryw": 1348,
    "\u2581readfile": 1349,
    "dlldirectories": 1350,
    "\u2581setdefaultdlldirectories": 1351,
    "\u2581releasedc": 1352,
    "\u2581gett": 1353,
    "ntr": 1354,
    "\u2581loadcursor": 1355,
    "\u25810x67": 1356,
    "\u2581exe": 1357,
    "off": 1358,
    "den": 1359,
    "\u25810x21": 1360,
    "280": 1361,
    "arr": 1362,
    "\u25810x4e5": 1363,
    "console": 1364,
    "\u25810x23": 1365,
    "\u25810x567": 1366,
    "trol": 1367,
    "\u25810x44f928": 1368,
    "\u25810x29": 1369,
    "\u25810x57": 1370,
    "wait": 1371,
    "edirectory": 1372,
    "\u2581malloc": 1373,
    "\u2581generic": 1374,
    "\u2581deletecriticalsection": 1375,
    "arg": 1376,
    "c3": 1377,
    "2a": 1378,
    "26": 1379,
    "\u25810x8a": 1380,
    "eentr": 1381,
    "term": 1382,
    "\u25810x25": 1383,
    "\u2581exitprocess": 1384,
    "ystemp": 1385,
    "array": 1386,
    "\u2581globalalloc": 1387,
    "\u2581loadicon": 1388,
    "\u25810x1211e04": 1389,
    "ditionvariable": 1390,
    "\u25810x408": 1391,
    "am": 1392,
    "\u2581initterm": 1393,
    "\u25810x1211fd8": 1394,
    "\u2581process32nex": 1395,
    "9a": 1396,
    "\u2581setfilepointer": 1397,
    "nch": 1398,
    "\u25810x12118": 1399,
    "\u2581sat": 1400,
    "\u25810x40152c": 1401,
    "hec": 1402,
    "\u2581nov": 1403,
    "ho": 1404,
    "\u2581sep": 1405,
    "\u2581findfirstfilew": 1406,
    "\u25810x78c": 1407,
    "\u25810x8f": 1408,
    "5d": 1409,
    "\u25810x1211fd0": 1410,
    "\u25810x78c00000": 1411,
    "\u25810x430": 1412,
    "36": 1413,
    "\u2581au": 1414,
    "5b": 1415,
    "prot": 1416,
    "\u2581clo": 1417,
    "\u2581oc": 1418,
    "\u2581apr": 1419,
    "\u2581getversionexw": 1420,
    "\u2581dec": 1421,
    "\u2581synch": 1422,
    "b40": 1423,
    "e80": 1424,
    "eentries": 1425,
    "aletteentries": 1426,
    "\u2581sun": 1427,
    "vice": 1428,
    "econ": 1429,
    "offile": 1430,
    "\u2581getw": 1431,
    "uary": 1432,
    "508": 1433,
    "\u2581may": 1434,
    "\u25810x1211f48": 1435,
    "\u2581tue": 1436,
    "sday": 1437,
    "\u25810xfeee0017": 1438,
    "\u2581wed": 1439,
    "\u2581gettemp": 1440,
    "ip": 1441,
    "ard": 1442,
    "rw": 1443,
    "inal": 1444,
    "\u25810xfeee0018": 1445,
    "\u25810x59": 1446,
    "\u25810x4f": 1447,
    "\u25810x3c": 1448,
    "\u25810x1211528": 1449,
    "help": 1450,
    "\u25810x188": 1451,
    "files": 1452,
    "\u2581image": 1453,
    "\u2581getsystemp": 1454,
    "46": 1455,
    "\u25810x770": 1456,
    "suped": 1457,
    "\u25810x1211f7c": 1458,
    "\u25810x79f0": 1459,
    "\u2581getsystempaletteentries": 1460,
    "\u25810xfde9": 1461,
    "errormode": 1462,
    "\u2581seterrormode": 1463,
    "\u25810x1211f30": 1464,
    "\u2581e": 1465,
    "\u25810xfeee0019": 1466,
    "\u25810x700c": 1467,
    "numberof": 1468,
    "zero": 1469,
    "protect": 1470,
    "\u2581floatingpoint": 1471,
    "\u2581creates": 1472,
    "\u2581comp": 1473,
    "overflow": 1474,
    "byzero": 1475,
    "isionbyzero": 1476,
    "\u2581invalidvariant": 1477,
    "\u25810x43540": 1478,
    "2b": 1479,
    "\u2581createa": 1480,
    "ys": 1481,
    "\u25810xfeee005f": 1482,
    "3d": 1483,
    "iled": 1484,
    "\u2581control": 1485,
    "c7": 1486,
    "ct": 1487,
    "bool": 1488,
    "\u2581varr": 1489,
    "fearray": 1490,
    "4fromstr": 1491,
    "\u25810x24": 1492,
    "\u25810x8b": 1493,
    "stry": 1494,
    "\u25810x34": 1495,
    "\u2581createfilew": 1496,
    "\u2581getnumberof": 1497,
    "\u2581getnumberofconsole": 1498,
    "stringa": 1499,
    "1f": 1500,
    "\u25810x1211b04": 1501,
    "\u25810x4710": 1502,
    "57": 1503,
    "spec": 1504,
    "\u25810x1d": 1505,
    "2d": 1506,
    "\u2581virtualprotect": 1507,
    "\u2581imagelist": 1508,
    "orsa": 1509,
    "\u25810x5a": 1510,
    "\u25810x1211cc0": 1511,
    "mem": 1512,
    "ordinal": 1513,
    "\u25810x704c": 1514,
    "\u25810x1210f8": 1515,
    "\u2581ordinal": 1516,
    "\u25810x708c": 1517,
    "\u2581ole32": 1518,
    "sc": 1519,
    "3a": 1520,
    "938": 1521,
    "fer": 1522,
    "\u2581map": 1523,
    "heck": 1524,
    "\u25810xcc": 1525,
    "3f": 1526,
    "\u25810x51": 1527,
    "board": 1528,
    "orsafearray": 1529,
    "inputs": 1530,
    "\u2581getnumberofconsoleinputs": 1531,
    "\u25810x569b00": 1532,
    "own": 1533,
    "isting": 1534,
    "\u2581delete": 1535,
    "\u25810x64": 1536,
    "color": 1537,
    "\u25810x1804": 1538,
    "660": 1539,
    "\u2581registerc": 1540,
    "39": 1541,
    "the": 1542,
    "ecut": 1543,
    "1d": 1544,
    "9c8": 1545,
    "f10000": 1546,
    "\u25810x1211cec": 1547,
    "2f": 1548,
    "aaaa": 1549,
    "\u2581shget": 1550,
    "\u2581compare": 1551,
    "yarg": 1552,
    "\u25810x2d": 1553,
    "\u25810x1210ec": 1554,
    "ervice": 1555,
    "end": 1556,
    "\u25810x12119c0": 1557,
    "\u25810x214": 1558,
    "c9": 1559,
    "\u25810x1b": 1560,
    "\u25810x7850": 1561,
    "\u25810x2f": 1562,
    "cf": 1563,
    "\u2581wcs": 1564,
    "\u2581windowsnt": 1565,
    "\u25810x7ee0": 1566,
    "3e": 1567,
    "d08": 1568,
    "bit": 1569,
    "\u2581wait": 1570,
    "prefer": 1571,
    "\u25810x69000000": 1572,
    "\u2581existing": 1573,
    "\u2581process32nextw": 1574,
    "\u25810x7ee00": 1575,
    "\u2581writefile": 1576,
    "lation": 1577,
    "slen": 1578,
    "\u2581wcslen": 1579,
    "3b": 1580,
    "430": 1581,
    "\u25810x77f10000": 1582,
    "cadwork": 1583,
    "\u25810x2b": 1584,
    "\u25810x7e8": 1585,
    "ory": 1586,
    "\u25810x1210d": 1587,
    "\u25810x63": 1588,
    "mov": 1589,
    "ool": 1590,
    "\u2581wcscpy": 1591,
    "\u25810x1211a": 1592,
    "c6": 1593,
    "redu": 1594,
    "preferredu": 1595,
    "preferreduilanguage": 1596,
    "keyw": 1597,
    "5a": 1598,
    "rwlock": 1599,
    "\u2581createfilea": 1600,
    "pro": 1601,
    "preferreduilanguages": 1602,
    "b80": 1603,
    "9b": 1604,
    "\u2581lstrcmp": 1605,
    "ew": 1606,
    "\u25810x1211f20": 1607,
    "call": 1608,
    "\u2581fib": 1609,
    "\u2581fibers": 1610,
    "\u25810x40f6": 1611,
    "\u25810x1210900": 1612,
    "tra": 1613,
    "\u25810x31": 1614,
    "47": 1615,
    "\u25810x8d": 1616,
    "fac": 1617,
    "cd": 1618,
    "\u25810x94": 1619,
    "ial": 1620,
    "\u2581closet": 1621,
    "\u25810xfeee001a": 1622,
    "\u2581closethreadpool": 1623,
    "\u2581createthreadpool": 1624,
    "ownload": 1625,
    "de0": 1626,
    "\u25810x7d10": 1627,
    "\u2581createw": 1628,
    "\u2581loadcursora": 1629,
    "memory": 1630,
    "back": 1631,
    "cb": 1632,
    "\u25810x98": 1633,
    "a50": 1634,
    "allock": 1635,
    "vironmentvariable": 1636,
    "\u25810xffff": 1637,
    "\u25810xa0": 1638,
    "initializ": 1639,
    "\u25810x181b": 1640,
    "eextra": 1641,
    "ull": 1642,
    "\u2581globallock": 1643,
    "\u2581registry": 1644,
    "\u25810x40a5a0": 1645,
    "438": 1646,
    "708": 1647,
    "\u2581up": 1648,
    "\u25810x52660": 1649,
    "ca": 1650,
    "c1": 1651,
    "\u25810x4418": 1652,
    "\u2581error": 1653,
    "\u2581getmess": 1654,
    "49": 1655,
    "\u25810x84": 1656,
    "\u25810x1211e08": 1657,
    "\u2581getsysteminfo": 1658,
    "5000": 1659,
    "ctl32": 1660,
    "\u2581comctl32": 1661,
    "ageextra": 1662,
    "ageextrainfo": 1663,
    "\u2581getmessageextrainfo": 1664,
    "\u25810x1211748": 1665,
    "hot": 1666,
    "\u25810x43500": 1667,
    "ee8": 1668,
    "\u25810x1211e44": 1669,
    "\u25810x40a59e": 1670,
    "\u25810x40a5a2": 1671,
    "\u25810x40a5a4": 1672,
    "\u25810x40a5a6": 1673,
    "\u25810x40a5a8": 1674,
    "\u25810x40a5aa": 1675,
    "\u25810x40933c": 1676,
    "\u25810x7de4": 1677,
    "\u25810x7de5": 1678,
    "ename": 1679,
    "\u25810x198": 1680,
    "\u2581inst": 1681,
    "\u25810x37": 1682,
    "\u2581comparestring": 1683,
    "\u25810x409344": 1684,
    "\u25810x4c42c0": 1685,
    "f08": 1686,
    "\u25810x1211bc0": 1687,
    "\u2581waitfor": 1688,
    "\u25810x35": 1689,
    "\u2581createdirectory": 1690,
    "\u25810x85": 1691,
    "ant": 1692,
    "880": 1693,
    "\u25810xfeee001b": 1694,
    "988": 1695,
    "9c1": 1696,
    "\u25810x36": 1697,
    "\u25810x1211958": 1698,
    "\u2581registerclass": 1699,
    "c5": 1700,
    "\u25810x4528": 1701,
    "\u25810x47c0": 1702,
    "\u25810x43640": 1703,
    "\u25810x19a": 1704,
    "format": 1705,
    "virtual": 1706,
    "full": 1707,
    "ast": 1708,
    "\u25810x3d": 1709,
    "\u2581int": 1710,
    "you": 1711,
    "\u25810x5c": 1712,
    "change": 1713,
    "sn": 1714,
    "\u25810x52661": 1715,
    "\u25810x52662": 1716,
    "0000000": 1717,
    "\u2581getfileattributes": 1718,
    "d04": 1719,
    "\u25810x41e1": 1720,
    "\u25810x1211ee0": 1721,
    "ac0": 1722,
    "\u2581getuser": 1723,
    "\u2581mapvirtual": 1724,
    "\u25810x3a": 1725,
    "\u25810x42b40": 1726,
    "\u25810x1212000": 1727,
    "94c": 1728,
    "ask": 1729,
    "\u25810x4229": 1730,
    "\u2581mapvirtualkeyw": 1731,
    "\u2581to": 1732,
    "93c": 1733,
    "\u25810x39": 1734,
    "\u2581getd": 1735,
    "out": 1736,
    "help32": 1737,
    "oolhelp32": 1738,
    "\u2581ch": 1739,
    "snaps": 1740,
    "oolhelp32snaps": 1741,
    "\u2581createtoolhelp32snaps": 1742,
    "\u2581createtoolhelp32snapshot": 1743,
    "with": 1744,
    "\u25810x7ec0": 1745,
    "208": 1746,
    "\u25810xfeee001c": 1747,
    "4b": 1748,
    "\u25810x1210e8": 1749,
    "ivi": 1750,
    "ak": 1751,
    "\u25810x1210e0": 1752,
    "\u25810x12119ac": 1753,
    "688": 1754,
    "\u2581findresource": 1755,
    "ivile": 1756,
    "\u25810x7d00": 1757,
    "\u25810x4094": 1758,
    "clus": 1759,
    "8b": 1760,
    "informationby": 1761,
    "\u2581run": 1762,
    "\u25810x4ab0": 1763,
    "\u2581interlocke": 1764,
    "\u25810xfeee001d": 1765,
    "\u25810x107568": 1766,
    "\u25810x3b": 1767,
    "ut32": 1768,
    "\u2581olea": 1769,
    "\u2581oleaut32": 1770,
    "\u25810x1211e34": 1771,
    "\u25810x4228": 1772,
    "clusive": 1773,
    "\u2581loadicona": 1774,
    "\u25810xfeee0040": 1775,
    "\u25810xa000": 1776,
    "rwlockex": 1777,
    "rwlockexclusive": 1778,
    "een": 1779,
    "a256": 1780,
    "\u25810x181c": 1781,
    "\u25810x8e": 1782,
    "\u2581remov": 1783,
    "\u25810x1211578": 1784,
    "\u25810x1211308": 1785,
    "spac": 1786,
    "\u2581sha256": 1787,
    "\u25810x4790": 1788,
    "ang": 1789,
    "\u25810x7930": 1790,
    "\u25810x5265d": 1791,
    "\u2581output": 1792,
    "\u2581outputdebug": 1793,
    "vio": 1794,
    "callback": 1795,
    "\u25810x1211e28": 1796,
    "pa": 1797,
    "\u25810x48400": 1798,
    "pooltimer": 1799,
    "\u2581un": 1800,
    "licen": 1801,
    "\u25810x409a": 1802,
    "\u25810x41d1": 1803,
    "ire": 1804,
    "mask": 1805,
    "any": 1806,
    "uilanguage": 1807,
    "\u25810x1211f28": 1808,
    "\u2581initializes": 1809,
    "iskfree": 1810,
    "iskfreespac": 1811,
    "\u2581getdiskfreespac": 1812,
    "32c": 1813,
    "\u2581getkey": 1814,
    "f74": 1815,
    "lec": 1816,
    "\u25810x4400": 1817,
    "\u2581drag": 1818,
    "\u25810x46e0": 1819,
    "\u25810x4d70": 1820,
    "\u2581process32first": 1821,
    "buff": 1822,
    "\u25810x8ad0": 1823,
    "\u2581getwindows": 1824,
    "\u25810x1210f0": 1825,
    "320": 1826,
    "\u25810x4600": 1827,
    "\u25810x420": 1828,
    "lush": 1829,
    "\u2581mul": 1830,
    "\u2581muldiv": 1831,
    "108": 1832,
    "violation": 1833,
    "inst": 1834,
    "\u25810x67000000": 1835,
    "ecute": 1836,
    "980": 1837,
    "emap": 1838,
    "\u25810x42332": 1839,
    "\u25810x508": 1840,
    "300": 1841,
    "\u25810x4615": 1842,
    "tex": 1843,
    "aw": 1844,
    "e88": 1845,
    "urity": 1846,
    "yscolor": 1847,
    "\u2581getsyscolor": 1848,
    "\u25810x42990": 1849,
    "eexa": 1850,
    "\u25810x1210ed": 1851,
    "\u2581createp": 1852,
    "\u2581lstrcpyna": 1853,
    "\u25810x4df0": 1854,
    "th": 1855,
    "e4c": 1856,
    "metr": 1857,
    "\u25810x202": 1858,
    "\u25810xff8": 1859,
    "infoa": 1860,
    "\u25810x52663": 1861,
    "comp": 1862,
    "las": 1863,
    "metric": 1864,
    "\u25810x4c43": 1865,
    "\u25810x1211f2c": 1866,
    "a00": 1867,
    "bits": 1868,
    "de4": 1869,
    "d3c": 1870,
    "\u25810xfeee001e": 1871,
    "\u25810x83": 1872,
    "a04": 1873,
    "dat": 1874,
    "\u25810x99": 1875,
    "\u25810x92": 1876,
    "\u2581lstrcpynw": 1877,
    "ace": 1878,
    "ryp": 1879,
    "5c8": 1880,
    "\u2581tr": 1881,
    "5500000": 1882,
    "\u25810x42900": 1883,
    "conditionvariable": 1884,
    "\u25810x1210f4": 1885,
    "\u25810x7cd0": 1886,
    "lw": 1887,
    "debugger": 1888,
    "\u25810x1210ee": 1889,
    "debuggerpresent": 1890,
    "next": 1891,
    "\u25810x5265e": 1892,
    "aff": 1893,
    "\u25810x5265f": 1894,
    "\u25818": 1895,
    "\u25810xfeee001f": 1896,
    "\u25810xb8": 1897,
    "alette": 1898,
    "\u258120": 1899,
    "security": 1900,
    "\u2581accessviolation": 1901,
    "\u25810x80000000": 1902,
    "\u25810x519": 1903,
    "328": 1904,
    "\u25810xfeee0020": 1905,
    "9000": 1906,
    "ain": 1907,
    "metrics": 1908,
    "\u2581getsystemmetrics": 1909,
    "6c8": 1910,
    "\u2581isdebuggerpresent": 1911,
    "\u2581outputdebugstringa": 1912,
    "\u2581wak": 1913,
    "drl6660drl6660drl6660drl6660drl6660drl6660drl6660drl6660": 1914,
    "\u25810x7df0": 1915,
    "\u25810x1211f64": 1916,
    "\u2581ass": 1917,
    "\u2581setc": 1918,
    "found": 1919,
    "100": 1920,
    "bc8": 1921,
    "view": 1922,
    "788": 1923,
    "d000": 1924,
    "\u25810x7de8": 1925,
    "\u25810x88a0": 1926,
    "\u25810x1211948": 1927,
    "\u2581setup": 1928,
    "380": 1929,
    "\u25810x7de9": 1930,
    "\u25810x437808": 1931,
    "\u2581getkeyboard": 1932,
    "\u25810x1211f00": 1933,
    "\u25810x437": 1934,
    "\u25810x437806": 1935,
    "\u25810x43780a": 1936,
    "\u25810x43780c": 1937,
    "\u25810x43780e": 1938,
    "\u25810x437810": 1939,
    "\u25810x437812": 1940,
    "\u25810x437814": 1941,
    "\u25810x437816": 1942,
    "\u25810x437818": 1943,
    "\u25810x43781a": 1944,
    "\u25810x43781c": 1945,
    "\u25810x43781e": 1946,
    "rypt": 1947,
    "\u2581rand": 1948,
    "\u25810x567a40": 1949,
    "\u25810x4730": 1950,
    "echeck": 1951,
    "\u25810x1211efc": 1952,
    "188": 1953,
    "\u25810x1211f0": 1954,
    "ere": 1955,
    "\u2581fe": 1956,
    "ill": 1957,
    "\u25810x1211780": 1958,
    "\u25810x52664": 1959,
    "\u25810x52666": 1960,
    "184": 1961,
    "ink": 1962,
    "\u2581mar": 1963,
    "\u2581z": 1964,
    "nal": 1965,
    "\u2581lstrcmpa": 1966,
    "instruction": 1967,
    "qa": 1968,
    "\u2581createsemap": 1969,
    "d80": 1970,
    "\u25814": 1971,
    "\u25810x20019": 1972,
    "lwapi": 1973,
    "\u25810x8001": 1974,
    "\u2581shlwapi": 1975,
    "\u2581exception": 1976,
    "\u2581copy": 1977,
    "b08": 1978,
    "\u2581msvcr": 1979,
    "\u25810x8a40": 1980,
    "\u2581flush": 1981,
    "\u25810xc00": 1982,
    "\u2581outof": 1983,
    "\u2581vers": 1984,
    "e00": 1985,
    "ec0": 1986,
    "\u25810x7dec": 1987,
    "\u25810x7ded": 1988,
    "\u25810x4df": 1989,
    "folderw": 1990,
    "localename": 1991,
    "\u25810x1211fcc": 1992,
    "typ": 1993,
    "special": 1994,
    "\u2581shgetspecial": 1995,
    "ecall": 1996,
    "\u2581update": 1997,
    "\u25810x55": 1998,
    "\u25810xffe1": 1999,
    "ins": 2000,
    "failed": 2001,
    "\u25810x7540": 2002,
    "\u25810x40a9": 2003,
    "\u25810x44280": 2004,
    "\u25810x8cc0": 2005,
    "want": 2006,
    "afile": 2007,
    "\u25810x47a0": 2008,
    "668": 2009,
    "\u2581feb": 2010,
    "\u25810xffe0": 2011,
    "\u2581crypt": 2012,
    "\u25810xffe4": 2013,
    "leob": 2014,
    "\u25810x1009": 2015,
    "4e": 2016,
    "\u25810x432": 2017,
    "licence": 2018,
    "ied": 2019,
    "\u2581err": 2020,
    "validate": 2021,
    "\u2581heapvalidate": 2022,
    "\u2581sept": 2023,
    "creating": 2024,
    "\u2581vari": 2025,
    "une": 2026,
    "\u25810xffbb": 2027,
    "\u25810x1211fd4": 2028,
    "\u25810x1005": 2029,
    "\u25810xffbd": 2030,
    "\u25810xffbe": 2031,
    "\u25810xffba": 2032,
    "\u25810xffbc": 2033,
    "580": 2034,
    "\u2581oct": 2035,
    "\u25810xffb8": 2036,
    "\u25810xfffe": 2037,
    "\u2581febr": 2038,
    "\u25810x7d95": 2039,
    "\u25810x7df1": 2040,
    "\u25810xffb9": 2041,
    "937": 2042,
    "\u25810x44d4": 2043,
    "\u25810xffb7": 2044,
    "\u25810xfffd": 2045,
    "\u25810x26": 2046,
    "gust": 2047,
    "\u2581aug": 2048,
    "tober": 2049,
    "\u2581april": 2050,
    "\u25810xffbf": 2051,
    "\u2581august": 2052,
    "\u2581november": 2053,
    "\u2581september": 2054,
    "\u2581u": 2055,
    "\u25810xfffc": 2056,
    "ro": 2057,
    "code": 2058,
    "f00": 2059,
    "b5c": 2060,
    "ires": 2061,
    "\u25810x9c": 2062,
    "\u25810x1211728": 2063,
    "74c": 2064,
    "\u2581shgetspecialfolderw": 2065,
    "\u2581lock": 2066,
    "\u25810x1211f88": 2067,
    "bound": 2068,
    "\u25810x91": 2069,
    "\u25810xa2": 2070,
    "\u25810x8811": 2071,
    "sing": 2072,
    "\u25810xffb6": 2073,
    "\u2581div": 2074,
    "box": 2075,
    "hor": 2076,
    "head": 2077,
    "ged": 2078,
    "index": 2079,
    "\u25810xffa0": 2080,
    "fe8": 2081,
    "\u2581outofmemory": 2082,
    "anuary": 2083,
    "\u2581march": 2084,
    "\u2581february": 2085,
    "e08": 2086,
    "uly": 2087,
    "\u2581december": 2088,
    "\u2581october": 2089,
    "\u25810xffa1": 2090,
    "\u25810xfffb": 2091,
    "\u2581monday": 2092,
    "\u2581sunday": 2093,
    "\u2581tuesday": 2094,
    "\u2581thu": 2095,
    "f0000": 2096,
    "nesday": 2097,
    "\u25810x7090": 2098,
    "\u25810xffa2": 2099,
    "\u2581wednesday": 2100,
    "ursday": 2101,
    "\u2581thursday": 2102,
    "ly": 2103,
    "\u2581fri": 2104,
    "\u2581prec": 2105,
    "\u2581point": 2106,
    "\u2581errata": 2107,
    "\u2581precision": 2108,
    "iday": 2109,
    "urday": 2110,
    "\u2581friday": 2111,
    "\u2581saturday": 2112,
    "\u2581createpalette": 2113,
    "\u25810x7d94": 2114,
    "\u25810xffa3": 2115,
    "\u2581interfac": 2116,
    "\u25810x7ed": 2117,
    "\u25810xffa4": 2118,
    "\u2581enum": 2119,
    "\u25810xffb5": 2120,
    "\u25810xffcd": 2121,
    "ec8": 2122,
    "f80": 2123,
    "ternal": 2124,
    "\u2581sn": 2125,
    "exception": 2126,
    "uter": 2127,
    "\u25810x65": 2128,
    "\u25810xffa7": 2129,
    "afecall": 2130,
    "\u25810xffa5": 2131,
    "\u25810xffa6": 2132,
    "cor": 2133,
    "\u2581interfacen": 2134,
    "\u25810xfffa": 2135,
    "c08": 2136,
    "\u25810x40a582": 2137,
    "\u25810x40a584": 2138,
    "\u25810x40a586": 2139,
    "\u25810x40a588": 2140,
    "\u2581inte": 2141,
    "\u25810x40a58a": 2142,
    "\u2581external": 2143,
    "lect": 2144,
    "\u2581asser": 2145,
    "\u25810x40a580": 2146,
    "584": 2147,
    "\u2581stack": 2148,
    "\u25810x40a57e": 2149,
    "\u25810xffa8": 2150,
    "\u25810xffb4": 2151,
    "\u2581privile": 2152,
    "\u25810x40a93": 2153,
    "\u25810xffa9": 2154,
    "\u2581integer": 2155,
    "computer": 2156,
    "\u2581assertion": 2157,
    "styp": 2158,
    "\u25810x52665": 2159,
    "\u25810x1210e4": 2160,
    "insafecall": 2161,
    "\u2581exceptioninsafecall": 2162,
    "\u2581disk": 2163,
    "calls": 2164,
    "\u2581show": 2165,
    "initialize": 2166,
    "changet": 2167,
    "\u25810x4800": 2168,
    "\u2581variantchanget": 2169,
    "\u2581getfileattributesw": 2170,
    "\u25810x97": 2171,
    "ecast": 2172,
    "\u25810xffaa": 2173,
    "\u25810xffcc": 2174,
    "notfound": 2175,
    "derflow": 2176,
    "\u25810xffe6": 2177,
    "\u2581fa": 2178,
    "stre": 2179,
    "profile": 2180,
    "verflow": 2181,
    "\u2581assertionfailed": 2182,
    "dend": 2183,
    "bounds": 2184,
    "\u2581privileged": 2185,
    "clas": 2186,
    "main": 2187,
    "\u2581chit": 2188,
    "\u2581rang": 2189,
    "denied": 2190,
    "otsuped": 2191,
    "\u25810xffce": 2192,
    "classtyp": 2193,
    "indexout": 2194,
    "notsuped": 2195,
    "\u2581gettime": 2196,
    "\u2581rangecheck": 2197,
    "accessdenied": 2198,
    "classtypecast": 2199,
    "pointeroperation": 2200,
    "\u2581externalexception": 2201,
    "\u2581interfacenotsuped": 2202,
    "metafile": 2203,
    "ofbounds": 2204,
    "underflow": 2205,
    "callsnotsuped": 2206,
    "\u2581errorcreating": 2207,
    "indexoutofbounds": 2208,
    "\u2581errorcreatingvariant": 2209,
    "\u2581invalidclasstypecast": 2210,
    "\u2581variantcallsnotsuped": 2211,
    "\u2581floatingpointunderflow": 2212,
    "pointo": 2213,
    "typecon": 2214,
    "floating": 2215,
    "floatingpoint": 2216,
    "pointoverflow": 2217,
    "divisionbyzero": 2218,
    "typeconversion": 2219,
    "\u2581stackoverflow": 2220,
    "\u2581divisionbyzero": 2221,
    "\u2581integeroverflow": 2222,
    "\u2581rangecheckerror": 2223,
    "\u2581invalidfloatingpoint": 2224,
    "\u2581floatingpointoverflow": 2225,
    "\u2581privilegedinstruction": 2226,
    "\u2581invalidpointeroperation": 2227,
    "\u2581invalidvariantoperation": 2228,
    "\u2581floatingpointdivisionbyzero": 2229,
    "\u2581invalidvarianttypeconversion": 2230,
    "\u2581invalidfloatingpointoperation": 2231,
    "bey": 2232,
    "beyon": 2233,
    "omany": 2234,
    "numeric": 2235,
    "\u2581toomany": 2236,
    "beyondend": 2237,
    "openfiles": 2238,
    "\u2581diskfull": 2239,
    "numericinput": 2240,
    "\u2581readbeyondend": 2241,
    "\u2581invalidfilename": 2242,
    "\u2581toomanyopenfiles": 2243,
    "\u2581invalidnumericinput": 2244,
    "\u2581readbeyondendoffile": 2245,
    "\u2581fileaccessdenied": 2246,
    "\u25810x1211dd0": 2247,
    "\u2581getthreadpreferreduilanguages": 2248,
    "\u25810x120f8": 2249,
    "\u25810x3f75f60": 2250,
    "mod": 2251,
    "\u25810xffcf": 2252,
    "gument": 2253,
    "\u25810x3000": 2254,
    "\u25810x100300": 2255,
    "messagew": 2256,
    "\u2581localfree": 2257,
    "\u2581type": 2258,
    "\u25810x53000000": 2259,
    "168": 2260,
    "ypeex": 2261,
    "\u25810xfee": 2262,
    "\u25810x1211e30": 2263,
    "\u2581variantchangetypeex": 2264,
    "argument": 2265,
    "neg": 2266,
    "acqu": 2267,
    "\u25810xffe5": 2268,
    "\u2581varbstrfrombool": 2269,
    "econditionvariable": 2270,
    "\u2581getuserdefault": 2271,
    "98c": 2272,
    "mul": 2273,
    "xor": 2274,
    "idiv": 2275,
    "\u2581varcy": 2276,
    "\u2581varor": 2277,
    "\u2581varr8": 2278,
    "\u2581varadd": 2279,
    "\u2581varand": 2280,
    "\u2581varcmp": 2281,
    "\u2581vardiv": 2282,
    "\u2581varmod": 2283,
    "\u2581varmul": 2284,
    "\u2581varneg": 2285,
    "\u2581varnot": 2286,
    "\u2581varsub": 2287,
    "\u2581varxor": 2288,
    "\u2581varbool": 2289,
    "\u2581vardate": 2290,
    "\u2581varidiv": 2291,
    "\u25810xfeee0072": 2292,
    "\u2581varcyfromstr": 2293,
    "\u2581vari4fromstr": 2294,
    "\u2581varr4fromstr": 2295,
    "\u2581varr8fromstr": 2296,
    "\u2581varbstrfromcy": 2297,
    "\u2581varboolfromstr": 2298,
    "\u2581vardatefromstr": 2299,
    "\u2581varbstrfromdate": 2300,
    "\u25810xffb0": 2301,
    "\u25810x6c": 2302,
    "\u2581createwindow": 2303,
    "vol": 2304,
    "7c8": 2305,
    "\u25810xfff9": 2306,
    "essage": 2307,
    "buffers": 2308,
    "\u25810xffb3": 2309,
    "\u2581getkeyboardtype": 2310,
    "\u2581start": 2311,
    "\u25810xffb2": 2312,
    "service": 2313,
    "2030": 2314,
    "rtl": 2315,
    "\u25810xffb1": 2316,
    "\u25810x66": 2317,
    "condition": 2318,
    "\u25810x121193c": 2319,
    "\u2581register": 2320,
    "\u258132": 2321,
    "\u25810x3f75f30": 2322,
    "\u2581the": 2323,
    "\u25810xd0": 2324,
    "00210": 2325,
    "ow64": 2326,
    "\u25810x407": 2327,
    "\u25810x44f910": 2328,
    "lip": 2329,
    "listhead": 2330,
    "\u2581initializeslisthead": 2331,
    "4f": 2332,
    "3000": 2333,
    "driv": 2334,
    "\u2581snap": 2335,
    "formatex": 2336,
    "32cs": 2337,
    "\u2581rtl": 2338,
    "\u2581th32cs": 2339,
    "\u25810x430880": 2340,
    "ols": 2341,
    "\u25810xfff8": 2342,
    "\u25810x40a5ac": 2343,
    "\u2581crt": 2344,
    "\u25810x7bd0": 2345,
    "\u2581no": 2346,
    "\u25810x496760": 2347,
    "\u2581invalidargument": 2348,
    "\u2581variantorsafearray": 2349,
    "\u2581errorcreatingvariantorsafearray": 2350,
    "\u2581variantorsafearrayindexoutofbounds": 2351,
    "\u25810x107": 2352,
    "app": 2353,
    "588": 2354,
    "\u25810x1211c08": 2355,
    "\u25810xfff7": 2356,
    "\u25810x235": 2357,
    "488": 2358,
    "\u25810x3e8": 2359,
    "\u25810x7ad0": 2360,
    "link": 2361,
    "yarg1": 2362,
    "\u2581getwindowsdirectorya": 2363,
    "\u25810xffd2": 2364,
    "388": 2365,
    "d00": 2366,
    "\u2581fmode": 2367,
    "\u25810x7340": 2368,
    "volu": 2369,
    "\u25810x41e": 2370,
    "\u25810x40b3": 2371,
    "cef": 2372,
    "\u25810x80c0": 2373,
    "\u2581loadlibraryexa": 2374,
    "volume": 2375,
    "vironmentvariablea": 2376,
    "a84": 2377,
    "\u25810x42d4": 2378,
    "\u25810x7300": 2379,
    "\u25810x42992": 2380,
    "acquires": 2381,
    "\u2581gettempw": 2382,
    "\u25810x43b7": 2383,
    "\u25810xfeee0021": 2384,
    "acquiresrwlockexclusive": 2385,
    "logi": 2386,
    "logical": 2387,
    "\u2581getlogical": 2388,
    "f88": 2389,
    "408": 2390,
    "\u2581process32firstw": 2391,
    "484": 2392,
    "\u25810x1076": 2393,
    "\u25810x40f": 2394,
    "\u25810x40b": 2395,
    "\u25810x4bd0": 2396,
    "oy": 2397,
    "inity": 2398,
    "\u25810x4e30": 2399,
    "\u25810x7900": 2400,
    "lete": 2401,
    "erm": 2402,
    "\u25810x41c0": 2403,
    "\u25810xfeee0022": 2404,
    "\u2581getsystemdirectorya": 2405,
    "\u25810x100000": 2406,
    "affinity": 2407,
    "affinitymask": 2408,
    "\u25810x4620": 2409,
    "stroy": 2410,
    "\u25810x81": 2411,
    "a08": 2412,
    "\u258117": 2413,
    "net": 2414,
    "\u25810xffef": 2415,
    "\u2581getmain": 2416,
    "ernet": 2417,
    "ab8": 2418,
    "\u25810x7ab0": 2419,
    "2c8": 2420,
    "\u25810x4290": 2421,
    "\u25810xfeee0027": 2422,
    "\u2581of": 2423,
    "\u25810x509": 2424,
    "\u2581loadresource": 2425,
    "\u25810xfff6": 2426,
    "\u25810x1211f70": 2427,
    "\u25810xfeee0026": 2428,
    "\u25810x1211e24": 2429,
    "\u25810x2d4": 2430,
    "\u2581getclass": 2431,
    "\u2581wsprintfa": 2432,
    "770": 2433,
    "yarg2": 2434,
    "\u2581failed": 2435,
    "ok": 2436,
    "new": 2437,
    "\u25810xfeee010": 2438,
    "\u25810xfeee0024": 2439,
    "dexchange": 2440,
    "\u2581interlockedexchange": 2441,
    "\u25810xfeee0023": 2442,
    "localtime": 2443,
    "metafilebits": 2444,
    "\u25810x404": 2445,
    "once": 2446,
    "\u2581getprocessaffinitymask": 2447,
    "eall": 2448,
    "\u25810x78a0": 2449,
    "3c4": 2450,
    "\u25810x4960": 2451,
    "\u2581do": 2452,
    "\u25810xffe3": 2453,
    "\u2581select": 2454,
    "de8": 2455,
    "\u25810xfeee0025": 2456,
    "\u2581globalfree": 2457,
    "system": 2458,
    "\u2581snapprocess": 2459,
    "\u25810x405": 2460,
    "host": 2461,
    "\u2581loc": 2462,
    "888": 2463,
    "\u2581execute": 2464,
    "\u2581createdirectoryw": 2465,
    "\u25810x41d114": 2466,
    "\u25810x120f8c2": 2467,
    "\u2581corex": 2468,
    "\u2581localiz": 2469,
    "\u2581localization": 2470,
    "\u25810xe0": 2471,
    "\u25810xffd3": 2472,
    "\u2581cadwork": 2473,
    "\u2581getthreaduilanguage": 2474,
    "\u2581be": 2475,
    "ts": 2476,
    "\u2581gettempa": 2477,
    "\u2581corexitprocess": 2478,
    "contr": 2479,
    "\u25810x5b": 2480,
    "\u25810x40ab": 2481,
    "\u25810xffec": 2482,
    "singleob": 2483,
    "stream": 2484,
    "allocate": 2485,
    "\u25810xffc6": 2486,
    "paint": 2487,
    "wantto": 2488,
    "\u25810x43f0": 2489,
    "\u25810xfeee0046": 2490,
    "volumeinformation": 2491,
    "\u25810x7be0": 2492,
    "\u25810x58000": 2493,
    "\u25810x1211de4": 2494,
    "\u2581getvolumeinformation": 2495,
    "\u2581deletefilea": 2496,
    "\u25810x61": 2497,
    "\u25810x8230": 2498,
    "\u25810x59bf": 2499,
    "\u25810x59c1": 2500,
    "\u25810x49c8": 2501,
    "\u25810x7a80": 2502,
    "40c": 2503,
    "\u25810x4c4308": 2504,
    "no": 2505,
    "\u2581wakeall": 2506,
    "\u2581wakeallconditionvariable": 2507,
    "\u25810x1211fc8": 2508,
    "\u2581term": 2509,
    "\u25810x7150": 2510,
    "wow64": 2511,
    "\u25810x2100210": 2512,
    "\u2581termin": 2513,
    "bcc": 2514,
    "d88": 2515,
    "\u25810x418": 2516,
    "\u2581waitforsingleob": 2517,
    "\u2581loadiconw": 2518,
    "f8c": 2519,
    "ffc": 2520,
    "\u25810x73f0": 2521,
    "a88": 2522,
    "fp": 2523,
    "controls": 2524,
    "\u25810x1211e20": 2525,
    "inmetafilebits": 2526,
    "\u25810x72a0": 2527,
    "\u2581isvalid": 2528,
    "namea": 2529,
    "\u25810x364": 2530,
    "ed8": 2531,
    "\u25810xaa": 2532,
    "\u2581getlocaltime": 2533,
    "\u25810x4e50": 2534,
    "\u2581ofresource": 2535,
    "search": 2536,
    "searchmode": 2537,
    "\u2581setsearchmode": 2538,
    "4d": 2539,
    "\u25810x7270": 2540,
    "\u25810x7690": 2541,
    "myarg2": 2542,
    "b60": 2543,
    "\u25810x4cb0": 2544,
    "\u25810x403": 2545,
    "\u25810xffc5": 2546,
    "\u25810x1211f74": 2547,
    "\u25810xfff5": 2548,
    "\u2581findresourcew": 2549,
    "\u2581setprocess": 2550,
    "\u25810xa1": 2551,
    "\u25810x4096": 2552,
    "\u25810x44d4b8": 2553,
    "drive": 2554,
    "\u25810x7eab": 2555,
    "yarg1myarg2": 2556,
    "isp": 2557,
    "ong": 2558,
    "\u25810x4d50": 2559,
    "ati": 2560,
    "\u25810x77e0": 2561,
    "\u25810x121194c": 2562,
    "\u2581getwinmetafilebits": 2563,
    "polic": 2564,
    "\u25810x7700": 2565,
    "680": 2566,
    "\u25810x412": 2567,
    "\u25810x434": 2568,
    "\u25810x40b8": 2569,
    "\u25810x7f0": 2570,
    "\u2581iswow64": 2571,
    "\u2581iswow64process": 2572,
    "\u2581message": 2573,
    "\u25810x1211f40": 2574,
    "\u2581comparestringex": 2575,
    "\u2581getlocaleinfoex": 2576,
    "ust": 2577,
    "808": 2578,
    "\u25810x52667": 2579,
    "fff0": 2580,
    "alog": 2581,
    "\u2581findnext": 2582,
    "hen": 2583,
    "valu": 2584,
    "\u2581install": 2585,
    "608": 2586,
    "\u25810x1211f10": 2587,
    "\u25810x502": 2588,
    "ym": 2589,
    "\u25810x1211dfc": 2590,
    "\u25810xffab": 2591,
    "ce8": 2592,
    "288": 2593,
    "\u25815": 2594,
    "\u25810x448": 2595,
    "382": 2596,
    "\u25810xfff4": 2597,
    "policy": 2598,
    "aaaaaaaa": 2599,
    "104": 2600,
    "a44": 2601,
    "\u25810x1211f18": 2602,
    "\u25810x13fff0": 2603,
    "\u2581dragob": 2604,
    "\u25810x1211f97": 2605,
    "\u2581lockresource": 2606,
    "\u25810xa7": 2607,
    "\u2581messagebox": 2608,
    "\u25810xffac": 2609,
    "\u2581download": 2610,
    "fc8": 2611,
    "9c2": 2612,
    "\u25810x65500000": 2613,
    "lication": 2614,
    "\u25810x40a59c": 2615,
    "504": 2616,
    "trl": 2617,
    "deppolicy": 2618,
    "\u2581shfolder": 2619,
    "5c4": 2620,
    "\u2581noaccess": 2621,
    "e8c": 2622,
    "\u2581setprocessdeppolicy": 2623,
    "\u2581getfileinformationby": 2624,
    "edit": 2625,
    "coree": 2626,
    "\u2581mscoree": 2627,
    "fromstream": 2628,
    "\u25810xfeee0028": 2629,
    "\u25810xffd0": 2630,
    "\u25810x437820": 2631,
    "\u25810x1211f1c": 2632,
    "\u25810x4e3": 2633,
    "\u25810x437804": 2634,
    "\u25810x7060": 2635,
    "\u25810x4554": 2636,
    "\u25810x78d0": 2637,
    "dc8": 2638,
    "erw": 2639,
    "\u25810x7ec1": 2640,
    "\u25810x1211f78": 2641,
    "\u25810x121157c": 2642,
    "\u25810x12117a4": 2643,
    "b000": 2644,
    "ram": 2645,
    "ret": 2646,
    "ee4": 2647,
    "\u25810x47f0": 2648,
    "ff8": 2649,
    "\u25810x51af": 2650,
    "\u25810x1211ef8": 2651,
    "delete": 2652,
    "\u25810xffdd": 2653,
    "\u2581fi": 2654,
    "\u25810x41c044": 2655,
    "\u25810x1211fc4": 2656,
    "\u25810x1210c": 2657,
    "\u25810x4088": 2658,
    "\u2581oleload": 2659,
    "\u2581oleloadfromstream": 2660,
    "\u25810x4614": 2661,
    "34c": 2662,
    "\u25810xa9": 2663,
    "\u25810xfeee0045": 2664,
    "b48": 2665,
    "a4c": 2666,
    "mapp": 2667,
    "infow": 2668,
    "\u2581setcurrent": 2669,
    "b88": 2670,
    "\u25810x7870": 2671,
    "\u25810x1211c04": 2672,
    "ac8": 2673,
    "d4c": 2674,
    "\u2581setfileattributes": 2675,
    "mapping": 2676,
    "filemapping": 2677,
    "\u2581registerclassexa": 2678,
    "ated": 2679,
    "pack": 2680,
    "\u25810x428": 2681,
    "\u25810xa3": 2682,
    "\u25810x60000": 2683,
    "\u2581getdate": 2684,
    "imet": 2685,
    "\u25810x5d": 2686,
    "\u25810x54000": 2687,
    "arc": 2688,
    "ef0": 2689,
    "\u2581version": 2690,
    "\u25810x86": 2691,
    "av": 2692,
    "\u2581aaa": 2693,
    "\u2581comparestringw": 2694,
    "\u25810xfeee012": 2695,
    "ethread": 2696,
    "\u25810x45f1": 2697,
    "\u2581seten": 2698,
    "a81": 2699,
    "\u2581lstrcpya": 2700,
    "download": 2701,
    "\u25810x1211d04": 2702,
    "linkw": 2703,
    "\u25810x71b0": 2704,
    "\u2581oleinitialize": 2705,
    "\u25810x40c": 2706,
    "\u25810x1211f84": 2707,
    "\u25810x95": 2708,
    "lex": 2709,
    "f4c": 2710,
    "b7c": 2711,
    "\u25810x406": 2712,
    "\u25810x1211a04": 2713,
    "\u2581registerwindow": 2714,
    "mb": 2715,
    "\u25810x7910": 2716,
    "\u25810x169bf74": 2717,
    "\u2581beg": 2718,
    "884": 2719,
    "\u25810x455": 2720,
    "\u25810x93": 2721,
    "\u25810xa4": 2722,
    "\u25810x41eb": 2723,
    "\u2581ntdll": 2724,
    "\u25810x1211e14": 2725,
    "\u25810xffc1": 2726,
    "\u25810x3f2000": 2727,
    "\u2581plea": 2728,
    "lipboard": 2729,
    "dc0": 2730,
    "d28": 2731,
    "\u2581gdip": 2732,
    "\u25810x3b7": 2733,
    "\u25810xfeee0029": 2734,
    "\u25810xfeee0044": 2735,
    "\u25810x4990": 2736,
    "ivate": 2737,
    "9c0": 2738,
    "urn": 2739,
    "\u25810x80e0": 2740,
    "\u25810x120fa": 2741,
    "437": 2742,
    "\u25810xb0": 2743,
    "\u25810x7d50": 2744,
    "\u25816": 2745,
    "private": 2746,
    "\u25810x1211f44": 2747,
    "privateprofile": 2748,
    "\u2581tmp": 2749,
    "\u25810x7ff": 2750,
    "\u25810x7b10": 2751,
    "\u2581regedit": 2752,
    "a20": 2753,
    "\u25810x7b40": 2754,
    "\u2581setthreadpreferreduilanguages": 2755,
    "\u25810x1211fc0": 2756,
    "d1c": 2757,
    "\u25810x46a0": 2758,
    "setinformation": 2759,
    "\u25810x1211508": 2760,
    "\u25810x169bf64": 2761,
    "\u2581comm": 2762,
    "\u2581getcurrentdirectorya": 2763,
    "434": 2764,
    "\u2581createthread": 2765,
    "f84": 2766,
    "\u25810x79c0": 2767,
    "\u25810x50850": 2768,
    "\u25810x8280": 2769,
    "\u25810x1211f04": 2770,
    "base": 2771,
    "\u25810x5c000": 2772,
    "\u2581draw": 2773,
    "ogram": 2774,
    "\u25810x45f2": 2775,
    "678": 2776,
    "b44": 2777,
    "emut": 2778,
    "df0": 2779,
    "\u25810xffad": 2780,
    "ymbo": 2781,
    "ymbolic": 2782,
    "\u25810x2439f74": 2783,
    "984": 2784,
    "ymboliclinkw": 2785,
    "\u2581createsymboliclinkw": 2786,
    "\u25810x75d0": 2787,
    "vironmentvariablew": 2788,
    "\u25810x8a80": 2789,
    "\u2581yo": 2790,
    "\u25810x4de": 2791,
    "package": 2792,
    "904": 2793,
    "140": 2794,
    "\u25810x7030": 2795,
    "exit": 2796,
    "\u25810x419": 2797,
    "packageid": 2798,
    "\u2581getcurrentpackageid": 2799,
    "\u2581heapsetinformation": 2800,
    "5c0": 2801,
    "\u25810x41a0": 2802,
    "scr": 2803,
    "\u2581showwindow": 2804,
    "\u25810x416": 2805,
    "\u2581initializeconditionvariable": 2806,
    "\u2581em": 2807,
    "\u25810x4232": 2808,
    "7a8": 2809,
    "when": 2810,
    "\u2581ux": 2811,
    "\u2581getclassinfoa": 2812,
    "ush": 2813,
    "vchost": 2814,
    "\u2581getfileinformationbyhandl": 2815,
    "theme": 2816,
    "return": 2817,
    "\u25810x644": 2818,
    "\u2581loadcursorw": 2819,
    "\u25810x7bf0": 2820,
    "\u25810xffc4": 2821,
    "ornumber": 2822,
    "processwrite": 2823,
    "\u2581flushprocesswrite": 2824,
    "\u2581flushprocesswritebuffers": 2825,
    "\u2581getcurrentprocessornumber": 2826,
    "tp": 2827,
    "a58": 2828,
    "\u25810x771": 2829,
    "horeexw": 2830,
    "returns": 2831,
    "poolwait": 2832,
    "callbacks": 2833,
    "whencallback": 2834,
    "\u2581waitforthread": 2835,
    "pooltimercallbacks": 2836,
    "\u2581createfilemapping": 2837,
    "\u2581setthreadpoolwait": 2838,
    "whencallbackreturns": 2839,
    "\u2581createsemaphoreexw": 2840,
    "\u2581setthreadpooltimer": 2841,
    "\u2581closethreadpoolwait": 2842,
    "\u2581closethreadpooltimer": 2843,
    "\u2581createthreadpoolwait": 2844,
    "\u2581createthreadpooltimer": 2845,
    "\u2581freelibrarywhencallbackreturns": 2846,
    "\u2581waitforthreadpooltimercallbacks": 2847,
    "5cc": 2848,
    "740": 2849,
    "\u25810xfeee002d": 2850,
    "env": 2851,
    "anag": 2852,
    "\u2581for": 2853,
    "\u25810x8260": 2854,
    "\u2581sc": 2855,
    "\u2581svchost": 2856,
    "\u2581uxtheme": 2857,
    "\u25810x7b90": 2858,
    "\u25810xfeee002f": 2859,
    "70c": 2860,
    "d40": 2861,
    "b964": 2862,
    "\u25810x4371": 2863,
    "will": 2864,
    "\u25810x7750": 2865,
    "\u25810xac": 2866,
    "\u25810x8f70": 2867,
    "\u25810x7a50": 2868,
    "\u25810x1211db8": 2869,
    "b14": 2870,
    "\u25810x169bf94": 2871,
    "\u25810x4086": 2872,
    "\u25810xa8": 2873,
    "viewoffile": 2874,
    "\u25810x4470": 2875,
    "\u25810x5638": 2876,
    "001": 2877,
    "a90": 2878,
    "\u25810x74e0": 2879,
    "\u25810x1211928": 2880,
    "\u25810x1211d08": 2881,
    "\u25810x44000": 2882,
    "\u25810x41f": 2883,
    "d50": 2884,
    "\u25810x1210df": 2885,
    "\u25810xfeee002a": 2886,
    "\u2581dw": 2887,
    "\u2581createwindowexa": 2888,
    "\u25810x422a0": 2889,
    "\u25810x7cf0": 2890,
    "fied": 2891,
    "\u25810x7390": 2892,
    "\u25810x7ae0": 2893,
    "\u25810x42168": 2894,
    "344": 2895,
    "\u2581q": 2896,
    "284": 2897,
    "\u25810x100b": 2898,
    "\u2581createdirectorya": 2899,
    "\u25810x20a": 2900,
    "\u258112": 2901,
    "544": 2902,
    "\u25810xfeee002c": 2903,
    "pos": 2904,
    "\u25810x43400": 2905,
    "\u25810xfeee0043": 2906,
    "\u25810x42b964": 2907,
    "\u25810xfeee002b": 2908,
    "run": 2909,
    "\u25810x4010": 2910,
    "\u25810x8090": 2911,
    "instal": 2912,
    "\u25810x7210": 2913,
    "a000": 2914,
    "902": 2915,
    "\u25810x45f4": 2916,
    "\u25810x1211d30": 2917,
    "435": 2918,
    "\u25810xfeee002e": 2919,
    "\u25810x72d0": 2920,
    "\u25810x7600": 2921,
    "dcc": 2922,
    "\u25810x3f4": 2923,
    "vari": 2924,
    "\u25810x89": 2925,
    "\u2581unhandledexceptionfilter": 2926,
    "50000": 2927,
    "\u25810x40ac": 2928,
    "\u25810x71e0": 2929,
    "\u25810x51a": 2930,
    "\u25810xffe2": 2931,
    "unction": 2932,
    "\u25810x435000": 2933,
    "ateprocess": 2934,
    "tok": 2935,
    "\u25810x7240": 2936,
    "\u25810x75a0": 2937,
    "state": 2938,
    "\u25810xffc2": 2939,
    "\u25810x27": 2940,
    "\u25810x423326": 2941,
    "\u25810x423327": 2942,
    "\u25810x1211f3c": 2943,
    "\u2581gettickcount64": 2944,
    "\u25810x7660": 2945,
    "978": 2946,
    "data": 2947,
    "\u25810x7ba0": 2948,
    "\u25810x7720": 2949,
    "\u25810x7a20": 2950,
    "383": 2951,
    "\u2581deletefilew": 2952,
    "\u2581findfirstfilea": 2953,
    "\u2581begin": 2954,
    "120": 2955,
    "iserror": 2956,
    "\u25810x76f0": 2957,
    "\u2581updatewindow": 2958,
    "\u25810x76c0": 2959,
    "1c8": 2960,
    "\u25810x7480": 2961,
    "atch": 2962,
    "\u25810x7180": 2963,
    "\u25810x45f3": 2964,
    "\u25810x45f5": 2965,
    "\u2581wts": 2966,
    "\u25810x7570": 2967,
    "\u25810x7840": 2968,
    "\u25810xc8": 2969,
    "\u25810x417d": 2970,
    "\u25810x7df4": 2971,
    "\u25810xffae": 2972,
    "\u25810x437b": 2973,
    "\u25810x45f8": 2974,
    "\u25810x7120": 2975,
    "\u25810x7330": 2976,
    "\u25810x7df5": 2977,
    "b8c": 2978,
    "len": 2979,
    "\u2581end": 2980,
    "\u25810x45f6": 2981,
    "ir": 2982,
    "\u25810xffe7": 2983,
    "\u25810x70c0": 2984,
    "\u25810x7360": 2985,
    "\u25810x77b0": 2986,
    "\u25810x7960": 2987,
    "\u25810x45f7": 2988,
    "\u25810x7990": 2989,
    "381": 2990,
    "ec4": 2991,
    "\u25810x45f9": 2992,
    "\u2581createprocess": 2993,
    "d7c": 2994,
    "\u25810x74b0": 2995,
    "\u25810x7510": 2996,
    "\u2581getdiskfreespaceexa": 2997,
    "lecs": 2998,
    "ablecs": 2999,
    "variablecs": 3000,
    "\u2581sleepcondition": 3001,
    "\u2581sleepconditionvariablecs": 3002,
    "ver": 3003,
    "\u25810x45fa": 3004,
    "\u25810xfeee0030": 3005,
    "204": 3006,
    "\u25810xffaf": 3007,
    "\u2581enumsystem": 3008,
    "\u25810x7450": 3009,
    "\u25810x20009": 3010,
    "\u25810x73c0": 3011,
    "\u25810x4967a8": 3012,
    "\u25810x7420": 3013,
    "768": 3014,
    "\u2581userenv": 3015,
    "\u25810x70f0": 3016,
    "ad8": 3017,
    "\u25810x45fe": 3018,
    "\u25810x7630": 3019,
    "e05": 3020,
    "\u25810xfeee003b": 3021,
    "\u25810xfeee014": 3022,
    "\u2581setfileinformationby": 3023,
    "\u25810x4601": 3024,
    "\u25810x8af0": 3025,
    "itthread": 3026,
    "\u2581createexw": 3027,
    "\u25810xfeee0062": 3028,
    "ais": 3029,
    "670": 3030,
    "e24": 3031,
    "\u25810x45ff": 3032,
    "\u2581getwindow": 3033,
    "barc": 3034,
    "adero": 3035,
    "\u2581embarc": 3036,
    "\u2581embarcadero": 3037,
    "4a": 3038,
    "ff0": 3039,
    "\u25810x45fd": 3040,
    "atalog": 3041,
    "\u25810x4c32": 3042,
    "\u25810x7780": 3043,
    "\u2581controlfp": 3044,
    "301": 3045,
    "\u25810xff90": 3046,
    "\u2581setdll": 3047,
    "\u25810x7b70": 3048,
    "\u2581getvolumeinformationa": 3049,
    "ass": 3050,
    "bc5": 3051,
    "3c8": 3052,
    "\u2581regquery": 3053,
    "\u25810xfeee0031": 3054,
    "\u25810x30000": 3055,
    "\u2581createfilemappinga": 3056,
    "\u2581terminateprocess": 3057,
    "\u25810x181b70": 3058,
    "\u25810x4093e8": 3059,
    "\u25810x44180": 3060,
    "10c": 3061,
    "hore": 3062,
    "\u2581mov": 3063,
    "\u25810x4093e5": 3064,
    "\u25810x4093e6": 3065,
    "\u25810x4093e7": 3066,
    "409": 3067,
    "mapi": 3068,
    "\u2581rais": 3069,
    "\u2581raiseex": 3070,
    "\u2581raiseexception": 3071,
    "ession": 3072,
    "scrip": 3073,
    "\u2581exem": 3074,
    "\u2581exemyarg1myarg2": 3075,
    "\u2581remove": 3076,
    "\u25810x41e1d8": 3077,
    "token": 3078,
    "\u2581commode": 3079,
    "\u25810xb000": 3080,
    "\u25810xff91": 3081,
    "xt": 3082,
    "\u25810x6f": 3083,
    "internet": 3084,
    "3c0": 3085,
    "\u25810xfeee0047": 3086,
    "\u2581dwmapi": 3087,
    "\u25810x4cf0": 3088,
    "rn": 3089,
    "\u25810xfeee0033": 3090,
    "\u2581cryptbase": 3091,
    "\u25810xa6": 3092,
    "\u25810xfeee0035": 3093,
    "704": 3094,
    "atalogs": 3095,
    "\u25810xfeee0049": 3096,
    "798": 3097,
    "\u25810x401": 3098,
    "windows": 3099,
    "\u25810x22002": 3100,
    "\u25810x4340": 3101,
    "\u25810xfeee0032": 3102,
    "rnl": 3103,
    "\u2581findresourcea": 3104,
    "ccc": 3105,
    "\u2581txt": 3106,
    "\u2581destroy": 3107,
    "\u25810x1211f80": 3108,
    "\u25810xfeee0039": 3109,
    "748": 3110,
    "\u2581ob": 3111,
    "itor": 3112,
    "\u25810xfeee0041": 3113,
    "common": 3114,
    "osk": 3115,
    "\u2581log": 3116,
    "oskrnl": 3117,
    "\u2581ntoskrnl": 3118,
    "\u25810xfeee003f": 3119,
    "\u2581initcommon": 3120,
    "\u2581initcommoncontrols": 3121,
    "namew": 3122,
    "\u25810xfeee0034": 3123,
    "\u25810xfeee0042": 3124,
    "\u25810x1211ee8": 3125,
    "\u25810x440": 3126,
    "\u25810xfc": 3127,
    "ned": 3128,
    "\u25810xfeee0048": 3129,
    "\u25810x169b": 3130,
    "\u25810xffcb": 3131,
    "e58": 3132,
    "plor": 3133,
    "d48": 3134,
    "b0c": 3135,
    "\u25810xffc3": 3136,
    "ig": 3137,
    "\u25810x4e80": 3138,
    "\u25810x41a044": 3139,
    "\u25810xfeee0037": 3140,
    "vis": 3141,
    "plorer": 3142,
    "\u25810x7c000000": 3143,
    "\u25810xfeee0036": 3144,
    "acd": 3145,
    "\u25810x4700": 3146,
    "tag": 3147,
    "\u258124": 3148,
    "\u25810xf0": 3149,
    "\u25810x5f": 3150,
    "\u2581getmessagea": 3151,
    "\u25810x5937": 3152,
    "script": 3153,
    "\u25810x4093e9": 3154,
    "\u25810x4093ea": 3155,
    "\u25810x4093eb": 3156,
    "lay": 3157,
    "wind": 3158,
    "\u25810xfeee0038": 3159,
    "\u2581setdlldirectoryw": 3160,
    "\u25810xfeedf": 3161,
    "66c": 3162,
    "d18": 3163,
    "\u25810x410770": 3164,
    "\u2581shgetfile": 3165,
    "\u2581acquiresrwlockexclusive": 3166,
    "709": 3167,
    "\u25810x616": 3168,
    "\u25810xfeee003d": 3169,
    "\u2581send": 3170,
    "\u2581filet": 3171,
    "\u2581filetimet": 3172,
    "\u25810xfeee003a": 3173,
    "a33": 3174,
    "698": 3175,
    "\u25810x22e": 3176,
    "\u25810xfeee003e": 3177,
    "\u25810x4606": 3178,
    "\u25810x1211f24": 3179,
    "only": 3180,
    "\u2581rtlun": 3181,
    "\u2581rtlunwind": 3182,
    "\u25810x480": 3183,
    "\u25810xffca": 3184,
    "\u25810x1211e54": 3185,
    "\u25810xfeee003c": 3186,
    "\u25810x41f7": 3187,
    "\u25810x409aa4": 3188,
    "\u25810xa5": 3189,
    "\u25810x409aa5": 3190,
    "\u25810x4614d0": 3191,
    "be8": 3192,
    "\u2581ns": 3193,
    "\u25810x63000000": 3194,
    "if": 3195,
    "eresource": 3196,
    "a48": 3197,
    "\u25810x40935d": 3198,
    "\u25810x40935e": 3199,
    "\u25810x40935f": 3200,
    "\u25810x409360": 3201,
    "\u25810x409361": 3202,
    "\u25810x409362": 3203,
    "\u25810x409363": 3204,
    "brush": 3205,
    "inter": 3206,
    "403": 3207,
    "68c": 3208,
    "e000": 3209,
    "youwantto": 3210,
    "\u2581charpre": 3211,
    "d6c": 3212,
    "\u25810x6b": 3213,
    "\u2581nsiserror": 3214,
    "ervicec": 3215,
    "\u25810xfeee0065": 3216,
    "278": 3217,
    "93e": 3218,
    "\u25810x9b": 3219,
    "\u25810x120fd": 3220,
    "1c4": 3221,
    "\u25812d": 3222,
    "quit": 3223,
    "\u25810xcf0000": 3224,
    "\u2581filenotfound": 3225,
    "d44": 3226,
    "\u2581removedirectory": 3227,
    "\u25810x62": 3228,
    "\u2581move": 3229,
    "\u25810x534": 3230,
    "\u25810xfeee0066": 3231,
    "502": 3232,
    "\u25810x563868": 3233,
    "a38": 3234,
    "\u25810x7e4": 3235,
    "\u25810xfeee0067": 3236,
    "664": 3237,
    "\u25810x41de": 3238,
    "d8c": 3239,
    "withtag": 3240,
    "poolwithtag": 3241,
    "\u25810xfeee0053": 3242,
    "\u2581exallocate": 3243,
    "\u2581exallocatepoolwithtag": 3244,
    "ows": 3245,
    "\u2581pi": 3246,
    "\u25810x43a4": 3247,
    "\u25810x12112": 3248,
    "regi": 3249,
    "closekey": 3250,
    "\u2581regclosekey": 3251,
    "352": 3252,
    "\u25810x40b4": 3253,
    "\u2581ndr": 3254,
    "lexecut": 3255,
    "\u2581shellexecut": 3256,
    "605": 3257,
    "\u2581ndrd": 3258,
    "\u25810xfeee0060": 3259,
    "descript": 3260,
    "\u2581findwindow": 3261,
    "securitydescript": 3262,
    "\u25810x4c10": 3263,
    "\u258128": 3264,
    "\u2581getdiskfreespaceexw": 3265,
    "1c0": 3266,
    "958": 3267,
    "a70": 3268,
    "d83": 3269,
    "\u25810xfeee004a": 3270,
    "ded": 3271,
    "\u25810xfeee0061": 3272,
    "updat": 3273,
    "\u25810xffc8": 3274,
    "\u25810xfeee005e": 3275,
    "\u25810x1211e80": 3276,
    "\u2581po": 3277,
    "\u2581check": 3278,
    "\u25810x47ee": 3279,
    "\u2581releases": 3280,
    "dac": 3281,
    "f60": 3282,
    "b84": 3283,
    "function": 3284,
    "\u25810x4cf": 3285,
    "\u2581202": 3286,
    "\u25810x70000": 3287,
    "\u2581dup": 3288,
    "\u25810x7d99": 3289,
    "\u25810x7e80": 3290,
    "\u25810x169bc": 3291,
    "\u2581at": 3292,
    "speci": 3293,
    "fc2": 3294,
    "reque": 3295,
    "\u25810x42a1": 3296,
    "\u25810xfeee0063": 3297,
    "0048": 3298,
    "\u25810x4e5c": 3299,
    "130": 3300,
    "f85": 3301,
    "\u25810x4540": 3302,
    "\u25810xffc9": 3303,
    "gro": 3304,
    "\u25810x40a58c": 3305,
    "ve": 3306,
    "\u25810x40a57c": 3307,
    "text": 3308,
    "\u25819": 3309,
    "\u258118": 3310,
    "\u25810xfeee005a": 3311,
    "d20": 3312,
    "\u258130": 3313,
    "124": 3314,
    "\u25810xfeee005c": 3315,
    "43c": 3316,
    "56c": 3317,
    "\u2581cl": 3318,
    "\u25810x7da0": 3319,
    "\u25810xfeee004d": 3320,
    "\u2581setfilepointerex": 3321,
    "647": 3322,
    "\u25810xfeee005b": 3323,
    "15c": 3324,
    "928": 3325,
    "\u25810x1211f34": 3326,
    "\u25810xfeee004b": 3327,
    "\u25810xfeee004c": 3328,
    "\u25810xfeee0068": 3329,
    "\u2581enumsystemlocales": 3330,
    "54c": 3331,
    "945": 3332,
    "eb4": 3333,
    "\u25810x566": 3334,
    "\u2581duplic": 3335,
    "\u2581messageboxa": 3336,
    "ist": 3337,
    "\u25810x7d98": 3338,
    "\u2581strcmp": 3339,
    "cp": 3340,
    "fa8": 3341,
    "ton": 3342,
    "\u258114": 3343,
    "\u25810x1211b08": 3344,
    "e0c": 3345,
    "\u25810x1210cf0": 3346,
    "\u2581getenvironmentvariablea": 3347,
    "600": 3348,
    "9c4": 3349,
    "d5c": 3350,
    "\u25810x2e7": 3351,
    "\u25810xeb": 3352,
    "\u25810xfeee0055": 3353,
    "f40": 3354,
    "fore": 3355,
    "\u25810xfeee0050": 3356,
    "\u25810x1b2": 3357,
    "\u25810x7e00": 3358,
    "\u25810x7e74": 3359,
    "\u25810x7e75": 3360,
    "\u25810xfeee004e": 3361,
    "\u25810xfeee0069": 3362,
    "\u25810x4e5e": 3363,
    "\u25810xfeee0054": 3364,
    "\u2581lstrc": 3365,
    "\u2581getprivateprofile": 3366,
    "ready": 3367,
    "e84": 3368,
    "f58": 3369,
    "tinue": 3370,
    "bd0": 3371,
    "ethe": 3372,
    "ervicectrl": 3373,
    "\u25810xfeee004f": 3374,
    "998": 3375,
    "\u25810xd8": 3376,
    "b98": 3377,
    "\u2581can": 3378,
    "ecc": 3379,
    "\u25810x64000": 3380,
    "\u25810x1211438": 3381,
    "\u25810xfeee0051": 3382,
    "owned": 3383,
    "\u25810xfeee0052": 3384,
    "78c": 3385,
    "d68": 3386,
    "\u25810x7e78": 3387,
    "\u25810x4c0": 3388,
    "\u25810x10e9": 3389,
    "\u25810x7e79": 3390,
    "\u2581youm": 3391,
    "\u25810x7d9c": 3392,
    "\u25810x7d9d": 3393,
    "\u25810x7e81": 3394,
    "\u25810x1211808": 3395,
    "\u25810x12117f4": 3396,
    "\u25810x68000": 3397,
    "\u25810xfeee0056": 3398,
    "\u25810xfeee0057": 3399,
    "\u25810xfeee0058": 3400,
    "b4c": 3401,
    "sto": 3402,
    "\u25810x45fc": 3403,
    "\u25810x4607": 3404,
    "\u2581getuserdefaultlocalename": 3405,
    "b10": 3406,
    "etype": 3407,
    "103": 3408,
    "\u25810x41aa": 3409,
    "\u2581runtime": 3410,
    "\u2581setcurrentdirectorya": 3411,
    "118": 3412,
    "f28": 3413,
    "\u25810x7e7c": 3414,
    "\u25810x7e7d": 3415,
    "\u25810x107538": 3416,
    "\u25810xfeee0059": 3417,
    "\u25810xfeee006a": 3418,
    "ac4": 3419,
    "cel": 3420,
    "\u25810x12110": 3421,
    "\u25810x1211738": 3422,
    "102": 3423,
    "trac": 3424,
    "\u25810x42c0": 3425,
    "toc": 3426,
    "install": 3427,
    "\u2581monitor": 3428,
    "\u2581msvcr90": 3429,
    "6e0": 3430,
    "\u25810xfff2": 3431,
    "\u2581setfileattributesa": 3432,
    "\u2581getdateformatex": 3433,
    "\u2581gettimeformatex": 3434,
    "\u2581isvalidlocalename": 3435,
    "eb8": 3436,
    "\u25810x7da1": 3437,
    "\u25810xfeee008b": 3438,
    "\u2581enumsystemlocalesex": 3439,
    "areex": 3440,
    "dcompareex": 3441,
    "dcompareexchange": 3442,
    "\u2581interlockedcompareexchange": 3443,
    "\u2581back": 3444,
    "\u25810xfeee005d": 3445,
    "\u25810x7f8003": 3446,
    "\u25810x7f8004": 3447,
    "\u25810x7f8005": 3448,
    "\u25810x7f8006": 3449,
    "\u25810x7f8007": 3450,
    "\u25810x7f8008": 3451,
    "\u25810x7f8009": 3452,
    "\u25810x7f800a": 3453,
    "\u25810x7f800b": 3454,
    "\u25810x7f800c": 3455,
    "\u25810x7f800d": 3456,
    "\u2581security": 3457,
    "\u25810x140": 3458,
    "520": 3459,
    "db0": 3460,
    "netw": 3461,
    "\u25810xc0": 3462,
    "\u25810x401000": 3463,
    "dfc": 3464,
    "f0c": 3465,
    "7000": 3466,
    "\u25810x7f800e": 3467,
    "\u25810xfeee015": 3468,
    "\u2581y": 3469,
    "lat": 3470,
    "led": 3471,
    "\u25810x7f800f": 3472,
    "60c": 3473,
    "\u25810x502dc": 3474,
    "\u2581findnextfilea": 3475,
    "9b4": 3476,
    "a63": 3477,
    "network": 3478,
    "\u2581setwindow": 3479,
    "\u25810xfeee0064": 3480,
    "notin": 3481,
    "178": 3482,
    "9d8": 3483,
    "6c4": 3484,
    "\u25810xffc7": 3485,
    "\u2581getdriv": 3486,
    "\u25810x2200220": 3487,
    "item": 3488,
    "\u25810x6e": 3489,
    "\u25810x414": 3490,
    "locknot": 3491,
    "\u25810xfeee013": 3492,
    "\u25810xf8": 3493,
    "\u25810x43f": 3494,
    "notinitializ": 3495,
    "\u2581getdrivetype": 3496,
    "ware": 3497,
    "\u25810x6d": 3498,
    "ectlocknot": 3499,
    "supfunction": 3500,
    "notinitialized": 3501,
    "ectlocknotowned": 3502,
    "\u2581monitorsupfunction": 3503,
    "\u2581monitorsupfunctionnotinitialized": 3504,
    "\u2581your": 3505,
    "\u25810x1211584": 3506,
    "\u25810x9a": 3507,
    "6500000": 3508,
    "\u2581opena": 3509,
    "\u25810x1211ccc": 3510,
    "\u25810xab": 3511,
    "\u25810x44b7": 3512,
    "\u2581copyfilea": 3513,
    "filewas": 3514,
    "7e7": 3515,
    "\u2581runonce": 3516,
    "40b": 3517,
    "433": 3518,
    "6e8": 3519,
    "bitmap": 3520,
    "specified": 3521,
    "228": 3522,
    "\u25810xfeee006c": 3523,
    "\u2581thespecified": 3524,
    "filewasnotfound": 3525,
    "\u2581thespecifiedfilewasnotfound": 3526,
    "d70": 3527,
    "enum": 3528,
    "\u2581print": 3529,
    "drivestring": 3530,
    "\u2581getlogicaldrivestring": 3531,
    "2c4": 3532,
    "onc": 3533,
    "\u2581are": 3534,
    "\u25810x45fb": 3535,
    "\u25810x107598": 3536,
    "\u25810x1211888": 3537,
    "\u2581duplicate": 3538,
    "af4": 3539,
    "\u25810x1211b74": 3540,
    "f38": 3541,
    "ed4": 3542,
    "\u25810x200020": 3543,
    "a49": 3544,
    "\u2581getsystemtimes": 3545,
    "90c": 3546,
    "950": 3547,
    "b2c": 3548,
    "\u25810x4d5": 3549,
    "\u25810xfeee011": 3550,
    "720": 3551,
    "\u25810x188d3c": 3552,
    "manag": 3553,
    "\u25810x181": 3554,
    "\u25810x7f4": 3555,
    "\u2581createsemaphore": 3556,
    "d0c": 3557,
    "\u258119": 3558,
    "formata": 3559,
    "\u25810x107658": 3560,
    "a5c": 3561,
    "bd4": 3562,
    "\u25810x107688": 3563,
    "\u25810x1211b50": 3564,
    "\u2581instal": 3565,
    "\u2581duplicatehandle": 3566,
    "\u25810x6970": 3567,
    "\u25810x1075c8": 3568,
    "\u25810x1075f8": 3569,
    "\u25810x107628": 3570,
    "\u25810x188e00": 3571,
    "\u25810xfeee018": 3572,
    "903": 3573,
    "a0000": 3574,
    "valueexa": 3575,
    "\u25812022030": 3576,
    "5e8": 3577,
    "\u25810x7da4": 3578,
    "e03": 3579,
    "\u25810x6a6": 3580,
    "\u25810x4828": 3581,
    "\u2581sa": 3582,
    "\u25810xfeee006b": 3583,
    "\u25810x1808": 3584,
    "\u25810xff86": 3585,
    "728": 3586,
    "\u25810x4919": 3587,
    "handler": 3588,
    "\u25810x1211790": 3589,
    "218": 3590,
    "7d0": 3591,
    "\u25810x188e24": 3592,
    "\u25810x8814": 3593,
    "\u25810x1210e30": 3594,
    "a69": 3595,
    "\u25810x1211b54": 3596,
    "\u25810x1211f6c": 3597,
    "\u25810xaf": 3598,
    "\u25810x7a10": 3599,
    "\u2581lstrcata": 3600,
    "\u25810x1211cdc": 3601,
    "application": 3602,
    "\u2581initcommoncontrolsex": 3603,
    "70000": 3604,
    "\u25810x7e84": 3605,
    "50c": 3606,
    "draw": 3607,
    "\u25810xad": 3608,
    "\u25810x7af0": 3609,
    "\u25810xffdf": 3610,
    "61c": 3611,
    "7b8": 3612,
    "a0c": 3613,
    "ning": 3614,
    "\u25810x40a7": 3615,
    "\u25810x1211dbc": 3616,
    "970": 3617,
    "ae8": 3618,
    "fec": 3619,
    "b0000": 3620,
    "\u2581wnet": 3621,
    "\u25810xfeee006e": 3622,
    "\u25810x144": 3623,
    "\u25810x56c": 3624,
    "\u25810x7db0": 3625,
    "200": 3626,
    "\u25810x561": 3627,
    "ispatch": 3628,
    "\u25810xff69": 3629,
    "\u2581memset": 3630,
    "\u25810x47a00": 3631,
    "\u25810xfeee0074": 3632,
    "ab5": 3633,
    "\u25810x599": 3634,
    "\u25810xfeee006d": 3635,
    "d30": 3636,
    "\u25810x40f6a8": 3637,
    "920": 3638,
    "fd0": 3639,
    "\u25810x40e5": 3640,
    "\u2581form": 3641,
    "\u25810x78f0": 3642,
    "\u25810x7b00": 3643,
    "\u25810x188e4c": 3644,
    "\u25810xfeee0073": 3645,
    "ty": 3646,
    "\u2581ini": 3647,
    "\u25810x4196": 3648,
    "\u25810x940000": 3649,
    "\u25810x10e9bc": 3650,
    "fad": 3651,
    "9c24": 3652,
    "\u25810x461518": 3653,
    "378": 3654,
    "9f0": 3655,
    "\u25810x96": 3656,
    "windowproc": 3657,
    "\u258134": 3658,
    "7f0": 3659,
    "e04": 3660,
    "\u25810x7da5": 3661,
    "nexplorer": 3662,
    "\u25810x1211f50": 3663,
    "\u2581beginpaint": 3664,
    "\u2581releasesrwlockexclusive": 3665,
    "700": 3666,
    "ail": 3667,
    "e48": 3668,
    "565": 3669,
    "printer": 3670,
    "\u25810x4605": 3671,
    "\u25810x8554": 3672,
    "\u2581setenvironmentvariablea": 3673,
    "ad4": 3674,
    "\u25810x4af4": 3675,
    "\u25810xfeee0071": 3676,
    "a10": 3677,
    "b68": 3678,
    "\u25810x4604": 3679,
    "d84": 3680,
    "\u2581createmut": 3681,
    "\u2581registerclassa": 3682,
    "nam": 3683,
    "pri": 3684,
    "\u2581setupapi": 3685,
    "\u25810x1211f4c": 3686,
    "330": 3687,
    "\u25810x1860": 3688,
    "\u25810x4df00": 3689,
    "e28": 3690,
    "ssp": 3691,
    "\u25810x3010": 3692,
    "\u25810x46c0": 3693,
    "ority": 3694,
    "priority": 3695,
    "f18": 3696,
    "roll": 3697,
    "\u2581try": 3698,
    "youre": 3699,
    "\u2581reset": 3700,
    "\u25810x75500000": 3701,
    "\u25810x7eaba8": 3702,
    "\u25810x3f4000": 3703,
    "\u25810xfeee0070": 3704,
    "66e": 3705,
    "long": 3706,
    "\u25810x437a": 3707,
    "\u25810x599b5c": 3708,
    "\u25810x599c24": 3709,
    "\u25810x59bf3c": 3710,
    "\u25810x59bf7c": 3711,
    "\u25810x59c120": 3712,
    "\u25810x59c138": 3713,
    "\u2581endpaint": 3714,
    "ce9": 3715,
    "7bc": 3716,
    "\u25810xbe": 3717,
    "\u25810x567678": 3718,
    "9cc": 3719,
    "db5": 3720,
    "\u2581def": 3721,
    "\u25810x402": 3722,
    "\u25810x1210ec0": 3723,
    "\u25810x1211fbc": 3724,
    "ays": 3725,
    "f7c": 3726,
    "unch": 3727,
    "ways": 3728,
    "\u25810x71000000": 3729,
    "launch": 3730,
    "e10": 3731,
    "6000": 3732,
    "\u25810x42a0": 3733,
    "\u25810x435002": 3734,
    "\u25810x435004": 3735,
    "\u25810x435006": 3736,
    "\u25810x435008": 3737,
    "\u25810x43500a": 3738,
    "\u25810x43500c": 3739,
    "\u25810x43500e": 3740,
    "\u25810x435010": 3741,
    "\u25810x435018": 3742,
    "\u25810xfeee0087": 3743,
    "d0000": 3744,
    "\u25810x435014": 3745,
    "\u25810x4608": 3746,
    "\u25810x435016": 3747,
    "\u25810x1211f0c": 3748,
    "620": 3749,
    "1e4": 3750,
    "ame32": 3751,
    "\u2581prop": 3752,
    "\u25810x44c2": 3753,
    "\u2581mame32": 3754,
    "\u25810x74000": 3755,
    "\u2581freeware": 3756,
    "644": 3757,
    "sys": 3758,
    "\u25810x5e": 3759,
    "\u2581oleacc": 3760,
    "\u2581apphelp": 3761,
    "d98": 3762,
    "\u2581sys": 3763,
    "\u25810xb3": 3764,
    "\u25810x42c": 3765,
    "\u25810xfeee006f": 3766,
    "\u25810xfeee0088": 3767,
    "ceb": 3768,
    "bcat": 3769,
    "\u25810x48f8": 3770,
    "\u25810x7e85": 3771,
    "\u2581propsys": 3772,
    "\u2581process32next": 3773,
    "f78": 3774,
    "e4b8": 3775,
    "bcatq": 3776,
    "\u25810x40d8": 3777,
    "servicew": 3778,
    "\u2581clbcatq": 3779,
    "d2c": 3780,
    "d38": 3781,
    "9260": 3782,
    "\u25810x3bc": 3783,
    "6fc": 3784,
    "\u25810x42d498": 3785,
    "cid": 3786,
    "df8": 3787,
    "663": 3788,
    "\u25810xfeee0077": 3789,
    "his": 3790,
    "\u25810x435012": 3791,
    "7e0": 3792,
    "ce3": 3793,
    "e69": 3794,
    "\u25810x7fc": 3795,
    "ects": 3796,
    "90000": 3797,
    "conne": 3798,
    "\u25810x7da8": 3799,
    "\u25810xfeee0079": 3800,
    "ecomp": 3801,
    "unlock": 3802,
    "oem": 3803,
    "section": 3804,
    "\u2581getenvironmentvariablew": 3805,
    "123": 3806,
    "3cc": 3807,
    "7ec": 3808,
    "\u25810xfeee0075": 3809,
    "\u25810xfeee0078": 3810,
    "a19": 3811,
    "\u25810xfeee007b": 3812,
    "60000": 3813,
    "\u25810xfeee0076": 3814,
    "\u25810xfeee007a": 3815,
    "932": 3816,
    "9c3": 3817,
    "a64": 3818,
    "\u25810xffde": 3819,
    "38c": 3820,
    "\u2581new": 3821,
    "\u25810xbc": 3822,
    "\u25810x4076": 3823,
    "\u2581regset": 3824,
    "\u25810x77002": 3825,
    "b70": 3826,
    "14c": 3827,
    "program": 3828,
    "\u25810x10a": 3829,
    "onexit": 3830,
    "\u25810x47e0": 3831,
    "\u2581format": 3832,
    "f46": 3833,
    "profil": 3834,
    "\u25810x4602": 3835,
    "\u25810x40969": 3836,
    "718": 3837,
    "7e8": 3838,
    "5b0": 3839,
    "dc1": 3840,
    "528": 3841,
    "97f": 3842,
    "\u25810x1211ec8": 3843,
    "\u25810x4c30": 3844,
    "\u25810x11000": 3845,
    "\u25810xfeee007f": 3846,
    "\u25810x41a9": 3847,
    "\u25810xffe8": 3848,
    "\u25810xfeee007c": 3849,
    "lg": 3850,
    "\u25810x7c70": 3851,
    "\u25810x509e4": 3852,
    "\u25810x12118f8": 3853,
    "\u2581mapviewoffile": 3854,
    "\u25810x43f6": 3855,
    "\u25810x1211e1c": 3856,
    "2cc": 3857,
    "ialog": 3858,
    "\u25810x180": 3859,
    "\u2581removedirectorya": 3860,
    "\u25810x4041": 3861,
    "6cc": 3862,
    "a02": 3863,
    "7170": 3864,
    "\u25810x40b7": 3865,
    "\u25810x85d0": 3866,
    "\u25810x4bb0": 3867,
    "\u25810x43501a": 3868,
    "\u25810x3f75e88": 3869,
    "606": 3870,
    "a31": 3871,
    "\u25810x4030": 3872,
    "\u25810x7da9": 3873,
    "eservice": 3874,
    "\u2581setthreadlocale": 3875,
    "onceex": 3876,
    "ecuteonce": 3877,
    "\u2581initonceex": 3878,
    "\u2581initonceexecuteonce": 3879,
    "6d8": 3880,
    "e74": 3881,
    "\u2581dialog": 3882,
    "324": 3883,
    "7de": 3884,
    "\u25810x2100": 3885,
    "\u25810x1211fb8": 3886,
    "stack": 3887,
    "\u25810x8cf0": 3888,
    "\u2581getlogicalprocessor": 3889,
    "730": 3890,
    "778": 3891,
    "\u25810x100f": 3892,
    "a78": 3893,
    "\u25810xfeee007d": 3894,
    "d58": 3895,
    "d78": 3896,
    "\u25810x181b48": 3897,
    "\u25810xfeee0081": 3898,
    "bl": 3899,
    "974": 3900,
    "fc0": 3901,
    "prec": 3902,
    "\u25810xfeee019": 3903,
    "b58": 3904,
    "\u25810xfeee007e": 3905,
    "\u25810xfeee0080": 3906,
    "\u25810xfeee0082": 3907,
    "\u2581getlogicalprocessorinformation": 3908,
    "\u25810x41a": 3909,
    "5a7": 3910,
    "guar": 3911,
    "antee": 3912,
    "blead": 3913,
    "\u2581ismb": 3914,
    "guarantee": 3915,
    "\u2581ismbblead": 3916,
    "\u25810xfeee0083": 3917,
    "stackguarantee": 3918,
    "\u2581setthreadstackguarantee": 3919,
    "\u25810xfeee008e": 3920,
    "d90": 3921,
    "\u2581trans": 3922,
    "\u2581updat": 3923,
    "\u2581globalunlock": 3924,
    "bd7": 3925,
    "\u258108": 3926,
    "7038": 3927,
    "\u25810x411b": 3928,
    "\u25810xfeee0086": 3929,
    "\u25810x43501c": 3930,
    "\u25810x43501e": 3931,
    "\u25810x435020": 3932,
    "\u25810x435022": 3933,
    "\u25810x435028": 3934,
    "\u25810x43502a": 3935,
    "\u25810x43502c": 3936,
    "\u25810x43502e": 3937,
    "\u25810x435030": 3938,
    "fe0": 3939,
    "stringw": 3940,
    "\u2581clos": 3941,
    "\u25810x7db4": 3942,
    "\u25810x7db5": 3943,
    "\u25810xfeee008c": 3944,
    "\u2581registerwindowmessagew": 3945,
    "b78": 3946,
    "\u25810xfeee0084": 3947,
    "\u25810x4c42d8": 3948,
    "\u25810x4c42f0": 3949,
    "ad2": 3950,
    "\u2581ac": 3951,
    "20000": 3952,
    "\u25810x3f3000": 3953,
    "b18": 3954,
    "b50": 3955,
    "\u25810x181b98": 3956,
    "\u25810xfeee0085": 3957,
    "ht": 3958,
    "bk": 3959,
    "d24": 3960,
    "\u25810x450": 3961,
    "\u25810xfeee0089": 3962,
    "\u25810xfeee008a": 3963,
    "744": 3964,
    "9e4": 3965,
    "\u25810x44c250": 3966,
    "9c7": 3967,
    "1e8": 3968,
    "\u25810x417": 3969,
    "\u25810x7f5": 3970,
    "615": 3971,
    "atoma": 3972,
    "\u25810x44f": 3973,
    "\u2581defwindowproc": 3974,
    "\u2581getfileinformationbyhandleex": 3975,
    "\u2581di": 3976,
    "\u25810x79a0": 3977,
    "1b0": 3978,
    "b30": 3979,
    "applet": 3980,
    "\u25810x8815": 3981,
    "\u25810x40a5b0": 3982,
    "\u25810x40a5b8": 3983,
    "eec": 3984,
    "\u25810x1211f38": 3985,
    "\u25810x508d0": 3986,
    "\u2581doyouwantto": 3987,
    "ise": 3988,
    "\u25810x4b7": 3989,
    "\u25810x509a8": 3990,
    "\u25810x40a5b4": 3991,
    "\u25810xfeee008d": 3992,
    "20302": 3993,
    "\u25810x7dc8": 3994,
    "\u25810x40a5ae": 3995,
    "\u25810x40a5b2": 3996,
    "\u25810x40a5b6": 3997,
    "\u25810x40a5ba": 3998,
    "220": 3999,
    "image": 4000,
    "running": 4001,
    "allyour": 4002,
    "\u25810x40e9": 4003,
    "\u25810x7c90": 4004,
    "\u2581openanexplorer": 4005,
    "f90": 4006,
    "ocket": 4007,
    "723": 4008,
    "\u2581aa": 4009,
    "precise": 4010,
    "\u25810x3020302": 4011,
    "preciseasfiletime": 4012,
    "\u2581registerclipboard": 4013,
    "\u2581getsystemtimepreciseasfiletime": 4014,
    "c8c": 4015,
    "sid": 4016,
    "hook": 4017,
    "\u2581zip": 4018,
    "frominternet": 4019,
    "\u2581tryacquiresrwlockexclusive": 4020,
    "arta": 4021,
    "936": 4022,
    "zone": 4023,
    "\u25810x4012": 4024,
    "758": 4025,
    "a7c": 4026,
    "\u2581extrac": 4027,
    "zoneinformation": 4028,
    "ebc": 4029,
    "gine": 4030,
    "\u25810x4b40": 4031,
    "\u25810x5199": 4032,
    "\u25810x2357b": 4033,
    "\u2581gettimezoneinformation": 4034,
    "f02": 4035,
    "ongle": 4036,
    "\u25810x76500000": 4037,
    "\u25810xfeee008f": 4038,
    "\u25810xfeee0090": 4039,
    "b7b": 4040,
    "0070": 4041,
    "\u25810x438": 4042,
    "\u2581append": 4043,
    "\u25810x1210e34": 4044,
    "a54": 4045,
    "bb4": 4046,
    "\u25810x40e7": 4047,
    "\u25810xffd8": 4048,
    "\u25810xffe9": 4049,
    "\u2581regdelete": 4050,
    "\u258135": 4051,
    "em32": 4052,
    "\u25810x2b4": 4053,
    "\u2581verset": 4054,
    "conditionmask": 4055,
    "\u2581versetconditionmask": 4056,
    "11c": 4057,
    "\u25810x110": 4058,
    "\u25810x4233": 4059,
    "7ac": 4060,
    "b90": 4061,
    "\u25810x173": 4062,
    "\u25810x181c60": 4063,
    "\u25810x181c88": 4064,
    "e90": 4065,
    "ed0": 4066,
    "valuea": 4067,
    "\u25810x210": 4068,
    "\u25810x4220": 4069,
    "gn": 4070,
    "\u2581getoem": 4071,
    "\u2581getdrivetypea": 4072,
    "360": 4073,
    "582": 4074,
    "\u25810x4aa0": 4075,
    "\u2581mso": 4076,
    "\u2581createsemaphorew": 4077,
    "7dc": 4078,
    "db8": 4079,
    "log": 4080,
    "srw": 4081,
    "start": 4082,
    "\u2581getoemcp": 4083,
    "conditionvariablesrw": 4084,
    "\u2581sleepconditionvariablesrw": 4085,
    "a67": 4086,
    "3a8": 4087,
    "64c": 4088,
    "has": 4089,
    "\u25810x87": 4090,
    "\u25810xd2": 4091,
    "update": 4092,
    "\u25810x8430": 4093,
    "\u25810x1211c94": 4094,
    "1a0": 4095,
    "738": 4096,
    "tili": 4097,
    "784": 4098,
    "\u2581ws2": 4099,
    "\u25810x42a4": 4100,
    "\u25810x1211cb8": 4101,
    "\u25810x1211e4c": 4102,
    "6f1": 4103,
    "e6c": 4104,
    "our": 4105,
    "\u25810xb7": 4106,
    "\u2581getsystemdefault": 4107,
    "918": 4108,
    "\u2581wi": 4109,
    "7675": 4110,
    "dc2": 4111,
    "fd4": 4112,
    "fd8": 4113,
    "\u2581regcreate": 4114,
    "atible": 4115,
    "\u25810xcccc": 4116,
    "\u25810x7bc": 4117,
    "\u25810x1211eac": 4118,
    "\u2581getcurrentdirectoryw": 4119,
    "\u2581me": 4120,
    "934": 4121,
    "a45": 4122,
    "ab0": 4123,
    "blt": 4124,
    "\u25810x4356": 4125,
    "sk": 4126,
    "684": 4127,
    "6b2": 4128,
    "d82": 4129,
    "\u2581wm": 4130,
    "\u25810x53e4": 4131,
    "\u25810x7dac": 4132,
    "\u25810x7dad": 4133,
    "\u25810xfeee0094": 4134,
    "\u2581getenvironmentstring": 4135,
    "370": 4136,
    "ext": 4137,
    "\u2581vi": 4138,
    "\u25810x420fe8": 4139,
    "9a8": 4140,
    "\u25810xfff3": 4141,
    "\u25810x3f75f7c": 4142,
    "658": 4143,
    "bed": 4144,
    "\u2581strlen": 4145,
    "\u25810x41a9f0": 4146,
    "d05": 4147,
    "ncy": 4148,
    "\u25810x455480": 4149,
    "icen": 4150,
    "\u2581strcpy": 4151,
    "\u25810x43b7c": 4152,
    "\u2581charlow": 4153,
    "7d8": 4154,
    "ef4": 4155,
    "30000": 4156,
    "session": 4157,
    "\u25810x41e2": 4158,
    "\u25810x4760": 4159,
    "ld": 4160,
    "d60": 4161,
    "\u2581regcreatekey": 4162,
    "15f": 4163,
    "afc": 4164,
    "d1b": 4165,
    "96c": 4166,
    "4bb8": 4167,
    "cefreque": 4168,
    "\u25810x455468": 4169,
    "cefrequency": 4170,
    "\u2581queryperformancefrequency": 4171,
    "1ac": 4172,
    "a8c": 4173,
    "e09": 4174,
    "50c0": 4175,
    "\u2581mso97": 4176,
    "\u25810x8420": 4177,
    "\u2581getenvironmentstrings": 4178,
    "f30": 4179,
    "texta": 4180,
    "\u2581getfileattributesa": 4181,
    "\u25810x41c": 4182,
    "\u25810x1210d90": 4183,
    "\u2581getwindowsdirectoryw": 4184,
    "9d0": 4185,
    "eb0": 4186,
    "\u2581mo": 4187,
    "\u2581failedto": 4188,
    "\u25810x3f75f84": 4189,
    "\u25810x3f75f8c": 4190,
    "dc3": 4191,
    "\u2581op": 4192,
    "e94": 4193,
    "\u25810xb4": 4194,
    "\u25810x500": 4195,
    "au": 4196,
    "1d0": 4197,
    "\u25810x6c000": 4198,
    "\u2581shgetfileinfow": 4199,
    "625": 4200,
    "this": 4201,
    "\u25810x4195": 4202,
    "\u25810x8c60": 4203,
    "\u25810x120ee": 4204,
    "\u2581getcursor": 4205,
    "\u2581filetimeto": 4206,
    "\u2581initializesrwlock": 4207,
    "\u2581gol": 4208,
    "736": 4209,
    "77c": 4210,
    "\u25810x4020": 4211,
    "\u25810x40a92e": 4212,
    "\u25810x40a930": 4213,
    "\u25810x40a932": 4214,
    "\u25810x40a934": 4215,
    "\u25810x40a936": 4216,
    "\u25810x40a938": 4217,
    "\u25810x40a93a": 4218,
    "ass2": 4219,
    "\u2581meip": 4220,
    "\u25810x7f9": 4221,
    "\u25810x7f80": 4222,
    "\u2581launch": 4223,
    "valueexw": 4224,
    "\u25810x42a00": 4225,
    "installed": 4226,
    "\u2581meipass2": 4227,
    "404": 4228,
    "edp": 4229,
    "\u2581golf": 4230,
    "\u25810x1211a44": 4231,
    "ecompatible": 4232,
    "\u2581getcomputer": 4233,
    "\u2581createcompatible": 4234,
    "122": 4235,
    "\u25810x41d": 4236,
    "\u25810x4175": 4237,
    "\u25810x7e88": 4238,
    "\u2581createmutexa": 4239,
    "\u2581registerwindowmessagea": 4240,
    "ba0": 4241,
    "\u25810x28c": 4242,
    "\u2581always": 4243,
    "\u2581setend": 4244,
    "\u25810x410acd": 4245,
    "\u25810x410ace": 4246,
    "\u25810x41e208": 4247,
    "\u2581setendoffile": 4248,
    "962": 4249,
    "specw": 4250,
    "a32": 4251,
    "inmodule": 4252,
    "\u2581appendw": 4253,
    "\u2581removefile": 4254,
    "310": 4255,
    "\u25810x563": 4256,
    "\u25810x40a2": 4257,
    "\u25810xffdc": 4258,
    "da8": 4259,
    "f04": 4260,
    "\u25810x491": 4261,
    "\u25810x423c": 4262,
    "\u25810x452868": 4263,
    "\u2581logme": 4264,
    "\u2581getmodulehandl": 4265,
    "\u2581removefilespecw": 4266,
    "aa4": 4267,
    "\u25810x429260": 4268,
    "\u2581createwindowexw": 4269,
    "bbc": 4270,
    "d34": 4271,
    "\u258110": 4272,
    "formatw": 4273,
    "\u25810x42b4": 4274,
    "\u25810x42eb": 4275,
    "\u25810x4bcc": 4276,
    "\u2581please": 4277,
    "\u25810x4229c1": 4278,
    "a28": 4279,
    "d10": 4280,
    "d35": 4281,
    "201": 4282,
    "364": 4283,
    "dd0": 4284,
    "\u25810xbf": 4285,
    "\u25810x7f1": 4286,
    "0x": 4287,
    "754": 4288,
    "f51": 4289,
    "\u25810x7500": 4290,
    "\u2581appdata": 4291,
    "\u2581error0x": 4292,
    "ofiletime": 4293,
    "\u25810x1211788": 4294,
    "beb": 4295,
    "145": 4296,
    "d72": 4297,
    "\u25810x7db1": 4298,
    "erif": 4299,
    "\u2581post": 4300,
    "\u25810x7230": 4301,
    "bf0": 4302,
    "\u25810x2840": 4303,
    "\u25810x4095": 4304,
    "5ec": 4305,
    "741": 4306,
    "\u25810x1210bd7": 4307,
    "\u25810x2840284": 4308,
    "pc": 4309,
    "2c2": 4310,
    "fa4": 4311,
    "scue": 4312,
    "\u2581getlogicaldrivestringsa": 4313,
    "\u2581tlsfree": 4314,
    "b54": 4315,
    "rescue": 4316,
    "\u25810x3820": 4317,
    "\u2581regenum": 4318,
    "\u25810x3f5000": 4319,
    "578": 4320,
    "964": 4321,
    "b20": 4322,
    "da2": 4323,
    "d85": 4324,
    "\u25810xffea": 4325,
    "inrescue": 4326,
    "\u2581logmeinrescue": 4327,
    "\u25810x4238": 4328,
    "\u25810x44e9": 4329,
    "\u25810x4548": 4330,
    "\u2581charprevw": 4331,
    "\u25810x415": 4332,
    "\u2581logmeinrescueapplet": 4333,
    "\u25810x40a540": 4334,
    "\u25810x12119f0": 4335,
    "\u25810x7bc00000": 4336,
    "\u25810xfffffffe": 4337,
    "9920": 4338,
    "\u25810x44f850": 4339,
    "\u25810x5617a8": 4340,
    "f03": 4341,
    "f48": 4342,
    "\u25810x51b": 4343,
    "sum": 4344,
    "\u2581add": 4345,
    "\u25810x430fec": 4346,
    "\u25810x44f8c8": 4347,
    "\u25810x1211edc": 4348,
    "\u2581isvalidlocale": 4349,
    "e7c": 4350,
    "\u25810x7070": 4351,
    "\u2581getfull": 4352,
    "\u25810x44f868": 4353,
    "\u25810x44f880": 4354,
    "\u25810x44f898": 4355,
    "\u25810x44f8b0": 4356,
    "95c": 4357,
    "ups": 4358,
    "\u25810x40a544": 4359,
    "\u25810x430db0": 4360,
    "\u25810x44f8f8": 4361,
    "\u25810x44f940": 4362,
    "\u25810x44f958": 4363,
    "\u25810x44f970": 4364,
    "\u25810x44f988": 4365,
    "\u25810xfeee0091": 4366,
    "aa0": 4367,
    "\u2581af": 4368,
    "\u25810x478": 4369,
    "\u25810x1733c4": 4370,
    "\u25810x40a53a": 4371,
    "\u25810x40a53c": 4372,
    "\u25810x40a53e": 4373,
    "\u25810x40a542": 4374,
    "\u25810x42168c": 4375,
    "able": 4376,
    "\u25810x40a546": 4377,
    "\u25810x41e93e": 4378,
    "\u25810x41ebfa": 4379,
    "\u25810x41ebfb": 4380,
    "\u25810x42168b": 4381,
    "\u25810x12116c0": 4382,
    "944": 4383,
    "190": 4384,
    "1b8": 4385,
    "fig": 4386,
    "\u2581rec": 4387,
    "\u25810x44c": 4388,
    "\u25810xfeedf0": 4389,
    "df5": 4390,
    "tou": 4391,
    "\u2581ts": 4392,
    "\u25810x47b1": 4393,
    "\u258133": 4394,
    "\u25810xfeee0092": 4395,
    "\u25810xfeee0093": 4396,
    "71f": 4397,
    "\u25810x2280": 4398,
    "\u25810x7ee000": 4399,
    "\u25810xfeee016": 4400,
    "\u2581wakeconditionvariable": 4401,
    "e2b": 4402,
    "f77": 4403,
    "10000": 4404,
    "\u25810x84b0": 4405,
    "\u25810x7f8002": 4406,
    "bc1": 4407,
    "vie": 4408,
    "\u25810x1b5": 4409,
    "\u2581getexit": 4410,
    "\u25810x4093e4": 4411,
    "\u25810x44e4b8": 4412,
    "\u25810xfeee0097": 4413,
    "148": 4414,
    "6160": 4415,
    "e0000": 4416,
    "\u25810x1211e64": 4417,
    "\u2581sub": 4418,
    "\u25810x6f00": 4419,
    "\u2581cannot": 4420,
    "\u25810x77000": 4421,
    "\u25810x7f8010": 4422,
    "\u2581internet": 4423,
    "238": 4424,
    "27c": 4425,
    "91c": 4426,
    "53a0": 4427,
    "6c00": 4428,
    "\u25810x468": 4429,
    "\u25810x4650": 4430,
    "\u2581getmodulehandleexw": 4431,
    "2f8": 4432,
    "\u25810x6900": 4433,
    "\u2581flushfile": 4434,
    "\u2581flushfilebuffers": 4435,
    "a30": 4436,
    "cc8": 4437,
    "f19": 4438,
    "oci": 4439,
    "\u2581om": 4440,
    "7c58": 4441,
    "econsole": 4442,
    "\u2581getsyscolorbrush": 4443,
    "7c4": 4444,
    "7e1": 4445,
    "9fc": 4446,
    "ee2": 4447,
    "7ce": 4448,
    "\u25810x422980": 4449,
    "230": 4450,
    "9c9": 4451,
    "dd4": 4452,
    "ea0": 4453,
    "6564": 4454,
    "secor": 4455,
    "\u2581subm": 4456,
    "\u25810x7fe": 4457,
    "\u25810x52668": 4458,
    "\u25810x5266c": 4459,
    "\u2581omsecor": 4460,
    "\u25810x4228e1": 4461,
    "\u25810x423cf0": 4462,
    "\u25810x3010301": 4463,
    "5ac": 4464,
    "c0c": 4465,
    "fe3": 4466,
    "\u25810x42286e": 4467,
    "\u25810x42286f": 4468,
    "\u25810x4228e2": 4469,
    "\u25810x422963": 4470,
    "\u25810x422964": 4471,
    "\u25810x42297f": 4472,
    "\u25810x4229c2": 4473,
    "\u25810x4229fa": 4474,
    "\u25810x4229fb": 4475,
    "\u25810x422a0d": 4476,
    "\u25810x422a0e": 4477,
    "\u25810x42329e": 4478,
    "\u25810x42329f": 4479,
    "\u25810x4233fc": 4480,
    "\u25810x423cef": 4481,
    "b04": 4482,
    "f3c": 4483,
    "b7a7": 4484,
    "f83": 4485,
    "\u2581ntm": 4486,
    "\u2581atexit": 4487,
    "poolwork": 4488,
    "\u2581ntmarta": 4489,
    "\u2581deleteob": 4490,
    "\u2581registers": 4491,
    "\u25810xfeee0095": 4492,
    "\u25810xfeee0098": 4493,
    "\u2581submitthread": 4494,
    "\u2581closethreadpoolwork": 4495,
    "\u2581createthreadpoolwork": 4496,
    "\u2581submitthreadpoolwork": 4497,
    "\u2581setfileinformationbyhandle": 4498,
    "db3": 4499,
    "\u25810x70a8": 4500,
    "menuitem": 4501,
    "\u2581pleasec": 4502,
    "33c": 4503,
    "ally": 4504,
    "d006c": 4505,
    "\u25810x600": 4506,
    "\u25810x8310": 4507,
    "\u2581gdiplus": 4508,
    "\u25810x429903": 4509,
    "\u25810x6d006c": 4510,
    "\u25810x6f006e": 4511,
    "\u25810x710070": 4512,
    "\u25810x770076": 4513,
    "\u25810x790078": 4514,
    "\u25810x1211ddc": 4515,
    "ff4": 4516,
    "f4e4": 4517,
    "\u2581437": 4518,
    "b006a": 4519,
    "\u25810x130": 4520,
    "\u25810x429902": 4521,
    "\u25810x42990c": 4522,
    "\u25810x42990d": 4523,
    "\u25810x429920": 4524,
    "\u25810x429921": 4525,
    "\u25810x690068": 4526,
    "\u25810x6b006a": 4527,
    "\u25810x730072": 4528,
    "\u25810x750074": 4529,
    "\u25810x7b007a": 4530,
    "\u25810x7d007c": 4531,
    "\u25810x7f007e": 4532,
    "b28": 4533,
    "\u25810x411": 4534,
    "\u25810x57c": 4535,
    "already": 4536,
    "\u25810x40a4": 4537,
    "\u25810x42992a": 4538,
    "\u25810x42992b": 4539,
    "3ad": 4540,
    "f50": 4541,
    "aveb": 4542,
    "\u2581this": 4543,
    "avebeen": 4544,
    "\u25810x40f5": 4545,
    "youreally": 4546,
    "\u25810xfeee0096": 4547,
    "\u2581stem32": 4548,
    "eregi": 4549,
    "\u25810x40f660": 4550,
    "ea20": 4551,
    "resour": 4552,
    "\u25810x1211d50": 4553,
    "ert": 4554,
    "f6e6": 4555,
    "su": 4556,
    "128": 4557,
    "268": 4558,
    "dc4": 4559,
    "\u2581ie": 4560,
    "\u25810x421": 4561,
    "\u25810x4b4": 4562,
    "\u25810x1211f5c": 4563,
    "\u25810xfeee0099": 4564,
    "fbc": 4565,
    "767574": 4566,
    "\u25810x77767574": 4567,
    "374": 4568,
    "fox": 4569,
    "privile": 4570,
    "\u25810x8aa0": 4571,
    "ower": 4572,
    "\u25810x3f8": 4573,
    "\u25810x7c40": 4574,
    "\u2581youmust": 4575,
    "\u25810x120faa8": 4576,
    "\u25810xfeee009a": 4577,
    "ae2": 4578,
    "ansi": 4579,
    "\u2581vie": 4580,
    "\u2581evie": 4581,
    "b7a7978": 4582,
    "\u25810x4b80": 4583,
    "ecadwork": 4584,
    "\u25810x7b7a7978": 4585,
    "fb0": 4586,
    "f000": 4587,
    "sand": 4588,
    "\u2581psc": 4589,
    "\u25810x7cc0": 4590,
    "\u25810x1211fa0": 4591,
    "750": 4592,
    "7a0": 4593,
    "\u25817z6": 4594,
    "\u25817z72": 4595,
    "\u25810x350": 4596,
    "147": 4597,
    "318": 4598,
    "a1c": 4599,
    "\u2581mail": 4600,
    "\u25810x1211f54": 4601,
    "160": 4602,
    "5b2": 4603,
    "a6c": 4604,
    "\u25810x41b0": 4605,
    "485": 4606,
    "9f8": 4607,
    "\u2581cli": 4608,
    "\u2581fil": 4609,
    "\u25810x4444": 4610,
    "\u25810x47d0": 4611,
    "\u25810x169bc9c": 4612,
    "69c0": 4613,
    "\u25810x42e": 4614,
    "\u25810x1211768": 4615,
    "db4": 4616,
    "pp": 4617,
    "2c0": 4618,
    "672": 4619,
    "f69": 4620,
    "727170": 4621,
    "\u25810x73727170": 4622,
    "c04": 4623,
    "apis": 4624,
    "626160": 4625,
    "destroy": 4626,
    "\u25810x180c": 4627,
    "\u25810x6766": 4628,
    "fileapis": 4629,
    "\u2581application": 4630,
    "\u2581arefileapis": 4631,
    "634": 4632,
    "6b0": 4633,
    "\u25810x572": 4634,
    "\u25810x63626160": 4635,
    "\u2581shellexecutew": 4636,
    "f20": 4637,
    "\u2581ric": 4638,
    "\u25810x6ce": 4639,
    "forcadwork": 4640,
    "\u25810x67666564": 4641,
    "f45": 4642,
    "\u25810x6b6": 4643,
    "\u25810x7c000": 4644,
    "\u2581arefileapisansi": 4645,
    "ms": 4646,
    "\u2581riche": 4647,
    "\u25810x4125": 4648,
    "\u25810x4603": 4649,
    "\u25810x5265c28": 4650,
    "\u25810xfeedf000": 4651,
    "69c": 4652,
    "bd2": 4653,
    "a6968": 4654,
    "\u25810x483c": 4655,
    "\u25810x8c70": 4656,
    "\u25810x1211180": 4657,
    "\u2581movefilew": 4658,
    "\u25810x6b6a6968": 4659,
    "9d3": 4660,
    "da0": 4661,
    "\u2581tsl": 4662,
    "\u25810x208": 4663,
    "\u25810x40935c": 4664,
    "\u25810x4093ec": 4665,
    "\u25810x4c32c0": 4666,
    "933": 4667,
    "fc1": 4668,
    "\u25810x4033": 4669,
    "\u25810x411c": 4670,
    "244": 4671,
    "acl": 4672,
    "bc4": 4673,
    "e2c": 4674,
    "68c8": 4675,
    "dc7": 4676,
    "\u25810xd3": 4677,
    "\u25810x1211e90": 4678,
    "\u2581registerclipboardformata": 4679,
    "f6e6d6c": 4680,
    "\u25810x40d9": 4681,
    "\u25810x4210": 4682,
    "\u25810x6f6e6d6c": 4683,
    "6a4": 4684,
    "a74": 4685,
    "bec": 4686,
    "d12": 4687,
    "\u25810x7e89": 4688,
    "\u25810x8ab0": 4689,
    "\u25810xfeee009b": 4690,
    "vironmentstringsa": 4691,
    "aut": 4692,
    "onsolec": 4693,
    "\u25810x7e51": 4694,
    "\u2581defwindowproca": 4695,
    "\u2581gettempfilename": 4696,
    "322": 4697,
    "par": 4698,
    "\u2581884": 4699,
    "7e7d7c": 4700,
    "\u25810x754": 4701,
    "\u25810x1211e40": 4702,
    "\u25810x7f7e7d7c": 4703,
    "6e5": 4704,
    "ualfox": 4705,
    "20c": 4706,
    "\u25810x1210f64": 4707,
    "\u2581findnextfilew": 4708,
    "\u2581setfileinformationbyhandlew": 4709,
    "\u2581getfileinformationbyhandleexw": 4710,
    "794": 4711,
    "drl66": 4712,
    "\u25810x443": 4713,
    "\u2581tsldrl66": 4714,
    "\u2581resum": 4715,
    "\u25810xfeee009c": 4716,
    "\u2581resumethread": 4717,
    "\u2581registerservicectrl": 4718,
    "1c2": 4719,
    "3de": 4720,
    "926": 4721,
    "a3c": 4722,
    "af3": 4723,
    "18c": 4724,
    "a730": 4725,
    "\u2581environ": 4726,
    "144": 4727,
    "e42": 4728,
    "\u25810x5040": 4729,
    "\u25810x8c90": 4730,
    "\u25810x1211f14": 4731,
    "401": 4732,
    "75c": 4733,
    "af0": 4734,
    "\u25810x103": 4735,
    "a24": 4736,
    "bas": 4737,
    "\u2581qa": 4738,
    "\u25810xffeb": 4739,
    "152": 4740,
    "d65": 4741,
    "fa2": 4742,
    "idto": 4743,
    "9e0": 4744,
    "f44": 4745,
    "f6c": 4746,
    "\u25810x488": 4747,
    "\u25810x4300": 4748,
    "952": 4749,
    "cc4": 4750,
    "df1": 4751,
    "eab": 4752,
    "\u2581exp": 4753,
    "\u25810x4012db": 4754,
    "931": 4755,
    "f7a8": 4756,
    "lcid": 4757,
    "\u25810x8c30": 4758,
    "cod": 4759,
    "0062": 4760,
    "proces": 4761,
    "\u25810x452": 4762,
    "\u25810x41c4": 4763,
    "privilege": 4764,
    "\u2581date": 4765,
    "\u25810x120ff": 4766,
    "\u2581registerclassexw": 4767,
    "\u25810x3f3": 4768,
    "\u25810x4066": 4769,
    "\u25810x7dc0": 4770,
    "\u2581createprocessa": 4771,
    "181": 4772,
    "init": 4773,
    "\u25810xffd5": 4774,
    "\u25810x1211e0c": 4775,
    "\u2581getprivateprofilestringa": 4776,
    "\u2581program": 4777,
    "processt": 4778,
    "407": 4779,
    "\u25810x4529": 4780,
    "304": 4781,
    "\u25810x43a": 4782,
    "6d4": 4783,
    "\u25810x3f20": 4784,
    "\u25810x7e30": 4785,
    "\u25810x77000723": 4786,
    "acti": 4787,
    "\u25810x3f2": 4788,
    "0064": 4789,
    "\u2581cqa": 4790,
    "touta": 4791,
    "\u2581scqa": 4792,
    "\u25810x160": 4793,
    "\u25810x604": 4794,
    "\u2581pscqa": 4795,
    "\u25810x3b7fb": 4796,
    "dd1": 4797,
    "0066": 4798,
    "\u25810x1211e98": 4799,
    "securitydescriptor": 4800,
    "bb8": 4801,
    "\u25810xdc": 4802,
    "\u25810xffc0": 4803,
    "\u25810x10005c": 4804,
    "\u25810x100fdd": 4805,
    "\u25810x12119a0": 4806,
    "6bc": 4807,
    "9b0": 4808,
    "bff": 4809,
    "bkcolor": 4810,
    "enamew": 4811,
    "\u25810x1211938": 4812,
    "350": 4813,
    "7ad": 4814,
    "10060": 4815,
    "\u25810x8028": 4816,
    "\u25810x169b7": 4817,
    "\u25810x48f898": 4818,
    "\u2581initialize": 4819,
    "110": 4820,
    "3a5": 4821,
    "910": 4822,
    "fc5": 4823,
    "\u25810x415c": 4824,
    "\u25810x630062": 4825,
    "\u25810x650064": 4826,
    "\u25810x670066": 4827,
    "7f3": 4828,
    "d46": 4829,
    "per": 4830,
    "aler": 4831,
    "\u25810x4522": 4832,
    "\u25810x8bd0": 4833,
    "\u25810x610060": 4834,
    "\u25810x442806": 4835,
    "a94": 4836,
    "find": 4837,
    "\u25810x409364": 4838,
    "\u2581sendmessagea": 4839,
    "\u2581exit": 4840,
    "\u25810x40a0": 4841,
    "\u25810x40b5": 4842,
    "\u25810x442808": 4843,
    "6a0": 4844,
    "6b3": 4845,
    "dd8": 4846,
    "fcc": 4847,
    "a00000": 4848,
    "\u25810x8ba0": 4849,
    "\u25810x44280a": 4850,
    "\u25810x44280c": 4851,
    "\u25810x44280e": 4852,
    "\u25810x442810": 4853,
    "\u25810x442812": 4854,
    "\u25810x442814": 4855,
    "\u25810x442816": 4856,
    "\u25810x442818": 4857,
    "\u25810x44281a": 4858,
    "\u25810x44281c": 4859,
    "\u25810x44281e": 4860,
    "ocon": 4861,
    "\u25810x6a": 4862,
    "\u25810x10b": 4863,
    "9b8": 4864,
    "artup": 4865,
    "\u25810xdb": 4866,
    "\u25810xdf": 4867,
    "\u25810x504": 4868,
    "\u2581setenvironmentvariablew": 4869,
    "\u25810x1211bfc": 4870,
    "1f8": 4871,
    "adc": 4872,
    "\u25810x9028": 4873,
    "\u2581ps": 4874,
    "amet": 4875,
    "\u25810x412565": 4876,
    "66d": 4877,
    "bf4": 4878,
    "d9c": 4879,
    "l6660d": 4880,
    "resourc": 4881,
    "\u25810x412566": 4882,
    "\u25810x1211f98": 4883,
    "1cb": 4884,
    "a03": 4885,
    "\u2581hton": 4886,
    "\u25810x7e50": 4887,
    "7cc": 4888,
    "\u2581ls": 4889,
    "\u2581pleas": 4890,
    "\u25810x9020": 4891,
    "90e": 4892,
    "aad": 4893,
    "ae0": 4894,
    "ock32": 4895,
    "\u25810x7d20": 4896,
    "\u2581wsock32": 4897,
    "\u25810x454bb8": 4898,
    "\u25810x1211518": 4899,
    "\u2581userprofil": 4900,
    "\u25810x4528b0": 4901,
    "\u25810x483cf8": 4902,
    "\u25810x1211e8c": 4903,
    "763": 4904,
    "fic": 4905,
    "\u25810x484": 4906,
    "processmemory": 4907,
    "ry": 4908,
    "6c5": 4909,
    "7b7": 4910,
    "eed": 4911,
    "pop": 4912,
    "\u2581writ": 4913,
    "\u2581module": 4914,
    "ipe": 4915,
    "\u25810xe1": 4916,
    "edu": 4917,
    "fb8": 4918,
    "5150": 4919,
    "procedu": 4920,
    "\u25810x3001": 4921,
    "\u25810x417c": 4922,
    "\u25810x4491": 4923,
    "drl6660drl6660drl6660drl6660drl6660": 4924,
    "5f0": 4925,
    "\u25810x7db8": 4926,
    "\u25810x8d80": 4927,
    "ph": 4928,
    "a41": 4929,
    "a68": 4930,
    "tim": 4931,
    "5234": 4932,
    "e60": 4933,
    "\u25810x8d00": 4934,
    "\u25810x8d20": 4935,
    "\u25810xffd4": 4936,
    "\u2581module32": 4937,
    "1c6": 4938,
    "gex": 4939,
    "\u25810x7ef0": 4940,
    "af8": 4941,
    "b3c": 4942,
    "fed": 4943,
    "\u2581all": 4944,
    "\u25810x2b2": 4945,
    "\u25810x41f6": 4946,
    "\u25810x45d1": 4947,
    "\u25810x7db9": 4948,
    "\u25810xde": 4949,
    "\u2581psapi": 4950,
    "\u2581conver": 4951,
    "\u2581exitthread": 4952,
    "6c0": 4953,
    "e31": 4954,
    "ecta": 4955,
    "902e0": 4956,
    "\u25810x8c10": 4957,
    "\u25810x169be": 4958,
    "\u25810x4902e0": 4959,
    "\u25810x12117c8": 4960,
    "\u25810x6ce0000": 4961,
    "pk": 4962,
    "183": 4963,
    "\u25810x5b5": 4964,
    "\u25810x496790": 4965,
    "aaaaaaaaaaaaaaaa": 4966,
    "40f": 4967,
    "650": 4968,
    "entin": 4969,
    "\u2581closeservice": 4970,
    "\u2581closeservicehandle": 4971,
    "99b9": 4972,
    "ible": 4973,
    "\u2581files": 4974,
    "\u25810x40c4": 4975,
    "3c2": 4976,
    "745": 4977,
    "905": 4978,
    "regist": 4979,
    "\u25810x4014": 4980,
    "\u25810x1faf": 4981,
    "\u25810x483d": 4982,
    "\u25810x7460": 4983,
    "\u25810x78c0": 4984,
    "\u25810x8cb0": 4985,
    "\u2581unlock": 4986,
    "\u2581openprocess": 4987,
    "58c": 4988,
    "bb0": 4989,
    "\u25810x43b6": 4990,
    "bd8": 4991,
    "\u258103": 4992,
    "9852": 4993,
    "\u25810x492": 4994,
    "\u2581golfinfo": 4995,
    "\u2581setfileattributesw": 4996,
    "1eb": 4997,
    "965": 4998,
    "a83": 4999,
    "eto": 5000,
    "\u25810xe3": 5001,
    "ground": 5002,
    "scmanag": 5003,
    "\u25810x74d0": 5004,
    "software": 5005,
    "\u25810x41e1c0": 5006,
    "\u2581getmessagew": 5007,
    "\u2581openscmanag": 5008,
    "338": 5009,
    "b65": 5010,
    "block": 5011,
    "\u25810x88c0": 5012,
    "\u25810xffda": 5013,
    "\u25810x491994": 5014,
    "97c": 5015,
    "e1c": 5016,
    "eac": 5017,
    "\u25810x40c7": 5018,
    "\u25810x1211e58": 5019,
    "207": 5020,
    "4444": 5021,
    "\u25810xf1": 5022,
    "\u25810x164": 5023,
    "\u25810x46b": 5024,
    "\u25810x407b": 5025,
    "\u25810x7f10": 5026,
    "\u2581memcpy": 5027,
    "\u2581messageboxw": 5028,
    "\u2581setcurrentdirectoryw": 5029,
    "sb": 5030,
    "b21": 5031,
    "can": 5032,
    "d01": 5033,
    "dlg": 5034,
    "\u25810x41d0": 5035,
    "\u25810x10000000": 5036,
    "e5c": 5037,
    "\u25810x42ec": 5038,
    "\u25810x8be0": 5039,
    "controlset": 5040,
    "\u25810x1211a4c": 5041,
    "\u2581currentcontrolset": 5042,
    "757": 5043,
    "uld": 5044,
    "emutex": 5045,
    "\u25810x8ca0": 5046,
    "7f2": 5047,
    "\u258150": 5048,
    "accel": 5049,
    "reate": 5050,
    "\u2581unmap": 5051,
    "\u25810x3f22": 5052,
    "\u2581unmapviewoffile": 5053,
    "9bc": 5054,
    "\u25810x41de00": 5055,
    "\u2581getmodulebas": 5056,
    "a9c": 5057,
    "ae1": 5058,
    "medi": 5059,
    "\u25810xffdb": 5060,
    "\u25810x4093a5": 5061,
    "\u25810x4093a6": 5062,
    "\u25810x4093a7": 5063,
    "\u25810x4093a8": 5064,
    "\u25810x4093a9": 5065,
    "\u25810x4093aa": 5066,
    "\u25810x4093ab": 5067,
    "\u25810x41e190": 5068,
    "\u25810x569b48": 5069,
    "\u25810x1211d60": 5070,
    "\u2581releasemutex": 5071,
    "3ac": 5072,
    "40e": 5073,
    "de2": 5074,
    "dir": 5075,
    "thi": 5076,
    "\u2581lm": 5077,
    "erify": 5078,
    "\u25810xb5": 5079,
    "\u25810x8d60": 5080,
    "\u25810x8e90": 5081,
    "\u2581verify": 5082,
    "\u2581getmodulebasenamew": 5083,
    "0012": 5084,
    "lack": 5085,
    "\u2581tex": 5086,
    "\u25810x5265c3c": 5087,
    "\u2581verifyversion": 5088,
    "f98": 5089,
    "002a": 5090,
    "002e": 5091,
    "\u25810xb2": 5092,
    "\u2581setst": 5093,
    "384": 5094,
    "now": 5095,
    "pdf": 5096,
    "indi": 5097,
    "othe": 5098,
    "\u2581ftp": 5099,
    "ordacl": 5100,
    "\u25810x8cd0": 5101,
    "\u25810x2000000": 5102,
    "securitydescriptordacl": 5103,
    "994": 5104,
    "eaa": 5105,
    "fd1": 5106,
    "\u2581lo": 5107,
    "\u25810x232": 5108,
    "\u25810x474": 5109,
    "\u25810x4048": 5110,
    "\u25810x8bb0": 5111,
    "\u25810x8c00": 5112,
    "\u2581createprocessw": 5113,
    "648": 5114,
    "ens": 5115,
    "\u2581enter": 5116,
    "atethread": 5117,
    "\u25810x461548": 5118,
    "fax": 5119,
    "lot": 5120,
    "\u2581directory": 5121,
    "yourcomputer": 5122,
    "692": 5123,
    "aa8": 5124,
    "f81": 5125,
    "rey": 5126,
    "days": 5127,
    "eyour": 5128,
    "thiss": 5129,
    "dealer": 5130,
    "\u25811days": 5131,
    "\u25810x90f0": 5132,
    "\u2581border": 5133,
    "havebeen": 5134,
    "allcadwork": 5135,
    "eresourcea": 5136,
    "\u2581intermedi": 5137,
    "\u2581doyoureally": 5138,
    "\u2581setstdhandle": 5139,
    "804": 5140,
    "ce5": 5141,
    "00f": 5142,
    "b5b": 5143,
    "\u25810xd7": 5144,
    "\u25810x1b1": 5145,
    "ocreate": 5146,
    "\u25810x3e6c": 5147,
    "\u25810x7dbc": 5148,
    "\u25810x8c40": 5149,
    "1cc": 5150,
    "2ed": 5151,
    "imer": 5152,
    "ension": 5153,
    "df4": 5154,
    "oken": 5155,
    "\u25810x40b9": 5156,
    "20c0": 5157,
    "\u25810x697070": 5158,
    "2c3": 5159,
    "632": 5160,
    "\u25810x824": 5161,
    "\u25810x437c": 5162,
    "\u2581regqueryvalueexa": 5163,
    "a60": 5164,
    "b71": 5165,
    "ange": 5166,
    "40000": 5167,
    "\u25810xffee": 5168,
    "\u25810x42a190": 5169,
    "servicestatus": 5170,
    "3b8": 5171,
    "llow": 5172,
    "\u25810xba8": 5173,
    "7d4": 5174,
    "b67": 5175,
    "printf": 5176,
    "\u25810x7a4": 5177,
    "\u25810x7dbd": 5178,
    "\u25810x8410": 5179,
    "\u25810x40a40": 5180,
    "\u25810x1211d3c": 5181,
    "f73": 5182,
    "\u25810x4521": 5183,
    "\u25810x4540e0": 5184,
    "\u2581commandline": 5185,
    "\u25810x42a403": 5186,
    "\u25810x42a404": 5187,
    "\u25810x42a405": 5188,
    "\u25810x42a406": 5189,
    "\u25810x42a407": 5190,
    "\u25810x42a408": 5191,
    "\u25810x42a409": 5192,
    "\u25810x42a40a": 5193,
    "\u25810x42a40b": 5194,
    "\u25810x42a40c": 5195,
    "\u25810x42a40d": 5196,
    "\u25810x42a40e": 5197,
    "\u25810x42a40f": 5198,
    "5a0": 5199,
    "666": 5200,
    "e89": 5201,
    "\u25810x562": 5202,
    "\u25810x80000": 5203,
    "\u25810x4033e6": 5204,
    "\u25810x1211ed4": 5205,
    "\u25810x433": 5206,
    "\u25810x700": 5207,
    "\u25810x1211cfc": 5208,
    "\u2581terminatethread": 5209,
    "695": 5210,
    "7c2": 5211,
    "argvw": 5212,
    "\u25810xec": 5213,
    "toargvw": 5214,
    "licences": 5215,
    "\u2581commandlinetoargvw": 5216,
    "pla": 5217,
    "dfdc": 5218,
    "\u25810x41db": 5219,
    "edcc": 5220,
    "reen": 5221,
    "630": 5222,
    "bfc": 5223,
    "da4": 5224,
    "relea": 5225,
    "\u25810x4cb00": 5226,
    "processtoken": 5227,
    "\u2581heapdestroy": 5228,
    "\u2581openprocesstoken": 5229,
    "948": 5230,
    "\u2581dx": 5231,
    "\u25810x7620": 5232,
    "\u25810x4153a0": 5233,
    "270": 5234,
    "628": 5235,
    "\u2581if": 5236,
    "client": 5237,
    "sspace": 5238,
    "\u25810x457c": 5239,
    "\u25810x419638": 5240,
    "\u25810x44ea20": 5241,
    "\u2581initializesecuritydescriptor": 5242,
    "chr": 5243,
    "d14": 5244,
    "utili": 5245,
    "\u25810xf3": 5246,
    "\u25810x4a40": 5247,
    "\u25810x7cb0": 5248,
    "\u2581session": 5249,
    "\u2581allocate": 5250,
    "f24": 5251,
    "\u25810xbb": 5252,
    "eexist": 5253,
    "\u25810x40e": 5254,
    "\u25810x41d2": 5255,
    "\u25810x8fc0": 5256,
    "\u2581isspace": 5257,
    "\u2581fileexist": 5258,
    "1d8": 5259,
    "3130": 5260,
    "esid": 5261,
    "\u25810x272": 5262,
    "andinitializ": 5263,
    "andinitializesid": 5264,
    "\u2581allocateandinitializesid": 5265,
    "e40": 5266,
    "\u25810x9010": 5267,
    "\u2581getuserdefaultuilanguage": 5268,
    "560": 5269,
    "bd1": 5270,
    "\u25810x1104": 5271,
    "\u25810x406c": 5272,
    "\u2581dispatch": 5273,
    "f71": 5274,
    "atet": 5275,
    "\u2581fre": 5276,
    "valuew": 5277,
    "\u25810x419c": 5278,
    "\u25810x437bc": 5279,
    "\u25810x4371e6": 5280,
    "\u25810x4371e7": 5281,
    "558": 5282,
    "\u25810x4ac": 5283,
    "\u25810x71c0": 5284,
    "\u25810x7dc1": 5285,
    "\u2581findwindoww": 5286,
    "1f0": 5287,
    "\u2581ro": 5288,
    "\u2581sr": 5289,
    "\u25810x4c50c0": 5290,
    "\u2581textouta": 5291,
    "\u25810x1210f8c": 5292,
    "72c": 5293,
    "word": 5294,
    "\u25810x42a": 5295,
    "\u25810x522": 5296,
    "\u25810x4770": 5297,
    "\u25810xe2": 5298,
    "\u25810x2f2": 5299,
    "f17": 5300,
    "f5c": 5301,
    "\u25810x171": 5302,
    "\u25810x4ab": 5303,
    "\u25810x43b7b9": 5304,
    "a07": 5305,
    "frame": 5306,
    "\u25810x1810": 5307,
    "\u25810x7b60": 5308,
    "\u25810x43b7c3": 5309,
    "\u2581localrealloc": 5310,
    "9a6": 5311,
    "\u25810x4a80": 5312,
    "\u25810x70e0": 5313,
    "\u25810xd000": 5314,
    "b93": 5315,
    "\u25810xe7": 5316,
    "ataddress": 5317,
    "\u25810x100098": 5318,
    "bd6": 5319,
    "f91": 5320,
    "f42c": 5321,
    "\u2581fast": 5322,
    "writeptr": 5323,
    "\u2581dllonexit": 5324,
    "\u2581isbadwriteptr": 5325,
    "\u2581accessviolationataddress": 5326,
    "3ed": 5327,
    "etw": 5328,
    "scroll": 5329,
    "\u25810x99a0": 5330,
    "ofaddress": 5331,
    "752": 5332,
    "bd5": 5333,
    "fb4": 5334,
    "\u25810x798": 5335,
    "sessionid": 5336,
    "va": 5337,
    "682": 5338,
    "ba7": 5339,
    "be7": 5340,
    "dee": 5341,
    "\u25810x4285c0": 5342,
    "\u2581wtsapi32": 5343,
    "erat": 5344,
    "\u2581cau": 5345,
    "\u2581ext": 5346,
    "\u25810x4d80": 5347,
    "\u25810x8330": 5348,
    "\u2581caution": 5349,
    "eregistry": 5350,
    "\u25810x1211ed8": 5351,
    "88c": 5352,
    "e50": 5353,
    "efc": 5354,
    "\u25810x602": 5355,
    "3a4": 5356,
    "982": 5357,
    "3534": 5358,
    "\u25810x1f1": 5359,
    "\u25810x46b4": 5360,
    "\u25810x7ce0": 5361,
    "\u25810x8340": 5362,
    "\u25810x8b50": 5363,
    "\u25810x181bc0": 5364,
    "localfiletime": 5365,
    "\u2581filetimetolocalfiletime": 5366,
    "ce1": 5367,
    "enh": 5368,
    "\u25810x238": 5369,
    "325": 5370,
    "\u2581oem": 5371,
    "\u25810x97a0": 5372,
    "\u25810x40938": 5373,
    "accelerat": 5374,
    "\u2581fileexistsw": 5375,
    "1ff": 5376,
    "32a": 5377,
    "hara": 5378,
    "\u25810xc3": 5379,
    "\u25810x5b2": 5380,
    "\u2581oemtoc": 5381,
    "clipboard": 5382,
    "\u25810xfeee009d": 5383,
    "6f0": 5384,
    "a3f": 5385,
    "usp": 5386,
    "b0cbc": 5387,
    "\u2581getthreadpriority": 5388,
    "482": 5389,
    "985": 5390,
    "\u25810x1fa": 5391,
    "\u25810x4445": 5392,
    "\u25810x9210": 5393,
    "\u25810x169bd": 5394,
    "ae7": 5395,
    "b46": 5396,
    "e14": 5397,
    "e20": 5398,
    "fa6": 5399,
    "b47c": 5400,
    "\u25810xe00": 5401,
    "\u25810x40a3d1": 5402,
    "\u25810x40a3d2": 5403,
    "\u25810x40a3d3": 5404,
    "\u25810x448ad0": 5405,
    "sh": 5406,
    "7f7": 5407,
    "d0f": 5408,
    "option": 5409,
    "\u2581charlower": 5410,
    "\u2581lstrcmpia": 5411,
    "\u2581writeconsole": 5412,
    "e92": 5413,
    "edb": 5414,
    "roniz": 5415,
    "\u25810x4a7": 5416,
    "\u25810x4060": 5417,
    "\u25810x7310": 5418,
    "\u25810x7380": 5419,
    "\u25810x75b0": 5420,
    "\u25810x47ee08": 5421,
    "\u2581synchroniz": 5422,
    "923": 5423,
    "d41": 5424,
    "\u25810xbd": 5425,
    "\u25810x44e": 5426,
    "f68": 5427,
    "ecode": 5428,
    "ultip": 5429,
    "\u25810x44d5": 5430,
    "\u25810x7770": 5431,
    "formultip": 5432,
    "\u2581selectob": 5433,
    "networklicence": 5434,
    "24c": 5435,
    "osystem": 5436,
    "\u25810x7eac": 5437,
    "\u2581charpreva": 5438,
    "osystemtime": 5439,
    "formultipleob": 5440,
    "1d5": 5441,
    "be1": 5442,
    "5678": 5443,
    "etween": 5444,
    "\u25810x4e300": 5445,
    "visualfox": 5446,
    "2f2": 5447,
    "1848": 5448,
    "ad74": 5449,
    "b880": 5450,
    "eac8": 5451,
    "\u2581vfp": 5452,
    "a5958": 5453,
    "e5d5c": 5454,
    "\u25810x3020": 5455,
    "\u25810x4c78": 5456,
    "\u25810xfff1": 5457,
    "\u25810x593748": 5458,
    "\u25810x5b5a5958": 5459,
    "\u25810x5f5e5d5c": 5460,
    "installation": 5461,
    "9ac": 5462,
    "lid": 5463,
    "\u25810x40e4": 5464,
    "\u25810x40e500": 5465,
    "\u25810xfeee009e": 5466,
    "\u2581openscmanagerw": 5467,
    "\u2581lmir": 5468,
    "\u25810x3b3": 5469,
    "\u2581translat": 5470,
    "\u2581shgetfileinfoa": 5471,
    "\u25810x4420": 5472,
    "\u25810x1211dd8": 5473,
    "\u2581getcursorpos": 5474,
    "\u2581sldrl6660drl6660drl6660drl6660drl6660drl6660drl6660drl6660": 5475,
    "84f": 5476,
    "935": 5477,
    "b23": 5478,
    "mple": 5479,
    "dcode": 5480,
    "\u25810x503": 5481,
    "created": 5482,
    "\u25810x4040": 5483,
    "\u2581setsecuritydescriptordacl": 5484,
    "2w": 5485,
    "210": 5486,
    "661": 5487,
    "762": 5488,
    "943": 5489,
    "d32": 5490,
    "\u25810x82c0": 5491,
    "\u2581myarg1myarg2": 5492,
    "\u2581filetimetosystemtime": 5493,
    "62c": 5494,
    "\u25810x43b4": 5495,
    "\u25810x5718": 5496,
    "\u25810x7b98": 5497,
    "\u2581geticon": 5498,
    "connection": 5499,
    "7a1": 5500,
    "5655": 5501,
    "\u25810x40a3d4": 5502,
    "ax": 5503,
    "2f0": 5504,
    "52e8": 5505,
    "\u25810x4b8": 5506,
    "\u25810x9c8": 5507,
    "\u2581oemtochara": 5508,
    "ongles": 5509,
    "\u25810x4c3": 5510,
    "\u2581conne": 5511,
    "\u25810x71a0": 5512,
    "\u2581strcpyw": 5513,
    "\u2581writeconsolew": 5514,
    "\u2581verifyversioninfow": 5515,
    "685": 5516,
    "aa7": 5517,
    "det": 5518,
    "isplay": 5519,
    "\u25810x4043": 5520,
    "\u25810x3820382": 5521,
    "6d6": 5522,
    "\u25810xb1": 5523,
    "\u25810xebad74": 5524,
    "\u25810x120fd64": 5525,
    "\u25810x1211ba4": 5526,
    "\u25810xfeee009f": 5527,
    "67e": 5528,
    "b91": 5529,
    "d13": 5530,
    "node": 5531,
    "10381": 5532,
    "\u2581winht": 5533,
    "\u25810x3810381": 5534,
    "\u25810x7ba00000": 5535,
    "\u2581freeresource": 5536,
    "\u2581createservice": 5537,
    "5648": 5538,
    "\u25810x4e2": 5539,
    "\u25810x7b80": 5540,
    "\u25810x409ab4": 5541,
    "\u25810x409ab5": 5542,
    "\u2581translatem": 5543,
    "vb": 5544,
    "ea5": 5545,
    "fon": 5546,
    "keya": 5547,
    "a4948": 5548,
    "\u25810x43c": 5549,
    "\u25810x1814": 5550,
    "\u25810x5000": 5551,
    "\u25810x4af460": 5552,
    "\u2581openservicew": 5553,
    "\u2581getconsolemode": 5554,
    "1b2": 5555,
    "\u25811c": 5556,
    "\u25810mb": 5557,
    "\u25810xd1": 5558,
    "\u25810x532": 5559,
    "f4e4d4c": 5560,
    "\u25810x4b4a4948": 5561,
    "\u25810x4f4e4d4c": 5562,
    "connection2w": 5563,
    "694": 5564,
    "b43": 5565,
    "e100": 5566,
    "\u2581from": 5567,
    "565554": 5568,
    "\u25810x45d0": 5569,
    "\u25810x7428": 5570,
    "\u25810x7a40": 5571,
    "\u25810x57565554": 5572,
    "642": 5573,
    "1110": 5574,
    "6b61": 5575,
    "a1918": 5576,
    "timet": 5577,
    "\u25810x3332": 5578,
    "\u25810x4235": 5579,
    "\u25810x5352": 5580,
    "\u25810x7038": 5581,
    "\u25810x7118": 5582,
    "\u25810x71f8": 5583,
    "\u25810x7888": 5584,
    "\u25810x4d500": 5585,
    "142": 5586,
    "972c": 5587,
    "hell": 5588,
    "\u25810xe8": 5589,
    "\u25810x4c4": 5590,
    "\u25810x42d0": 5591,
    "\u25810x7730": 5592,
    "\u25810x169b9": 5593,
    "\u25810x43424": 5594,
    "\u25810x1211ef4": 5595,
    "\u25810x2280228": 5596,
    "\u2581mpr": 5597,
    "64544": 5598,
    "e3d3c": 5599,
    "\u25810x7738": 5600,
    "\u25810x1210f88": 5601,
    "\u25810x3f3e3d3c": 5602,
    "\u25810x43424140": 5603,
    "\u25810x47464544": 5604,
    "\u2581regsetvalueexa": 5605,
    "e1d1c": 5606,
    "\u25810xfe": 5607,
    "\u25810x3736": 5608,
    "\u25810x4a20": 5609,
    "\u25810x7188": 5610,
    "\u25810x7348": 5611,
    "\u25810x7578": 5612,
    "\u25810x78f8": 5613,
    "\u25810x120ce": 5614,
    "\u2581getuserdefaultlcid": 5615,
    "\u2581ol": 5616,
    "93c0": 5617,
    "utton": 5618,
    "\u25810x40ca": 5619,
    "\u25810x7268": 5620,
    "\u25810x72d8": 5621,
    "\u25810x73b8": 5622,
    "\u25810x7498": 5623,
    "\u25810x2f2e2": 5624,
    "\u25810x40a3d5": 5625,
    "\u25810x40a3d6": 5626,
    "\u25810x40a3d7": 5627,
    "\u25810x417d20": 5628,
    "\u25810x1211fe4": 5629,
    "\u25810x37363534": 5630,
    "\u2581getusernamea": 5631,
    "\u2581getcomputernamea": 5632,
    "\u2581registerservicectrlhandler": 5633,
    "710": 5634,
    "743": 5635,
    "a75": 5636,
    "61514": 5637,
    "a3938": 5638,
    "\u25810x584": 5639,
    "\u25810x7508": 5640,
    "\u25810x7818": 5641,
    "\u25810x1210f80": 5642,
    "\u25810x1211eb4": 5643,
    "\u25810x17161514": 5644,
    "\u25810x2f2e2d2c": 5645,
    "\u25810x33323130": 5646,
    "\u25810x3b3a3938": 5647,
    "\u2581vc": 5648,
    "0026": 5649,
    "a4c4": 5650,
    "22120": 5651,
    "62524": 5652,
    "a2928": 5653,
    "\u2581vfp6": 5654,
    "\u25810x598": 5655,
    "\u25810x5375": 5656,
    "\u25810x75e8": 5657,
    "\u25810x7658": 5658,
    "\u25810x76c8": 5659,
    "\u25810x12117b0": 5660,
    "\u25810x1b1a1918": 5661,
    "\u25810x1f1e1d1c": 5662,
    "\u25810x23222120": 5663,
    "\u25810x27262524": 5664,
    "\u25810x2b2a2928": 5665,
    "b1c": 5666,
    "f47": 5667,
    "14c8": 5668,
    "94a8": 5669,
    "drag": 5670,
    "e7ec": 5671,
    "erect": 5672,
    "\u25810x53525150": 5673,
    "\u2581systemtimet": 5674,
    "\u2581comparestringa": 5675,
    "\u2581freeenvironmentstringsa": 5676,
    "3e0": 5677,
    "6b5": 5678,
    "ave": 5679,
    "6cbe": 5680,
    "\u25810x77a8": 5681,
    "\u25810x7a48": 5682,
    "\u25810x7ab8": 5683,
    "\u25810x7c08": 5684,
    "\u25810x7ce8": 5685,
    "\u25810x50e10": 5686,
    "\u25810xfeee00a1": 5687,
    "\u2581writeprivateprofile": 5688,
    "354": 5689,
    "48c": 5690,
    "\u25810x7d58": 5691,
    "\u2581starts": 5692,
    "dispatch": 5693,
    "\u2581service": 5694,
    "\u25810x406698": 5695,
    "\u25810xfeee00a0": 5696,
    "\u2581startservicew": 5697,
    "\u2581startservicectrl": 5698,
    "\u2581startservicectrldispatch": 5699,
    "618": 5700,
    "9b6": 5701,
    "a18": 5702,
    "bf8": 5703,
    "d45": 5704,
    "d75": 5705,
    "res": 5706,
    "orary": 5707,
    "\u25810x7968": 5708,
    "\u25810x79d8": 5709,
    "\u25810x7b28": 5710,
    "\u25810x7c78": 5711,
    "\u25810xfeee00a2": 5712,
    "e41": 5713,
    "\u25810x1824": 5714,
    "\u25810x7710": 5715,
    "\u25810x8f20": 5716,
    "\u25810x7eab78": 5717,
    "\u2581findwindowa": 5718,
    "\u2581setservicestatus": 5719,
    "302": 5720,
    "7d5": 5721,
    "7f9": 5722,
    "d1b4": 5723,
    "anden": 5724,
    "\u25810x7dc4": 5725,
    "\u2581expanden": 5726,
    "3e8": 5727,
    "9ec": 5728,
    "ort": 5729,
    "6408": 5730,
    "c018": 5731,
    "pass": 5732,
    "\u25810xba": 5733,
    "\u25810xef": 5734,
    "a90000": 5735,
    "\u25810x8650": 5736,
    "\u2581default": 5737,
    "b45": 5738,
    "cc6": 5739,
    "e68": 5740,
    "\u25817z2": 5741,
    "\u25817z8": 5742,
    "\u25817zc": 5743,
    "\u25817z30": 5744,
    "\u25810x288": 5745,
    "\u25810x5670": 5746,
    "\u25810x9810": 5747,
    "\u2581setbkcolor": 5748,
    "5c5": 5749,
    "ails": 5750,
    "\u25810x44ed": 5751,
    "\u25810x1211d2c": 5752,
    "\u25810x2050000": 5753,
    "\u25810x5265c50": 5754,
    "30c": 5755,
    "3f3": 5756,
    "e9b": 5757,
    "\u2581x0": 5758,
    "ffa0": 5759,
    "\u25810x7dc5": 5760,
    "\u25810x40619": 5761,
    "12b8": 5762,
    "7a00": 5763,
    "b5b4": 5764,
    "\u25810x490": 5765,
    "\u25810x3f24": 5766,
    "\u25810x8a60": 5767,
    "anew": 5768,
    "\u25810xf4": 5769,
    "yourpc": 5770,
    "\u25810x1818": 5771,
    "\u25810x82f0": 5772,
    "\u25810x437038": 5773,
    "a42": 5774,
    "f10": 5775,
    "a4d3": 5776,
    "\u25810x6e7": 5777,
    "\u25810x4540b0": 5778,
    "\u2581createservicew": 5779,
    "d15": 5780,
    "copy": 5781,
    "\u25810x6978": 5782,
    "\u25810x181c10": 5783,
    "\u25810xfffff8": 5784,
    "\u25810x1211e94": 5785,
    "\u2581copyfilew": 5786,
    "\u2581regopenkeya": 5787,
    "\u25810xc4": 5788,
    "\u2581users": 5789,
    "\u25810x40ea": 5790,
    "\u25810x41ab": 5791,
    "\u25810x4609": 5792,
    "\u25810x40000": 5793,
    "\u25810x4af478": 5794,
    "\u2581failedtoinitializ": 5795,
    "003": 5796,
    "1b4": 5797,
    "longa": 5798,
    "eengine": 5799,
    "\u2581command": 5800,
    "\u25810x181be8": 5801,
    "\u25810x43a4c8": 5802,
    "\u2581riched20": 5803,
    "\u2581startservicectrldispatcherw": 5804,
    "\u2581lib": 5805,
    "\u25810x4139": 5806,
    "enthread": 5807,
    "\u25810x1211f68": 5808,
    "\u25810xfffffffc": 5809,
    "28c": 5810,
    "ad3": 5811,
    "aec": 5812,
    "fc4": 5813,
    "bcd4": 5814,
    "\u25810xc7": 5815,
    "drawing": 5816,
    "\u25810x181c38": 5817,
    "\u25810x437800": 5818,
    "\u25810x1211d8c": 5819,
    "\u25810x1211ebc": 5820,
    "\u2581failedtoinitializeengine": 5821,
    "\u25810xb9": 5822,
    "foreyou": 5823,
    "\u25810x51a0": 5824,
    "\u25810xffed": 5825,
    "\u2581openthread": 5826,
    "vm": 5827,
    "554": 5828,
    "771": 5829,
    "7b4": 5830,
    "6604": 5831,
    "e054": 5832,
    "\u25810x1312": 5833,
    "ablet": 5834,
    "\u25810x53000": 5835,
    "\u25810x455438": 5836,
    "\u25810xfeee00a3": 5837,
    "3b0": 5838,
    "emo": 5839,
    "24ac": 5840,
    "\u25810x741": 5841,
    "\u25810x45b1": 5842,
    "6a9": 5843,
    "nexec": 5844,
    "\u25810x447": 5845,
    "\u25810x4034": 5846,
    "\u25810x7d27": 5847,
    "\u2581winexec": 5848,
    "aa5": 5849,
    "pkg": 5850,
    "etup": 5851,
    "lotter": 5852,
    "\u2581charup": 5853,
    "\u2581drawtexta": 5854,
    "\u2581regsetvalueexw": 5855,
    "a65": 5856,
    "ff2": 5857,
    "\u2581createfon": 5858,
    "\u2581formatmessagea": 5859,
    "3030": 5860,
    "6d73": 5861,
    "a448": 5862,
    "times": 5863,
    "\u25810x3fb000": 5864,
    "\u25810x1211a38": 5865,
    "\u25810x1211b84": 5866,
    "\u25810x1211d7c": 5867,
    "66a": 5868,
    "b74": 5869,
    "bc3": 5870,
    "cli": 5871,
    "d69": 5872,
    "dce": 5873,
    "omp": 5874,
    "remov": 5875,
    "\u25810x40d": 5876,
    "\u25810x6ab8": 5877,
    "\u25810x435024": 5878,
    "\u25810x4e2de0": 5879,
    "6aa": 5880,
    "0081": 5881,
    "\u25810x424": 5882,
    "\u2581licen": 5883,
    "\u25810xffd1": 5884,
    "\u25810x20000": 5885,
    "\u25810x435026": 5886,
    "\u25810x435032": 5887,
    "\u2581cho": 5888,
    "driver": 5889,
    "foreground": 5890,
    "\u25810x12117e8": 5891,
    "\u25810xfeee00a4": 5892,
    "foregroundwindow": 5893,
    "6e6": 5894,
    "ad9": 5895,
    "6178": 5896,
    "7c80": 5897,
    "9228": 5898,
    "uldnot": 5899,
    "\u25810x1d4": 5900,
    "\u25810x7dd9": 5901,
    "\u25810x7f02": 5902,
    "\u25810x8f50": 5903,
    "c01": 5904,
    "zip": 5905,
    "febc": 5906,
    "follow": 5907,
    "\u25810x4055": 5908,
    "\u25810x40b1": 5909,
    "following": 5910,
    "\u25810x1211dc4": 5911,
    "\u25810xfeee00a5": 5912,
    "\u2581waitformultipleob": 5913,
    "xf": 5914,
    "7a5": 5915,
    "18d5": 5916,
    "1cad": 5917,
    "runtime": 5918,
    "updated": 5919,
    "\u25810x42ed": 5920,
    "\u25810x40f690": 5921,
    "\u25810x41aa80": 5922,
    "\u25810x41aab0": 5923,
    "\u25810x12117fc": 5924,
    "mt": 5925,
    "7b0": 5926,
    "95b": 5927,
    "9a0": 5928,
    "d7b": 5929,
    "ea2": 5930,
    "\u2581cod": 5931,
    "\u25810x1828": 5932,
    "\u25810x1830": 5933,
    "\u25810x7d40": 5934,
    "\u25810x1211ad4": 5935,
    "\u25810x1211cbc": 5936,
    "14f": 5937,
    "a12": 5938,
    "d42": 5939,
    "d63": 5940,
    "wil": 5941,
    "dc67": 5942,
    "\u2581net": 5943,
    "\u25810x1820": 5944,
    "\u25810x1848": 5945,
    "\u25810x45cd": 5946,
    "\u25810x3f6000": 5947,
    "\u25810x1210f84": 5948,
    "\u2581thisprogram": 5949,
    "4c3": 5950,
    "\u2581htons": 5951,
    "\u25810x40ad": 5952,
    "\u25810x4140": 5953,
    "\u25810x461500": 5954,
    "\u25810xfeee00a7": 5955,
    "dff": 5956,
    "sthe": 5957,
    "\u25810x4b00": 5958,
    "\u25810x40a5bc": 5959,
    "\u25810xfeee00a8": 5960,
    "\u2581installation": 5961,
    "\u2581charlowerbuff": 5962,
    "\u2581regcreatekeyexa": 5963,
    "im": 5964,
    "545": 5965,
    "fa0": 5966,
    "bcb8": 5967,
    "eexp": 5968,
    "groun": 5969,
    "latsb": 5970,
    "onthe": 5971,
    "\u25810x184c": 5972,
    "\u25810xfeee00a6": 5973,
    "1a7": 5974,
    "a34": 5975,
    "a71": 5976,
    "d56": 5977,
    "web": 5978,
    "30ec": 5979,
    "9fa2": 5980,
    "itis": 5981,
    "tass": 5982,
    "advis": 5983,
    "\u2581demo": 5984,
    "\u2581class": 5985,
    "\u25810x1838": 5986,
    "\u25810x5ab0": 5987,
    "\u25810xffd6": 5988,
    "\u25810x10021": 5989,
    "beforeyou": 5990,
    "artn": 5991,
    "atik": 5992,
    "d250": 5993,
    "grey": 5994,
    "okup": 5995,
    "pire": 5996,
    "oquit": 5997,
    "\u2581itis": 5998,
    "dblack": 5999,
    "inting": 6000,
    "stries": 6001,
    "edfiles": 6002,
    "\u25810x4780": 6003,
    "\u2581prints": 6004,
    "catalogs": 6005,
    "continue": 6006,
    "swindows": 6007,
    "\u25810x12108": 6008,
    "isalready": 6009,
    "ofcadwork": 6010,
    "thissetup": 6011,
    "\u2581clientin": 6012,
    "abletoquit": 6013,
    "informatik": 6014,
    "sbeforeyou": 6015,
    "\u2581backgroun": 6016,
    "\u2581itisadvis": 6017,
    "\u2581startfile": 6018,
    "\u25810xfeee00bc": 6019,
    "clientnumber": 6020,
    "continuewith": 6021,
    "\u2581pleasecheck": 6022,
    "allyourrunning": 6023,
    "\u2581doyouwanttore": 6024,
    "\u2581dialogswindows": 6025,
    "\u2581backgroundblack": 6026,
    "\u2581doyoureallywantto": 6027,
    "\u2581itisadvisabletoquit": 6028,
    "applicationsbeforeyou": 6029,
    "continuewiththissetup": 6030,
    "\u2581itisadvisabletoquitallyourrunning": 6031,
    "applicationsbeforeyoucontinuewiththissetup": 6032,
    "645": 6033,
    "673": 6034,
    "b73": 6035,
    "3880": 6036,
    "6808": 6037,
    "\u25810xe4": 6038,
    "500000": 6039,
    "ociated": 6040,
    "\u25810x1840": 6041,
    "\u25810x452134": 6042,
    "ociatedicon": 6043,
    "\u25810xfeee00a9": 6044,
    "\u2581extractass": 6045,
    "\u2581extractassociatedicon": 6046,
    "0018": 6047,
    "4010": 6048,
    "\u25810xd4": 6049,
    "\u25810x5ab": 6050,
    "\u25810x573c": 6051,
    "\u2581lookup": 6052,
    "filesfrom": 6053,
    "runtime140": 6054,
    "\u25810x1211fb0": 6055,
    "\u2581vcruntime140": 6056,
    "tokeninformation": 6057,
    "675": 6058,
    "ece": 6059,
    "\u25810x1834": 6060,
    "\u25810x1844": 6061,
    "\u25810x1858": 6062,
    "\u25810x8258": 6063,
    "\u25810xffd9": 6064,
    "\u25810x1210f28": 6065,
    "503": 6066,
    "9e2": 6067,
    "\u2581gb": 6068,
    "\u25810x182c": 6069,
    "\u25810x1878": 6070,
    "\u25810x40a6": 6071,
    "\u25810x7ed0": 6072,
    "\u25810x442804": 6073,
    "\u25810x1210dec": 6074,
    "\u25810x1210e2b": 6075,
    "\u25810x1211d4c": 6076,
    "303": 6077,
    "911": 6078,
    "ba1": 6079,
    "dos": 6080,
    "f0f9": 6081,
    "\u2581cal": 6082,
    "\u2581cpp": 6083,
    "\u25810xda": 6084,
    "\u25810xe6": 6085,
    "\u25810x183c": 6086,
    "\u25810x185c": 6087,
    "\u2581socket": 6088,
    "\u25810x3f7000": 6089,
    "\u2581lstrcmpw": 6090,
    "\u2581setscroll": 6091,
    "\u25810xfeee00aa": 6092,
    "vironmentblock": 6093,
    "\u2581translatemessage": 6094,
    "240": 6095,
    "510": 6096,
    "b66": 6097,
    "f07": 6098,
    "\u25810x41ce": 6099,
    "debughook": 6100,
    "\u25810x40300c": 6101,
    "\u25810x442820": 6102,
    "\u25810x1210e10": 6103,
    "\u25810x12119b0": 6104,
    "\u25810xfeee00ac": 6105,
    "\u25810xfeee00ae": 6106,
    "\u2581cppdebughook": 6107,
    "372": 6108,
    "53d": 6109,
    "laser": 6110,
    "\u25810x132": 6111,
    "\u25810x47a": 6112,
    "\u25810x1868": 6113,
    "\u25810x4966": 6114,
    "\u25810x3f8000": 6115,
    "\u25810x41d1e0": 6116,
    "\u25810x1210d1b": 6117,
    "a61": 6118,
    "a72": 6119,
    "ope": 6120,
    "orgex": 6121,
    "namedp": 6122,
    "\u25810x7e0": 6123,
    "\u25810x187c": 6124,
    "\u25810xfeee00ab": 6125,
    "\u25810xfeee00ad": 6126,
    "\u2581applicationerror": 6127,
    "915": 6128,
    "ba9": 6129,
    "utd": 6130,
    "w32": 6131,
    "\u2581bit": 6132,
    "dec5b": 6133,
    "\u25810x454": 6134,
    "\u25810x464": 6135,
    "\u25810x186c": 6136,
    "\u25810x1874": 6137,
    "\u25810x10020": 6138,
    "\u25810x3f9000": 6139,
    "\u25810x3fa000": 6140,
    "63c": 6141,
    "dda": 6142,
    "e32": 6143,
    "omm": 6144,
    "\u25810x1854": 6145,
    "\u25810x7ec4": 6146,
    "\u25810x7ec5": 6147,
    "\u25810x7ec8": 6148,
    "\u2581freesid": 6149,
    "\u2581globaladd": 6150,
    "f37": 6151,
    "6d7363": 6152,
    "dified": 6153,
    "onthis": 6154,
    "\u25810x1850": 6155,
    "\u25810x563a20": 6156,
    "\u25810x1211984": 6157,
    "\u25810xe06d7363": 6158,
    "\u2581getconsolec": 6159,
    "ef8": 6160,
    "\u25810x57eb": 6161,
    "\u25810x28fd0": 6162,
    "\u2581convert": 6163,
    "\u2581readonly": 6164,
    "\u25810x1211a30": 6165,
    "\u25810x1211e50": 6166,
    "\u25810x1211fdc": 6167,
    "ep": 6168,
    "ddf": 6169,
    "f084": 6170,
    "\u2581susp": 6171,
    "\u25810x5d2": 6172,
    "\u25810x1864": 6173,
    "\u25810x1870": 6174,
    "\u25810x3f28": 6175,
    "\u25810x4450": 6176,
    "\u25810x49b0": 6177,
    "\u2581createcompatibledc": 6178,
    "\u2581gettokeninformation": 6179,
    "ix": 6180,
    "774": 6181,
    "fdc": 6182,
    "fbf8": 6183,
    "place": 6184,
    "\u25810x53e0": 6185,
    "\u25810x40943": 6186,
    "\u25810x417d50": 6187,
    "\u25810x12119f4": 6188,
    "\u2581getsystemdefaultuilanguage": 6189,
    "e98": 6190,
    "ea4": 6191,
    "001e": 6192,
    "5f00": 6193,
    "b445": 6194,
    "\u25810xd5": 6195,
    "\u25810x412d": 6196,
    "\u25810x4364": 6197,
    "\u25810x40762": 6198,
    "\u25810x4175f4": 6199,
    "\u25810xfeedf200": 6200,
    "550": 6201,
    "654": 6202,
    "0036": 6203,
    "54ba": 6204,
    "\u25810x9030": 6205,
    "\u25810x8c000": 6206,
    "1d1": 6207,
    "389": 6208,
    "6a8": 6209,
    "782": 6210,
    "b6c": 6211,
    "b7e": 6212,
    "fe4": 6213,
    "0050": 6214,
    "icli": 6215,
    "\u2581inf": 6216,
    "\u2581ssp": 6217,
    "stand": 6218,
    "\u25810x8d30": 6219,
    "\u25810x9230": 6220,
    "\u2581sspicli": 6221,
    "\u25810x401468": 6222,
    "\u25810x40a230": 6223,
    "\u25810x1211894": 6224,
    "\u2581formatmessagew": 6225,
    "43f": 6226,
    "b97": 6227,
    "6088": 6228,
    "\u25810xf7": 6229,
    "\u25810x112": 6230,
    "\u2581getob": 6231,
    "\u2581shell": 6232,
    "\u25810x3f29": 6233,
    "\u25810x120f7a8": 6234,
    "\u25810x1211de8": 6235,
    "141": 6236,
    "bf3c": 6237,
    "\u25810xed": 6238,
    "\u25810x4194": 6239,
    "\u25810x4ee0": 6240,
    "\u25810x421708": 6241,
    "\u25810x1211684": 6242,
    "\u25810x1211eb0": 6243,
    "\u25810x1211f8c": 6244,
    "6e2": 6245,
    "6eb": 6246,
    "701": 6247,
    "ab4": 6248,
    "b64": 6249,
    "ache": 6250,
    "\u2581ldr": 6251,
    "\u25810xac0": 6252,
    "\u25810x1210f30": 6253,
    "imetofiletime": 6254,
    "\u2581getconsolecp": 6255,
    "340": 6256,
    "d43": 6257,
    "\u2581os": 6258,
    "e7ac": 6259,
    "datet": 6260,
    "\u25810x2357": 6261,
    "\u2581string": 6262,
    "\u25810x1211708": 6263,
    "\u25810x2357b78": 6264,
    "\u2581getvolumeinformationw": 6265,
    "dddc": 6266,
    "\u25810x7aa": 6267,
    "\u25810x4197": 6268,
    "\u25810x4de9": 6269,
    "\u25810x9c000": 6270,
    "\u2581suspend": 6271,
    "\u25810x40b888": 6272,
    "\u25810x4528e0": 6273,
    "\u2581msvcr100": 6274,
    "\u25810xfeee00af": 6275,
    "\u2581suspendthread": 6276,
    "b05": 6277,
    "e35": 6278,
    "f95": 6279,
    "2aa8": 6280,
    "7447": 6281,
    "\u25810xd6": 6282,
    "\u25810x4ec0": 6283,
    "\u25810x5619": 6284,
    "\u25810x99e0": 6285,
    "\u25810x482854": 6286,
    "\u25810x482870": 6287,
    "accelerator": 6288,
    "9e5": 6289,
    "a09": 6290,
    "40a3": 6291,
    "\u2581ifyou": 6292,
    "\u25810x4c00": 6293,
    "\u25810x572c": 6294,
    "\u2581onexit": 6295,
    "willinstall": 6296,
    "\u25810xfeee00b0": 6297,
    "2fe": 6298,
    "638": 6299,
    "6b8": 6300,
    "e93": 6301,
    "msg": 6302,
    "40a8": 6303,
    "9053": 6304,
    "\u2581sfc": 6305,
    "\u25810x8de0": 6306,
    "\u2581calloc": 6307,
    "\u25810x1210ee0": 6308,
    "\u25810x1211e38": 6309,
    "\u25810xfeee00b1": 6310,
    "bcac": 6311,
    "\u25810xe5": 6312,
    "\u25810x120f": 6313,
    "\u25810x7c91": 6314,
    "\u25810x14475": 6315,
    "\u25810x53e498": 6316,
    "\u25810x5718f0": 6317,
    "\u2581postquit": 6318,
    "\u25810x1211ec0": 6319,
    "\u2581postquitmessage": 6320,
    "\u2581outputdebugstringw": 6321,
    "612": 6322,
    "adm": 6323,
    "b62": 6324,
    "a064": 6325,
    "f062": 6326,
    "solid": 6327,
    "\u25810x444": 6328,
    "\u25810x40af": 6329,
    "\u25810x7e20": 6330,
    "\u25810x8850": 6331,
    "\u2581created": 6332,
    "\u25810x1211d44": 6333,
    "604": 6334,
    "a0b": 6335,
    "abc": 6336,
    "dad": 6337,
    "f32": 6338,
    "4330": 6339,
    "f1b8": 6340,
    "\u25814d5": 6341,
    "toyour": 6342,
    "\u25810x154": 6343,
    "\u25810x40aa": 6344,
    "\u25810x48c0": 6345,
    "\u25810x4e00": 6346,
    "\u2581iswindow": 6347,
    "\u2581createdib": 6348,
    "387": 6349,
    "405": 6350,
    "\u25810x4533": 6351,
    "\u25810x40a92c": 6352,
    "\u25810x40a93c": 6353,
    "598": 6354,
    "5a6": 6355,
    "765": 6356,
    "9eb": 6357,
    "e11": 6358,
    "0054": 6359,
    "2c3c": 6360,
    "uset": 6361,
    "lection": 6362,
    "\u25810x4013": 6363,
    "\u25810x40b0": 6364,
    "\u25810x40e8": 6365,
    "9af": 6366,
    "74f9": 6367,
    "deee": 6368,
    "ff40": 6369,
    "\u25810xae": 6370,
    "fileex": 6371,
    "\u25810x150": 6372,
    "\u2581getdi": 6373,
    "rl6660d": 6374,
    "\u25810x3f23": 6375,
    "\u25810xac000": 6376,
    "7c0": 6377,
    "9da": 6378,
    "b26": 6379,
    "4005": 6380,
    "56c8": 6381,
    "\u2581rsa": 6382,
    "\u25810xc2": 6383,
    "request": 6384,
    "\u25810x4100": 6385,
    "\u25810x5267": 6386,
    "\u2581change": 6387,
    "\u2581rsaenh": 6388,
    "\u2581settimer": 6389,
    "\u25810x1211a6c": 6390,
    "\u2581dispatchmessagea": 6391,
    "202": 6392,
    "907": 6393,
    "asy": 6394,
    "c89": 6395,
    "f05": 6396,
    "fa1": 6397,
    "param": 6398,
    "\u2581dxgi": 6399,
    "\u25810x830": 6400,
    "\u25810x7dc9": 6401,
    "\u25810x81a1": 6402,
    "\u25810xb8000": 6403,
    "\u25810xc8000": 6404,
    "\u25810xd8000": 6405,
    "selection": 6406,
    "\u25810x1210f50": 6407,
    "\u2581dxgidebug": 6408,
    "\u25810xfeee00b3": 6409,
    "e82": 6410,
    "50f4": 6411,
    "ection": 6412,
    "\u25810x413": 6413,
    "\u25810x4336": 6414,
    "\u25810x7e8c": 6415,
    "\u2581classes": 6416,
    "\u25810x40a538": 6417,
    "\u25810x1210e90": 6418,
    "\u25810x1210f70": 6419,
    "\u25810xfeee00b2": 6420,
    "\u25810xfeee00b4": 6421,
    "9c480": 6422,
    "\u25810xd9": 6423,
    "\u25810x7ea": 6424,
    "\u25810x4561": 6425,
    "\u25810x8a70": 6426,
    "procedure": 6427,
    "\u25810x1210ceb": 6428,
    "929": 6429,
    "ddc": 6430,
    "f70": 6431,
    "cf2c": 6432,
    "brows": 6433,
    "\u2581call": 6434,
    "aterect": 6435,
    "\u25810x4031": 6436,
    "\u25810x452b": 6437,
    "\u2581folder": 6438,
    "do": 6439,
    "iw": 6440,
    "a2c": 6441,
    "dd3": 6442,
    "e15": 6443,
    "\u2581us": 6444,
    "9448": 6445,
    "author": 6446,
    "\u25810x457e": 6447,
    "\u25810x7edc": 6448,
    "\u25810x81a0": 6449,
    "\u25810x7e3000": 6450,
    "\u25810x7e4000": 6451,
    "\u25810x7e5000": 6452,
    "\u25810x1210fa0": 6453,
    "\u25810x1211a48": 6454,
    "\u25810x1211f58": 6455,
    "codeprocess": 6456,
    "\u25810xfeee00b5": 6457,
    "\u2581getexitcodeprocess": 6458,
    "eaac": 6459,
    "enter": 6460,
    "\u25810x9e": 6461,
    "\u25810x515": 6462,
    "\u25810x41b1": 6463,
    "\u2581bitblt": 6464,
    "\u25810x42c0e0": 6465,
    "\u25810x1210fc0": 6466,
    "\u25810x12117ec": 6467,
    "9df": 6468,
    "d73": 6469,
    "\u2581164": 6470,
    "\u25810x118": 6471,
    "\u25810x4644": 6472,
    "\u25810x7e91": 6473,
    "\u2581settext": 6474,
    "\u25810x1210e70": 6475,
    "\u25810x1211b80": 6476,
    "940": 6477,
    "a93": 6478,
    "bac": 6479,
    "e18": 6480,
    "45a2": 6481,
    "6925": 6482,
    "ctrl": 6483,
    "lease": 6484,
    "\u25810xf000": 6485,
    "\u25810x12116fc": 6486,
    "\u25810x1211ea8": 6487,
    "9f3": 6488,
    "\u2581hg": 6489,
    "6a68": 6490,
    "fail": 6491,
    "\u25810x8d50": 6492,
    "\u25810x40a548": 6493,
    "\u25810x1210fe0": 6494,
    "ln": 6495,
    "2c1": 6496,
    "\u2581ur": 6497,
    "0022": 6498,
    "1cfd": 6499,
    "5c98": 6500,
    "\u25810x412c": 6501,
    "\u25810x4b20": 6502,
    "\u25810x40b3a0": 6503,
    "\u2581fastfail": 6504,
    "deleteatom": 6505,
    "\u25810x1211d24": 6506,
    "\u2581beginupdat": 6507,
    "\u2581setfiletime": 6508,
    "\u2581globaldeleteatom": 6509,
    "333": 6510,
    "4a7": 6511,
    "a22": 6512,
    "ba8": 6513,
    "baa": 6514,
    "a264": 6515,
    "e5f0": 6516,
    "lang": 6517,
    "\u25810x8ce0": 6518,
    "\u25810x2d4df": 6519,
    "\u25810x44b7b0": 6520,
    "\u2581lstrcpyw": 6521,
    "solidbrush": 6522,
    "\u25810x12115c4": 6523,
    "\u2581createsolidbrush": 6524,
    "245": 6525,
    "34f": 6526,
    "9e8": 6527,
    "anc": 6528,
    "e54": 6529,
    "4367": 6530,
    "49c0": 6531,
    "a0a0": 6532,
    "inthe": 6533,
    "\u25810xee": 6534,
    "\u25810x457": 6535,
    "\u2581query": 6536,
    "\u25810x4680": 6537,
    "\u2581ntquery": 6538,
    "\u25810x4c3308": 6539,
    "\u25810x1210e40": 6540,
    "\u25810xfeee00b7": 6541,
    "\u2581setwindowpos": 6542,
    "790": 6543,
    "a43": 6544,
    "536c": 6545,
    "\u25810xc5": 6546,
    "\u25810x41b": 6547,
    "listmsg": 6548,
    "\u25810x2269": 6549,
    "\u25810x41d8": 6550,
    "\u25810x44c4": 6551,
    "\u25810x8660": 6552,
    "\u25810x8cd8": 6553,
    "\u25810x41f750": 6554,
    "\u2581commctrl": 6555,
    "\u2581draglistmsg": 6556,
    "\u2581coinitialize": 6557,
    "\u2581getfullnamew": 6558,
    "\u2581writeprocessmemory": 6559,
    "205": 6560,
    "602": 6561,
    "6d0": 6562,
    "8b34": 6563,
    "move": 6564,
    "c0000": 6565,
    "\u25810xf2": 6566,
    "connect": 6567,
    "\u25810x3f27": 6568,
    "\u2581hgdraw": 6569,
    "\u25810x1211f08": 6570,
    "\u25810xfeee00b8": 6571,
    "\u2581findresourc": 6572,
    "e75": 6573,
    "93a8": 6574,
    "a84f1": 6575,
    "langid": 6576,
    "\u25810x1e0": 6577,
    "\u25810x41b8": 6578,
    "\u25810x43f00": 6579,
    "\u25810x42a402": 6580,
    "\u25810x42a410": 6581,
    "\u25810x1211e74": 6582,
    "\u25810xfeee00b6": 6583,
    "\u2581createcompatiblebitmap": 6584,
    "17c": 6585,
    "990": 6586,
    "002c": 6587,
    "tindir": 6588,
    "correct": 6589,
    "\u25810x5700": 6590,
    "\u25810x7c16": 6591,
    "\u25810x100fdd58": 6592,
    "\u25810xfeee00b9": 6593,
    "\u2581getfullnamea": 6594,
    "\u2581createfontindir": 6595,
    "\u2581gettempfilenamea": 6596,
    "266": 6597,
    "2e1": 6598,
    "9f4": 6599,
    "bdc": 6600,
    "f93": 6601,
    "sel": 6602,
    "entr": 6603,
    "\u2581sen": 6604,
    "\u25810xb6": 6605,
    "\u25810x300": 6606,
    "\u25810x12111": 6607,
    "\u25810x41f6c0": 6608,
    "\u25810x7ee001": 6609,
    "\u25810x7ee002": 6610,
    "\u25810x7ee003": 6611,
    "\u25810x7ee004": 6612,
    "\u25810x7ee005": 6613,
    "\u25810x7ee006": 6614,
    "\u25810x7ee007": 6615,
    "\u25810x7ee008": 6616,
    "\u25810x7ee009": 6617,
    "\u25810x7ee00a": 6618,
    "\u25810x7ee00b": 6619,
    "\u25810x7ee00c": 6620,
    "\u25810x7ee00d": 6621,
    "\u25810x7ee00e": 6622,
    "\u25810x7ee00f": 6623,
    "\u25810x7ee010": 6624,
    "\u25810x7ee011": 6625,
    "\u25810x7ee012": 6626,
    "\u25810x7ee013": 6627,
    "\u25810x7ee014": 6628,
    "\u25810x7ee015": 6629,
    "\u25810x7ee016": 6630,
    "\u25810x7ee017": 6631,
    "\u25810x7ee018": 6632,
    "\u25810x7ee019": 6633,
    "105": 6634,
    "961": 6635,
    "b12": 6636,
    "be0": 6637,
    "bf5": 6638,
    "de5": 6639,
    "4e9c": 6640,
    "a9a8": 6641,
    "anual": 6642,
    "\u25810xca": 6643,
    "\u25810xdd": 6644,
    "\u25810x244": 6645,
    "\u25810x439": 6646,
    "\u25810x535": 6647,
    "\u25810x3f25": 6648,
    "\u25810x41f780": 6649,
    "\u25810x46b188": 6650,
    "\u2581lstrcmpiw": 6651,
    "\u25810xfeee00bb": 6652,
    "\u2581lcmapstringa": 6653,
    "\u2581globalrealloc": 6654,
    "d74": 6655,
    "43b8": 6656,
    "7e68": 6657,
    "e423": 6658,
    "\u25810xcb": 6659,
    "\u25810x4122": 6660,
    "\u25810x4a60": 6661,
    "\u25810x9110": 6662,
    "\u25810x40f688": 6663,
    "\u25810xba8b68": 6664,
    "\u25810x121192f": 6665,
    "bab": 6666,
    "\u2581bat": 6667,
    "75000": 6668,
    "alicen": 6669,
    "\u25810x3c0": 6670,
    "\u25810x593": 6671,
    "\u2581srand": 6672,
    "\u25810x48b0": 6673,
    "\u25810x5f00": 6674,
    "\u25810xf003f": 6675,
    "\u25810x1210f00": 6676,
    "\u2581systemtimetofiletime": 6677,
    "775": 6678,
    "287e": 6679,
    "9d50": 6680,
    "b354": 6681,
    "activ": 6682,
    "\u25810xce": 6683,
    "\u2581choo": 6684,
    "\u25810x854": 6685,
    "context": 6686,
    "\u25810x429e": 6687,
    "\u25810x5d00": 6688,
    "\u25810x7dd0": 6689,
    "\u25810xfeee00ba": 6690,
    "memorystatus": 6691,
    "\u2581globalmemorystatus": 6692,
    "37c": 6693,
    "aaa": 6694,
    "b9c": 6695,
    "bd3": 6696,
    "d26": 6697,
    "30c4": 6698,
    "6a6c": 6699,
    "croll": 6700,
    "\u25810x465": 6701,
    "\u25810x571": 6702,
    "\u25810x412b": 6703,
    "\u2581licence": 6704,
    "\u25810x4e39b4": 6705,
    "\u2581getscroll": 6706,
    "2fc": 6707,
    "345": 6708,
    "7fd": 6709,
    "1cb0": 6710,
    "dd48": 6711,
    "ba104": 6712,
    "\u25810x1074": 6713,
    "\u25810x4032": 6714,
    "\u25810x4500": 6715,
    "\u25810x45d3": 6716,
    "\u25810x49d0": 6717,
    "\u25810x4a30": 6718,
    "\u25810x99d0": 6719,
    "\u25810x4554b0": 6720,
    "b94": 6721,
    "0014": 6722,
    "bd10": 6723,
    "\u2581tol": 6724,
    "\u25810x5a7": 6725,
    "\u25810x40f0": 6726,
    "\u2581flatsb": 6727,
    "00000004": 6728,
    "ffff0000": 6729,
    "\u2581tolower": 6730,
    "\u25810x1211690": 6731,
    "\u25810x1211cd0": 6732,
    "234": 6733,
    "6ab": 6734,
    "b38": 6735,
    "f5fb": 6736,
    "lear": 6737,
    "\u25810x584d24": 6738,
    "\u25810x121185c": 6739,
    "7ff": 6740,
    "1800": 6741,
    "3811": 6742,
    "90058": 6743,
    "b005a": 6744,
    "endar": 6745,
    "\u2581wsast": 6746,
    "\u25810x40b6": 6747,
    "calendar": 6748,
    "\u25810x230022": 6749,
    "\u25810x550054": 6750,
    "\u25810x570056": 6751,
    "\u25810x590058": 6752,
    "\u25810x5b005a": 6753,
    "\u25810x5d005c": 6754,
    "\u25810x5f005e": 6755,
    "\u25810xfeee00bd": 6756,
    "\u2581wsastartup": 6757,
    "274": 6758,
    "773": 6759,
    "791": 6760,
    "dca": 6761,
    "e3c": 6762,
    "5410": 6763,
    "da1c": 6764,
    "fcec": 6765,
    "\u2581afx": 6766,
    "\u25810x2012": 6767,
    "\u25810x412e": 6768,
    "\u25810x4d00": 6769,
    "\u25810x54500000": 6770,
    "\u25810xfeee00be": 6771,
    "initializeex": 6772,
    "\u2581coinitializeex": 6773,
    "a6f": 6774,
    "b82": 6775,
    "0010": 6776,
    "dbc0": 6777,
    "f844": 6778,
    "f8e4": 6779,
    "\u25810xea": 6780,
    "\u25810x42d": 6781,
    "\u25810x44d": 6782,
    "\u25810x54a8": 6783,
    "\u25810x79b0": 6784,
    "\u25810x7dcc": 6785,
    "\u25810xa9b0": 6786,
    "\u2581msvcr71": 6787,
    "\u2581deletedc": 6788,
    "\u25810x1211904": 6789,
    "6dc": 6790,
    "772": 6791,
    "db2": 6792,
    "fd5": 6793,
    "36ac": 6794,
    "\u25810x4016": 6795,
    "\u25810x4551": 6796,
    "\u25810x46b3": 6797,
    "\u25810x7e94": 6798,
    "\u25810x1211b8c": 6799,
    "\u25810x1211d14": 6800,
    "\u25810x1211e00": 6801,
    "323": 6802,
    "sav": 6803,
    "2468": 6804,
    "5fb0": 6805,
    "alle": 6806,
    "\u25810x22c": 6807,
    "\u25810x498": 6808,
    "\u25810x4530": 6809,
    "\u25810xa210": 6810,
    "\u25810x78000": 6811,
    "\u2581selectan": 6812,
    "\u25810x121178c": 6813,
    "\u25810xfeee01c": 6814,
    "55c": 6815,
    "7c5": 6816,
    "993": 6817,
    "d64": 6818,
    "ddb": 6819,
    "ec5": 6820,
    "43e5": 6821,
    "9464": 6822,
    "94ee": 6823,
    "f0df": 6824,
    "prop": 6825,
    "\u25810xe9": 6826,
    "\u2581pass": 6827,
    "\u25810x7dcd": 6828,
    "\u25810x7e95": 6829,
    "\u25810x8490": 6830,
    "codethread": 6831,
    "\u25810x1211994": 6832,
    "\u25810xfeee00bf": 6833,
    "\u2581settextcolor": 6834,
    "\u2581getexitcodethread": 6835,
    "353": 6836,
    "914": 6837,
    "aac": 6838,
    "fd2": 6839,
    "001c": 6840,
    "003c": 6841,
    "7064": 6842,
    "7578": 6843,
    "feb8": 6844,
    "ocus": 6845,
    "pies": 6846,
    "\u25812022": 6847,
    "\u25810x4de8": 6848,
    "\u25810x7df9": 6849,
    "\u25810x567a88": 6850,
    "\u25810x1211ea0": 6851,
    "\u25810xfeee00d7": 6852,
    "690": 6853,
    "gcc": 6854,
    "0032": 6855,
    "3c54": 6856,
    "57a9": 6857,
    "60577": 6858,
    "79000": 6859,
    "lecta": 6860,
    "order": 6861,
    "\u25810x1bc": 6862,
    "\u25810x412f": 6863,
    "\u2581ldrget": 6864,
    "\u2581libgcc": 6865,
    "\u2581invalidaterect": 6866,
    "procedureaddress": 6867,
    "\u2581ldrgetprocedureaddress": 6868,
    "198": 6869,
    "368": 6870,
    "447": 6871,
    "\u25810x1e4": 6872,
    "\u25810x990": 6873,
    "located": 6874,
    "\u25810x1b00": 6875,
    "\u25810x7dd4": 6876,
    "lientrect": 6877,
    "\u25810x1211bf4": 6878,
    "\u25810xfeee00c0": 6879,
    "\u2581getclientrect": 6880,
    "\u2581findresourceexw": 6881,
    "ebe": 6882,
    "0016": 6883,
    "12f88": 6884,
    "35000": 6885,
    "\u25810xfd": 6886,
    "\u2581fill": 6887,
    "\u25810x7541": 6888,
    "\u2581connect": 6889,
    "belocated": 6890,
    "\u25810xfeee00c1": 6891,
    "\u2581getusernamew": 6892,
    "6b6": 6893,
    "73c": 6894,
    "d0b": 6895,
    "faf": 6896,
    "0052": 6897,
    "379c": 6898,
    "ations": 6899,
    "fileexw": 6900,
    "setting": 6901,
    "registry": 6902,
    "\u25810x1211af4": 6903,
    "\u25810x1211eb8": 6904,
    "\u25810xfeee00c2": 6905,
    "aa6": 6906,
    "0046": 6907,
    "a7b0": 6908,
    "fc360": 6909,
    "\u25810xfa": 6910,
    "\u25810x4042": 6911,
    "\u25810x4ad0": 6912,
    "\u25810x7dd1": 6913,
    "\u25810x7dd5": 6914,
    "\u25810x7dd8": 6915,
    "\u25810x7ec9": 6916,
    "\u25810x97b0": 6917,
    "\u25810x409414": 6918,
    "\u25810x409415": 6919,
    "\u25810x435403": 6920,
    "\u25810x435404": 6921,
    "\u25810x435405": 6922,
    "\u25810x435406": 6923,
    "\u25810x441806": 6924,
    "\u25810x441808": 6925,
    "\u25810x44180a": 6926,
    "\u25810x537500": 6927,
    "\u25810xfeee00c3": 6928,
    "2b0": 6929,
    "406": 6930,
    "52e": 6931,
    "619": 6932,
    "0024": 6933,
    "5cc4": 6934,
    "d3e0": 6935,
    "spon": 6936,
    "\u25810x40f4": 6937,
    "\u25810x4108": 6938,
    "\u25810x409411": 6939,
    "\u25810x1211784": 6940,
    "f64": 6941,
    "003e": 6942,
    "84ce": 6943,
    "stina": 6944,
    "select": 6945,
    "utdown": 6946,
    "\u25810x565": 6947,
    "\u25810x2900": 6948,
    "\u25810x4c51": 6949,
    "\u25810x3b7fc": 6950,
    "stination": 6951,
    "\u25810x409412": 6952,
    "\u25810x409413": 6953,
    "\u25810x409416": 6954,
    "\u25810x409417": 6955,
    "\u25810x40a3e9": 6956,
    "\u25810x40a3ea": 6957,
    "\u25810x40a3eb": 6958,
    "\u25810x40a3ec": 6959,
    "\u25810x40a3ed": 6960,
    "\u25810x40a3ee": 6961,
    "\u25810x40a3ef": 6962,
    "\u25810x417cd8": 6963,
    "\u25810x42d4b0": 6964,
    "\u25810x44180c": 6965,
    "\u25810x1000130": 6966,
    "\u25810x1210ed0": 6967,
    "\u25810xfeee00c4": 6968,
    "2a8": 6969,
    "ba5": 6970,
    "3818": 6971,
    "48ee": 6972,
    "ebad": 6973,
    "\u25810xf9": 6974,
    "\u25810x45c": 6975,
    "\u25810x4ed": 6976,
    "\u25810x7ddc": 6977,
    "\u25810x7ddd": 6978,
    "\u25810x9070": 6979,
    "\u25810x435407": 6980,
    "\u2581regenumkey": 6981,
    "00000004000000": 6982,
    "00000004000000ffff0000": 6983,
    "555": 6984,
    "aa1": 6985,
    "e62": 6986,
    "f54": 6987,
    "12e7": 6988,
    "\u2581tim": 6989,
    "focus": 6990,
    "\u2581sample": 6991,
    "\u2581removedirectoryw": 6992,
    "570": 6993,
    "760": 6994,
    "7df": 6995,
    "004e": 6996,
    "a088": 6997,
    "\u25813db": 6998,
    "\u25810x3cc": 6999,
    "ensions": 7000,
    "\u2581screen": 7001,
    "\u2581thefile": 7002,
    "\u25810x44180e": 7003,
    "\u2581regqueryvalueexw": 7004,
    "64e": 7005,
    "959": 7006,
    "aa3": 7007,
    "e49": 7008,
    "004a": 7009,
    "\u25812db": 7010,
    "e6ab8": 7011,
    "empty": 7012,
    "\u25810x510": 7013,
    "indirect": 7014,
    "\u25810x110010": 7015,
    "\u25810x410040": 7016,
    "\u25810x435408": 7017,
    "\u25810x435409": 7018,
    "\u25810x43540a": 7019,
    "\u25810x43540b": 7020,
    "\u25810x43540c": 7021,
    "\u25810x441810": 7022,
    "\u25810x441812": 7023,
    "\u25810x441814": 7024,
    "\u25810x441816": 7025,
    "\u25810x447088": 7026,
    "\u2581setthreadpriority": 7027,
    "bda": 7028,
    "drb": 7029,
    "e59": 7030,
    "ea8": 7031,
    "37ad": 7032,
    "\u25812drb": 7033,
    "\u25812dvb": 7034,
    "\u2581next": 7035,
    "\u25810x3f21": 7036,
    "\u25810x40d6": 7037,
    "\u25810x41ac": 7038,
    "\u25810x5049": 7039,
    "\u25810x12000": 7040,
    "\u25810x300175": 7041,
    "\u25810x1211e84": 7042,
    "7f6": 7043,
    "wit": 7044,
    "12a3": 7045,
    "desk": 7046,
    "\u2581bak": 7047,
    "\u2581dir": 7048,
    "flush": 7049,
    "\u25810x6e4": 7050,
    "\u25810x457d": 7051,
    "\u25810x4640": 7052,
    "\u25810x4880": 7053,
    "\u25810x7df8": 7054,
    "\u25810xd000c": 7055,
    "\u25810xf000e": 7056,
    "\u25810x130012": 7057,
    "\u25810x150014": 7058,
    "\u25810x170016": 7059,
    "\u25810x190018": 7060,
    "\u25810x1b001a": 7061,
    "\u25810x1d001c": 7062,
    "\u25810x1f001e": 7063,
    "\u25810x210020": 7064,
    "\u25810x250024": 7065,
    "\u25810x270026": 7066,
    "\u25810x3d003c": 7067,
    "\u25810x3f003e": 7068,
    "\u25810x429000": 7069,
    "\u25810x42d4e0": 7070,
    "\u25810x430042": 7071,
    "\u25810x447040": 7072,
    "\u25810x450044": 7073,
    "\u25810x470046": 7074,
    "\u25810x490048": 7075,
    "\u25810x4b004a": 7076,
    "\u25810x4d004c": 7077,
    "\u25810x4f004e": 7078,
    "\u25810x510050": 7079,
    "\u25810x530052": 7080,
    "\u25810x1210eb0": 7081,
    "\u25810xfeee00c6": 7082,
    "175": 7083,
    "e43": 7084,
    "a0ef": 7085,
    "adc0": 7086,
    "bc40": 7087,
    "popup": 7088,
    "\u25810x9f": 7089,
    "\u25810x4164": 7090,
    "\u25810x290028": 7091,
    "\u25810x2b002a": 7092,
    "\u25810x2d002c": 7093,
    "\u25810x2f002e": 7094,
    "\u25810x43540d": 7095,
    "\u25810x441818": 7096,
    "\u25810x5265c64": 7097,
    "\u25810x5265c78": 7098,
    "\u25810xfeee00c7": 7099,
    "\u2581globalfind": 7100,
    "283": 7101,
    "48d": 7102,
    "ba6": 7103,
    "7d000": 7104,
    "\u25810xf5": 7105,
    "\u25810x4b0": 7106,
    "\u25810x47ab": 7107,
    "\u2581gethost": 7108,
    "namedpipe": 7109,
    "\u25810x100220": 7110,
    "\u25810x43a4b0": 7111,
    "\u25810x12114bc": 7112,
    "\u25810x1211db0": 7113,
    "\u25810xfeee00c5": 7114,
    "70e": 7115,
    "7dd": 7116,
    "921": 7117,
    "64c6": 7118,
    "6861": 7119,
    "78a2": 7120,
    "blem": 7121,
    "d1e5": 7122,
    "ec80": 7123,
    "\u2581bind": 7124,
    "problem": 7125,
    "\u25810x4070": 7126,
    "\u25810x7e90": 7127,
    "\u25810x1211e5c": 7128,
    "\u25810x1211f94": 7129,
    "125": 7130,
    "7b9": 7131,
    "6c10": 7132,
    "d91c": 7133,
    "a9ef0": 7134,
    "\u25810x7708": 7135,
    "\u25810x88d0": 7136,
    "\u25810x43540e": 7137,
    "\u25810x43540f": 7138,
    "\u25810x44181a": 7139,
    "\u25810x44181c": 7140,
    "\u25810x44181e": 7141,
    "\u25810x4df006": 7142,
    "\u25810x4df008": 7143,
    "\u25810x4df00a": 7144,
    "\u25810x4df00c": 7145,
    "\u25810x4df00e": 7146,
    "\u25810x4df010": 7147,
    "\u25810x4df012": 7148,
    "\u25810x4df014": 7149,
    "\u25810x4df016": 7150,
    "\u2581sofaddress": 7151,
    "3c5": 7152,
    "d67": 7153,
    "e19": 7154,
    "fb5": 7155,
    "5868": 7156,
    "bbbb": 7157,
    "d874": 7158,
    "\u25810xc6": 7159,
    "\u25810xf6": 7160,
    "anager": 7161,
    "\u25810x603": 7162,
    "\u25810x4222": 7163,
    "\u25810x42db": 7164,
    "\u25810x4370": 7165,
    "\u25810x9820": 7166,
    "\u2581enable": 7167,
    "\u2581winhttp": 7168,
    "\u25810xfeee00c8": 7169,
    "\u2581getforegroundwindow": 7170,
    "14ec": 7171,
    "a900003": 7172,
    "\u25810x4c79": 7173,
    "\u25810x1210e20": 7174,
    "\u25814d5a900003": 7175,
    "\u2581getdateformatw": 7176,
    "\u25814d5a90000300000004000000ffff0000": 7177,
    "wh": 7178,
    "lik": 7179,
    "\u2581pb": 7180,
    "config": 7181,
    "\u25810x4072": 7182,
    "\u25810x522a": 7183,
    "\u25810xf874": 7184,
    "\u25810x4df018": 7185,
    "\u25810xfeee00ca": 7186,
    "542": 7187,
    "9a5": 7188,
    "cut": 7189,
    "ede": 7190,
    "eab8": 7191,
    "\u25810xfb": 7192,
    "display": 7193,
    "\u25810x4692": 7194,
    "\u25810x4a70": 7195,
    "\u25810x7ed1": 7196,
    "password": 7197,
    "\u25810x47ee50": 7198,
    "\u25810x566f18": 7199,
    "\u25810x1210f94": 7200,
    "\u25810x5265cc8": 7201,
    "\u2581getmenuitem": 7202,
    "134": 7203,
    "242": 7204,
    "26f": 7205,
    "972": 7206,
    "2c55": 7207,
    "50ee": 7208,
    "b028": 7209,
    "b820": 7210,
    "ed24": 7211,
    "dlg32": 7212,
    "\u25810xcf": 7213,
    "\u25810x40d4": 7214,
    "usttoken": 7215,
    "\u25810x1210e2c": 7216,
    "\u25810x1211954": 7217,
    "\u25810x5265c8c": 7218,
    "\u25810x5265ca0": 7219,
    "\u25810x5265cb4": 7220,
    "\u25810x5265cdc": 7221,
    "\u25810xfeee00c9": 7222,
    "\u25810xfeee00cb": 7223,
    "6d1": 7224,
    "0034": 7225,
    "\u25810x4a5": 7226,
    "\u25810x40bd": 7227,
    "\u25810x4555": 7228,
    "\u25810x468b": 7229,
    "\u25810x8180": 7230,
    "00000000": 7231,
    "\u25810x4df01a": 7232,
    "\u25810x4df01c": 7233,
    "\u25810x4df01e": 7234,
    "\u25810x855478": 7235,
    "privileges": 7236,
    "\u25810x12118d8": 7237,
    "usttokenprivileges": 7238,
    "22c": 7239,
    "583": 7240,
    "67b": 7241,
    "b17": 7242,
    "ces": 7243,
    "ixe": 7244,
    "141c": 7245,
    "bce6": 7246,
    "pixe": 7247,
    "38358": 7248,
    "\u2581short": 7249,
    "\u25810x47b158": 7250,
    "\u2581comdlg32": 7251,
    "260": 7252,
    "2ec": 7253,
    "486": 7254,
    "513": 7255,
    "7d6": 7256,
    "7f4": 7257,
    "fa5": 7258,
    "nel": 7259,
    "rap": 7260,
    "0030": 7261,
    "78e8": 7262,
    "e2a4": 7263,
    "71000": 7264,
    "\u25810xc1": 7265,
    "\u25810x3ac": 7266,
    "manager": 7267,
    "\u25810x4ba0": 7268,
    "\u25810x23533": 7269,
    "\u2581shortcut": 7270,
    "ofa": 7271,
    "3801": 7272,
    "boar": 7273,
    "e1d4": 7274,
    "etch": 7275,
    "ryto": 7276,
    "\u25810x9d": 7277,
    "lipboar": 7278,
    "\u25810x440000": 7279,
    "\u25810x48f894": 7280,
    "\u25810x4e5d48": 7281,
    "\u25810x1210f90": 7282,
    "gl": 7283,
    "d51": 7284,
    "e47": 7285,
    "e78": 7286,
    "ich": 7287,
    "sch": 7288,
    "d96c": 7289,
    "\u2581pre": 7290,
    "\u2581lmir0": 7291,
    "uration": 7292,
    "\u25810x42a7": 7293,
    "\u25810x40400": 7294,
    "\u25810x40f937": 7295,
    "\u25810x1211760": 7296,
    "md": 7297,
    "3d1": 7298,
    "d91": 7299,
    "wer": 7300,
    "e585": 7301,
    "\u25810x415e": 7302,
    "\u25810x30002": 7303,
    "\u25810x50004": 7304,
    "\u2581replace": 7305,
    "\u25810x54a4c4": 7306,
    "\u25810x1211cf0": 7307,
    "\u2581globaladdatoma": 7308,
    "\u2581lookupprivilege": 7309,
    "apt": 7310,
    "ff5": 7311,
    "\u258100": 7312,
    "tive": 7313,
    "ddata": 7314,
    "button": 7315,
    "\u25810x605": 7316,
    "current": 7317,
    "\u25810x7e8d": 7318,
    "\u25810x70006": 7319,
    "\u25810x90008": 7320,
    "\u25810xb000a": 7321,
    "\u25810x121189c": 7322,
    "lipboarddata": 7323,
    "40d": 7324,
    "b16": 7325,
    "ysi": 7326,
    "3828": 7327,
    "\u2581you": 7328,
    "ustom": 7329,
    "aramet": 7330,
    "\u25810x5ec": 7331,
    "plotter": 7332,
    "\u25810x2d4d": 7333,
    "\u25810x1211960": 7334,
    "\u25810x5265cf0": 7335,
    "\u25810x5265d04": 7336,
    "\u25810x5265d18": 7337,
    "\u25810x5265d2c": 7338,
    "\u25810x5265d40": 7339,
    "114": 7340,
    "693": 7341,
    "b42": 7342,
    "1168": 7343,
    "a310": 7344,
    "d8c8": 7345,
    "omati": 7346,
    "\u25810x4368": 7347,
    "\u25810xb846": 7348,
    "\u25810xb8ef": 7349,
    "emaphore": 7350,
    "\u25810x51000": 7351,
    "stringlen": 7352,
    "\u25810x1210ed8": 7353,
    "\u25810x5265d54": 7354,
    "390": 7355,
    "aee": 7356,
    "d95": 7357,
    "149c": 7358,
    "aea4": 7359,
    "been": 7360,
    "f004": 7361,
    "rchr": 7362,
    "\u25810x470": 7363,
    "\u25810x4740": 7364,
    "drawings": 7365,
    "\u25810x4096a0": 7366,
    "\u25810x40e9a0": 7367,
    "l6660drl6660drl6660drl6660drl6660drl6660drl6660drl6660drl6660": 7368,
    "ci": 7369,
    "3fc": 7370,
    "732": 7371,
    "bc2": 7372,
    "e71": 7373,
    "eb5": 7374,
    "f0b": 7375,
    "69000": 7376,
    "\u25810x40e6": 7377,
    "\u25810x90c0": 7378,
    "\u2581myarg1": 7379,
    "\u25810x403000": 7380,
    "\u25810x409698": 7381,
    "\u25810x452bf8": 7382,
    "\u25810xfeee00cc": 7383,
    "\u2581destroyicon": 7384,
    "4c4": 7385,
    "735": 7386,
    "969": 7387,
    "f6fc": 7388,
    "hich": 7389,
    "\u2581pro": 7390,
    "\u25810x577": 7391,
    "hasbeen": 7392,
    "\u2581lcidto": 7393,
    "\u25810x40969e": 7394,
    "\u25810xfeee00cd": 7395,
    "\u2581processidto": 7396,
    "\u2581lcidtolocalename": 7397,
    "\u2581processidtosessionid": 7398,
    "aa2": 7399,
    "b1d0": 7400,
    "b594": 7401,
    "\u2581work": 7402,
    "apture": 7403,
    "\u25810x409696": 7404,
    "\u25810x40969a": 7405,
    "\u25810x40969c": 7406,
    "\u25810x4096a2": 7407,
    "\u25810x411c10": 7408,
    "\u25810x44d250": 7409,
    "\u25810x7c16a0": 7410,
    "\u25810x1211424": 7411,
    "\u25810x5265d68": 7412,
    "\u25810x5265d7c": 7413,
    "\u25810x5265d90": 7414,
    "\u2581readconsole": 7415,
    "\u2581shellexecutea": 7416,
    "\u2581getlogicaldrivestringsw": 7417,
    "1a5": 7418,
    "a98": 7419,
    "ite": 7420,
    "797c": 7421,
    "\u2581isc": 7422,
    "class": 7423,
    "\u25810xc9": 7424,
    "byname": 7425,
    "viewer": 7426,
    "\u25810x120f5": 7427,
    "\u25810x5265da4": 7428,
    "\u25810x5265db8": 7429,
    "\u25810x5265dcc": 7430,
    "\u25810x5265de0": 7431,
    "\u25810x5265df4": 7432,
    "\u25810x5265e08": 7433,
    "\u25810x5265e1c": 7434,
    "\u25810x5265e30": 7435,
    "\u25810x5265e44": 7436,
    "\u25810x5265e58": 7437,
    "\u25810x5265e6c": 7438,
    "\u25810x5265e80": 7439,
    "\u25810x5265e94": 7440,
    "\u25810x5265ea8": 7441,
    "\u25810x5265ebc": 7442,
    "\u25810x5265ed0": 7443,
    "\u25810x5265ee4": 7444,
    "\u25810x5265ef8": 7445,
    "\u25810x5265f0c": 7446,
    "\u25810x5265f20": 7447,
    "\u25810x5265f34": 7448,
    "\u25810x5265f48": 7449,
    "\u25810xfeee00ce": 7450,
    "\u2581deleteservice": 7451,
    "\u2581gettempfilenamew": 7452,
    "2d0": 7453,
    "5d6": 7454,
    "e38": 7455,
    "f43": 7456,
    "til": 7457,
    "\u2581he": 7458,
    "9fb0": 7459,
    "b6b0": 7460,
    "anies": 7461,
    "ended": 7462,
    "dialog": 7463,
    "\u25810x40c98c": 7464,
    "\u25810x457e3c": 7465,
    "\u25810x545678": 7466,
    "\u25810x56c750": 7467,
    "\u25810x1211884": 7468,
    "\u25810x1211c14": 7469,
    "\u25810x5265f5c": 7470,
    "\u25810x5265f70": 7471,
    "\u25810x5265f84": 7472,
    "\u25810x5265f98": 7473,
    "\u25810x5265fac": 7474,
    "\u25810x5265fc0": 7475,
    "\u25810x5265fd4": 7476,
    "\u25810x5265fe8": 7477,
    "\u25810x5265ffc": 7478,
    "\u25810x5266010": 7479,
    "\u25810x5266024": 7480,
    "\u25810x5266038": 7481,
    "\u25810x526604c": 7482,
    "\u25810x5266060": 7483,
    "\u25810x5266074": 7484,
    "\u25810x5266088": 7485,
    "\u25810x526609c": 7486,
    "\u25810x52660b0": 7487,
    "\u25810x52660c4": 7488,
    "\u25810x52660d8": 7489,
    "\u25810x52660ec": 7490,
    "\u25810x5266100": 7491,
    "\u25810x5266114": 7492,
    "\u25810x5266128": 7493,
    "\u25810x526613c": 7494,
    "\u25810x5266150": 7495,
    "\u25810x5266164": 7496,
    "\u25810x5266178": 7497,
    "\u25810x526618c": 7498,
    "\u25810x52661a0": 7499,
    "\u25810x52661b4": 7500,
    "\u25810x52661c8": 7501,
    "\u25810x52661dc": 7502,
    "\u25810x52661f0": 7503,
    "\u25810x5266204": 7504,
    "\u25810x5266218": 7505,
    "\u25810x526622c": 7506,
    "\u25810x5266240": 7507,
    "\u25810x5266254": 7508,
    "\u25810x5266268": 7509,
    "\u25810x526627c": 7510,
    "\u25810x5266290": 7511,
    "\u25810x52662a4": 7512,
    "\u25810x52662b8": 7513,
    "\u25810x52662cc": 7514,
    "\u25810x52662e0": 7515,
    "\u25810x52662f4": 7516,
    "\u25810x5266308": 7517,
    "\u25810x526631c": 7518,
    "\u25810x5266330": 7519,
    "\u25810x5266344": 7520,
    "\u25810x5266358": 7521,
    "\u25810x526636c": 7522,
    "\u25810x5266380": 7523,
    "\u25810x5266394": 7524,
    "\u25810xfeee00cf": 7525,
    "1a8": 7526,
    "anf": 7527,
    "4720": 7528,
    "bc20": 7529,
    "\u25810xbd4": 7530,
    "\u25810x3b00": 7531,
    "\u25810x7320": 7532,
    "\u25810x120de": 7533,
    "\u25810x403004": 7534,
    "\u25810x403008": 7535,
    "\u25810x1211e88": 7536,
    "\u2581gethostbyname": 7537,
    "ds": 7538,
    "6b1": 7539,
    "afb": 7540,
    "e55": 7541,
    "hip": 7542,
    "78de": 7543,
    "8c38": 7544,
    "\u25810x5a1": 7545,
    "\u25810xff92": 7546,
    "\u25810x350034": 7547,
    "\u25810x370036": 7548,
    "\u25810x2100302": 7549,
    "\u25810x2200210": 7550,
    "\u2581getprofile": 7551,
    "e70": 7552,
    "16a6": 7553,
    "24c7": 7554,
    "2cb4": 7555,
    "\u2581sup": 7556,
    "90038": 7557,
    "\u25810x7e98": 7558,
    "\u25810x7e99": 7559,
    "\u2581device": 7560,
    "\u25810x390038": 7561,
    "\u25810x3b003a": 7562,
    "visualfoxpr": 7563,
    "\u2581destroywindow": 7564,
    "fx": 7565,
    "586": 7566,
    "67c": 7567,
    "\u2581sk": 7568,
    "11d8": 7569,
    "84d8": 7570,
    "bers": 7571,
    "e600": 7572,
    "fccf": 7573,
    "inki": 7574,
    "\u25810x4d4": 7575,
    "aaaaaaa": 7576,
    "\u25810x7020": 7577,
    "\u25810x310030": 7578,
    "\u25810x330032": 7579,
    "\u25810x1211923": 7580,
    "\u2581module32first": 7581,
    "aaaaaaaaaaaaaaa": 7582,
    "\u2581aaaaaaaaaaaaaaaaa": 7583,
    "\u2581aaaaaaaaaaaaaaaaaaaaaaaaaaaaaaaa": 7584,
    "3b9": 7585,
    "aef": 7586,
    "\u2581not": 7587,
    "91000": 7588,
    "tions": 7589,
    "loading": 7590,
    "\u25810x413a": 7591,
    "\u2581choose": 7592,
    "\u25810x421030": 7593,
    "\u25810x7eabc0": 7594,
    "\u25810x1210f60": 7595,
    "\u25810x1211df4": 7596,
    "ou": 7597,
    "7ed": 7598,
    "0008": 7599,
    "e5c0": 7600,
    "ed60": 7601,
    "hash": 7602,
    "anfdr": 7603,
    "olcid": 7604,
    "enamet": 7605,
    "\u25810x38c": 7606,
    "members": 7607,
    "\u25810x7e9c": 7608,
    "\u25810x7e9d": 7609,
    "\u2581cancel": 7610,
    "\u2581sanfdr": 7611,
    "\u25810x697864": 7612,
    "\u2581dialogbox": 7613,
    "enametolcid": 7614,
    "\u2581localenametolcid": 7615,
    "3dc": 7616,
    "610": 7617,
    "ofit": 7618,
    "65000": 7619,
    "respon": 7620,
    "\u25810x570": 7621,
    "details": 7622,
    "\u25810x40c8": 7623,
    "\u25810x7ea4": 7624,
    "\u25810x8ef0": 7625,
    "\u25810xa010": 7626,
    "\u2581getstringtypea": 7627,
    "1ec": 7628,
    "d54": 7629,
    "a9c0": 7630,
    "b429": 7631,
    "b4ad": 7632,
    "f538": 7633,
    "\u2581old": 7634,
    "98527c": 7635,
    "output": 7636,
    "\u25810x5d0": 7637,
    "\u25810x614": 7638,
    "\u25810x40f1": 7639,
    "\u25810x4150": 7640,
    "\u25810x4bc0": 7641,
    "\u25810x7ea1": 7642,
    "\u25810xd27d5": 7643,
    "\u25810x4899b9": 7644,
    "\u25810x4919d0": 7645,
    "\u25810x491a5c": 7646,
    "\u25810x491a74": 7647,
    "membership": 7648,
    "\u25810x120ff74": 7649,
    "\u2581movefilea": 7650,
    "\u25810xfeee00d6": 7651,
    "\u2581charlowerw": 7652,
    "\u2581checktoken": 7653,
    "\u2581checktokenmembership": 7654,
    "ach": 7655,
    "\u2581sp": 7656,
    "6900": 7657,
    "b4f9": 7658,
    "ceff": 7659,
    "orig": 7660,
    "which": 7661,
    "\u25810x980": 7662,
    "\u2581excep": 7663,
    "\u25810x4174": 7664,
    "\u25810x44d3": 7665,
    "\u25810x44ee": 7666,
    "\u25810x7ead": 7667,
    "\u25810x1211df8": 7668,
    "\u2581getdibits": 7669,
    "\u25810xfeee00d5": 7670,
    "\u2581getfiletime": 7671,
    "556": 7672,
    "916": 7673,
    "f99": 7674,
    "\u2581eh": 7675,
    "3718": 7676,
    "a57b": 7677,
    "a6b4": 7678,
    "e0c0": 7679,
    "\u2581skip": 7680,
    "\u25810x5d3": 7681,
    "\u25810x419a": 7682,
    "\u25810x7ea5": 7683,
    "\u25810x86d8": 7684,
    "\u25810xa263": 7685,
    "\u2581crtdll": 7686,
    "\u2581getmenu": 7687,
    "\u25810x42a730": 7688,
    "\u25810x42a731": 7689,
    "\u25810x4c4230": 7690,
    "\u25810x4c4248": 7691,
    "\u25810x4c4260": 7692,
    "\u25810x4c4278": 7693,
    "\u25810x4c4290": 7694,
    "\u25810x4c42a8": 7695,
    "\u25810x4c4320": 7696,
    "\u25810x4c4338": 7697,
    "\u25810x4c4350": 7698,
    "\u25810x4c4368": 7699,
    "gs": 7700,
    "655": 7701,
    "d0e": 7702,
    "fd6": 7703,
    "3cd8": 7704,
    "98c0": 7705,
    "a2f8": 7706,
    "swith": 7707,
    "\u25810x4154": 7708,
    "\u25810x4184": 7709,
    "\u25810x419b": 7710,
    "\u25810x7ce1": 7711,
    "original": 7712,
    "\u25810x41de48": 7713,
    "\u25810x1211ec4": 7714,
    "5bc": 7715,
    "d94": 7716,
    "f3f": 7717,
    "izn": 7718,
    "b2b1": 7719,
    "e190": 7720,
    "f638": 7721,
    "72852": 7722,
    "\u2581exed": 7723,
    "\u2581hels": 7724,
    "edfrom": 7725,
    "iznadm": 7726,
    "willex": 7727,
    "\u25810x5e0": 7728,
    "\u25810x46b5": 7729,
    "\u25810x7e66": 7730,
    "\u25810x7ea0": 7731,
    "\u25810x7ed8": 7732,
    "\u2581associ": 7733,
    "\u2581backup": 7734,
    "\u25810x350b8": 7735,
    "\u25810x4093a4": 7736,
    "\u25810x4093ac": 7737,
    "\u25810x43a480": 7738,
    "\u25810x44c280": 7739,
    "\u25810x44d500": 7740,
    "\u25810x566b14": 7741,
    "\u2581helsinki": 7742,
    "\u2581triznadm": 7743,
    "\u2581getmenuinfo": 7744,
    "\u2581createfontindirecta": 7745,
    "wo": 7746,
    "191": 7747,
    "3f0": 7748,
    "7c7": 7749,
    "a66": 7750,
    "7d24": 7751,
    "atal": 7752,
    "bc97": 7753,
    "cons": 7754,
    "exist": 7755,
    "\u25810x248": 7756,
    "\u25810x45e": 7757,
    "\u25810x40de": 7758,
    "\u25810x441f": 7759,
    "\u25810x40b840": 7760,
    "istingfile": 7761,
    "219": 7762,
    "2a7": 7763,
    "7f8": 7764,
    "e0f": 7765,
    "f35": 7766,
    "\u258167": 7767,
    "2068": 7768,
    "2f00": 7769,
    "7940": 7770,
    "add0": 7771,
    "da34": 7772,
    "e4c0": 7773,
    "fc20": 7774,
    "fine": 7775,
    "382d9": 7776,
    "ontac": 7777,
    "ustbe": 7778,
    "\u25810x108": 7779,
    "\u25810x1fe": 7780,
    "\u25810x3f26": 7781,
    "111": 7782,
    "a14": 7783,
    "b8b": 7784,
    "dup": 7785,
    "ore": 7786,
    "23d8": 7787,
    "28de": 7788,
    "3382": 7789,
    "5578": 7790,
    "a880": 7791,
    "b1e0": 7792,
    "seto": 7793,
    "a9000": 7794,
    "\u25810x358": 7795,
    "\u25810x1880": 7796,
    "\u25810x73d0": 7797,
    "\u25810x7ea8": 7798,
    "\u2581youmay": 7799,
    "helpdesk": 7800,
    "installer": 7801,
    "\u25810x1211118": 7802,
    "\u2581temporary": 7803,
    "225": 7804,
    "3d6": 7805,
    "ae3": 7806,
    "dd5": 7807,
    "dxf": 7808,
    "ide": 7809,
    "isa": 7810,
    "suc": 7811,
    "384c": 7812,
    "8000": 7813,
    "allh": 7814,
    "b148": 7815,
    "b374": 7816,
    "b3f8": 7817,
    "bccc": 7818,
    "core": 7819,
    "damm": 7820,
    "duet": 7821,
    "edby": 7822,
    "illb": 7823,
    "succ": 7824,
    "thec": 7825,
    "\u25812to": 7826,
    "952e8": 7827,
    "acode": 7828,
    "befor": 7829,
    "beren": 7830,
    "clear": 7831,
    "eceiv": 7832,
    "enthe": 7833,
    "ercon": 7834,
    "fully": 7835,
    "phone": 7836,
    "sible": 7837,
    "textw": 7838,
    "tocon": 7839,
    "\u2581clic": 7840,
    "\u2581when": 7841,
    "\u2581zipp": 7842,
    "allzip": 7843,
    "arenot": 7844,
    "custom": 7845,
    "dcodes": 7846,
    "etocon": 7847,
    "forany": 7848,
    "frames": 7849,
    "fromth": 7850,
    "iresin": 7851,
    "licenc": 7852,
    "ofitss": 7853,
    "pirein": 7854,
    "rectly": 7855,
    "sation": 7856,
    "setthe": 7857,
    "stothe": 7858,
    "succes": 7859,
    "willbe": 7860,
    "\u25810x6a0": 7861,
    "\u2581fatal": 7862,
    "\u2581yours": 7863,
    "ageduet": 7864,
    "allhisp": 7865,
    "artners": 7866,
    "ateback": 7867,
    "between": 7868,
    "codeexp": 7869,
    "ecodeis": 7870,
    "hotline": 7871,
    "ingyour": 7872,
    "iration": 7873,
    "orutili": 7874,
    "ressthe": 7875,
    "stoyour": 7876,
    "youwant": 7877,
    "\u25810x1861": 7878,
    "\u25810x7712": 7879,
    "\u25810x7718": 7880,
    "\u25810x7ecc": 7881,
    "\u25810x7ecd": 7882,
    "\u2581contac": 7883,
    "customer": 7884,
    "inyourpc": 7885,
    "ldongles": 7886,
    "validfor": 7887,
    "verwrite": 7888,
    "yourcode": 7889,
    "\u25810x103ff": 7890,
    "\u2581allregi": 7891,
    "\u2581already": 7892,
    "\u2581pleases": 7893,
    "allregist": 7894,
    "eredcodes": 7895,
    "incadwork": 7896,
    "releaseto": 7897,
    "\u25810x42c070": 7898,
    "\u25810x42c0a8": 7899,
    "\u2581printing": 7900,
    "\u2581tocreate": 7901,
    "\u2581unsetthe": 7902,
    "andallhisp": 7903,
    "foranydamm": 7904,
    "licencefor": 7905,
    "userprofil": 7906,
    "ageduetothe": 7907,
    "etocontinue": 7908,
    "laserframes": 7909,
    "responsible": 7910,
    "succesfully": 7911,
    "yourcadwork": 7912,
    "\u2581bordergrey": 7913,
    "\u2581clientinfo": 7914,
    "originalfile": 7915,
    "sandcatalogs": 7916,
    "sationofitss": 7917,
    "willexpirein": 7918,
    "\u2581intermediat": 7919,
    "\u2581zippedfiles": 7920,
    "artnersarenot": 7921,
    "codeexpiresin": 7922,
    "stothedefault": 7923,
    "\u2581sinformation": 7924,
    "\u2581variantclear": 7925,
    "customernumber": 7926,
    "\u2581allregistries": 7927,
    "\u2581borderwindows": 7928,
    "\u2581pleasecallyour": 7929,
    "\u2581installationfor": 7930,
    "yourcadworkdealer": 7931,
    "\u2581intermediateback": 7932,
    "\u2581openanexploreron": 7933,
    "\u2581unsetthedownload": 7934,
    "allcadworksoftware": 7935,
    "allregisteredcodes": 7936,
    "forcadworkhavebeen": 7937,
    "isalreadyinstalled": 7938,
    "\u2581cadworkinformatik": 7939,
    "\u2581printslaserframes": 7940,
    "installationorutili": 7941,
    "licencewillexpirein": 7942,
    "sationofitssoftware": 7943,
    "sandcatalogsinyourpc": 7944,
    "foranydammageduetothe": 7945,
    "\u2581downloadfrominternet": 7946,
    "andallhispartnersarenot": 7947,
    "\u2581doyoureallywanttoremov": 7948,
    "\u2581temporarycodeexpiresin": 7949,
    "\u2581thisprogramwillinstall": 7950,
    "responsibleforanydammageduetothe": 7951,
    "\u2581allregistriesforcadworkhavebeen": 7952,
    "allcadworksoftwaresandcatalogsinyourpc": 7953,
    "installationorutilisationofitssoftware": 7954,
    "\u2581downloadfrominternetallregisteredcodes": 7955,
    "\u2581cadworkinformatikandallhispartnersarenot": 7956,
    "\u2581thisprogramwillinstallallcadworksoftwaresandcatalogsinyourpc": 7957,
    "138": 7958,
    "3a0": 7959,
    "530": 7960,
    "bc48": 7961,
    "cache": 7962,
    "entrys": 7963,
    "\u25810x124": 7964,
    "\u25810x190": 7965,
    "\u25810x702": 7966,
    "\u2581explorer": 7967,
    "entryslist": 7968,
    "\u25810x1211a00": 7969,
    "\u2581installonly": 7970,
    "2d1": 7971,
    "34b": 7972,
    "799": 7973,
    "9a4": 7974,
    "9e1": 7975,
    "be9": 7976,
    "d61": 7977,
    "\u2581qt": 7978,
    "\u2581x8": 7979,
    "b474": 7980,
    "e1ea": 7981,
    "glti": 7982,
    "db480": 7983,
    "reated": 7984,
    "\u25810x44b": 7985,
    "\u25810x5d1": 7986,
    "\u25810x4484": 7987,
    "\u25810x4527": 7988,
    "\u2581exedows": 7989,
    "\u25810x468bb8": 7990,
    "\u2581getkeystate": 7991,
    "590": 7992,
    "c23": 7993,
    "c84": 7994,
    "f66": 7995,
    "f8a": 7996,
    "fb9": 7997,
    "9498": 7998,
    "imag": 7999,
    "tility": 8000,
    "\u2581utility": 8001,
    "\u25810x53e4a0": 8002,
    "\u25810x1210f20": 8003,
    "\u25810x121198c": 8004,
    "\u25810x2357bc0": 8005,
    "14d": 8006,
    "3c1": 8007,
    "51c": 8008,
    "66aa": 8009,
    "69bc": 8010,
    "a2af": 8011,
    "b3f0": 8012,
    "seek": 8013,
    "active": 8014,
    "device": 8015,
    "\u25810x1210e80": 8016,
    "\u25810xfeee00da": 8017,
    "e34": 8018,
    "\u2581rb": 8019,
    "5075": 8020,
    "\u25810x458": 8021,
    "\u25810x4051": 8022,
    "\u25810x40d7": 8023,
    "\u25810x47ed": 8024,
    "\u25810x70ac": 8025,
    "\u25810x7d68": 8026,
    "\u25810x8f90": 8027,
    "\u2581sprintf": 8028,
    "\u25810x429a81": 8029,
    "\u2581fillrect": 8030,
    "dy": 8031,
    "2e2": 8032,
    "35c": 8033,
    "7c6c": 8034,
    "92000": 8035,
    "ysical": 8036,
    "\u25810x613": 8037,
    "\u25810x654": 8038,
    "\u25810x8ae0": 8039,
    "\u2581cocreate": 8040,
    "\u25810x1210f35": 8041,
    "onthiscomputer": 8042,
    "\u2581createdibsection": 8043,
    "511": 8044,
    "960": 8045,
    "bb1": 8046,
    "dc9": 8047,
    "f11": 8048,
    "fop": 8049,
    "15bc": 8050,
    "c790": 8051,
    "e243": 8052,
    "utor": 8053,
    "nenum": 8054,
    "utorial": 8055,
    "\u25810x120e": 8056,
    "\u25810x40d5": 8057,
    "\u25810x42ea": 8058,
    "\u25810x44c0": 8059,
    "ingcadwork": 8060,
    "\u25810x120ce80": 8061,
    "\u25810x1210f98": 8062,
    "\u25810x1211e18": 8063,
    "\u25810x1211e60": 8064,
    "\u2581pleasewait": 8065,
    "uninitialize": 8066,
    "241": 8067,
    "2b7": 8068,
    "5118": 8069,
    "9042": 8070,
    "e2f8": 8071,
    "dc1b4": 8072,
    "\u2581inet": 8073,
    "\u25810x2ac": 8074,
    "\u25810x5cc": 8075,
    "\u25810x94f0": 8076,
    "\u2581manager": 8077,
    "\u25810x6970a0": 8078,
    "instructioncache": 8079,
    "\u2581flushinstructioncache": 8080,
    "917": 8081,
    "ce2": 8082,
    "a478": 8083,
    "d22c": 8084,
    "db58": 8085,
    "dows": 8086,
    "\u2581sets": 8087,
    "\u25810x8d90": 8088,
    "\u25810x8f10": 8089,
    "44444444": 8090,
    "\u25810x300174": 8091,
    "\u25810x40a3f0": 8092,
    "\u25810x447f4c": 8093,
    "\u25810x572c10": 8094,
    "\u25810x1210e60": 8095,
    "\u2581globalhandle": 8096,
    "\u2581sessionmanager": 8097,
    "311": 8098,
    "515": 8099,
    "dio": 8100,
    "4248": 8101,
    "de7f": 8102,
    "e445": 8103,
    "ight": 8104,
    "\u25810x17a": 8105,
    "\u25810x23c": 8106,
    "\u25810x436": 8107,
    "\u25810x4ad": 8108,
    "isation": 8109,
    "\u25810x4050": 8110,
    "\u25810x52000": 8111,
    "atomnamea": 8112,
    "microsoft": 8113,
    "\u25810x4093d1": 8114,
    "\u25810x4093d2": 8115,
    "\u25810x4093d3": 8116,
    "\u25810x40a3d0": 8117,
    "\u25810x4168c8": 8118,
    "\u25810x416900": 8119,
    "\u25810x416938": 8120,
    "\u25810x417d68": 8121,
    "\u25810x567020": 8122,
    "bitmapbits": 8123,
    "yourauthor": 8124,
    "\u25810xd27d571f": 8125,
    "\u2581localfilet": 8126,
    "yourauthorisation": 8127,
    "\u2581localfiletimetofiletime": 8128,
    "a91": 8129,
    "1069": 8130,
    "extex": 8131,
    "\u25810x5d5": 8132,
    "\u25810x40c9": 8133,
    "datetime": 8134,
    "emodified": 8135,
    "directoryto": 8136,
    "\u2581getwindowdc": 8137,
    "\u2581showrunning": 8138,
    "\u2581showrunninglicences": 8139,
    "398": 8140,
    "6b4": 8141,
    "a52": 8142,
    "e3a": 8143,
    "6c40": 8144,
    "7140": 8145,
    "e860": 8146,
    "f8d0": 8147,
    "a5000": 8148,
    "\u2581ming": 8149,
    "\u2581recv": 8150,
    "\u25810x550": 8151,
    "\u25810x414a": 8152,
    "\u25810x4374": 8153,
    "\u25810x8830": 8154,
    "\u25810x437ae4": 8155,
    "\u25810x1210e28": 8156,
    "\u2581readconsolew": 8157,
    "lu": 8158,
    "161": 8159,
    "540": 8160,
    "6b9": 8161,
    "16e7": 8162,
    "61a0": 8163,
    "73e3": 8164,
    "d3ff": 8165,
    "f888": 8166,
    "\u25810xbca": 8167,
    "\u25810x8080": 8168,
    "\u25810xfff0": 8169,
    "openenum": 8170,
    "\u25810x437207": 8171,
    "\u25810x437208": 8172,
    "\u25810x437ad2": 8173,
    "\u25810x437ad3": 8174,
    "\u25810x437ae3": 8175,
    "\u25810x437b63": 8176,
    "\u25810x437b64": 8177,
    "\u25810x437b7b": 8178,
    "\u25810x437b7c": 8179,
    "\u25810x437bbd": 8180,
    "\u25810x437bbe": 8181,
    "\u25810x437bce": 8182,
    "\u25810x437bcf": 8183,
    "\u25810x437c42": 8184,
    "\u25810x437c43": 8185,
    "\u25810x5714ec": 8186,
    "\u25810x1210ef0": 8187,
    "\u25810x1210f40": 8188,
    "\u25810x1211850": 8189,
    "\u2581wnetopenenum": 8190,
    "6a3": 8191,
    "bin": 8192,
    "ec1": 8193,
    "f9c": 8194,
    "fab": 8195,
    "18ff": 8196,
    "2838": 8197,
    "75ce": 8198,
    "7819": 8199,
    "bd58": 8200,
    "c3da": 8201,
    "\u2581mfc": 8202,
    "ee430": 8203,
    "eentry": 8204,
    "\u25810x280": 8205,
    "\u25810x18cc": 8206,
    "\u25810x4720": 8207,
    "\u25810x23534": 8208,
    "\u25810x44b768": 8209,
    "\u25810x452898": 8210,
    "dosdatetime": 8211,
    "\u2581wnetopenenumw": 8212,
    "\u2581filetimetodosdatetime": 8213,
    "77f": 8214,
    "f94": 8215,
    "34b8": 8216,
    "352c": 8217,
    "3844": 8218,
    "438c": 8219,
    "b554": 8220,
    "df40": 8221,
    "\u25810x4c1": 8222,
    "etchblt": 8223,
    "visible": 8224,
    "\u25810x4069": 8225,
    "\u25810x4155": 8226,
    "\u25810x42e9": 8227,
    "\u25810x4820": 8228,
    "\u25810x429e2b": 8229,
    "\u25810x429e2c": 8230,
    "\u25810x42ff40": 8231,
    "\u25810x434d1c": 8232,
    "\u25810x43b7a9": 8233,
    "\u25810x43b7aa": 8234,
    "\u25810x43b7b8": 8235,
    "\u25810x4c5158": 8236,
    "\u25810x1211480": 8237,
    "\u25810xfeee00d8": 8238,
    "\u2581getbitmapbits": 8239,
    "517": 8240,
    "6d5": 8241,
    "7fc": 8242,
    "ae6": 8243,
    "b33": 8244,
    "idi": 8245,
    "37e2": 8246,
    "5c68": 8247,
    "aaf6": 8248,
    "fcc8": 8249,
    "bd000": 8250,
    "dynam": 8251,
    "\u25810x2d0": 8252,
    "\u25810x4098": 8253,
    "\u25810x7e54": 8254,
    "\u25810x7e55": 8255,
    "\u25810x422ebe": 8256,
    "\u25810x43b7b3": 8257,
    "\u25810x43b7b4": 8258,
    "\u25810x43b7ba": 8259,
    "\u25810x43b7c4": 8260,
    "\u25810x13121110": 8261,
    "\u2581cocreateinst": 8262,
    "dp": 8263,
    "91a": 8264,
    "e1d": 8265,
    "12a0": 8266,
    "75e4": 8267,
    "bd74": 8268,
    "f9e9": 8269,
    "\u2581stdio": 8270,
    "\u25810x574c": 8271,
    "\u25810x7714": 8272,
    "outputcp": 8273,
    "\u25810x1210ebc": 8274,
    "\u25810x1210f34": 8275,
    "\u25810x121191c": 8276,
    "\u25810x3b7fb98": 8277,
    "\u25810x3b7fbe0": 8278,
    "\u25810x52663a8": 8279,
    "\u25810xfeee00d9": 8280,
    "243": 8281,
    "3e1": 8282,
    "581": 8283,
    "9a2": 8284,
    "mit": 8285,
    "59bc": 8286,
    "9138": 8287,
    "c055": 8288,
    "f444": 8289,
    "64a30": 8290,
    "\u25810x518": 8291,
    "dynamic": 8292,
    "\u25810x42b2": 8293,
    "\u25810x433f": 8294,
    "\u25810x41f738": 8295,
    "\u25810x7023d8": 8296,
    "\u25810x52663bc": 8297,
    "\u25810x52663d0": 8298,
    "\u25810x52663e4": 8299,
    "\u25810x58000000": 8300,
    "\u2581gettimeformatw": 8301,
    "12a": 8302,
    "20e": 8303,
    "5c7": 8304,
    "6f8": 8305,
    "\u2581ph": 8306,
    "2268": 8307,
    "341f": 8308,
    "7168": 8309,
    "84f2": 8310,
    "92d0": 8311,
    "9c8c": 8312,
    "a67c": 8313,
    "a7e6": 8314,
    "d4d8": 8315,
    "eb50": 8316,
    "\u2581lls": 8317,
    "iocon": 8318,
    "mount": 8319,
    "\u25810x680": 8320,
    "\u25810x8b8": 8321,
    "\u25810x405c": 8322,
    "\u25810x414b": 8323,
    "\u25810x7eb1": 8324,
    "\u2581llseek": 8325,
    "\u25810x1211d10": 8326,
    "\u2581expandenvironmentstringsw": 8327,
    "6da": 8328,
    "7a7": 8329,
    "5c7c": 8330,
    "6460": 8331,
    "7519": 8332,
    "7e70": 8333,
    "9c74": 8334,
    "9ca0": 8335,
    "e748": 8336,
    "ofmb": 8337,
    "\u25810x17d4": 8338,
    "\u2581amount": 8339,
    "\u2581msvcr80": 8340,
    "\u2581launcher": 8341,
    "\u25810x2100301": 8342,
    "\u25810x3020382": 8343,
    "\u25810x3820210": 8344,
    "\u25810x52663f8": 8345,
    "\u25810x526640c": 8346,
    "\u25810x5266420": 8347,
    "\u25810x5266434": 8348,
    "\u25810x5266448": 8349,
    "\u25810x526645c": 8350,
    "\u25810x5266470": 8351,
    "\u25810x5266484": 8352,
    "\u25810x5266498": 8353,
    "\u25810x52664ac": 8354,
    "\u25810x52664c0": 8355,
    "\u25810x52664d4": 8356,
    "\u25810x52664e8": 8357,
    "\u25810x52664fc": 8358,
    "\u25810x5266510": 8359,
    "\u25810x5266524": 8360,
    "\u25810x5266538": 8361,
    "\u25810x526654c": 8362,
    "\u25810x5266560": 8363,
    "\u25810x5266574": 8364,
    "\u25810x5266588": 8365,
    "\u25810x526659c": 8366,
    "\u25810x52665b0": 8367,
    "\u25810x52665c4": 8368,
    "\u25810x52665d8": 8369,
    "\u25810x52665ec": 8370,
    "\u25810x5266600": 8371,
    "\u25810x5266614": 8372,
    "\u25810x5266628": 8373,
    "\u25810x526663c": 8374,
    "\u25810x5266650": 8375,
    "\u25810x5266664": 8376,
    "\u25810x5266678": 8377,
    "\u25810x526668c": 8378,
    "\u25810x52666a0": 8379,
    "\u25810x52666b4": 8380,
    "\u25810x52666c8": 8381,
    "\u25810x52666dc": 8382,
    "\u25810x52666f0": 8383,
    "\u25810x5266704": 8384,
    "\u25810x5266718": 8385,
    "\u25810x526672c": 8386,
    "\u25810x5266740": 8387,
    "\u25810x5266754": 8388,
    "\u25810x5266768": 8389,
    "\u25810x526677c": 8390,
    "\u25810x5266790": 8391,
    "\u2581amountofmb": 8392,
    "\u2581deviceiocon": 8393,
    "b32": 8394,
    "d47": 8395,
    "3f20": 8396,
    "6948": 8397,
    "784d": 8398,
    "a20c": 8399,
    "a370": 8400,
    "b850": 8401,
    "d0f8": 8402,
    "d956": 8403,
    "\u2581184": 8404,
    "\u25810x1a0": 8405,
    "erclass": 8406,
    "utility": 8407,
    "\u25810x452c": 8408,
    "\u25810x8c20": 8409,
    "\u25810xff93": 8410,
    "resourcew": 8411,
    "\u25810x1210e00": 8412,
    "\u25810x1210ecc": 8413,
    "\u25810x1211898": 8414,
    "\u2581getconsoleoutputcp": 8415,
    "505": 8416,
    "9108": 8417,
    "ad88": 8418,
    "ae40": 8419,
    "ance": 8420,
    "ee38": 8421,
    "hort": 8422,
    "\u2581dac": 8423,
    "atethe": 8424,
    "\u25810x4b2": 8425,
    "\u25810x4d0": 8426,
    "\u25810x4360": 8427,
    "\u25810x8820": 8428,
    "opwindow": 8429,
    "\u25810x40f640": 8430,
    "\u25810x4e5c48": 8431,
    "\u2581wnetenum": 8432,
    "\u25810x1211e78": 8433,
    "\u25810x1211eec": 8434,
    "dynamiclink": 8435,
    "uldnotbelocated": 8436,
    "dynamiclinklibrary": 8437,
    "\u2581wnetenumresourcew": 8438,
    "501": 8439,
    "ae4": 8440,
    "e30": 8441,
    "e64": 8442,
    "721c": 8443,
    "9eac": 8444,
    "b2b5": 8445,
    "f922": 8446,
    "cc000": 8447,
    "\u2581e000": 8448,
    "\u25810x3b6": 8449,
    "\u25810xc74": 8450,
    "\u25810x7eb4": 8451,
    "\u25810x7eb5": 8452,
    "\u25810x9170": 8453,
    "\u25810x5026c": 8454,
    "\u25810x42b408": 8455,
    "\u2581getshort": 8456,
    "\u2581unregist": 8457,
    "\u25810x1210e50": 8458,
    "\u2581deviceiocontrol": 8459,
    "uldnotbelocatedinthe": 8460,
    "162": 8461,
    "5fb": 8462,
    "9c6": 8463,
    "9f2": 8464,
    "4656": 8465,
    "53b0": 8466,
    "7868": 8467,
    "ee00": 8468,
    "\u25810x696": 8469,
    "\u25810xa6c": 8470,
    "\u25810x4660": 8471,
    "\u25810x706c": 8472,
    "\u25810x9040": 8473,
    "\u25810x9850": 8474,
    "80004005": 8475,
    "\u25810x484003": 8476,
    "\u25810x484004": 8477,
    "\u25810x484005": 8478,
    "\u25810x484006": 8479,
    "\u25810x484007": 8480,
    "\u25810x484008": 8481,
    "\u25810x484009": 8482,
    "\u25810x48400a": 8483,
    "\u25810x48400b": 8484,
    "\u25810x48400c": 8485,
    "\u25810x48400d": 8486,
    "\u25810x48400e": 8487,
    "\u25810x48400f": 8488,
[...]
