{
    "<pad>": 0,
    "<unk>": 1,
    "<mask>": 2,
    "\u25810": 3,
    "\u25810x": 4,
    "00": 5,
    "er": 6,
    "ne": 7,
    "32": 8,
    "\u2581k": 9,
    "l32": 10,
    "erne": 11,
    "\u2581kerne": 12,
    "\u2581kernel32": 13,
    "et": 14,
    "\u25810x4": 15,
    "\u25810x1": 16,
    "ee": 17,
    "\u25810x0": 18,
    "get": 19,
    "al": 20,
    "ti": 21,
    "\u25810xf": 22,
    "0000": 23,
    "\u2581get": 24,
    "ec": 25,
    "in": 26,
    "ad": 27,
    "oc": 28,
    "\u25810x7": 29,
    "re": 30,
    "eee": 31,
    "\u25810xfeee": 32,
    "st": 33,
    "\u25810xfeee00": 34,
    "iti": 35,
    "le": 36,
    "ss": 37,
    "pr": 38,
    "proc": 39,
    "one": 40,
    "ar": 41,
    "\u2581getproc": 42,
    "dre": 43,
    "addre": 44,
    "address": 45,
    "\u2581getprocaddress": 46,
    "\u25810x77": 47,
    "\u2581c": 48,
    "val": 49,
    "ls": 50,
    "us": 51,
    "ue": 52,
    "\u25810x12": 53,
    "value": 54,
    "cal": 55,
    "user": 56,
    "sec": 57,
    "secti": 58,
    "000000": 59,
    "\u2581user": 60,
    "riti": 61,
    "ritical": 62,
    "riticalsecti": 63,
    "on": 64,
    "\u2581user32": 65,
    "\u2581n": 66,
    "getvalue": 67,
    "lsgetvalue": 68,
    "\u2581none": 69,
    "\u25810x40": 70,
    "or": 71,
    "\u25810xfeee000": 72,
    "loc": 73,
    "\u25810x77000000": 74,
    "\u2581s": 75,
    "\u25810x121": 76,
    "har": 77,
    "en": 78,
    "ter": 79,
    "ff": 80,
    "ecriticalsecti": 81,
    "te": 82,
    "de": 83,
    "\u25810x1211": 84,
    "ap": 85,
    "la": 86,
    "xt": 87,
    "\u2581in": 88,
    "next": 89,
    "\u2581f": 90,
    "\u2581char": 91,
    "err": 92,
    "\u2581t": 93,
    "f0": 94,
    "\u2581charnext": 95,
    "error": 96,
    "\u25810x46": 97,
    "\u2581l": 98,
    "last": 99,
    "lasterror": 100,
    "a0": 101,
    "000": 102,
    "\u25810xfeee0001": 103,
    "is": 104,
    "\u2581tlsgetvalue": 105,
    "by": 106,
    "str": 107,
    "an": 108,
    "\u2581m": 109,
    "iz": 110,
    "aliz": 111,
    "itializ": 112,
    "\u2581initializ": 113,
    "\u2581initializecriticalsecti": 114,
    "bc": 115,
    "he": 116,
    "\u2581is": 117,
    "\u2581set": 118,
    "\u2581en": 119,
    "alloc": 120,
    "co": 121,
    "and": 122,
    "\u25810x8": 123,
    "\u25810x5": 124,
    "heap": 125,
    "byte": 126,
    "\u2581heap": 127,
    "\u25810xfa0": 128,
    "po": 129,
    "\u2581charnexta": 130,
    "ing": 131,
    "lea": 132,
    "\u25810x45": 133,
    "\u2581flsgetvalue": 134,
    "em": 135,
    "string": 136,
    "ow": 137,
    "\u25810x409": 138,
    "\u2581d": 139,
    "\u2581lo": 140,
    "00000": 141,
    "\u2581load": 142,
    "poin": 143,
    "\u25810x100": 144,
    "\u25810x2": 145,
    "90": 146,
    "\u2581w": 147,
    "40": 148,
    "dbc": 149,
    "pointer": 150,
    "lead": 151,
    "dbcs": 152,
    "\u2581isdbcs": 153,
    "\u2581isdbcslead": 154,
    "66": 155,
    "\u2581isdbcsleadbyte": 156,
    "depointer": 157,
    "\u25810x4093": 158,
    "onex": 159,
    "fi": 160,
    "local": 161,
    "10": 162,
    "\u2581initializecriticalsectionex": 163,
    "\u2581getlasterror": 164,
    "nt": 165,
    "\u25810xc": 166,
    "inf": 167,
    "id": 168,
    "\u25810x10": 169,
    "\u25810x43": 170,
    "\u2581setlasterror": 171,
    "\u25810x40a": 172,
    "60": 173,
    "\u25810x45f0": 174,
    "rt": 175,
    "hand": 176,
    "\u2581heapalloc": 177,
    "d0": 178,
    "\u25810x400000": 179,
    "ind": 180,
    "\u25810x3": 181,
    "e4": 182,
    "\u25810x42": 183,
    "mo": 184,
    "stem": 185,
    "ecriticalsection": 186,
    "read": 187,
    "ystem": 188,
    "ll": 189,
    "leav": 190,
    "\u2581leav": 191,
    "\u2581leavecriticalsection": 192,
    "criticalsecti": 193,
    "criticalsection": 194,
    "tercriticalsection": 195,
    "\u2581entercriticalsection": 196,
    "info": 197,
    "ffff": 198,
    "li": 199,
    "locale": 200,
    "\u2581ms": 201,
    "indow": 202,
    "cm": 203,
    "\u2581loadstring": 204,
    "du": 205,
    "\u25810x41": 206,
    "\u2581enco": 207,
    "\u2581encodepointer": 208,
    "ul": 209,
    "\u25810x40a5": 210,
    "\u2581charnextw": 211,
    "10000": 212,
    "dule": 213,
    "module": 214,
    "vc": 215,
    "\u2581dll": 216,
    "\u2581getmodule": 217,
    "\u2581msvc": 218,
    "\u2581initializecriticalsection": 219,
    "\u2581msvcrt": 220,
    "50": 221,
    "\u25810x4e4": 222,
    "ex": 223,
    "\u25810xff": 224,
    "ur": 225,
    "infoa": 226,
    "\u25810xc000": 227,
    "me": 228,
    "ulti": 229,
    "indows": 230,
    "idec": 231,
    "idechar": 232,
    "\u2581getlocale": 233,
    "\u2581loadstringa": 234,
    "78": 235,
    "f8": 236,
    "ent": 237,
    "c0": 238,
    "unt": 239,
    "\u2581windows": 240,
    "ke": 241,
    "70": 242,
    "eco": 243,
    "\u25810x1000": 244,
    "vi": 245,
    "handle": 246,
    "\u2581system": 247,
    "ac": 248,
    "br": 249,
    "ree": 250,
    "count": 251,
    "\u2581system32": 252,
    "ary": 253,
    "ess": 254,
    "file": 255,
    "dr": 256,
    "\u25810x4690": 257,
    "brary": 258,
    "30": 259,
    "l66": 260,
    "\u2581getc": 261,
    "op": 262,
    "cmp": 263,
    "\u25810x6": 264,
    "\u2581getlocaleinfoa": 265,
    "l6660": 266,
    "\u25810x44": 267,
    "\u25810x1210": 268,
    "20": 269,
    "om": 270,
    "ate": 271,
    "sp": 272,
    "yp": 273,
    "drl6660": 274,
    "ect": 275,
    "\u25810x78": 276,
    "\u25810x400": 277,
    "di": 278,
    "b0": 279,
    "\u2581deco": 280,
    "\u2581decodepointer": 281,
    "ge": 282,
    "free": 283,
    "80": 284,
    "\u25810x77d": 285,
    "library": 286,
    "\u25810x77d10000": 287,
    "rent": 288,
    "\u25810x1211f": 289,
    "\u25810x46f0": 290,
    "ment": 291,
    "spin": 292,
    "spincount": 293,
    "andspincount": 294,
    "\u2581initializecriticalsectionandspincount": 295,
    "drl6660drl6660": 296,
    "e0": 297,
    "urrent": 298,
    "\u25810xfeee001": 299,
    "\u25810x47": 300,
    "01": 301,
    "let": 302,
    "tet": 303,
    "\u25810x9": 304,
    "\u2581a": 305,
    "th": 306,
    "\u25810x46d0": 307,
    "\u2581mem": 308,
    "\u25810xfffff": 309,
    "\u25810x7e": 310,
    "\u25810xfffffff": 311,
    "\u25810xf00": 312,
    "\u25810x1211d": 313,
    "ce": 314,
    "\u2581memcmp": 315,
    "\u2581loadlibrary": 316,
    "b8": 317,
    "age": 318,
    "d4": 319,
    "\u2581getst": 320,
    "process": 321,
    "\u25810xfeee01": 322,
    "\u25810x7d": 323,
    "18": 324,
    "bytet": 325,
    "\u2581multi": 326,
    "bytetow": 327,
    "\u2581multibytetow": 328,
    "\u2581multibytetowidechar": 329,
    "na": 330,
    "reate": 331,
    "ri": 332,
    "\u2581re": 333,
    "\u25810x10c": 334,
    "aa": 335,
    "lo": 336,
    "ype": 337,
    "\u2581getmodulehand": 338,
    "it": 339,
    "rect": 340,
    "\u2581getmodulehandlea": 341,
    "tion": 342,
    "\u2581getcurrent": 343,
    "thread": 344,
    "cc": 345,
    "un": 346,
    "28": 347,
    "key": 348,
    "58": 349,
    "hi": 350,
    "d8": 351,
    "\u2581gets": 352,
    "\u25810x41f0": 353,
    "\u2581local": 354,
    "filet": 355,
    "tom": 356,
    "\u25810x41f040": 357,
    "var": 358,
    "\u2581g": 359,
    "direct": 360,
    "\u2581inter": 361,
    "14": 362,
    "\u25810x1211e": 363,
    "\u25810x4610": 364,
    "director": 365,
    "ch": 366,
    "def": 367,
    "64": 368,
    "locke": 369,
    "\u2581interlocke": 370,
    "a8": 371,
    "a4": 372,
    "\u2581create": 373,
    "\u2581p": 374,
    "ual": 375,
    "38": 376,
    "tomulti": 377,
    "\u2581widechar": 378,
    "tomultibyte": 379,
    "\u2581widechartomultibyte": 380,
    "\u2581ap": 381,
    "tr": 382,
    "\u2581heapfree": 383,
    "cmap": 384,
    "\u2581lcmap": 385,
    "\u2581lcmapstring": 386,
    "virt": 387,
    "virtual": 388,
    "ed": 389,
    "\u2581getsystem": 390,
    "34": 391,
    "\u2581lstr": 392,
    "bu": 393,
    "tu": 394,
    "f4": 395,
    "ers": 396,
    "\u2581reg": 397,
    "\u2581interlocked": 398,
    "\u25810xfeee002": 399,
    "12": 400,
    "\u2581virtual": 401,
    "rst": 402,
    "\u25810x435": 403,
    "\u25810x12119": 404,
    "directory": 405,
    "44": 406,
    "rement": 407,
    "name": 408,
    "\u25810x78000000": 409,
    "open": 410,
    "\u25810xa": 411,
    "handlew": 412,
    "5c": 413,
    "ut": 414,
    "98": 415,
    "3e": 416,
    "\u2581getmodulehandlew": 417,
    "mp": 418,
    "\u25810xffffffff": 419,
    "orm": 420,
    "e10000": 421,
    "\u25810x42a": 422,
    "\u25810x77e10000": 423,
    "\u25810x4093e": 424,
    "bad": 425,
    "7c": 426,
    "mm": 427,
    "f5": 428,
    "\u25810xcd": 429,
    "ptr": 430,
    "\u2581isbad": 431,
    "vw": 432,
    "68": 433,
    "\u25810x90": 434,
    "\u2581read": 435,
    "\u25810x14": 436,
    "res": 437,
    "\u25810x5f8": 438,
    "b4": 439,
    "\u25810x5f800000": 440,
    "lm": 441,
    "xy": 442,
    "klm": 443,
    "opq": 444,
    "readptr": 445,
    "\u2581isbadreadptr": 446,
    "ghi": 447,
    "rstu": 448,
    "bcdef": 449,
    "opqrstu": 450,
    "bcdefghi": 451,
    "xyz": 452,
    "klmn": 453,
    "klmnopqrstu": 454,
    "vwxyz": 455,
    "\u2581abcdefghi": 456,
    "klmnopqrstuvwxyz": 457,
    "\u25810x18": 458,
    "3d": 459,
    "\u25810x104": 460,
    "\u25810x70": 461,
    "vers": 462,
    "3c": 463,
    "dc": 464,
    "versi": 465,
    "56": 466,
    "74": 467,
    "of": 468,
    "ol": 469,
    "drl6660drl6660drl6660drl6660": 470,
    "\u25810xfeee004": 471,
    "vir": 472,
    "dhandle": 473,
    "viron": 474,
    "\u2581getfilet": 475,
    "\u25810xfeee0004": 476,
    "ab": 477,
    "fc": 478,
    "ear": 479,
    "exw": 480,
    "\u25810x20": 481,
    "\u25810x7de": 482,
    "vironment": 483,
    "\u2581getfiletype": 484,
    "\u2581localalloc": 485,
    "\u2581getstdhandle": 486,
    "\u2581var": 487,
    "\u25810x54": 488,
    "\u25810x4378": 489,
    "infow": 490,
    "filename": 491,
    "f2": 492,
    "\u25810x42a40": 493,
    "\u25810xb": 494,
    "e8": 495,
    "\u25810x4c": 496,
    "ea": 497,
    "sw": 498,
    "\u2581lcmapstringw": 499,
    "at": 500,
    "\u2581o": 501,
    "9c": 502,
    "earch": 503,
    "lsalloc": 504,
    "\u25810x40934": 505,
    "temp": 506,
    "comm": 507,
    "\u2581ex": 508,
    "1c": 509,
    "rite": 510,
    "sset": 511,
    "lsset": 512,
    "lssetvalue": 513,
    "\u25810xfeee0002": 514,
    "qu": 515,
    "inc": 516,
    "filea": 517,
    "\u2581loadlibrarya": 518,
    "\u25810xf001": 519,
    "\u25810xfeee0000": 520,
    "15": 521,
    "tup": 522,
    "artup": 523,
    "wa": 524,
    "increment": 525,
    "\u2581interlockedincrement": 526,
    "db": 527,
    "da": 528,
    "\u2581apis": 529,
    "line": 530,
    "\u2581getmodulefilename": 531,
    "window": 532,
    "bug": 533,
    "api": 534,
    "debug": 535,
    "\u2581getcurrentthread": 536,
    "\u2581getstartup": 537,
    "\u25810xfeee005": 538,
    "andline": 539,
    "94": 540,
    "\u2581search": 541,
    "\u2581getcomm": 542,
    "\u25810x1210e": 543,
    "88": 544,
    "\u2581getcommandline": 545,
    "24": 546,
    "se": 547,
    "\u25810x4d": 548,
    "\u25810x88": 549,
    "26": 550,
    "\u25810x12117": 551,
    "\u25810x79": 552,
    "oft": 553,
    "3f": 554,
    "time": 555,
    "2c": 556,
    "\u25810x80": 557,
    "\u25810xfeee006": 558,
    "\u2581getcurrentthreadid": 559,
    "quer": 560,
    "\u2581getversi": 561,
    "\u25810x48": 562,
    "\u2581loadstringw": 563,
    "\u25810x45f": 564,
    "\u2581h": 565,
    "\u25810x7a": 566,
    "\u25810x8000": 567,
    "16": 568,
    "vironmentstring": 569,
    "\u25810x800": 570,
    "\u2581de": 571,
    "\u25810xfeee0003": 572,
    "\u25810xfeee008": 573,
    "a6": 574,
    "ng": 575,
    "lob": 576,
    "\u25810x102": 577,
    "\u2581open": 578,
    "valid": 579,
    "pres": 580,
    "present": 581,
    "\u2581glob": 582,
    "\u2581ad": 583,
    "form": 584,
    "eex": 585,
    "71": 586,
    "directorya": 587,
    "\u2581getcp": 588,
    "\u25810xfeee0005": 589,
    "\u2581getcpinfo": 590,
    "ation": 591,
    "\u2581loadlibraryexw": 592,
    "\u25810x200": 593,
    "\u2581b": 594,
    "\u2581virtualalloc": 595,
    "\u25811": 596,
    "\u2581hkey": 597,
    "ware": 598,
    "54": 599,
    "\u25810xfff": 600,
    "91": 601,
    "oftware": 602,
    "\u2581software": 603,
    "a2": 604,
    "ve": 605,
    "vironmentstringsw": 606,
    "im": 607,
    "\u2581co": 608,
    "ic": 609,
    "\u25810xfeee007": 610,
    "\u25810x43540": 611,
    "\u25810xffb": 612,
    "69": 613,
    "\u25810x1210f": 614,
    "type": 615,
    "\u25810xd": 616,
    "\u25810xf002": 617,
    "\u25810xf003": 618,
    "\u25810xfeee003": 619,
    "\u25810xe": 620,
    "dex": 621,
    "\u2581flssetvalue": 622,
    "\u25810x7c": 623,
    "ime": 624,
    "\u25810x4750": 625,
    "api32": 626,
    "\u25810x7b": 627,
    "55": 628,
    "\u25810x1211c": 629,
    "es": 630,
    "directoryw": 631,
    "\u25810x50": 632,
    "\u25810x4a": 633,
    "cep": 634,
    "\u2581getcurrentprocess": 635,
    "bo": 636,
    "\u25810x4e": 637,
    "\u2581temp": 638,
    "\u2581flsalloc": 639,
    "our": 640,
    "tic": 641,
    "\u2581getlocaleinfow": 642,
    "as": 643,
    "ception": 644,
    "vari": 645,
    "\u2581adv": 646,
    "\u2581advapi32": 647,
    "\u2581gdi": 648,
    "\u25810x7000": 649,
    "write": 650,
    "exa": 651,
    "\u2581page": 652,
    "\u25810x73": 653,
    "mode": 654,
    "int": 655,
    "f6": 656,
    "789": 657,
    "tick": 658,
    "\u25810x7e70": 659,
    "\u2581sh": 660,
    "lose": 661,
    "\u2581gettick": 662,
    "\u2581gettickcount": 663,
    "d2": 664,
    "locales": 665,
    "list": 666,
    "\u25810x60": 667,
    "\u25810x460": 668,
    "\u2581lstrle": 669,
    "\u2581global": 670,
    "\u25810x71": 671,
    "1234": 672,
    "ot": 673,
    "c8": 674,
    "\u2581win": 675,
    "56789": 676,
    "\u258101234": 677,
    "\u25810123456789": 678,
    "fa": 679,
    "filetime": 680,
    "e7": 681,
    "\u25810x4670": 682,
    "\u25810x120": 683,
    "\u25810xfeee0006": 684,
    "\u25810x7f8": 685,
    "b2": 686,
    "ource": 687,
    "\u2581locales": 688,
    "\u25810x429": 689,
    "d6": 690,
    "c4": 691,
    "\u25810x40935": 692,
    "\u2581ws": 693,
    "\u2581getstartupinfoa": 694,
    "\u25810x4b": 695,
    "a5": 696,
    "\u25810x5f5": 697,
    "\u2581getcommandlinea": 698,
    "dec": 699,
    "\u2581getstring": 700,
    "stringa": 701,
    "\u2581getmodulefilenamea": 702,
    "\u25810x72": 703,
    "\u25810x5f500000": 704,
    "37": 705,
    "9e": 706,
    "ob": 707,
    "\u2581com": 708,
    "\u2581readwrite": 709,
    "35": 710,
    "ra": 711,
    "\u25810xfeee0007": 712,
    "put": 713,
    "print": 714,
    "\u2581free": 715,
    "\u2581find": 716,
    "\u2581getstringtype": 717,
    "\u2581li": 718,
    "\u2581geten": 719,
    "\u2581getthread": 720,
    "\u2581current": 721,
    "\u2581fi": 722,
    "\u25810x76": 723,
    "cp": 724,
    "\u2581getac": 725,
    "\u25810x49": 726,
    "bb": 727,
    "\u25810x7f800": 728,
    "11": 729,
    "39": 730,
    "\u25810x1211dd4": 731,
    "\u2581quer": 732,
    "4c": 733,
    "62": 734,
    "\u25810x7d90": 735,
    "\u25810x4094": 736,
    "\u2581l1": 737,
    "\u2581getstringtypew": 738,
    "\u2581out": 739,
    "fil": 740,
    "\u25810x7de0": 741,
    "ting": 742,
    "\u25810x4350": 743,
    "\u25810xfeee009": 744,
    "\u25810x436": 745,
    "image": 746,
    "up": 747,
    "\u25810x42b": 748,
    "\u2581getacp": 749,
    "erform": 750,
    "\u2581getprocess": 751,
    "d5": 752,
    "tt": 753,
    "erforman": 754,
    "\u2581regopen": 755,
    "\u2581queryp": 756,
    "\u2581queryperforman": 757,
    "ba": 758,
    "\u2581regopenkey": 759,
    "\u25810x74": 760,
    "\u25810xffc": 761,
    "\u2581core": 762,
    "1e": 763,
    "\u2581x": 764,
    "\u2581lcmapstringex": 765,
    "decrement": 766,
    "\u2581interlockeddecrement": 767,
    "fr": 768,
    "\u2581delet": 769,
    "\u2581lstrlena": 770,
    "\u2581library": 771,
    "\u25810x40a58": 772,
    "7e": 773,
    "\u2581lstrcmp": 774,
    "a9": 775,
    "\u2581wsprint": 776,
    "\u2581getsystemtime": 777,
    "48": 778,
    "hread": 779,
    "variab": 780,
    "36": 781,
    "from": 782,
    "\u2581al": 783,
    "\u25810x12115": 784,
    "\u2581gdi32": 785,
    "\u25810x75": 786,
    "17": 787,
    "fea": 788,
    "ture": 789,
    "ger": 790,
    "cpy": 791,
    "f9": 792,
    "b5": 793,
    "ith": 794,
    "a7": 795,
    "\u2581getversion": 796,
    "drl6660drl6660drl6660drl6660drl6660drl6660drl6660drl6660": 797,
    "set": 798,
    "\u25810x1211dc0": 799,
    "dexception": 800,
    "\u2581output": 801,
    "processor": 802,
    "\u2581outputdebug": 803,
    "dll": 804,
    "um": 805,
    "filter": 806,
    "con": 807,
    "1000": 808,
    "unhandle": 809,
    "dexceptionfilter": 810,
    "unhandledexceptionfilter": 811,
    "ae": 812,
    "unter": 813,
    "mess": 814,
    "ila": 815,
    "106": 816,
    "\u2581fr": 817,
    "\u2581regi": 818,
    "\u25810x434": 819,
    "\u25810x1211e0": 820,
    "be": 821,
    "message": 822,
    "\u2581outputdebugstringa": 823,
    "\u2581getcurrentprocessid": 824,
    "ceco": 825,
    "inform": 826,
    "cecounter": 827,
    "\u2581queryperformancecounter": 828,
    "information": 829,
    "nd": 830,
    "1a": 831,
    "\u25810x12116": 832,
    "b6": 833,
    "19": 834,
    "\u25810x43780": 835,
    "feature": 836,
    "\u2581isprocessor": 837,
    "featurepresent": 838,
    "\u2581isprocessorfeaturepresent": 839,
    "\u2581bor": 840,
    "rea": 841,
    "\u25810x44d4": 842,
    "tered": 843,
    "\u2581with": 844,
    "\u2581altered": 845,
    "db10": 846,
    "\u25810x1c": 847,
    "\u2581image": 848,
    "f7": 849,
    "defa": 850,
    "\u25810x105": 851,
    "create": 852,
    "\u25810x526": 853,
    "sa": 854,
    "lock": 855,
    "defaul": 856,
    "\u2581invalid": 857,
    "land": 858,
    "\u2581borland": 859,
    "\u25810x42b40": 860,
    "\u25810x43640": 861,
    "95": 862,
    "\u2581str": 863,
    "\u2581freelibrary": 864,
    "db10106": 865,
    "\u25810x1db10106": 866,
    "f10000": 867,
    "asfiletime": 868,
    "\u2581getsystemtimeasfiletime": 869,
    "f00": 870,
    "\u2581api": 871,
    "\u2581getprocessheap": 872,
    "bute": 873,
    "ribute": 874,
    "\u25810x77f10000": 875,
    "ys": 876,
    "\u25810x40b": 877,
    "pool": 878,
    "acc": 879,
    "\u25810x42900": 880,
    "\u25810x50000": 881,
    "\u2581getsystemdirectoryw": 882,
    "\u25810x7ee": 883,
    "fileatt": 884,
    "fileattribute": 885,
    "\u2581virtualfree": 886,
    "\u2581getversionex": 887,
    "\u25810x422": 888,
    "\u25812": 889,
    "\u2581setunhandledexceptionfilter": 890,
    "76": 891,
    "hel": 892,
    "eeen": 893,
    "\u2581freeen": 894,
    "72": 895,
    "\u25810x3f2": 896,
    "\u25810xffe": 897,
    "\u2581imagelist": 898,
    "urs": 899,
    "\u25810x220": 900,
    "\u2581setfile": 901,
    "a1": 902,
    "default": 903,
    "75": 904,
    "\u2581getmodulefilenamew": 905,
    "\u2581tlsalloc": 906,
    "filew": 907,
    "8c": 908,
    "\u2581lstrcpy": 909,
    "\u2581init": 910,
    "debugger": 911,
    "b1": 912,
    "handl": 913,
    "debuggerpresent": 914,
    "\u25810x180": 915,
    "to": 916,
    "access": 917,
    "\u25810x8c": 918,
    "\u2581lstrcmpa": 919,
    "\u25810xfffffff6": 920,
    "f1": 921,
    "\u25810x19": 922,
    "ata": 923,
    "\u25810x40a3": 924,
    "\u2581getenvironmentstringsw": 925,
    "c2": 926,
    "\u2581isdebuggerpresent": 927,
    "lass": 928,
    "\u25810x17": 929,
    "pri": 930,
    "ction": 931,
    "\u2581getthreadlocale": 932,
    "dep": 933,
    "\u2581write": 934,
    "\u2581ke": 935,
    "\u25810x2a": 936,
    "\u2581key": 937,
    "\u2581freeenvironmentstringsw": 938,
    "b9": 939,
    "dd": 940,
    "\u2581getstartupinfow": 941,
    "\u2581gettemp": 942,
    "\u25810x53": 943,
    "ster": 944,
    "\u2581readfile": 945,
    "term": 946,
    "pa": 947,
    "61": 948,
    "\u25810xfffffff5": 949,
    "\u25810x82": 950,
    "\u25810x40933d": 951,
    "\u25810x40933e": 952,
    "\u25810xfffffff4": 953,
    "\u25810x40933f": 954,
    "\u25810x409340": 955,
    "\u25810x409341": 956,
    "\u25810x409342": 957,
    "\u25810x409343": 958,
    "79": 959,
    "\u2581r": 960,
    "\u2581close": 961,
    "84": 962,
    "\u25810x169": 963,
    "\u25810x52": 964,
    "day": 965,
    "002": 966,
    "31": 967,
    "\u2581wa": 968,
    "6c": 969,
    "\u25810x408": 970,
    "\u2581exit": 971,
    "bd": 972,
    "\u25810x30": 973,
    "\u2581getcommandlinew": 974,
    "\u2581pf": 975,
    "5500000": 976,
    "\u2581setfilepointer": 977,
    "ble": 978,
    "version": 979,
    "\u25810x13": 980,
    "\u25810x9000": 981,
    "fe": 982,
    "resource": 983,
    "met": 984,
    "\u25810x44d4b8": 985,
    "ursor": 986,
    "\u2581register": 987,
    "\u25810x7e71": 988,
    "3a": 989,
    "\u25810x47b0": 990,
    "\u2581isvalid": 991,
    "stru": 992,
    "\u2581aaa": 993,
    "00c": 994,
    "\u2581tlssetvalue": 995,
    "96": 996,
    "so": 997,
    "\u25810x410": 998,
    "ant": 999,
    "\u25810x41c0": 1000,
    "\u2581sl": 1001,
    "\u25810x3f": 1002,
    "struction": 1003,
    "map": 1004,
    "lus": 1005,
    "\u2581crea": 1006,
    "92": 1007,
    "ec0": 1008,
    "\u2581loadlibraryw": 1009,
    "\u2581localfree": 1010,
    "b7": 1011,
    "\u25810x8a": 1012,
    "boar": 1013,
    "\u25810x40a3d": 1014,
    "\u2581closehandle": 1015,
    "hine": 1016,
    "\u2581mac": 1017,
    "lor": 1018,
    "\u25810x41c044": 1019,
    "\u2581machine": 1020,
    "\u2581e": 1021,
    "\u25810x15": 1022,
    "query": 1023,
    "va": 1024,
    "\u2581getfileattribute": 1025,
    "\u25810x7830": 1026,
    "\u25810x5265c": 1027,
    "ro": 1028,
    "point": 1029,
    "ecount": 1030,
    "010": 1031,
    "close": 1032,
    "d7": 1033,
    "\u2581heapcreate": 1034,
    "\u25810x12116d8": 1035,
    "\u25810x7de1": 1036,
    "\u25810x12114": 1037,
    "text": 1038,
    "\u25810x1211f8": 1039,
    "33": 1040,
    "d9": 1041,
    "arg": 1042,
    "ile": 1043,
    "vironmentvariab": 1044,
    "board": 1045,
    "\u25810x121178": 1046,
    "ho": 1047,
    "\u25810xf0019": 1048,
    "\u25810xfeee00c": 1049,
    "\u25810x56": 1050,
    "sole": 1051,
    "d1": 1052,
    "\u25810x4290": 1053,
    "df": 1054,
    "e2": 1055,
    "\u2581access": 1056,
    "ating": 1057,
    "loating": 1058,
    "\u25810x7810": 1059,
    "42": 1060,
    "cursor": 1061,
    "\u2581createt": 1062,
    "fw": 1063,
    "\u2581ole": 1064,
    "\u25810x1211b": 1065,
    "ber": 1066,
    "\u25810x69": 1067,
    "\u2581wsprintfw": 1068,
    "lic": 1069,
    "handlecount": 1070,
    "3b": 1071,
    "end": 1072,
    "\u25810x7d91": 1073,
    "\u2581sethandlecount": 1074,
    "first": 1075,
    "\u25810x1211918": 1076,
    "\u25810x2000": 1077,
    "chan": 1078,
    "\u25810x16": 1079,
    "ct": 1080,
    "fromstr": 1081,
    "tim": 1082,
    "\u2581app": 1083,
    "\u25810x12118": 1084,
    "63": 1085,
    "ion": 1086,
    "de9": 1087,
    "ack": 1088,
    "\u25810x43500": 1089,
    "\u25810x1211758": 1090,
    "ies": 1091,
    "aaaa": 1092,
    "\u2581getversionexa": 1093,
    "enu": 1094,
    "\u25810x1f4": 1095,
    "\u25810x8810": 1096,
    "\u2581malloc": 1097,
    "\u2581setthread": 1098,
    "ov": 1099,
    "eric": 1100,
    "eb": 1101,
    "eexw": 1102,
    "defaultdll": 1103,
    "directories": 1104,
    "\u2581setdefaultdll": 1105,
    "\u2581setdefaultdlldirectories": 1106,
    "\u2581shel": 1107,
    "\u2581delete": 1108,
    "22": 1109,
    "d3": 1110,
    "af": 1111,
    "der": 1112,
    "\u2581lread": 1113,
    "vaila": 1114,
    "vailable": 1115,
    "\u2581exitprocess": 1116,
    "\u25810x11": 1117,
    "\u25810xfeee0008": 1118,
    "\u25810xfeee010": 1119,
    "\u25810x1211e04": 1120,
    "low": 1121,
    "\u25810x8f": 1122,
    "\u2581regopenkeyexa": 1123,
    "\u2581available": 1124,
    "\u25810x1f": 1125,
    "e5": 1126,
    "\u25810xfde9": 1127,
    "\u25810x78c": 1128,
    "\u25810x78c00000": 1129,
    "icon": 1130,
    "13": 1131,
    "dres": 1132,
    "color": 1133,
    "\u25810x4615": 1134,
    "depage": 1135,
    "i64": 1136,
    "\u25810x41a0": 1137,
    "\u2581instruction": 1138,
    "pro": 1139,
    "codepage": 1140,
    "\u2581relea": 1141,
    "\u2581isvalidcodepage": 1142,
    "\u25810x58": 1143,
    "timer": 1144,
    "\u2581initterm": 1145,
    "prot": 1146,
    "lsfree": 1147,
    "\u25810x21000": 1148,
    "\u2581xmm": 1149,
    "\u2581xmmi64": 1150,
    "\u2581instructions": 1151,
    "\u25810x28": 1152,
    "realloc": 1153,
    "2e": 1154,
    "\u25810x5265c14": 1155,
    "99": 1156,
    "\u2581globalalloc": 1157,
    "\u2581regopenkeyexw": 1158,
    "\u2581virtualprot": 1159,
    "908": 1160,
    "\u25810x99": 1161,
    "\u25810x1804": 1162,
    "\u2581vari": 1163,
    "\u25810x1f400": 1164,
    "\u25810x5a": 1165,
    "\u25810x1b": 1166,
    "\u2581loadlibraryexa": 1167,
    "not": 1168,
    "\u25810x407": 1169,
    "\u2581floating": 1170,
    "\u2581wait": 1171,
    "eep": 1172,
    "\u25810x43400": 1173,
    "hreadpool": 1174,
    "yn": 1175,
    "\u25810xfeee0009": 1176,
    "\u25810x41a044": 1177,
    "\u2581loadcursor": 1178,
    "menu": 1179,
    "\u25810x2c": 1180,
    "\u2581getsystemdirectorya": 1181,
    "ition": 1182,
    "\u2581virtualprotect": 1183,
    "\u2581dra": 1184,
    "\u25810xfeee000b": 1185,
    "\u25810x79d0": 1186,
    "\u2581setc": 1187,
    "\u25810x38": 1188,
    "aps": 1189,
    "\u25810x7aa0": 1190,
    "\u25810xfeee000a": 1191,
    "\u2581con": 1192,
    "\u2581getcurrentdirectorya": 1193,
    "\u2581dri": 1194,
    "a3": 1195,
    "f3": 1196,
    "dition": 1197,
    "1b": 1198,
    "\u2581drive": 1199,
    "\u2581gen": 1200,
    "\u25810x1211dcc": 1201,
    "\u25810x1e": 1202,
    "\u2581gettempa": 1203,
    "\u25810xfeee000c": 1204,
    "pal": 1205,
    "\u2581fin": 1206,
    "palet": 1207,
    "\u2581getd": 1208,
    "off": 1209,
    "\u2581wsprintfa": 1210,
    "fd": 1211,
    "\u2581findres": 1212,
    "25": 1213,
    "9d": 1214,
    "ute": 1215,
    "fb": 1216,
    "econ": 1217,
    "\u2581writefile": 1218,
    "cs": 1219,
    "\u25810x4710": 1220,
    "ee0": 1221,
    "7d": 1222,
    "\u25810x4088": 1223,
    "\u25810xfeee000e": 1224,
    "ngu": 1225,
    "change": 1226,
    "tem": 1227,
    "for": 1228,
    "offile": 1229,
    "\u25810xfeee0014": 1230,
    "\u25810x1a": 1231,
    "\u2581sleep": 1232,
    "edc": 1233,
    "ryp": 1234,
    "\u25810xfeee000d": 1235,
    "\u2581exe": 1236,
    "\u25810xfeee0010": 1237,
    "\u25810x4340": 1238,
    "\u25810xfeee0015": 1239,
    "gi": 1240,
    "errormode": 1241,
    "\u2581seterrormode": 1242,
    "yarg": 1243,
    "\u25810x8e": 1244,
    "nguage": 1245,
    "messagea": 1246,
    "nw": 1247,
    "ock": 1248,
    "\u25810xfeee0016": 1249,
    "din": 1250,
    "\u25810x44c2": 1251,
    "\u25810x24": 1252,
    "eexa": 1253,
    "\u2581generic": 1254,
    "\u25810x70cc": 1255,
    "\u25810x10000": 1256,
    "\u25810xfeee0013": 1257,
    "\u2581getfileattributesw": 1258,
    "ilanguage": 1259,
    "\u2581registerc": 1260,
    "\u25810xfeee0011": 1261,
    "ity": 1262,
    "ctl32": 1263,
    "\u2581comctl32": 1264,
    "\u25810xfeee000f": 1265,
    "\u25810xfeee0012": 1266,
    "initializ": 1267,
    "\u25810x1211528": 1268,
    "\u2581getfile": 1269,
    "\u2581findfirst": 1270,
    "\u25810x32": 1271,
    "\u25810x8b": 1272,
    "\u2581findresource": 1273,
    "ditionvariab": 1274,
    "\u2581shell32": 1275,
    "\u25810x69000000": 1276,
    "\u25810x4f": 1277,
    "\u2581createfilea": 1278,
    "\u25810xcc": 1279,
    "flow": 1280,
    "\u25810x2e7": 1281,
    "bf": 1282,
    "59": 1283,
    "lp": 1284,
    "e6": 1285,
    "div": 1286,
    "ad0": 1287,
    "e9": 1288,
    "ccc": 1289,
    "pre": 1290,
    "vic": 1291,
    "46": 1292,
    "\u25810x65500000": 1293,
    "rypt": 1294,
    "\u25810x12114b8": 1295,
    "\u25810x4600": 1296,
    "\u25810x40c": 1297,
    "ision": 1298,
    "pare": 1299,
    "ok": 1300,
    "\u2581se": 1301,
    "vie": 1302,
    "older": 1303,
    "\u2581seten": 1304,
    "\u2581flsfree": 1305,
    "\u2581setcurrent": 1306,
    "2000": 1307,
    "\u2581strn": 1308,
    "folder": 1309,
    "\u25810x40a3e": 1310,
    "\u2581getcon": 1311,
    "5b": 1312,
    "\u25810x1211908": 1313,
    "vironmentvariablea": 1314,
    "\u2581waitfor": 1315,
    "308": 1316,
    "\u25810x84": 1317,
    "oper": 1318,
    "iv": 1319,
    "\u25810x4093e8": 1320,
    "\u25810x4000": 1321,
    "748": 1322,
    "\u25810x4093e5": 1323,
    "\u25810x4093e6": 1324,
    "\u25810x4093e7": 1325,
    "allock": 1326,
    "\u2581deletecriticalsection": 1327,
    "\u25810x1211718": 1328,
    "\u25810x3c": 1329,
    "\u25810x22": 1330,
    "\u2581strncmp": 1331,
    "77": 1332,
    "out": 1333,
    "\u2581creates": 1334,
    "\u25810x1211fd8": 1335,
    "\u25810x1210d": 1336,
    "\u2581compare": 1337,
    "\u25810x40933c": 1338,
    "52": 1339,
    "bc0": 1340,
    "mem": 1341,
    "\u25810x1211f7c": 1342,
    "\u2581globallock": 1343,
    "\u2581getde": 1344,
    "\u25810x23": 1345,
    "\u25810x98": 1346,
    "ero": 1347,
    "\u2581loadcursora": 1348,
    "oy": 1349,
    "\u2581un": 1350,
    "leob": 1351,
    "trol": 1352,
    "\u2581file": 1353,
    "\u2581sets": 1354,
    "\u2581lstrcpyna": 1355,
    "ay": 1356,
    "\u25810x29": 1357,
    "89": 1358,
    "\u2581getkey": 1359,
    "messagew": 1360,
    "\u2581crypt": 1361,
    "\u25810x4af4": 1362,
    "stroy": 1363,
    "\u25810x409344": 1364,
    "\u25810x40935d": 1365,
    "\u25810x40935e": 1366,
    "\u25810x40935f": 1367,
    "\u25810x409360": 1368,
    "\u25810x409361": 1369,
    "\u25810x409362": 1370,
    "\u25810x409363": 1371,
    "\u25810x4093e9": 1372,
    "\u25810x4093ea": 1373,
    "\u25810x4093eb": 1374,
    "\u25810x40a5ce": 1375,
    "\u25810x40a5d0": 1376,
    "\u25810x40a5d2": 1377,
    "\u25810x40a5d4": 1378,
    "\u25810x40a5d6": 1379,
    "\u25810x40a5d8": 1380,
    "\u25810x40a5da": 1381,
    "\u25810x101": 1382,
    "\u25810xfeee0017": 1383,
    "\u25810x7ee00": 1384,
    "300": 1385,
    "\u2581variant": 1386,
    "51": 1387,
    "\u25810x1211958": 1388,
    "\u2581createa": 1389,
    "ynch": 1390,
    "\u2581synch": 1391,
    "\u25810x40a9": 1392,
    "eto": 1393,
    "\u25810xfeee0018": 1394,
    "\u25810xfeee001a": 1395,
    "21": 1396,
    "\u2581shget": 1397,
    "\u2581findclose": 1398,
    "\u25810x1211fd0": 1399,
    "\u2581releas": 1400,
    "ockob": 1401,
    "\u25810x88a0": 1402,
    "\u2581getstockob": 1403,
    "all": 1404,
    "\u25810xa0": 1405,
    "\u25810xfeee0019": 1406,
    "rw": 1407,
    "\u2581nt": 1408,
    "\u2581th": 1409,
    "\u25810x7ec": 1410,
    "\u2581heaprealloc": 1411,
    "\u25810x1211dd0": 1412,
    "vice": 1413,
    "\u25810x169bc": 1414,
    "wait": 1415,
    "\u25810x7f00": 1416,
    "\u25810x40a5a0": 1417,
    "ef": 1418,
    "buff": 1419,
    "valu": 1420,
    "lphi": 1421,
    "\u2581delphi": 1422,
    "\u2581deletefilea": 1423,
    "ive": 1424,
    "ping": 1425,
    "\u25810xfeee001c": 1426,
    "bers": 1427,
    "\u25810x83": 1428,
    "97": 1429,
    "isk": 1430,
    "\u25810x25": 1431,
    "\u25810x89": 1432,
    "\u2581setcurrentdirectorya": 1433,
    "67": 1434,
    "ts": 1435,
    "\u2581gdip": 1436,
    "\u25810x40a59e": 1437,
    "\u25810x40a5a2": 1438,
    "\u25810x40a5a4": 1439,
    "\u25810x40a5a6": 1440,
    "\u25810x40a5a8": 1441,
    "\u25810x40a5aa": 1442,
    "filemap": 1443,
    "filemapping": 1444,
    "\u2581exis": 1445,
    "\u25810x4790": 1446,
    "\u2581existing": 1447,
    "ory": 1448,
    "namea": 1449,
    "\u25810x34": 1450,
    "\u25810x77002": 1451,
    "initialize": 1452,
    "\u25810x2e": 1453,
    "box": 1454,
    "\u25810x1211e30": 1455,
    "\u2581or": 1456,
    "operation": 1457,
    "\u25810x12119c0": 1458,
    "bit": 1459,
    "\u25810x214": 1460,
    "\u25810xfeee001b": 1461,
    "ditionvariable": 1462,
    "\u2581ole32": 1463,
    "\u25810x67": 1464,
    "\u2581getconsole": 1465,
    "\u2581getdc": 1466,
    "\u25810x40a66": 1467,
    "dinal": 1468,
    "vicec": 1469,
    "\u2581ordinal": 1470,
    "\u25810x1211e08": 1471,
    "vicecaps": 1472,
    "\u2581getuser": 1473,
    "\u2581getwindow": 1474,
    "\u2581getdevicecaps": 1475,
    "\u25810x1211e4": 1476,
    "\u25810x47c0": 1477,
    "\u25810x4d70": 1478,
    "\u25810x43f6": 1479,
    "\u2581enum": 1480,
    "und": 1481,
    "yscolor": 1482,
    "\u2581fibers": 1483,
    "\u25810xfeee001d": 1484,
    "lush": 1485,
    "imeto": 1486,
    "windows": 1487,
    "\u2581getsyscolor": 1488,
    "metri": 1489,
    "lip": 1490,
    "cy": 1491,
    "5d": 1492,
    "500": 1493,
    "5f": 1494,
    "0000000": 1495,
    "memory": 1496,
    "\u25810x44c250": 1497,
    "\u2581mo": 1498,
    "\u25810x1211c0": 1499,
    "e1": 1500,
    "\u2581getkeyboard": 1501,
    "6b": 1502,
    "\u2581z": 1503,
    "\u25814": 1504,
    "\u25810x1211780": 1505,
    "9a": 1506,
    "erflow": 1507,
    "dexchange": 1508,
    "\u2581interlockedexchange": 1509,
    "53": 1510,
    "\u2581createfilemapping": 1511,
    "\u25810xd0": 1512,
    "\u25810x4086": 1513,
    "\u25810x1212000": 1514,
    "\u25810x1211748": 1515,
    "57": 1516,
    "profile": 1517,
    "\u2581findresourcea": 1518,
    "\u25810x4614": 1519,
    "\u25810x2d": 1520,
    "\u25810x4df0": 1521,
    "660": 1522,
    "27": 1523,
    "\u25810x57": 1524,
    "num": 1525,
    "\u2581setenvironmentvariablea": 1526,
    "ray": 1527,
    "view": 1528,
    "\u25810x700c": 1529,
    "\u25810x8001": 1530,
    "\u25810x1211d0": 1531,
    "\u2581getsysteminfo": 1532,
    "b3": 1533,
    "move": 1534,
    "5e": 1535,
    "rwlock": 1536,
    "\u25810xfeee001f": 1537,
    "\u25810x7f": 1538,
    "\u2581getclass": 1539,
    "\u25810xfeee001e": 1540,
    "ma": 1541,
    "\u25810x1211a": 1542,
    "\u2581createfilew": 1543,
    "sing": 1544,
    "2a": 1545,
    "\u2581pr": 1546,
    "\u2581sha2": 1547,
    "\u25810xfeee0020": 1548,
    "singleob": 1549,
    "\u2581sha256": 1550,
    "\u2581releasedc": 1551,
    "\u25810x80c0": 1552,
    "23": 1553,
    "\u25810x1211f28": 1554,
    "\u25810x46a0": 1555,
    "\u25810x1211ccc": 1556,
    "\u25810x4e30": 1557,
    "\u25810x1d": 1558,
    "\u25810x2b": 1559,
    "metrics": 1560,
    "\u2581getsystemmetrics": 1561,
    "\u2581olea": 1562,
    "\u25810x75500000": 1563,
    "508": 1564,
    "\u25810x3e": 1565,
    "\u25810x8d": 1566,
    "\u2581waitforsingleob": 1567,
    "date": 1568,
    "9f": 1569,
    "\u25810x44e4": 1570,
    "comp": 1571,
    "\u25810x36": 1572,
    "\u25810x79f0": 1573,
    "ub": 1574,
    "\u2581createfilemappinga": 1575,
    "bstr": 1576,
    "bstrfrom": 1577,
    "\u2581control": 1578,
    "\u2581varbstrfrom": 1579,
    "\u25810x708c": 1580,
    "saf": 1581,
    "\u2581aa": 1582,
    "\u25810x91": 1583,
    "\u25810x704c": 1584,
    "\u25810x1211308": 1585,
    "\u25810xfeee0021": 1586,
    "\u2581tmp": 1587,
    "\u25810x39": 1588,
    "\u25810x68": 1589,
    "\u25810x440": 1590,
    "\u25810x1211578": 1591,
    "ull": 1592,
    "\u25810x40a5ac": 1593,
    "\u25810x7d10": 1594,
    "\u25810xfeee014": 1595,
    "sc": 1596,
    "\u25810x7090": 1597,
    "\u25810x40958": 1598,
    "\u2581lstrlenw": 1599,
    "\u2581pi": 1600,
    "aa8": 1601,
    "\u25810x5c": 1602,
    "\u2581regquery": 1603,
    "\u25810x37": 1604,
    "\u25810x1211948": 1605,
    "\u25810xfeee0022": 1606,
    "\u2581tr": 1607,
    "fo": 1608,
    "\u2581mon": 1609,
    "\u25810x55": 1610,
    "7b": 1611,
    "\u2581clo": 1612,
    "\u25810x4730": 1613,
    "pos": 1614,
    "sup": 1615,
    "essage": 1616,
    "400": 1617,
    "\u2581message": 1618,
    "\u25810x1211f2c": 1619,
    "\u2581getversionexw": 1620,
    "call": 1621,
    "\u25810x61": 1622,
    "ug": 1623,
    "\u2581inst": 1624,
    "\u25810x97": 1625,
    "\u2581u": 1626,
    "1d": 1627,
    "delet": 1628,
    "\u25810x3a": 1629,
    "privi": 1630,
    "93": 1631,
    "vol": 1632,
    "vate": 1633,
    "\u2581virtualquery": 1634,
    "\u25810x121194c": 1635,
    "\u25810xffff": 1636,
    "\u25810x7ee01": 1637,
    "\u2581mar": 1638,
    "ries": 1639,
    "\u2581ts": 1640,
    "help": 1641,
    "\u25810x8cc0": 1642,
    "\u2581nov": 1643,
    "privile": 1644,
    "\u25810x2f": 1645,
    "\u25810x1211efc": 1646,
    "\u2581sep": 1647,
    "\u25810x4606": 1648,
    "\u2581st": 1649,
    "full": 1650,
    "\u2581lock": 1651,
    "2f": 1652,
    "clus": 1653,
    "\u2581getkeyboardtype": 1654,
    "emap": 1655,
    "polic": 1656,
    "eent": 1657,
    "\u2581registerclass": 1658,
    "9c8": 1659,
    "\u25810x4370": 1660,
    "\u2581messagebox": 1661,
    "oct": 1662,
    "\u25810x31": 1663,
    "\u25810xfeee0024": 1664,
    "\u25810x1211f20": 1665,
    "\u25810x169bc9c": 1666,
    "teent": 1667,
    "teentries": 1668,
    "paletteentries": 1669,
    "soft": 1670,
    "stry": 1671,
    "system": 1672,
    "\u25810x478": 1673,
    "\u25810x42a0": 1674,
    "endoffile": 1675,
    "lipboard": 1676,
    "\u25810xfeee0023": 1677,
    "1f": 1678,
    "\u2581i": 1679,
    "\u25810xfeee0025": 1680,
    "\u2581setprocess": 1681,
    "de0": 1682,
    "\u2581aug": 1683,
    "\u2581oct": 1684,
    "\u2581tsl": 1685,
    "ember": 1686,
    "\u25810x4d50": 1687,
    "privilege": 1688,
    "\u25810x85": 1689,
    "\u25810x94": 1690,
    "private": 1691,
    "aaaaaaaa": 1692,
    "dege": 1693,
    "\u25810x33": 1694,
    "\u2581initializes": 1695,
    "\u2581draw": 1696,
    "degear": 1697,
    "clusive": 1698,
    "\u2581version": 1699,
    "\u2581codegear": 1700,
    "rwlockex": 1701,
    "\u25810xfeee0027": 1702,
    "rwlockexclusive": 1703,
    "rtl": 1704,
    "\u2581ch": 1705,
    "\u25810x35": 1706,
    "\u25810xfeee0026": 1707,
    "privateprofile": 1708,
    "2d": 1709,
    "drl66": 1710,
    "\u2581type": 1711,
    "\u2581tsldrl66": 1712,
    "9b": 1713,
    "\u2581loadresource": 1714,
    "\u25810x4620": 1715,
    "\u2581setwindow": 1716,
    "icro": 1717,
    "\u2581flush": 1718,
    "\u2581rtl": 1719,
    "\u2581loadicon": 1720,
    "policy": 1721,
    "\u2581sun": 1722,
    "\u25810x64": 1723,
    "icrosoft": 1724,
    "2b": 1725,
    "ume": 1726,
    "host": 1727,
    "\u2581process": 1728,
    "ush": 1729,
    "base": 1730,
    "\u25810xaa": 1731,
    "\u2581msvcr": 1732,
    "6d": 1733,
    "\u2581sat": 1734,
    "volume": 1735,
    "\u25810x43a4": 1736,
    "\u2581closet": 1737,
    "\u2581closethreadpool": 1738,
    "\u2581createthreadpool": 1739,
    "ust": 1740,
    "uary": 1741,
    "\u2581dec": 1742,
    "\u2581may": 1743,
    "65": 1744,
    "head": 1745,
    "sday": 1746,
    "spac": 1747,
    "\u2581tue": 1748,
    "\u2581wed": 1749,
    "7a": 1750,
    "\u2581map": 1751,
    "\u25810x7930": 1752,
    "ervice": 1753,
    "reat": 1754,
    "\u25810x44c": 1755,
    "\u2581filet": 1756,
    "\u25810x8811": 1757,
    "deppolicy": 1758,
    "\u2581filetimeto": 1759,
    "\u25810x4760": 1760,
    "\u2581remove": 1761,
    "\u2581destroy": 1762,
    "earchmode": 1763,
    "\u2581setsearchmode": 1764,
    "ask": 1765,
    "qui": 1766,
    "xit": 1767,
    "ecute": 1768,
    "\u2581setprocessdeppolicy": 1769,
    "e3": 1770,
    "ame": 1771,
    "arc": 1772,
    "\u2581fmode": 1773,
    "variant": 1774,
    "\u25810xa000": 1775,
    "808": 1776,
    "erre": 1777,
    "\u25810x1210ec0": 1778,
    "\u2581of": 1779,
    "\u25810x1211fcc": 1780,
    "\u25810x3b": 1781,
    "\u25810x4356": 1782,
    "\u25810x4960": 1783,
    "\u25810x410ac": 1784,
    "\u25810x42a00": 1785,
    "brush": 1786,
    "\u25810x95": 1787,
    "\u2581shfolder": 1788,
    "\u25810x59": 1789,
    "\u2581ofresource": 1790,
    "\u25810x4096": 1791,
    "\u25810x7ec0": 1792,
    "\u2581gettime": 1793,
    "\u25810xfeee0028": 1794,
    "\u25810x5b": 1795,
    "\u25810x414": 1796,
    "\u25810x4012": 1797,
    "\u25810x5266": 1798,
    "\u2581lstrcpya": 1799,
    "lew": 1800,
    "main": 1801,
    "state": 1802,
    "\u25810x7850": 1803,
    "\u25810x40b3e": 1804,
    "termin": 1805,
    "iskfree": 1806,
    "iskfreespac": 1807,
    "\u2581getdiskfreespac": 1808,
    "\u25810x1211f0": 1809,
    "\u25810x4614d0": 1810,
    "\u25810x7ff": 1811,
    "l6660d": 1812,
    "\u25810x42a4": 1813,
    "\u25810x4bd0": 1814,
    "\u2581creat": 1815,
    "\u25810x40a582": 1816,
    "\u25810x40a584": 1817,
    "\u25810x40a586": 1818,
    "\u25810x40a588": 1819,
    "\u25810x40a58a": 1820,
    "lw": 1821,
    "pref": 1822,
    "\u25810x3d": 1823,
    "stringw": 1824,
    "\u25810x40a580": 1825,
    "73": 1826,
    "a04": 1827,
    "\u25810x420": 1828,
    "\u25810x1211cc0": 1829,
    "gn": 1830,
    "\u25810x4418": 1831,
    "\u2581termin": 1832,
    "\u25810x40a57e": 1833,
    "\u25810x65": 1834,
    "\u25810xa1": 1835,
    "formata": 1836,
    "valueexa": 1837,
    "ename": 1838,
    "\u25810x1211f88": 1839,
    "drl6660drl6660drl6660drl6660drl6660": 1840,
    "648": 1841,
    "\u2581registry": 1842,
    "suped": 1843,
    "\u2581microsoft": 1844,
    "\u25810x100000": 1845,
    "\u25810x44e4b8": 1846,
    "yarg1": 1847,
    "\u25810xa8": 1848,
    "\u25810xfeee018": 1849,
    "\u2581oleinitialize": 1850,
    "\u25810x8f70": 1851,
    "tex": 1852,
    "\u25810x1211fd4": 1853,
    "940": 1854,
    "ad4": 1855,
    "roll": 1856,
    "\u25810xa7": 1857,
    "\u2581stem": 1858,
    "\u2581stem32": 1859,
    "6a": 1860,
    "32next": 1861,
    "\u25810x8260": 1862,
    "\u25810x1211c94": 1863,
    "heme": 1864,
    "namew": 1865,
    "\u25810xc00": 1866,
    "erredu": 1867,
    "\u25810x115": 1868,
    "preferredu": 1869,
    "preferreduilanguage": 1870,
    "\u2581getsystempaletteentries": 1871,
    "\u25810x66": 1872,
    "\u25818": 1873,
    "yarg2": 1874,
    "\u25810x8a40": 1875,
    "\u2581v": 1876,
    "tro": 1877,
    "\u25810x40a5b0": 1878,
    "\u2581findnext": 1879,
    "29": 1880,
    "\u2581no": 1881,
    "\u25810xff8": 1882,
    "\u25810x40a5ae": 1883,
    "\u25810x40a5b2": 1884,
    "\u25810x40a5b4": 1885,
    "\u25810x40a5b6": 1886,
    "\u25810x40a5b8": 1887,
    "\u25810x40a5ba": 1888,
    "preferreduilanguages": 1889,
    "len": 1890,
    "eck": 1891,
    "utex": 1892,
    "\u2581crt": 1893,
    "earray": 1894,
    "\u25810x12117a4": 1895,
    "\u25810x45f2": 1896,
    "\u25810x4093e4": 1897,
    "\u25810x121157c": 1898,
    "\u2581dw": 1899,
    "\u2581uxt": 1900,
    "\u2581uxtheme": 1901,
    "\u25810x45f4": 1902,
    "\u25810x1211728": 1903,
    "\u25810x1211f78": 1904,
    "c3": 1905,
    "ip": 1906,
    "zero": 1907,
    "\u25810x120f": 1908,
    "700": 1909,
    "\u25810x4e50": 1910,
    "\u25810x67000000": 1911,
    "ken": 1912,
    "\u25810x1211f74": 1913,
    "\u2581floatingpoint": 1914,
    "\u25810x92": 1915,
    "\u25810xa3": 1916,
    "byzero": 1917,
    "overflow": 1918,
    "isionbyzero": 1919,
    "\u25810xfeee002a": 1920,
    "\u258117": 1921,
    "\u25810xfeee0029": 1922,
    "5a": 1923,
    "\u2581ac": 1924,
    "\u2581mul": 1925,
    "\u25810x21": 1926,
    "\u2581muldiv": 1927,
    "\u25810x1211f84": 1928,
    "informationby": 1929,
    "vironmentvariablew": 1930,
    "\u25810x45f1": 1931,
    "lwapi": 1932,
    "\u25810x45f5": 1933,
    "\u2581shlwapi": 1934,
    "\u2581createsemap": 1935,
    "\u25810x45f6": 1936,
    "\u25810x1211f64": 1937,
    "\u25810xfeee002d": 1938,
    "fp": 1939,
    "\u25810x45f3": 1940,
    "\u2581getmain": 1941,
    "palette": 1942,
    "\u25810x45f7": 1943,
    "\u25810x45f8": 1944,
    "\u25810x45f9": 1945,
    "\u2581getvolume": 1946,
    "processlist": 1947,
    "\u2581getvolumeinformation": 1948,
    "\u2581getconsoleprocesslist": 1949,
    "\u25810x45fa": 1950,
    "\u25810xfeee002c": 1951,
    "\u2581q": 1952,
    "\u2581po": 1953,
    "\u25810xfeee002f": 1954,
    "trols": 1955,
    "\u25810x6f": 1956,
    "\u25810xb8": 1957,
    "\u25810x4cb0": 1958,
    "\u2581ntdll": 1959,
    "\u25810x40b3": 1960,
    "\u25810x45fe": 1961,
    "\u25810x4601": 1962,
    "\u25810x40a3f": 1963,
    "\u2581findfirstfilea": 1964,
    "f80": 1965,
    "\u25810xa4": 1966,
    "\u2581loadicona": 1967,
    "\u25810x53000000": 1968,
    "\u25810xfeee002b": 1969,
    "\u2581registerwindow": 1970,
    "\u25810x4012db": 1971,
    "6e": 1972,
    "\u25810xfeee002e": 1973,
    "\u2581getclassinfoa": 1974,
    "\u2581setfileattribute": 1975,
    "que": 1976,
    "\u2581cop": 1977,
    "\u25810x45ff": 1978,
    "\u25810x40935c": 1979,
    "\u25810x4093a5": 1980,
    "\u25810x4093a6": 1981,
    "\u25810x4093a7": 1982,
    "\u25810x4093a8": 1983,
    "\u25810x4093a9": 1984,
    "\u25810x4093aa": 1985,
    "\u25810x4093ab": 1986,
    "320": 1987,
    "\u25810xfee": 1988,
    "\u2581setup": 1989,
    "back": 1990,
    "\u25810x9b": 1991,
    "\u2581setdll": 1992,
    "\u25810x1211e44": 1993,
    "\u25810x424": 1994,
    "\u25810x4ab0": 1995,
    "\u25810x1211ee0": 1996,
    "b18": 1997,
    "\u25810x45fd": 1998,
    "\u25810x4df00": 1999,
    "keyw": 2000,
    "untime": 2001,
    "\u25810x19a": 2002,
    "\u2581createthread": 2003,
    "108": 2004,
    "\u25810x9c": 2005,
    "ork": 2006,
    "mapi": 2007,
    "myarg2": 2008,
    "buffers": 2009,
    "callback": 2010,
    "\u25810x1211dc8": 2011,
    "listhead": 2012,
    "\u2581initializeslisthead": 2013,
    "\u25810x198": 2014,
    "pooltimer": 2015,
    "\u25810xa6": 2016,
    "\u2581drag": 2017,
    "\u25810x4093ec": 2018,
    "180": 2019,
    "780": 2020,
    "\u25810x57e": 2021,
    "\u25810x4607": 2022,
    "\u2581em": 2023,
    "closekey": 2024,
    "\u25810x48400": 2025,
    "\u25810xfeee0031": 2026,
    "\u2581regclosekey": 2027,
    "100": 2028,
    "token": 2029,
    "\u25810x5e": 2030,
    "\u25810x7cd0": 2031,
    "\u2581dwmapi": 2032,
    "\u25810x566": 2033,
    "\u25810x7ad0": 2034,
    "yarg1myarg2": 2035,
    "\u25810xfeee0030": 2036,
    "croll": 2037,
    "\u25810x1211bc0": 2038,
    "\u2581cryptbase": 2039,
    "\u2581createprocess": 2040,
    "c1": 2041,
    "\u25810x1211e58": 2042,
    "\u2581form": 2043,
    "b2b": 2044,
    "\u25810x4428": 2045,
    "\u25810x12119ac": 2046,
    "item": 2047,
    "\u2581error": 2048,
    "\u2581globalfree": 2049,
    "bitmap": 2050,
    "viewoffile": 2051,
    "\u2581copy": 2052,
    "\u25810x7e8": 2053,
    "\u25810x7340": 2054,
    "vchost": 2055,
    "\u25810x40938": 2056,
    "\u2581getwindows": 2057,
    "bool": 2058,
    "mask": 2059,
    "\u2581varr": 2060,
    "delete": 2061,
    "4fromstr": 2062,
    "\u25810x9a": 2063,
    "c6": 2064,
    "env": 2065,
    "f08": 2066,
    "\u2581sys": 2067,
    "\u25810x7bd0": 2068,
    "\u2581svchost": 2069,
    "7f": 2070,
    "\u25810xfeee0032": 2071,
    "\u25810x7de4": 2072,
    "\u25810x7de5": 2073,
    "\u25810xfeee0033": 2074,
    "\u25810x78a0": 2075,
    "controls": 2076,
    "\u25810xe0": 2077,
    "\u25810x600": 2078,
    "\u25810xfeee0046": 2079,
    "\u25810x5d": 2080,
    "\u25810x57c": 2081,
    "\u25810x7270": 2082,
    "\u25810xfeee0034": 2083,
    "\u2581findfirstfilew": 2084,
    "\u25810xfeee0035": 2085,
    "\u2581sldrl6660drl6660drl6660drl6660drl6660drl6660drl6660drl6660": 2086,
    "ink": 2087,
    "enum": 2088,
    "\u25810xfeee0036": 2089,
    "\u25810xfeee0045": 2090,
    "\u25810x450": 2091,
    "\u25810x1808": 2092,
    "\u25810xfeee0037": 2093,
    "\u2581setdlldirectoryw": 2094,
    "6f": 2095,
    "og": 2096,
    "3ef0": 2097,
    "\u25810xa2": 2098,
    "console": 2099,
    "\u25810xfeee0038": 2100,
    "\u2581ra": 2101,
    "able": 2102,
    "toma": 2103,
    "\u25810x86": 2104,
    "\u25810x4800": 2105,
    "\u25810x409364": 2106,
    "\u25810x40a5cc": 2107,
    "\u25810x40a5dc": 2108,
    "\u25810x63": 2109,
    "\u25810x49c8": 2110,
    "\u25810xfeee003d": 2111,
    "\u25810xfeee0047": 2112,
    "ei": 2113,
    "\u25810x1211e40": 2114,
    "45": 2115,
    "\u25810x4630": 2116,
    "\u25810x1153ef0": 2117,
    "\u25810xfeee003e": 2118,
    "\u25810xad": 2119,
    "ong": 2120,
    "ut32": 2121,
    "\u2581oleaut32": 2122,
    "\u25810x1210f64": 2123,
    "\u25810xfeee004a": 2124,
    "\u2581lockresource": 2125,
    "hook": 2126,
    "\u2581err": 2127,
    "iseex": 2128,
    "\u25810x4cf0": 2129,
    "\u2581raiseex": 2130,
    "\u25810x461518": 2131,
    "\u25810x4af460": 2132,
    "\u25810xfeee0043": 2133,
    "\u25810xfeee0048": 2134,
    "\u2581raiseexception": 2135,
    "common": 2136,
    "\u25810xfeee003b": 2137,
    "\u25810xfeee0039": 2138,
    "\u25810xfeee003a": 2139,
    "\u2581initcommon": 2140,
    "\u2581initcommoncontrols": 2141,
    "ag": 2142,
    "\u25817": 2143,
    "\u25810x1211a04": 2144,
    "\u25810xfeee0040": 2145,
    "\u25810x46b0": 2146,
    "\u25810x1210ec": 2147,
    "\u25810xfeee003f": 2148,
    "\u25810xfeee0041": 2149,
    "\u25810x1211c04": 2150,
    "\u2581currentversion": 2151,
    "\u25810xfeee0044": 2152,
    "\u25810xfeee004d": 2153,
    "spec": 2154,
    "\u25810x27": 2155,
    "\u25810xfeee0042": 2156,
    "\u25810xfeee0049": 2157,
    "ast": 2158,
    "\u25810x480": 2159,
    "\u25810x604": 2160,
    "\u25810x47a0": 2161,
    "long": 2162,
    "valuea": 2163,
    "\u25810xfeee003c": 2164,
    "\u25810x7540": 2165,
    "localtime": 2166,
    "\u25810x1211f00": 2167,
    "\u25810xfeee004b": 2168,
    "\u2581messageboxa": 2169,
    "\u25810x72a0": 2170,
    "menuitem": 2171,
    "\u2581prec": 2172,
    "\u2581point": 2173,
    "\u25810x7150": 2174,
    "\u2581errata": 2175,
    "\u2581precision": 2176,
    "\u25810xfeee004c": 2177,
    "\u25810x508": 2178,
    "900": 2179,
    "\u25810x10005c": 2180,
    "\u25810x1211d04": 2181,
    "\u2581registerclipboard": 2182,
    "aff": 2183,
    "meta": 2184,
    "orsaf": 2185,
    "\u25810x40a59c": 2186,
    "orsafearray": 2187,
    "conditionvariable": 2188,
    "d24": 2189,
    "\u25810x96": 2190,
    "\u25810x403": 2191,
    "\u25810x7700": 2192,
    "\u25810x7a80": 2193,
    "\u25810x1211f24": 2194,
    "ara": 2195,
    "exit": 2196,
    "\u25810x1210f8": 2197,
    "\u25810x437038": 2198,
    "\u2581noaccess": 2199,
    "quires": 2200,
    "\u25810xfeee0055": 2201,
    "\u25810xfeee005e": 2202,
    "\u25810x5b2b": 2203,
    "\u25810xfeee0050": 2204,
    "\u25810x4af478": 2205,
    "\u25810xfeee004e": 2206,
    "bl": 2207,
    "\u25810xfeee0054": 2208,
    "alog": 2209,
    "\u25810x5f": 2210,
    "\u25810x1210e4": 2211,
    "\u25810xfeee0053": 2212,
    "ethread": 2213,
    "\u25810x42a403": 2214,
    "\u25810x42a404": 2215,
    "\u25810x42a405": 2216,
    "\u25810x42a406": 2217,
    "\u25810x42a407": 2218,
    "\u25810x42a408": 2219,
    "\u25810x42a409": 2220,
    "\u25810x42a40a": 2221,
    "\u25810x42a40b": 2222,
    "\u25810x42a40c": 2223,
    "\u25810x42a40d": 2224,
    "\u25810x42a40e": 2225,
    "\u25810x42a40f": 2226,
    "\u25810x1211db8": 2227,
    "\u2581regdelete": 2228,
    "\u25810xfeee004f": 2229,
    "quiresrwlockexclusive": 2230,
    "708": 2231,
    "ool": 2232,
    "data": 2233,
    "\u25810x73f0": 2234,
    "work": 2235,
    "\u25810x7d00": 2236,
    "\u25810x1210e0": 2237,
    "\u25810xfeee0051": 2238,
    "\u25810xfeee0052": 2239,
    "ument": 2240,
    "\u25810xac": 2241,
    "\u25810xfeee0064": 2242,
    "\u2581createwindow": 2243,
    "\u25810x404": 2244,
    "\u25810x4c10": 2245,
    "\u25810x3f2000": 2246,
    "\u25810xfeee005c": 2247,
    "\u2581loc": 2248,
    "\u2581format": 2249,
    "\u25810xfeee0056": 2250,
    "ang": 2251,
    "\u25810xb3": 2252,
    "\u2581controlfp": 2253,
    "barc": 2254,
    "adero": 2255,
    "\u25810xb0": 2256,
    "\u2581embarc": 2257,
    "\u25810xfeee0057": 2258,
    "\u25810xfeee005f": 2259,
    "\u2581embarcadero": 2260,
    "blt": 2261,
    "\u25810x9f": 2262,
    "\u25810x4196": 2263,
    "\u25810x30000": 2264,
    "\u2581localiz": 2265,
    "\u25810x1210e8": 2266,
    "\u2581localization": 2267,
    "\u2581getprivateprofile": 2268,
    "cor": 2269,
    "\u2581exem": 2270,
    "\u25810x42c0": 2271,
    "\u25810x437808": 2272,
    "\u2581exemyarg1myarg2": 2273,
    "\u25810x40a6": 2274,
    "\u25810xfeee0063": 2275,
    "\u2581getfileattributesa": 2276,
    "\u25810x140": 2277,
    "\u25810x7690": 2278,
    "\u25810x437806": 2279,
    "\u25810x43780a": 2280,
    "\u25810x43780c": 2281,
    "\u25810x43780e": 2282,
    "\u25810x437810": 2283,
    "\u25810x437812": 2284,
    "\u25810x437814": 2285,
    "\u25810x437816": 2286,
    "\u25810x437818": 2287,
    "\u25810x43781a": 2288,
    "\u25810x43781c": 2289,
    "\u25810x43781e": 2290,
    "\u25810xfeee0058": 2291,
    "\u2581gettempw": 2292,
    "\u25810xfeee0059": 2293,
    "econditionvariable": 2294,
    "\u25810x364": 2295,
    "\u25810x7d50": 2296,
    "\u2581regset": 2297,
    "\u25810xfeee005a": 2298,
    "\u25810xfeee005b": 2299,
    "\u25810xfeee0068": 2300,
    "26c": 2301,
    "\u2581exp": 2302,
    "\u25810x43f0": 2303,
    "\u25810xfeee0065": 2304,
    "340": 2305,
    "\u2581move": 2306,
    "\u25810x45fc": 2307,
    "\u2581corexit": 2308,
    "\u25810xfeee0060": 2309,
    "\u2581corexitprocess": 2310,
    "tin": 2311,
    "\u25810x80000000": 2312,
    "\u25810xfeee005d": 2313,
    "\u25810xfeee0069": 2314,
    "5000": 2315,
    "number": 2316,
    "\u2581commode": 2317,
    "ans": 2318,
    "b48": 2319,
    "\u25810xc8": 2320,
    "\u25810x1210f4": 2321,
    "\u25810xfeee0061": 2322,
    "\u25810xfeee0066": 2323,
    "bk": 2324,
    "\u25810x41c": 2325,
    "\u2581getdate": 2326,
    "\u25810xfeee0062": 2327,
    "ort": 2328,
    "\u25810x77e0": 2329,
    "\u2581userenv": 2330,
    "\u2581regcreate": 2331,
    "fac": 2332,
    "tive": 2333,
    "\u25810x7aa": 2334,
    "\u25810x1211f50": 2335,
    "\u2581lstrcpynw": 2336,
    "668": 2337,
    "\u25810x45fb": 2338,
    "\u2581shgetfile": 2339,
    "\u25810xfeee0067": 2340,
    "org": 2341,
    "\u2581getfull": 2342,
    "\u25810x1211dfc": 2343,
    "7c8": 2344,
    "secur": 2345,
    "\u2581unhandledexceptionfilter": 2346,
    "\u2581regcreatekey": 2347,
    "\u2581getuserdefault": 2348,
    "wind": 2349,
    "\u25810x26": 2350,
    "format": 2351,
    "orgex": 2352,
    "\u25810x44d5": 2353,
    "\u25810x644": 2354,
    "\u2581getlocaltime": 2355,
    "\u25810x188": 2356,
    "dl": 2357,
    "cef": 2358,
    "\u25810x62": 2359,
    "\u25810x71b0": 2360,
    "ateprocess": 2361,
    "\u25810x1211ef8": 2362,
    "\u25810x1211fc8": 2363,
    "b08": 2364,
    "files": 2365,
    "\u25810x59e": 2366,
    "\u25810x5ab0": 2367,
    "\u2581lstrcmpi": 2368,
    "\u25810x40762": 2369,
    "\u25810xfeee006b": 2370,
    "pla": 2371,
    "\u2581terminateprocess": 2372,
    "ech": 2373,
    "para": 2374,
    "texta": 2375,
    "\u25810xab": 2376,
    "\u25810x7ab0": 2377,
    "a44": 2378,
    "\u2581ns": 2379,
    "\u25810xa5": 2380,
    "\u25810xae": 2381,
    "\u2581send": 2382,
    "\u25810x1211e14": 2383,
    "\u2581setendoffile": 2384,
    "\u2581getthreadpreferreduilanguages": 2385,
    "\u25810x4605": 2386,
    "\u25810x4e39": 2387,
    "\u2581charpre": 2388,
    "stat": 2389,
    "\u25810x1210f5": 2390,
    "mutex": 2391,
    "\u25810x6d": 2392,
    "\u2581getdr": 2393,
    "\u2581rtlun": 2394,
    "\u25810xfeee006a": 2395,
    "\u25810xfeee0070": 2396,
    "\u2581setfilepointerex": 2397,
    "\u25810xa9": 2398,
    "\u2581nsis": 2399,
    "\u2581nsiserror": 2400,
    "\u2581rtlunwind": 2401,
    "\u25810xfeee0077": 2402,
    "\u2581createdirectorya": 2403,
    "49": 2404,
    "df0": 2405,
    "status": 2406,
    "\u25810x78d0": 2407,
    "\u25810x7aa40": 2408,
    "exitco": 2409,
    "\u25810x442": 2410,
    "\u25810x4bb0": 2411,
    "\u2581getexitco": 2412,
    "ert": 2413,
    "\u2581mei": 2414,
    "\u25810xea": 2415,
    "\u25810x406": 2416,
    "\u2581regenum": 2417,
    "\u25810x1210f2": 2418,
    "ca": 2419,
    "gical": 2420,
    "\u25810x4604": 2421,
    "\u25810xfeee0079": 2422,
    "\u2581lstrc": 2423,
    "logical": 2424,
    "\u25810x4300": 2425,
    "\u25810x1210f0": 2426,
    "\u25810x1211dbc": 2427,
    "\u2581registerclipboardformata": 2428,
    "\u25810x93": 2429,
    "\u25810x1210ee": 2430,
    "input": 2431,
    "\u25810x4010": 2432,
    "\u25810xfeee006c": 2433,
    "\u25810xfeee006e": 2434,
    "\u2581getlogical": 2435,
    "\u25810x537": 2436,
    "\u25810x1211790": 2437,
    "\u25810xfeee0078": 2438,
    "\u2581fe": 2439,
    "lect": 2440,
    "\u25810x2d4": 2441,
    "32first": 2442,
    "rl6660d": 2443,
    "\u25810x7060": 2444,
    "\u25810x1211f70": 2445,
    "\u25810xfeee0076": 2446,
    "iled": 2447,
    "affin": 2448,
    "\u25810x6c": 2449,
    "\u25810x81": 2450,
    "itymask": 2451,
    "\u25810xfeee006f": 2452,
    "affinitymask": 2453,
    "ec8": 2454,
    "ss2": 2455,
    "pass2": 2456,
    "\u2581memset": 2457,
    "\u2581meipass2": 2458,
    "\u25810xfeee006d": 2459,
    "\u25810xfeee007a": 2460,
    "\u25810xfeee007b": 2461,
    "sn": 2462,
    "ority": 2463,
    "\u25810x584": 2464,
    "\u25810xfeee0094": 2465,
    "118": 2466,
    "reque": 2467,
    "\u25810x1211f80": 2468,
    "723": 2469,
    "\u25810x7b40": 2470,
    "metafile": 2471,
    "\u2581end": 2472,
    "coree": 2473,
    "speci": 2474,
    "\u25810x4608": 2475,
    "security": 2476,
    "\u2581mscoree": 2477,
    "cd": 2478,
    "setinformation": 2479,
    "\u2581registerclassa": 2480,
    "echeck": 2481,
    "\u25810x423": 2482,
    "\u25810x44d2": 2483,
    "\u25810xfeee0071": 2484,
    "\u25810xaf": 2485,
    "\u25810x40b4": 2486,
    "\u25810x1211e28": 2487,
    "\u25810xfeee0073": 2488,
    "\u25810xfeee0074": 2489,
    "oem": 2490,
    "9000": 2491,
    "bits": 2492,
    "\u25810x1211f04": 2493,
    "\u25810xfeee0072": 2494,
    "\u25810x432": 2495,
    "unlock": 2496,
    "\u25810xffe1": 2497,
    "\u25810xfeee0075": 2498,
    "eek": 2499,
    "hot": 2500,
    "\u25810x606": 2501,
    "\u25810x7ec1": 2502,
    "\u2581strcmp": 2503,
    "\u25810x77000": 2504,
    "localename": 2505,
    "\u25810x1211508": 2506,
    "\u25810xfeee007c": 2507,
    "\u2581registerwindowmessagew": 2508,
    "\u25810x1009": 2509,
    "fx": 2510,
    "\u2581comm": 2511,
    "\u25810x428": 2512,
    "cb": 2513,
    "\u25810x4095": 2514,
    "\u25810x7750": 2515,
    "\u2581module": 2516,
    "\u2581getprocessaffinitymask": 2517,
    "ym": 2518,
    "\u2581lstrcata": 2519,
    "\u25810x1211c08": 2520,
    "\u25810x7300": 2521,
    "pt": 2522,
    "\u25810x6e": 2523,
    "\u25810x44ed": 2524,
    "\u2581tsldrl666": 2525,
    "os": 2526,
    "\u25816": 2527,
    "d000": 2528,
    "\u2581show": 2529,
    "\u25810x1075": 2530,
    "\u25810x121193c": 2531,
    "e04": 2532,
    "etype": 2533,
    "apshot": 2534,
    "\u25810x45b1": 2535,
    "\u25810xffe0": 2536,
    "\u2581initcommoncontrolsex": 2537,
    "ncy": 2538,
    "\u25810x44c4": 2539,
    "\u25810x7240": 2540,
    "\u25810x8230": 2541,
    "\u258132": 2542,
    "help32": 2543,
    "\u25810x74e0": 2544,
    "\u25810x7cf0": 2545,
    "oolhelp32": 2546,
    "\u2581findwindow": 2547,
    "c5": 2548,
    "\u25810x4602": 2549,
    "cefreque": 2550,
    "cefrequency": 2551,
    "\u2581queryperformancefrequency": 2552,
    "\u25810x71e0": 2553,
    "\u25810x7210": 2554,
    "\u25810xffe4": 2555,
    "snapshot": 2556,
    "\u25810x584d24": 2557,
    "oolhelp32snapshot": 2558,
    "\u2581createtoolhelp32snapshot": 2559,
    "b88": 2560,
    "\u25810x7030": 2561,
    "\u25810x7180": 2562,
    "cf": 2563,
    "bound": 2564,
    "\u25810x51": 2565,
    "500000": 2566,
    "\u25810x72d0": 2567,
    "\u2581septem": 2568,
    "\u25810x1211e1c": 2569,
    "\u25810x181": 2570,
    "\u25810x430": 2571,
    "\u25810x44f8": 2572,
    "\u25810xfffe": 2573,
    "\u25810xfeee007e": 2574,
    "mbb": 2575,
    "\u2581ismbb": 2576,
    "\u25810x7600": 2577,
    "\u2581select": 2578,
    "\u2581ismbblead": 2579,
    "\u25810xfeee007d": 2580,
    "\u25810xfeee007f": 2581,
    "\u25810xfeee0081": 2582,
    "lation": 2583,
    "\u25810x41d8": 2584,
    "\u25810x7480": 2585,
    "\u25810x7c000": 2586,
    "\u2581release": 2587,
    "\u2581getwindowsdirectorya": 2588,
    "onexit": 2589,
    "\u25810xffbb": 2590,
    "\u25810x121178c": 2591,
    "\u2581getenvironmentvariablew": 2592,
    "4e": 2593,
    "\u25810xffb8": 2594,
    "\u25810xffb9": 2595,
    "\u25810xffba": 2596,
    "\u25810xffbc": 2597,
    "\u25810xffbd": 2598,
    "\u25810xffbe": 2599,
    "\u25810xffe5": 2600,
    "\u25810x1211e50": 2601,
    "\u25810xfeee0080": 2602,
    "\u25810xfeee0086": 2603,
    "ld": 2604,
    "\u2581feb": 2605,
    "\u25810x7360": 2606,
    "\u25810x7870": 2607,
    "\u25810x7a50": 2608,
    "\u25810x7ae0": 2609,
    "\u25810xffb5": 2610,
    "\u25810xffb6": 2611,
    "\u25810xffb7": 2612,
    "\u25810xfeee0082": 2613,
    "add": 2614,
    "vis": 2615,
    "\u25810x990": 2616,
    "\u25810x99a0": 2617,
    "\u25810x1211c90": 2618,
    "\u25810xfeee0087": 2619,
    "\u2581process32next": 2620,
    "\u25810x75d0": 2621,
    "\u25810x7b10": 2622,
    "\u25810xfffc": 2623,
    "\u25810x1211edc": 2624,
    "\u25810x1211fc4": 2625,
    "\u2581regqueryvalueexa": 2626,
    "2d5": 2627,
    "ober": 2628,
    "areex": 2629,
    "\u25810x7120": 2630,
    "\u25810xfffd": 2631,
    "compareex": 2632,
    "\u25810xfeee0083": 2633,
    "compareexchange": 2634,
    "\u2581interlockedcompareexchange": 2635,
    "548": 2636,
    "pip": 2637,
    "pril": 2638,
    "zone": 2639,
    "\u2581apr": 2640,
    "\u2581febr": 2641,
    "\u2581april": 2642,
    "\u25810x7c90": 2643,
    "\u2581august": 2644,
    "\u2581getdriv": 2645,
    "\u2581november": 2646,
    "\u25810x1211784": 2647,
    "\u2581september": 2648,
    "\u25810x1005": 2649,
    "\u25810x70c0": 2650,
    "\u25810x7330": 2651,
    "\u25810x7660": 2652,
    "\u25810xfffb": 2653,
    "validate": 2654,
    "\u25810xfeee0084": 2655,
    "\u25810xfeee0085": 2656,
    "\u2581gettimezone": 2657,
    "\u2581heapvalidate": 2658,
    "\u2581gettimezoneinformation": 2659,
    "348": 2660,
    "\u25810x418": 2661,
    "\u2581getfileinformationby": 2662,
    "3000": 2663,
    "atex": 2664,
    "ectr": 2665,
    "link": 2666,
    "\u25810x401": 2667,
    "\u25810x7390": 2668,
    "\u25810x74b0": 2669,
    "\u25810x7570": 2670,
    "\u25810x76f0": 2671,
    "formatex": 2672,
    "\u2581releases": 2673,
    "\u25810x1211ddc": 2674,
    "\u2581getdrivetype": 2675,
    "\u2581globalunlock": 2676,
    "\u2581heapsetinformation": 2677,
    "eg": 2678,
    "eni": 2679,
    "scri": 2680,
    "tern": 2681,
    "dialog": 2682,
    "varian": 2683,
    "\u25810x40f6": 2684,
    "\u25810x1211cb8": 2685,
    "\u2581setthreadlocale": 2686,
    "ly": 2687,
    "ackage": 2688,
    "\u25810x7510": 2689,
    "\u25810x76c0": 2690,
    "\u25810x7900": 2691,
    "\u25810xffb4": 2692,
    "\u25810xffbf": 2693,
    "\u25810x7c000000": 2694,
    "\u25810xfeee0088": 2695,
    "atch": 2696,
    "b000": 2697,
    "index": 2698,
    "keall": 2699,
    "\u25810x509": 2700,
    "\u25810x4364": 2701,
    "\u25810x73c0": 2702,
    "\u25810x7450": 2703,
    "\u25810x75a0": 2704,
    "\u2581wakeall": 2705,
    "\u25810xfeee0089": 2706,
    "\u25810xfeee008c": 2707,
    "\u2581wakeallconditionvariable": 2708,
    "220": 2709,
    "3c8": 2710,
    "net": 2711,
    "une": 2712,
    "\u2581dup": 2713,
    "handler": 2714,
    "\u25810x7720": 2715,
    "valueexw": 2716,
    "uilanguage": 2717,
    "\u25810x1211cd0": 2718,
    "\u25810x1211f5c": 2719,
    "\u2581findnextfilea": 2720,
    "de8": 2721,
    "\u25810x7420": 2722,
    "\u25810x7be0": 2723,
    "\u2581memcpy": 2724,
    "\u25810x1211928": 2725,
    "\u25810xfeee008a": 2726,
    "\u25810xfeee008b": 2727,
    "\u25810xfeee008e": 2728,
    "\u2581createpalette": 2729,
    "\u25810xcf": 2730,
    "5c8": 2731,
    "b8c": 2732,
    "\u2581cl": 2733,
    "\u25810x4195": 2734,
    "\u25810x7840": 2735,
    "\u25810x79c0": 2736,
    "\u25810xffe2": 2737,
    "uly": 2738,
    "anuary": 2739,
    "\u25810x4c0": 2740,
    "\u2581march": 2741,
    "\u25810x7630": 2742,
    "\u25810xffe6": 2743,
    "\u2581october": 2744,
    "\u2581december": 2745,
    "\u2581february": 2746,
    "\u2581createmutex": 2747,
    "\u2581acquiresrwlockexclusive": 2748,
    "920": 2749,
    "ff0": 2750,
    "tes": 2751,
    "\u2581thu": 2752,
    "nesday": 2753,
    "\u25810x701": 2754,
    "\u25810xffb3": 2755,
    "\u2581monday": 2756,
    "\u2581sunday": 2757,
    "\u2581tuesday": 2758,
    "\u2581wednesday": 2759,
    "\u2581y": 2760,
    "a00": 2761,
    "uter": 2762,
    "\u2581div": 2763,
    "ursday": 2764,
    "\u25810x40e5": 2765,
    "\u25810x4c50": 2766,
    "\u25810x7ba0": 2767,
    "\u2581runtime": 2768,
    "\u2581thursday": 2769,
    "\u25810x1211d08": 2770,
    "140": 2771,
    "iday": 2772,
    "\u2581fri": 2773,
    "urday": 2774,
    "\u25810x448": 2775,
    "\u25810x7a20": 2776,
    "\u25810xfffa": 2777,
    "\u2581friday": 2778,
    "priority": 2779,
    "\u2581saturday": 2780,
    "windowproc": 2781,
    "\u25810x1211ea0": 2782,
    "\u2581gettempfilename": 2783,
    "47": 2784,
    "535": 2785,
    "3880": 2786,
    "ceex": 2787,
    "\u25810x475": 2788,
    "\u25810x8090": 2789,
    "\u25810xffb1": 2790,
    "sti": 2791,
    "\u2581ass": 2792,
    "\u2581post": 2793,
    "\u2581outof": 2794,
    "\u25810x4c42": 2795,
    "\u25810xffb2": 2796,
    "\u25810xfff9": 2797,
    "computer": 2798,
    "\u2581createw": 2799,
    "\u25810x1211f34": 2800,
    "\u25810xfeee008d": 2801,
    "\u2581outofmemory": 2802,
    "enh": 2803,
    "sid": 2804,
    "vio": 2805,
    "a4c4": 2806,
    "\u25810xffcd": 2807,
    "\u25810xfeee0097": 2808,
    "4f": 2809,
    "360": 2810,
    "pop": 2811,
    "\u2581rand": 2812,
    "\u25810x70a8": 2813,
    "\u25810x70f0": 2814,
    "\u25810xffb0": 2815,
    "violation": 2816,
    "\u2581setupapi": 2817,
    "\u2581to": 2818,
    "\u25810x7960": 2819,
    "\u25810x7990": 2820,
    "\u25810xffcf": 2821,
    "lex": 2822,
    "\u2581ws2": 2823,
    "\u25810x87": 2824,
    "\u25810x77b0": 2825,
    "\u25810x7b70": 2826,
    "\u25810x410acd": 2827,
    "\u25810x410ace": 2828,
    "\u2581openprocess": 2829,
    "f000": 2830,
    "descri": 2831,
    "\u25810x54a4c4": 2832,
    "\u25810x77000723": 2833,
    "ret": 2834,
    "crea": 2835,
    "\u2581interfac": 2836,
    "\u25810x1211d2c": 2837,
    "\u25810xfeee0098": 2838,
    "\u2581getcomputer": 2839,
    "41": 2840,
    "ati": 2841,
    "las": 2842,
    "\u25810x7780": 2843,
    "\u25810xffa0": 2844,
    "\u25810x435000": 2845,
    "b00": 2846,
    "\u25810x40c4": 2847,
    "\u25810xffa1": 2848,
    "\u25810xffce": 2849,
    "\u2581strlen": 2850,
    "\u25810x40a58c": 2851,
    "\u25810xfeee008f": 2852,
    "\u2581ext": 2853,
    "\u25810x700": 2854,
    "\u2581setbk": 2855,
    "\u25810x12110": 2856,
    "\u25810x121189c": 2857,
    "\u25810x1211e4c": 2858,
    "\u2581getthreaduilanguage": 2859,
    "l6660drl6660drl6660drl6660drl6660drl6660drl6660drl6660drl6660": 2860,
    "ternal": 2861,
    "\u25810xffa2": 2862,
    "\u2581findresourcew": 2863,
    "\u2581initializeconditionvariable": 2864,
    "ram": 2865,
    "stitu": 2866,
    "\u25810x9d": 2867,
    "\u25810xbe": 2868,
    "\u25810x1210ed": 2869,
    "\u2581exception": 2870,
    "\u25810xfeee0099": 2871,
    "atet": 2872,
    "onts": 2873,
    "ontsub": 2874,
    "\u25810x4e00": 2875,
    "stitutes": 2876,
    "\u25810x40969": 2877,
    "\u25810x44180": 2878,
    "\u2581fontsub": 2879,
    "\u25810x40a3d1": 2880,
    "\u25810x40a3d2": 2881,
    "\u25810x40a3d3": 2882,
    "\u25810x40a57c": 2883,
    "\u25810x435403": 2884,
    "\u25810x435404": 2885,
    "\u25810x435405": 2886,
    "\u25810x435406": 2887,
    "\u25810x120faa8": 2888,
    "\u25810xfeee0093": 2889,
    "\u2581fontsubstitutes": 2890,
    "\u2581getvolumeinformationw": 2891,
    "\u25813": 2892,
    "\u25810xb4": 2893,
    "\u25810x419": 2894,
    "\u25810xfeee0090": 2895,
    "\u25810xfeee0091": 2896,
    "\u25810xfeee0092": 2897,
    "ta": 2898,
    "a08": 2899,
    "cid": 2900,
    "\u25810x437": 2901,
    "service": 2902,
    "\u2581createdirectoryw": 2903,
    "\u2581setfileattributesa": 2904,
    "\u2581getcurrentdirectoryw": 2905,
    "fon": 2906,
    "ecall": 2907,
    "printf": 2908,
    "\u25810xffa3": 2909,
    "\u25810xffc6": 2910,
    "exception": 2911,
    "\u25810x435407": 2912,
    "\u25810xfeee0095": 2913,
    "\u25810xfeee009a": 2914,
    "410": 2915,
    "lorer": 2916,
    "\u25810xf0": 2917,
    "\u2581shellex": 2918,
    "\u25810x42a402": 2919,
    "\u25810x42a410": 2920,
    "\u2581lstrcmpw": 2921,
    "\u2581deletefilew": 2922,
    "class": 2923,
    "failed": 2924,
    "\u25810x405": 2925,
    "\u25810x7de8": 2926,
    "\u25810x7de9": 2927,
    "\u25810x7e00": 2928,
    "\u2581duplic": 2929,
    "\u25810x120ee": 2930,
    "ssp": 2931,
    "\u2581beg": 2932,
    "oemcp": 2933,
    "\u2581prop": 2934,
    "ertion": 2935,
    "changet": 2936,
    "\u25810xffe3": 2937,
    "\u2581oleacc": 2938,
    "\u25810x43440": 2939,
    "\u25810x435408": 2940,
    "\u25810x435409": 2941,
    "\u25810x43540a": 2942,
    "\u25810x43540b": 2943,
    "\u25810x43540c": 2944,
    "\u2581getoemcp": 2945,
    "\u2581assertion": 2946,
    "\u25810xfeee0096": 2947,
    "\u2581variantchanget": 2948,
    "calls": 2949,
    "\u2581disk": 2950,
    "\u2581stack": 2951,
    "\u25810x4235": 2952,
    "\u2581apphelp": 2953,
    "\u25810x1211fc0": 2954,
    "\u2581interfacen": 2955,
    "\u2581getlocaleinfo": 2956,
    "kg": 2957,
    "388": 2958,
    "atq": 2959,
    "sys": 2960,
    "styp": 2961,
    "bcatq": 2962,
    "teger": 2963,
    "\u25810x407b": 2964,
    "\u25810xffa4": 2965,
    "\u25810xfff7": 2966,
    "\u2581clbcatq": 2967,
    "\u2581integer": 2968,
    "\u2581createsemapho": 2969,
    "\u2581accessviolation": 2970,
    "found": 2971,
    "\u25810x10b": 2972,
    "stringex": 2973,
    "\u2581propsys": 2974,
    "\u25810x43540d": 2975,
    "\u2581comparestringex": 2976,
    "43": 2977,
    "\u2581def": 2978,
    "\u25810x7d94": 2979,
    "\u25810x7d95": 2980,
    "\u25810x40a5bc": 2981,
    "\u25810x437820": 2982,
    "\u2581comparestringw": 2983,
    "\u2581getlocaleinfoex": 2984,
    "qa": 2985,
    "ffc": 2986,
    "lient": 2987,
    "\u25810xba8": 2988,
    "ns": 2989,
    "327": 2990,
    "\u2581reset": 2991,
    "\u25810x42ff": 2992,
    "\u25810x43540e": 2993,
    "\u25810x43540f": 2994,
    "\u25810x437804": 2995,
    "\u2581getdiskfreespaceexa": 2996,
    "\u25815": 2997,
    "240": 2998,
    "2dc": 2999,
    "any": 3000,
    "pen": 3001,
    "\u25810xb7": 3002,
    "esource": 3003,
    "\u2581tlsfree": 3004,
    "\u2581external": 3005,
    "ash": 3006,
    "esst": 3007,
    "\u25810x7f0": 3008,
    "processt": 3009,
    "safecall": 3010,
    "\u25810x40a3d4": 3011,
    "\u25810x44c280": 3012,
    "\u25810x44d500": 3013,
    "\u25810x1211d7c": 3014,
    "\u2581getenvironmentstring": 3015,
    "a48": 3016,
    "ond": 3017,
    "patch": 3018,
    "\u25810xffe7": 3019,
    "notfound": 3020,
    "\u2581loadcursorw": 3021,
    "6e0": 3022,
    "deni": 3023,
    "ects": 3024,
    "\u2581dis": 3025,
    "\u25810xd8": 3026,
    "\u25810x100f": 3027,
    "\u25810x4700": 3028,
    "\u25810xffcc": 3029,
    "lay": 3030,
    "\u25810x9e": 3031,
    "\u25810xc0": 3032,
    "\u25810xb000": 3033,
    "\u25810xffa5": 3034,
    "insafecall": 3035,
    "\u2581privilege": 3036,
    "\u2581exceptioninsafecall": 3037,
    "\u2581res": 3038,
    "ccess": 3039,
    "ecast": 3040,
    "under": 3041,
    "\u25810xbf": 3042,
    "\u2581rang": 3043,
    "erbuff": 3044,
    "verflow": 3045,
    "\u25810xffa6": 3046,
    "\u25810xffcb": 3047,
    "argument": 3048,
    "creating": 3049,
    "leaccess": 3050,
    "\u25810x12117f4": 3051,
    "\u25810x1211808": 3052,
    "\u25810xfeee009b": 3053,
    "\u2581rangecheck": 3054,
    "\u2581assertionfailed": 3055,
    "\u2581up": 3056,
    "clas": 3057,
    "omany": 3058,
    "outof": 3059,
    "\u2581chit": 3060,
    "bounds": 3061,
    "pointo": 3062,
    "otsuped": 3063,
    "callsnot": 3064,
    "classtyp": 3065,
    "floating": 3066,
    "\u2581toomany": 3067,
    "openfiles": 3068,
    "indexoutof": 3069,
    "\u25810x1211f18": 3070,
    "dinstruction": 3071,
    "callsnotsuped": 3072,
    "classtypecast": 3073,
    "floatingpoint": 3074,
    "pointoverflow": 3075,
    "divisionbyzero": 3076,
    "\u2581errorcreating": 3077,
    "\u2581divisionbyzero": 3078,
    "indexoutofbounds": 3079,
    "pointeroperation": 3080,
    "\u2581integeroverflow": 3081,
    "\u2581invalidfilename": 3082,
    "\u2581rangecheckerror": 3083,
    "\u2581toomanyopenfiles": 3084,
    "\u2581externalexception": 3085,
    "\u2581interfacenotsuped": 3086,
    "\u2581errorcreatingvariant": 3087,
    "\u2581invalidfloatingpoint": 3088,
    "\u2581variantcallsnotsuped": 3089,
    "\u2581floatingpointoverflow": 3090,
    "\u2581floatingpointdivisionbyzero": 3091,
    "\u2581invalidfloatingpointoperation": 3092,
    "bey": 3093,
    "\u2581wm": 3094,
    "pipe": 3095,
    "ttyp": 3096,
    "popup": 3097,
    "beyond": 3098,
    "denied": 3099,
    "numeric": 3100,
    "package": 3101,
    "\u25810x169b": 3102,
    "\u25810xffa7": 3103,
    "ttypecon": 3104,
    "underflow": 3105,
    "\u2581diskfull": 3106,
    "\u25810x1211e2c": 3107,
    "\u25810xfeee009c": 3108,
    "\u2581fileaccess": 3109,
    "\u2581readbeyond": 3110,
    "numericinput": 3111,
    "varianttypecon": 3112,
    "\u2581stackoverflow": 3113,
    "\u2581invalidvariant": 3114,
    "\u2581fileaccessdenied": 3115,
    "\u2581invalidnumericinput": 3116,
    "\u2581readbeyondendoffile": 3117,
    "varianttypeconversion": 3118,
    "\u2581invalidclasstypecast": 3119,
    "\u2581privilegedinstruction": 3120,
    "\u2581floatingpointunderflow": 3121,
    "\u2581invalidpointeroperation": 3122,
    "\u2581invalidvariantoperation": 3123,
    "\u2581invalidvarianttypeconversion": 3124,
    "\u25810x40b8": 3125,
    "\u25810xffd3": 3126,
    "\u25810x44d250": 3127,
    "\u2581lstrcmpia": 3128,
    "f58": 3129,
    "\u25810x8e90": 3130,
    "188": 3131,
    "hed": 3132,
    "nect": 3133,
    "\u25810x770": 3134,
    "\u25810x4089": 3135,
    "\u2581charlow": 3136,
    "\u25810x461548": 3137,
    "destroy": 3138,
    "\u2581explorer": 3139,
    "\u2581getenvironmentstrings": 3140,
    "504": 3141,
    "5c4": 3142,
    "special": 3143,
    "packageid": 3144,
    "specialfolder": 3145,
    "\u2581createprocessa": 3146,
    "\u2581shgetspecialfolder": 3147,
    "\u2581getcurrentpackageid": 3148,
    "pkg": 3149,
    "\u25810x605": 3150,
    "\u25810x1211118": 3151,
    "\u25810x1211a44": 3152,
    "2de0": 3153,
    "\u25810x47f": 3154,
    "\u25810x120f5": 3155,
    "\u25810x40b44": 3156,
    "\u25810x44280": 3157,
    "\u25810x4093a4": 3158,
    "\u25810x4093ac": 3159,
    "\u25810x40a3d5": 3160,
    "\u25810x40a3d6": 3161,
    "\u25810x40a3d7": 3162,
    "\u25810xfeee009d": 3163,
    "b60": 3164,
    "hor": 3165,
    "atible": 3166,
    "datoma": 3167,
    "\u25810x4400": 3168,
    "\u25810x1211eac": 3169,
    "688": 3170,
    "ymbo": 3171,
    "liclink": 3172,
    "\u25810x4059": 3173,
    "\u25810x7dec": 3174,
    "\u25810x7ded": 3175,
    "\u25810xffa8": 3176,
    "\u25810xffc5": 3177,
    "descript": 3178,
    "\u25810x429000": 3179,
    "ymboliclink": 3180,
    "oken": 3181,
    "\u25810x7df0": 3182,
    "\u25810x40a40": 3183,
    "ymboliclinkw": 3184,
    "\u2581freelibraryw": 3185,
    "\u2581mapviewoffile": 3186,
    "securitydescript": 3187,
    "\u2581createsymboliclinkw": 3188,
    "1c8": 3189,
    "\u25810x6b": 3190,
    "\u25810x41f7": 3191,
    "\u25810x4c30": 3192,
    "\u25810xffa9": 3193,
    "\u25810x4c50c0": 3194,
    "\u25810x4e2de0": 3195,
    "\u2581flushfile": 3196,
    "\u2581flushfilebuffers": 3197,
    "\u25819": 3198,
    "328": 3199,
    "\u25810x3000": 3200,
    "\u25810x3f20": 3201,
    "\u25810x42ff40": 3202,
    "\u2581gettickcount64": 3203,
    "\u2581regsetvalueexa": 3204,
    "\u2581getsyscolorbrush": 3205,
    "988": 3206,
    "d40": 3207,
    "hen": 3208,
    "fff0": 3209,
    "urns": 3210,
    "ypeex": 3211,
    "\u25810x488": 3212,
    "horeexw": 3213,
    "returns": 3214,
    "lication": 3215,
    "ornumber": 3216,
    "poolwait": 3217,
    "callbacks": 3218,
    "hencallback": 3219,
    "\u2581enumsystem": 3220,
    "processwrite": 3221,
    "processmemory": 3222,
    "\u2581waitforthread": 3223,
    "hencallbackreturns": 3224,
    "pooltimercallbacks": 3225,
    "securitydescriptor": 3226,
    "\u2581flushprocesswrite": 3227,
    "\u2581setthreadpoolwait": 3228,
    "\u2581createsemaphoreexw": 3229,
    "\u2581setthreadpooltimer": 3230,
    "\u2581closethreadpoolwait": 3231,
    "\u2581variantchangetypeex": 3232,
    "\u2581closethreadpooltimer": 3233,
    "\u2581createthreadpoolwait": 3234,
    "\u2581createthreadpooltimer": 3235,
    "\u2581flushprocesswritebuffers": 3236,
    "\u2581getcurrentprocessornumber": 3237,
    "\u2581freelibrarywhencallbackreturns": 3238,
    "\u2581waitforthreadpooltimercallbacks": 3239,
    "okup": 3240,
    "\u25810xdc": 3241,
    "\u25810xffc7": 3242,
    "\u2581lookup": 3243,
    "3ea": 3244,
    "712": 3245,
    "928": 3246,
    "aa4": 3247,
    "sol": 3248,
    "annot": 3249,
    "ecomp": 3250,
    "\u25810xffca": 3251,
    "\u25810xfff8": 3252,
    "\u25810x1210ea": 3253,
    "162": 3254,
    "\u2581wts": 3255,
    "\u25810x160": 3256,
    "\u25810x4603": 3257,
    "\u2581iswindow": 3258,
    "\u25810xfeee009e": 3259,
    "\u2581mapvirtual": 3260,
    "localfiletime": 3261,
    "\u2581filetimetolocalfiletime": 3262,
    "260": 3263,
    "mod": 3264,
    "sub": 3265,
    "valuew": 3266,
    "\u25810x4368": 3267,
    "\u25810xffaa": 3268,
    "\u25810x100300": 3269,
    "processtoken": 3270,
    "\u2581shgetfileinfoa": 3271,
    "\u2581openprocesstoken": 3272,
    "ad2": 3273,
    "\u2581resum": 3274,
    "\u25810xfeedf0": 3275,
    "\u2581charpreva": 3276,
    "\u2581duplicate": 3277,
    "\u2581resumethread": 3278,
    "gitem": 3279,
    "\u25810x7af0": 3280,
    "own": 3281,
    "\u25810xffec": 3282,
    "\u25810xfeee009f": 3283,
    "288": 3284,
    "mul": 3285,
    "neg": 3286,
    "xor": 3287,
    "idiv": 3288,
    "\u25810x412": 3289,
    "\u2581varcy": 3290,
    "\u2581varor": 3291,
    "\u2581varr8": 3292,
    "\u2581varadd": 3293,
    "\u2581varand": 3294,
    "\u2581varcmp": 3295,
    "\u2581vardiv": 3296,
    "\u2581varmod": 3297,
    "\u2581varmul": 3298,
    "\u2581varneg": 3299,
    "\u2581varnot": 3300,
    "\u2581varsub": 3301,
    "\u2581varxor": 3302,
    "\u2581varbool": 3303,
    "\u2581vardate": 3304,
    "\u2581varidiv": 3305,
    "\u25810x1211e38": 3306,
    "\u25810x1211f44": 3307,
    "\u25810xfeee00a1": 3308,
    "\u2581varcyfromstr": 3309,
    "\u2581vari4fromstr": 3310,
    "\u2581varr4fromstr": 3311,
    "\u2581varr8fromstr": 3312,
    "\u2581varbstrfromcy": 3313,
    "\u2581comparestringa": 3314,
    "\u2581varboolfromstr": 3315,
    "\u2581vardatefromstr": 3316,
    "\u2581createwindowexa": 3317,
    "\u2581varbstrfrombool": 3318,
    "\u2581varbstrfromdate": 3319,
    "\u25810xbd4": 3320,
    "\u25810x44f9": 3321,
    "allocate": 3322,
    "\u25810x5026c": 3323,
    "\u25810x1211d4c": 3324,
    "\u25810x1211e98": 3325,
    "\u25810xfeee00a2": 3326,
    "\u2581shellexecute": 3327,
    "dlg": 3328,
    "\u25810x4076": 3329,
    "\u25810xffd2": 3330,
    "\u25810xfeee00a0": 3331,
    "lec": 3332,
    "inst": 3333,
    "keya": 3334,
    "\u25810x43f": 3335,
    "\u25810x7e0": 3336,
    "\u2581copyfilea": 3337,
    "ecompatible": 3338,
    "\u2581isvalidlocale": 3339,
    "\u2581createcompatible": 3340,
    "ab0": 3341,
    "c08": 3342,
    "load": 3343,
    "\u25810x4229": 3344,
    "once": 3345,
    "ourc": 3346,
    "ow64": 3347,
    "\u25810x4357": 3348,
    "c9": 3349,
    "bde": 3350,
    "lcid": 3351,
    "drive": 3352,
    "\u25810xffc9": 3353,
    "\u25810xfeee00bc": 3354,
    "208": 3355,
    "380": 3356,
    "50f8": 3357,
    "\u25810xba": 3358,
    "onceex": 3359,
    "section": 3360,
    "\u25810x42ad": 3361,
    "\u25810x8814": 3362,
    "\u2581globalf": 3363,
    "ecuteonce": 3364,
    "hmetafile": 3365,
    "\u25810xfeee00a3": 3366,
    "\u2581initonceex": 3367,
    "\u2581initonceexecuteonce": 3368,
    "8b": 3369,
    "lecs": 3370,
    "paint": 3371,
    "\u25810x6a6": 3372,
    "\u2581sleepcon": 3373,
    "systemtime": 3374,
    "ditionvariablecs": 3375,
    "\u2581getenvironmentvariablea": 3376,
    "\u2581sleepconditionvariablecs": 3377,
    "179": 3378,
    "reg": 3379,
    "\u25810x4020": 3380,
    "sk": 3381,
    "bd0": 3382,
    "datet": 3383,
    "\u25810xfc": 3384,
    "\u25810x1211954": 3385,
    "\u2581duplicatehandle": 3386,
    "397": 3387,
    "d38": 3388,
    "\u25810x8815": 3389,
    "defaultu": 3390,
    "defaultuilanguage": 3391,
    "vironmentstringsa": 3392,
    "\u2581setfileattributesw": 3393,
    "\u2581filetimetosystemtime": 3394,
    "b70": 3395,
    "formatw": 3396,
    "unction": 3397,
    "\u25810x7df1": 3398,
    "\u25810x80e0": 3399,
    "\u25810x13fff0": 3400,
    "332": 3401,
    "deb": 3402,
    "\u25810xd3": 3403,
    "\u25810x5ab": 3404,
    "\u2581trans": 3405,
    "\u2581unmap": 3406,
    "\u25810x88c0": 3407,
    "\u25810x121188": 3408,
    "\u2581showwindow": 3409,
    "\u2581unmapviewoffile": 3410,
    "\u2581getsystemdefault": 3411,
    "3e6": 3412,
    "799": 3413,
    "\u25810xe8": 3414,
    "osdatet": 3415,
    "\u25810xffc8": 3416,
    "\u25810x4d500": 3417,
    "\u25810x409411": 3418,
    "\u25810x409412": 3419,
    "\u25810x409413": 3420,
    "\u25810x409414": 3421,
    "\u25810x409415": 3422,
    "\u25810x409416": 3423,
    "\u25810x409417": 3424,
    "\u25810x40a3e9": 3425,
    "\u25810x40a3ea": 3426,
    "\u25810x40a3eb": 3427,
    "\u25810x40a3ec": 3428,
    "\u25810x40a3ed": 3429,
    "\u25810x40a3ee": 3430,
    "\u25810x40a3ef": 3431,
    "\u2581setscroll": 3432,
    "\u25810xfeee00a4": 3433,
    "284": 3434,
    "74c": 3435,
    "a4c": 3436,
    "cc8": 3437,
    "terect": 3438,
    "\u25810x110": 3439,
    "\u25810xffc4": 3440,
    "\u25810xfff6": 3441,
    "\u25810x4786e0": 3442,
    "\u2581globalad": 3443,
    "\u25810x76500000": 3444,
    "\u25810xfeee00a5": 3445,
    "use": 3446,
    "etch": 3447,
    "icli": 3448,
    "prop": 3449,
    "\u2581ssp": 3450,
    "\u25810xc7": 3451,
    "\u25810x4227": 3452,
    "\u2581sspicli": 3453,
    "\u25810x5b2bd0": 3454,
    "\u25810x12116c0": 3455,
    "\u25810x1211ec8": 3456,
    "\u2581windowsnt": 3457,
    "\u2581createmutexa": 3458,
    "\u2581getfullnamea": 3459,
    "148": 3460,
    "948": 3461,
    "\u2581dx": 3462,
    "lang": 3463,
    "named": 3464,
    "\u25810xf8": 3465,
    "\u25810xfe": 3466,
    "\u25810x402": 3467,
    "\u25810x181b": 3468,
    "\u2581sendmessagea": 3469,
    "190": 3470,
    "750": 3471,
    "\u2581os": 3472,
    "\u2581ri": 3473,
    "prog": 3474,
    "\u2581sfc": 3475,
    "langid": 3476,
    "imetofiletime": 3477,
    "\u2581getvolumeinformationa": 3478,
    "ff8": 3479,
    "indi": 3480,
    "\u25810xbb": 3481,
    "\u25810x202": 3482,
    "\u25810x607": 3483,
    "\u2581getcursor": 3484,
    "\u2581setfiletime": 3485,
    "\u2581filenotfound": 3486,
    "\u2581variantorsafearray": 3487,
    "\u2581errorcreatingvariantorsafearray": 3488,
    "\u2581variantorsafearrayindexoutofbounds": 3489,
    "66f": 3490,
    "f99": 3491,
    "ched": 3492,
    "\u25810x8280": 3493,
    "\u2581riched": 3494,
    "\u25810x1211f14": 3495,
    "\u25810xfeee00a6": 3496,
    "\u25810xfeee00a7": 3497,
    "\u2581findwindowa": 3498,
    "rl6660dl6660d": 3499,
    "\u2581invalidargument": 3500,
    "ce8": 3501,
    "e48": 3502,
    "ync": 3503,
    "\u2581fre": 3504,
    "async": 3505,
    "textw": 3506,
    "timet": 3507,
    "\u25810xd4": 3508,
    "\u25810xf1": 3509,
    "\u25810x42eb": 3510,
    "\u25810x78f0": 3511,
    "\u25810xfeee00a8": 3512,
    "\u2581writeprivateprofile": 3513,
    "144": 3514,
    "f78": 3515,
    "9138": 3516,
    "lipr": 3517,
    "regi": 3518,
    "\u25810xde": 3519,
    "asynckey": 3520,
    "\u25810x50850": 3521,
    "\u25810x537500": 3522,
    "\u25810xfeee00a9": 3523,
    "\u2581getasynckey": 3524,
    "\u2581mapvirtualkeyw": 3525,
    "\u2581getasynckeystate": 3526,
    "\u2581getfileinformationbyhandl": 3527,
    "\u25810x8410": 3528,
    "\u2581transla": 3529,
    "\u2581module32next": 3530,
    "\u2581rsa": 3531,
    "\u25810xbc": 3532,
    "\u2581dxgi": 3533,
    "\u2581peek": 3534,
    "\u25810x42d0": 3535,
    "\u2581rsaenh": 3536,
    "econsole": 3537,
    "\u25810x7f8003": 3538,
    "\u25810x7f8004": 3539,
    "\u25810x7f8005": 3540,
    "\u25810x7f8006": 3541,
    "\u25810x7f8007": 3542,
    "\u25810x7f8008": 3543,
    "\u25810x7f8009": 3544,
    "\u25810x7f800a": 3545,
    "\u25810x7f800b": 3546,
    "\u25810x7f800c": 3547,
    "\u25810x7f800d": 3548,
    "\u25810x7f800e": 3549,
    "\u25810x7f800f": 3550,
    "\u2581createexw": 3551,
    "\u2581dxgidebug": 3552,
    "\u25810xfeee00aa": 3553,
    "\u2581systemtimet": 3554,
    "\u2581defwindowproc": 3555,
    "aaaaaaaaaaaaaaaa": 3556,
    "\u2581setfileinformationby": 3557,
    "008": 3558,
    "550": 3559,
    "6a0": 3560,
    "rec": 3561,
    "\u2581dispatch": 3562,
    "\u25810xfeee00ab": 3563,
    "\u2581process32first": 3564,
    "\u25810xe4": 3565,
    "\u25810x7230": 3566,
    "\u25810xffc2": 3567,
    "\u25810xfeee00ac": 3568,
    "\u2581findnextfilew": 3569,
    "\u2581getdrivetypea": 3570,
    "\u2581releasesrwlockexclusive": 3571,
    "c7": 3572,
    "3c4": 3573,
    "da0": 3574,
    "e46": 3575,
    "fd4": 3576,
    "indirect": 3577,
    "\u25810xfeee00ad": 3578,
    "\u25810xfeee00ae": 3579,
    "\u2581exitthread": 3580,
    "3e8": 3581,
    "588": 3582,
    "f18": 3583,
    "ance": 3584,
    "\u25810x500": 3585,
    "\u25810x419638": 3586,
    "\u25810x1211ad4": 3587,
    "4d": 3588,
    "1e5": 3589,
    "788": 3590,
    "longa": 3591,
    "\u25810x50e": 3592,
    "\u25810xffe8": 3593,
    "\u25810x1211f30": 3594,
    "235": 3595,
    "eec": 3596,
    "\u2581sc": 3597,
    "\u25810x421": 3598,
    "\u25810x12108": 3599,
    "\u25810x43f6b0": 3600,
    "\u25810x4e39b4": 3601,
    "gu": 3602,
    "atoma": 3603,
    "\u25810x1327": 3604,
    "\u25810xffd0": 3605,
    "\u25810x1211f10": 3606,
    "\u2581getprivateprofilestringa": 3607,
    "e000": 3608,
    "pleob": 3609,
    "\u25810x280": 3610,
    "\u25810x41f": 3611,
    "\u2581setst": 3612,
    "\u2581enable": 3613,
    "formulti": 3614,
    "\u2581getscroll": 3615,
    "\u25810xfeee00d7": 3616,
    "formultipleob": 3617,
    "\u2581setenvironmentvariablew": 3618,
    "2c8": 3619,
    "dis": 3620,
    "\u2581di": 3621,
    "\u25810xe3": 3622,
    "\u2581freer": 3623,
    "\u25810x11000": 3624,
    "\u2581freeresource": 3625,
    "ry": 3626,
    "af0": 3627,
    "rit": 3628,
    "eatom": 3629,
    "\u25810xc4": 3630,
    "\u2581writ": 3631,
    "\u25810x4226": 3632,
    "\u25810x46c0": 3633,
    "\u25810x10021": 3634,
    "\u25810x169be": 3635,
    "\u25810x44f8e0": 3636,
    "\u25810x1211e00": 3637,
    "560": 3638,
    "apture": 3639,
    "\u25810x43b": 3640,
    "\u25810x422a": 3641,
    "\u25810x7b90": 3642,
    "\u25810x7e80": 3643,
    "\u25810xffab": 3644,
    "\u25810xffc3": 3645,
    "\u2581unlock": 3646,
    "\u25810x12112": 3647,
    "\u25810x100fdd": 3648,
    "\u2581messageboxw": 3649,
    "\u2581setstdhandle": 3650,
    "ee8": 3651,
    "\u2581are": 3652,
    "\u25810xd7": 3653,
    "\u25810x8330": 3654,
    "\u25810x1327ec": 3655,
    "\u25810x5b2be8": 3656,
    "\u25810x1211f54": 3657,
    "\u2581getmodulehandl": 3658,
    "\u2581getlogicaldrive": 3659,
    "top": 3660,
    "\u25810x61e": 3661,
    "\u2581regcreatekeyexa": 3662,
    "608": 3663,
    "log": 3664,
    "atom": 3665,
    "\u25810xdb": 3666,
    "\u25810x40f": 3667,
    "\u25810x5a1": 3668,
    "\u25810x7bf0": 3669,
    "\u25810x44c418": 3670,
    "\u25810x10000000": 3671,
    "adm": 3672,
    "foc": 3673,
    "ons": 3674,
    "w32": 3675,
    "focus": 3676,
    "\u25810xdf": 3677,
    "\u25810x549": 3678,
    "\u25810x602": 3679,
    "\u25810x461500": 3680,
    "\u25810xfeee00b1": 3681,
    "\u2581removedirectorya": 3682,
    "fae": 3683,
    "\u2581add": 3684,
    "\u2581wcs": 3685,
    "\u25810x468": 3686,
    "\u25810x41e4": 3687,
    "\u25810xffc0": 3688,
    "\u25810x435002": 3689,
    "\u25810x435004": 3690,
    "\u25810x435006": 3691,
    "\u25810x435008": 3692,
    "\u25810x43500a": 3693,
    "\u25810x43500c": 3694,
    "\u25810x43500e": 3695,
    "\u25810x435010": 3696,
    "\u25810xfeee00af": 3697,
    "\u25810xfeee00b0": 3698,
    "\u2581enumsystemlocales": 3699,
    "aw": 3700,
    "2e0": 3701,
    "9fad": 3702,
    "\u25810x490": 3703,
    "\u25810x40d6": 3704,
    "\u25810x4967": 3705,
    "\u25810x56fc": 3706,
    "\u25810x401000": 3707,
    "\u25810x435014": 3708,
    "\u25810x435018": 3709,
    "\u25810x57eb18": 3710,
    "upp": 3711,
    "de23": 3712,
    "\u25810xc3": 3713,
    "\u25810x4374": 3714,
    "\u25810x7a40": 3715,
    "\u25810x40769": 3716,
    "\u25810x502dc": 3717,
    "\u2581getmenu": 3718,
    "atethread": 3719,
    "deprocess": 3720,
    "\u25810x4093d1": 3721,
    "\u25810x4093d2": 3722,
    "\u25810x4093d3": 3723,
    "\u25810x435016": 3724,
    "\u25810x44edc0": 3725,
    "\u2581getexitcodeprocess": 3726,
    "d48": 3727,
    "346d": 3728,
    "b474": 3729,
    "itor": 3730,
    "\u25810xb5": 3731,
    "\u25810xec": 3732,
    "\u25810x4289": 3733,
    "\u25810x47e0": 3734,
    "\u25810xfff4": 3735,
    "b68": 3736,
    "ee2": 3737,
    "round": 3738,
    "\u25810xf2": 3739,
    "\u25810xf3": 3740,
    "\u25810x164": 3741,
    "\u25810x181c": 3742,
    "\u25810x435402": 3743,
    "\u25810x1211d60": 3744,
    "\u25810x169bcfc": 3745,
    "\u2581regenumkey": 3746,
    "\u2581formatmessagea": 3747,
    "92d": 3748,
    "ace": 3749,
    "d63d": 3750,
    "\u25810xef": 3751,
    "\u25810xf7": 3752,
    "lgitem": 3753,
    "\u25810x79a0": 3754,
    "\u25810x7e74": 3755,
    "\u25810x7e75": 3756,
    "\u25810x8340": 3757,
    "\u25810x188e04": 3758,
    "ac2": 3759,
    "fff8": 3760,
    "mouse": 3761,
    "\u25810x6a": 3762,
    "\u25810xbd": 3763,
    "active": 3764,
    "\u25810x40d": 3765,
    "\u25810x41d": 3766,
    "\u25810x56fb": 3767,
    "\u25810xfff5": 3768,
    "\u2581onexit": 3769,
    "\u25810x539138": 3770,
    "\u2581selectob": 3771,
    "\u25810x1211f1c": 3772,
    "\u25810xfeee00b4": 3773,
    "218": 3774,
    "584": 3775,
    "996": 3776,
    "ee4": 3777,
    "f417": 3778,
    "f2920": 3779,
    "foreg": 3780,
    "\u25810x7d98": 3781,
    "\u25810x7d99": 3782,
    "\u25810x434000": 3783,
    "foreground": 3784,
    "\u25810xfeee00b2": 3785,
    "\u25810xfeee00b3": 3786,
    "foregroundwindow": 3787,
    "\u2581terminatethread": 3788,
    "\u2581shgetspecialfolderw": 3789,
    "3d1": 3790,
    "b84": 3791,
    "\u2581sn": 3792,
    "hash": 3793,
    "with": 3794,
    "\u25810xb6": 3795,
    "\u25810xeb": 3796,
    "78de23": 3797,
    "7c9fad": 3798,
    "\u25810x40e6": 3799,
    "\u25810x43a2": 3800,
    "\u25810x475648": 3801,
    "\u25810x600700": 3802,
    "\u25810x63000000": 3803,
    "d08": 3804,
    "ine": 3805,
    "array": 3806,
    "etchblt": 3807,
    "\u25810x4015": 3808,
    "\u25810x40000": 3809,
    "\u2581creater": 3810,
    "\u25810xfeee00b5": 3811,
    "\u2581lookupprivilege": 3812,
    "il": 3813,
    "ad8": 3814,
    "fic": 3815,
    "\u25810xf9": 3816,
    "\u25810xfb": 3817,
    "a6d63d": 3818,
    "64f2920": 3819,
    "\u25810x435410": 3820,
    "\u25810x43f698": 3821,
    "\u25810x549ad4": 3822,
    "f48": 3823,
    "\u25810xd5": 3824,
    "\u25810xe7": 3825,
    "\u25810xfa": 3826,
    "ession": 3827,
    "\u25810x6cc": 3828,
    "\u25810x7e78": 3829,
    "\u25810xffef": 3830,
    "\u2581update": 3831,
    "dethread": 3832,
    "\u2581registerclassexa": 3833,
    "\u2581getexitcodethread": 3834,
    "36c": 3835,
    "398": 3836,
    "ba8": 3837,
    "dc8": 3838,
    "9840": 3839,
    "a000": 3840,
    "\u25810xb1": 3841,
    "\u25810xb2": 3842,
    "\u25810xb9": 3843,
    "\u25810xee": 3844,
    "\u2581begin": 3845,
    "\u25810x7e79": 3846,
    "\u2581charupp": 3847,
    "\u25810x1211d30": 3848,
    "\u25810x1211e24": 3849,
    "\u2581getcursorpos": 3850,
    "\u2581charlowerbuff": 3851,
    "209": 3852,
    "fc8": 3853,
    "\u25810xc2": 3854,
    "\u25810xce": 3855,
    "\u25810xda": 3856,
    "\u25810x7da0": 3857,
    "\u25810x7e7c": 3858,
    "\u25810x7e7d": 3859,
    "\u25810x12118f8": 3860,
    "\u2581createfon": 3861,
    "\u2581cp": 3862,
    "visi": 3863,
    "\u2581isw": 3864,
    "\u25810xd9": 3865,
    "\u25810xe6": 3866,
    "\u25810x4680": 3867,
    "\u25810xffc1": 3868,
    "d978de23": 3869,
    "f417346d": 3870,
    "\u25810x43f00": 3871,
    "\u25810x47a00": 3872,
    "66fa6d63d": 3873,
    "7997c9fad": 3874,
    "\u25810x435012": 3875,
    "\u25810x47f108": 3876,
    "deleteatom": 3877,
    "\u25810x1211eb4": 3878,
    "\u2581getconsolemode": 3879,
    "\u2581createwindowexw": 3880,
    "\u2581globaldeleteatom": 3881,
    "\u2581sa": 3882,
    "\u2581nto": 3883,
    "\u25810xcb": 3884,
    "\u25810xd2": 3885,
    "\u25810xf4": 3886,
    "\u25810xfeedf": 3887,
    "\u2581msvcr90": 3888,
    "\u25810x40a3f0": 3889,
    "\u25810x1211e0c": 3890,
    "\u2581globaladdatoma": 3891,
    "a88": 3892,
    "940e": 3893,
    "\u25810xc5": 3894,
    "\u25810xe2": 3895,
    "\u25810xed": 3896,
    "visible": 3897,
    "\u25810x4175": 3898,
    "\u25810x4360": 3899,
    "\u25810x4371": 3900,
    "\u25810x4420": 3901,
    "\u25810x4bb04c": 3902,
    "\u25810x56fbf8": 3903,
    "e7f417346d": 3904,
    "\u25810x1211b5c": 3905,
    "\u2581gettempfilenamea": 3906,
    "vm": 3907,
    "004": 3908,
    "248": 3909,
    "izn": 3910,
    "tsb": 3911,
    "32cs": 3912,
    "ervic": 3913,
    "latsb": 3914,
    "longw": 3915,
    "\u2581snap": 3916,
    "iznadm": 3917,
    "layout": 3918,
    "\u25810x71a0": 3919,
    "\u25810x7910": 3920,
    "\u2581th32cs": 3921,
    "\u2581gdiplus": 3922,
    "\u2581deleteob": 3923,
    "\u2581triznadm": 3924,
    "\u25810xfeee00b6": 3925,
    "\u25810xfeee00b7": 3926,
    "\u25810xfeee00b8": 3927,
    "\u2581getuserdefaultuilanguage": 3928,
    "ted": 3929,
    "\u2581op": 3930,
    "acce": 3931,
    "\u2581ate": 3932,
    "flush": 3933,
    "\u25810xdd": 3934,
    "\u25810x415": 3935,
    "\u25810x7d9c": 3936,
    "\u25810x7d9d": 3937,
    "\u25810xffac": 3938,
    "\u25810xffd8": 3939,
    "\u25810xffed": 3940,
    "\u2581atexit": 3941,
    "\u25810x20019": 3942,
    "\u25810x54000": 3943,
    "23564f2920": 3944,
    "\u25810x1211898": 3945,
    "3566fa6d63d": 3946,
    "\u25810xfeee00b9": 3947,
    "\u2581application": 3948,
    "\u2581heapdestroy": 3949,
    "ioc": 3950,
    "36014": 3951,
    "\u25810xca": 3952,
    "\u25810xd1": 3953,
    "\u25810x40e": 3954,
    "\u25810x4228": 3955,
    "\u25810x4609": 3956,
    "\u25810x7e81": 3957,
    "usttoken": 3958,
    "privileges": 3959,
    "\u25810x12119f0": 3960,
    "\u25810xfeee00bb": 3961,
    "\u2581setbkcolor": 3962,
    "usttokenprivileges": 3963,
    "9f0": 3964,
    "\u25810x45c": 3965,
    "\u25810x415e": 3966,
    "\u25810x42b4": 3967,
    "\u25810x77002c": 3968,
    "\u25810x990f58": 3969,
    "\u25810x1210d1c": 3970,
    "\u25810x1210d3c": 3971,
    "\u25810x1211950": 3972,
    "332d978de23": 3973,
    "\u2581globalfind": 3974,
    "\u2581getmenuitem": 3975,
    "\u2581localrealloc": 3976,
    "9a0": 3977,
    "ore": 3978,
    "\u2581vc": 3979,
    "24fc": 3980,
    "\u2581lib": 3981,
    "\u25810xc6": 3982,
    "\u25810xc9": 3983,
    "\u25810xd6": 3984,
    "\u25810x22e": 3985,
    "context": 3986,
    "program": 3987,
    "\u25810x3f28": 3988,
    "\u25810x4540": 3989,
    "\u25810x4c79": 3990,
    "\u25810x7da1": 3991,
    "\u25810xffea": 3992,
    "\u2581getfullnamew": 3993,
    "\u2581comparefiletime": 3994,
    "\u2581regqueryvalueexw": 3995,
    "chr": 3996,
    "butt": 3997,
    "\u2581the": 3998,
    "3e2d5": 3999,
    "42996": 4000,
    "b08ac": 4001,
    "place": 4002,
    "\u258150f8": 4003,
    "179ad2": 4004,
    "92d1e5": 4005,
    "\u25810x23c": 4006,
    "\u25810x2d0": 4007,
    "\u25810x444": 4008,
    "\u25810x4c4": 4009,
    "70024fc": 4010,
    "da0940e": 4011,
    "e469840": 4012,
    "session": 4013,
    "\u25810x7e85": 4014,
    "\u25810x9020": 4015,
    "deb3e2d5": 4016,
    "\u2581riched20": 4017,
    "fff8179ad2": 4018,
    "3601492d1e5": 4019,
    "\u25810xfeee00ba": 4020,
    "42996da0940e": 4021,
    "c0e7f417346d": 4022,
    "d387997c9fad": 4023,
    "\u258150f8e469840": 4024,
    "2c332d978de23": 4025,
    "deb3e2d570024fc": 4026,
    "3601492d1e5b08ac": 4027,
    "\u2581getlogicalprocessor": 4028,
    "42996da0940efff8179ad2": 4029,
    "deb3e2d570024fc3601492d1e5b08ac": 4030,
    "\u258150f8e46984042996da0940efff8179ad2": 4031,
    "66c": 4032,
    "3a20": 4033,
    "\u2581inf": 4034,
    "\u25810xc1": 4035,
    "\u25810xf6": 4036,
    "\u2581star": 4037,
    "\u25810x3f24": 4038,
    "\u25810x4030": 4039,
    "\u25810xffdf": 4040,
    "\u25810x42b408": 4041,
    "\u25810x1211e5c": 4042,
    "\u25810xfeee00bd": 4043,
    "\u25810xfeee00be": 4044,
    "\u2581setthreadpreferreduilanguages": 4045,
    "168": 4046,
    "b9c": 4047,
    "accel": 4048,
    "ectrl": 4049,
    "\u25810x438": 4050,
    "\u25810x466b": 4051,
    "\u25810xffad": 4052,
    "topwindow": 4053,
    "\u25810x436408": 4054,
    "\u25810x1211b78": 4055,
    "ectrlhandler": 4056,
    "bde23564f2920": 4057,
    "\u2581updatewindow": 4058,
    "3a0": 4059,
    "530": 4060,
    "bc8": 4061,
    "\u25810xe9": 4062,
    "\u2581check": 4063,
    "\u25810x7d20": 4064,
    "\u25810x7da4": 4065,
    "\u25810x7da5": 4066,
    "\u25810x7e84": 4067,
    "stringlen": 4068,
    "\u25810x1211fb8": 4069,
    "\u2581getcomputernamea": 4070,
    "\u2581getmodulehandleexw": 4071,
    "\u2581registerwindowmessagea": 4072,
    "\u2581getuserdefaultlocalename": 4073,
    "741": 4074,
    "e88": 4075,
    "\u25810xe1": 4076,
    "\u25810x2b4": 4077,
    "\u25810x501": 4078,
    "aterect": 4079,
    "ofiletime": 4080,
    "\u25810x42b403": 4081,
    "\u25810x42b404": 4082,
    "\u25810x42b405": 4083,
    "\u25810x42b406": 4084,
    "\u25810x42b407": 4085,
    "\u25810x42b409": 4086,
    "\u25810x42b40a": 4087,
    "\u25810x42b40b": 4088,
    "\u25810x42b40c": 4089,
    "\u25810x42b40d": 4090,
    "\u25810x42b40e": 4091,
    "\u25810x42b40f": 4092,
    "\u25810x436403": 4093,
    "\u25810x436404": 4094,
    "\u25810x436405": 4095,
    "\u25810x436406": 4096,
    "\u25810x436407": 4097,
    "\u25810x436409": 4098,
    "\u25810x43640a": 4099,
    "\u25810x43640b": 4100,
    "\u25810x43640c": 4101,
    "\u25810x43640d": 4102,
    "\u25810x43640e": 4103,
    "\u25810x43640f": 4104,
    "\u25810xfeee00bf": 4105,
    "38803566fa6d63d": 4106,
    "70bde23564f2920": 4107,
    "\u2581formatmessagew": 4108,
    "\u2581systemtimetofiletime": 4109,
    "dc0": 4110,
    "trl": 4111,
    "hild": 4112,
    "\u2581try": 4113,
    "strea": 4114,
    "\u25810x20a": 4115,
    "\u25810x59d": 4116,
    "\u25810x5d0": 4117,
    "\u25810x419a": 4118,
    "\u25810x7a10": 4119,
    "\u25810x7c91": 4120,
    "\u25810x4c42c0": 4121,
    "\u25810xfeee00c0": 4122,
    "\u25810xfeee00c1": 4123,
    "\u25810xfeee00c2": 4124,
    "\u25810xfeee00c3": 4125,
    "\u2581coinitialize": 4126,
    "\u2581getuserdefaultlcid": 4127,
    "\u2581getlogicalprocessorinformation": 4128,
    "3df": 4129,
    "407": 4130,
    "7b7": 4131,
    "dcb": 4132,
    "\u2581cpp": 4133,
    "\u25810xf5": 4134,
    "\u2581call": 4135,
    "\u25810x414a": 4136,
    "\u25810x43b4": 4137,
    "\u25810x46e0": 4138,
    "\u25810x7e88": 4139,
    "\u2581geticon": 4140,
    "debughook": 4141,
    "\u25810xfeee00c4": 4142,
    "\u2581cppdebughook": 4143,
    "feac0e7f417346d": 4144,
    "b474d387997c9fad": 4145,
    "eee2c332d978de23": 4146,
    "tokeninformation": 4147,
    "bcc": 4148,
    "mar": 4149,
    "\u25810xe5": 4150,
    "meters": 4151,
    "\u25810x1d4": 4152,
    "\u25810x4b0": 4153,
    "\u25810x180c": 4154,
    "\u25810x4238": 4155,
    "\u25810x7070": 4156,
    "\u25810xffd5": 4157,
    "\u2581cannot": 4158,
    "\u25810x120f8": 4159,
    "\u25810x1210c": 4160,
    "parameters": 4161,
    "\u2581setthreadpriority": 4162,
    "200": 4163,
    "7000": 4164,
    "ager": 4165,
    "ffa0": 4166,
    "\u25810xfd": 4167,
    "\u25810x7da8": 4168,
    "\u25810x7da9": 4169,
    "\u25810x7db0": 4170,
    "\u25810xffeb": 4171,
    "\u25810x4093f1": 4172,
    "\u25810x4093f2": 4173,
    "\u25810x4093f3": 4174,
    "\u25810x40a3d0": 4175,
    "\u25810x43f668": 4176,
    "\u2581settimer": 4177,
    "windowshook": 4178,
    "\u2581module32nextw": 4179,
    "ax": 4180,
    "904": 4181,
    "ab8": 4182,
    "een": 4183,
    "f20": 4184,
    "rew": 4185,
    "drag": 4186,
    "extex": 4187,
    "\u25810x40ab": 4188,
    "\u25810x40f4": 4189,
    "\u25810x61f6": 4190,
    "\u25810xffae": 4191,
    "\u25810x1211d44": 4192,
    "\u25810x1211ed8": 4193,
    "\u2581getdateformatex": 4194,
    "\u2581removedirectoryw": 4195,
    "b14": 4196,
    "b78": 4197,
    "bb9": 4198,
    "leng": 4199,
    "length": 4200,
    "\u25810x288": 4201,
    "connect": 4202,
    "\u25810x18cc": 4203,
    "\u25810x4aa0": 4204,
    "\u25810x4b40": 4205,
    "\u25810x53ae": 4206,
    "\u25810x1211e20": 4207,
    "\u25810x1211e90": 4208,
    "\u2581gettimeformatex": 4209,
    "397feac0e7f417346d": 4210,
    "76b474d387997c9fad": 4211,
    "\u2581isvalidlocalename": 4212,
    "\u2581enumsystemlocalesex": 4213,
    "\u25810x238": 4214,
    "\u25810x3f4": 4215,
    "\u25810x4085": 4216,
    "\u25810x44ee": 4217,
    "\u25810x465b": 4218,
    "\u25810x7460": 4219,
    "\u25810x74d0": 4220,
    "\u25810xea6b": 4221,
    "\u25810xffd9": 4222,
    "\u25810xffdb": 4223,
    "\u25810x40a670": 4224,
    "\u2581translate": 4225,
    "\u2581globalhandle": 4226,
    "\u2581systemparameters": 4227,
    "\u2581gettokeninformation": 4228,
    "\u2581iswow64": 4229,
    "textcolor": 4230,
    "\u25810x100220": 4231,
    "\u25810x4300e0": 4232,
    "\u25810x1211cf0": 4233,
    "\u2581iswow64process": 4234,
    "53570bde23564f2920": 4235,
    "ffa038803566fa6d63d": 4236,
    "\u2581getsystemdefaultlangid": 4237,
    "e00": 4238,
    "wer": 4239,
    "\u2581eh": 4240,
    "\u2581fa": 4241,
    "ee08": 4242,
    "emutex": 4243,
    "\u25810x3f27": 4244,
    "\u25810x7dac": 4245,
    "\u25810x7dad": 4246,
    "\u25810x8ad0": 4247,
    "numberof": 4248,
    "\u25810x4c79ac": 4249,
    "\u2581createdi": 4250,
    "\u25810x1211de8": 4251,
    "\u25810xfeee00c5": 4252,
    "\u25810xfeee00c6": 4253,
    "\u25810xfeee00c7": 4254,
    "\u25810xfeee00c8": 4255,
    "\u2581getnumberof": 4256,
    "\u2581releasemutex": 4257,
    "\u2581writeconsole": 4258,
    "\u2581createprocessw": 4259,
    "\u2581getnumberofconsole": 4260,
    "fy": 4261,
    "9b0": 4262,
    "dac": 4263,
    "red": 4264,
    "code": 4265,
    "ryto": 4266,
    "dlg32": 4267,
    "runtime": 4268,
    "\u25810x410e": 4269,
    "\u25810xffd6": 4270,
    "\u25810x40a666": 4271,
    "\u25810x40a668": 4272,
    "\u25810x40a66a": 4273,
    "memorystatus": 4274,
    "\u2581globalmemorystatus": 4275,
    "3a20eee2c332d978de23": 4276,
    "66397feac0e7f417346d": 4277,
    "184": 4278,
    "258": 4279,
    "408": 4280,
    "d10": 4281,
    "\u2581saf": 4282,
    "\u25810x44e": 4283,
    "textout": 4284,
    "\u25810x4533": 4285,
    "\u25810xffdd": 4286,
    "\u25810x40a66c": 4287,
    "\u25810x5a1fd4": 4288,
    "\u25810x1211f48": 4289,
    "\u25810xfeee00c9": 4290,
    "\u25810xfeee00ca": 4291,
    "\u25810xfeee00cb": 4292,
    "\u2581destroywindow": 4293,
    "\u2581charlowerbuffw": 4294,
    "\u2581shgetfileinfow": 4295,
    "\u2581createsemaphorew": 4296,
    "\u2581waitformultipleob": 4297,
    "pi": 4298,
    "ctrl": 4299,
    "f162": 4300,
    "\u2581isc": 4301,
    "\u2581mid": 4302,
    "\u25810x41c4": 4303,
    "\u25810x71c0": 4304,
    "\u25810xffde": 4305,
    "fxstring": 4306,
    "\u25810x2e7ea": 4307,
    "namedpipe": 4308,
    "\u25810x100093": 4309,
    "\u25810x40a66e": 4310,
    "\u25810x40a672": 4311,
    "\u2581comdlg32": 4312,
    "\u25810x121192f": 4313,
    "\u25810x1211ed4": 4314,
    "bb53570bde23564f2920": 4315,
    "92e": 4316,
    "\u2581yap": 4317,
    "\u25810x8f20": 4318,
    "\u25810x1211f0c": 4319,
    "\u2581defwindowproca": 4320,
    "160": 4321,
    "68c": 4322,
    "a78": 4323,
    "f60": 4324,
    "f76": 4325,
    "ways": 4326,
    "anden": 4327,
    "solec": 4328,
    "\u25810x4a80": 4329,
    "\u25810x7e89": 4330,
    "\u25810xffd4": 4331,
    "\u2581always": 4332,
    "\u25810x4cb00": 4333,
    "\u25810x43501a": 4334,
    "runtime140": 4335,
    "\u2581vcruntime140": 4336,
    "7bffa038803566fa6d63d": 4337,
    "012": 4338,
    "gcc": 4339,
    "ill": 4340,
    "\u2581ver": 4341,
    "\u2581midi": 4342,
    "\u25810xbac": 4343,
    "\u2581getob": 4344,
    "\u2581libgcc": 4345,
    "\u2581setcon": 4346,
    "\u25810x77002b": 4347,
    "\u2581getwindowsdirectoryw": 4348,
    "sh": 4349,
    "d4c": 4350,
    "f88": 4351,
    "b188": 4352,
    "\u25810x350": 4353,
    "\u25810x3bc": 4354,
    "\u25810x5d5": 4355,
    "textext": 4356,
    "\u25810x42bc": 4357,
    "\u25810x53c8": 4358,
    "\u2581flatsb": 4359,
    "\u2581strcpy": 4360,
    "\u25810x42c0e0": 4361,
    "\u2581expanden": 4362,
    "\u2581getusernamea": 4363,
    "3ea66397feac0e7f417346d": 4364,
    "684": 4365,
    "dd4": 4366,
    "era": 4367,
    "f98": 4368,
    "hlp": 4369,
    "ange": 4370,
    "\u25810x41e": 4371,
    "\u25810x427": 4372,
    "\u25810x40b7": 4373,
    "\u25810x7ef0": 4374,
    "\u25810x7f02": 4375,
    "\u25810x85d0": 4376,
    "\u25810xffaf": 4377,
    "\u25810xffdc": 4378,
    "\u25810x429010": 4379,
    "\u25810x1211f3c": 4380,
    "\u2581getmessagea": 4381,
    "\u2581getdateformata": 4382,
    "a54": 4383,
    "bar": 4384,
    "d50": 4385,
    "71e0": 4386,
    "\u2581rect": 4387,
    "\u25810x1a14": 4388,
    "\u25810x40c7": 4389,
    "\u25810x4c46": 4390,
    "\u25810x7ea0": 4391,
    "\u25810xffe9": 4392,
    "\u25810xfff3": 4393,
    "\u25810x120f9": 4394,
    "\u25810x40cae": 4395,
    "\u25810x4093d0": 4396,
    "\u25810x4093d4": 4397,
    "\u25810x59e340": 4398,
    "\u25810x5ab0a0": 4399,
    "\u25810xfeee010f": 4400,
    "\u2581gettextext": 4401,
    "\u2581setcurrentdirectoryw": 4402,
    "f16276b474d387997c9fad": 4403,
    "ac23a20eee2c332d978de23": 4404,
    "f27bffa038803566fa6d63d": 4405,
    "faebb53570bde23564f2920": 4406,
    "ty": 4407,
    "404": 4408,
    "50c": 4409,
    "b30": 4410,
    "rgn": 4411,
    "\u2581bit": 4412,
    "propa": 4413,
    "sters": 4414,
    "anager": 4415,
    "querys": 4416,
    "\u25810x4732": 4417,
    "\u25810x7ec4": 4418,
    "\u25810x7ec5": 4419,
    "\u25810x7f10": 4420,
    "\u25810x8cf0": 4421,
    "\u2581calloc": 4422,
    "itthread": 4423,
    "\u25810x429018": 4424,
    "\u25810x46b188": 4425,
    "\u25810x7ee000": 4426,
    "\u25810xba8b68": 4427,
    "\u25810xfeee00cc": 4428,
    "\u2581getenhmetafile": 4429,
    "\u2581getdiskfreespacea": 4430,
    "120": 4431,
    "f4c": 4432,
    "\u2581afx": 4433,
    "\u25810x44c0": 4434,
    "\u25810x4718": 4435,
    "\u25810x475f": 4436,
    "\u25810x4770": 4437,
    "\u25810x78c0": 4438,
    "\u25810x84b0": 4439,
    "\u25810x429001": 4440,
    "\u25810x429002": 4441,
    "\u25810x429003": 4442,
    "\u25810x429004": 4443,
    "\u25810x429005": 4444,
    "\u25810x429006": 4445,
    "\u25810x429007": 4446,
    "\u25810x429008": 4447,
    "\u25810x429009": 4448,
    "\u25810x42900a": 4449,
    "\u25810x42900b": 4450,
    "\u25810x42900c": 4451,
    "\u25810x42900d": 4452,
    "\u25810x42900e": 4453,
    "\u25810x42900f": 4454,
    "\u25810x429011": 4455,
    "\u25810x429012": 4456,
    "\u25810x429013": 4457,
    "\u25810x429014": 4458,
    "\u25810x429015": 4459,
    "\u25810x429016": 4460,
    "\u25810x429017": 4461,
    "\u25810x429019": 4462,
    "\u25810x7f8002": 4463,
    "\u25810x7f8010": 4464,
    "\u25810xfeee00cd": 4465,
    "\u25810xfeee00ce": 4466,
    "\u2581setwindowpos": 4467,
    "\u2581globalrealloc": 4468,
    "\u2581invalidaterect": 4469,
    "\u2581regsetvalueexw": 4470,
    "\u2581freeenvironmentstringsa": 4471,
    "hl": 4472,
    "80c": 4473,
    "win": 4474,
    "37e8": 4475,
    "draw": 4476,
    "olid": 4477,
    "locate": 4478,
    "parent": 4479,
    "visual": 4480,
    "\u25810x504": 4481,
    "\u25810x4e80": 4482,
    "\u25810x7e94": 4483,
    "\u25810x7e95": 4484,
    "register": 4485,
    "olidbrush": 4486,
    "\u25810x12117c8": 4487,
    "\u25810x1211cb4": 4488,
    "\u25810x1211db0": 4489,
    "querysystem": 4490,
    "\u25810xfeee00cf": 4491,
    "\u2581writeconsolew": 4492,
    "\u2581createsolidbrush": 4493,
    "querysysteminformation": 4494,
    "lu": 4495,
    "a0c": 4496,
    "eas": 4497,
    "fa0": 4498,
    "fc0": 4499,
    "fd8": 4500,
    "\u258112": 4501,
    "ocument": 4502,
    "\u25810x40aa": 4503,
    "\u25810x4cc0": 4504,
    "\u25810x1211bfc": 4505,
    "\u25810x1211cbc": 4506,
    "\u2581dllonexit": 4507,
    "cccf16276b474d387997c9fad": 4508,
    "f6f27bffa038803566fa6d63d": 4509,
    "de4": 4510,
    "\u2581rb": 4511,
    "prec": 4512,
    "stack": 4513,
    "\u25810x208": 4514,
    "\u2581debug": 4515,
    "ocreate": 4516,
    "\u25810x42ac": 4517,
    "\u25810x8310": 4518,
    "sessionid": 4519,
    "\u25810x43a4c8": 4520,
    "\u25810x1211d14": 4521,
    "40c": 4522,
    "64c": 4523,
    "b90": 4524,
    "fox": 4525,
    "ansi": 4526,
    "\u2581ini": 4527,
    "\u25810x4a4": 4528,
    "\u25810xf96": 4529,
    "calling": 4530,
    "\u25810x44e5": 4531,
    "\u25810x7620": 4532,
    "afunction": 4533,
    "atomnamea": 4534,
    "mousebutt": 4535,
    "tindirect": 4536,
    "\u25810x407bed": 4537,
    "\u25810x407bee": 4538,
    "\u25810x43501c": 4539,
    "\u25810x43501e": 4540,
    "\u25810x435020": 4541,
    "\u25810x435022": 4542,
    "\u25810x435028": 4543,
    "\u25810x43502a": 4544,
    "\u25810x43502c": 4545,
    "\u25810x43502e": 4546,
    "\u25810x435030": 4547,
    "\u25810x43f620": 4548,
    "\u25810x7c000c": 4549,
    "\u2581document": 4550,
    "\u25810x120f558": 4551,
    "\u2581createfontindirect": 4552,
    "7123ea66397feac0e7f417346d": 4553,
    "dcbac23a20eee2c332d978de23": 4554,
    "f99faebb53570bde23564f2920": 4555,
    "sg": 4556,
    "372": 4557,
    "5c3": 4558,
    "bvm": 4559,
    "guar": 4560,
    "antee": 4561,
    "tings": 4562,
    "dibits": 4563,
    "\u2581opent": 4564,
    "\u25810x40e4": 4565,
    "\u2581device": 4566,
    "writeptr": 4567,
    "guarantee": 4568,
    "\u2581cocreate": 4569,
    "\u25810x1211f40": 4570,
    "\u2581charprevw": 4571,
    "\u2581openthread": 4572,
    "mousebuttons": 4573,
    "stackguarantee": 4574,
    "\u2581isbadwriteptr": 4575,
    "\u2581setthreadstackguarantee": 4576,
    "\u2581getnumberofconsolemousebuttons": 4577,
    "1c9": 4578,
    "1e0": 4579,
    "7f0": 4580,
    "d88": 4581,
    "iseas": 4582,
    "times": 4583,
    "\u2581wave": 4584,
    "\u25810x42c": 4585,
    "\u25810x7cb0": 4586,
    "\u25810x7e8c": 4587,
    "\u25810x7e90": 4588,
    "\u25810x44000": 4589,
    "preciseas": 4590,
    "\u25810xfffffffc": 4591,
    "\u2581getdlgitem": 4592,
    "preciseasfiletime": 4593,
    "3d1cccf16276b474d387997c9fad": 4594,
    "7cf99faebb53570bde23564f2920": 4595,
    "\u2581getsystemtimepreciseasfiletime": 4596,
    "9a2": 4597,
    "\u2581si": 4598,
    "1520": 4599,
    "clipr": 4600,
    "\u25810x4a40": 4601,
    "\u25810x6014": 4602,
    "\u25810x7c70": 4603,
    "\u25810x7dc8": 4604,
    "\u2581append": 4605,
    "dosdatet": 4606,
    "entpoint": 4607,
    "\u25810x2d4db": 4608,
    "\u2581getclip": 4609,
    "\u2581replace": 4610,
    "\u2581msvcr100": 4611,
    "dosdatetime": 4612,
    "\u25810xfeee0122": 4613,
    "\u2581getstringtypea": 4614,
    "\u2581filetimetodosdatetime": 4615,
    "el": 4616,
    "ache": 4617,
    "hort": 4618,
    "marta": 4619,
    "\u2581kill": 4620,
    "stream": 4621,
    "\u25810x5bd4": 4622,
    "\u25810x7061": 4623,
    "\u25810x7e8d": 4624,
    "\u25810x120ed": 4625,
    "\u2581ntmarta": 4626,
    "\u2581getshort": 4627,
    "\u2581module32first": 4628,
    "\u2581gettextextentpoint": 4629,
    "c1f6f27bffa038803566fa6d63d": 4630,
    "cc7123ea66397feac0e7f417346d": 4631,
    "\u2581zw": 4632,
    "block": 4633,
    "ocket": 4634,
    "\u2581conv": 4635,
    "device": 4636,
    "\u25810x1b5": 4637,
    "\u25810x100b": 4638,
    "\u25810x41e0": 4639,
    "\u25810x7380": 4640,
    "\u25810x7c40": 4641,
    "\u25810x7e91": 4642,
    "\u25810x97a0": 4643,
    "\u25810xffda": 4644,
    "\u2581environ": 4645,
    "\u2581execute": 4646,
    "\u25810xb33880": 4647,
    "\u2581killtimer": 4648,
    "\u2581lcmapstringa": 4649,
    "\u2581shellexecutea": 4650,
    "638": 4651,
    "run": 4652,
    "usp": 4653,
    "endar": 4654,
    "emapho": 4655,
    "ontrol": 4656,
    "\u25810x4239": 4657,
    "\u25810x4445": 4658,
    "\u25810x44e8": 4659,
    "\u25810x75b0": 4660,
    "calendar": 4661,
    "\u25810x100098": 4662,
    "\u25810x40a3f1": 4663,
    "\u25810x40a3f2": 4664,
    "\u25810x566f18": 4665,
    "\u25810x1211e8c": 4666,
    "\u2581setcursor": 4667,
    "\u2581getfiletime": 4668,
    "\u2581globalfindatoma": 4669,
    "\u2581regdeletevaluea": 4670,
    "\u2581readprocessmemory": 4671,
    "6a0dcbac23a20eee2c332d978de23": 4672,
    "py": 4673,
    "f07": 4674,
    "fe8": 4675,
    "archi": 4676,
    "located": 4677,
    "\u25810x40f8": 4678,
    "\u25810x41f6": 4679,
    "\u25810x4ec0": 4680,
    "\u25810x7310": 4681,
    "\u25810x7e9c": 4682,
    "\u25810x9170": 4683,
    "\u25810xff90": 4684,
    "\u25810x40300": 4685,
    "\u25810x509e4": 4686,
    "belocated": 4687,
    "\u25810x5ab070": 4688,
    "\u25810x1211e18": 4689,
    "\u2581deviceioc": 4690,
    "\u25810xfeee00d0": 4691,
    "\u25810xfeee00da": 4692,
    "\u2581localfilet": 4693,
    "\u2581settextcolor": 4694,
    "\u2581initializesrwlock": 4695,
    "\u2581localfiletimetofiletime": 4696,
    "4a": 4697,
    "e08": 4698,
    "\u25817z": 4699,
    "rame": 4700,
    "\u25810x1b2": 4701,
    "\u25810x574": 4702,
    "\u2581opens": 4703,
    "\u25810x6038": 4704,
    "\u25810x7a90": 4705,
    "\u25810x7e98": 4706,
    "\u25810x7e99": 4707,
    "\u25810x7e9d": 4708,
    "\u25810xffd1": 4709,
    "\u25810x40aae": 4710,
    "\u25810x4e300": 4711,
    "\u2581msvcr71": 4712,
    "\u2581waveout": 4713,
    "\u25810x4093f4": 4714,
    "\u25810x409431": 4715,
    "\u25810x409432": 4716,
    "\u25810x409433": 4717,
    "\u25810x409434": 4718,
    "\u25810x409435": 4719,
    "\u25810x409436": 4720,
    "\u25810x409437": 4721,
    "\u25810x40957e": 4722,
    "\u25810x409580": 4723,
    "\u25810x409582": 4724,
    "\u25810x409584": 4725,
    "\u25810x409586": 4726,
    "\u25810x409588": 4727,
    "\u25810x40958a": 4728,
    "\u25810x40a3d8": 4729,
    "\u25810x40a3f3": 4730,
    "\u25810x40a3f4": 4731,
    "\u25810x40a3f5": 4732,
    "\u25810x40a3f6": 4733,
    "\u25810x40a3f7": 4734,
    "\u25810x40a92e": 4735,
    "\u25810x40a930": 4736,
    "\u25810x40a932": 4737,
    "\u25810x40a934": 4738,
    "\u25810x40a936": 4739,
    "\u25810x40a938": 4740,
    "\u25810x40a93a": 4741,
    "\u25810x40b3df": 4742,
    "\u25810x40b3e0": 4743,
    "\u25810x40b3e1": 4744,
    "\u25810x40b3e2": 4745,
    "\u25810x40b3e3": 4746,
    "\u25810x40b3e4": 4747,
    "\u25810x40b3e5": 4748,
    "\u25810x44f928": 4749,
    "\u2581allocate": 4750,
    "\u25810x1211eb8": 4751,
    "\u25810xfeedf000": 4752,
    "\u2581enumcalendar": 4753,
    "4f7cf99faebb53570bde23564f2920": 4754,
    "209cc7123ea66397feac0e7f417346d": 4755,
    "37e8c1f6f27bffa038803566fa6d63d": 4756,
    "4b": 4757,
    "esid": 4758,
    "\u25810x47c": 4759,
    "\u25810x42ec": 4760,
    "\u25810x46ec": 4761,
    "\u25810x5374": 4762,
    "\u25810x7ea1": 4763,
    "\u25810x8ae0": 4764,
    "\u25810x12069": 4765,
    "vieworgex": 4766,
    "\u25810x57c144": 4767,
    "\u2581deletedc": 4768,
    "\u25810x1210e34": 4769,
    "\u25810x1211dd8": 4770,
    "\u2581movefilew": 4771,
    "andinitializ": 4772,
    "\u2581getconsolec": 4773,
    "\u2581regqueryinfo": 4774,
    "andinitializesid": 4775,
    "\u2581createsemaphorea": 4776,
    "\u2581translatemessage": 4777,
    "\u2581allocateandinitializesid": 4778,
    "apis": 4779,
    "param": 4780,
    "\u2581fill": 4781,
    "\u2581ming": 4782,
    "\u25810x4484": 4783,
    "\u25810x4551": 4784,
    "\u25810x4ee0": 4785,
    "\u25810x7ea9": 4786,
    "\u25810x9030": 4787,
    "apisansi": 4788,
    "\u2581arefile": 4789,
    "\u25810xfeee00d1": 4790,
    "\u25810xfeee00d2": 4791,
    "\u25810xfeee00d8": 4792,
    "\u2581cocreateinst": 4793,
    "\u2581arefileapisansi": 4794,
    "\u2581deviceiocontrol": 4795,
    "b50": 4796,
    "\u2581sw": 4797,
    "a7b0": 4798,
    "atal": 4799,
    "reen": 4800,
    "\u2581437": 4801,
    "output": 4802,
    "screen": 4803,
    "\u25810x7bc": 4804,
    "\u25810x4524": 4805,
    "\u25810x7db1": 4806,
    "\u25810x7e30": 4807,
    "\u25810x7ea4": 4808,
    "\u25810x7ea5": 4809,
    "\u25810x8a80": 4810,
    "\u25810x90f0": 4811,
    "\u25810x120fa": 4812,
    "\u2581getactive": 4813,
    "\u25810xfeee00d6": 4814,
    "\u2581gettempfilenamew": 4815,
    "d28": 4816,
    "dd8": 4817,
    "srw": 4818,
    "\u25810x470": 4819,
    "\u25810x5a4": 4820,
    "\u2581fatal": 4821,
    "\u25810x4262": 4822,
    "\u25810x523e": 4823,
    "\u25810x7db4": 4824,
    "\u25810x7db5": 4825,
    "\u25810x7df4": 4826,
    "\u25810x7df5": 4827,
    "\u25810xffd7": 4828,
    "\u25810x460658": 4829,
    "\u25810x6cc560": 4830,
    "\u25810x6f1520": 4831,
    "\u25810x120faa4": 4832,
    "\u2581documents": 4833,
    "\u25810x71000000": 4834,
    "\u25810xfeee00d3": 4835,
    "\u25810xfeee00d9": 4836,
    "\u2581snapmodule": 4837,
    "\u2581getactivewindow": 4838,
    "\u2581createcompatibledc": 4839,
    "conditionvariablesrw": 4840,
    "\u2581sleepconditionvariablesrw": 4841,
    "71e06a0dcbac23a20eee2c332d978de23": 4842,
    "516": 4843,
    "56c": 4844,
    "erw": 4845,
    "46bb": 4846,
    "proper": 4847,
    "\u25810x702": 4848,
    "\u2581wsast": 4849,
    "\u25810x40ca": 4850,
    "\u25810x7ea8": 4851,
    "\u25810x8b50": 4852,
    "\u25810x10011": 4853,
    "\u2581movefilea": 4854,
    "\u25810xfeee00d4": 4855,
    "\u25810xfeee00d5": 4856,
    "\u25810xfeee00db": 4857,
    "\u2581wsastartup": 4858,
    "\u2581getconsolecp": 4859,
    "290": 4860,
    "304": 4861,
    "804": 4862,
    "b20": 4863,
    "cc4": 4864,
    "msg": 4865,
    "\u2581ie": 4866,
    "imer": 4867,
    "\u2581rec": 4868,
    "\u25810x23d": 4869,
    "\u25810x70e0": 4870,
    "\u25810x7320": 4871,
    "\u25810xcf0000": 4872,
    "\u25810x1211f58": 4873,
    "\u2581lstrcmpiw": 4874,
    "\u2581unregister": 4875,
    "uninitialize": 4876,
    "7b73d1cccf16276b474d387997c9fad": 4877,
    "5d0": 4878,
    "f50": 4879,
    "6270": 4880,
    "eeb9": 4881,
    "rchr": 4882,
    "\u2581wak": 4883,
    "\u2581susp": 4884,
    "\u25810x466": 4885,
    "\u25810x41d7": 4886,
    "\u25810x7730": 4887,
    "\u25810x7ead": 4888,
    "\u2581bitblt": 4889,
    "\u2581suspend": 4890,
    "\u25810x1211fbc": 4891,
    "\u2581suspendthread": 4892,
    "drl6660drl6660drl6660": 4893,
    "\u2581wakeconditionvariable": 4894,
    "\u2581getfileinformationbyhandleex": 4895,
    "det": 4896,
    "ec4": 4897,
    "3cd8": 4898,
    "\u2581evie": 4899,
    "ca0000": 4900,
    "ectrgn": 4901,
    "\u25810x572": 4902,
    "\u25810x6b2": 4903,
    "\u25810x778": 4904,
    "\u25810x4153": 4905,
    "\u25810x4301": 4906,
    "\u25810x7eac": 4907,
    "\u25810x7eb0": 4908,
    "\u25810x120cb": 4909,
    "\u25810x508d0": 4910,
    "\u25810x7a900": 4911,
    "\u25810x426264": 4912,
    "\u25810x54a7b0": 4913,
    "\u25810x1211f4c": 4914,
    "\u2581setbkmode": 4915,
    "\u25810x80ca0000": 4916,
    "\u2581getmessagew": 4917,
    "\u2581getwindowrect": 4918,
    "\u2581getlogicaldrivestring": 4919,
    "2d57b73d1cccf16276b474d387997c9fad": 4920,
    "d44": 4921,
    "dc4": 4922,
    "ubm": 4923,
    "erat": 4924,
    "\u2581psc": 4925,
    "\u2581vie": 4926,
    "\u2581subm": 4927,
    "onitor": 4928,
    "\u25810x3cc": 4929,
    "\u25810x4222": 4930,
    "\u25810x4450": 4931,
    "\u25810x48b0": 4932,
    "\u25810x9010": 4933,
    "poolwork": 4934,
    "\u25810x509a8": 4935,
    "accelerat": 4936,
    "\u25810x44c400": 4937,
    "\u2581submitthread": 4938,
    "\u2581closethreadpoolwork": 4939,
    "\u2581createthreadpoolwork": 4940,
    "\u2581submitthreadpoolwork": 4941,
    "\u2581setfileinformationbyhandle": 4942,
    "78c": 4943,
    "bfc": 4944,
    "pix": 4945,
    "rac": 4946,
    "sel": 4947,
    "owne": 4948,
    "cache": 4949,
    "\u2581vers": 4950,
    "fileex": 4951,
    "\u25810x107": 4952,
    "\u25810x3f5": 4953,
    "\u25810x416": 4954,
    "\u25810x44d": 4955,
    "\u25810x5e0": 4956,
    "\u2581tryac": 4957,
    "ortable": 4958,
    "\u25810x43c3": 4959,
    "\u25810x471c": 4960,
    "\u25810x7eb1": 4961,
    "\u25810x44d4d0": 4962,
    "\u25810x44d4e8": 4963,
    "\u25810x450928": 4964,
    "\u25810x566b14": 4965,
    "\u25810xfeee00dc": 4966,
    "\u2581writeprocessmemory": 4967,
    "\u2581tryacquiresrwlockexclusive": 4968,
    "b9c4f7cf99faebb53570bde23564f2920": 4969,
    "9a237e8c1f6f27bffa038803566fa6d63d": 4970,
    "a171e06a0dcbac23a20eee2c332d978de23": 4971,
    "32a": 4972,
    "330": 4973,
    "ae0": 4974,
    "d16": 4975,
    "f24": 4976,
    "new": 4977,
    "94c4": 4978,
    "pixel": 4979,
    "\u25810x130": 4980,
    "\u25810x40ac": 4981,
    "\u25810x7b60": 4982,
    "\u25810x7cc0": 4983,
    "\u25810x7eb4": 4984,
    "\u25810x7eb5": 4985,
    "clipboard": 4986,
    "lientrect": 4987,
    "\u25810x42b410": 4988,
    "\u25810x430138": 4989,
    "\u25810x7061c0": 4990,
    "\u2581endpaint": 4991,
    "\u25810x120f5d0": 4992,
    "\u25810x1211ed0": 4993,
    "\u25810x1211ef0": 4994,
    "\u25810x1211fa0": 4995,
    "\u25810x100fdd58": 4996,
    "\u2581beginpaint": 4997,
    "\u2581initialize": 4998,
    "\u2581getclientrect": 4999,
    "\u2581process32nextw": 5000,
    "\u2581systemparametersinfoa": 5001,
    "\u2581writeprivateprofilestringa": 5002,
    "230": 5003,
    "5b0": 5004,
    "94c": 5005,
    "ac8": 5006,
    "d0a": 5007,
    "f28": 5008,
    "alize": 5009,
    "\u2581aaal": 5010,
    "\u25810x242": 5011,
    "\u25810x4f0": 5012,
    "\u25810x3f26": 5013,
    "\u25810x7eb8": 5014,
    "\u25810x7eb9": 5015,
    "\u25810x8430": 5016,
    "\u25810x8b60": 5017,
    "\u25810x9960": 5018,
    "\u2581getlast": 5019,
    "\u25810x40593d": 5020,
    "\u25810x40593e": 5021,
    "\u25810x43f650": 5022,
    "\u2581imagehlp": 5023,
    "\u25810x12110fc": 5024,
    "\u25810x12116fc": 5025,
    "\u25810x1211e70": 5026,
    "\u2581registers": 5027,
    "activepopup": 5028,
    "\u25810xfeee00dd": 5029,
    "\u25810xfeee00de": 5030,
    "\u2581getlastactivepopup": 5031,
    "46bb209cc7123ea66397feac0e7f417346d": 5032,
    "3202d57b73d1cccf16276b474d387997c9fad": 5033,
    "eeb9b9c4f7cf99faebb53570bde23564f2920": 5034,
    "gl": 5035,
    "217": 5036,
    "370": 5037,
    "390": 5038,
    "3c0": 5039,
    "704": 5040,
    "a84": 5041,
    "app": 5042,
    "b40": 5043,
    "f9f8": 5044,
    "idto": 5045,
    "\u2581ins": 5046,
    "store": 5047,
    "archiv": 5048,
    "\u25810x417": 5049,
    "\u25810x544": 5050,
    "\u25810x6002": 5051,
    "\u25810x6026": 5052,
    "\u25810x7020": 5053,
    "\u25810x40966": 5054,
    "\u25810x45b178": 5055,
    "fxstring39": 5056,
    "\u25810x1211f6c": 5057,
    "\u2581regopenkeya": 5058,
    "\u2581createcompatiblebitmap": 5059,
    "104": 5060,
    "6d7": 5061,
    "70c": 5062,
    "7a0": 5063,
    "e30": 5064,
    "ecc": 5065,
    "edu": 5066,
    "git": 5067,
    "reent": 5068,
    "malloc": 5069,
    "procedu": 5070,
    "\u25810x12f1": 5071,
    "\u25810x40f0": 5072,
    "\u25810x40f1": 5073,
    "\u25810x53e0": 5074,
    "\u25810x7ebc": 5075,
    "\u25810x7ebd": 5076,
    "\u25810x8af0": 5077,
    "\u2581getdesk": 5078,
    "\u25810x4093f0": 5079,
    "\u25810x409410": 5080,
    "\u25810x409418": 5081,
    "\u25810x40a3e8": 5082,
    "\u25810x410f08": 5083,
    "\u25810x44ee08": 5084,
    "\u25810x4b6270": 5085,
    "\u25810x1211708": 5086,
    "\u25810x1211738": 5087,
    "\u25810x1211fe4": 5088,
    "\u25810xfeee00df": 5089,
    "\u25810xfeee00e0": 5090,
    "\u25810xfeee00e1": 5091,
    "\u25810xfeee00e2": 5092,
    "\u25810xfeee00e3": 5093,
    "servicehandle": 5094,
    "vironmentblock": 5095,
    "\u2581getdesktopwindow": 5096,
    "\u2581closeservicehandle": 5097,
    "\u2581lookupprivilegevaluea": 5098,
    "94c49a237e8c1f6f27bffa038803566fa6d63d": 5099,
    "5bc": 5100,
    "644": 5101,
    "b80": 5102,
    "\u2581ro": 5103,
    "ress": 5104,
    "ce0000": 5105,
    "\u25810x439": 5106,
    "\u25810x82f0": 5107,
    "\u25810x8ce0": 5108,
    "\u25810xff91": 5109,
    "\u2581gdipset": 5110,
    "\u2581gethost": 5111,
    "\u25810x436410": 5112,
    "\u25810x57c168": 5113,
    "\u25810x12119a0": 5114,
    "\u25810xfeee00e4": 5115,
    "\u2581readconsole": 5116,
    "10c": 5117,
    "970": 5118,
    "9c1": 5119,
    "d84": 5120,
    "f04": 5121,
    "typ": 5122,
    "\u2581ls": 5123,
    "angle": 5124,
    "etcon": 5125,
    "\u2581aaad": 5126,
    "\u2581aaak": 5127,
    "\u2581aaaq": 5128,
    "\u2581wine": 5129,
    "header": 5130,
    "\u25810x390": 5131,
    "\u25810x516": 5132,
    "\u25810x554": 5133,
    "listmsg": 5134,
    "\u25810x7428": 5135,
    "\u25810xffee": 5136,
    "\u2581insert": 5137,
    "emaphore": 5138,
    "\u25810x1002e": 5139,
    "\u25810x169bf": 5140,
    "\u25810x42b402": 5141,
    "\u25810x42c070": 5142,
    "\u25810x42c0a8": 5143,
    "\u25810x436402": 5144,
    "\u25810x473210": 5145,
    "\u2581commctrl": 5146,
    "\u25810x12114bc": 5147,
    "\u25810x1211e88": 5148,
    "\u25810x6ce0000": 5149,
    "\u25810x7bc00000": 5150,
    "\u25810xfeee00e5": 5151,
    "\u2581draglistmsg": 5152,
    "\u2581getstringtyp": 5153,
    "ba846bb209cc7123ea66397feac0e7f417346d": 5154,
    "e73202d57b73d1cccf16276b474d387997c9fad": 5155,
    "no": 5156,
    "363": 5157,
    "902": 5158,
    "core": 5159,
    "\u25810x4de": 5160,
    "\u25810x10e9": 5161,
    "\u25810x40e2": 5162,
    "\u25810x42b2": 5163,
    "\u25810x43b7": 5164,
    "\u25810x4990": 5165,
    "\u25810x7db8": 5166,
    "\u25810x7db9": 5167,
    "\u2581flushin": 5168,
    "\u25810x2000ec": 5169,
    "\u25810x1211da4": 5170,
    "\u2581safearray": 5171,
    "\u2581cannotopen": 5172,
    "structioncache": 5173,
    "\u2581module32firstw": 5174,
    "\u2581regcreatekeyexw": 5175,
    "\u2581flushinstructioncache": 5176,
    "130": 5177,
    "1c4": 5178,
    "338": 5179,
    "a30": 5180,
    "b58": 5181,
    "be0": 5182,
    "nam": 5183,
    "f550": 5184,
    "b6550": 5185,
    "enter": 5186,
    "\u2581line": 5187,
    "\u25810x4aa": 5188,
    "\u25810x4220": 5189,
    "\u25810x7770": 5190,
    "\u25810x82c0": 5191,
    "\u25810x8420": 5192,
    "\u25810x99d0": 5193,
    "cmanager": 5194,
    "\u25810x46ec80": 5195,
    "\u25810x53c820": 5196,
    "textlength": 5197,
    "\u2581loadiconw": 5198,
    "\u25810xfeee00e6": 5199,
    "\u25810xfeee00e7": 5200,
    "\u25810xfeee00e8": 5201,
    "\u25810xfeee00e9": 5202,
    "\u2581enablewindow": 5203,
    "\u2581openscmanager": 5204,
    "\u2581shellexecutew": 5205,
    "\u2581dispatchmessagea": 5206,
    "\u2581getforegroundwindow": 5207,
    "\u2581getwindowtextlength": 5208,
    "ee2eeb9b9c4f7cf99faebb53570bde23564f2920": 5209,
    "720": 5210,
    "d00": 5211,
    "e4c": 5212,
    "e90": 5213,
    "fe0": 5214,
    "xec": 5215,
    "\u2581bc": 5216,
    "imag": 5217,
    "aaaaa": 5218,
    "emenu": 5219,
    "\u25810x43c": 5220,
    "\u25810xe00": 5221,
    "\u25810x5284": 5222,
    "\u25810x7118": 5223,
    "\u25810x7e50": 5224,
    "\u25810x97b0": 5225,
    "flushkey": 5226,
    "\u25810x20535": 5227,
    "\u25810x60000": 5228,
    "\u2581winexec": 5229,
    "popupmenu": 5230,
    "\u25810x56fc28": 5231,
    "\u25810x57eb48": 5232,
    "\u25810x1211e54": 5233,
    "\u25810x1211fb0": 5234,
    "\u25810xfeee00ea": 5235,
    "\u25810xfeee00eb": 5236,
    "\u25810xfeee00ec": 5237,
    "\u25810xfeee00ee": 5238,
    "\u2581fatalerror": 5239,
    "\u2581gdipcreate": 5240,
    "\u2581regflushkey": 5241,
    "aaaaaaaaaaaaa": 5242,
    "\u2581regdeletekeya": 5243,
    "\u2581releasesemaphore": 5244,
    "\u2581aaaaaaaaaaaaaaaaaaa": 5245,
    "\u2581aaaaaaaaaaaaaaaaaaaaaaaaaaaaaaaa": 5246,
    "12c": 5247,
    "518": 5248,
    "5f0": 5249,
    "760": 5250,
    "b04": 5251,
    "f70": 5252,
    "\u2581ma": 5253,
    "solet": 5254,
    "\u25810x1fa": 5255,
    "\u25810x484": 5256,
    "\u25810x4216": 5257,
    "\u25810x4840": 5258,
    "\u25810x4b80": 5259,
    "\u25810x7038": 5260,
    "\u25810x7188": 5261,
    "\u25810x71f8": 5262,
    "\u25810x7268": 5263,
    "\u25810x72d8": 5264,
    "\u25810x7348": 5265,
    "\u25810x73b8": 5266,
    "\u25810x7498": 5267,
    "\u25810x9210": 5268,
    "\u25810x9500": 5269,
    "settings": 5270,
    "\u25810x523e40": 5271,
    "\u25810x5374d0": 5272,
    "\u25810x12119a4": 5273,
    "\u25810x53aef9f8": 5274,
    "\u25810xfeee00ed": 5275,
    "\u25810xfeee00ef": 5276,
    "\u25810xfeee00f1": 5277,
    "\u25810xfeee00f4": 5278,
    "\u25810xfeee00f6": 5279,
    "\u25810xfeee00f7": 5280,
    "\u25810xfeee00f8": 5281,
    "\u2581shgetmalloc": 5282,
    "\u2581regenumkeyexw": 5283,
    "b6550a171e06a0dcbac23a20eee2c332d978de23": 5284,
    "3ae73202d57b73d1cccf16276b474d387997c9fad": 5285,
    "940ba846bb209cc7123ea66397feac0e7f417346d": 5286,
    "154": 5287,
    "558": 5288,
    "5b4": 5289,
    "a50": 5290,
    "aa5": 5291,
    "fig": 5292,
    "\u2581qt": 5293,
    "19f3": 5294,
    "undr": 5295,
    "\u2581getbk": 5296,
    "entryto": 5297,
    "\u25810x40ea": 5298,
    "\u25810x7508": 5299,
    "\u25810x7578": 5300,
    "\u25810x75e8": 5301,
    "\u25810x7658": 5302,
    "\u25810x76b5": 5303,
    "\u25810x76c8": 5304,
    "\u25810x7738": 5305,
    "\u25810x78f8": 5306,
    "\u25810x7ab8": 5307,
    "\u25810x8f30": 5308,
    "\u2581freesid": 5309,
    "\u2581handler": 5310,
    "\u25810x4033e6": 5311,
    "ditionmask": 5312,
    "\u25810x1211960": 5313,
    "\u25810x1211e68": 5314,
    "\u25810x1211ef4": 5315,
    "\u2581versetcon": 5316,
    "entrytodata": 5317,
    "\u25810xfeee00f0": 5318,
    "\u25810xfeee00f2": 5319,
    "\u25810xfeee00f9": 5320,
    "\u25810xfeee00fa": 5321,
    "\u2581destroyicon": 5322,
    "\u2581getfileversion": 5323,
    "\u2581imagedirectory": 5324,
    "\u2581dispatchmessagew": 5325,
    "\u2581getkeyboardlayout": 5326,
    "\u2581versetconditionmask": 5327,
    "\u2581imagedirectoryentrytodata": 5328,
    "318": 5329,
    "3a4": 5330,
    "448": 5331,
    "5e8": 5332,
    "786": 5333,
    "984": 5334,
    "fd0": 5335,
    "a630": 5336,
    "dacl": 5337,
    "quit": 5338,
    "\u25810xccc": 5339,
    "\u25810x4184": 5340,
    "\u25810x427d": 5341,
    "\u25810x4787": 5342,
    "\u25810x5e31": 5343,
    "\u25810x73d0": 5344,
    "\u25810x77a8": 5345,
    "\u25810x7d58": 5346,
    "\u2581dialog": 5347,
    "\u25810x40a540": 5348,
    "\u25810x42d0e0": 5349,
    "\u25810x5d5bd0": 5350,
    "\u2581postquit": 5351,
    "\u25810x12110a8": 5352,
    "\u25810x12115c4": 5353,
    "\u25810x1211cfc": 5354,
    "\u25810x1211d8c": 5355,
    "\u25810xfeee00f3": 5356,
    "\u25810xfeee00f5": 5357,
    "\u2581getdrivetypew": 5358,
    "\u2581postquitmessage": 5359,
    "securitydescriptordacl": 5360,
    "19094c49a237e8c1f6f27bffa038803566fa6d63d": 5361,
    "7dee2eeb9b9c4f7cf99faebb53570bde23564f2920": 5362,
    "3d0": 5363,
    "646": 5364,
    "ac4": 5365,
    "bd8": 5366,
    "cem": 5367,
    "e68": 5368,
    "5560": 5369,
    "hell": 5370,
    "\u25817zs": 5371,
    "ectex": 5372,
    "range": 5373,
    "\u25810x4b6": 5374,
    "\u25810x532": 5375,
    "\u25810x2012": 5376,
    "\u25810x45bc": 5377,
    "\u25810x48b8": 5378,
    "\u25810x4a60": 5379,
    "\u25810x7818": 5380,
    "\u25810x7888": 5381,
    "\u25810x7968": 5382,
    "\u25810x79d8": 5383,
    "\u25810x7a48": 5384,
    "\u25810x7b28": 5385,
    "\u25810x7b98": 5386,
    "\u25810x7c08": 5387,
    "\u25810x7c78": 5388,
    "\u25810x7ce8": 5389,
    "\u25810x7dc0": 5390,
    "\u25810x4300a8": 5391,
    "stretchblt": 5392,
    "\u25810xfeee00fb": 5393,
    "\u2581getprofile": 5394,
    "stretchbltmode": 5395,
    "\u2581getcomputernamew": 5396,
    "\u2581getthreadcontext": 5397,
    "1a0": 5398,
    "74e": 5399,
    "ab4": 5400,
    "ab5": 5401,
    "fb0": 5402,
    "was": 5403,
    "\u2581qa": 5404,
    "6ahi": 5405,
    "indra": 5406,
    "selfc": 5407,
    "\u2581aaah": 5408,
    "\u2581aaap": 5409,
    "\u25810x184": 5410,
    "\u25810x53f": 5411,
    "\u25810x40d5": 5412,
    "\u25810x4224": 5413,
    "\u25810x4640": 5414,
    "\u25810x7002": 5415,
    "\u25810x7026": 5416,
    "archivec": 5417,
    "textouta": 5418,
    "\u25810x2e7eb": 5419,
    "\u2581sprintf": 5420,
    "\u25810x4086dd": 5421,
    "\u25810x430070": 5422,
    "\u25810x434002": 5423,
    "\u25810x434004": 5424,
    "\u25810x434006": 5425,
    "\u25810x434008": 5426,
    "\u25810x43400a": 5427,
    "\u25810x43400c": 5428,
    "\u25810x43400e": 5429,
    "\u25810x434010": 5430,
    "\u25810x434014": 5431,
    "\u25810x434016": 5432,
    "\u25810x434018": 5433,
    "\u25810x43a4b0": 5434,
    "\u2581begindra": 5435,
    "\u2581sysalloc": 5436,
    "imagecount": 5437,
    "\u25810x1211b8c": 5438,
    "\u2581copyfilew": 5439,
    "\u2581createpen": 5440,
    "\u25810xfeee00fc": 5441,
    "\u25810xfeee00fd": 5442,
    "\u2581setwindowtexta": 5443,
    "\u2581cannotopenselfc": 5444,
    "\u2581getdiskfreespaceexw": 5445,
    "f7b6550a171e06a0dcbac23a20eee2c332d978de23": 5446,
    "3e3ae73202d57b73d1cccf16276b474d387997c9fad": 5447,
    "110": 5448,
    "3e0": 5449,
    "axi": 5450,
    "bf8": 5451,
    "d3c": 5452,
    "thr": 5453,
    "leave": 5454,
    "\u2581gthr": 5455,
    "\u25810x7f4": 5456,
    "\u25810x4377": 5457,
    "\u25810x44aa": 5458,
    "\u25810x46b1": 5459,
    "\u25810x4780": 5460,
    "\u25810x7260": 5461,
    "\u25810x7e51": 5462,
    "\u2581yapaxi": 5463,
    "\u25810x2e7ec": 5464,
    "\u25810x40aba": 5465,
    "\u2581enddrag": 5466,
    "\u2581mingw32": 5467,
    "\u2581program": 5468,
    "\u25810x434012": 5469,
    "\u25810x61e240": 5470,
    "\u25810xea6b70": 5471,
    "\u2581dragmove": 5472,
    "\u25810x1000000": 5473,
    "\u2581begindrag": 5474,
    "\u2581dragenter": 5475,
    "\u2581dragleave": 5476,
    "\u25810xfeee00fe": 5477,
    "\u25810xfeee0100": 5478,
    "\u2581outputdebugstringw": 5479,
    "b10": 5480,
    "toc": 5481,
    "\u258115": 5482,
    "chto": 5483,
    "db58": 5484,
    "glti": 5485,
    "\u2581int": 5486,
    "\u2581poly": 5487,
    "\u2581swit": 5488,
    "\u25810x126": 5489,
    "\u2581track": 5490,
    "\u25810x1001": 5491,
    "\u25810x40de": 5492,
    "\u25810x449e": 5493,
    "\u25810x44a4": 5494,
    "\u25810x8e50": 5495,
    "\u25810x99e0": 5496,
    "\u2581unglti": 5497,
    "\u25810x58000": 5498,
    "\u25810xccccc": 5499,
    "\u2581gettext": 5500,
    "\u2581interne": 5501,
    "\u2581movefil": 5502,
    "\u25810x603cd8": 5503,
    "\u2581isdialog": 5504,
    "\u2581switchto": 5505,
    "\u25810x1211e60": 5506,
    "\u25810x1211e64": 5507,
    "\u25810xfeee00ff": 5508,
    "allocateheap": 5509,
    "\u2581peekmessagea": 5510,
    "\u2581rtlallocateheap": 5511,
    "447dee2eeb9b9c4f7cf99faebb53570bde23564f2920": 5512,
    "ere": 5513,
    "f54": 5514,
    "\u258192": 5515,
    "6000": 5516,
    "qual": 5517,
    "sect": 5518,
    "ddata": 5519,
    "\u2581aaac": 5520,
    "\u25810x234": 5521,
    "\u25810x4a70": 5522,
    "\u25810x5aa8": 5523,
    "\u25810x7ce0": 5524,
    "\u25810x8df0": 5525,
    "\u25810x8f50": 5526,
    "\u25810x2e7ed": 5527,
    "\u25810x2e7f0": 5528,
    "\u2581convert": 5529,
    "boarddata": 5530,
    "\u25810x409389": 5531,
    "\u25810x40938a": 5532,
    "\u25810x4096a0": 5533,
    "\u25810x1211d50": 5534,
    "\u2581intersect": 5535,
    "\u25810x58000000": 5536,
    "\u25810xcccccccc": 5537,
    "\u25810xfeee0101": 5538,
    "\u25810xfeee0102": 5539,
    "\u2581getthreadpriority": 5540,
    "394": 5541,
    "3f8": 5542,
    "779": 5543,
    "7f4": 5544,
    "9c6": 5545,
    "aa0": 5546,
    "df2": 5547,
    "fc4": 5548,
    "gen": 5549,
    "5108": 5550,
    "bcol": 5551,
    "ea30": 5552,
    "\u2581vfp": 5553,
    "\u2581aaag": 5554,
    "\u2581aaam": 5555,
    "\u2581aaar": 5556,
    "\u25810x3c0": 5557,
    "\u25810x43e": 5558,
    "\u25810x458": 5559,
    "\u25810x1074": 5560,
    "\u25810x4155": 5561,
    "\u25810x42a2": 5562,
    "\u25810x47f0": 5563,
    "\u25810x4867": 5564,
    "\u25810x4ddc": 5565,
    "\u25810x2e7ee": 5566,
    "\u25810x2e7ef": 5567,
    "\u25810x2e7f1": 5568,
    "\u25810x2e7f2": 5569,
    "\u25810x4086de": 5570,
    "\u25810x4086df": 5571,
    "\u25810x4086e0": 5572,
    "\u25810x4086e1": 5573,
    "\u25810x4086e2": 5574,
    "\u25810x4086e3": 5575,
    "\u25810x4088ce": 5576,
    "\u25810x4088d0": 5577,
    "\u25810x4088d2": 5578,
    "\u25810x4088d4": 5579,
    "\u25810x4088d6": 5580,
    "\u25810x4088d8": 5581,
    "\u25810x4088da": 5582,
    "\u25810x409355": 5583,
    "\u25810x409356": 5584,
    "\u25810x409357": 5585,
    "\u25810x409358": 5586,
    "\u25810x409359": 5587,
    "\u25810x40935a": 5588,
    "\u25810x40935b": 5589,
    "\u25810x40938b": 5590,
    "\u25810x40938c": 5591,
    "\u25810x40938d": 5592,
    "\u25810x40938e": 5593,
    "\u25810x40938f": 5594,
    "\u25810x4093cd": 5595,
    "\u25810x4093ce": 5596,
    "\u25810x4093cf": 5597,
    "\u25810x4093d5": 5598,
    "\u25810x4093d6": 5599,
    "\u25810x4093d7": 5600,
    "\u25810x4093e1": 5601,
    "\u25810x4093e2": 5602,
    "\u25810x4093e3": 5603,
    "\u25810x4093f5": 5604,
    "\u25810x4093f6": 5605,
    "\u25810x4093f7": 5606,
    "\u25810x409696": 5607,
    "\u25810x409698": 5608,
    "\u25810x40969a": 5609,
    "\u25810x40969c": 5610,
    "\u25810x40969e": 5611,
    "\u25810x4096a2": 5612,
    "\u25810x40a53a": 5613,
    "\u25810x40a53c": 5614,
    "\u25810x40a53e": 5615,
    "\u25810x40a542": 5616,
    "\u25810x40a544": 5617,
    "\u25810x40a546": 5618,
    "\u25810x4153a0": 5619,
    "\u25810x423590": 5620,
    "\u25810x4606a0": 5621,
    "\u25810x585560": 5622,
    "brushorgex": 5623,
    "freestring": 5624,
    "\u25810x1211cec": 5625,
    "\u2581libgccw32": 5626,
    "andsettings": 5627,
    "\u25810xfeee0103": 5628,
    "\u25810xfeee0104": 5629,
    "\u25810xfeee0112": 5630,
    "\u2581createbitmap": 5631,
    "\u2581applicationdata": 5632,
    "\u2581documentsandsettings": 5633,
    "\u2581getfileinformationbyhandle": 5634,
    "573e3ae73202d57b73d1cccf16276b474d387997c9fad": 5635,
    "142": 5636,
    "150": 5637,
    "1d4": 5638,
    "210": 5639,
    "520": 5640,
    "738": 5641,
    "b0c": 5642,
    "ce5": 5643,
    "dfc": 5644,
    "dit": 5645,
    "f3c": 5646,
    "init": 5647,
    "gedit": 5648,
    "parama": 5649,
    "\u25810x42e": 5650,
    "\u25810x4025": 5651,
    "\u25810x69a0": 5652,
    "\u25810x42d40": 5653,
    "\u2581regedit": 5654,
    "\u25810x4b6288": 5655,
    "\u25810xfeee0105": 5656,
    "\u25810xfeee0141": 5657,
    "\u2581setfileinformationbyhandlew": 5658,
    "\u2581getfileinformationbyhandleexw": 5659,
    "1de": 5660,
    "326": 5661,
    "570": 5662,
    "730": 5663,
    "75a": 5664,
    "9e0": 5665,
    "b5a": 5666,
    "ded": 5667,
    "0106": 5668,
    "1cd0": 5669,
    "tice": 5670,
    "\u25810x519": 5671,
    "\u2581ntohl": 5672,
    "\u25810x12f2": 5673,
    "\u25810x412d": 5674,
    "\u2581extrac": 5675,
    "\u2581varian": 5676,
    "\u25810x7b340": 5677,
    "\u2581msvcr80": 5678,
    "\u25810x1211584": 5679,
    "\u25810x12117ec": 5680,
    "\u25810x1211894": 5681,
    "\u2581createpipe": 5682,
    "\u2581sysfreestring": 5683,
    "\u2581getfileattributes": 5684,
    "ab0940ba846bb209cc7123ea66397feac0e7f417346d": 5685,
    "f76f7b6550a171e06a0dcbac23a20eee2c332d978de23": 5686,
    "1c0": 5687,
    "a5e": 5688,
    "a60": 5689,
    "df3": 5690,
    "f90": 5691,
    "1aac": 5692,
    "3bd8": 5693,
    "7680": 5694,
    "conv": 5695,
    "owned": 5696,
    "dibcol": 5697,
    "\u25810x27c": 5698,
    "\u25810x45b": 5699,
    "\u25810x8f7": 5700,
    "\u25810xe10": 5701,
    "resourc": 5702,
    "\u25810x42c2": 5703,
    "\u25810x44e9": 5704,
    "\u25810x4624": 5705,
    "\u25810x5a64": 5706,
    "\u25810x7890": 5707,
    "\u25810x40500": 5708,
    "\u25810x40c58": 5709,
    "\u25810x5265d": 5710,
    "\u25810x107568": 5711,
    "\u2581setfocus": 5712,
    "\u25810x20535e0": 5713,
    "\u25810xfeee0125": 5714,
    "dibcolortable": 5715,
    "\u2581getdateformatw": 5716,
    "\u2581cocreateinstance": 5717,
    "268": 5718,
    "34c": 5719,
    "396": 5720,
    "540": 5721,
    "bba": 5722,
    "db0": 5723,
    "fa8": 5724,
    "utd": 5725,
    "1bec": 5726,
    "1f20": 5727,
    "9d90": 5728,
    "ecta": 5729,
    "font": 5730,
    "\u2581off": 5731,
    "b7a54": 5732,
    "decla": 5733,
    "\u2581aaan": 5734,
    "conven": 5735,
    "displa": 5736,
    "\u25810x236": 5737,
    "\u2581ntice": 5738,
    "redwith": 5739,
    "\u25810x4048": 5740,
    "\u25810x4ad0": 5741,
    "\u25810x4c49": 5742,
    "\u25810x5d5c": 5743,
    "\u25810x605c": 5744,
    "\u25810x7dbc": 5745,
    "\u25810x7dbd": 5746,
    "\u25810x50e10": 5747,
    "\u25810x10753c": 5748,
    "\u25810x3f3000": 5749,
    "\u25810x434001": 5750,
    "\u25810x434003": 5751,
    "\u25810x434005": 5752,
    "\u25810x434007": 5753,
    "\u25810x434009": 5754,
    "\u25810x43400b": 5755,
    "\u25810x43400d": 5756,
    "\u25810x43400f": 5757,
    "\u25810x434011": 5758,
    "\u25810x434015": 5759,
    "\u25810x434017": 5760,
    "\u25810x800000": 5761,
    "convention": 5762,
    "orarchivec": 5763,
    "\u25810x12118d8": 5764,
    "\u25810x5265c28": 5765,
    "\u25810xfeee0106": 5766,
    "declaredwith": 5767,
    "\u2581callwindowproc": 5768,
    "callingconvention": 5769,
    "\u2581sysallocstringlen": 5770,
    "b7a5419094c49a237e8c1f6f27bffa038803566fa6d63d": 5771,
    "5cc": 5772,
    "7c0": 5773,
    "98c": 5774,
    "ce6": 5775,
    "f0c": 5776,
    "\u2581cqa": 5777,
    "\u2581scqa": 5778,
    "\u25810x18c": 5779,
    "\u25810x28c": 5780,
    "\u25810x378": 5781,
    "\u25810x486": 5782,
    "\u2581pscqa": 5783,
    "\u25810x419b": 5784,
    "\u25810x62bc": 5785,
    "\u25810x7b80": 5786,
    "\u25810x120af": 5787,
    "\u25810x43300": 5788,
    "\u25810x434013": 5789,
    "\u25810x434019": 5790,
    "\u25810x475f5c": 5791,
    "\u2581dosdatet": 5792,
    "\u25810x1210e20": 5793,
    "\u25810x20000000": 5794,
    "\u25810xfeee0107": 5795,
    "\u25810xfeee0108": 5796,
    "\u25810xfeee0109": 5797,
    "\u25810xfeee010a": 5798,
    "\u25810xfeee010d": 5799,
    "\u25810xfeee010e": 5800,
    "\u25810xfeee0111": 5801,
    "\u25810xfeee0113": 5802,
    "\u2581enumresourc": 5803,
    "\u2581replaceicon": 5804,
    "\u2581regdeletekeyw": 5805,
    "\u2581setwindowshook": 5806,
    "\u2581unregisterclass": 5807,
    "\u2581dosdatetimetofiletime": 5808,
    "mt": 5809,
    "005": 5810,
    "204": 5811,
    "28c": 5812,
    "310": 5813,
    "3cd": 5814,
    "930": 5815,
    "f9f": 5816,
    "17fd": 5817,
    "1a1c": 5818,
    "\u2581tim": 5819,
    "ected": 5820,
    "\u2581vfp6": 5821,
    "byname": 5822,
    "cement": 5823,
    "foxpro": 5824,
    "\u25810x4f8": 5825,
    "\u25810x5f9": 5826,
    "erclass": 5827,
    "\u25810x4060": 5828,
    "\u25810x4568": 5829,
    "\u25810x5ebc": 5830,
    "\u25810x6037": 5831,
    "\u25810x7710": 5832,
    "\u25810x7b00": 5833,
    "\u25810x8490": 5834,
    "\u2581offset": 5835,
    "\u25810xf003f": 5836,
    "placement": 5837,
    "\u25810x1210d1": 5838,
    "\u25810x405000": 5839,
    "\u25810x4184c0": 5840,
    "\u25810x4195f0": 5841,
    "\u25810x419620": 5842,
    "\u25810x4df006": 5843,
    "\u25810x4df008": 5844,
    "\u25810x4df00a": 5845,
    "\u25810x4df00c": 5846,
    "\u25810x4df00e": 5847,
    "\u25810x4df010": 5848,
    "\u25810x4df012": 5849,
    "\u25810x4df014": 5850,
    "\u25810x4df016": 5851,
    "\u25810x4df018": 5852,
    "\u25810x4df01a": 5853,
    "\u25810x4df01c": 5854,
    "\u25810x4df01e": 5855,
    "\u25810x770012": 5856,
    "\u25810x77002d": 5857,
    "\u25810x1210e2c": 5858,
    "\u25810x1211ba8": 5859,
    "\u2581dialogbox": 5860,
    "\u2581loadimage": 5861,
    "\u2581timecheck": 5862,
    "\u25810xfeee010b": 5863,
    "\u25810xfeee010c": 5864,
    "\u25810xfeee0110": 5865,
    "visualfoxpro": 5866,
    "\u2581commandline": 5867,
    "\u2581timecheckerclass": 5868,
    "516ab0940ba846bb209cc7123ea66397feac0e7f417346d": 5869,
    "f4573e3ae73202d57b73d1cccf16276b474d387997c9fad": 5870,
    "407f76f7b6550a171e06a0dcbac23a20eee2c332d978de23": 5871,
    "gr": 5872,
    "gs": 5873,
    "mi": 5874,
    "350": 5875,
    "3dc": 5876,
    "d30": 5877,
    "f84": 5878,
    "98f5": 5879,
    "328e2": 5880,
    "9a0c3": 5881,
    "ffcdd": 5882,
    "1cd071": 5883,
    "\u25810x210": 5884,
    "98f5b70": 5885,
    "9d90bcc": 5886,
    "\u25810x41e9": 5887,
    "\u25810x435f": 5888,
    "\u25810x7e20": 5889,
    "\u25810x8ab0": 5890,
    "\u25810x8de0": 5891,
    "17fd7680": 5892,
    "ea30a630": 5893,
    "\u25810x51000": 5894,
    "19f3328e2": 5895,
    "\u25810x107538": 5896,
    "\u25810x10e97c": 5897,
    "\u25810x40b3a0": 5898,
    "\u25810x43a480": 5899,
    "\u25810x44d280": 5900,
    "\u25810x44e500": 5901,
    "\u25810x45b1c0": 5902,
    "\u25810x4c0218": 5903,
    "\u25810x4c4308": 5904,
    "\u25810x61e258": 5905,
    "9a0c3ffcdd": 5906,
    "\u25810x1211ebc": 5907,
    "\u2581getparent": 5908,
    "9d90bcc1bec": 5909,
    "\u2581findwindoww": 5910,
    "\u2581gethostbyname": 5911,
    "1cd07119f3328e2": 5912,
    "98f5b70ea30a630": 5913,
    "\u2581openthreadtoken": 5914,
    "17fd76809d90bcc1bec": 5915,
    "98f5b70ea30a6309a0c3ffcdd": 5916,
    "1cd07119f3328e217fd76809d90bcc1bec": 5917,
    "98f5b70ea30a6309a0c3ffcdd1cd07119f3328e217fd76809d90bcc1bec": 5918,
    "578": 5919,
    "9c0": 5920,
    "a69": 5921,
    "bb8": 5922,
    "d0c": 5923,
    "fb8": 5924,
    "ff4": 5925,
    "\u2581kic": 5926,
    "\u2581qt5": 5927,
    "\u2581zip": 5928,
    "argvw": 5929,
    "\u25810x1be": 5930,
    "\u25810x204": 5931,
    "\u25810x3ae": 5932,
    "\u25810x454": 5933,
    "\u2581equal": 5934,
    "cliprgn": 5935,
    "toargvw": 5936,
    "\u25810x1810": 5937,
    "\u25810x4031": 5938,
    "\u25810x42f8": 5939,
    "\u25810x4720": 5940,
    "\u25810x4754": 5941,
    "00000000": 5942,
    "\u25810x1a000": 5943,
    "\u25810x50f78": 5944,
    "\u25810x7a940": 5945,
    "\u25810x4c5108": 5946,
    "\u25810x12117e8": 5947,
    "\u25810x12117fc": 5948,
    "\u25810x1211b90": 5949,
    "\u25810x1211d24": 5950,
    "\u25810xfeee0115": 5951,
    "\u25810xfeee0116": 5952,
    "\u25810xfeee0123": 5953,
    "\u25810xfeee0124": 5954,
    "\u2581charupperbuff": 5955,
    "\u2581regcreatekeya": 5956,
    "\u2581switchtothread": 5957,
    "\u2581commandlinetoargvw": 5958,
    "f07447dee2eeb9b9c4f7cf99faebb53570bde23564f2920": 5959,
    "33f4573e3ae73202d57b73d1cccf16276b474d387997c9fad": 5960,
    "ee4b7a5419094c49a237e8c1f6f27bffa038803566fa6d63d": 5961,
    "15f": 5962,
    "1a8": 5963,
    "1e8": 5964,
    "358": 5965,
    "568": 5966,
    "5fc": 5967,
    "664": 5968,
    "mov": 5969,
    "\u2581ab": 5970,
    "1889": 5971,
    "inki": 5972,
    "\u2581mfc": 5973,
    "metric": 5974,
    "\u25810x118": 5975,
    "\u25810x11c8": 5976,
    "\u25810x4150": 5977,
    "\u25810x423a": 5978,
    "\u25810x45e4": 5979,
    "\u25810x58db": 5980,
    "\u25810x65f5": 5981,
    "\u25810x7ec8": 5982,
    "\u25810x7ec9": 5983,
    "\u2581starts": 5984,
    "\u2581window": 5985,
    "\u2581appendw": 5986,
    "\u25810x528468": 5987,
    "\u25810x61f680": 5988,
    "\u2581internet": 5989,
    "\u25810x1211684": 5990,
    "\u25810x1211888": 5991,
    "\u25810x1211eb0": 5992,
    "\u25810x1211f8c": 5993,
    "\u25810x1211f90": 5994,
    "\u25810x169bef4": 5995,
    "\u25810x2d4dbfc": 5996,
    "\u25810xfeee0114": 5997,
    "\u25810xfeee011b": 5998,
    "\u25810xfeee011d": 5999,
    "\u25810xfeee0121": 6000,
    "\u25810xfeee0126": 6001,
    "\u25810xfeee0153": 6002,
    "stringformat": 6003,
    "\u2581getusernamew": 6004,
    "\u2581expandenvironmentstringsa": 6005,
    "rn": 6006,
    "392": 6007,
    "3b0": 6008,
    "a10": 6009,
    "f7c": 6010,
    "\u2581ob": 6011,
    "aret": 6012,
    "llip": 6013,
    "\u25810x4ac": 6014,
    "\u25810x120c": 6015,
    "\u25810x4c90": 6016,
    "\u25810xfff2": 6017,
    "detected": 6018,
    "\u25810x70000": 6019,
    "frompoint": 6020,
    "\u25810x1211518": 6021,
    "\u25810x1211904": 6022,
    "\u2581setconsol": 6023,
    "\u25810xfeee0117": 6024,
    "\u25810xfeee0118": 6025,
    "\u25810xfeee0119": 6026,
    "\u25810xfeee011a": 6027,
    "\u25810xfeee011c": 6028,
    "\u25810xfeee0120": 6029,
    "\u2581getbkcolor": 6030,
    "\u2581createrectrgn": 6031,
    "\u2581gettextmetric": 6032,
    "\u2581regenumkeyexa": 6033,
    "\u2581getthreadtimes": 6034,
    "\u2581enumcalendarinfoa": 6035,
    "\u2581fatalerrordetected": 6036,
    "\u2581setconsolectrlhandler": 6037,
    "198": 6038,
    "5b8": 6039,
    "6f0": 6040,
    "7b0": 6041,
    "a80": 6042,
    "a8c": 6043,
    "b74": 6044,
    "bc4": 6045,
    "ea4": 6046,
    "31d9": 6047,
    "copy": 6048,
    "\u2581net": 6049,
    "\u2581oem": 6050,
    "\u2581pro": 6051,
    "buffer": 6052,
    "enable": 6053,
    "tochar": 6054,
    "\u25810x3f6": 6055,
    "\u25810x426": 6056,
    "\u25810x449": 6057,
    "\u25810x53c": 6058,
    "\u25810x12f0": 6059,
    "\u25810x4013": 6060,
    "\u25810x42e3": 6061,
    "\u25810x4554": 6062,
    "\u25810x460c": 6063,
    "\u25810x4c70": 6064,
    "\u25810x8e20": 6065,
    "\u25810x9560": 6066,
    "outputcp": 6067,
    "\u25810x169bd": 6068,
    "\u2581connect": 6069,
    "\u25810x41d780": 6070,
    "\u25810x1211788": 6071,
    "\u2581enddialog": 6072,
    "\u2581oemtochar": 6073,
    "\u25810xfeee011e": 6074,
    "\u25810xfeee011f": 6075,
    "1e4": 6076,
    "1f0": 6077,
    "34e": 6078,
    "3cc": 6079,
    "5c0": 6080,
    "5d8": 6081,
    "5e0": 6082,
    "737": 6083,
    "784": 6084,
    "90c": 6085,
    "f8c": 6086,
    "ver": 6087,
    "\u258100": 6088,
    "\u2581py": 6089,
    "e740": 6090,
    "fill": 6091,
    "\u2581low": 6092,
    "\u2581run": 6093,
    "6d7363": 6094,
    "\u25810x5b9": 6095,
    "\u2581start": 6096,
    "\u25810x40a4": 6097,
    "\u25810x40e0": 6098,
    "\u25810x4160": 6099,
    "\u25810x4a30": 6100,
    "\u25810x573c": 6101,
    "\u25810x574c": 6102,
    "\u25810x6015": 6103,
    "\u25810x6080": 6104,
    "\u25810x85a0": 6105,
    "\u25810xa36c": 6106,
    "\u2581failed": 6107,
    "\u2581printf": 6108,
    "\u25810x43680": 6109,
    "\u25810x47900": 6110,
    "\u25810x4c100": 6111,
    "\u25810x121185c": 6112,
    "\u2581drawtexta": 6113,
    "\u2581getdibits": 6114,
    "\u25810xe06d7363": 6115,
    "\u25810xfeee0127": 6116,
    "\u25810xfeee0128": 6117,
    "\u2581stretchblt": 6118,
    "\u2581readconsolew": 6119,
    "\u2581registerservic": 6120,
    "\u2581regdeletevaluew": 6121,
    "\u2581registerservicectrlhandler": 6122,
    "1889f07447dee2eeb9b9c4f7cf99faebb53570bde23564f2920": 6123,
    "ew": 6124,
    "ha": 6125,
    "3d8": 6126,
    "b54": 6127,
    "f30": 6128,
    "f40": 6129,
    "\u2581sy": 6130,
    "5c80": 6131,
    "gnal": 6132,
    "lass32": 6133,
    "\u25810x232": 6134,
    "\u25810x49c": 6135,
    "\u25810x4dc": 6136,
    "\u25810x538": 6137,
    "\u2581power": 6138,
    "startup": 6139,
    "\u25810x4080": 6140,
    "\u25810x40e7": 6141,
    "\u25810x40f5": 6142,
    "\u25810x4104": 6143,
    "\u25810x4244": 6144,
    "\u25810x45d3": 6145,
    "\u25810x4634": 6146,
    "\u25810x4c00": 6147,
    "\u25810x4c51": 6148,
    "function": 6149,
    "\u2581qt5core": 6150,
    "\u25810x44eef0": 6151,
    "\u2581wtsapi32": 6152,
    "\u25810x1211438": 6153,
    "\u25810x1211994": 6154,
    "\u25810xfeee0129": 6155,
    "\u25810xfeee012a": 6156,
    "\u25810xfeee012b": 6157,
    "\u25810xfeee012c": 6158,
    "\u25810xfeee012d": 6159,
    "\u25810xfeee012e": 6160,
    "\u2581loadbitmap": 6161,
    "\u2581gdiplusstartup": 6162,
    "\u2581getwindowtexta": 6163,
    "\u2581setstretchbltmode": 6164,
    "\u2581getconsoleoutputcp": 6165,
    "\u2581getprivateprofilesection": 6166,
    "15c": 6167,
    "7c4": 6168,
    "7d0": 6169,
    "910": 6170,
    "ac0": 6171,
    "ce1": 6172,
    "df8": 6173,
    "emo": 6174,
    "ens": 6175,
    "f5c": 6176,
    "ome": 6177,
    "\u258116": 6178,
    "\u2581he": 6179,
    "rand": 6180,
    "\u2581lls": 6181,
    "\u2581mov": 6182,
    "etoex": 6183,
    "specw": 6184,
    "\u2581cryp": 6185,
    "\u2581pbvm": 6186,
    "ension": 6187,
    "\u25810x147": 6188,
    "\u25810x52c": 6189,
    "\u25810x5a2": 6190,
    "\u2581query": 6191,
    "\u25810x1076": 6192,
    "\u25810x4124": 6193,
    "\u25810x4635": 6194,
    "\u25810x8a60": 6195,
    "\u2581lineto": 6196,
    "\u2581llseek": 6197,
    "\u2581querys": 6198,
    "\u2581signal": 6199,
    "\u25810x2e7f3": 6200,
    "\u2581gdipget": 6201,
    "\u25810x41d810": 6202,
    "\u25810x41d840": 6203,
    "\u2581fillrect": 6204,
    "\u2581lstrcpyw": 6205,
    "\u2581movetoex": 6206,
    "\u25810x12069c0": 6207,
    "\u25810x1211cc8": 6208,
    "\u25810x1211d5a": 6209,
    "\u25810x1211ea4": 6210,
    "\u25810x3781000": 6211,
    "\u2581createdib": 6212,
    "winmetafile": 6213,
    "\u25810x100fdd70": 6214,
    "\u2581getclipbox": 6215,
    "\u2581tsldrl6662": 6216,
    "\u2581tsldrl6664": 6217,
    "\u2581processidto": 6218,
    "\u2581setmenuitem": 6219,
    "\u2581postmessagea": 6220,
    "winmetafilebits": 6221,
    "\u2581processidtosessionid": 6222,
    "\u2581zwquerysysteminformation": 6223,
    "1aac516ab0940ba846bb209cc7123ea66397feac0e7f417346d": 6224,
    "217407f76f7b6550a171e06a0dcbac23a20eee2c332d978de23": 6225,
    "b1ee4b7a5419094c49a237e8c1f6f27bffa038803566fa6d63d": 6226,
    "14c": 6227,
    "1b0": 6228,
    "2b0": 6229,
    "368": 6230,
    "38c": 6231,
    "650": 6232,
    "op2": 6233,
    "tof": 6234,
    "60aa": 6235,
    "d560": 6236,
    "rop2": 6237,
    "inter": 6238,
    "\u2581wink": 6239,
    "\u2581wnet": 6240,
    "\u25810x240": 6241,
    "\u25810x413": 6242,
    "\u25810x4d4": 6243,
    "\u25810x3aea": 6244,
    "\u25810x40d4": 6245,
    "\u25810x42ae": 6246,
    "\u25810x4491": 6247,
    "\u25810x46dc": 6248,
    "\u25810x7dc1": 6249,
    "\u25810x8ee0": 6250,
    "\u25810x120fd": 6251,
    "filenamea": 6252,
    "viewextex": 6253,
    "\u25810x43c310": 6254,
    "\u25810x44c9b0": 6255,
    "\u25810x44c9f0": 6256,
    "\u25810x1211bb0": 6257,
    "ervicestatus": 6258,
    "\u2581getscrollpos": 6259,
    "\u2581setscrollpos": 6260,
    "\u2581getsystemmenu": 6261,
    "\u2581couninitialize": 6262,
    "\u2581virtualallocex": 6263,
    "\u2581iswindowvisible": 6264,
    "\u2581enumresourcename": 6265,
    "001": 6266,
    "2a4": 6267,
    "324": 6268,
    "376": 6269,
    "3f4": 6270,
    "752": 6271,
    "b94": 6272,
    "dos": 6273,
    "mdi": 6274,
    "\u2581ht": 6275,
    "ed24": 6276,
    "\u25810x4b4": 6277,
    "\u25810x716": 6278,
    "\u2581lopen": 6279,
    "\u25810x4040": 6280,
    "\u25810x4090": 6281,
    "\u25810x43d8": 6282,
    "\u25810x4404": 6283,
    "\u25810x452b": 6284,
    "\u25810x46bd": 6285,
    "\u25810x46d1": 6286,
    "\u25810x8f00": 6287,
    "\u25810x4356c": 6288,
    "\u2581restore": 6289,
    "\u25810x4540e0": 6290,
    "\u2581addatoma": 6291,
    "\u25810x1210eb0": 6292,
    "\u2581removefile": 6293,
    "298": 6294,
    "2c0": 6295,
    "306": 6296,
    "384": 6297,
    "af4": 6298,
    "ba0": 6299,
    "f2c": 6300,
    "fec": 6301,
    "\u258120": 6302,
    "page": 6303,
    "lease": 6304,
    "secon": 6305,
    "\u2581hels": 6306,
    "\u2581work": 6307,
    "\u25810x433": 6308,
    "\u25810x43a": 6309,
    "\u25810x28e7": 6310,
    "\u25810x43dc": 6311,
    "\u25810x4830": 6312,
    "\u25810x76fe": 6313,
    "\u25810x8cb0": 6314,
    "\u25810x9810": 6315,
    "keyboard": 6316,
    "leasecon": 6317,
    "\u25810x181b70": 6318,
    "\u25810x40a664": 6319,
    "\u25810x41e470": 6320,
    "\u25810x4533d8": 6321,
    "\u25810x5bd4a8": 6322,
    "\u25810x8f7ab8": 6323,
    "\u2581failedto": 6324,
    "\u2581helsinki": 6325,
    "\u25810x1210d90": 6326,
    "\u25810x1211900": 6327,
    "\u25810x1211ce4": 6328,
    "\u2581myarg1myarg2": 6329,
    "\u2581setwindowlonga": 6330,
    "\u2581createdibsection": 6331,
    "\u2581initializesecuritydescriptor": 6332,
    "16c": 6333,
    "1ec": 6334,
    "3b8": 6335,
    "5a0": 6336,
    "6c8": 6337,
    "768": 6338,
    "907": 6339,
    "964": 6340,
    "a52": 6341,
    "f44": 6342,
    "gon": 6343,
    "ist": 6344,
    "rnl": 6345,
    "ung": 6346,
    "adc0": 6347,
    "lags": 6348,
    "lear": 6349,
    "quir": 6350,
    "vedc": 6351,
    "\u2581fil": 6352,
    "model": 6353,
    "acquir": 6354,
    "\u25810x237": 6355,
    "\u25810x441": 6356,
    "\u2581print": 6357,
    "\u25810x4233": 6358,
    "\u25810x45c3": 6359,
    "\u25810x47d0": 6360,
    "\u25810x48c0": 6361,
    "\u25810x8650": 6362,
    "\u2581client": 6363,
    "\u2581redraw": 6364,
    "\u2581savedc": 6365,
    "dosdevice": 6366,
    "\u25810x40a674": 6367,
    "\u25810x40e558": 6368,
    "\u25810x43a438": 6369,
    "\u25810x44e8e0": 6370,
    "\u25810x450aa8": 6371,
    "\u25810x496760": 6372,
    "\u25810x4ddc24": 6373,
    "\u25810x4de648": 6374,
    "\u2581appmodel": 6375,
    "acquirecon": 6376,
    "\u25810x1211884": 6377,
    "\u25810x1211a3f": 6378,
    "\u25810x1211e78": 6379,
    "\u2581restoredc": 6380,
    "\u25810xfeee012f": 6381,
    "\u2581getkeystate": 6382,
    "\u2581getatomnamea": 6383,
    "\u2581redrawwindow": 6384,
    "\u2581peeknamedpipe": 6385,
    "\u2581getwindowlongw": 6386,
    "\u2581cryptacquirecon": 6387,
    "\u2581removefilespecw": 6388,
    "\u2581getstringtypeexa": 6389,
    "8b33f4573e3ae73202d57b73d1cccf16276b474d387997c9fad": 6390,
    "18c": 6391,
    "1cc": 6392,
    "386": 6393,
    "5dc": 6394,
    "718": 6395,
    "d60": 6396,
    "e38": 6397,
    "f3e": 6398,
    "f68": 6399,
    "3c64": 6400,
    "a5bc": 6401,
    "a6cc": 6402,
    "f331": 6403,
    "dater": 6404,
    "menua": 6405,
    "quire": 6406,
    "\u25810x120a": 6407,
    "\u25810x4050": 6408,
    "\u25810x4111": 6409,
    "\u25810x4230": 6410,
    "\u25810x4550": 6411,
    "\u25810x4590": 6412,
    "\u25810x4860": 6413,
    "\u25810x4c32": 6414,
    "\u25810x8660": 6415,
    "\u25810x8820": 6416,
    "\u25810x8a4c": 6417,
    "\u25810xff92": 6418,
    "registry": 6419,
    "\u25810x403000": 6420,
    "\u25810x42a400": 6421,
    "\u25810x450000": 6422,
    "\u25810x45d340": 6423,
    "\u25810x58db80": 6424,
    "\u2581getfocus": 6425,
    "\u25810x1211938": 6426,
    "\u25810x1211dc4": 6427,
    "\u2581findatoma": 6428,
    "\u25810x5f900000": 6429,
    "\u25810xfeee0130": 6430,
    "\u2581createdibitmap": 6431,
    "\u2581createfontindirecta": 6432,
    "\u2581getwindowtextlengtha": 6433,
    "\u2581getprivateprofilestringw": 6434,
    "ml": 6435,
    "30c": 6436,
    "534": 6437,
    "53e": 6438,
    "7e8": 6439,
    "fff": 6440,
    "lib": 6441,
    "\u2581ff": 6442,
    "\u2581ti": 6443,
    "1374": 6444,
    "9a36": 6445,
    "star": 6446,
    "thon": 6447,
    "\u2581env": 6448,
    "bb9f8": 6449,
    "\u2581aaai": 6450,
    "18f331": 6451,
    "1c9504": 6452,
    "26ed24": 6453,
    "3c645b": 6454,
    "eexist": 6455,
    "ourcec": 6456,
    "\u25810x11c": 6457,
    "\u25810x13e": 6458,
    "\u25810x18e": 6459,
    "\u25810x239": 6460,
    "\u25810x4d3": 6461,
    "\u25810x4ed": 6462,
    "\u25810x568": 6463,
    "\u25810x576": 6464,
    "\u2581bb000": 6465,
    "9a36a5e": 6466,
    "oclient": 6467,
    "soletit": 6468,
    "\u25810x4174": 6469,
    "\u25810x43ef": 6470,
    "\u25810x44da": 6471,
    "\u25810x8a70": 6472,
    "\u25810x8c60": 6473,
    "\u25810x9930": 6474,
    "13741a1c": 6475,
    "60aa31d9": 6476,
    "\u25810x13000": 6477,
    "\u2581monitor": 6478,
    "\u2581screent": 6479,
    "18f3315c3": 6480,
    "procedure": 6481,
    "quiredres": 6482,
    "3c645bf550": 6483,
    "\u25810x1211ba4": 6484,
    "\u25810x1211ea8": 6485,
    "\u25810x1211eec": 6486,
    "\u25810x1211f08": 6487,
    "\u25810xc000000": 6488,
    "\u2581fileexist": 6489,
    "\u2581getfileex": 6490,
    "\u2581rectangle": 6491,
    "\u2581setsystem": 6492,
    "ourcecannot": 6493,
    "\u25810xfeee0142": 6494,
    "\u25810xfeee0143": 6495,
    "13741a1cbb9f8": 6496,
    "26ed249a36a5e": 6497,
    "\u2581arequiredres": 6498,
    "\u2581bb00018f3315c3": 6499,
    "\u2581insertmenuitem": 6500,
    "\u2581screentoclient": 6501,
    "\u2581setwindoworgex": 6502,
    "\u2581getlogicaldrives": 6503,
    "3c645bf55060aa31d9": 6504,
    "1c950413741a1cbb9f8": 6505,
    "ourcecannotbelocated": 6506,
    "\u2581setforegroundwindow": 6507,
    "3c645bf55060aa31d926ed249a36a5e": 6508,
    "\u2581arequiredresourcecannotbelocated": 6509,
    "\u2581bb00018f3315c33c645bf55060aa31d926ed249a36a5e": 6510,
    "d0a1aac516ab0940ba846bb209cc7123ea66397feac0e7f417346d": 6511,
    "3bd88b33f4573e3ae73202d57b73d1cccf16276b474d387997c9fad": 6512,
    "5c80b1ee4b7a5419094c49a237e8c1f6f27bffa038803566fa6d63d": 6513,
    "250": 6514,
    "32c": 6515,
    "764": 6516,
    "880": 6517,
    "a3c": 6518,
    "a6c": 6519,
    "aae": 6520,
    "dd0": 6521,
    "ext": 6522,
    "f1e": 6523,
    "fdc": 6524,
    "\u2581sp": 6525,
    "a5d0": 6526,
    "cher": 6527,
    "owno": 6528,
    "\u2581msg": 6529,
    "aller": 6530,
    "queue": 6531,
    "\u2581inet": 6532,
    "showno": 6533,
    "\u25810x1f0": 6534,
    "\u25810x41ab": 6535,
    "\u25810x41ec": 6536,
    "\u25810x4236": 6537,
    "\u25810x4280": 6538,
    "\u25810x43e6": 6539,
    "\u25810x45d0": 6540,
    "\u2581myarg1": 6541,
    "\u25810x20009": 6542,
    "\u25810x43570": 6543,
    "\u25810x53000": 6544,
    "\u2581command": 6545,
    "\u25810x181bc0": 6546,
    "\u25810x4175f4": 6547,
    "\u25810x41f6c0": 6548,
    "\u25810x41f750": 6549,
    "\u25810x41f780": 6550,
    "\u25810x4370c8": 6551,
    "\u25810x5ab940": 6552,
    "releasecon": 6553,
    "shownolock": 6554,
    "\u25810xfeee0131": 6555,
    "\u25810xfeee0140": 6556,
    "\u2581createicon": 6557,
    "\u2581enumdispla": 6558,
    "\u2581createdialog": 6559,
    "\u2581createmutexw": 6560,
    "\u2581setvieworgex": 6561,
    "releasecontext": 6562,
    "\u2581dragshownolock": 6563,
    "\u2581getwindowlonga": 6564,
    "\u2581regqueryvaluea": 6565,
    "124": 6566,
    "409": 6567,
    "600": 6568,
    "9b8": 6569,
    "ae8": 6570,
    "d68": 6571,
    "d90": 6572,
    "f21": 6573,
    "f38": 6574,
    "f6c": 6575,
    "ttp": 6576,
    "3228": 6577,
    "3a24": 6578,
    "\u2581beep": 6579,
    "fromid": 6580,
    "scroll": 6581,
    "\u25810x4d5": 6582,
    "\u25810x620": 6583,
    "\u25810x1824": 6584,
    "\u25810x2002": 6585,
    "\u25810x4180": 6586,
    "\u25810x4234": 6587,
    "\u25810x4310": 6588,
    "\u25810x43a3": 6589,
    "\u25810x452c": 6590,
    "\u25810x4d40": 6591,
    "\u25810x4dc8": 6592,
    "\u25810x779a": 6593,
    "\u25810x7c16": 6594,
    "\u25810x8e30": 6595,
    "\u25810x8fc0": 6596,
    "\u25810xfff1": 6597,
    "\u2581bcrypt": 6598,
    "\u2581strrchr": 6599,
    "scrollbar": 6600,
    "\u25810x17a6cc": 6601,
    "\u25810x401f20": 6602,
    "\u25810x42901a": 6603,
    "\u25810x42a000": 6604,
    "\u25810x42e360": 6605,
    "\u25810x437800": 6606,
    "\u25810x455120": 6607,
    "\u25810x471cb0": 6608,
    "\u25810x7ee001": 6609,
    "\u25810x7ee002": 6610,
    "\u25810x7ee003": 6611,
    "\u25810x7ee004": 6612,
    "\u25810x7ee005": 6613,
    "\u25810x7ee006": 6614,
    "\u25810x7ee007": 6615,
    "\u25810x7ee008": 6616,
    "\u25810x7ee009": 6617,
    "\u25810x7ee00a": 6618,
    "\u25810x7ee00b": 6619,
    "\u25810x7ee00c": 6620,
    "\u25810x7ee00d": 6621,
    "\u25810x7ee00e": 6622,
    "\u25810x7ee00f": 6623,
    "\u25810x7ee010": 6624,
    "\u25810x7ee011": 6625,
    "\u25810x7ee012": 6626,
    "\u25810x7ee013": 6627,
    "\u25810x7ee014": 6628,
    "\u25810x7ee015": 6629,
    "\u25810x7ee016": 6630,
    "\u25810x7ee017": 6631,
    "\u25810x7ee018": 6632,
    "\u25810x7ee019": 6633,
    "fromidlist": 6634,
    "\u25810x120cbdc": 6635,
    "\u25810x1210ebc": 6636,
    "\u25810x1210ecc": 6637,
    "\u2581borland32": 6638,
    "\u25810xfeee0132": 6639,
    "\u25810xfeee0133": 6640,
    "\u25810xfeee0134": 6641,
    "\u25810xfeee0135": 6642,
    "\u25810xfeee0136": 6643,
    "\u25810xfeee0137": 6644,
    "\u25810xfeee0138": 6645,
    "\u25810xfeee0139": 6646,
    "\u25810xfeee013a": 6647,
    "\u25810xfeee013b": 6648,
    "\u25810xfeee013c": 6649,
    "\u25810xfeee0156": 6650,
    "\u2581regconnect": 6651,
    "\u2581setconsole": 6652,
    "\u2581loadbitmapa": 6653,
    "\u2581openservice": 6654,
    "\u2581rectvisible": 6655,
    "\u2581sendmessagew": 6656,
    "\u2581openfilemapping": 6657,
    "\u2581process32firstw": 6658,
    "\u2581shgetfromidlist": 6659,
    "\u2581regconnectregistry": 6660,
    "\u2581setsecuritydescriptordacl": 6661,
    "d50217407f76f7b6550a171e06a0dcbac23a20eee2c332d978de23": 6662,
    "528": 6663,
    "690": 6664,
    "7a8": 6665,
    "9f4": 6666,
    "a20": 6667,
    "b5c": 6668,
    "per": 6669,
    "uth": 6670,
    "\u258110": 6671,
    "enuhi": 6672,
    "incor": 6673,
    "power": 6674,
    "\u2581ptin": 6675,
    "iconic": 6676,
    "\u25810x528": 6677,
    "\u25810x536": 6678,
    "\u25810xdfc": 6679,
    "\u25810x15e1": 6680,
    "\u25810x33ea": 6681,
    "\u25810x390a": 6682,
    "\u25810x3b5a": 6683,
    "\u25810x409e": 6684,
    "\u25810x41ac": 6685,
    "\u25810x4940": 6686,
    "\u25810x5317": 6687,
    "\u25810x88e0": 6688,
    "\u25810x8d80": 6689,
    "\u25810x9910": 6690,
    "\u25810xa020": 6691,
    "\u2581menuhi": 6692,
    "\u2581unhook": 6693,
    "\u25810x120ff": 6694,
    "\u2581setrect": 6695,
    "\u25810x405004": 6696,
    "\u25810x435024": 6697,
    "\u25810x44ef08": 6698,
    "\u25810x461530": 6699,
    "\u2581createen": 6700,
    "\u2581isiconic": 6701,
    "\u25810x12119dc": 6702,
    "\u25810x1211d5b": 6703,
    "\u25810xfeee013d": 6704,
    "\u25810xfeee013e": 6705,
    "\u25810xfeee013f": 6706,
    "\u25810xfeee0144": 6707,
    "\u25810xfeee0147": 6708,
    "dateresource": 6709,
    "\u2581movefileexa": 6710,
    "windowshookex": 6711,
    "keyboardlayout": 6712,
    "\u2581getclassnamea": 6713,
    "\u2581getimagecount": 6714,
    "\u2581regenumvaluew": 6715,
    "\u2581setwindowlongw": 6716,
    "\u2581registerclassexw": 6717,
    "\u2581getprocessversion": 6718,
    "\u2581unhookwindowshookex": 6719,
    "\u2581getsystemdefaultlcid": 6720,
    "122": 6721,
    "125": 6722,
    "2e8": 6723,
    "2f8": 6724,
    "5d6": 6725,
    "6b0": 6726,
    "bcf": 6727,
    "cat": 6728,
    "da8": 6729,
    "ea6": 6730,
    "fa1": 6731,
    "fa4": 6732,
    "fe6": 6733,
    "\u2581lz": 6734,
    "3da0": 6735,
    "6528": 6736,
    "b7c8": 6737,
    "c37c": 6738,
    "tify": 6739,
    "\u25814d5": 6740,
    "25712": 6741,
    "bd000": 6742,
    "\u2581data": 6743,
    "\u2581winc": 6744,
    "\u25810x230": 6745,
    "\u25810x298": 6746,
    "\u25810x355": 6747,
    "\u25810x366": 6748,
    "\u25810x4fe": 6749,
    "\u25810x5ff": 6750,
    "\u25810xae2": 6751,
    "\u25810xd38": 6752,
    "\u2581drayn": 6753,
    "\u2581mfc42": 6754,
    "fileexw": 6755,
    "station": 6756,
    "\u25810x1814": 6757,
    "\u25810x4112": 6758,
    "\u25810x441a": 6759,
    "\u25810x45a1": 6760,
    "\u25810x4868": 6761,
    "\u25810x5548": 6762,
    "\u25810x5670": 6763,
    "\u25810x61fe": 6764,
    "\u25810x8028": 6765,
    "toscreen": 6766,
    "\u25810x120eb": 6767,
    "\u25810x4067c": 6768,
    "\u2581appdata": 6769,
    "\u25810x40851b": 6770,
    "\u25810x40851c": 6771,
    "\u25810x40de88": 6772,
    "\u25810x435026": 6773,
    "\u25810x435032": 6774,
    "\u25810x44c0b8": 6775,
    "\u25810x4e39cc": 6776,
    "\u25810x4e39e4": 6777,
    "\u25810x50db10": 6778,
    "\u25810x1211254": 6779,
    "\u25810x12116ec": 6780,
    "\u25810x12119f4": 6781,
    "\u25810x1211df8": 6782,
    "\u25810x169bf4c": 6783,
    "\u25810xfeee0145": 6784,
    "\u25810xfeee0146": 6785,
    "\u25810xfeee0148": 6786,
    "\u25810xfeee0149": 6787,
    "\u2581winclass32": 6788,
    "initializeex": 6789,
    "\u2581findresourc": 6790,
    "\u2581menuhistroy": 6791,
    "\u2581safearrayget": 6792,
    "\u2581clienttoscreen": 6793,
    "\u2581coinitializeex": 6794,
    "\u2581getfileattributesexw": 6795,
    "\u2581registerclipboardformatw": 6796,
    "257121889f07447dee2eeb9b9c4f7cf99faebb53570bde23564f2920": 6797,
    "372d0a1aac516ab0940ba846bb209cc7123ea66397feac0e7f417346d": 6798,
    "ws": 6799,
    "1a5": 6800,
    "1a6": 6801,
    "1f8": 6802,
    "2c4": 6803,
    "37a": 6804,
    "37c": 6805,
    "444": 6806,
    "630": 6807,
    "93c": 6808,
    "978": 6809,
    "aba": 6810,
    "ave": 6811,
    "b52": 6812,
    "d14": 6813,
    "d70": 6814,
    "eb8": 6815,
    "lnd": 6816,
    "the": 6817,
    "ablea": 6818,
    "lndmm": 6819,
    "\u2581this": 6820,
    "\u25810x2bb": 6821,
    "\u25810x2fa": 6822,
    "\u25810x41b": 6823,
    "\u25810x4ff": 6824,
    "\u25810x506": 6825,
    "\u25810x71b": 6826,
    "\u2581remov": 6827,
    "monitor": 6828,
    "\u25810x4070": 6829,
    "\u25810x4110": 6830,
    "\u25810x418e": 6831,
    "\u25810x4232": 6832,
    "\u25810x423b": 6833,
    "\u25810x4738": 6834,
    "\u25810x8ba0": 6835,
    "\u2581string": 6836,
    "\u25810x50e80": 6837,
    "\u2581setmenu": 6838,
    "secapture": 6839,
    "\u25810x420b60": 6840,
    "\u25810x44c9c8": 6841,
    "\u25810x44ca08": 6842,
    "\u25810x4533f0": 6843,
    "\u25810x460cdc": 6844,
    "\u2581borlndmm": 6845,
    "\u25810x1210e30": 6846,
    "\u25810x1210f70": 6847,
    "\u25810x1211a08": 6848,
    "\u25810x1211a68": 6849,
    "\u25810x1211e84": 6850,
    "\u25810x1211e94": 6851,
    "\u25810x1211fa4": 6852,
    "\u25810x100fdb58": 6853,
    "\u25810xfeee014a": 6854,
    "\u25810xfeee014b": 6855,
    "\u25810xfeee014c": 6856,
    "\u25810xfeee0155": 6857,
    "\u2581deletemenu": 6858,
    "\u2581getshortnamea": 6859,
    "\u2581releasecapture": 6860,
    "\u2581regqueryinfokeya": 6861,
    "\u2581getprofilestringa": 6862,
    "\u2581createfilemappingw": 6863,
    "1e6": 6864,
    "20c": 6865,
    "314": 6866,
    "71f": 6867,
    "958": 6868,
    "974": 6869,
    "adi": 6870,
    "b5b": 6871,
    "d05": 6872,
    "d58": 6873,
    "d6c": 6874,
    "e10": 6875,
    "ico": 6876,
    "\u258190": 6877,
    "\u2581db": 6878,
    "skrnl": 6879,
    "thash": 6880,
    "tific": 6881,
    "\u258112e9": 6882,
    "\u25814142": 6883,
    "\u258141de": 6884,
    "\u258192ec": 6885,
    "\u2581aca7": 6886,
    "lassob": 6887,
    "native": 6888,
    "paramw": 6889,
    "\u25810x310": 6890,
    "\u25810x44f": 6891,
    "\u25810x465": 6892,
    "\u25810x5aa": 6893,
    "\u25810x601": 6894,
    "\u25810x684": 6895,
    "\u25810x824": 6896,
    "\u25810x2804": 6897,
    "\u25810x40e1": 6898,
    "\u25810x416b": 6899,
    "\u25810x41f4": 6900,
    "\u25810x4219": 6901,
    "\u25810x42e4": 6902,
    "\u25810x43a8": 6903,
    "\u25810x4978": 6904,
    "\u25810x5b98": 6905,
    "\u25810x79b0": 6906,
    "\u25810x8c70": 6907,
    "\u25810xd000": 6908,
    "\u2581getsid": 6909,
    "00000004": 6910,
    "a5bcc37c": 6911,
    "ffff0000": 6912,
    "\u25810x422a0": 6913,
    "\u25810x4cf00": 6914,
    "\u2581realize": 6915,
    "\u25810x403008": 6916,
    "\u25810x4540b0": 6917,
    "\u25810x45d560": 6918,
    "\u2581aca73a24": 6919,
    "\u2581lockfile": 6920,
    "\u2581ntoskrnl": 6921,
    "\u25810x1211b88": 6922,
    "\u2581getnative": 6923,
    "\u25810xfeee019d": 6924,
    "\u2581unlockfile": 6925,
    "\u258141dea5bcc37c": 6926,
    "\u2581cryptdestroy": 6927,
    "\u2581getscrollinfo": 6928,
    "\u2581selectpalette": 6929,
    "\u2581setscrollinfo": 6930,
    "\u2581realizepalette": 6931,
    "\u2581getnativesystem": 6932,
    "\u2581menuhistroyname": 6933,
    "\u2581getdiskfreespacew": 6934,
    "bd3bd88b33f4573e3ae73202d57b73d1cccf16276b474d387997c9fad": 6935,
    "7865c80b1ee4b7a5419094c49a237e8c1f6f27bffa038803566fa6d63d": 6936,
    "ed257121889f07447dee2eeb9b9c4f7cf99faebb53570bde23564f2920": 6937,
    "fs": 6938,
    "ft": 6939,
    "1b4": 6940,
    "378": 6941,
    "3d4": 6942,
    "3f2": 6943,
    "598": 6944,
    "7b8": 6945,
    "a98": 6946,
    "b38": 6947,
    "b7c": 6948,
    "clu": 6949,
    "d22": 6950,
    "f57": 6951,
    "oci": 6952,
    "roup": 6953,
    "\u2581new": 6954,
    "emotet": 6955,
    "points": 6956,
    "\u25810x150": 6957,
    "\u25810x1fe": 6958,
    "\u25810x4a6": 6959,
    "\u25810x518": 6960,
    "\u25810x579": 6961,
    "\u2581exclu": 6962,
    "\u2581shell": 6963,
    "\u25810x4011": 6964,
    "\u25810x412b": 6965,
    "\u25810x4190": 6966,
    "\u25810x420c": 6967,
    "\u25810x4330": 6968,
    "\u25810x8bd0": 6969,
    "\u2581strcat": 6970,
    "\u2581wcslen": 6971,
    "\u25810x169bb": 6972,
    "\u2581isctype": 6973,
    "filenamew": 6974,
    "\u25810x40300c": 6975,
    "\u25810x4088fe": 6976,
    "\u25810x412468": 6977,
    "\u25810x4150e0": 6978,
    "\u25810x43e6d0": 6979,
    "\u25810x43e708": 6980,
    "\u25810x43e740": 6981,
    "\u25810x460d28": 6982,
    "\u25810x461054": 6983,
    "\u25810x461080": 6984,
    "\u25810x4614a0": 6985,
    "\u25810x4614b8": 6986,
    "\u25810x4614e8": 6987,
    "\u25810x461560": 6988,
    "\u25810x461578": 6989,
    "\u25810x461590": 6990,
    "\u25810x4615a8": 6991,
    "\u25810x4615c0": 6992,
    "\u25810x1211a3c": 6993,
    "\u25810x1211f38": 6994,
    "\u2581globalget": 6995,
    "\u2581mapwindow": 6996,
    "emotethread": 6997,
    "\u25810xfeee014d": 6998,
    "\u25810xfeee014e": 6999,
    "\u25810xfeee014f": 7000,
    "\u25810xfeee0150": 7001,
    "\u25810xfeee0154": 7002,
    "\u2581setcapture": 7003,
    "\u2581sysrealloc": 7004,
    "\u2581sfxstring39": 7005,
    "windowstation": 7006,
    "\u2581regenumvaluea": 7007,
    "\u2581querydosdevice": 7008,
    "\u2581createpopupmenu": 7009,
    "\u2581mapwindowpoints": 7010,
    "\u2581createremotethread": 7011,
    "\u2581sysreallocstringlen": 7012,
    "uf": 7013,
    "149": 7014,
    "2f0": 7015,
    "345": 7016,
    "373": 7017,
    "3f7": 7018,
    "696": 7019,
    "990": 7020,
    "9d0": 7021,
    "9e4": 7022,
    "a24": 7023,
    "bb0": 7024,
    "d2c": 7025,
    "e0c": 7026,
    "def0": 7027,
    "lsid": 7028,
    "nrun": 7029,
    "task": 7030,
    "child": 7031,
    "\u2581aaab": 7032,
    "\u2581aaas": 7033,
    "hookex": 7034,
    "tempty": 7035,
    "\u25810x10f": 7036,
    "\u25810x4cb": 7037,
    "\u25810x771": 7038,
    "codeptr": 7039,
    "taskmem": 7040,
    "\u25810x436c": 7041,
    "\u25810x44d3": 7042,
    "\u25810x89c0": 7043,
    "\u25810x8aa0": 7044,
    "\u25810x9940": 7045,
    "\u25810xa010": 7046,
    "\u25810x5c000": 7047,
    "\u2581getlong": 7048,
    "\u2581zipnrun": 7049,
    "rectempty": 7050,
    "thashdata": 7051,
    "\u25810x3f2074": 7052,
    "\u25810x3f20b4": 7053,
    "\u25810x407629": 7054,
    "\u25810x40762a": 7055,
    "\u25810x40762b": 7056,
    "\u25810x40762c": 7057,
    "\u25810x40762d": 7058,
    "\u25810x40762e": 7059,
    "\u25810x40762f": 7060,
    "\u25810x4088f6": 7061,
    "\u25810x4088f8": 7062,
    "\u25810x4088fa": 7063,
    "\u25810x4088fc": 7064,
    "\u25810x408900": 7065,
    "\u25810x408902": 7066,
    "\u25810x409335": 7067,
    "\u25810x409336": 7068,
    "\u25810x409337": 7069,
    "\u25810x409338": 7070,
    "\u25810x409339": 7071,
    "\u25810x40933a": 7072,
    "\u25810x40933b": 7073,
    "\u25810x4093e0": 7074,
    "\u25810x4093ed": 7075,
    "\u25810x4093ee": 7076,
    "\u25810x4093ef": 7077,
    "\u25810x409430": 7078,
    "\u25810x409438": 7079,
    "\u25810x40957c": 7080,
    "\u25810x40958c": 7081,
    "\u25810x40a3f8": 7082,
    "\u25810x40a92c": 7083,
    "\u25810x40a93c": 7084,
    "\u25810x40b3de": 7085,
    "\u25810x40b3e6": 7086,
    "\u25810x40f6a8": 7087,
    "\u25810x415ea0": 7088,
    "\u25810x422f20": 7089,
    "\u25810x44d418": 7090,
    "\u25810x45c348": 7091,
    "\u25810x4634e8": 7092,
    "\u2581callnext": 7093,
    "\u2581verquery": 7094,
    "createhash": 7095,
    "freememory": 7096,
    "\u25810x1211768": 7097,
    "\u25810x12119bc": 7098,
    "\u25810x1211a30": 7099,
    "\u2581cotaskmem": 7100,
    "\u25810x10021ff0": 7101,
    "\u25810x10022020": 7102,
    "\u25810xfeee0151": 7103,
    "\u25810xfeee0152": 7104,
    "\u2581getcapture": 7105,
    "\u2581oemtochara": 7106,
    "\u2581isbadcodeptr": 7107,
    "\u2581callnexthookex": 7108,
    "queryinformation": 7109,
    "\u2581getuserdefaultlangid": 7110,
    "779d50217407f76f7b6550a171e06a0dcbac23a20eee2c332d978de23": 7111,
    "66372d0a1aac516ab0940ba846bb209cc7123ea66397feac0e7f417346d": 7112,
    "580": 7113,
    "5ec": 7114,
    "6a8": 7115,
    "722": 7116,
    "778": 7117,
    "a90": 7118,
    "d07": 7119,
    "d5c": 7120,
    "db4": 7121,
    "dup": 7122,
    "e24": 7123,
    "ows": 7124,
    "\u258142": 7125,
    "poly": 7126,
    "\u2581ldr": 7127,
    "\u2581pat": 7128,
    "recte": 7129,
    "tooem": 7130,
    "utdown": 7131,
    "\u25810x103": 7132,
    "\u25810x128": 7133,
    "\u25810x284": 7134,
    "declipr": 7135,
    "enabled": 7136,
    "\u25810x40e8": 7137,
    "\u25810x43aa": 7138,
    "\u25810x43be": 7139,
    "\u25810x4810": 7140,
    "\u25810x4f98": 7141,
    "\u25810x7530": 7142,
    "\u25810x7dc4": 7143,
    "\u25810x8f80": 7144,
    "\u2581patblt": 7145,
    "\u2581scroll": 7146,
    "ataddress": 7147,
    "ofaddress": 7148,
    "\u25810x3f4000": 7149,
    "\u25810x403004": 7150,
    "\u25810x4289c0": 7151,
    "\u2581createdc": 7152,
    "\u2581cryptget": 7153,
    "decliprect": 7154,
    "\u25810x1210f50": 7155,
    "\u25810x1210f54": 7156,
    "\u25810x121191c": 7157,
    "\u25810x1211c48": 7158,
    "\u25810x1211fb4": 7159,
    "\u2581chartooem": 7160,
    "\u2581openmutex": 7161,
    "\u25810xfeee0157": 7162,
    "\u2581defwindowprocw": 7163,
    "\u2581enablemenuitem": 7164,
    "\u2581gettimeformatw": 7165,
    "\u2581excludecliprect": 7166,
    "\u2581iswindowenabled": 7167,
    "\u2581createfontindirectw": 7168,
    "\u2581cryptreleasecontext": 7169,
    "ir": 7170,
    "od": 7171,
    "115": 7172,
    "170": 7173,
    "238": 7174,
    "270": 7175,
    "3f0": 7176,
    "710": 7177,
    "a58": 7178,
    "af8": 7179,
    "bin": 7180,
    "d80": 7181,
    "d98": 7182,
    "dfb": 7183,
    "hal": 7184,
    "volum": 7185,
    "\u2581sha1": 7186,
    "d2dres": 7187,
    "letion": 7188,
    "llipse": 7189,
    "ources": 7190,
    "\u25810x205": 7191,
    "ownload": 7192,
    "undrect": 7193,
    "\u25810x17a8": 7194,
    "\u25810x4033": 7195,
    "\u25810x422e": 7196,
    "\u25810x44fd": 7197,
    "\u25810x4574": 7198,
    "\u25810x4815": 7199,
    "\u25810x52a5": 7200,
    "\u25810x6025": 7201,
    "\u2581draw2d": 7202,
    "\u2581drawex": 7203,
    "\u25810x120de": 7204,
    "\u25810x47c00": 7205,
    "\u25810x48800": 7206,
    "\u25810x52000": 7207,
    "\u2581setrop2": 7208,
    "\u25810x4295b4": 7209,
    "\u25810x441806": 7210,
    "\u25810x441808": 7211,
    "\u25810x44180a": 7212,
    "\u25810x44180c": 7213,
    "\u25810x44180e": 7214,
    "\u25810x441810": 7215,
    "\u25810x441812": 7216,
    "\u25810x441814": 7217,
    "\u25810x441816": 7218,
    "\u25810x441818": 7219,
    "\u25810x44181a": 7220,
    "\u25810x44181c": 7221,
    "\u25810x44181e": 7222,
    "\u25810x486788": 7223,
    "\u2581recreate": 7224,
    "getversion": 7225,
    "\u25810x1210f60": 7226,
    "\u2581roundrect": 7227,
    "\u2581setactive": 7228,
    "\u25810x10005c64": 7229,
    "\u25810x10009380": 7230,
    "\u2581getmonitor": 7231,
    "d2dresources": 7232,
    "\u2581getwindowdc": 7233,
    "\u2581getshortnamew": 7234,
    "\u2581getwindoworgex": 7235,
    "\u2581setactivewindow": 7236,
    "\u2581globalgetatomnamea": 7237,
    "\u2581recreated2dresources": 7238,
    "\u2581getlogicaldrivestringsa": 7239,
    "\u2581accessviolationataddress": 7240,
    "\u2581writeprivateprofilestringw": 7241,
    "19bd3bd88b33f4573e3ae73202d57b73d1cccf16276b474d387997c9fad": 7242,
    "ni": 7243,
    "126": 7244,
    "169": 7245,
    "178": 7246,
    "1b8": 7247,
    "202": 7248,
    "244": 7249,
    "526": 7250,
    "91c": 7251,
    "9a8": 7252,
    "9f8": 7253,
    "a7c": 7254,
    "aec": 7255,
    "b6c": 7256,
    "bbe": 7257,
    "e02": 7258,
    "f64": 7259,
    "1884": 7260,
    "dea6": 7261,
    "icows": 7262,
    "namet": 7263,
    "proca": 7264,
    "ssoci": 7265,
    "\u2581stea": 7266,
    "\u25810x173": 7267,
    "\u25810x244": 7268,
    "\u25810x3e8": 7269,
    "\u25810x535": 7270,
    "\u25810x120e": 7271,
    "\u25810x4069": 7272,
    "\u25810x4146": 7273,
    "\u25810x4478": 7274,
    "\u25810x457c": 7275,
    "\u25810x4a5f": 7276,
    "\u25810x56ce": 7277,
    "\u25810x80a0": 7278,
    "\u25810x82d0": 7279,
    "\u25810x89d0": 7280,
    "\u25810x8b10": 7281,
    "\u25810x8c90": 7282,
    "\u25810x8ef0": 7283,
    "\u25810x9850": 7284,
    "\u25810x43740": 7285,
    "\u2581getopen": 7286,
    "\u2581unicows": 7287,
    "\u25810x422740": 7288,
    "\u25810x4445a4": 7289,
    "\u2581ungltige": 7290,
    "\u2581enumwindows": 7291,
    "\u2581globalflags": 7292,
    "\u2581getclassnamew": 7293,
    "\u2581charupperbuffa": 7294,
    "\u2581insertmenuitema": 7295,
    "\u2581ntquerysysteminformation": 7296,
    "3c6": 7297,
    "620": 7298,
    "934": 7299,
    "9d8": 7300,
    "bce": 7301,
    "be8": 7302,
    "e5c": 7303,
    "ed0": 7304,
    "f96": 7305,
    "tiv": 7306,
    "uld": 7307,
    "uni": 7308,
    "\u2581mb": 7309,
    "\u2581ta": 7310,
    "\u2581ur": 7311,
    "fram": 7312,
    "inet": 7313,
    "clear": 7314,
    "digit": 7315,
    "notin": 7316,
    "solea": 7317,
    "userw": 7318,
    "ectsex": 7319,
    "ubmenu": 7320,
    "uldnot": 7321,
    "\u25810x3f8": 7322,
    "\u2581htons": 7323,
    "\u2581winmm": 7324,
    "\u25810x4021": 7325,
    "\u25810x443f": 7326,
    "\u25810x7920": 7327,
    "\u25810x7bf8": 7328,
    "\u25810x82e8": 7329,
    "\u25810x82f6": 7330,
    "\u25810x8c30": 7331,
    "\u25810x97c0": 7332,
    "\u25810x9980": 7333,
    "\u25810x44040": 7334,
    "\u25810x59e40": 7335,
    "\u2581getsave": 7336,
    "ustwindow": 7337,
    "\u25810x402526": 7338,
    "\u25810x414af4": 7339,
    "\u25810x4df004": 7340,
    "\u25810x4df020": 7341,
    "\u25810x61feb8": 7342,
    "\u25810x1211480": 7343,
    "\u25810x1211850": 7344,
    "\u25810x1211b60": 7345,
    "\u25810x1211d1c": 7346,
    "\u25810x1211f68": 7347,
    "\u25810x5265c3c": 7348,
    "\u25810xfeee0158": 7349,
    "\u25810xfeee0159": 7350,
    "\u25810xfeee015a": 7351,
    "\u25810xfffffffe": 7352,
    "\u2581getsubmenu": 7353,
    "\u2581movewindow": 7354,
    "\u2581selectcliprgn": 7355,
    "\u2581windowfrompoint": 7356,
    "\u2581regqueryinfokeyw": 7357,
    "\u2581getnativesysteminfo": 7358,
    "907865c80b1ee4b7a5419094c49a237e8c1f6f27bffa038803566fa6d63d": 7359,
    "3766372d0a1aac516ab0940ba846bb209cc7123ea66397feac0e7f417346d": 7360,
    "3e6ed257121889f07447dee2eeb9b9c4f7cf99faebb53570bde23564f2920": 7361,
    "2a8": 7362,
    "7ad": 7363,
    "998": 7364,
    "a40": 7365,
    "a68": 7366,
    "aa1": 7367,
    "bb2": 7368,
    "bbf": 7369,
    "c04": 7370,
    "db2": 7371,
    "ee6": 7372,
    "ify": 7373,
    "ecut": 7374,
    "activ": 7375,
    "datom": 7376,
    "ramer": 7377,
    "\u2581time": 7378,
    "rectex": 7379,
    "\u25810x124": 7380,
    "\u25810x16c": 7381,
    "\u25810x43d": 7382,
    "\u2581abort": 7383,
    "ervicew": 7384,
    "prepare": 7385,
    "\u25810x28f9": 7386,
    "\u25810x4042": 7387,
    "\u25810x42d4": 7388,
    "\u25810x43a7": 7389,
    "\u25810x4850": 7390,
    "\u25810x4930": 7391,
    "\u25810x7ce1": 7392,
    "\u25810x7dc5": 7393,
    "\u25810x8850": 7394,
    "\u25810x8e40": 7395,
    "\u25810x8e70": 7396,
    "\u25810x9920": 7397,
    "\u2581framer": 7398,
    "\u2581wtsget": 7399,
    "localesw": 7400,
    "uthority": 7401,
    "\u25810x350b8": 7402,
    "\u2581ischild": 7403,
    "\u2581seticon": 7404,
    "\u25810x100012": 7405,
    "\u25810x407bba": 7406,
    "\u25810x4d35c8": 7407,
    "\u25810x5a64b8": 7408,
    "\u25810x76b590": 7409,
    "\u25810x76feb0": 7410,
    "\u25810x1211b84": 7411,
    "\u25810x1211c00": 7412,
    "\u25810x1211c60": 7413,
    "\u25810x8000000": 7414,
    "\u2581offsetrect": 7415,
    "\u2581wtsgetactiv": 7416,
    "prepareheader": 7417,
    "ustwindowrectex": 7418,
    "econsolesessionid": 7419,
    "\u2581unregisterclassa": 7420,
    "\u2581getfileversioninfoa": 7421,
    "\u2581gettextextentpoint32a": 7422,
    "\u2581wtsgetactiveconsolesessionid": 7423,
    "zo": 7424,
    "138": 7425,
    "1d0": 7426,
    "37e": 7427,
    "3cf": 7428,
    "544": 7429,
    "54c": 7430,
    "7d8": 7431,
    "a14": 7432,
    "a1c": 7433,
    "a6b": 7434,
    "a70": 7435,
    "ad6": 7436,
    "dio": 7437,
    "e7c": 7438,
    "e8c": 7439,
    "f10": 7440,
    "f34": 7441,
    "f75": 7442,
    "flo": 7443,
    "\u2581cnt": 7444,
    "atedi": 7445,
    "\u2581clsid": 7446,
    "\u2581initi": 7447,
    "\u2581space": 7448,
    "account": 7449,
    "agimage": 7450,
    "econfig": 7451,
    "folderw": 7452,
    "tassoci": 7453,
    "\u25810x4252": 7454,
    "\u25810x4366": 7455,
    "\u25810x4494": 7456,
    "\u25810x455c": 7457,
    "\u25810x46f4": 7458,
    "\u25810x4740": 7459,
    "\u25810x4ba9": 7460,
    "\u25810x5165": 7461,
    "\u25810x5265": 7462,
    "\u25810x5c2c": 7463,
    "\u25810x7220": 7464,
    "\u25810x74a0": 7465,
    "\u25810x89e0": 7466,
    "\u25810xa040": 7467,
    "\u2581sybase": 7468,
    "atedicon": 7469,
    "econtrol": 7470,
    "\u25810x5265e": 7471,
    "\u2581ellipse": 7472,
    "\u25810x40015f": 7473,
    "\u25810x407bb9": 7474,
    "\u25810x409aa4": 7475,
    "\u25810x409aa5": 7476,
    "\u25810x41d7f8": 7477,
    "\u25810x422741": 7478,
    "\u25810x429260": 7479,
    "\u25810x573c10": 7480,
    "\u25810x574c10": 7481,
    "\u25810x5e3130": 7482,
    "\u25810x61f690": 7483,
    "\u25810x6d3da0": 7484,
    "\u25810x71be48": 7485,
    "\u25810xa36c98": 7486,
    "\u2581ptinrect": 7487,
    "messagepos": 7488,
    "\u25810x121188c": 7489,
    "\u25810x1211a4c": 7490,
    "\u25810x1211bb8": 7491,
    "\u25810x1211de4": 7492,
    "\u25810x54500000": 7493,
    "\u25810xfeee015b": 7494,
    "\u25810xfeee015c": 7495,
    "\u25810xfeee015d": 7496,
    "\u25810xfeee015e": 7497,
    "\u25810xfeee015f": 7498,
    "\u25810xfeee0160": 7499,
    "\u25810xfeee0161": 7500,
    "\u25810xfeee0162": 7501,
    "\u25810xfeee0163": 7502,
    "\u25810xfeee0164": 7503,
    "\u25810xfeee0165": 7504,
    "\u25810xfeee0166": 7505,
    "\u25810xfeee0167": 7506,
    "\u25810xfeee0168": 7507,
    "\u25810xfeee0169": 7508,
    "\u25810xfeee016a": 7509,
    "\u25810xfeee016b": 7510,
    "\u25810xfeee01a0": 7511,
    "erviceconfig": 7512,
    "\u2581destroymenu": 7513,
    "\u2581getdragimage": 7514,
    "\u2581crypthashdata": 7515,
    "\u2581destroycursor": 7516,
    "\u2581extractassoci": 7517,
    "\u2581getmessagepos": 7518,
    "\u2581cryptcreatehash": 7519,
    "\u2581setwindowshookexa": 7520,
    "\u2581regconnectregistryw": 7521,
    "\u2581extractassociatedicon": 7522,
    "\u2581lookupprivilegevaluew": 7523,
    "\u2581getlogicaldrivestringsw": 7524,
    "\u2581expandenvironmentstringsw": 7525,
    "d16779d50217407f76f7b6550a171e06a0dcbac23a20eee2c332d978de23": 7526,
    "su": 7527,
    "11a": 7528,
    "316": 7529,
    "590": 7530,
    "618": 7531,
    "640": 7532,
    "758": 7533,
    "946": 7534,
    "a28": 7535,
    "b19": 7536,
    "d78": 7537,
    "f0b": 7538,
    "f65": 7539,
    "f91": 7540,
    "lan": 7541,
    "\u258111": 7542,
    "3030": 7543,
    "eext": 7544,
    "fcc0": 7545,
    "vbvm": 7546,
    "\u2581arg": 7547,
    "\u25810x411": 7548,
    "\u25810x1015": 7549,
    "\u25810x40b5": 7550,
    "\u25810x4130": 7551,
    "\u25810x4391": 7552,
    "\u25810x4489": 7553,
    "\u25810x56a7": 7554,
    "\u2581ldrget": 7555,
    "\u2581verify": 7556,
    "\u25810x64000": 7557,
    "\u2581setcomm": 7558,
    "processid": 7559,
    "\u25810x4150f8": 7560,
    "\u25810x420b78": 7561,
    "\u25810x456850": 7562,
    "\u25810x4c0260": 7563,
    "\u25810x53fab0": 7564,
    "\u25810x5ab0b8": 7565,
    "\u25810xa7def0": 7566,
    "\u2581setclass": 7567,
    "\u2581destroyen": 7568,
    "\u25810xfeee016c": 7569,
    "\u25810xfeee016d": 7570,
    "\u25810xfeee016e": 7571,
    "\u25810xfeee016f": 7572,
    "\u25810xfeee0170": 7573,
    "\u25810xfeee0171": 7574,
    "\u25810xfeee0172": 7575,
    "\u25810xfeee017d": 7576,
    "\u2581sofaddress": 7577,
    "belocatedint": 7578,
    "\u2581createbrush": 7579,
    "\u2581fileexistsw": 7580,
    "\u2581getclassinfo": 7581,
    "\u2581verifyversion": 7582,
    "threadprocessid": 7583,
    "\u2581openscmanagera": 7584,
    "procedureaddress": 7585,
    "\u2581callwindowproca": 7586,
    "\u2581getmenuitemcount": 7587,
    "\u2581isdialogmessagea": 7588,
    "uldnotbelocatedint": 7589,
    "\u2581createbrushindirect": 7590,
    "\u2581createenvironmentblock": 7591,
    "\u2581ldrgetprocedureaddress": 7592,
    "\u2581destroyenvironmentblock": 7593,
    "\u2581getwindowthreadprocessid": 7594,
    "tl": 7595,
    "2e4": 7596,
    "301": 7597,
    "3a8": 7598,
    "3ec": 7599,
    "757": 7600,
    "770": 7601,
    "918": 7602,
    "989": 7603,
    "9c2": 7604,
    "9cb": 7605,
    "a41": 7606,
    "abb": 7607,
    "b4c": 7608,
    "b51": 7609,
    "d20": 7610,
    "d3d": 7611,
    "de2": 7612,
    "dem": 7613,
    "f1d": 7614,
    "endd": 7615,
    "inta": 7616,
    "omed": 7617,
    "unct": 7618,
    "logon": 7619,
    "pipea": 7620,
    "\u2581iszo": 7621,
    "\u2581recv": 7622,
    "iconex": 7623,
    "\u25810x114": 7624,
    "\u25810x1f8": 7625,
    "\u25810x447": 7626,
    "\u25810x498": 7627,
    "\u25810x5e7": 7628,
    "\u2581group": 7629,
    "\u2581lower": 7630,
    "\u2581punct": 7631,
    "\u2581upper": 7632,
    "ectlock": 7633,
    "\u25810x405b": 7634,
    "\u25810x405c": 7635,
    "\u25810x412e": 7636,
    "\u25810x4459": 7637,
    "\u25810x4676": 7638,
    "\u25810x6039": 7639,
    "\u25810x6488": 7640,
    "\u25810x7025": 7641,
    "\u25810x7190": 7642,
    "\u25810x7cff": 7643,
    "\u25810x8b70": 7644,
    "\u25810x8ec0": 7645,
    "\u25810x9860": 7646,
    "\u2581socket": 7647,
    "\u2581xdigit": 7648,
    "notowned": 7649,
    "\u25810x44002": 7650,
    "\u2581setdrag": 7651,
    "itialized": 7652,
    "\u25810x430880": 7653,
    "\u25810x435001": 7654,
    "\u25810x435003": 7655,
    "\u25810x435005": 7656,
    "\u25810x435007": 7657,
    "\u25810x435009": 7658,
    "\u25810x43500b": 7659,
    "\u25810x43500d": 7660,
    "\u25810x43500f": 7661,
    "\u25810x435011": 7662,
    "\u25810x435015": 7663,
    "\u25810x435017": 7664,
    "\u25810x442806": 7665,
    "\u25810x442808": 7666,
    "\u25810x44280a": 7667,
    "\u25810x44280c": 7668,
    "\u25810x44280e": 7669,
    "\u25810x442810": 7670,
    "\u25810x442812": 7671,
    "\u25810x442814": 7672,
    "\u25810x442816": 7673,
    "\u25810x442818": 7674,
    "\u25810x44281a": 7675,
    "\u25810x44281c": 7676,
    "\u25810x44281e": 7677,
    "\u25810x44f910": 7678,
    "\u25810x4606d0": 7679,
    "\u2581iszoomed": 7680,
    "\u25810x1210ed0": 7681,
    "\u25810x1211240": 7682,
    "\u25810x1211a28": 7683,
    "\u25810x1211da0": 7684,
    "\u25810x1211e10": 7685,
    "cursorimage": 7686,
    "supfunction": 7687,
    "\u25810xfeee0173": 7688,
    "\u25810xfeee0174": 7689,
    "\u25810xfeee0175": 7690,
    "\u25810xfeee0176": 7691,
    "\u25810xfeee0177": 7692,
    "\u25810xfeee0178": 7693,
    "\u25810xfeee0179": 7694,
    "\u25810xfeee017a": 7695,
    "\u25810xfeee017b": 7696,
    "\u25810xfeee017c": 7697,
    "\u25810xfeee017e": 7698,
    "\u2581drawiconex": 7699,
    "\u2581gdipdelete": 7700,
    "\u2581midistream": 7701,
    "\u2581getmenustate": 7702,
    "\u2581gettopwindow": 7703,
    "notinitialized": 7704,
    "\u2581checkmenuitem": 7705,
    "\u2581getmenuitemid": 7706,
    "ectlocknotowned": 7707,
    "\u2581getwindowtextw": 7708,
    "\u2581monitorsupfunction": 7709,
    "\u2581setdragcursorimage": 7710,
    "\u2581monitorsupfunctionnotinitialized": 7711,
    "50c907865c80b1ee4b7a5419094c49a237e8c1f6f27bffa038803566fa6d63d": 7712,
    "7e4": 7713,
    "9c4": 7714,
    "b02": 7715,
    "bb4": 7716,
    "bd2": 7717,
    "d64": 7718,
    "doc": 7719,
    "e44": 7720,
    "pha": 7721,
    "\u258114": 7722,
    "1918": 7723,
    "edac": 7724,
    "f5e0": 7725,
    "\u2581iob": 7726,
    "\u2581lsa": 7727,
    "\u25810x472": 7728,
    "\u25810x4a8": 7729,
    "\u2581infla": 7730,
    "\u2581sendd": 7731,
    "\u2581setdl": 7732,
    "mapmode": 7733,
    "\u25810x4018": 7734,
    "\u25810x40bb": 7735,
    "\u25810x4106": 7736,
    "\u25810x4189": 7737,
    "\u25810x41ef": 7738,
    "\u25810x42e8": 7739,
    "\u25810x43e8": 7740,
    "\u25810x4558": 7741,
    "\u25810x45b5": 7742,
    "\u25810x4a20": 7743,
    "\u25810x5278": 7744,
    "\u25810x7ed0": 7745,
    "\u25810x8c10": 7746,
    "\u25810x8c20": 7747,
    "\u2581msvbvm": 7748,
    "\u2581prolog": 7749,
    "\u25810x504d4": 7750,
    "\u25810x1733c4": 7751,
    "\u25810x43401a": 7752,
    "\u25810x435400": 7753,
    "\u25810x452bf8": 7754,
    "\u25810x53e050": 7755,
    "\u25810x554868": 7756,
    "\u25810x8f80c0": 7757,
    "\u25810x1211c84": 7758,
    "\u25810xfeee0181": 7759,
    "\u25810xfeee01a2": 7760,
    "\u2581setdlgitem": 7761,
    "\u2581inflaterect": 7762,
    "\u2581senddlgitem": 7763,
    "\u2581scrollwindow": 7764,
    "\u2581wtsfreememory": 7765,
    "\u2581setwindowtextw": 7766,
    "\u2581gettextmetricsa": 7767,
    "\u2581findfirstfileexw": 7768,
    "\u2581getclipboarddata": 7769,
    "\u2581enumresourcenamesw": 7770,
    "\u2581enumsystemlocalesw": 7771,
    "\u2581registerservicectrlhandlerexa": 7772,
    "tw": 7773,
    "172": 7774,
    "3a5": 7775,
    "3b4": 7776,
    "610": 7777,
    "715": 7778,
    "9d4": 7779,
    "b64": 7780,
    "b69": 7781,
    "d1c": 7782,
    "e50": 7783,
    "f35": 7784,
    "\u2581t0": 7785,
    "\u2581zp": 7786,
    "1bb8": 7787,
    "5046": 7788,
    "aget": 7789,
    "atic": 7790,
    "cale": 7791,
    "fied": 7792,
    "\u25817f8": 7793,
    "\u2581edc": 7794,
    "\u2581mai": 7795,
    "f9000": 7796,
    "heapp": 7797,
    "\u25812af4": 7798,
    "\u2581deff": 7799,
    "\u2581play": 7800,
    "socket": 7801,
    "\u25810x2ac": 7802,
    "\u25810x4a0": 7803,
    "\u2581cdea6": 7804,
    "\u2581scale": 7805,
    "current": 7806,
    "filewas": 7807,
    "\u25810x1800": 7808,
    "\u25810x4212": 7809,
    "\u25810x433f": 7810,
    "\u25810x44b1": 7811,
    "\u25810x45b2": 7812,
    "\u25810x4650": 7813,
    "\u25810x484c": 7814,
    "\u25810x49e8": 7815,
    "\u25810x4d90": 7816,
    "\u25810x5674": 7817,
    "\u25810x80b8": 7818,
    "\u25810x80c6": 7819,
    "\u25810x8be0": 7820,
    "\u25810x8d00": 7821,
    "\u25810xa030": 7822,
    "\u2581static": 7823,
    "nametext": 7824,
    "\u25810x401310": 7825,
    "\u25810x4086dc": 7826,
    "\u25810x40e510": 7827,
    "\u25810x41a058": 7828,
    "\u25810x41f738": 7829,
    "\u25810x4289d8": 7830,
    "\u25810x42d070": 7831,
    "\u25810x42d0a8": 7832,
    "\u25810x4377a8": 7833,
    "\u25810x44dac0": 7834,
    "\u25810x53c7f0": 7835,
    "\u25810x5d5c00": 7836,
    "\u25810x5e0aa8": 7837,
    "\u25810x69a078": 7838,
    "\u25810x779a20": 7839,
    "\u2581defframe": 7840,
    "\u2581gdipdraw": 7841,
    "bitmapbits": 7842,
    "\u25810x1211cc4": 7843,
    "\u25810x1211d10": 7844,
    "\u2581drawtextw": 7845,
    "\u2581setparent": 7846,
    "\u25810x56500000": 7847,
    "\u25810xfeee017f": 7848,
    "\u25810xfeee0180": 7849,
    "\u25810xfeee0182": 7850,
    "\u25810xfeee0183": 7851,
    "\u25810xfeee0184": 7852,
    "\u25810xfeee01a1": 7853,
    "\u25810xfeee01a3": 7854,
    "\u2581charuppera": 7855,
    "\u2581closesocket": 7856,
    "\u2581geticoninfo": 7857,
    "\u2581setbrushorgex": 7858,
    "\u2581getkeynametext": 7859,
    "\u2581cryptdestroyhash": 7860,
    "\u2581virtualprotectex": 7861,
    "\u2581createpenindirect": 7862,
    "\u2581getsystemdefaultuilanguage": 7863,
    "0x": 7864,
    "164": 7865,
    "234": 7866,
    "344": 7867,
    "3b7": 7868,
    "561": 7869,
    "564": 7870,
    "56e": 7871,
    "790": 7872,
    "884": 7873,
    "9e8": 7874,
    "b24": 7875,
    "b2c": 7876,
    "d18": 7877,
    "dd6": 7878,
    "ea8": 7879,
    "f51": 7880,
    "fb5": 7881,
    "fb6": 7882,
    "fcc": 7883,
    "fdb": 7884,
    "ign": 7885,
    "itk": 7886,
    "rup": 7887,
    "\u2581la": 7888,
    "61a0": 7889,
    "8000": 7890,
    "ectw": 7891,
    "\u2581bat": 7892,
    "\u2581sha": 7893,
    "datomw": 7894,
    "positi": 7895,
    "rupted": 7896,
    "zspeci": 7897,
    "\u25810x12c": 7898,
    "\u25810x474": 7899,
    "\u25810x51c": 7900,
    "\u25810x51d": 7901,
    "\u25810x679": 7902,
    "\u25810xb33": 7903,
    "\u2581srand": 7904,
    "\u25810x10e8": 7905,
    "\u25810x4066": 7906,
    "\u25810x4135": 7907,
    "\u25810x415d": 7908,
    "\u25810x423d": 7909,
    "\u25810x4288": 7910,
    "\u25810x43d4": 7911,
    "\u25810x441f": 7912,
    "\u25810x44a7": 7913,
    "\u25810x45b6": 7914,
    "\u25810x49d0": 7915,
    "\u25810x4ce0": 7916,
    "\u25810x4f00": 7917,
    "\u25810x53b4": 7918,
    "\u25810x6ed0": 7919,
    "\u25810x6f36": 7920,
    "\u25810x7140": 7921,
    "\u25810x8110": 7922,
    "\u25810x89d1": 7923,
    "\u25810x8b00": 7924,
    "\u2581defmdi": 7925,
    "\u2581lclose": 7926,
    "textoutw": 7927,
    "\u25810x10020": 7928,
    "\u25810x120f7": 7929,
    "\u25810x68000": 7930,
    "\u2581error0x": 7931,
    "\u2581midiout": 7932,
    "\u2581msgwait": 7933,
    "\u2581searcha": 7934,
    "windowsex": 7935,
    "zspecific": 7936,
    "\u25810x40f118": 7937,
    "\u25810x420c60": 7938,
    "\u25810x421630": 7939,
    "\u25810x437080": 7940,
    "\u25810x475f64": 7941,
    "\u25810x48b7c8": 7942,
    "\u25810x5ebc90": 7943,
    "\u25810x7f4a78": 7944,
    "\u2581getpixel": 7945,
    "\u2581setpixel": 7946,
    "\u25810x1210dec": 7947,
    "\u25810x1211a7c": 7948,
    "\u25810x1211c24": 7949,
    "\u25810x1211d38": 7950,
    "\u25810x1211ecc": 7951,
    "\u25810x169be38": 7952,
    "\u25810x2000000": 7953,
    "\u2581clsidfrom": 7954,
    "\u25810xfeee0185": 7955,
    "\u25810xfeee0186": 7956,
    "\u25810xfeee0187": 7957,
    "\u25810xfeee0199": 7958,
    "\u2581defmdichild": 7959,
    "\u2581snapprocess": 7960,
    "00000004000000": 7961,
    "\u2581exitwindowsex": 7962,
    "\u2581openscmanagerw": 7963,
    "\u2581getwindowplacement": 7964,
    "\u2581cryptacquirecontexta": 7965,
    "\u2581msgwaitformultipleob": 7966,
    "00000004000000ffff0000": 7967,
    "\u2581getprocesswindowstation": 7968,
    "drl6660drl6660drl6660drl6660drl6660drl6660": 7969,
    "drl6660drl6660drl6660drl6660drl6660drl6660drl6660": 7970,
    "rl": 7971,
    "32w": 7972,
    "39e": 7973,
    "3ed": 7974,
    "510": 7975,
    "538": 7976,
    "571": 7977,
    "5b5": 7978,
    "658": 7979,
    "6c0": 7980,
    "706": 7981,
    "724": 7982,
    "754": 7983,
    "a18": 7984,
    "a46": 7985,
    "aa6": 7986,
    "aa7": 7987,
    "abe": 7988,
    "b28": 7989,
    "b61": 7990,
    "b63": 7991,
    "c0c": 7992,
    "d15": 7993,
    "d3f": 7994,
    "d94": 7995,
    "\u258103": 7996,
    "\u2581cy": 7997,
    "edge": 7998,
    "lauf": 7999,
    "over": 8000,
    "\u2581mpr": 8001,
    "\u2581qae": 8002,
    "00003": 8003,
    "ablet": 8004,
    "fichi": 8005,
    "frame": 8006,
    "itkom": 8007,
    "\u2581aaaf": 8008,
    "\u2581dbor": 8009,
    "\u25810x13b": 8010,
    "\u25810x182": 8011,
    "\u25810x22c": 8012,
    "\u25810x4ae": 8013,
    "\u25810x4b2": 8014,
    "\u25814d5a9": 8015,
    "\u2581alpha": 8016,
    "\u2581cntrl": 8017,
    "\u2581digit": 8018,
    "\u2581regre": 8019,
    "leitkom": 8020,
    "\u25810x1818": 8021,
    "\u25810x2004": 8022,
    "\u25810x4032": 8023,
    "\u25810x40a0": 8024,
    "\u25810x40b2": 8025,
    "\u25810x43bd": 8026,
[...]
