{
    "<pad>": 0,
    "<unk>": 1,
    "<mask>": 2,
    "\u25810": 3,
    "\u25810x": 4,
    "00": 5,
    "er": 6,
    "ne": 7,
    "32": 8,
    "\u2581k": 9,
    "l32": 10,
    "erne": 11,
    "ernel32": 12,
    "\u2581kernel32": 13,
    "\u25810x1": 14,
    "et": 15,
    "\u25810x0": 16,
    "al": 17,
    "\u25810x4": 18,
    "ee": 19,
    "get": 20,
    "ti": 21,
    "\u25810xf": 22,
    "000": 23,
    "in": 24,
    "ec": 25,
    "\u2581get": 26,
    "ad": 27,
    "\u25810x7": 28,
    "oc": 29,
    "re": 30,
    "0000": 31,
    "st": 32,
    "eee": 33,
    "\u25810xfeee": 34,
    "iti": 35,
    "one": 36,
    "\u25810x12": 37,
    "ss": 38,
    "le": 39,
    "pr": 40,
    "val": 41,
    "\u25810x77": 42,
    "ls": 43,
    "proc": 44,
    "ue": 45,
    "on": 46,
    "value": 47,
    "\u25810x121": 48,
    "cal": 49,
    "sec": 50,
    "getvalue": 51,
    "lsgetvalue": 52,
    "secti": 53,
    "riti": 54,
    "ritical": 55,
    "riticalsecti": 56,
    "\u2581n": 57,
    "\u2581none": 58,
    "\u2581getproc": 59,
    "\u25810xfeee000": 60,
    "add": 61,
    "loc": 62,
    "ress": 63,
    "address": 64,
    "\u2581getprocaddress": 65,
    "or": 66,
    "ar": 67,
    "en": 68,
    "ter": 69,
    "us": 70,
    "\u25810x1211": 71,
    "de": 72,
    "\u2581s": 73,
    "user": 74,
    "000000": 75,
    "\u2581user": 76,
    "\u2581c": 77,
    "ff": 78,
    "\u2581user32": 79,
    "ecriticalsecti": 80,
    "\u25810x77000000": 81,
    "ap": 82,
    "\u25810x46": 83,
    "f0": 84,
    "\u2581t": 85,
    "la": 86,
    "\u2581in": 87,
    "\u2581f": 88,
    "\u2581m": 89,
    "err": 90,
    "error": 91,
    "\u25810xfeee0001": 92,
    "last": 93,
    "lasterror": 94,
    "\u25810x40": 95,
    "co": 96,
    "\u2581tlsgetvalue": 97,
    "\u2581l": 98,
    "a0": 99,
    "\u25810xfeee00": 100,
    "an": 101,
    "str": 102,
    "\u2581en": 103,
    "iz": 104,
    "aliz": 105,
    "har": 106,
    "itializ": 107,
    "he": 108,
    "po": 109,
    "\u2581initializ": 110,
    "\u25810x5": 111,
    "is": 112,
    "\u2581initializecriticalsecti": 113,
    "90": 114,
    "poin": 115,
    "\u25810x8": 116,
    "heap": 117,
    "\u25810x1000": 118,
    "te": 119,
    "alloc": 120,
    "pointer": 121,
    "\u2581heap": 122,
    "and": 123,
    "depointer": 124,
    "ow": 125,
    "read": 126,
    "em": 127,
    "\u2581set": 128,
    "ing": 129,
    "00000": 130,
    "\u2581flsgetvalue": 131,
    "\u2581is": 132,
    "\u25810xfa0": 133,
    "string": 134,
    "\u25810x100": 135,
    "\u25810x2": 136,
    "xt": 137,
    "\u2581d": 138,
    "oad": 139,
    "rt": 140,
    "\u2581load": 141,
    "next": 142,
    "nt": 143,
    "\u2581char": 144,
    "40": 145,
    "d0": 146,
    "lea": 147,
    "\u2581charnext": 148,
    "inf": 149,
    "local": 150,
    "\u2581w": 151,
    "\u25810xc": 152,
    "\u25810x10": 153,
    "onex": 154,
    "fi": 155,
    "\u25810x3": 156,
    "\u2581getlasterror": 157,
    "by": 158,
    "\u25810x41": 159,
    "\u25810x400000": 160,
    "\u25810x45": 161,
    "id": 162,
    "\u2581heapalloc": 163,
    "\u2581initializecriticalsectionex": 164,
    "\u2581setlasterror": 165,
    "bc": 166,
    "10": 167,
    "\u2581enco": 168,
    "\u2581encodepointer": 169,
    "\u2581ms": 170,
    "tr": 171,
    "f8": 172,
    "a5": 173,
    "cm": 174,
    "locale": 175,
    "e4": 176,
    "\u2581loadstring": 177,
    "vc": 178,
    "hand": 179,
    "bad": 180,
    "readp": 181,
    "\u2581msvc": 182,
    "ecriticalsection": 183,
    "\u2581msvcrt": 184,
    "\u2581isbad": 185,
    "readptr": 186,
    "\u2581isbadreadptr": 187,
    "leav": 188,
    "\u2581leav": 189,
    "\u2581leavecriticalsection": 190,
    "\u25810x43": 191,
    "\u2581enter": 192,
    "criticalsecti": 193,
    "criticalsection": 194,
    "\u2581entercriticalsection": 195,
    "ind": 196,
    "unt": 197,
    "ffff": 198,
    "\u25810xc000": 199,
    "18": 200,
    "\u25810x45f0": 201,
    "info": 202,
    "count": 203,
    "mo": 204,
    "\u25810x40a5": 205,
    "\u2581initializecriticalsection": 206,
    "vi": 207,
    "93": 208,
    "\u25810xff": 209,
    "ess": 210,
    "\u2581getlocale": 211,
    "\u25810x7d": 212,
    "eco": 213,
    "78": 214,
    "ac": 215,
    "ul": 216,
    "\u25810x46d0": 217,
    "du": 218,
    "\u25810x1210": 219,
    "yst": 220,
    "70": 221,
    "ll": 222,
    "\u2581charnextw": 223,
    "cmp": 224,
    "ystem": 225,
    "\u25810x42": 226,
    "\u25810x4e4": 227,
    "byte": 228,
    "ke": 229,
    "ur": 230,
    "indow": 231,
    "li": 232,
    "\u25810x6": 233,
    "dule": 234,
    "50": 235,
    "module": 236,
    "c0": 237,
    "\u2581getmodule": 238,
    "\u25810x4690": 239,
    "ex": 240,
    "handle": 241,
    "30": 242,
    "\u25810x1211c": 243,
    "\u2581mem": 244,
    "66": 245,
    "20": 246,
    "op": 247,
    "\u2581dll": 248,
    "\u2581charnexta": 249,
    "\u2581memcmp": 250,
    "98": 251,
    "\u2581deco": 252,
    "\u2581decodepointer": 253,
    "ulti": 254,
    "idec": 255,
    "idechar": 256,
    "\u25810x41f0": 257,
    "b0": 258,
    "\u25810x46f0": 259,
    "\u25810x41f040": 260,
    "indows": 261,
    "sp": 262,
    "e0": 263,
    "60": 264,
    "ent": 265,
    "\u2581windows": 266,
    "file": 267,
    "\u2581getc": 268,
    "\u25810x7e": 269,
    "ate": 270,
    "\u25810x1211f": 271,
    "me": 272,
    "spin": 273,
    "spincount": 274,
    "andspincount": 275,
    "\u2581initializecriticalsectionandspincount": 276,
    "28": 277,
    "\u25810x4093": 278,
    "fr": 279,
    "ce": 280,
    "infoa": 281,
    "process": 282,
    "\u2581loadstringa": 283,
    "om": 284,
    "sle": 285,
    "10000": 286,
    "dbc": 287,
    "yp": 288,
    "d8": 289,
    "\u25810x78": 290,
    "\u25810xfeee001": 291,
    "ual": 292,
    "slead": 293,
    "\u2581isdbc": 294,
    "\u2581isdbcslead": 295,
    "\u2581isdbcsleadbyte": 296,
    "rent": 297,
    "urrent": 298,
    "virt": 299,
    "\u2581loadstringw": 300,
    "virtual": 301,
    "th": 302,
    "\u25810x770": 303,
    "ge": 304,
    "\u2581system": 305,
    "cc": 306,
    "tet": 307,
    "48": 308,
    "ment": 309,
    "a8": 310,
    "\u2581system32": 311,
    "b8": 312,
    "infow": 313,
    "di": 314,
    "\u25810xf00": 315,
    "\u25810xfffff": 316,
    "\u25810xfffffff": 317,
    "\u25810x10c": 318,
    "\u2581a": 319,
    "\u2581virtual": 320,
    "38": 321,
    "var": 322,
    "\u25810x44": 323,
    "br": 324,
    "tion": 325,
    "ary": 326,
    "let": 327,
    "\u2581getlocaleinfoa": 328,
    "\u2581cre": 329,
    "14": 330,
    "94": 331,
    "key": 332,
    "ect": 333,
    "\u2581getst": 334,
    "d4": 335,
    "68": 336,
    "58": 337,
    "brary": 338,
    "dc": 339,
    "free": 340,
    "64": 341,
    "hi": 342,
    "ri": 343,
    "lo": 344,
    "qu": 345,
    "\u2581multi": 346,
    "bytet": 347,
    "bytetow": 348,
    "\u2581multibytetow": 349,
    "\u2581multibytetowidechar": 350,
    "34": 351,
    "c4": 352,
    "\u2581getlocaleinfow": 353,
    "age": 354,
    "un": 355,
    "12": 356,
    "f4": 357,
    "e8": 358,
    "quer": 359,
    "69": 360,
    "ype": 361,
    "\u25810x47": 362,
    "it": 363,
    "thread": 364,
    "\u2581re": 365,
    "of": 366,
    "\u2581g": 367,
    "na": 368,
    "library": 369,
    "\u2581getcurrent": 370,
    "open": 371,
    "handlew": 372,
    "\u25810x5f8": 373,
    "def": 374,
    "a4": 375,
    "d10000": 376,
    "\u25810x5f800000": 377,
    "\u25810x77d10000": 378,
    "\u2581create": 379,
    "\u25810x18": 380,
    "\u2581var": 381,
    "\u25810x52": 382,
    "filet": 383,
    "\u2581getmodulehandlew": 384,
    "\u2581p": 385,
    "locke": 386,
    "\u25810x7de": 387,
    "rst": 388,
    "\u2581inter": 389,
    "\u2581getti": 390,
    "da": 391,
    "7c": 392,
    "\u2581gets": 393,
    "tu": 394,
    "74": 395,
    "\u25810x1c": 396,
    "\u25810x90": 397,
    "75": 398,
    "\u25810x400": 399,
    "cmap": 400,
    "\u2581lcmap": 401,
    "\u2581lcmapstring": 402,
    "ck": 403,
    "\u2581local": 404,
    "ers": 405,
    "91": 406,
    "ckcount": 407,
    "\u2581gettickcount": 408,
    "\u2581interlocke": 409,
    "ol": 410,
    "\u25810x1211d": 411,
    "c8": 412,
    "\u2581loadlibrary": 413,
    "ed": 414,
    "\u2581interlocked": 415,
    "65": 416,
    "\u25810x771": 417,
    "b4": 418,
    "\u25810x9": 419,
    "\u25810x1211e": 420,
    "rement": 421,
    "\u2581ap": 422,
    "tom": 423,
    "\u25810x20": 424,
    "\u2581getsystem": 425,
    "wa": 426,
    "2c": 427,
    "ab": 428,
    "tomulti": 429,
    "\u2581widechar": 430,
    "tomultibyte": 431,
    "\u2581widechartomultibyte": 432,
    "ch": 433,
    "query": 434,
    "\u25810x1210e": 435,
    "56": 436,
    "\u25810x4378": 437,
    "\u2581heapfree": 438,
    "\u25810x70": 439,
    "oft": 440,
    "\u25810xffffffff": 441,
    "vw": 442,
    "1c": 443,
    "\u2581reg": 444,
    "fc": 445,
    "rect": 446,
    "24": 447,
    "54": 448,
    "name": 449,
    "lm": 450,
    "\u2581getmodulehand": 451,
    "\u25810x12117": 452,
    "xy": 453,
    "xyz": 454,
    "klm": 455,
    "nop": 456,
    "ghi": 457,
    "uvw": 458,
    "qrst": 459,
    "\u2581abc": 460,
    "uvwxyz": 461,
    "nopqrst": 462,
    "defghi": 463,
    "klmnopqrst": 464,
    "\u2581abcdefghi": 465,
    "klmnopqrstuvwxyz": 466,
    "\u2581virtualquery": 467,
    "vers": 468,
    "\u2581getmodulehandlea": 469,
    "orm": 470,
    "19": 471,
    "3c": 472,
    "\u25810x7d90": 473,
    "se": 474,
    "\u25810x12119": 475,
    "\u25810xfeee0004": 476,
    "versi": 477,
    "71": 478,
    "\u25810x1210f": 479,
    "so": 480,
    "\u2581h": 481,
    "mm": 482,
    "fe": 483,
    "\u25810x1211c18": 484,
    "9c": 485,
    "direct": 486,
    "\u2581read": 487,
    "\u25811": 488,
    "exw": 489,
    "\u2581getfilet": 490,
    "director": 491,
    "6c": 492,
    "\u25810x1211c98": 493,
    "\u2581getfiletype": 494,
    "\u25810x4610": 495,
    "aa": 496,
    "15": 497,
    "dhandle": 498,
    "\u25810x3f": 499,
    "\u2581ex": 500,
    "rite": 501,
    "\u2581getstdhandle": 502,
    "valid": 503,
    "ware": 504,
    "\u25810xcd": 505,
    "oftware": 506,
    "\u25810x54": 507,
    "67": 508,
    "3d": 509,
    "f5": 510,
    "b7": 511,
    "\u2581hkey": 512,
    "filename": 513,
    "\u2581software": 514,
    "inc": 515,
    "ron": 516,
    "\u2581localalloc": 517,
    "\u2581b": 518,
    "\u2581lcmapstringw": 519,
    "sset": 520,
    "sw": 521,
    "viron": 522,
    "api": 523,
    "lsset": 524,
    "lssetvalue": 525,
    "\u25810xfeee0002": 526,
    "increment": 527,
    "\u2581interlockedincrement": 528,
    "ng": 529,
    "\u25810xa": 530,
    "3e": 531,
    "vironment": 532,
    "\u25810x104": 533,
    "80": 534,
    "d2": 535,
    "\u25810xfeee002": 536,
    "f9": 537,
    "\u25810xfff": 538,
    "lsalloc": 539,
    "\u2581lstr": 540,
    "\u25810x78000000": 541,
    "ic": 542,
    "35": 543,
    "\u2581open": 544,
    "\u25810x200": 545,
    "\u2581se": 546,
    "b5": 547,
    "\u25810xfeee0000": 548,
    "directory": 549,
    "fa": 550,
    "44": 551,
    "\u2581getmodulefilename": 552,
    "1000": 553,
    "1a": 554,
    "tup": 555,
    "artup": 556,
    "ut": 557,
    "\u25810x4c": 558,
    "\u2581getcurrentthread": 559,
    "b2": 560,
    "at": 561,
    "\u2581getstartup": 562,
    "\u25810xfeee0003": 563,
    "ation": 564,
    "\u25810x4c4": 565,
    "comm": 566,
    "be": 567,
    "d6": 568,
    "\u25810xfeee004": 569,
    "\u2581getcurrentthreadid": 570,
    "\u25810xfeee008": 571,
    "\u25810x48": 572,
    "line": 573,
    "emp": 574,
    "\u2581ad": 575,
    "db": 576,
    "\u25812": 577,
    "3f": 578,
    "\u25810x5266": 579,
    "\u2581apis": 580,
    "\u25810x14": 581,
    "api32": 582,
    "bf": 583,
    "\u2581current": 584,
    "\u25810x79": 585,
    "andline": 586,
    "erf": 587,
    "from": 588,
    "arch": 589,
    "\u2581fr": 590,
    "b9": 591,
    "locales": 592,
    "\u2581getcomm": 593,
    "\u2581temp": 594,
    "\u2581getcommandline": 595,
    "version": 596,
    "\u2581adv": 597,
    "\u2581advapi32": 598,
    "\u2581gdi": 599,
    "a9": 600,
    "\u25810xfeee005": 601,
    "\u25810x4670": 602,
    "\u25810x80": 603,
    "\u25810x88": 604,
    "a2": 605,
    "e5": 606,
    "df": 607,
    "ot": 608,
    "vironmentstring": 609,
    "\u2581de": 610,
    "b6": 611,
    "\u25810x49": 612,
    "39": 613,
    "88": 614,
    "\u25810xfeee0": 615,
    "\u25810x8c": 616,
    "72": 617,
    "dr": 618,
    "\u2581find": 619,
    "lose": 620,
    "\u2581locales": 621,
    "list": 622,
    "\u2581getcp": 623,
    "\u2581getcpinfo": 624,
    "\u2581gdi32": 625,
    "onso": 626,
    "\u2581co": 627,
    "\u25810x7f": 628,
    "16": 629,
    "onsole": 630,
    "\u25810x77e": 631,
    "\u25810x77e10000": 632,
    "\u25810xfeee0005": 633,
    "eex": 634,
    "\u25810x7de0": 635,
    "time": 636,
    "\u2581o": 637,
    "ve": 638,
    "\u2581flssetvalue": 639,
    "vironmentstringsw": 640,
    "\u2581virtualalloc": 641,
    "1e": 642,
    "7e": 643,
    "\u25810x800": 644,
    "79": 645,
    "\u25810x7e70": 646,
    "a40": 647,
    "res": 648,
    "write": 649,
    "up": 650,
    "76": 651,
    "\u25810xf002": 652,
    "\u25810xf001": 653,
    "\u25810xf003": 654,
    "d5": 655,
    "as": 656,
    "\u2581flsalloc": 657,
    "\u2581x": 658,
    "\u25810x40934": 659,
    "789": 660,
    "cep": 661,
    "\u2581search": 662,
    "\u2581getcurrentprocess": 663,
    "a6": 664,
    "\u25810xe": 665,
    "\u2581loadlibraryexw": 666,
    "ting": 667,
    "ception": 668,
    "um": 669,
    "vari": 670,
    "l66": 671,
    "\u2581page": 672,
    "ra": 673,
    "window": 674,
    "\u25810x7c": 675,
    "ob": 676,
    "\u25810x8000": 677,
    "1234": 678,
    "11": 679,
    "56789": 680,
    "\u258101234": 681,
    "\u25810123456789": 682,
    "92": 683,
    "\u2581regopen": 684,
    "\u2581regopenkey": 685,
    "type": 686,
    "ute": 687,
    "\u25810x7b": 688,
    "bo": 689,
    "bd": 690,
    "l6660": 691,
    "f6": 692,
    "\u25810x5265": 693,
    "filea": 694,
    "\u25810x33": 695,
    "\u25810x7d91": 696,
    "a3": 697,
    "int": 698,
    "ila": 699,
    "95": 700,
    "es": 701,
    "\u2581loadlibrarya": 702,
    "\u2581invalid": 703,
    "e6": 704,
    "pool": 705,
    "\u2581readwrite": 706,
    "pres": 707,
    "ant": 708,
    "\u25810x7f8": 709,
    "drl6660": 710,
    "dex": 711,
    "36": 712,
    "b1": 713,
    "\u25810x4c42": 714,
    "present": 715,
    "mess": 716,
    "ba": 717,
    "filew": 718,
    "d1": 719,
    "\u2581lcmapstringex": 720,
    "\u25810x50": 721,
    "ime": 722,
    "f1": 723,
    "\u2581sl": 724,
    "\u25810x7000": 725,
    "b3": 726,
    "ad0": 727,
    "eep": 728,
    "lob": 729,
    "dec": 730,
    "\u2581glob": 731,
    "\u2581lstrle": 732,
    "f2": 733,
    "hread": 734,
    "9a": 735,
    "\u25810x120": 736,
    "drl6660drl6660": 737,
    "\u2581sleep": 738,
    "enu": 739,
    "\u25810x4350": 740,
    "7d": 741,
    "5c": 742,
    "\u25810xffc": 743,
    "7b": 744,
    "filetime": 745,
    "menu": 746,
    "\u2581str": 747,
    "\u25810xfeee0006": 748,
    "\u2581sh": 749,
    "\u25810x435": 750,
    "processor": 751,
    "erform": 752,
    "erforman": 753,
    "\u2581quer": 754,
    "\u2581queryp": 755,
    "\u2581queryperforman": 756,
    "\u2581getsystemtime": 757,
    "directoryw": 758,
    "\u25810x43780": 759,
    "\u25810x56": 760,
    "ae": 761,
    "\u2581getstring": 762,
    "\u2581geten": 763,
    "ber": 764,
    "\u2581getconsole": 765,
    "33": 766,
    "\u2581getthread": 767,
    "\u25810x7a": 768,
    "fil": 769,
    "2e": 770,
    "\u2581getstringtype": 771,
    "\u25810x73": 772,
    "\u2581win": 773,
    "b00": 774,
    "a1": 775,
    "unter": 776,
    "4c": 777,
    "\u25810x4a": 778,
    "\u25810x7f800": 779,
    "mp": 780,
    "dd": 781,
    "96": 782,
    "ile": 783,
    "ceco": 784,
    "cecounter": 785,
    "\u2581queryperformancecounter": 786,
    "\u2581getstringtypew": 787,
    "cp": 788,
    "\u25817": 789,
    "55": 790,
    "\u25810x102": 791,
    "ture": 792,
    "\u2581getac": 793,
    "a7": 794,
    "\u2581bor": 795,
    "fea": 796,
    "ction": 797,
    "\u25810x3394": 798,
    "processlist": 799,
    "\u2581getconsoleprocesslist": 800,
    "37": 801,
    "\u25810x78c": 802,
    "\u25810x78c00000": 803,
    "\u2581getacp": 804,
    "\u25810x569": 805,
    "feature": 806,
    "\u2581isprocessor": 807,
    "featurepresent": 808,
    "\u2581isprocessorfeaturepresent": 809,
    "\u25810x12116": 810,
    "\u2581getstartupinfoa": 811,
    "\u25810xd": 812,
    "ey": 813,
    "\u2581getmodulefilenamew": 814,
    "22": 815,
    "nd": 816,
    "31": 817,
    "asfiletime": 818,
    "atet": 819,
    "99": 820,
    "decrement": 821,
    "\u2581interlockeddecrement": 822,
    "\u25810x4750": 823,
    "day": 824,
    "exa": 825,
    "\u2581key": 826,
    "\u25810x44f8": 827,
    "\u25810xfeee0007": 828,
    "acc": 829,
    "\u25810xfeee006": 830,
    "\u2581l1": 831,
    "\u2581ws": 832,
    "hel": 833,
    "land": 834,
    "\u2581borland": 835,
    "achi": 836,
    "menuinfo": 837,
    "achine": 838,
    "\u2581machine": 839,
    "84": 840,
    "cpy": 841,
    "con": 842,
    "17": 843,
    "\u2581getmodulefilenamea": 844,
    "print": 845,
    "\u25810x70cc": 846,
    "message": 847,
    "8c": 848,
    "set": 849,
    "\u25810x32": 850,
    "inform": 851,
    "\u2581setmenuinfo": 852,
    "ating": 853,
    "dexception": 854,
    "\u2581getprocess": 855,
    "\u2581li": 856,
    "9e": 857,
    "\u2581getsystemtimeasfiletime": 858,
    "filter": 859,
    "\u25810x13": 860,
    "f7": 861,
    "unhandle": 862,
    "dexceptionfilter": 863,
    "unhandledexceptionfilter": 864,
    "yo": 865,
    "\u2581delet": 866,
    "\u25810x4d": 867,
    "\u2581close": 868,
    "\u2581getcommandlinea": 869,
    "sour": 870,
    "ble": 871,
    "information": 872,
    "to": 873,
    "ack": 874,
    "variab": 875,
    "\u25810x40a": 876,
    "97": 877,
    "\u25810x422": 878,
    "wor": 879,
    "\u2581core": 880,
    "\u25810x1211dc0": 881,
    "\u25810x7ee": 882,
    "\u25817z": 883,
    "fromstr": 884,
    "dll": 885,
    "\u25810x2a": 886,
    "cre": 887,
    "all": 888,
    "\u2581regi": 889,
    "\u25810x30": 890,
    "sa": 891,
    "\u2581regopenkeyexw": 892,
    "\u25810x437": 893,
    "\u2581api": 894,
    "e7": 895,
    "source": 896,
    "versionex": 897,
    "\u2581getversionex": 898,
    "\u2581com": 899,
    "\u2581getcurrentprocessid": 900,
    "\u2581global": 901,
    "\u25810x40a5ce": 902,
    "\u25810x40a5d0": 903,
    "\u25810x40a5d2": 904,
    "\u25810x40a5d4": 905,
    "\u25810x40a5d6": 906,
    "\u25810x40a5d8": 907,
    "\u25810x40a5da": 908,
    "\u2581createt": 909,
    "first": 910,
    "\u25810x4e": 911,
    "\u25810x169": 912,
    "cs": 913,
    "\u25810xb": 914,
    "\u2581getstartupinfow": 915,
    "\u25810x7de1": 916,
    "code": 917,
    "\u2581getthreadlocale": 918,
    "ug": 919,
    "\u25810x72": 920,
    "\u25810x1f4": 921,
    "e9": 922,
    "1b": 923,
    "work": 924,
    "\u2581al": 925,
    "access": 926,
    "308": 927,
    "\u2581lread": 928,
    "eb": 929,
    "\u25810x21000": 930,
    "\u25810x75": 931,
    "\u25810x12115": 932,
    "ith": 933,
    "\u25810x1f400": 934,
    "ro": 935,
    "25": 936,
    "\u2581pf": 937,
    "\u2581strn": 938,
    "\u2581process": 939,
    "stru": 940,
    "\u2581setunhandledexceptionfilter": 941,
    "106": 942,
    "\u25810x74": 943,
    "00c": 944,
    "\u2581library": 945,
    "\u2581write": 946,
    "\u2581strncmp": 947,
    "26": 948,
    "struction": 949,
    "\u2581closehandle": 950,
    "num": 951,
    "fd": 952,
    "\u25810x71": 953,
    "handl": 954,
    "\u2581process32": 955,
    "ib": 956,
    "\u2581getcommandlinew": 957,
    "eeen": 958,
    "\u2581freeen": 959,
    "mode": 960,
    "date": 961,
    "\u2581getversion": 962,
    "\u25810x220": 963,
    "\u25810x12116d8": 964,
    "\u25810x7e71": 965,
    "\u25810xf0019": 966,
    "loating": 967,
    "tim": 968,
    "08": 969,
    "3a": 970,
    "9d": 971,
    "\u2581isvalid": 972,
    "db10": 973,
    "defa": 974,
    "\u25810x3f75": 975,
    "defaul": 976,
    "\u25810x105": 977,
    "\u2581r": 978,
    "908": 979,
    "900": 980,
    "ys": 981,
    "\u2581getprocessheap": 982,
    "\u25810x1211918": 983,
    "\u2581getenvironmentstringsw": 984,
    "\u2581freeenvironmentstringsw": 985,
    "\u25810x5265c": 986,
    "put": 987,
    "f3": 988,
    "bb": 989,
    "rive": 990,
    "db10106": 991,
    "\u25810x1db10106": 992,
    "\u25810x4000": 993,
    "\u25810xfffffff6": 994,
    "\u25810x76": 995,
    "\u25810x1211e0": 996,
    "\u2581wsprint": 997,
    "\u25810x12114": 998,
    "77": 999,
    "eexw": 1000,
    "\u25810xfffffff5": 1001,
    "\u25810xfffffff4": 1002,
    "va": 1003,
    "hreadpool": 1004,
    "aps": 1005,
    "urs": 1006,
    "52": 1007,
    "lic": 1008,
    "\u2581free": 1009,
    "directorya": 1010,
    "\u25810x44f9": 1011,
    "ock": 1012,
    "\u2581lstrlena": 1013,
    "e2": 1014,
    "d9": 1015,
    "met": 1016,
    "3000": 1017,
    "timer": 1018,
    "create": 1019,
    "\u2581access": 1020,
    "\u25810x569b00": 1021,
    "\u2581getsystemdirectoryw": 1022,
    "\u25810x4b": 1023,
    "\u25810x1211dcc": 1024,
    "e1": 1025,
    "\u25810x1211cf8": 1026,
    "vaila": 1027,
    "point": 1028,
    "vailable": 1029,
    "\u25810x8810": 1030,
    "\u25810xfeee01": 1031,
    "\u25810x9000": 1032,
    "default": 1033,
    "ea": 1034,
    "fb": 1035,
    "lor": 1036,
    "62": 1037,
    "pa": 1038,
    "\u25810x8ad0": 1039,
    "close": 1040,
    "not": 1041,
    "a80": 1042,
    "low": 1043,
    "\u25810x69": 1044,
    "ts": 1045,
    "3b": 1046,
    "\u2581available": 1047,
    "\u2581with": 1048,
    "\u2581i": 1049,
    "ov": 1050,
    "nw": 1051,
    "\u2581vari": 1052,
    "icon": 1053,
    "\u2581alter": 1054,
    "\u2581altered": 1055,
    "73": 1056,
    "\u25810x8a": 1057,
    "c2": 1058,
    "\u2581map": 1059,
    "eric": 1060,
    "\u25810x4c42c0": 1061,
    "resource": 1062,
    "04": 1063,
    "\u2581wa": 1064,
    "ity": 1065,
    "\u25810x50000": 1066,
    "ef": 1067,
    "\u2581instruction": 1068,
    "uage": 1069,
    "i64": 1070,
    "\u2581regist": 1071,
    "\u2581xmm": 1072,
    "\u2581xmmi64": 1073,
    "\u2581instructions": 1074,
    "\u2581floating": 1075,
    "\u25810x19": 1076,
    "\u25810x7ec": 1077,
    "nguage": 1078,
    "ion": 1079,
    "d3": 1080,
    "\u2581setfile": 1081,
    "\u25810x2c": 1082,
    "ub": 1083,
    "\u25810x24": 1084,
    "ilanguage": 1085,
    "\u25810x1211c90": 1086,
    "for": 1087,
    "lass": 1088,
    "erflow": 1089,
    "page": 1090,
    "\u25810x7830": 1091,
    "\u25810x4967": 1092,
    "\u2581th": 1093,
    "variable": 1094,
    "deb": 1095,
    "002": 1096,
    "\u2581e": 1097,
    "\u25810x44f8e0": 1098,
    "ition": 1099,
    "5e": 1100,
    "dition": 1101,
    "\u25810x12117f8": 1102,
    "c6": 1103,
    "lease": 1104,
    "f000": 1105,
    "fw": 1106,
    "\u2581wsprintfw": 1107,
    "\u2581tlssetvalue": 1108,
    "keyw": 1109,
    "\u2581ole": 1110,
    "und": 1111,
    "cec": 1112,
    "codepage": 1113,
    "\u2581tlsalloc": 1114,
    "\u2581isvalidcodepage": 1115,
    "number": 1116,
    "messagea": 1117,
    "\u25810x42a40": 1118,
    "\u2581nt": 1119,
    "adwork": 1120,
    "color": 1121,
    "61": 1122,
    "\u2581heapcreate": 1123,
    "\u25810x8b": 1124,
    "soft": 1125,
    "end": 1126,
    "ecute": 1127,
    "icro": 1128,
    "d000": 1129,
    "\u25810x1e": 1130,
    "icrosoft": 1131,
    "\u25810x1075": 1132,
    "lsfree": 1133,
    "\u2581shel": 1134,
    "\u25810x60": 1135,
    "itprocess": 1136,
    "\u25810x17": 1137,
    "pri": 1138,
    "bc0": 1139,
    "\u2581setthread": 1140,
    "ursor": 1141,
    "\u2581register": 1142,
    "ecount": 1143,
    "lus": 1144,
    "term": 1145,
    "\u25810x460": 1146,
    "\u25810x8d": 1147,
    "\u25810x46b0": 1148,
    "ies": 1149,
    "13": 1150,
    "vicec": 1151,
    "\u25810x82": 1152,
    "\u25810x429": 1153,
    "2000": 1154,
    "\u2581microsoft": 1155,
    "\u2581mapvirtual": 1156,
    "dc8": 1157,
    "\u25810x7810": 1158,
    "\u25810xfeee0008": 1159,
    "\u2581mapvirtualkeyw": 1160,
    "\u2581drive": 1161,
    "\u25810x38": 1162,
    "handlecount": 1163,
    "\u25810x28": 1164,
    "\u2581sethandlecount": 1165,
    "\u2581findfirst": 1166,
    "\u25810x1211b": 1167,
    "c5": 1168,
    "2a": 1169,
    "\u25810x1211908": 1170,
    "wait": 1171,
    "\u2581creates": 1172,
    "\u2581lstrcpy": 1173,
    "\u25810x12114b8": 1174,
    "\u25810x5265c14": 1175,
    "trib": 1176,
    "tribute": 1177,
    "7f": 1178,
    "realloc": 1179,
    "\u25810xfeee0009": 1180,
    "\u25810x5f5": 1181,
    "boar": 1182,
    "\u25810xfeee000a": 1183,
    "\u25810xfeee000b": 1184,
    "\u2581init": 1185,
    "\u25810x1211dd4": 1186,
    "7a": 1187,
    "\u25810x51a": 1188,
    "9f": 1189,
    "\u25810xfeee000c": 1190,
    "lock": 1191,
    "45": 1192,
    "\u2581gen": 1193,
    "\u25810x1211718": 1194,
    "\u2581freelibrary": 1195,
    "debug": 1196,
    "\u2581gette": 1197,
    "\u25810x7e8": 1198,
    "drl6660drl6660drl6660drl6660": 1199,
    "gi": 1200,
    "\u2581process32next": 1201,
    "\u2581findclose": 1202,
    "der": 1203,
    "\u25810xfeee000d": 1204,
    "\u25810xfeee0010": 1205,
    "\u25810xfeee000e": 1206,
    "\u2581flsfree": 1207,
    "\u25810xfeee0014": 1208,
    "ttribute": 1209,
    "\u25810xfeee0015": 1210,
    "\u25810xfeee000f": 1211,
    "\u25810xfeee0013": 1212,
    "\u25813": 1213,
    "\u25810xfeee0012": 1214,
    "\u25810xfeee0016": 1215,
    "\u25810x2e": 1216,
    "\u25810xfeee0011": 1217,
    "pal": 1218,
    "palet": 1219,
    "\u2581delete": 1220,
    "ay": 1221,
    "\u2581currentversion": 1222,
    "arg": 1223,
    "\u25810x1211758": 1224,
    "\u25810x12118": 1225,
    "cursor": 1226,
    "af": 1227,
    "div": 1228,
    "\u25810x40933d": 1229,
    "\u25810x40933e": 1230,
    "\u2581code": 1231,
    "\u25810x40933f": 1232,
    "\u25810x409340": 1233,
    "\u25810x409341": 1234,
    "\u25810x409342": 1235,
    "\u25810x1211e04": 1236,
    "\u25810x409343": 1237,
    "input": 1238,
    "ockob": 1239,
    "\u2581getstockob": 1240,
    "\u25810x11": 1241,
    "930": 1242,
    "ger": 1243,
    "\u2581generic": 1244,
    "\u2581variant": 1245,
    "\u25810x53": 1246,
    "oper": 1247,
    "fileattribute": 1248,
    "\u2581virtualfree": 1249,
    "\u2581st": 1250,
    "ision": 1251,
    "5f": 1252,
    "9000": 1253,
    "\u2581gettemp": 1254,
    "86": 1255,
    "\u25810x2000": 1256,
    "42": 1257,
    "\u25810x22": 1258,
    "\u2581release": 1259,
    "gear": 1260,
    "\u2581codegear": 1261,
    "1d": 1262,
    "\u25810x5f500000": 1263,
    "ero": 1264,
    "\u25810x15": 1265,
    "variant": 1266,
    "b000": 1267,
    "ee0": 1268,
    "\u2581setfilepointer": 1269,
    "\u25810x16": 1270,
    "f10000": 1271,
    "din": 1272,
    "vice": 1273,
    "\u2581readfile": 1274,
    "operation": 1275,
    "load": 1276,
    "your": 1277,
    "\u25810x4ab0": 1278,
    "\u25810x7f00": 1279,
    "\u2581lstrlenw": 1280,
    "508": 1281,
    "\u2581con": 1282,
    "\u25810x77f10000": 1283,
    "51": 1284,
    "\u2581loadcursor": 1285,
    "board": 1286,
    "\u25810x1f": 1287,
    "\u25810x7aa0": 1288,
    "\u2581heaprealloc": 1289,
    "\u2581getversionexw": 1290,
    "180": 1291,
    "bstr": 1292,
    "bstrfrom": 1293,
    "\u2581varbstrfrom": 1294,
    "\u25810x169bf": 1295,
    "\u2581createfilew": 1296,
    "008": 1297,
    "\u25810x69000000": 1298,
    "\u25810x79d0": 1299,
    "\u2581writefile": 1300,
    "\u25810x4c32": 1301,
    "\u2581regopenkeyexa": 1302,
    "\u25810x43b7": 1303,
    "d7": 1304,
    "780": 1305,
    "004": 1306,
    "b04": 1307,
    "\u2581app": 1308,
    "\u2581getuser": 1309,
    "\u25810x1a": 1310,
    "lp": 1311,
    "\u2581dra": 1312,
    "\u25810x40a5dc": 1313,
    "\u25810x40a5cc": 1314,
    "\u25810x3f75f": 1315,
    "\u2581getdc": 1316,
    "\u25810xfeee0017": 1317,
    "\u2581exitprocess": 1318,
    "\u2581clo": 1319,
    "\u2581getde": 1320,
    "pro": 1321,
    "\u25810xfeee0018": 1322,
    "directories": 1323,
    "\u2581getfile": 1324,
    "6e": 1325,
    "\u25810x4015": 1326,
    "\u25810xfeee0019": 1327,
    "condition": 1328,
    "27": 1329,
    "form": 1330,
    "63": 1331,
    "480": 1332,
    "ame": 1333,
    "1f": 1334,
    "help": 1335,
    "\u25810x1211dc8": 1336,
    "older": 1337,
    "sup": 1338,
    "vicecaps": 1339,
    "\u2581getdevicecaps": 1340,
    "\u2581globalalloc": 1341,
    "\u2581setdefault": 1342,
    "dlldirectories": 1343,
    "\u2581setdefaultdlldirectories": 1344,
    "53": 1345,
    "sti": 1346,
    "\u2581out": 1347,
    "\u2581findfirstfilew": 1348,
    "\u2581fi": 1349,
    "ho": 1350,
    "\u2581malloc": 1351,
    "\u2581deletecriticalsection": 1352,
    "\u25810x700c": 1353,
    "lphi": 1354,
    "\u2581delphi": 1355,
    "off": 1356,
    "\u2581loadicon": 1357,
    "net": 1358,
    "c1": 1359,
    "\u2581file": 1360,
    "\u25810x8f": 1361,
    "\u2581shell32": 1362,
    "mage": 1363,
    "29": 1364,
    "\u25810x409": 1365,
    "map": 1366,
    "\u2581mon": 1367,
    "\u25810x1211f8": 1368,
    "\u25810x101": 1369,
    "yscolor": 1370,
    "\u2581getsyscolor": 1371,
    "\u25810x47b0": 1372,
    "ervice": 1373,
    "fo": 1374,
    "tes": 1375,
    "vie": 1376,
    "\u25810x704c": 1377,
    "\u25810x44f928": 1378,
    "\u25810x708c": 1379,
    "console": 1380,
    "2b": 1381,
    "\u2581exe": 1382,
    "\u25810x68": 1383,
    "class": 1384,
    "\u25810x430": 1385,
    "6b": 1386,
    "yn": 1387,
    "chan": 1388,
    "bit": 1389,
    "\u2581wait": 1390,
    "onts": 1391,
    "\u2581fonts": 1392,
    "ref": 1393,
    "\u2581execute": 1394,
    "urity": 1395,
    "call": 1396,
    "\u25810x58": 1397,
    "280": 1398,
    "\u2581process32nextw": 1399,
    "\u25810x79f0": 1400,
    "stitu": 1401,
    "ubstitu": 1402,
    "ubstitutes": 1403,
    "\u2581fontsubstitutes": 1404,
    "23": 1405,
    "\u25810x423": 1406,
    "ag": 1407,
    "refer": 1408,
    "\u2581getversionexa": 1409,
    "e3": 1410,
    "57": 1411,
    "\u25810x40152c": 1412,
    "folder": 1413,
    "\u25810x1211f30": 1414,
    "6a": 1415,
    "\u25810x1211fd8": 1416,
    "\u25810x7850": 1417,
    "security": 1418,
    "\u25810x67": 1419,
    "offile": 1420,
    "rw": 1421,
    "isting": 1422,
    "\u2581releasedc": 1423,
    "\u25810x3e": 1424,
    "640": 1425,
    "\u25810x3c": 1426,
    "\u2581closet": 1427,
    "\u2581closethreadpool": 1428,
    "\u2581createthreadpool": 1429,
    "\u25810x7718": 1430,
    "21": 1431,
    "ory": 1432,
    "\u25810x7700": 1433,
    "\u25810x21": 1434,
    "back": 1435,
    "oct": 1436,
    "\u25810x567": 1437,
    "\u25810x1211f7c": 1438,
    "econ": 1439,
    "\u25810x410": 1440,
    "c7": 1441,
    "sc": 1442,
    "59": 1443,
    "own": 1444,
    "cy": 1445,
    "\u25810xfeee001a": 1446,
    "\u2581loadlibraryw": 1447,
    "iv": 1448,
    "\u25810x1211fd0": 1449,
    "isk": 1450,
    "ool": 1451,
    "ynch": 1452,
    "prot": 1453,
    "\u25810xa0": 1454,
    "mem": 1455,
    "\u25810x8cc0": 1456,
    "pare": 1457,
    "5d": 1458,
    "9b": 1459,
    "e44": 1460,
    "numberof": 1461,
    "\u25810x4094": 1462,
    "\u2581initterm": 1463,
    "ta": 1464,
    "\u2581crt": 1465,
    "\u2581waitfor": 1466,
    "\u25810x188": 1467,
    "\u2581existing": 1468,
    "ename": 1469,
    "\u25810x43540": 1470,
    "\u2581synch": 1471,
    "\u25810x4c4308": 1472,
    "\u2581compare": 1473,
    "\u25810x434": 1474,
    "\u25810x7712": 1475,
    "\u25810x7714": 1476,
    "eent": 1477,
    "\u25810x8a40": 1478,
    "\u25810x4e5": 1479,
    "\u25810x64": 1480,
    "\u25810x1211ef0": 1481,
    "metri": 1482,
    "c08": 1483,
    "redu": 1484,
    "threadp": 1485,
    "referredu": 1486,
    "threadpreferredu": 1487,
    "threadpreferreduilanguage": 1488,
    "threadpreferreduilanguages": 1489,
    "\u2581getnumberof": 1490,
    "\u2581getnumberofconsole": 1491,
    "5000": 1492,
    "ct": 1493,
    "\u25810x1211b04": 1494,
    "\u25810x5a": 1495,
    "\u25810x1211cc0": 1496,
    "\u25810x29": 1497,
    "\u2581createfilea": 1498,
    "\u25810x4f": 1499,
    "\u25810x7710": 1500,
    "hec": 1501,
    "hot": 1502,
    "\u2581getw": 1503,
    "ray": 1504,
    "\u25810xfeee001b": 1505,
    "2d": 1506,
    "\u2581image": 1507,
    "300": 1508,
    "b40": 1509,
    "metrics": 1510,
    "\u2581getsystemmetrics": 1511,
    "protect": 1512,
    "sn": 1513,
    "\u25810xcc": 1514,
    "\u2581comparestring": 1515,
    "6d": 1516,
    "inputs": 1517,
    "\u2581getnumberofconsoleinputs": 1518,
    "array": 1519,
    "\u25810x34": 1520,
    "\u25810x420": 1521,
    "allock": 1522,
    "\u2581ole32": 1523,
    "5a": 1524,
    "\u2581sat": 1525,
    "\u25810xfeee001c": 1526,
    "\u25810x3000": 1527,
    "stry": 1528,
    "ata": 1529,
    "heck": 1530,
    "\u2581getsysteminfo": 1531,
    "\u25810x214": 1532,
    "2f": 1533,
    "\u25810x12119c0": 1534,
    "5b": 1535,
    "938": 1536,
    "atex": 1537,
    "you": 1538,
    "\u25810x1210f8": 1539,
    "\u2581createa": 1540,
    "\u2581virtualprotect": 1541,
    "\u2581nov": 1542,
    "\u2581globallock": 1543,
    "\u25810x10000": 1544,
    "\u2581or": 1545,
    "\u2581sep": 1546,
    "\u25810x1211528": 1547,
    "\u25810x1211948": 1548,
    "\u25810x25": 1549,
    "\u25810xfeee001d": 1550,
    "informationby": 1551,
    "\u2581up": 1552,
    "\u2581aug": 1553,
    "ember": 1554,
    "\u25810x1b": 1555,
    "tin": 1556,
    "callback": 1557,
    "\u2581wcs": 1558,
    "\u25810x198": 1559,
    "\u2581oct": 1560,
    "\u2581setthreadpool": 1561,
    "de9": 1562,
    "ries": 1563,
    "teent": 1564,
    "apshot": 1565,
    "teentries": 1566,
    "paletteentries": 1567,
    "c3": 1568,
    "help32": 1569,
    "errormode": 1570,
    "oolhelp32": 1571,
    "\u2581seterrormode": 1572,
    "\u2581dec": 1573,
    "\u2581sun": 1574,
    "snapshot": 1575,
    "oolhelp32snapshot": 1576,
    "\u2581createtoolhelp32snapshot": 1577,
    "trol": 1578,
    "\u25810x84": 1579,
    "\u25810x1210ec": 1580,
    "uary": 1581,
    "\u2581may": 1582,
    "\u25810x1211f48": 1583,
    "sday": 1584,
    "\u2581tue": 1585,
    "\u2581wed": 1586,
    "dinal": 1587,
    "\u25810x4371": 1588,
    "files": 1589,
    "\u25814": 1590,
    "\u2581ordinal": 1591,
    "\u25810x7930": 1592,
    "\u2581imagelist": 1593,
    "\u25810xffff": 1594,
    "\u2581wc": 1595,
    "suped": 1596,
    "lip": 1597,
    "6f": 1598,
    "\u2581windowsnt": 1599,
    "fileattributesw": 1600,
    "\u25810x1211728": 1601,
    "slen": 1602,
    "\u25810x19a": 1603,
    "\u2581getsystempaletteentries": 1604,
    "\u2581wcslen": 1605,
    "8a": 1606,
    "zero": 1607,
    "fearray": 1608,
    "out": 1609,
    "ust": 1610,
    "\u2581floatingpoint": 1611,
    "overflow": 1612,
    "\u2581invalidvariant": 1613,
    "byzero": 1614,
    "isionbyzero": 1615,
    "cadwork": 1616,
    "bool": 1617,
    "initializ": 1618,
    "\u2581varr": 1619,
    "4fromstr": 1620,
    "d08": 1621,
    "text": 1622,
    "\u2581creat": 1623,
    "\u2581wcscpy": 1624,
    "orsa": 1625,
    "188": 1626,
    "\u25810x7ee0": 1627,
    "c9": 1628,
    "eext": 1629,
    "b80": 1630,
    "\u2581registerclass": 1631,
    "\u2581process32first": 1632,
    "\u25810x4600": 1633,
    "\u25810x1d": 1634,
    "b08": 1635,
    "\u2581getd": 1636,
    "\u25810x7ee00": 1637,
    "\u25810x1210900": 1638,
    "orsafearray": 1639,
    "\u25810xfeee001e": 1640,
    "\u25810x1210d": 1641,
    "\u25810x23": 1642,
    "comp": 1643,
    "\u25810x1211f20": 1644,
    "\u25810xfeee001f": 1645,
    "lation": 1646,
    "ownload": 1647,
    "41": 1648,
    "cf": 1649,
    "\u25810xfeee005f": 1650,
    "\u25810x98": 1651,
    "\u25810xfeee0020": 1652,
    "view": 1653,
    "stringa": 1654,
    "d04": 1655,
    "\u25810x59": 1656,
    "\u2581olea": 1657,
    "yarg": 1658,
    "\u2581lstrcmp": 1659,
    "localename": 1660,
    "bu": 1661,
    "eextra": 1662,
    "\u25810x566": 1663,
    "\u25810x2d": 1664,
    "\u2581loadcursora": 1665,
    "ace": 1666,
    "320": 1667,
    "\u25810x7704": 1668,
    "a04": 1669,
    "\u25810xfeee0040": 1670,
    "og": 1671,
    "708": 1672,
    "\u2581getmess": 1673,
    "\u25810x7de4": 1674,
    "\u25810x7de5": 1675,
    "iled": 1676,
    "\u25810x4710": 1677,
    "\u25810xfeee008b": 1678,
    "\u25810x83": 1679,
    "ast": 1680,
    "\u25810x7c000000": 1681,
    "lect": 1682,
    "660": 1683,
    "ive": 1684,
    "\u25810x94": 1685,
    "\u25810x181b": 1686,
    "\u25810x8e": 1687,
    "\u2581pr": 1688,
    "ageextra": 1689,
    "ageextrainfo": 1690,
    "\u2581getmessageextrainfo": 1691,
    "d80": 1692,
    "\u25810x1211bc0": 1693,
    "ca": 1694,
    "emap": 1695,
    "gical": 1696,
    "logical": 1697,
    "\u2581getlogical": 1698,
    "ac0": 1699,
    "system": 1700,
    "c04": 1701,
    "\u2581createw": 1702,
    "f08": 1703,
    "\u2581un": 1704,
    "\u25810x37": 1705,
    "cd": 1706,
    "0000000": 1707,
    "82": 1708,
    "\u25810x2f": 1709,
    "\u2581rt": 1710,
    "\u25810x43500": 1711,
    "\u2581control": 1712,
    "a256": 1713,
    "\u2581getenvironment": 1714,
    "\u2581sha256": 1715,
    "lush": 1716,
    "\u2581tr": 1717,
    "\u2581rtl": 1718,
    "\u25810x1211a": 1719,
    "\u2581fib": 1720,
    "\u2581fibers": 1721,
    "\u25810x1210e8": 1722,
    "\u2581gettempw": 1723,
    "\u25810x1211ee0": 1724,
    "spec": 1725,
    "\u2581registry": 1726,
    "\u25810x57": 1727,
    "cb": 1728,
    "c000": 1729,
    "\u25810x1211f28": 1730,
    "de0": 1731,
    "ink": 1732,
    "formatex": 1733,
    "buff": 1734,
    "\u2581cop": 1735,
    "ask": 1736,
    "\u25810x51af": 1737,
    "\u25810x12119ac": 1738,
    "\u25810x7708": 1739,
    "94c": 1740,
    "eek": 1741,
    "a50": 1742,
    "xa": 1743,
    "\u2581shget": 1744,
    "\u25810xfde9": 1745,
    "\u2581inst": 1746,
    "\u25810x8af0": 1747,
    "ull": 1748,
    "clus": 1749,
    "memory": 1750,
    "\u25810x1211958": 1751,
    "am": 1752,
    "bits": 1753,
    "tem": 1754,
    "\u25810x42b40": 1755,
    "\u2581copy": 1756,
    "\u25810x2439": 1757,
    "clusive": 1758,
    "4f": 1759,
    "lockex": 1760,
    "rwlockex": 1761,
    "\u25810x40933c": 1762,
    "rwlockexclusive": 1763,
    "\u25810x47c0": 1764,
    "\u25810xa000": 1765,
    "rip": 1766,
    "\u2581createsemap": 1767,
    "ver": 1768,
    "\u25810x409344": 1769,
    "\u25810x31": 1770,
    "scrip": 1771,
    "\u25810x408": 1772,
    "\u25810x1211e28": 1773,
    "f04": 1774,
    "tor": 1775,
    "\u25810x7ec0": 1776,
    "\u2581drag": 1777,
    "\u25810x36": 1778,
    "\u25810x5638": 1779,
    "\u25810x4238": 1780,
    "\u25810x7ad0": 1781,
    "\u25810x43640": 1782,
    "\u25810x85": 1783,
    "esource": 1784,
    "\u25810x1210e0": 1785,
    "988": 1786,
    "\u25810x1804": 1787,
    "\u25810x2b": 1788,
    "\u25810x519": 1789,
    "ctl32": 1790,
    "\u2581comctl32": 1791,
    "\u25810x1211e2c": 1792,
    "\u25810x35": 1793,
    "\u2581select": 1794,
    "descrip": 1795,
    "\u25810x7cd0": 1796,
    "9c1": 1797,
    "\u25810x1211748": 1798,
    "93c": 1799,
    "\u2581flush": 1800,
    "fac": 1801,
    "service": 1802,
    "ee8": 1803,
    "\u25810x40a3": 1804,
    "e80": 1805,
    "descriptor": 1806,
    "securitydescriptor": 1807,
    "\u25810x1211f64": 1808,
    "fec": 1809,
    "\u25810x51": 1810,
    "\u25810x4418": 1811,
    "clip": 1812,
    "\u25810x7910": 1813,
    "\u2581error": 1814,
    "conditionvariable": 1815,
    "5500000": 1816,
    "\u25810x107568": 1817,
    "\u25810x7d10": 1818,
    "\u2581loadicona": 1819,
    "the": 1820,
    "mask": 1821,
    "aaaa": 1822,
    "\u25810x4228": 1823,
    "\u25810x1211fcc": 1824,
    "aff": 1825,
    "\u25810x7890": 1826,
    "dater": 1827,
    "\u25810x88a0": 1828,
    "\u2581be": 1829,
    "\u25810x496760": 1830,
    "\u25810x484": 1831,
    "\u2581wnet": 1832,
    "full": 1833,
    "change": 1834,
    "\u25810x4c32c0": 1835,
    "ial": 1836,
    "\u2581ntdll": 1837,
    "\u2581output": 1838,
    "\u2581outputdebug": 1839,
    "gin": 1840,
    "937": 1841,
    "\u25810x91": 1842,
    "\u25810x1210e4": 1843,
    "\u25810x7df0": 1844,
    "keyboard": 1845,
    "vile": 1846,
    "\u2581to": 1847,
    "ain": 1848,
    "\u25810x4d70": 1849,
    "46": 1850,
    "\u25810x1210f4": 1851,
    "ryp": 1852,
    "bc8": 1853,
    "f74": 1854,
    "sing": 1855,
    "688": 1856,
    "\u2581initializes": 1857,
    "leob": 1858,
    "\u2581ext": 1859,
    "\u2581getfileattributesw": 1860,
    "\u258132": 1861,
    "\u25810x40f6": 1862,
    "dac": 1863,
    "debugger": 1864,
    "debuggerpresent": 1865,
    "move": 1866,
    "\u2581enum": 1867,
    "\u25810x7de8": 1868,
    "\u25810x4615": 1869,
    "ence": 1870,
    "inst": 1871,
    "\u25810x3d": 1872,
    "\u25810x7de9": 1873,
    "\u25810x42332": 1874,
    "7000": 1875,
    "ut32": 1876,
    "\u2581oleaut32": 1877,
    "980": 1878,
    "drive": 1879,
    "\u25810x4308": 1880,
    "\u2581getkeyboard": 1881,
    "buffers": 1882,
    "\u25810x42990": 1883,
    "vio": 1884,
    "\u25810xe0": 1885,
    "\u25810x39": 1886,
    "\u2581peek": 1887,
    "208": 1888,
    "\u2581isdebuggerpresent": 1889,
    "43": 1890,
    "\u25810x4730": 1891,
    "privile": 1892,
    "\u25810x7dec": 1893,
    "\u25810x7ded": 1894,
    "\u2581getthreadpreferreduilanguages": 1895,
    "e000": 1896,
    "\u2581gettime": 1897,
    "\u2581cryp": 1898,
    "\u25810x1212000": 1899,
    "\u25810x63": 1900,
    "hen": 1901,
    "threadpool": 1902,
    "\u25810x1211fd4": 1903,
    "\u25810x120fa": 1904,
    "\u25810x3b": 1905,
    "privilege": 1906,
    "\u25810x4790": 1907,
    "\u2581findresource": 1908,
    "lw": 1909,
    "\u25810x99": 1910,
    "\u25810x3a": 1911,
    "section": 1912,
    "endoffile": 1913,
    "\u2581ini": 1914,
    "668": 1915,
    "\u2581sn": 1916,
    "\u2581star": 1917,
    "\u25810x1210f0": 1918,
    "een": 1919,
    "\u25810x7df1": 1920,
    "\u25810x1210ee": 1921,
    "\u25810x46e0": 1922,
    "380": 1923,
    "32cs": 1924,
    "\u2581snap": 1925,
    "\u2581th32cs": 1926,
    "\u25810x1211f00": 1927,
    "\u25818": 1928,
    "any": 1929,
    "namea": 1930,
    "e48": 1931,
    "link": 1932,
    "\u2581rand": 1933,
    "ati": 1934,
    "\u25810x8a80": 1935,
    "violation": 1936,
    "e88": 1937,
    "\u25810x8811": 1938,
    "\u25810x1211f38": 1939,
    "dateresource": 1940,
    "\u2581z": 1941,
    "oy": 1942,
    "\u25810x67000000": 1943,
    "\u25810x3e8": 1944,
    "\u25810x1211508": 1945,
    "isp": 1946,
    "4e": 1947,
    "qui": 1948,
    "\u2581createwindow": 1949,
    "\u25810x569b": 1950,
    "\u25810x563868": 1951,
    "stroy": 1952,
    "388": 1953,
    "\u2581peekmessagea": 1954,
    "\u2581outputdebugstringa": 1955,
    "messagew": 1956,
    "drl6660drl6660drl6660drl6660drl6660drl6660drl6660drl6660": 1957,
    "\u25810x1211e08": 1958,
    "freesp": 1959,
    "termin": 1960,
    "\u2581getdisk": 1961,
    "\u2581getdiskfreesp": 1962,
    "\u25810x48f8": 1963,
    "\u2581process32firstw": 1964,
    "\u25810x437808": 1965,
    "\u25810x567a40": 1966,
    "\u25810x1211308": 1967,
    "\u25810x1211578": 1968,
    "\u25810x437806": 1969,
    "\u25810x43780a": 1970,
    "\u25810x43780c": 1971,
    "\u25810x43780e": 1972,
    "\u25810x437810": 1973,
    "\u25810x437812": 1974,
    "\u25810x437814": 1975,
    "\u25810x437816": 1976,
    "\u25810x437818": 1977,
    "\u25810x43781a": 1978,
    "\u25810x43781c": 1979,
    "\u25810x43781e": 1980,
    "\u25810x437b": 1981,
    "\u25810xfeee0021": 1982,
    "a000": 1983,
    "\u25810xa1": 1984,
    "ip": 1985,
    "\u2581termin": 1986,
    "\u25810xfeee0022": 1987,
    "cad": 1988,
    "\u2581getwindows": 1989,
    "trl": 1990,
    "\u25810x42900": 1991,
    "variablea": 1992,
    "\u2581crypt": 1993,
    "uter": 1994,
    "\u25810xfeee0027": 1995,
    "singleob": 1996,
    "\u25810x7d00": 1997,
    "\u25810x1211928": 1998,
    "main": 1999,
    "variablew": 2000,
    "\u25810x1211e34": 2001,
    "\u25810x40b": 2002,
    "\u25810x80000000": 2003,
    "\u2581q": 2004,
    "\u25810x7d95": 2005,
    "\u25810x40a3d": 2006,
    "\u25810x43b6": 2007,
    "computer": 2008,
    "rac": 2009,
    "\u25810xfeee0024": 2010,
    "\u25810xfeee0026": 2011,
    "fe8": 2012,
    "\u2581update": 2013,
    "b5c": 2014,
    "afile": 2015,
    "\u2581begin": 2016,
    "\u25810xfeee0023": 2017,
    "\u25810x7d94": 2018,
    "ans": 2019,
    "\u25810x1211f2c": 2020,
    "vol": 2021,
    "\u25810x97": 2022,
    "\u2581mul": 2023,
    "\u2581muldiv": 2024,
    "\u25810xfeee0025": 2025,
    "\u2581waitforsingleob": 2026,
    "\u25810x437a": 2027,
    "acqui": 2028,
    "\u2581snapprocess": 2029,
    "\u25810x4229": 2030,
    "\u2581gol": 2031,
    "\u2581lstrcpynw": 2032,
    "4b": 2033,
    "\u2581golf": 2034,
    "want": 2035,
    "\u2581lstrcpyna": 2036,
    "108": 2037,
    "hor": 2038,
    "bar": 2039,
    "47": 2040,
    "lwapi": 2041,
    "\u2581shlwapi": 2042,
    "\u2581remove": 2043,
    "ec0": 2044,
    "\u25810x1211780": 2045,
    "las": 2046,
    "\u2581getdiskfreespac": 2047,
    "a08": 2048,
    "ow64": 2049,
    "\u25810xff8": 2050,
    "\u25810x42e": 2051,
    "ken": 2052,
    "f0000": 2053,
    "\u2581u": 2054,
    "ton": 2055,
    "brus": 2056,
    "ec8": 2057,
    "host": 2058,
    "\u2581accessviolation": 2059,
    "ym": 2060,
    "580": 2061,
    "7e0": 2062,
    "\u25810x44d4": 2063,
    "\u25810x5b": 2064,
    "\u25810x55": 2065,
    "nal": 2066,
    "eexa": 2067,
    "ab8": 2068,
    "\u2581draw": 2069,
    "\u25810x40f": 2070,
    "lex": 2071,
    "nex": 2072,
    "volu": 2073,
    "a84": 2074,
    "\u2581getlocaleinfo": 2075,
    "uilanguage": 2076,
    "\u2581comparestringex": 2077,
    "f80": 2078,
    "\u2581getlocaleinfoex": 2079,
    "palette": 2080,
    "\u25810x1211cec": 2081,
    "volume": 2082,
    "\u2581createprocess": 2083,
    "stre": 2084,
    "\u25810x4317": 2085,
    "\u2581err": 2086,
    "\u25810x202": 2087,
    "\u2581em": 2088,
    "\u25810xb8": 2089,
    "\u2581show": 2090,
    "328": 2091,
    "\u25810x409a": 2092,
    "\u2581lstrcmpa": 2093,
    "\u25810x40a9": 2094,
    "initialize": 2095,
    "74c": 2096,
    "\u2581getuserdefault": 2097,
    "\u25810x26": 2098,
    "168": 2099,
    "a00": 2100,
    "a88": 2101,
    "pack": 2102,
    "\u2581ass": 2103,
    "\u2581deletefilea": 2104,
    "ong": 2105,
    "\u25810x1211efc": 2106,
    "\u2581getsystemdirectorya": 2107,
    "184": 2108,
    "\u25810x80c0": 2109,
    "\u2581loadcursorw": 2110,
    "econdition": 2111,
    "\u2581run": 2112,
    "metafile": 2113,
    "\u25810x8001": 2114,
    "brush": 2115,
    "acquires": 2116,
    "\u25810x181c": 2117,
    "ly": 2118,
    "head": 2119,
    "econditionvariable": 2120,
    "data": 2121,
    "acquiresrwlockexclusive": 2122,
    "\u25810x4bc": 2123,
    "\u25810x92": 2124,
    "\u25810x3f75f60": 2125,
    "\u25810x7f0": 2126,
    "\u2581getthreaduilanguage": 2127,
    "ret": 2128,
    "\u2581getmain": 2129,
    "\u25810x7be0": 2130,
    "\u25810x7540": 2131,
    "ang": 2132,
    "ill": 2133,
    "\u2581prec": 2134,
    "\u2581point": 2135,
    "\u2581errata": 2136,
    "\u2581precision": 2137,
    "\u2581localfree": 2138,
    "\u25810xfee": 2139,
    "\u2581extrac": 2140,
    "\u2581getfileinformationby": 2141,
    "\u2581exception": 2142,
    "\u25810x65": 2143,
    "ocket": 2144,
    "\u25810x47a0": 2145,
    "\u25810x4620": 2146,
    "\u2581loadiconw": 2147,
    "keall": 2148,
    "\u2581wakeall": 2149,
    "\u2581wakeallconditionvariable": 2150,
    "wow64": 2151,
    "\u2581globalfree": 2152,
    "\u2581findnext": 2153,
    "valu": 2154,
    "\u25810x7e80": 2155,
    "7c8": 2156,
    "paint": 2157,
    "\u25810x40a93": 2158,
    "\u25810xfeee0028": 2159,
    "\u2581type": 2160,
    "100": 2161,
    "\u25810x419c": 2162,
    "\u2581the": 2163,
    "linkw": 2164,
    "b44": 2165,
    "\u2581fe": 2166,
    "atch": 2167,
    "mute": 2168,
    "\u25810x3f75f30": 2169,
    "c80": 2170,
    "\u2581send": 2171,
    "\u25810x44f910": 2172,
    "e4c": 2173,
    "\u2581getdate": 2174,
    "cc8": 2175,
    "\u25810x42d4": 2176,
    "\u2581outof": 2177,
    "barcad": 2178,
    "barcadero": 2179,
    "\u2581embarcadero": 2180,
    "volumeinformation": 2181,
    "\u2581mar": 2182,
    "\u25810x7e74": 2183,
    "\u25810x7e75": 2184,
    "\u2581getvolumeinformation": 2185,
    "\u25810x430880": 2186,
    "\u25810x508": 2187,
    "788": 2188,
    "ument": 2189,
    "\u25810x5d": 2190,
    "\u25810x4554": 2191,
    "\u25810x1211c04": 2192,
    "package": 2193,
    "failed": 2194,
    "\u25810x7e78": 2195,
    "ternal": 2196,
    "\u25810x7e79": 2197,
    "licence": 2198,
    "\u25810xfeee0046": 2199,
    "584": 2200,
    "\u25810x7e7c": 2201,
    "\u25810x7e7d": 2202,
    "\u25810xfeee0045": 2203,
    "viewoffile": 2204,
    "\u25810x120f8": 2205,
    "\u25810x121193c": 2206,
    "clipboard": 2207,
    "typ": 2208,
    "packageid": 2209,
    "\u2581getcurrentpackageid": 2210,
    "cef": 2211,
    "e00": 2212,
    "c88": 2213,
    "\u2581feb": 2214,
    "\u25810xffe1": 2215,
    "6000": 2216,
    "\u2581gettempa": 2217,
    "\u25810x1211d04": 2218,
    "\u25810xfffe": 2219,
    "ied": 2220,
    "\u25810xc00": 2221,
    "\u25810xffe0": 2222,
    "\u25810x7e81": 2223,
    "urn": 2224,
    "\u258120": 2225,
    "fileattributesa": 2226,
    "\u25810xfeee0044": 2227,
    "ccess": 2228,
    "\u25810x1009": 2229,
    "\u25810xffe4": 2230,
    "\u2581createthread": 2231,
    "creating": 2232,
    "\u25810x1211a04": 2233,
    "\u25810xd0": 2234,
    "\u25810x7e85": 2235,
    "\u25810x42992": 2236,
    "ymbo": 2237,
    "ymbolic": 2238,
    "\u25810x7702": 2239,
    "\u25810x7705": 2240,
    "\u25810x770c": 2241,
    "\u25810x7715": 2242,
    "listhead": 2243,
    "\u2581initializeslisthead": 2244,
    "\u25810x4bd0": 2245,
    "\u25810x7e84": 2246,
    "\u25810x4df0": 2247,
    "ymboliclinkw": 2248,
    "\u2581createsymboliclinkw": 2249,
    "echeck": 2250,
    "\u25810x52660": 2251,
    "\u25810x52662": 2252,
    "lec": 2253,
    "oyou": 2254,
    "\u2581septem": 2255,
    "\u25810x1076": 2256,
    "\u25810x1211e30": 2257,
    "\u25810x6d": 2258,
    "\u2581iswow64": 2259,
    "\u2581iswow64process": 2260,
    "e08": 2261,
    "\u2581msvcr": 2262,
    "essage": 2263,
    "\u25810xffbb": 2264,
    "\u25810xbc": 2265,
    "\u25810xffbe": 2266,
    "f88": 2267,
    "\u25810x1005": 2268,
    "\u25810xffba": 2269,
    "\u25810xffbc": 2270,
    "\u25810xffbd": 2271,
    "\u25810x1211f88": 2272,
    "\u25810xa7": 2273,
    "\u25810xffb7": 2274,
    "\u25810xffb8": 2275,
    "bound": 2276,
    "\u25810xffb9": 2277,
    "\u25810xfffd": 2278,
    "\u2581febr": 2279,
    "\u25810x1210ed": 2280,
    "ober": 2281,
    "pril": 2282,
    "when": 2283,
    "\u2581apr": 2284,
    "\u2581april": 2285,
    "\u25810xffbf": 2286,
    "\u25810xfffc": 2287,
    "\u2581august": 2288,
    "\u2581november": 2289,
    "\u2581september": 2290,
    "ornumber": 2291,
    "\u2581loadlibraryexa": 2292,
    "\u2581getcurrentprocessornumber": 2293,
    "urns": 2294,
    "returns": 2295,
    "processwrite": 2296,
    "whencallback": 2297,
    "\u2581flushprocesswrite": 2298,
    "\u2581setthreadpoolwait": 2299,
    "whencallbackreturns": 2300,
    "\u2581closethreadpoolwait": 2301,
    "\u2581createthreadpoolwait": 2302,
    "\u2581flushprocesswritebuffers": 2303,
    "\u2581freelibrarywhencallbackreturns": 2304,
    "horeexw": 2305,
    "callbacks": 2306,
    "\u25810x65500000": 2307,
    "timercallbacks": 2308,
    "\u2581waitforthreadpool": 2309,
    "\u2581createsemaphoreexw": 2310,
    "\u2581setthreadpooltimer": 2311,
    "\u2581closethreadpooltimer": 2312,
    "\u2581createthreadpooltimer": 2313,
    "\u2581waitforthreadpooltimercallbacks": 2314,
    "\u25810x1211c80": 2315,
    "den": 2316,
    "\u2581fmode": 2317,
    "\u2581shellex": 2318,
    "f00": 2319,
    "\u2581crtdll": 2320,
    "\u25810xffb6": 2321,
    "affin": 2322,
    "itymask": 2323,
    "affinitymask": 2324,
    "484": 2325,
    "\u2581div": 2326,
    "\u25810xfeee0029": 2327,
    "b7c": 2328,
    "une": 2329,
    "\u2581lock": 2330,
    "\u2581outofmemory": 2331,
    "\u25810x4290": 2332,
    "\u25810xfeee010": 2333,
    "\u2581chi": 2334,
    "anuary": 2335,
    "\u2581march": 2336,
    "\u25810xffa0": 2337,
    "\u2581february": 2338,
    "uly": 2339,
    "index": 2340,
    "\u25810xfffb": 2341,
    "\u2581december": 2342,
    "\u2581findwindow": 2343,
    "\u2581getlogicaldrive": 2344,
    "\u25810x4630": 2345,
    "\u2581october": 2346,
    "\u2581getfileinformationbyhandl": 2347,
    "\u2581thu": 2348,
    "nesday": 2349,
    "\u25810x7090": 2350,
    "\u25810x7340": 2351,
    "\u25810xffb5": 2352,
    "\u2581monday": 2353,
    "\u2581sunday": 2354,
    "\u2581tuesday": 2355,
    "\u2581wednesday": 2356,
    "ursday": 2357,
    "\u2581thursday": 2358,
    "\u2581fri": 2359,
    "\u25810xffa1": 2360,
    "\u2581createpalette": 2361,
    "iday": 2362,
    "urday": 2363,
    "\u2581seten": 2364,
    "\u25810xffa2": 2365,
    "\u2581friday": 2366,
    "\u2581saturday": 2367,
    "ackg": 2368,
    "\u25810xffa3": 2369,
    "588": 2370,
    "a44": 2371,
    "\u2581getclass": 2372,
    "\u2581wsprintfa": 2373,
    "\u25810xffcd": 2374,
    "\u25810xfffa": 2375,
    "\u25810xffa4": 2376,
    "exception": 2377,
    "\u2581deletefilew": 2378,
    "\u25810x4e30": 2379,
    "stream": 2380,
    "\u25810xffb4": 2381,
    "\u25810x1211ccc": 2382,
    "\u25810xfeee002d": 2383,
    "aw": 2384,
    "sub": 2385,
    "\u2581external": 2386,
    "facen": 2387,
    "changet": 2388,
    "\u2581interfacen": 2389,
    "\u2581variantchanget": 2390,
    "\u2581inte": 2391,
    "\u25810xffa7": 2392,
    "140": 2393,
    "\u2581asser": 2394,
    "b88": 2395,
    "\u25810xffa5": 2396,
    "\u25810xffa6": 2397,
    "\u25810xfeee002f": 2398,
    "safec": 2399,
    "safecall": 2400,
    "\u2581stack": 2401,
    "found": 2402,
    "metafilebits": 2403,
    "\u25810x1211dd0": 2404,
    "\u2581integer": 2405,
    "\u2581message": 2406,
    "yon": 2407,
    "\u2581assertion": 2408,
    "330": 2409,
    "styp": 2410,
    "bad8": 2411,
    "with": 2412,
    "\u25810xfeee002a": 2413,
    "insafecall": 2414,
    "\u2581exceptioninsafecall": 2415,
    "calls": 2416,
    "\u2581disk": 2417,
    "profile": 2418,
    "\u25810x7bd0": 2419,
    "\u25810xffa8": 2420,
    "dateresourcea": 2421,
    "notfound": 2422,
    "mod": 2423,
    "\u25810xffa9": 2424,
    "\u2581registerwindow": 2425,
    "\u25810xa2": 2426,
    "\u2581getprocessaffinitymask": 2427,
    "ecast": 2428,
    "\u2581setup": 2429,
    "338": 2430,
    "d4c": 2431,
    "bounds": 2432,
    "underflow": 2433,
    "f0c": 2434,
    "\u2581privilege": 2435,
    "\u2581assertionfailed": 2436,
    "clas": 2437,
    "\u2581chit": 2438,
    "denied": 2439,
    "verflow": 2440,
    "\u25810x4169": 2441,
    "classtyp": 2442,
    "classtypecast": 2443,
    "outof": 2444,
    "otsuped": 2445,
    "callsnot": 2446,
    "indexoutof": 2447,
    "dinstruction": 2448,
    "callsnotsuped": 2449,
    "\u2581errorcreating": 2450,
    "indexoutofbounds": 2451,
    "pointeroperation": 2452,
    "\u2581externalexception": 2453,
    "\u2581interfacenotsuped": 2454,
    "\u2581errorcreatingvariant": 2455,
    "\u2581invalidclasstypecast": 2456,
    "\u2581variantcallsnotsuped": 2457,
    "\u2581floatingpointunderflow": 2458,
    "\u2581rang": 2459,
    "pointo": 2460,
    "typecon": 2461,
    "argument": 2462,
    "leaccess": 2463,
    "\u25810x5265d": 2464,
    "\u25810x56bad8": 2465,
    "\u2581rangecheck": 2466,
    "pointoverflow": 2467,
    "divisionbyzero": 2468,
    "typeconversion": 2469,
    "\u2581stackoverflow": 2470,
    "\u2581floatingpointoverflow": 2471,
    "\u2581privilegedinstruction": 2472,
    "\u2581invalidvariantoperation": 2473,
    "\u2581floatingpointdivisionbyzero": 2474,
    "\u2581invalidvarianttypeconversion": 2475,
    "omany": 2476,
    "floating": 2477,
    "\u2581toomany": 2478,
    "openfiles": 2479,
    "floatingpoint": 2480,
    "\u2581divisionbyzero": 2481,
    "\u2581integeroverflow": 2482,
    "\u2581invalidfilename": 2483,
    "\u2581rangecheckerror": 2484,
    "\u2581toomanyopenfiles": 2485,
    "\u2581invalidfloatingpoint": 2486,
    "\u2581invalidpointeroperation": 2487,
    "\u2581invalidfloatingpointoperation": 2488,
    "yond": 2489,
    "beyond": 2490,
    "numeric": 2491,
    "\u25810xffaa": 2492,
    "\u25810x4c42d8": 2493,
    "\u25810x4c42f0": 2494,
    "\u2581diskfull": 2495,
    "\u2581fileaccess": 2496,
    "\u2581readbeyond": 2497,
    "numericinput": 2498,
    "\u2581fileaccessdenied": 2499,
    "\u2581invalidnumericinput": 2500,
    "\u2581readbeyondendoffile": 2501,
    "\u25810xffce": 2502,
    "\u25810x418": 2503,
    "\u25810xffe6": 2504,
    "\u25810xfeee002b": 2505,
    "\u25810xfeee0043": 2506,
    "\u25810x4317e0": 2507,
    "\u2581cadwork": 2508,
    "\u25810x1211dfc": 2509,
    "\u2581getkeyboardtype": 2510,
    "ypeex": 2511,
    "\u2581variantchangetypeex": 2512,
    "\u25810xffcf": 2513,
    "98c": 2514,
    "validate": 2515,
    "\u2581heapvalidate": 2516,
    "\u25810xfeee002c": 2517,
    "\u2581varbstrfrombool": 2518,
    "de8": 2519,
    "neg": 2520,
    "mul": 2521,
    "xor": 2522,
    "idiv": 2523,
    "\u2581varcy": 2524,
    "\u2581varor": 2525,
    "\u2581varr8": 2526,
    "\u2581varadd": 2527,
    "\u2581varand": 2528,
    "\u2581varcmp": 2529,
    "\u2581vardiv": 2530,
    "\u2581varmod": 2531,
    "\u2581varmul": 2532,
    "\u2581varneg": 2533,
    "\u2581varnot": 2534,
    "\u2581varsub": 2535,
    "\u2581varxor": 2536,
    "\u2581varbool": 2537,
    "\u2581vardate": 2538,
    "\u2581varidiv": 2539,
    "\u2581varcyfromstr": 2540,
    "\u2581vari4fromstr": 2541,
    "\u2581varr4fromstr": 2542,
    "\u2581varr8fromstr": 2543,
    "\u2581varbstrfromcy": 2544,
    "\u2581varboolfromstr": 2545,
    "\u2581vardatefromstr": 2546,
    "\u2581varbstrfromdate": 2547,
    "\u25810x432": 2548,
    "\u2581gettickcount64": 2549,
    "\u25810x53000000": 2550,
    "\u25810xffb0": 2551,
    "\u2581messagebo": 2552,
    "\u25810xfeee002e": 2553,
    "ernet": 2554,
    "wantto": 2555,
    "\u25810x4960": 2556,
    "\u25810x48400": 2557,
    "\u2581enumsystem": 2558,
    "erw": 2559,
    "\u25810x3f2000": 2560,
    "\u25810x1211e44": 2561,
    "\u25810x502": 2562,
    "\u25810x8230": 2563,
    "\u25810x100300": 2564,
    "\u25810xffb3": 2565,
    "fff0": 2566,
    "\u25810xffb2": 2567,
    "\u25810xffb1": 2568,
    "\u25810x52661": 2569,
    "\u25810x49c8": 2570,
    "pos": 2571,
    "\u25810xfff9": 2572,
    "\u2581mo": 2573,
    "\u25810xfff8": 2574,
    "printf": 2575,
    "\u25810x41c0": 2576,
    "\u25810x4c3": 2577,
    "\u25810x1211f18": 2578,
    "\u2581setfileinformationby": 2579,
    "\u2581getlogicaldrivestring": 2580,
    "il": 2581,
    "\u25810xffe5": 2582,
    "\u25810x4967a8": 2583,
    "\u2581createexw": 2584,
    "504": 2585,
    "00210": 2586,
    "\u2581invalidargument": 2587,
    "\u2581variantorsafearray": 2588,
    "\u2581errorcreatingvariantorsafearray": 2589,
    "\u2581variantorsafearrayindexoutofbounds": 2590,
    "d88": 2591,
    "\u25810x120e6": 2592,
    "\u25810x13fff0": 2593,
    "\u2581createdirectoryw": 2594,
    "\u25810x404": 2595,
    "\u2581createdirectorya": 2596,
    "\u2581getwindowsdirectorya": 2597,
    "inmetafilebits": 2598,
    "mutexa": 2599,
    "\u25810xfeee0030": 2600,
    "408": 2601,
    "\u25810xffcc": 2602,
    "ping": 2603,
    "d3c": 2604,
    "104": 2605,
    "\u25810xfeee003b": 2606,
    "conne": 2607,
    "368": 2608,
    "\u2581getenvironmentvariablew": 2609,
    "ce8": 2610,
    "filemap": 2611,
    "\u25810x1211fc8": 2612,
    "filemapping": 2613,
    "yarg1": 2614,
    "gra": 2615,
    "\u25810xfeee0031": 2616,
    "\u25810xfff7": 2617,
    "alog": 2618,
    "gram": 2619,
    "\u25810x41e": 2620,
    "\u25810x7bf0": 2621,
    "\u25810xfeee012": 2622,
    "dexchange": 2623,
    "\u2581interlockedexchange": 2624,
    "\u25810x7b90": 2625,
    "\u2581no": 2626,
    "localiz": 2627,
    "\u25810x44d4b8": 2628,
    "\u25810x4e50": 2629,
    "\u25810x7eab": 2630,
    "a81": 2631,
    "\u2581destroy": 2632,
    "\u2581localiz": 2633,
    "\u2581localization": 2634,
    "680": 2635,
    "\u25815": 2636,
    "\u25810x4d50": 2637,
    "de4": 2638,
    "\u25810x4df": 2639,
    "\u2581getwinmetafilebits": 2640,
    "sto": 2641,
    "ways": 2642,
    "\u25810xfeee0033": 2643,
    "\u2581golfinfo": 2644,
    "\u25810xfeee0041": 2645,
    "\u25810xa8": 2646,
    "\u25810x1211f70": 2647,
    "\u25810xfeee0042": 2648,
    "ecomp": 2649,
    "cel": 2650,
    "\u25810x181": 2651,
    "\u25810xfeee0032": 2652,
    "\u25810xfeee0035": 2653,
    "\u25810x60c6": 2654,
    "\u25810xfeee0039": 2655,
    "no": 2656,
    "\u25810xfeee0049": 2657,
    "204": 2658,
    "\u25810xfeee0034": 2659,
    "\u25810x7706": 2660,
    "\u25810x7716": 2661,
    "\u25810x12118f8": 2662,
    "340": 2663,
    "ispatch": 2664,
    "a10": 2665,
    "c8c": 2666,
    "\u2581po": 2667,
    "\u25810x1211f78": 2668,
    "draw": 2669,
    "token": 2670,
    "\u25810xfeee003f": 2671,
    "\u25810x20019": 2672,
    "yarg2": 2673,
    "\u25810x8cf0": 2674,
    "\u25810xfeee0065": 2675,
    "\u2581createwindowexa": 2676,
    "\u25810xfeee0037": 2677,
    "\u25810xfeee0036": 2678,
    "\u25810xfeee0062": 2679,
    "9c0": 2680,
    "\u25810x1211fc4": 2681,
    "f4c": 2682,
    "\u2581comm": 2683,
    "\u25810xfeee0038": 2684,
    "\u25810x7a80": 2685,
    "\u25810xfeee0066": 2686,
    "\u25810xfff6": 2687,
    "\u25810x7ab0": 2688,
    "\u25810x41d1": 2689,
    "\u25810x364": 2690,
    "\u25810xfeee003d": 2691,
    "\u25810xfeee0067": 2692,
    "\u25810x7150": 2693,
    "\u25810x4428": 2694,
    "\u25810xfeee003a": 2695,
    "\u25810xfeee0047": 2696,
    "\u2581dragob": 2697,
    "\u25810x1211f10": 2698,
    "\u25810x1211f74": 2699,
    "\u25810x1211f97": 2700,
    "\u25810xfeee003e": 2701,
    "fa2": 2702,
    "\u25810x1211f3c": 2703,
    "new": 2704,
    "namew": 2705,
    "288": 2706,
    "\u25810xfeee003c": 2707,
    "\u2581download": 2708,
    "b60": 2709,
    "ac8": 2710,
    "\u25810x73f0": 2711,
    "\u25810xfeee0053": 2712,
    "delet": 2713,
    "\u25810x7ff": 2714,
    "\u25810x405": 2715,
    "\u25810x41a0": 2716,
    "\u25810xffd2": 2717,
    "\u25810x121194c": 2718,
    "quit": 2719,
    "\u25810x72a0": 2720,
    "lication": 2721,
    "fromstream": 2722,
    "\u25810x7df4": 2723,
    "\u25810x7df5": 2724,
    "\u25810x1211e24": 2725,
    "\u25810x437820": 2726,
    "\u25810x491": 2727,
    "\u25810x48f898": 2728,
    "\u25810xfeee004a": 2729,
    "b8c": 2730,
    "\u25810x437804": 2731,
    "\u25810xfeee0048": 2732,
    "\u25810x403": 2733,
    "\u258117": 2734,
    "ervicec": 2735,
    "\u25810xffe3": 2736,
    "\u25810x1211e14": 2737,
    "\u2581enumsystemlocales": 2738,
    "\u25810x566a40": 2739,
    "\u2581registerclassexa": 2740,
    "544": 2741,
    "\u25810x7690": 2742,
    "\u2581createfilemapping": 2743,
    "\u25810x40a582": 2744,
    "\u25810x40a584": 2745,
    "\u25810x40a586": 2746,
    "\u25810x40a588": 2747,
    "special": 2748,
    "\u25810x40a58a": 2749,
    "specialfolder": 2750,
    "\u2581shgetspecialfolder": 2751,
    "\u25810x40a580": 2752,
    "608": 2753,
    "\u25816": 2754,
    "\u25810x40a57e": 2755,
    "run": 2756,
    "\u25810x61": 2757,
    "\u25810xfeee005e": 2758,
    "\u25810x41c044": 2759,
    "\u2581oleload": 2760,
    "\u25810x1211f40": 2761,
    "\u2581oleloadfromstream": 2762,
    "\u25810xfeee005c": 2763,
    "\u25810xfeee0068": 2764,
    "488": 2765,
    "\u2581of": 2766,
    "program": 2767,
    "\u25810x1211f34": 2768,
    "\u25810xfeee005a": 2769,
    "\u25810xfeee0060": 2770,
    "ee4": 2771,
    "\u25810x4614": 2772,
    "\u25810xfeee004d": 2773,
    "enum": 2774,
    "\u25810xfeee0061": 2775,
    "\u25810x86": 2776,
    "\u25810x77e0": 2777,
    "\u25810xfeee005b": 2778,
    "\u2581setthreadpreferreduilanguages": 2779,
    "\u25810x42c0": 2780,
    "\u25810xfeee004b": 2781,
    "\u25810xfeee004c": 2782,
    "ac4": 2783,
    "f84": 2784,
    "\u2581getuserdefaultlocalename": 2785,
    "\u25810xffef": 2786,
    "a0000": 2787,
    "\u25810xfeee0063": 2788,
    "vate": 2789,
    "current": 2790,
    "\u2581loadresource": 2791,
    "\u25810x78a0": 2792,
    "\u25810x7d99": 2793,
    "69c": 2794,
    "\u25810x4088": 2795,
    "\u25810xfeee004e": 2796,
    "\u25810xfeee0055": 2797,
    "atible": 2798,
    "\u25810xfeee0050": 2799,
    "\u2581getdateformatex": 2800,
    "\u2581gettimeformatex": 2801,
    "\u2581isvalidlocalename": 2802,
    "\u2581enumsystemlocalesex": 2803,
    "\u25810x100000": 2804,
    "\u2581v": 2805,
    "\u2581fa": 2806,
    "\u25810x51c": 2807,
    "\u25810xfeee0054": 2808,
    "\u25810x7ec1": 2809,
    "\u25810xfeee004f": 2810,
    "\u25810xffab": 2811,
    "\u25810x4800": 2812,
    "\u25810xfeee0069": 2813,
    "\u2581corex": 2814,
    "\u25810x45f1": 2815,
    "\u25810xfeee0051": 2816,
    "\u25810xfeee0052": 2817,
    "\u25810x1211c08": 2818,
    "902": 2819,
    "\u25810x20a": 2820,
    "\u25810xfeee0057": 2821,
    "e8c": 2822,
    "oci": 2823,
    "\u2581corexitprocess": 2824,
    "984": 2825,
    "ffc": 2826,
    "\u25810x7da0": 2827,
    "\u25810xfeee0056": 2828,
    "\u25810x7d98": 2829,
    "ecompatible": 2830,
    "\u2581createcompatible": 2831,
    "\u2581unhandledexceptionfilter": 2832,
    "\u2581exit": 2833,
    "\u25810x8260": 2834,
    "\u25810xfeee0058": 2835,
    "download": 2836,
    "\u25810x1211f04": 2837,
    "dep": 2838,
    "ols": 2839,
    "\u25810xfeee0059": 2840,
    "\u25810x121157c": 2841,
    "fp": 2842,
    "\u25810x7300": 2843,
    "\u25810x419": 2844,
    "\u25810x12117a4": 2845,
    "\u2581always": 2846,
    "\u25810x2100210": 2847,
    "784": 2848,
    "\u25810x81": 2849,
    "\u25810xffac": 2850,
    "\u25810xffc6": 2851,
    "\u25810x120faa8": 2852,
    "\u2581setenvironment": 2853,
    "qa": 2854,
    "\u25810xffd3": 2855,
    "\u2581getwindow": 2856,
    "\u25810xfeee005d": 2857,
    "\u25810x169bf74": 2858,
    "\u2581setprocess": 2859,
    "setinformation": 2860,
    "\u25810x41d114": 2861,
    "\u25810x120f8c2": 2862,
    "\u25810xfeee0064": 2863,
    "\u25810xfeee006a": 2864,
    "678": 2865,
    "closekey": 2866,
    "\u2581regclosekey": 2867,
    "350": 2868,
    "search": 2869,
    "que": 2870,
    "\u25810x2d4": 2871,
    "\u25810x43f0": 2872,
    "ateprocess": 2873,
    "\u25810x7900": 2874,
    "\u25810x7d9c": 2875,
    "\u25810x7d9d": 2876,
    "searchmode": 2877,
    "\u2581setsearchmode": 2878,
    "160": 2879,
    "ows": 2880,
    "2030": 2881,
    "\u25810xfff5": 2882,
    "\u25810x417": 2883,
    "ervicectrl": 2884,
    "\u25810x448": 2885,
    "\u25810x1211ef8": 2886,
    "363": 2887,
    "\u25810x3b7": 2888,
    "\u2581shfolder": 2889,
    "\u25810x4c3308": 2890,
    "\u25810x7da1": 2891,
    "f8c": 2892,
    "myarg2": 2893,
    "meto": 2894,
    "\u25810xfeee008e": 2895,
    "\u25810xa4": 2896,
    "imeto": 2897,
    "\u25810xfeee0084": 2898,
    "\u2581check": 2899,
    "\u25810x46a0": 2900,
    "\u25810x95": 2901,
    "\u25810x5265e": 2902,
    "\u25810x169bf64": 2903,
    "\u2581initializeconditionvariable": 2904,
    "\u25810x59bf": 2905,
    "\u25810x59c1": 2906,
    "9c2": 2907,
    "\u2581aaa": 2908,
    "\u25810x7db4": 2909,
    "\u25810x1211fc0": 2910,
    "licy": 2911,
    "\u25810x9c": 2912,
    "a58": 2913,
    "yarg1myarg2": 2914,
    "\u25810xfeee006c": 2915,
    "fore": 2916,
    "policy": 2917,
    "\u25810x7db5": 2918,
    "cc4": 2919,
    "\u2581heapsetinformation": 2920,
    "\u2581getenvironmentvariablea": 2921,
    "\u25810x7db0": 2922,
    "\u2581end": 2923,
    "\u25810x7da4": 2924,
    "ff0": 2925,
    "\u2581ra": 2926,
    "\u25810x5c": 2927,
    "bitmap": 2928,
    "\u258112": 2929,
    "\u25810xaa": 2930,
    "\u2581setwindow": 2931,
    "d40": 2932,
    "\u25810xffc5": 2933,
    "deppolicy": 2934,
    "\u25810xad": 2935,
    "\u25810x1211e20": 2936,
    "\u2581createfilemappinga": 2937,
    "\u2581install": 2938,
    "\u2581setprocessdeppolicy": 2939,
    "uar": 2940,
    "\u25810x4096": 2941,
    "\u25810x416": 2942,
    "\u2581doyou": 2943,
    "\u25810x4086": 2944,
    "\u25810x2439f74": 2945,
    "\u2581showwindow": 2946,
    "iseex": 2947,
    "\u2581hton": 2948,
    "\u25810xffec": 2949,
    "\u2581raiseex": 2950,
    "\u2581raiseexception": 2951,
    "\u2581terminateprocess": 2952,
    "\u25810x1211f6c": 2953,
    "\u25810xfeee006b": 2954,
    "278": 2955,
    "cor": 2956,
    "\u2581shgetspecialfolderw": 2957,
    "696": 2958,
    "\u2581initialize": 2959,
    "\u2581comparestringw": 2960,
    "lecs": 2961,
    "variablecs": 2962,
    "\u2581sleepcondition": 2963,
    "\u2581sleepconditionvariablecs": 2964,
    "\u2581version": 2965,
    "\u2581yo": 2966,
    "\u25810xfeee014": 2967,
    "704": 2968,
    "\u25810x1211e1c": 2969,
    "748": 2970,
    "\u25810x78f0": 2971,
    "90000": 2972,
    "bd0": 2973,
    "70000": 2974,
    "\u25810x7270": 2975,
    "\u25810x7da5": 2976,
    "\u25810xfeee006e": 2977,
    "\u25810xfeee006d": 2978,
    "\u2581ofresource": 2979,
    "\u25810x509": 2980,
    "768": 2981,
    "\u25810x45f2": 2982,
    "\u2581wts": 2983,
    "370": 2984,
    "e84": 2985,
    "284": 2986,
    "5c0": 2987,
    "a0f": 2988,
    "ociate": 2989,
    "\u25810x1b2": 2990,
    "\u2581getclassinfoa": 2991,
    "\u25810x3bc": 2992,
    "\u25810x40c": 2993,
    "\u25810x4232": 2994,
    "\u25810x7da8": 2995,
    "\u2581getcurrentdirectorya": 2996,
    "vchost": 2997,
    "\u25810x40a5a0": 2998,
    "b964": 2999,
    "\u25810xfeee008a": 3000,
    "740": 3001,
    "dacl": 3002,
    "will": 3003,
    "\u25810xfeee0070": 3004,
    "securitydescriptordacl": 3005,
    "\u25810x8f70": 3006,
    "770": 3007,
    "\u25810x51b": 3008,
    "ty": 3009,
    "\u2581dw": 3010,
    "\u25810x5f": 3011,
    "\u2581svchost": 3012,
    "\u25810x169bf94": 3013,
    "\u2581trans": 3014,
    "\u2581oleinitialize": 3015,
    "\u25810xfeee0077": 3016,
    "1c0": 3017,
    "\u25810xfeee0079": 3018,
    "private": 3019,
    "\u25810xfeee0087": 3020,
    "\u25810x406": 3021,
    "2w": 3022,
    "15c": 3023,
    "connection": 3024,
    "\u25810xfeee006f": 3025,
    "794": 3026,
    "\u25810xa5": 3027,
    "\u25810x43a4": 3028,
    "\u25810xfeee0076": 3029,
    "\u25810x78d0": 3030,
    "\u25810x422a0": 3031,
    "\u25810x60000": 3032,
    "\u25810xfeee0078": 3033,
    "dit": 3034,
    "\u25810x417b": 3035,
    "\u2581lstrcpya": 3036,
    "antee": 3037,
    "stackg": 3038,
    "uarantee": 3039,
    "\u25810xfeee007a": 3040,
    "stackguarantee": 3041,
    "\u2581setthreadstackguarantee": 3042,
    "66c": 3043,
    "\u2581sa": 3044,
    "\u25810x1211f84": 3045,
    "\u25810x1210df": 3046,
    "\u25810x60c690": 3047,
    "\u25810xfeee0074": 3048,
    "409": 3049,
    "\u25810x52664": 3050,
    "\u25810x6f": 3051,
    "\u25810x42168": 3052,
    "\u25810xfeee0071": 3053,
    "connection2w": 3054,
    "\u2581createmutexa": 3055,
    "privateprofile": 3056,
    "\u2581getlogicalprocessor": 3057,
    "\u25810x1211f1c": 3058,
    "\u25810xfeee0073": 3059,
    "\u25810xffd0": 3060,
    "\u2581findresourcew": 3061,
    "leas": 3062,
    "long": 3063,
    "\u25810xfeee0072": 3064,
    "\u2581getlogicalprocessorinformation": 3065,
    "\u25810x7da9": 3066,
    "30000": 3067,
    "b0000": 3068,
    "\u25810xfeee008c": 3069,
    "\u2581initializesecuritydescriptor": 3070,
    "3c0": 3071,
    "\u25810xfeee0075": 3072,
    "\u2581starts": 3073,
    "\u25810x42b964": 3074,
    "\u2581setfileattributesa": 3075,
    "\u25810xfeee0090": 3076,
    "hore": 3077,
    "\u2581gdip": 3078,
    "d68": 3079,
    "\u25810xfff4": 3080,
    "b14": 3081,
    "base": 3082,
    "\u25810x235": 3083,
    "\u25810x6c": 3084,
    "\u25810x417d": 3085,
    "instal": 3086,
    "\u25810x58000": 3087,
    "\u25810xfeee0088": 3088,
    "\u2581ch": 3089,
    "\u25810xffc1": 3090,
    "\u25810x5e": 3091,
    "windowproc": 3092,
    "update": 3093,
    "\u25810x7c70": 3094,
    "\u25810x8d80": 3095,
    "\u258124": 3096,
    "\u25810xffc4": 3097,
    "700": 3098,
    "dc0": 3099,
    "coree": 3100,
    "\u25810x93": 3101,
    "ethread": 3102,
    "unction": 3103,
    "\u2581mscoree": 3104,
    "a70": 3105,
    "\u25810xfeee008d": 3106,
    "\u25810x47f0": 3107,
    "\u25810x435000": 3108,
    "\u25810x423326": 3109,
    "\u25810x423327": 3110,
    "\u25810x4cb0": 3111,
    "920": 3112,
    "bc5": 3113,
    "trols": 3114,
    "\u25810x40ab": 3115,
    "\u2581getmessagea": 3116,
    "\u25810x42a1": 3117,
    "\u25810x8c60": 3118,
    "\u2581updatewindow": 3119,
    "\u25810xffad": 3120,
    "3a8": 3121,
    "\u2581noaccess": 3122,
    "\u2581setsecuritydescriptordacl": 3123,
    "\u2581lockresource": 3124,
    "34c": 3125,
    "ext": 3126,
    "\u25810xb0": 3127,
    "\u25810x41de": 3128,
    "\u25810xfeee007b": 3129,
    "\u2581def": 3130,
    "ervicew": 3131,
    "fied": 3132,
    "\u25810x7060": 3133,
    "\u2581regset": 3134,
    "3c4": 3135,
    "ontin": 3136,
    "\u2581failed": 3137,
    "\u2581copyfilea": 3138,
    "\u25810x4828": 3139,
    "904": 3140,
    "344": 3141,
    "\u2581sprintf": 3142,
    "70c": 3143,
    "\u25810xfeee007c": 3144,
    "\u25810x429e": 3145,
    "\u25810x1211f44": 3146,
    "pi": 3147,
    "888": 3148,
    "env": 3149,
    "d44": 3150,
    "\u25810xfeee007f": 3151,
    "\u25810xfeee008f": 3152,
    "f58": 3153,
    "heme": 3154,
    "\u25810x40a59e": 3155,
    "\u2581uxt": 3156,
    "\u2581uxtheme": 3157,
    "\u25810x40a5a2": 3158,
    "\u25810x40a5a4": 3159,
    "\u25810x40a5a6": 3160,
    "\u25810x40a5a8": 3161,
    "\u25810x40a5aa": 3162,
    "app": 3163,
    "\u25810x1211d30": 3164,
    "884": 3165,
    "\u25810x7e0": 3166,
    "\u2581setcurrent": 3167,
    "d84": 3168,
    "\u25810x1211f4c": 3169,
    "\u25810xfeee0086": 3170,
    "ff8": 3171,
    "\u2581runtime": 3172,
    "\u25810x45f4": 3173,
    "178": 3174,
    "\u25810xfeee007d": 3175,
    "ec4": 3176,
    "\u25810x7dac": 3177,
    "\u25810x7dad": 3178,
    "\u25810x53000": 3179,
    "\u25810xfeee0081": 3180,
    "\u2581shellexecute": 3181,
    "4000": 3182,
    "tass": 3183,
    "dicon": 3184,
    "\u25810x428": 3185,
    "tassociate": 3186,
    "\u2581regsetvalu": 3187,
    "tassociatedicon": 3188,
    "\u2581extractassociatedicon": 3189,
    "\u25810xfeee007e": 3190,
    "\u25810xfeee0083": 3191,
    "\u25810xfeee0085": 3192,
    "a4c": 3193,
    "\u25810xfeee0080": 3194,
    "\u25810xfeee0082": 3195,
    "124": 3196,
    "atalog": 3197,
    "riv": 3198,
    "\u25810x4125": 3199,
    "\u25810xfeee0089": 3200,
    "301": 3201,
    "df0": 3202,
    "controls": 3203,
    "\u25810xa9": 3204,
    "\u25810x100b": 3205,
    "\u25810x45fc": 3206,
    "\u2581di": 3207,
    "\u25810x4470": 3208,
    "\u25810x40a3e": 3209,
    "\u25810x41b0": 3210,
    "\u25810x4093e8": 3211,
    "tp": 3212,
    "unlock": 3213,
    "\u25810x4093e5": 3214,
    "\u25810x4093e6": 3215,
    "\u25810x4093e7": 3216,
    "10c": 3217,
    "\u25810x412": 3218,
    "\u25810x40b3": 3219,
    "382": 3220,
    "atus": 3221,
    "\u25810x71b0": 3222,
    "718": 3223,
    "\u2581ws2": 3224,
    "\u25810x42a7": 3225,
    "684": 3226,
    "\u25810x45f5": 3227,
    "\u25810x4700": 3228,
    "internet": 3229,
    "\u25810x52665": 3230,
    "\u25810x52666": 3231,
    "\u2581sc": 3232,
    "lt": 3233,
    "\u25810x7870": 3234,
    "\u25810xffc2": 3235,
    "state": 3236,
    "windows": 3237,
    "\u25810x45f3": 3238,
    "wind": 3239,
    "\u2581exem": 3240,
    "\u25810x4340": 3241,
    "\u2581exemyarg1myarg2": 3242,
    "\u2581getcurrentdirectoryw": 3243,
    "\u25810x45f8": 3244,
    "\u25810x7db1": 3245,
    "c42": 3246,
    "\u25810x45f6": 3247,
    "atalogs": 3248,
    "\u2581beginup": 3249,
    "d28": 3250,
    "localtime": 3251,
    "\u25810x181b70": 3252,
    "808": 3253,
    "b84": 3254,
    "\u25810x45f7": 3255,
    "\u25810x45f9": 3256,
    "gedit": 3257,
    "\u2581regedit": 3258,
    "\u25810x7dc8": 3259,
    "\u25810x41a044": 3260,
    "\u25810x45fa": 3261,
    "93e": 3262,
    "\u2581rtlun": 3263,
    "\u2581rtlunwind": 3264,
    "\u25810x7e88": 3265,
    "\u25810x20009": 3266,
    "3b8": 3267,
    "3e8": 3268,
    "\u25810x4601": 3269,
    "\u25810x8c70": 3270,
    "\u25810x45fe": 3271,
    "\u25810x414": 3272,
    "\u25810x8aa0": 3273,
    "\u2581wi": 3274,
    "\u25810xffdd": 3275,
    "\u2581getsyscolorbrush": 3276,
    "plor": 3277,
    "\u25810x4990": 3278,
    "\u25810x63000000": 3279,
    "\u25810x45ff": 3280,
    "\u25810x7d50": 3281,
    "\u2581defwindowproc": 3282,
    "\u2581acquiresrwlockexclusive": 3283,
    "a02": 3284,
    "\u25810xac": 3285,
    "\u25810x45fd": 3286,
    "\u25810x4cf0": 3287,
    "plorer": 3288,
    "\u25810x8c90": 3289,
    "\u25810xffae": 3290,
    "\u2581strcmp": 3291,
    "c40": 3292,
    "\u2581globalunlock": 3293,
    "ormat": 3294,
    "\u25810x96": 3295,
    "\u25810x437ad": 3296,
    "\u25810x440": 3297,
    "\u25810x12112": 3298,
    "\u25810x437bc": 3299,
    "\u25810x4371e6": 3300,
    "\u25810x4371e7": 3301,
    "e24": 3302,
    "cid": 3303,
    "b7c3": 3304,
    "\u2581findfirstfilea": 3305,
    "\u25810x7b40": 3306,
    "\u25810x8c30": 3307,
    "\u25810x43b7b9": 3308,
    "\u25810x43b7c3": 3309,
    "dc4": 3310,
    "\u25810x5937": 3311,
    "\u25810x4093e9": 3312,
    "\u25810x4093ea": 3313,
    "\u25810x4093eb": 3314,
    "130": 3315,
    "len": 3316,
    "\u258114": 3317,
    "regi": 3318,
    "\u25810x7b10": 3319,
    "\u25810xffaf": 3320,
    "aaaaaaaa": 3321,
    "\u2581tmp": 3322,
    "bk": 3323,
    "1cc": 3324,
    "502": 3325,
    "\u2581post": 3326,
    "\u2581messageboxa": 3327,
    "\u25810x8ab0": 3328,
    "\u2581regquery": 3329,
    "a90": 3330,
    "\u25810x169b": 3331,
    "\u25810x6e": 3332,
    "iserror": 3333,
    "\u2581userenv": 3334,
    "\u2581findresourcea": 3335,
    "a41": 3336,
    "b7b": 3337,
    "\u25810x644": 3338,
    "\u25810x1211f24": 3339,
    "\u25810x12119f0": 3340,
    "ae0": 3341,
    "\u25810x62": 3342,
    "202": 3343,
    "\u25810x6b": 3344,
    "blt": 3345,
    "texta": 3346,
    "3e6": 3347,
    "itor": 3348,
    "\u25810xa3": 3349,
    "985": 3350,
    "\u25810xc0": 3351,
    "\u25810x8ba0": 3352,
    "\u25810xff90": 3353,
    "\u25810x75d0": 3354,
    "hoo": 3355,
    "\u25810x7e89": 3356,
    "\u25810x4614d0": 3357,
    "\u2581ob": 3358,
    "delete": 3359,
    "\u25810x40935d": 3360,
    "\u25810x40935e": 3361,
    "\u25810x40935f": 3362,
    "\u25810x409360": 3363,
    "\u25810x409361": 3364,
    "\u25810x409362": 3365,
    "\u25810x409363": 3366,
    "7a8": 3367,
    "ef0": 3368,
    "lay": 3369,
    "\u2581op": 3370,
    "\u2581start": 3371,
    "\u25810xfeee0094": 3372,
    "a49": 3373,
    "\u25810x8d00": 3374,
    "744": 3375,
    "\u25810x52663": 3376,
    "118": 3377,
    "1d8": 3378,
    "vis": 3379,
    "af4": 3380,
    "late": 3381,
    "ned": 3382,
    "common": 3383,
    "b0c": 3384,
    "\u2581initcommon": 3385,
    "\u2581initcommoncontrols": 3386,
    "ccc": 3387,
    "\u25810x5265f": 3388,
    "mapi": 3389,
    "\u25810x4606": 3390,
    "\u25810xffe2": 3391,
    "\u25810x7cc0": 3392,
    "\u25810x8bd0": 3393,
    "au": 3394,
    "\u25810x569b48": 3395,
    "pre": 3396,
    "\u25810x3f4": 3397,
    "\u25810x8d20": 3398,
    "974": 3399,
    "bd4": 3400,
    "\u25812d": 3401,
    "60c": 3402,
    "a38": 3403,
    "inter": 3404,
    "pass": 3405,
    "\u2581dwmapi": 3406,
    "\u2581registerwindowmessagew": 3407,
    "\u25810x43400": 3408,
    "\u25810x4307e0": 3409,
    "\u25810x1211f80": 3410,
    "\u2581registerclassa": 3411,
    "\u25810x480": 3412,
    "\u25810x4010": 3413,
    "\u25810x41f7": 3414,
    "\u25810xffe7": 3415,
    "1b8": 3416,
    "\u2581pi": 3417,
    "\u2581cryptbase": 3418,
    "\u25810xffc3": 3419,
    "\u2581setfileinformationbyhandlew": 3420,
    "\u2581getfileinformationbyhandleexw": 3421,
    "ad8": 3422,
    "\u25810x8c10": 3423,
    "f40": 3424,
    "\u25810xff91": 3425,
    "50000": 3426,
    "\u25810x7701": 3427,
    "\u25810xfeedf": 3428,
    "\u258128": 3429,
    "\u25810x7711": 3430,
    "\u25810xfeee0091": 3431,
    "\u25810x8be0": 3432,
    "\u25810xfeee0092": 3433,
    "b70": 3434,
    "sid": 3435,
    "\u25810x8cd0": 3436,
    "\u25810x4240": 3437,
    "\u25810x7030": 3438,
    "\u2581y": 3439,
    "\u25810x4c10": 3440,
    "atom": 3441,
    "\u25810x6a6": 3442,
    "\u25810x7a50": 3443,
    "670": 3444,
    "e28": 3445,
    "\u25810x40b8": 3446,
    "\u25810x8bb0": 3447,
    "\u25810x8c40": 3448,
    "\u25810x8ca0": 3449,
    "\u25810x169bc": 3450,
    "\u2581getlocaltime": 3451,
    "\u25810x7f4": 3452,
    "\u25810x8c00": 3453,
    "\u25810x54000": 3454,
    "\u25810x417c": 3455,
    "\u25810x47ee": 3456,
    "round": 3457,
    "\u25810x41f": 3458,
    "\u25810x40ac": 3459,
    "\u25810x74e0": 3460,
    "ded": 3461,
    "\u25810x7750": 3462,
    "\u25810x1210c": 3463,
    "\u2581releases": 3464,
    "f85": 3465,
    "\u25810x12110": 3466,
    "\u2581filet": 3467,
    "\u25810x7390": 3468,
    "\u25810x7dc0": 3469,
    "\u25810xfeee0093": 3470,
    "\u2581filetimeto": 3471,
    "ater": 3472,
    "\u25810x50850": 3473,
    "\u2581controlfp": 3474,
    "\u25810xc8": 3475,
    "if": 3476,
    "\u25810x7cf0": 3477,
    "1b4": 3478,
    "3a20": 3479,
    "\u25810x455": 3480,
    "730": 3481,
    "\u25810x30000": 3482,
    "\u25810x1211cdc": 3483,
    "7b8": 3484,
    "\u25810x8090": 3485,
    "\u25810x77002": 3486,
    "\u25810x7210": 3487,
    "\u25810x1211db8": 3488,
    "d8c": 3489,
    "\u25810x4540": 3490,
    "\u25810x4318": 3491,
    "\u25810x72d0": 3492,
    "\u2581getusernamea": 3493,
    "\u2581move": 3494,
    "40c": 3495,
    "958": 3496,
    "\u258130": 3497,
    "\u2581res": 3498,
    "\u2581commode": 3499,
    "\u25810xfeee0097": 3500,
    "d5c": 3501,
    "\u25810x7ae0": 3502,
    "reque": 3503,
    "\u25810x66": 3504,
    "\u2581shgetfile": 3505,
    "\u2581createsemaphore": 3506,
    "\u25810x89": 3507,
    "\u25810x75a0": 3508,
    "\u25810x7600": 3509,
    "\u25810x71e0": 3510,
    "\u25810x1211c7c": 3511,
    "120": 3512,
    "\u2581ac": 3513,
    "\u25810x7240": 3514,
    "\u25810x401000": 3515,
    "b10": 3516,
    "\u2581gb": 3517,
    "a29": 3518,
    "f60": 3519,
    "\u25810x7db8": 3520,
    "defaultu": 3521,
    "\u25810xfeee0095": 3522,
    "\u25810xfeee0098": 3523,
    "defaultuilanguage": 3524,
    "\u258118": 3525,
    "\u25810xa6": 3526,
    "\u25810x107": 3527,
    "\u25810x40b4": 3528,
    "\u25810x1211b08": 3529,
    "\u2581hg": 3530,
    "\u25810x7660": 3531,
    "\u25810x7720": 3532,
    "\u25810x7db9": 3533,
    "528": 3534,
    "\u25810xfeee0096": 3535,
    "\u25810x518": 3536,
    "\u2581hgdraw": 3537,
    "\u258134": 3538,
    "\u25810xfeee0099": 3539,
    "\u25810xf0": 3540,
    "\u25810x7a20": 3541,
    "f5c": 3542,
    "\u2581findnextfilew": 3543,
    "\u2581getdiskfreespaceexw": 3544,
    "\u25810xb3": 3545,
    "\u25810x76f0": 3546,
    "\u2581getlogicaldrivestringsa": 3547,
    "\u25810x76c0": 3548,
    "738": 3549,
    "\u25810x7480": 3550,
    "\u25810x560": 3551,
    "\u25810x22002": 3552,
    "\u2581getvolumeinformationa": 3553,
    "ready": 3554,
    "\u25810x44180": 3555,
    "1a0": 3556,
    "\u2581ns": 3557,
    "\u25810xfeee015": 3558,
    "par": 3559,
    "\u25810x7180": 3560,
    "\u2581mapviewoffile": 3561,
    "ecc": 3562,
    "\u25810xfeee009a": 3563,
    "\u25810x4076": 3564,
    "\u25810x407": 3565,
    "\u25810x7e4": 3566,
    "\u25810x77b0": 3567,
    "\u25810x7ba0": 3568,
    "\u25810x7e00": 3569,
    "sg": 3570,
    "3a4": 3571,
    "e04": 3572,
    "\u25810x41aa": 3573,
    "\u25810x107538": 3574,
    "d0a": 3575,
    "\u25810x7120": 3576,
    "\u25810x7330": 3577,
    "\u25810x7570": 3578,
    "\u2581nsiserror": 3579,
    "\u25810x74b0": 3580,
    "\u2581charpre": 3581,
    "\u25810x40a5ac": 3582,
    "709": 3583,
    "\u2581youm": 3584,
    "\u25810x4208": 3585,
    "\u2581beginpaint": 3586,
    "\u25810x70c0": 3587,
    "\u25810x1211d08": 3588,
    "\u2581getdiskfreespaceexa": 3589,
    "\u2581try": 3590,
    "\u25810x7360": 3591,
    "\u25810x7840": 3592,
    "\u25810x7990": 3593,
    "\u2581createprocessa": 3594,
    "\u2581instal": 3595,
    "function": 3596,
    "\u2581isc": 3597,
    "\u25810x79c0": 3598,
    "\u25810xb000": 3599,
    "\u25810xbd": 3600,
    "\u2581resum": 3601,
    "\u25810x7960": 3602,
    "\u2581deleteob": 3603,
    "\u2581resumethread": 3604,
    "d38": 3605,
    "\u258110": 3606,
    "allocate": 3607,
    "\u2581endpaint": 3608,
    "\u25810x7510": 3609,
    "\u25810x8d60": 3610,
    "\u25810x7dbc": 3611,
    "61c": 3612,
    "7f4": 3613,
    "9f0": 3614,
    "963": 3615,
    "speci": 3616,
    "\u25810x7450": 3617,
    "led": 3618,
    "d0000": 3619,
    "\u25810x3f30": 3620,
    "\u25810x5c000": 3621,
    "\u2581dispatch": 3622,
    "\u25810x73c0": 3623,
    "d18": 3624,
    "\u2581are": 3625,
    "\u25810x7420": 3626,
    "\u25810x7dbd": 3627,
    "\u25810xfeee009b": 3628,
    "was": 3629,
    "\u25810x41a": 3630,
    "\u25810x1211de4": 3631,
    "\u2581setfileattributesw": 3632,
    "90c": 3633,
    "934": 3634,
    "\u25810x7630": 3635,
    "\u25810x401": 3636,
    "\u25810x416b": 3637,
    "207": 3638,
    "\u25810xfc": 3639,
    "bcc": 3640,
    "\u25810x70f0": 3641,
    "\u2581translate": 3642,
    "\u25810xfeee009c": 3643,
    "5b0": 3644,
    "\u25810x107598": 3645,
    "644": 3646,
    "\u25810x27": 3647,
    "f46": 3648,
    "ist": 3649,
    "\u25810x42fc": 3650,
    "\u25810x42a0": 3651,
    "\u25810x7dc1": 3652,
    "network": 3653,
    "\u25810x7780": 3654,
    "mb": 3655,
    "\u2581setbk": 3656,
    "\u25810x7b70": 3657,
    "970": 3658,
    "b46": 3659,
    "7dc": 3660,
    "\u25810x107658": 3661,
    "\u2581defwindowproca": 3662,
    "e58": 3663,
    "\u2581ma": 3664,
    "\u25810xbe": 3665,
    "\u2581sendmessagea": 3666,
    "dl": 3667,
    "\u2581rec": 3668,
    "ancel": 3669,
    "\u25810xab": 3670,
    "\u25810xcf0000": 3671,
    "35c": 3672,
    "acd": 3673,
    "bfb": 3674,
    "\u25810x502dc": 3675,
    "6c8": 3676,
    "install": 3677,
    "\u2581createprocessw": 3678,
    "\u2581your": 3679,
    "\u25810x1808": 3680,
    "\u25810x1211e54": 3681,
    "9d8": 3682,
    "owned": 3683,
    "\u25810x7af0": 3684,
    "\u25810x504": 3685,
    "db0": 3686,
    "324": 3687,
    "3d4": 3688,
    "\u2581dup": 3689,
    "360": 3690,
    "a48": 3691,
    "bb8": 3692,
    "\u25810xffcb": 3693,
    "\u25819": 3694,
    "\u25810x4d5": 3695,
    "\u25810x1210f35": 3696,
    "1e2": 3697,
    "xw": 3698,
    "utex": 3699,
    "onexit": 3700,
    "\u25810x107688": 3701,
    "\u2581monitor": 3702,
    "726": 3703,
    "once": 3704,
    "\u25810x1211ee8": 3705,
    "f8a": 3706,
    "\u25810xf8": 3707,
    "\u25810xfeee018": 3708,
    "\u2581getsystemtimes": 3709,
    "b98": 3710,
    "\u2581getprivateprofile": 3711,
    "358": 3712,
    "\u25810x1211f50": 3713,
    "ana": 3714,
    "\u25810x7f8003": 3715,
    "\u25810x7f8004": 3716,
    "\u25810x7f8005": 3717,
    "\u25810x7f8006": 3718,
    "\u25810x7f8007": 3719,
    "\u25810x7f8008": 3720,
    "\u25810x7f8009": 3721,
    "\u25810x7f800a": 3722,
    "\u25810x7f800b": 3723,
    "\u25810x7f800c": 3724,
    "\u25810x7f800d": 3725,
    "\u25810x6970": 3726,
    "\u2581setthreadlocale": 3727,
    "1e4": 3728,
    "\u2581memset": 3729,
    "\u2581exitthread": 3730,
    "144": 3731,
    "efe8": 3732,
    "\u25810x7f800e": 3733,
    "\u2581setcurrentdirectorya": 3734,
    "6c5": 3735,
    "720": 3736,
    "d05": 3737,
    "init": 3738,
    "\u2581opena": 3739,
    "\u25810x10e9": 3740,
    "\u25810x7f800f": 3741,
    "7ac": 3742,
    "art": 3743,
    "\u2581duplic": 3744,
    "toc": 3745,
    "only": 3746,
    "\u25810x7a10": 3747,
    "atethread": 3748,
    "\u2581unmap": 3749,
    "\u2581please": 3750,
    "\u2581setdll": 3751,
    "\u2581unmapviewoffile": 3752,
    "this": 3753,
    "\u25810x9d": 3754,
    "91c": 3755,
    "994": 3756,
    "\u2581mpr": 3757,
    "\u25810x8814": 3758,
    "\u2581bat": 3759,
    "status": 3760,
    "\u25810x40a3f": 3761,
    "78c": 3762,
    "e0000": 3763,
    "148": 3764,
    "798": 3765,
    "fa8": 3766,
    "66e": 3767,
    "384": 3768,
    "be8": 3769,
    "notin": 3770,
    "6500000": 3771,
    "ad4": 3772,
    "c8b": 3773,
    "\u25810x22e": 3774,
    "been": 3775,
    "ning": 3776,
    "\u2581findnextfilea": 3777,
    "os": 3778,
    "\u25810x144": 3779,
    "\u25810x534": 3780,
    "ectlock": 3781,
    "notowned": 3782,
    "itialized": 3783,
    "supfunction": 3784,
    "notinitialized": 3785,
    "ectlocknotowned": 3786,
    "\u2581terminatethread": 3787,
    "\u2581monitorsupfunction": 3788,
    "\u2581monitorsupfunctionnotinitialized": 3789,
    "\u25810x8554": 3790,
    "ceex": 3791,
    "\u25810x70000": 3792,
    "728": 3793,
    "\u25810x4607": 3794,
    "7cc": 3795,
    "\u25810x9020": 3796,
    "950": 3797,
    "fc2": 3798,
    "\u2581cl": 3799,
    "filewas": 3800,
    "\u25810x79a0": 3801,
    "\u25810x45fb": 3802,
    "\u25810xffca": 3803,
    "\u2581isctype": 3804,
    "anf": 3805,
    "b7a": 3806,
    "fd8": 3807,
    "647": 3808,
    "specified": 3809,
    "\u25810x1075c8": 3810,
    "\u25810x1075f8": 3811,
    "\u25810x107628": 3812,
    "\u2581thespecified": 3813,
    "filewasnotfound": 3814,
    "\u2581thespecifiedfilewasnotfound": 3815,
    "\u25810x188e00": 3816,
    "\u2581setfilepointerex": 3817,
    "emutex": 3818,
    "\u2581releas": 3819,
    "\u2581releasemutex": 3820,
    "\u25810x461518": 3821,
    "\u2581tryacquiresrwlockexclusive": 3822,
    "d0c": 3823,
    "\u2581lstrc": 3824,
    "\u25810x1211fbc": 3825,
    "has": 3826,
    "anager": 3827,
    "nexplorer": 3828,
    "\u25810x42efe8": 3829,
    "\u2581translatemessage": 3830,
    "1b0": 3831,
    "keyst": 3832,
    "\u25810x4af4": 3833,
    "keystate": 3834,
    "\u258135": 3835,
    "\u2581filenotfound": 3836,
    "\u2581setenvironmentvariablea": 3837,
    "leasec": 3838,
    "printer": 3839,
    "318": 3840,
    "7d0": 3841,
    "\u25810x1211fb8": 3842,
    "97f": 3843,
    "\u2581memcpy": 3844,
    "\u25810x188d3c": 3845,
    "cli": 3846,
    "d85": 3847,
    "\u2581getcomputer": 3848,
    "d24": 3849,
    "\u25810x771c": 3850,
    "f18": 3851,
    "\u2581createdi": 3852,
    "3ac": 3853,
    "ority": 3854,
    "7bc": 3855,
    "eto": 3856,
    "tec": 3857,
    "etype": 3858,
    "\u25810x7eaba8": 3859,
    "\u2581allocate": 3860,
    "\u25810x1210e30": 3861,
    "228": 3862,
    "aa4": 3863,
    "roll": 3864,
    "\u25810x52668": 3865,
    "664": 3866,
    "esid": 3867,
    "application": 3868,
    "andinitializ": 3869,
    "andinitializesid": 3870,
    "\u2581releasesrwlockexclusive": 3871,
    "\u2581allocateandinitializesid": 3872,
    "ei": 3873,
    "9c8": 3874,
    "\u25810x409aa4": 3875,
    "7ec": 3876,
    "d70": 3877,
    "\u25810x409aa5": 3878,
    "d6c": 3879,
    "fdd": 3880,
    "\u2581vers": 3881,
    "anfdr": 3882,
    "\u25810x180": 3883,
    "\u2581sanfdr": 3884,
    "f28": 3885,
    "\u2581registers": 3886,
    "usp": 3887,
    "laun": 3888,
    "\u25810xffc8": 3889,
    "\u2581regsetvalueexw": 3890,
    "304": 3891,
    "d1c": 3892,
    "\u25810x64000": 3893,
    "\u2581initcommoncontrolsex": 3894,
    "\u25810xfff2": 3895,
    "406": 3896,
    "6e0": 3897,
    "ssp": 3898,
    "oem": 3899,
    "launch": 3900,
    "\u25810x300": 3901,
    "\u25810x200020": 3902,
    "a69": 3903,
    "\u25810x8d30": 3904,
    "\u25810x435018": 3905,
    "fc4": 3906,
    "\u25810x435002": 3907,
    "\u25810x435004": 3908,
    "\u25810x435006": 3909,
    "\u25810x435008": 3910,
    "\u25810x43500a": 3911,
    "\u25810x43500c": 3912,
    "\u25810x43500e": 3913,
    "\u25810x435010": 3914,
    "\u2581setdlldirectoryw": 3915,
    "ground": 3916,
    "\u2581print": 3917,
    "\u25810x435014": 3918,
    "50c": 3919,
    "ef4": 3920,
    "able": 3921,
    "\u25810x468": 3922,
    "\u25810x435016": 3923,
    "eb8": 3924,
    "outa": 3925,
    "\u25810x10a": 3926,
    "\u25810x44c2": 3927,
    "a0c": 3928,
    "7f0": 3929,
    "\u25810x80e0": 3930,
    "\u25810x4c30": 3931,
    "\u25810x42d498": 3932,
    "e4b8": 3933,
    "foreground": 3934,
    "foregroundwindow": 3935,
    "378": 3936,
    "ession": 3937,
    "\u2581geticon": 3938,
    "\u2581conne": 3939,
    "\u25810x68000": 3940,
    "b30": 3941,
    "\u2581selectob": 3942,
    "248": 3943,
    "ce9": 3944,
    "d00": 3945,
    "d83": 3946,
    "\u2581aa": 3947,
    "\u2581verset": 3948,
    "conditionmask": 3949,
    "\u2581versetconditionmask": 3950,
    "9260": 3951,
    "\u25810x4605": 3952,
    "\u25810x75500000": 3953,
    "beb": 3954,
    "\u25810x435012": 3955,
    "\u25810x4604": 3956,
    "\u25810x8280": 3957,
    "rivetype": 3958,
    "\u2581duplicate": 3959,
    "\u2581getdrivetype": 3960,
    "fad": 3961,
    "\u25810x188e24": 3962,
    "eed": 3963,
    "river": 3964,
    "\u25810x9a": 3965,
    "\u25810x8d50": 3966,
    "gn": 3967,
    "b190": 3968,
    "longa": 3969,
    "\u25810x140": 3970,
    "\u25810x1211f0c": 3971,
    "\u2581isvalidlocale": 3972,
    "\u25810xd3d": 3973,
    "\u25810x46c0": 3974,
    "\u25810xffc9": 3975,
    "\u2581strlen": 3976,
    "\u2581findwindowa": 3977,
    "\u25810xffc7": 3978,
    "7c5": 3979,
    "95000": 3980,
    "ha": 3981,
    "6d8": 3982,
    "b18": 3983,
    "75000": 3984,
    "ialog": 3985,
    "\u25810xae": 3986,
    "\u25810x8815": 3987,
    "\u25810x1210ec0": 3988,
    "7e8": 3989,
    "ope": 3990,
    "\u2581setbkcolor": 3991,
    "\u25810x2200220": 3992,
    "ld": 3993,
    "1d0": 3994,
    "ab5": 3995,
    "35000": 3996,
    "\u2581dialog": 3997,
    "\u2581duplicatehandle": 3998,
    "7ce": 3999,
    "fb0": 4000,
    "\u25810x40d8": 4001,
    "9b4": 4002,
    "enthread": 4003,
    "\u2581createf": 4004,
    "\u2581security": 4005,
    "3c8": 4006,
    "\u2581openthread": 4007,
    "554": 4008,
    "f48": 4009,
    "69000": 4010,
    "profil": 4011,
    "\u2581format": 4012,
    "\u2581ntopen": 4013,
    "ervicectrlhandl": 4014,
    "\u2581registerservicectrlhandl": 4015,
    "39000": 4016,
    "reate": 4017,
    "\u2581ntopensection": 4018,
    "91000": 4019,
    "\u25810x4bb0": 4020,
    "\u25810x78c0": 4021,
    "\u25810x1211738": 4022,
    "6cd": 4023,
    "778": 4024,
    "ec9": 4025,
    "0048": 4026,
    "79000": 4027,
    "nexec": 4028,
    "\u25810x4608": 4029,
    "\u2581winexec": 4030,
    "\u2581postquit": 4031,
    "\u2581postquitmessage": 4032,
    "\u25810x10e9bc": 4033,
    "d50": 4034,
    "fe0": 4035,
    "1e8": 4036,
    "3f0": 4037,
    "b48": 4038,
    "\u2581kk": 4039,
    "im": 4040,
    "e68": 4041,
    "f69": 4042,
    "\u2581opens": 4043,
    "\u25810x1211790": 4044,
    "\u2581dispatchmessagea": 4045,
    "310": 4046,
    "compar": 4047,
    "\u25810x130": 4048,
    "\u25810x7230": 4049,
    "b68": 4050,
    "bbc": 4051,
    "\u2581htons": 4052,
    "compareex": 4053,
    "\u2581copyfilew": 4054,
    "compareexchange": 4055,
    "\u2581interlockedcompareexchange": 4056,
    "boardf": 4057,
    "\u25810x41a9": 4058,
    "\u25810x3f75e88": 4059,
    "\u2581mso": 4060,
    "\u25810x44f": 4061,
    "f90": 4062,
    "\u25810x43501a": 4063,
    "218": 4064,
    "b78": 4065,
    "\u25810x4c0": 4066,
    "\u25810x43f6": 4067,
    "cc6": 4068,
    "d48": 4069,
    "tex": 4070,
    "754": 4071,
    "3d000": 4072,
    "\u25810x1fa": 4073,
    "\u2581atex": 4074,
    "\u2581atexit": 4075,
    "\u2581lstrcata": 4076,
    "\u2581shellexecutew": 4077,
    "dd4": 4078,
    "65000": 4079,
    "7d000": 4080,
    "374": 4081,
    "ansi": 4082,
    "3a5": 4083,
    "\u25810xb7": 4084,
    "\u2581socket": 4085,
    "clipboardf": 4086,
    "\u25810x1211584": 4087,
    "\u25810xfeee019": 4088,
    "12c": 4089,
    "606": 4090,
    "\u258119": 4091,
    "\u2581getdi": 4092,
    "\u25810x4400": 4093,
    "568": 4094,
    "\u25810x478": 4095,
    "stringw": 4096,
    "\u25810x1211438": 4097,
    "698": 4098,
    "b20": 4099,
    "\u25810x164": 4100,
    "\u25810x563a20": 4101,
    "d2c": 4102,
    "b2c": 4103,
    "1e000": 4104,
    "190": 4105,
    "hed": 4106,
    "priority": 4107,
    "apis": 4108,
    "71000": 4109,
    "apisansi": 4110,
    "\u2581arefile": 4111,
    "\u25810x43501c": 4112,
    "\u25810x43501e": 4113,
    "\u25810x435020": 4114,
    "\u25810x435022": 4115,
    "\u25810x435028": 4116,
    "\u25810x43502a": 4117,
    "\u25810x43502c": 4118,
    "\u25810x43502e": 4119,
    "\u25810x435030": 4120,
    "\u2581arefileapisansi": 4121,
    "150": 4122,
    "\u25810x41eb": 4123,
    "\u25810x48f894": 4124,
    "utd": 4125,
    "\u25810x4602": 4126,
    "\u25810x181b48": 4127,
    "\u25810x40f937": 4128,
    "64c": 4129,
    "\u2581cli": 4130,
    "\u2581text": 4131,
    "d58": 4132,
    "\u25810x7f5": 4133,
    "\u2581setupapi": 4134,
    "\u25810x1211b74": 4135,
    "oo": 4136,
    "bb4": 4137,
    "d78": 4138,
    "\u2581bit": 4139,
    "\u25810x1211b50": 4140,
    "\u2581regqueryvalu": 4141,
    "7038": 4142,
    "prec": 4143,
    "\u2581susp": 4144,
    "605": 4145,
    "\u2581sys": 4146,
    "oemcp": 4147,
    "\u2581mso97": 4148,
    "aterect": 4149,
    "\u2581getoemcp": 4150,
    "404": 4151,
    "\u25810x678": 4152,
    "\u25810x7f9": 4153,
    "\u25810x40a58c": 4154,
    "\u25810x44c250": 4155,
    "\u2581settimer": 4156,
    "\u25810x1211888": 4157,
    "\u25810x56c": 4158,
    "918": 4159,
    "olid": 4160,
    "\u2581getob": 4161,
    "\u25810x70a8": 4162,
    "inmodule": 4163,
    "\u2581freesid": 4164,
    "\u25810x40a57c": 4165,
    "600": 4166,
    "f78": 4167,
    "\u25810x87": 4168,
    "\u25810xff86": 4169,
    "c43": 4170,
    "\u2581wm": 4171,
    "\u25810x40a5b0": 4172,
    "\u25810x40a5b8": 4173,
    "\u25810x42b190": 4174,
    "\u25810x42eace": 4175,
    "\u25810x4de": 4176,
    "\u25810x40e5": 4177,
    "\u25810x84b0": 4178,
    "\u2581settext": 4179,
    "\u2581doyouwantto": 4180,
    "3ce": 4181,
    "item": 4182,
    "\u25810x4175": 4183,
    "\u2581suspend": 4184,
    "\u2581suspendthread": 4185,
    "a54": 4186,
    "9c24": 4187,
    "60000": 4188,
    "\u2581exed": 4189,
    "onceex": 4190,
    "ecuteonce": 4191,
    "\u25810x40a5b4": 4192,
    "\u2581initonceex": 4193,
    "\u2581initonceexecuteonce": 4194,
    "381": 4195,
    "a5c": 4196,
    "\u2581txt": 4197,
    "bd000": 4198,
    "\u2581wsast": 4199,
    "\u25810x40a5ae": 4200,
    "\u25810x40a5b2": 4201,
    "\u25810x40a5b6": 4202,
    "\u25810x40a5ba": 4203,
    "\u2581wsastartup": 4204,
    "3e5": 4205,
    "5cc": 4206,
    "fc0": 4207,
    "92000": 4208,
    "running": 4209,
    "\u25810x424": 4210,
    "allyour": 4211,
    "\u2581openanexplorer": 4212,
    "ops": 4213,
    "287e": 4214,
    "\u2581deletedc": 4215,
    "\u2581registerclipboardf": 4216,
    "\u2581exedows": 4217,
    "\u25810x4169c0": 4218,
    "\u25810x4169c1": 4219,
    "\u25810x1211b54": 4220,
    "\u25810x5265c28": 4221,
    "\u2581createwindowexw": 4222,
    "ae8": 4223,
    "\u25810x40a0": 4224,
    "lipboard": 4225,
    "frominternet": 4226,
    "b50": 4227,
    "\u2581oleacc": 4228,
    "olidbrush": 4229,
    "\u2581setwindowpos": 4230,
    "\u2581createsolidbrush": 4231,
    "db5": 4232,
    "\u2581apphelp": 4233,
    "bcat": 4234,
    "a9000": 4235,
    "ontindirect": 4236,
    "\u2581createfontindirect": 4237,
    "opsys": 4238,
    "\u2581reset": 4239,
    "\u25810x8310": 4240,
    "\u2581propsys": 4241,
    "5a7": 4242,
    "f50": 4243,
    "bcatq": 4244,
    "\u2581clbcatq": 4245,
    "\u25810x181b98": 4246,
    "122": 4247,
    "9a8": 4248,
    "\u25810x2357b": 4249,
    "eec": 4250,
    "ise": 4251,
    "ongle": 4252,
    "\u25810x76500000": 4253,
    "servicehandle": 4254,
    "\u2581closeservicehandle": 4255,
    "\u2581createcompatibledc": 4256,
    "\u2581getfileinformationbyhandleex": 4257,
    "ai": 4258,
    "175": 4259,
    "1ac": 4260,
    "\u25810x500": 4261,
    "\u2581bitblt": 4262,
    "\u2581textouta": 4263,
    "\u2581zip": 4264,
    "9d000": 4265,
    "\u2581msvcr90": 4266,
    "\u25810x1211ed8": 4267,
    "\u25810x1211fdc": 4268,
    "3cc": 4269,
    "em32": 4270,
    "\u25810xff69": 4271,
    "\u25810x599": 4272,
    "rectory": 4273,
    "\u25810x1211f54": 4274,
    "\u25810xfeee011": 4275,
    "\u25810x4095": 4276,
    "3e0": 4277,
    "145": 4278,
    "352": 4279,
    "ncy": 4280,
    "a5000": 4281,
    "\u25810x42a190": 4282,
    "\u25810x940000": 4283,
    "\u2581settextcolor": 4284,
    "\u2581getforegroundwindow": 4285,
    "940": 4286,
    "\u2581sr": 4287,
    "precise": 4288,
    "\u25810x424f": 4289,
    "cmanager": 4290,
    "\u25810x188e4c": 4291,
    "preciseasfiletime": 4292,
    "\u2581registerclassexw": 4293,
    "\u2581getsystemtimepreciseasfiletime": 4294,
    "exit": 4295,
    "\u25810x450": 4296,
    "\u25810x4012": 4297,
    "\u2581openscmanager": 4298,
    "\u2581removedirectorya": 4299,
    "6e8": 4300,
    "\u2581fill": 4301,
    "\u25810x3010": 4302,
    "\u2581invalidaterect": 4303,
    "afc": 4304,
    "bf0": 4305,
    "\u2581createcompatiblebitmap": 4306,
    "902e0": 4307,
    "\u25810xffdf": 4308,
    "cefreque": 4309,
    "\u25810x4902e0": 4310,
    "cefrequency": 4311,
    "\u2581queryperformancefrequency": 4312,
    "\u25810x496790": 4313,
    "\u25810x1211ec8": 4314,
    "dc2": 4315,
    "\u25810x3f20": 4316,
    "fed": 4317,
    "\u25810x90f0": 4318,
    "\u25810x181c60": 4319,
    "\u25810x181c88": 4320,
    "6b6": 4321,
    "\u25810xffe8": 4322,
    "70e": 4323,
    "ae2": 4324,
    "55000": 4325,
    "\u25810x4220": 4326,
    "\u25810x1211518": 4327,
    "998": 4328,
    "fd4": 4329,
    "\u2581getusernamew": 4330,
    "b5000": 4331,
    "\u25810x74000": 4332,
    "c4c": 4333,
    "15000": 4334,
    "\u25810xbcf2": 4335,
    "\u25810x5266c": 4336,
    "\u25810x12117f4": 4337,
    "\u25810x7fc": 4338,
    "54c": 4339,
    "\u25810x1211808": 4340,
    "servicestatus": 4341,
    "py": 4342,
    "af0": 4343,
    "99000": 4344,
    "fd0": 4345,
    "\u2581af": 4346,
    "\u25810x422e": 4347,
    "\u25810x420fe8": 4348,
    "\u25810x3f75f7c": 4349,
    "20c": 4350,
    "erat": 4351,
    "b9000": 4352,
    "\u25810x1211c94": 4353,
    "354": 4354,
    "bfc": 4355,
    "\u25810x4233": 4356,
    "\u25810x4760": 4357,
    "\u25810x4c51": 4358,
    "ht": 4359,
    "db8": 4360,
    "50c0": 4361,
    "\u25810x47e0": 4362,
    "\u25810x41a9f0": 4363,
    "33c": 4364,
    "\u2581bind": 4365,
    "\u25810x2e7": 4366,
    "\u25810x455480": 4367,
    "1a1": 4368,
    "rwlock": 4369,
    "\u25810x7f10": 4370,
    "\u25810x599b5c": 4371,
    "\u25810x599c24": 4372,
    "\u25810x59bf3c": 4373,
    "\u25810x59bf7c": 4374,
    "\u25810x59c120": 4375,
    "\u25810x59c138": 4376,
    "\u25810x1211dbc": 4377,
    "ad000": 4378,
    "utdown": 4379,
    "a83": 4380,
    "d72": 4381,
    "\u25810x7c40": 4382,
    "\u2581connect": 4383,
    "\u2581getenvironmentstring": 4384,
    "9e4": 4385,
    "srw": 4386,
    "\u2581createsemaphorew": 4387,
    "conditionvariablesrw": 4388,
    "\u2581sleepconditionvariablesrw": 4389,
    "9e8": 4390,
    "4bb8": 4391,
    "ster": 4392,
    "20000": 4393,
    "\u2581gethost": 4394,
    "\u25810x1211eac": 4395,
    "9c7": 4396,
    "\u25810xd2": 4397,
    "364": 4398,
    "dup": 4399,
    "19000": 4400,
    "\u25810x47a00": 4401,
    "\u25810x455468": 4402,
    "7ea": 4403,
    "bec": 4404,
    "f44": 4405,
    "8000": 4406,
    "\u2581initializesrwlock": 4407,
    "are": 4408,
    "e74": 4409,
    "\u2581program": 4410,
    "201": 4411,
    "\u25810x5188": 4412,
    "\u25810xffde": 4413,
    "\u25810x3f75f84": 4414,
    "\u25810x3f75f8c": 4415,
    "\u2581destroyicon": 4416,
    "16c": 4417,
    "5e8": 4418,
    "7170": 4419,
    "ethe": 4420,
    "\u25810x7dc4": 4421,
    "\u25810x567678": 4422,
    "\u2581lstrcmpi": 4423,
    "ects": 4424,
    "\u2581drawtexta": 4425,
    "\u2581getdibits": 4426,
    "sk": 4427,
    "758": 4428,
    "ecta": 4429,
    "32c": 4430,
    "334": 4431,
    "ysi": 4432,
    "128": 4433,
    "\u2581getenvironmentstrings": 4434,
    "9b0": 4435,
    "9d0": 4436,
    "nenum": 4437,
    "\u25810x110": 4438,
    "\u25810x7dc5": 4439,
    "\u2581regcreate": 4440,
    "\u25810x42b4": 4441,
    "mit": 4442,
    "zone": 4443,
    "\u25810x42a00": 4444,
    "\u2581getlogicaldrivestringsw": 4445,
    "220": 4446,
    "2c8": 4447,
    "944": 4448,
    "session": 4449,
    "17a8": 4450,
    "\u2581mei": 4451,
    "annot": 4452,
    "\u25810x3f3000": 4453,
    "\u2581openservice": 4454,
    "b69": 4455,
    "\u2581int": 4456,
    "17000": 4457,
    "64000": 4458,
    "\u25810x1211edc": 4459,
    "14c": 4460,
    "format": 4461,
    "\u25810x43f": 4462,
    "openenum": 4463,
    "\u25810x1211e4c": 4464,
    "\u2581wnetopenenum": 4465,
    "6f1": 4466,
    "3cf0": 4467,
    "\u25810xd8": 4468,
    "\u2581launch": 4469,
    "\u2581wnetopenenumw": 4470,
    "\u2581registerwindowmessagea": 4471,
    "367": 4472,
    "e5c": 4473,
    "\u25810x20000": 4474,
    "7e000": 4475,
    "965": 4476,
    "e69": 4477,
    "hysi": 4478,
    "byname": 4479,
    "\u25810x8b50": 4480,
    "zoneinformation": 4481,
    "ry": 4482,
    "990": 4483,
    "uti": 4484,
    "\u25810x7dd9": 4485,
    "\u25810x82f0": 4486,
    "\u25810x120ee": 4487,
    "\u25810x51000": 4488,
    "\u25810x429260": 4489,
    "006": 4490,
    "b58": 4491,
    "b63": 4492,
    "pass2": 4493,
    "\u25810xb4": 4494,
    "\u25810x4229c1": 4495,
    "\u2581meipass2": 4496,
    "\u2581gethostbyname": 4497,
    "\u2581gettimezoneinformation": 4498,
    "\u2581appdata": 4499,
    "\u2581tlsfree": 4500,
    "\u25810x423818": 4501,
    "\u2581createfontindirecta": 4502,
    "77e": 4503,
    "\u25810x420a0f": 4504,
    "\u25810x420a10": 4505,
    "\u25810x1211a44": 4506,
    "\u2581regcreatekey": 4507,
    "bers": 4508,
    "\u25810x3f2": 4509,
    "hip": 4510,
    "valuea": 4511,
    "\u25810x42a4": 4512,
    "\u25810xfeee016": 4513,
    "\u2581flushfile": 4514,
    "\u2581regdelete": 4515,
    "\u2581flushfilebuffers": 4516,
    "1a4": 4517,
    "3de": 4518,
    "6e5": 4519,
    "\u25810x7b00": 4520,
    "b94": 4521,
    "uld": 4522,
    "ecut": 4523,
    "b1000": 4524,
    "\u2581getkeystate": 4525,
    "1f4": 4526,
    "98d": 4527,
    "a6c": 4528,
    "cca": 4529,
    "members": 4530,
    "\u2581fillrect": 4531,
    "\u25810x535": 4532,
    "menuitem": 4533,
    "membership": 4534,
    "\u2581getcursor": 4535,
    "\u2581checktoken": 4536,
    "\u2581checktokenmembership": 4537,
    "\u2581createdib": 4538,
    "932": 4539,
    "accel": 4540,
    "\u25810x4cf": 4541,
    "1d4": 4542,
    "\u2581setendoffile": 4543,
    "a1000": 4544,
    "d30": 4545,
    "d35": 4546,
    "\u25810x419c20": 4547,
    "ba0": 4548,
    "\u25810x44e9": 4549,
    "\u2581createdibsection": 4550,
    "\u2581vc": 4551,
    "33c4": 4552,
    "\u2581append": 4553,
    "\u2581wnetadd": 4554,
    "resourcew": 4555,
    "\u25810x40f6a8": 4556,
    "158": 4557,
    "\u2581ver": 4558,
    "\u25810x180c": 4559,
    "\u25810x169b7": 4560,
    "\u25810x40a540": 4561,
    "\u25810x40a92e": 4562,
    "\u25810x40a930": 4563,
    "\u25810x40a932": 4564,
    "\u25810x40a934": 4565,
    "\u25810x40a936": 4566,
    "\u25810x40a938": 4567,
    "\u25810x40a93a": 4568,
    "\u2581wnetenum": 4569,
    "\u2581wnetenumresourcew": 4570,
    "\u2581wnetaddconnection2w": 4571,
    "\u2581getuserdefaultuilanguage": 4572,
    "6c2": 4573,
    "ae3": 4574,
    "fig": 4575,
    "\u25810x5199": 4576,
    "\u25810x44f850": 4577,
    "\u25810x5617a8": 4578,
    "174": 4579,
    "9bc": 4580,
    "ac000": 4581,
    "\u25810x7d20": 4582,
    "ctrl": 4583,
    "\u25810x430fec": 4584,
    "\u25810x44f8c8": 4585,
    "\u25810xfeedf0": 4586,
    "\u2581openscmanagerw": 4587,
    "a78": 4588,
    "f81": 4589,
    "ups": 4590,
    "\u25810x7f80": 4591,
    "\u25810x44f868": 4592,
    "\u25810x44f880": 4593,
    "\u25810x44f898": 4594,
    "\u25810x44f8b0": 4595,
    "3ff": 4596,
    "d1b": 4597,
    "f71": 4598,
    "cept": 4599,
    "\u25810x52000": 4600,
    "\u25810x430db0": 4601,
    "\u25810x44f8f8": 4602,
    "\u25810x44f940": 4603,
    "\u25810x44f958": 4604,
    "\u25810x44f970": 4605,
    "\u25810x44f988": 4606,
    "su": 4607,
    "9920": 4608,
    "\u25810x40a53a": 4609,
    "\u25810x40a53c": 4610,
    "\u25810x40a53e": 4611,
    "\u25810x40a542": 4612,
    "\u25810x40a544": 4613,
    "\u25810x42168c": 4614,
    "b4c": 4615,
    "\u2581physi": 4616,
    "\u25810x4b40": 4617,
    "\u25810x40a546": 4618,
    "\u25810x41e93e": 4619,
    "\u25810x41ebfa": 4620,
    "\u25810x41ebfb": 4621,
    "\u25810x42168b": 4622,
    "\u2581physical": 4623,
    "\u2581getmodulehandl": 4624,
    "ba000": 4625,
    "\u2581recv": 4626,
    "pc": 4627,
    "ed0": 4628,
    "7c58": 4629,
    "atoma": 4630,
    "cancel": 4631,
    "\u25810x47b1": 4632,
    "\u25810x4aa0": 4633,
    "tive": 4634,
    "\u25810x4bcc": 4635,
    "928": 4636,
    "20302": 4637,
    "31000": 4638,
    "\u25810x3020302": 4639,
    "\u2581wnetcancel": 4640,
    "\u2581wnetcancelconnection2w": 4641,
    "a8c": 4642,
    "b72": 4643,
    "\u25810x2ac": 4644,
    "\u2581openservicew": 4645,
    "bc4": 4646,
    "uni": 4647,
    "54000": 4648,
    "\u25810x4093e4": 4649,
    "\u25810x44e4b8": 4650,
    "\u25810x1211ef4": 4651,
    "7c2": 4652,
    "\u2581202": 4653,
    "\u25810x7fe": 4654,
    "\u25810x4356": 4655,
    "\u25810x7460": 4656,
    "f19": 4657,
    "00e": 4658,
    "38c": 4659,
    "f35": 4660,
    "ange": 4661,
    "destroy": 4662,
    "\u25810x8a60": 4663,
    "\u25810x7f02": 4664,
    "\u25810x8f20": 4665,
    "\u2581environ": 4666,
    "\u2581application": 4667,
    "3b5": 4668,
    "df5": 4669,
    "reen": 4670,
    "\u2581emp": 4671,
    "\u25810x4196": 4672,
    "\u2581setclass": 4673,
    "\u2581geticoninfo": 4674,
    "615": 4675,
    "77c": 4676,
    "dcc": 4677,
    "\u25810x7ef0": 4678,
    "\u25810x3f4000": 4679,
    "\u25810x1211e64": 4680,
    "fc8": 4681,
    "\u2581om": 4682,
    "\u25810x2100": 4683,
    "\u25810x40a7": 4684,
    "322": 4685,
    "a20": 4686,
    "secor": 4687,
    "\u25810x2b4": 4688,
    "\u25810xfff3": 4689,
    "\u2581omsecor": 4690,
    "\u25810x422980": 4691,
    "\u25810x423cf0": 4692,
    "\u25810x42286e": 4693,
    "\u25810x42286f": 4694,
    "\u25810x4228e1": 4695,
    "\u25810x4228e2": 4696,
    "\u25810x422963": 4697,
    "\u25810x422964": 4698,
    "\u25810x42297f": 4699,
    "\u25810x4229c2": 4700,
    "\u25810x4229fa": 4701,
    "\u25810x4229fb": 4702,
    "\u25810x422a0d": 4703,
    "\u25810x422a0e": 4704,
    "\u25810x42329e": 4705,
    "\u25810x42329f": 4706,
    "\u25810x4233fc": 4707,
    "\u25810x423cef": 4708,
    "ee2": 4709,
    "fe4": 4710,
    "\u25810x74d0": 4711,
    "\u2581drawicon": 4712,
    "\u2581setclipboard": 4713,
    "37c": 4714,
    "5bc": 4715,
    "9f8": 4716,
    "53a0": 4717,
    "\u25810x3f22": 4718,
    "\u25810x7dc9": 4719,
    "\u25810x1733c4": 4720,
    "\u2581startservicew": 4721,
    "\u2581getkeyboardstate": 4722,
    "102": 4723,
    "ere": 4724,
    "\u25810xbf": 4725,
    "\u2581pleasec": 4726,
    "\u2581this": 4727,
    "\u25810x565": 4728,
    "a64": 4729,
    "f7c": 4730,
    "\u2581ts": 4731,
    "\u25810xffe9": 4732,
    "\u25810x429903": 4733,
    "\u2581setclipboarddata": 4734,
    "634": 4735,
    "f34": 4736,
    "ff4": 4737,
    "dispatch": 4738,
    "\u25810x429902": 4739,
    "\u25810x42990c": 4740,
    "\u25810x42990d": 4741,
    "\u25810x429920": 4742,
    "\u25810x429921": 4743,
    "\u2581openclipboard": 4744,
    "\u2581setservicestatus": 4745,
    "\u2581startservicectrl": 4746,
    "\u2581startservicectrldispatch": 4747,
    "c5000": 4748,
    "\u2581empty": 4749,
    "runtime": 4750,
    "\u2581closec": 4751,
    "\u25810x509e4": 4752,
    "\u25810x42992a": 4753,
    "\u25810x42992b": 4754,
    "yourcomputer": 4755,
    "\u2581closeclipboard": 4756,
    "d60": 4757,
    "ally": 4758,
    "really": 4759,
    "vebeen": 4760,
    "already": 4761,
    "\u25810x417b50": 4762,
    "\u2581getdrivetypea": 4763,
    "\u2581emptyclipboard": 4764,
    "\u2581openanexploreron": 4765,
    "image": 4766,
    "erator": 4767,
    "\u2581stem32": 4768,
    "936": 4769,
    "tic": 4770,
    "\u25810x71c0": 4771,
    "7d8": 4772,
    "005": 4773,
    "9e0": 4774,
    "\u2581sub": 4775,
    "\u2581wak": 4776,
    "\u2581createservicew": 4777,
    "\u2581gettempfilename": 4778,
    "\u2581wakeconditionvariable": 4779,
    "3a0": 4780,
    "msg": 4781,
    "ted": 4782,
    "52e8": 4783,
    "socket": 4784,
    "\u25810x7070": 4785,
    "runtime140": 4786,
    "\u2581closesocket": 4787,
    "\u2581shellexecut": 4788,
    "\u2581vcruntime140": 4789,
    "arta": 4790,
    "emory": 4791,
    "\u25810x40a59c": 4792,
    "pp": 4793,
    "790": 4794,
    "7675": 4795,
    "\u25810x6ce": 4796,
    "\u2581setclasslonga": 4797,
    "\u2581startservicectrldispatcherw": 4798,
    "19e": 4799,
    "e6c": 4800,
    "\u25810x120f": 4801,
    "\u25810x7ddd": 4802,
    "\u2581youmust": 4803,
    "\u25810x7ee000": 4804,
    "ab0": 4805,
    "b90": 4806,
    "\u25810x4c33": 4807,
    "\u25810x7f8002": 4808,
    "d10": 4809,
    "e10": 4810,
    "ons": 4811,
    "sand": 4812,
    "\u2581add": 4813,
    "b8000": 4814,
    "\u2581submit": 4815,
    "\u2581getfull": 4816,
    "threadpoolwork": 4817,
    "\u2581closethreadpoolwork": 4818,
    "\u2581createthreadpoolwork": 4819,
    "\u2581submitthreadpoolwork": 4820,
    "\u2581setfileinformationbyhandle": 4821,
    "654": 4822,
    "\u25817z6": 4823,
    "\u25817z72": 4824,
    "\u2581strcpy": 4825,
    "\u25810x4c32d8": 4826,
    "\u25810x4c32f0": 4827,
    "\u2581mail": 4828,
    "\u25810x7f8010": 4829,
    "\u25810x12116c0": 4830,
    "9fc": 4831,
    "\u2581getmodulehandleexw": 4832,
    "3d7": 4833,
    "75e": 4834,
    "log": 4835,
    "\u2581new": 4836,
    "\u25810x7dd0": 4837,
    "\u25810x169bc9c": 4838,
    "948": 4839,
    "bb0": 4840,
    "14c8": 4841,
    "unicode": 4842,
    "\u25810x11000": 4843,
    "\u2581extractassociatediconw": 4844,
    "a98": 4845,
    "bc000": 4846,
    "\u25810x350": 4847,
    "\u2581extractassociatedicona": 4848,
    "235": 4849,
    "\u25810x7620": 4850,
    "\u25810x1210e34": 4851,
    "\u2581openprocess": 4852,
    "\u25810x4210": 4853,
    "\u25810x7dcc": 4854,
    "642": 4855,
    "ptr": 4856,
    "ea20": 4857,
    "3a000": 4858,
    "\u2581list": 4859,
    "\u25810x1e5": 4860,
    "\u2581shgetfileinfow": 4861,
    "\u2581getcomputernamea": 4862,
    "24c": 4863,
    "9a000": 4864,
    "\u25810x415": 4865,
    "\u25810x1211e40": 4866,
    "\u2581shellexecuteexw": 4867,
    "df8": 4868,
    "\u25810x5658": 4869,
    "\u25810x8f50": 4870,
    "\u25810x1211768": 4871,
    "vironmentstringsa": 4872,
    "485": 4873,
    "6d6": 4874,
    "ab000": 4875,
    "\u25810x7dcd": 4876,
    "geo": 4877,
    "zer": 4878,
    "1a7": 4879,
    "9ce": 4880,
    "f38": 4881,
    "\u2581tsl": 4882,
    "zerom": 4883,
    "\u2581regenum": 4884,
    "\u25810x40935c": 4885,
    "\u25810x4093ec": 4886,
    "\u2581rtlzerom": 4887,
    "\u2581rtlzeromemory": 4888,
    "265": 4889,
    "\u2581884": 4890,
    "52000": 4891,
    "\u25810x7dd4": 4892,
    "\u2581appendw": 4893,
    "\u2581shutdown": 4894,
    "200": 4895,
    "5ac": 4896,
    "f39": 4897,
    "fbc": 4898,
    "68c8": 4899,
    "\u25810x70e0": 4900,
    "\u25810x72d8": 4901,
    "\u2581findwindowexa": 4902,
    "\u2581getfileattributesa": 4903,
    "40d": 4904,
    "34000": 4905,
    "bf000": 4906,
    "\u25810x7dd1": 4907,
    "\u25810x7dd5": 4908,
    "\u25810x7dd8": 4909,
    "\u25810x7ddc": 4910,
    "\u25810x1211bfc": 4911,
    "dateresourcew": 4912,
    "d14": 4913,
    "\u25813d": 4914,
    "33000": 4915,
    "be000": 4916,
    "302": 4917,
    "6b2": 4918,
    "dos": 4919,
    "\u2581getp": 4920,
    "\u2581endup": 4921,
    "securityinfo": 4922,
    "\u2581registerservicectrlhandlerw": 4923,
    "\u2581fil": 4924,
    "listmsg": 4925,
    "\u25810x7cb0": 4926,
    "\u2581cannot": 4927,
    "\u2581getexit": 4928,
    "\u2581commctrl": 4929,
    "\u2581draglistmsg": 4930,
    "\u2581getwindowsdirectoryw": 4931,
    "bb000": 4932,
    "\u25810x44280": 4933,
    "\u2581updateresourcea": 4934,
    "\u2581endupdateresourcea": 4935,
    "\u2581beginupdateresourcea": 4936,
    "22c": 4937,
    "\u25810x40b7": 4938,
    "a74": 4939,
    "aa0": 4940,
    "fe3": 4941,
    "9c000": 4942,
    "drl66": 4943,
    "geoid": 4944,
    "\u2581tsldrl66": 4945,
    "\u25810x1210f64": 4946,
    "\u2581getusergeoid": 4947,
    "242": 4948,
    "\u25810x1211ed4": 4949,
    "his": 4950,
    "lcid": 4951,
    "14000": 4952,
    "\u25810x7b60": 4953,
    "\u25810x4c4230": 4954,
    "\u2581beginupdateresourcew": 4955,
    "\u2581htonl": 4956,
    "\u25810x40a2": 4957,
    "\u25810x42a730": 4958,
    "\u25810x42a731": 4959,
    "\u25810x4c4248": 4960,
    "\u25810x4c4260": 4961,
    "\u25810x4c4278": 4962,
    "\u25810x4c4290": 4963,
    "\u25810x4c42a8": 4964,
    "\u25810x4c4320": 4965,
    "\u25810x4c4338": 4966,
    "\u25810x4c4350": 4967,
    "\u25810x4c4368": 4968,
    "\u25810x1211e90": 4969,
    "9ac": 4970,
    "b28": 4971,
    "bd7": 4972,
    "32000": 4973,
    "\u2581golfset": 4974,
    "\u25810x1211cb8": 4975,
    "\u2581setenvironmentvariablew": 4976,
    "c6000": 4977,
    "\u25810x572": 4978,
    "\u2581srand": 4979,
    "\u25810x47d0": 4980,
    "ticonex": 4981,
    "\u25810x5040": 4982,
    "\u25810x8ce0": 4983,
    "\u25810x508d0": 4984,
    "\u25810x1211ce0": 4985,
    "\u2581extracticonex": 4986,
    "931": 4987,
    "b12": 4988,
    "\u25810x115": 4989,
    "\u25810x2012": 4990,
    "\u25810x509a8": 4991,
    "\u25810x6c000": 4992,
    "\u25810x1211f5c": 4993,
    "\u2581extracticonexw": 4994,
    "978": 4995,
    "bff": 4996,
    "1a000": 4997,
    "a8000": 4998,
    "ormata": 4999,
    "\u25810x415c": 5000,
    "\u25810x1211d2c": 5001,
    "3ae": 5002,
    "a30": 5003,
    "16000": 5004,
    "b7000": 5005,
    "\u25810xde": 5006,
    "205": 5007,
    "mov": 5008,
    "octls": 5009,
    "\u2581ioctls": 5010,
    "\u25810x4012db": 5011,
    "\u25810x429a81": 5012,
    "\u2581ioctlsocket": 5013,
    "7ad": 5014,
    "a66": 5015,
    "son": 5016,
    "18000": 5017,
    "\u25810x7310": 5018,
    "adm": 5019,
    "\u258108": 5020,
    "f7a8": 5021,
    "1b000": 5022,
    "\u25810xb2": 5023,
    "viewof": 5024,
    "\u25810x402": 5025,
    "\u25810x7380": 5026,
    "mapviewof": 5027,
    "\u25810x1e00000": 5028,
    "\u25810x1e50000": 5029,
    "mapviewofsection": 5030,
    "69e": 5031,
    "box": 5032,
    "3c000": 5033,
    "7c000": 5034,
    "\u2581ntquery": 5035,
    "\u25810x437ae4": 5036,
    "\u25810x75b0": 5037,
    "\u25810x7770": 5038,
    "\u2581listen": 5039,
    "\u25810x437207": 5040,
    "\u25810x437208": 5041,
    "\u25810x437ad2": 5042,
    "\u25810x437ad3": 5043,
    "\u25810x437ae3": 5044,
    "\u25810x437b63": 5045,
    "\u25810x437b64": 5046,
    "\u25810x437b7b": 5047,
    "\u25810x437b7c": 5048,
    "\u25810x437bbd": 5049,
    "\u25810x437bbe": 5050,
    "\u25810x437bce": 5051,
    "\u25810x437bcf": 5052,
    "\u25810x437c42": 5053,
    "\u25810x437c43": 5054,
    "\u25810x1211e80": 5055,
    "ed8": 5056,
    "\u2581ri": 5057,
    "0070": 5058,
    "\u25810x40b9": 5059,
    "\u25810x42df": 5060,
    "\u25810x4c5158": 5061,
    "\u2581charprevw": 5062,
    "da0": 5063,
    "12000": 5064,
    "56000": 5065,
    "\u25810x7bc": 5066,
    "\u25810x4603": 5067,
    "\u25810x4e39": 5068,
    "\u25810x429e2b": 5069,
    "\u25810x429e2c": 5070,
    "\u25810x434d1c": 5071,
    "\u25810x43b7a9": 5072,
    "\u25810x43b7aa": 5073,
    "3b0": 5074,
    "f20": 5075,
    "28000": 5076,
    "\u25810x4020": 5077,
    "\u25810x422ebe": 5078,
    "\u25810x43b7b3": 5079,
    "\u25810x43b7b4": 5080,
    "\u25810x43b7b8": 5081,
    "\u25810x43b7ba": 5082,
    "\u25810x43b7c4": 5083,
    "\u2581messageboxw": 5084,
    "6d7": 5085,
    "\u25814d5": 5086,
    "\u2581wri": 5087,
    "37000": 5088,
    "b3000": 5089,
    "110": 5090,
    "aa8": 5091,
    "e94": 5092,
    "b4000": 5093,
    "b6000": 5094,
    "icence": 5095,
    "option": 5096,
    "\u25810xe00": 5097,
    "\u25810xb0000": 5098,
    "dp": 5099,
    "f3e": 5100,
    "f4e4": 5101,
    "\u2581net": 5102,
    "6c000": 5103,
    "\u2581date": 5104,
    "\u25810x42f": 5105,
    "\u25810xcccc": 5106,
    "\u2581writec": 5107,
    "\u2581rtlinit": 5108,
    "\u25810x1210cf0": 5109,
    "d74": 5110,
    "3e000": 5111,
    "\u25810x2840": 5112,
    "\u2581accept": 5113,
    "\u25810x1211fa0": 5114,
    "\u2581registerclipboardformata": 5115,
    "398": 5116,
    "per": 5117,
    "a90000": 5118,
    "\u25810x600": 5119,
    "\u25810x2840284": 5120,
    "645": 5121,
    "750": 5122,
    "93000": 5123,
    "\u25810x1b5": 5124,
    "\u25810x4444": 5125,
    "\u25810x3b7fb": 5126,
    "a19": 5127,
    "74000": 5128,
    "b2000": 5129,
    "\u25810x7b98": 5130,
    "56c": 5131,
    "6d4": 5132,
    "36000": 5133,
    "72000": 5134,
    "98000": 5135,
    "a7000": 5136,
    "\u25810x636": 5137,
    "\u25810x7c000": 5138,
    "\u25810x100fdd": 5139,
    "d98": 5140,
    "aler": 5141,
    "ched": 5142,
    "1c000": 5143,
    "3f000": 5144,
    "76000": 5145,
    "ae000": 5146,
    "\u2581riched": 5147,
    "362": 5148,
    "eer": 5149,
    "38000": 5150,
    "c4000": 5151,
    "installed": 5152,
    "\u25810x1211788": 5153,
    "48c": 5154,
    "eername": 5155,
    "\u25810x4548": 5156,
    "\u25810x82c0": 5157,
    "\u2581getpeername": 5158,
    "656": 5159,
    "f2c": 5160,
    "20382": 5161,
    "unicodestring": 5162,
    "olec": 5163,
    "7b000": 5164,
    "\u25810x8fc0": 5165,
    "66a": 5166,
    "57000": 5167,
    "aa000": 5168,
    "\u25810x9e": 5169,
    "48000": 5170,
    "a4000": 5171,
    "af000": 5172,
    "\u25810x409364": 5173,
    "111": 5174,
    "cod": 5175,
    "edu": 5176,
    "\u2581exp": 5177,
    "58000": 5178,
    "proces": 5179,
    "\u2581setst": 5180,
    "procedu": 5181,
    "\u25810x7118": 5182,
    "\u25810x7c90": 5183,
    "\u25810xffea": 5184,
    "\u2581rtlinitunicodestring": 5185,
    "a31": 5186,
    "fic": 5187,
    "ock32": 5188,
    "\u25810x4030": 5189,
    "\u25810x4b80": 5190,
    "\u25810x7038": 5191,
    "\u25810x71f8": 5192,
    "\u25810x7428": 5193,
    "\u25810x7888": 5194,
    "\u25810x7f7e": 5195,
    "\u25810xffc0": 5196,
    "\u2581wsock32": 5197,
    "244": 5198,
    "77000": 5199,
    "78000": 5200,
    "a2000": 5201,
    "\u25810x411": 5202,
    "\u25810x44c": 5203,
    "\u25810x4066": 5204,
    "\u25810x5265c3c": 5205,
    "578": 5206,
    "a28": 5207,
    "dfc": 5208,
    "dff": 5209,
    "vert": 5210,
    "\u25810x7188": 5211,
    "\u25810x7738": 5212,
    "\u25810x2ac45": 5213,
    "\u25810x7b000": 5214,
    "\u2581charlow": 5215,
    "9b6": 5216,
    "dc3": 5217,
    "\u25810x7348": 5218,
    "\u25810x7578": 5219,
    "\u25810x78f8": 5220,
    "\u2581device": 5221,
    "\u25810x1211e0c": 5222,
    "\u2581setstdhandle": 5223,
    "amet": 5224,
    "68000": 5225,
    "\u25810x40c4": 5226,
    "\u25810x7268": 5227,
    "\u25810x73b8": 5228,
    "\u25810x7498": 5229,
    "\u25810x40287e": 5230,
    "\u2581internet": 5231,
    "2b0": 5232,
    "76f": 5233,
    "f79": 5234,
    "5c000": 5235,
    "5e000": 5236,
    "9e000": 5237,
    "\u25810x4e80": 5238,
    "\u25810x7508": 5239,
    "\u25810x7658": 5240,
    "\u25810x412565": 5241,
    "7e6": 5242,
    "\u2581qa": 5243,
    "\u2581ntm": 5244,
    "66000": 5245,
    "l6660d": 5246,
    "\u25810x42eb": 5247,
    "\u25810x75e8": 5248,
    "\u25810x76c8": 5249,
    "\u25810xffd4": 5250,
    "\u2581unlock": 5251,
    "\u2581ntmarta": 5252,
    "\u25810x412566": 5253,
    "ceb": 5254,
    "f72": 5255,
    "67000": 5256,
    "3e1": 5257,
    "960": 5258,
    "adc": 5259,
    "ify": 5260,
    "3a08": 5261,
    "\u2581437": 5262,
    "3b000": 5263,
    "5a000": 5264,
    "6a000": 5265,
    "96000": 5266,
    "\u25810x2280": 5267,
    "\u25810x77a8": 5268,
    "\u25810x7968": 5269,
    "\u25810x7ab8": 5270,
    "\u25810x10005c": 5271,
    "b82": 5272,
    "eab": 5273,
    "a3000": 5274,
    "\u25810x7818": 5275,
    "\u25810x42dfe8": 5276,
    "\u25810x454bb8": 5277,
    "a9c": 5278,
    "chr": 5279,
    "\u25810x79d8": 5280,
    "\u25810x7a48": 5281,
    "\u25810x7b28": 5282,
    "\u25810x7c08": 5283,
    "\u25810x7d58": 5284,
    "\u2581verify": 5285,
    "processmemory": 5286,
    "72c": 5287,
    "df4": 5288,
    "97000": 5289,
    "\u25810x7c78": 5290,
    "\u25810x7ce8": 5291,
    "\u25810x1211d50": 5292,
    "\u2581userprofil": 5293,
    "\u2581verifyversion": 5294,
    "drl6660drl6660drl6660drl6660drl6660": 5295,
    "5234": 5296,
    "9f000": 5297,
    "\u25810xfffffffe": 5298,
    "bd8": 5299,
    "62000": 5300,
    "6e000": 5301,
    "73000": 5302,
    "7a000": 5303,
    "ablet": 5304,
    "\u25810x754": 5305,
    "\u25810x4041": 5306,
    "ffff0000": 5307,
    "\u2581ie": 5308,
    "a4c4": 5309,
    "\u2581log": 5310,
    "7f000": 5311,
    "94000": 5312,
    "9b000": 5313,
    "a6000": 5314,
    "\u25810x698": 5315,
    "\u25810x770d": 5316,
    "\u25810x770e": 5317,
    "\u25810xffeb": 5318,
    "\u25810xdf": 5319,
    "\u25810x160": 5320,
    "\u25810x12119a0": 5321,
    "6e4": 5322,
    "gex": 5323,
    "6564": 5324,
    "\u25810xc4": 5325,
    "\u25810x4b4": 5326,
    "\u2581files": 5327,
    "e05": 5328,
    "fa4": 5329,
    "7978": 5330,
    "c2000": 5331,
    "\u25810x4060": 5332,
    "66d": 5333,
    "68c": 5334,
    "\u25810x421": 5335,
    "\u25810x97a0": 5336,
    "\u2581module": 5337,
    "\u25810x1211938": 5338,
    "\u25810x1211e98": 5339,
    "\u25810x3010301": 5340,
    "\u2581dllonexit": 5341,
    "5b2": 5342,
    "67e": 5343,
    "943": 5344,
    "9c4": 5345,
    "b06": 5346,
    "6669": 5347,
    "find": 5348,
    "specw": 5349,
    "resour": 5350,
    "ce2": 5351,
    "f3c": 5352,
    "fox": 5353,
    "\u25810x6a": 5354,
    "\u25810x1860": 5355,
    "\u25810x8410": 5356,
    "\u2581removefile": 5357,
    "114": 5358,
    "219": 5359,
    "315": 5360,
    "99b9": 5361,
    "ocreate": 5362,
    "\u2581module32": 5363,
    "b7e": 5364,
    "dca": 5365,
    "\u25810x28c": 5366,
    "\u25810x40c7": 5367,
    "\u25810x1211cfc": 5368,
    "\u25810x7bc00000": 5369,
    "\u25810x1810": 5370,
    "\u25810x40f5": 5371,
    "\u25810x7e30": 5372,
    "\u25810x120ff": 5373,
    "\u2581removefilespecw": 5374,
    "1f0": 5375,
    "aa5": 5376,
    "pop": 5377,
    "valuew": 5378,
    "1d1": 5379,
    "666": 5380,
    "bc6": 5381,
    "\u2581vie": 5382,
    "\u2581evie": 5383,
    "\u25810x4b00": 5384,
    "\u25810x4238a8": 5385,
    "\u25810x4238d8": 5386,
    "7a0": 5387,
    "9e5": 5388,
    "\u2581psc": 5389,
    "\u25810x411c": 5390,
    "\u25810xffd8": 5391,
    "pla": 5392,
    "\u25810xb6": 5393,
    "\u25810xb9": 5394,
    "\u25810x42b0": 5395,
    "\u25810x6ce0000": 5396,
    "d34": 5397,
    "accelerator": 5398,
    "\u25810xfeedf000": 5399,
    "ens": 5400,
    "copy": 5401,
    "4000000": 5402,
    "\u25810x8e90": 5403,
    "4000000ffff0000": 5404,
    "dd8": 5405,
    "entin": 5406,
    "a24": 5407,
    "fc6": 5408,
    "ower": 5409,
    "start": 5410,
    "\u25810x7ce0": 5411,
    "register": 5412,
    "\u25810xd3da80": 5413,
    "\u25810x1211e58": 5414,
    "3e2": 5415,
    "bdc": 5416,
    "\u25810xd3": 5417,
    "\u25810x44e": 5418,
    "\u25810x1210d90": 5419,
    "186": 5420,
    "f5e": 5421,
    "\u2581fre": 5422,
    "cc000": 5423,
    "\u25810xd1": 5424,
    "767574": 5425,
    "\u25810x40e": 5426,
    "\u25810x77767574": 5427,
    "164": 5428,
    "604": 5429,
    "964": 5430,
    "ad2": 5431,
    "b34": 5432,
    "4444": 5433,
    "\u25810x4195": 5434,
    "\u25810x4e5c": 5435,
    "\u25810xffd5": 5436,
    "\u25810x169b9": 5437,
    "\u25810x1211878": 5438,
    "ension": 5439,
    "\u25810x7b7a": 5440,
    "\u25810x491994": 5441,
    "5f0": 5442,
    "dd0": 5443,
    "f1e": 5444,
    "ible": 5445,
    "block": 5446,
    "ualfox": 5447,
    "\u25810x41f6": 5448,
    "aa6": 5449,
    "\u25810x7b7a7978": 5450,
    "a0e": 5451,
    "medi": 5452,
    "\u2581wor": 5453,
    "software": 5454,
    "5410": 5455,
    "\u25810x210": 5456,
    "\u25810x41de00": 5457,
    "147": 5458,
    "\u25810x6f6": 5459,
    "\u25810x8490": 5460,
    "\u25810x4cb00": 5461,
    "\u25810x4093a5": 5462,
    "\u25810x4093a6": 5463,
    "\u25810x4093a7": 5464,
    "\u25810x4093a8": 5465,
    "\u25810x4093a9": 5466,
    "\u25810x4093aa": 5467,
    "\u25810x4093ab": 5468,
    "xf": 5469,
    "b75": 5470,
    "20c0": 5471,
    "\u25810x7fa": 5472,
    "945": 5473,
    "\u258150": 5474,
    "lack": 5475,
    "driver": 5476,
    "\u25812022030": 5477,
    "95c": 5478,
    "385": 5479,
    "3f8": 5480,
    "804": 5481,
    "bf4": 5482,
    "pdf": 5483,
    "othe": 5484,
    "\u25810x604": 5485,
    "\u25810x40d9": 5486,
    "\u25810x7500": 5487,
    "646": 5488,
    "766": 5489,
    "aad": 5490,
    "b71": 5491,
    "now": 5492,
    "\u2581ftp": 5493,
    "696e6": 5494,
    "licen": 5495,
    "727170": 5496,
    "\u25810x6766": 5497,
    "\u25810x1211d44": 5498,
    "\u25810x73727170": 5499,
    "58c": 5500,
    "712": 5501,
    "f14": 5502,
    "26160": 5503,
    "a900003": 5504,
    "formatw": 5505,
    "\u25810x410acd": 5506,
    "\u25810x410ace": 5507,
    "\u25810x461548": 5508,
    "\u25814d5a900003": 5509,
    "\u25814d5a9000030000000": 5510,
    "\u25814d5a90000300000004000000ffff0000": 5511,
    "138": 5512,
    "152": 5513,
    "ass": 5514,
    "fae": 5515,
    "ipe": 5516,
    "tinue": 5517,
    "\u25810x416c": 5518,
    "\u25810x5266e": 5519,
    "\u2581directory": 5520,
    "\u25810x63626160": 5521,
    "\u25810x67666564": 5522,
    "rey": 5523,
    "thi": 5524,
    "days": 5525,
    "lity": 5526,
    "\u2581lib": 5527,
    "b692e": 5528,
    "\u25810d0a": 5529,
    "\u2581work": 5530,
    "dealer": 5531,
    "\u25811days": 5532,
    "\u2581backg": 5533,
    "73696e6": 5534,
    "ontinue": 5535,
    "\u25810x411b": 5536,
    "\u25810x8330": 5537,
    "\u2581border": 5538,
    "catalogs": 5539,
    "havebeen": 5540,
    "b692e6669": 5541,
    "allcadwork": 5542,
    "\u2581intermedi": 5543,
    "reallywantto": 5544,
    "73696e6b692e6669": 5545,
    "3ec": 5546,
    "b6a69": 5547,
    "\u25810xb1": 5548,
    "\u25810xdb": 5549,
    "\u25810x41b1": 5550,
    "\u25810x7df9": 5551,
    "\u25810xffdc": 5552,
    "forcadwork": 5553,
    "\u2581he": 5554,
    "7d7c": 5555,
    "indi": 5556,
    "f8000": 5557,
    "frame": 5558,
    "b6a6968": 5559,
    "\u25810x8340": 5560,
    "\u25810x85d0": 5561,
    "\u2581string": 5562,
    "\u25810x6b6a6968": 5563,
    "ig": 5564,
    "aab": 5565,
    "\u25810xdc": 5566,
    "\u25810x40a4": 5567,
    "\u25810x565848": 5568,
    "96c": 5569,
    "c0c": 5570,
    "e054": 5571,
    "\u2581movefilew": 5572,
    "3ad": 5573,
    "inki": 5574,
    "\u25810x575": 5575,
    "\u25810x42ec": 5576,
    "343": 5577,
    "692": 5578,
    "6d7363": 5579,
    "\u25810x4966": 5580,
    "\u25810x697070": 5581,
    "\u25810xe06d7363": 5582,
    "pk": 5583,
    "325": 5584,
    "b42": 5585,
    "fcc": 5586,
    "dfdc": 5587,
    "e6d6c": 5588,
    "\u25810x4770": 5589,
    "\u2581lstrcmpw": 5590,
    "\u25810x1211180": 5591,
    "752": 5592,
    "e2c": 5593,
    "llow": 5594,
    "andar": 5595,
    "\u25810x1814": 5596,
    "\u25810x1211f14": 5597,
    "\u25810x6f6e6d6c": 5598,
    "9da": 5599,
    "a00000": 5600,
    "b56": 5601,
    "\u25810xf1": 5602,
    "isation": 5603,
    "processto": 5604,
    "\u25810xfe": 5605,
    "\u25810xba8": 5606,
    "\u25810x4540e0": 5607,
    "\u25810x12117c8": 5608,
    "\u25810x7f7e7d7c": 5609,
    "9d4": 5610,
    "a34": 5611,
    "\u25810x438": 5612,
    "\u25810x42a403": 5613,
    "\u25810x42a404": 5614,
    "\u25810x42a405": 5615,
    "\u25810x42a406": 5616,
    "\u25810x42a407": 5617,
    "\u25810x42a408": 5618,
    "\u25810x42a409": 5619,
    "\u25810x42a40a": 5620,
    "\u25810x42a40b": 5621,
    "\u25810x42a40c": 5622,
    "\u25810x42a40d": 5623,
    "\u25810x42a40e": 5624,
    "\u25810x42a40f": 5625,
    "240": 5626,
    "a1c": 5627,
    "d15": 5628,
    "\u2581hels": 5629,
    "\u2581helsinki": 5630,
    "1c4": 5631,
    "\u25810x7df8": 5632,
    "\u25810x410770": 5633,
    "\u2581getprivateprofilestringa": 5634,
    "2838": 5635,
    "\u25810x8d90": 5636,
    "\u25810xfeee00a0": 5637,
    "processtoken": 5638,
    "\u2581openprocesstoken": 5639,
    "389": 5640,
    "ebc": 5641,
    "izn": 5642,
    "3e3d": 5643,
    "\u2581cqa": 5644,
    "\u25810xb5": 5645,
    "\u2581scqa": 5646,
    "client": 5647,
    "iznadm": 5648,
    "\u25810x4ac": 5649,
    "\u2581pscqa": 5650,
    "\u25810x482854": 5651,
    "\u25810x482870": 5652,
    "\u2581triznadm": 5653,
    "79c": 5654,
    "e89": 5655,
    "f24": 5656,
    "lot": 5657,
    "\u25810xba": 5658,
    "handler": 5659,
    "\u25810x40a40": 5660,
    "nam": 5661,
    "3ef0": 5662,
    "\u25810x474": 5663,
    "\u25810x1824": 5664,
    "\u25810x42a6": 5665,
    "\u25810x88c0": 5666,
    "\u25810xffee": 5667,
    "\u2581wtsapi32": 5668,
    "171": 5669,
    "31c": 5670,
    "dat": 5671,
    "\u25810x6781d8": 5672,
    "emo": 5673,
    "\u2581if": 5674,
    "69c0": 5675,
    "fd000": 5676,
    "77d": 5677,
    "b3c": 5678,
    "\u25810x4ab": 5679,
    "\u25810x169be": 5680,
    "1ae": 5681,
    "\u25810x4235": 5682,
    "\u2581failedto": 5683,
    "00a": 5684,
    "1e7": 5685,
    "b5e": 5686,
    "656c": 5687,
    "\u25810x7a4": 5688,
    "\u25810x6f00": 5689,
    "\u25810x4153a0": 5690,
    "\u25810x1211d60": 5691,
    "\u25810x10000000": 5692,
    "\u25810x431828": 5693,
    "\u25810x44ea20": 5694,
    "3ed": 5695,
    "632": 5696,
    "\u25810x1211e8c": 5697,
    "6f0": 5698,
    "\u25810xbb": 5699,
    "\u25810x10b": 5700,
    "dd1": 5701,
    "f30": 5702,
    "\u2581back": 5703,
    "\u25810x1818": 5704,
    "\u25810x8650": 5705,
    "\u25810x698b8c": 5706,
    "006c": 5707,
    "\u25810x41c4": 5708,
    "\u25810x423e": 5709,
    "\u25810x6900": 5710,
    "\u25810x9810": 5711,
    "\u25810x4c50c0": 5712,
    "23d": 5713,
    "7ae": 5714,
    "\u25810x522": 5715,
    "\u25810x3f24": 5716,
    "\u25810x4300": 5717,
    "ce1": 5718,
    "\u25810x40b5": 5719,
    "\u25810x51af5": 5720,
    "\u25810x51af8": 5721,
    "\u25810x51b68": 5722,
    "ataddress": 5723,
    "\u25810x562838": 5724,
    "\u25810x563888": 5725,
    "\u25810x563a08": 5726,
    "\u25810x569b30": 5727,
    "\u2581getmessagew": 5728,
    "fa0": 5729,
    "fb8": 5730,
    "ff40": 5731,
    "selec": 5732,
    "\u25810xffd1": 5733,
    "\u25810x40f660": 5734,
    "\u2581accessviolationataddress": 5735,
    "366": 5736,
    "\u2581ol": 5737,
    "\u2581issp": 5738,
    "\u25810x798": 5739,
    "\u2581isspace": 5740,
    "sessionid": 5741,
    "\u2581heapdestroy": 5742,
    "fa000": 5743,
    "\u25810xe9a": 5744,
    "\u2581verifyversioninfow": 5745,
    "f70": 5746,
    "\u25810x1211ddc": 5747,
    "672": 5748,
    "6b0": 5749,
    "b39": 5750,
    "da8": 5751,
    "\u25810x41c": 5752,
    "\u25810x40e7": 5753,
    "\u25810x8028": 5754,
    "391": 5755,
    "\u258111": 5756,
    "bed": 5757,
    "f91": 5758,
    "9852": 5759,
    "\u25810xc2": 5760,
    "b26": 5761,
    "etw": 5762,
    "\u25810xd7": 5763,
    "\u25810x57e": 5764,
    "\u25810x6d006c": 5765,
    "\u25810x6f006e": 5766,
    "\u25810x710070": 5767,
    "\u25810x770076": 5768,
    "\u25810x790078": 5769,
    "\u2581cau": 5770,
    "b006a": 5771,
    "gistry": 5772,
    "\u25810x57c": 5773,
    "\u25810x4d80": 5774,
    "\u2581caution": 5775,
    "\u25810x690068": 5776,
    "\u25810x6b006a": 5777,
    "\u25810x730072": 5778,
    "\u25810x750074": 5779,
    "\u25810x7b007a": 5780,
    "\u25810x7d007c": 5781,
    "\u25810x7f007e": 5782,
    "1d5": 5783,
    "ine": 5784,
    "\u25810x9110": 5785,
    "695": 5786,
    "90e": 5787,
    "\u25810x9010": 5788,
    "0x": 5789,
    "3b9": 5790,
    "enh": 5791,
    "\u2581for": 5792,
    "scroll": 5793,
    "\u25810x3f31": 5794,
    "\u2581error0x": 5795,
    "\u25810x3f5000": 5796,
    "e0c": 5797,
    "312": 5798,
    "3f4": 5799,
    "\u25810x5b5": 5800,
    "\u25810x1838": 5801,
    "\u25810x1848": 5802,
    "\u25810x184c": 5803,
    "systemtime": 5804,
    "11c": 5805,
    "294": 5806,
    "486": 5807,
    "7f7": 5808,
    "a32": 5809,
    "a94": 5810,
    "ort": 5811,
    "\u25810x573c": 5812,
    "\u25810x1830": 5813,
    "\u25810x1840": 5814,
    "\u25810x407b": 5815,
    "650": 5816,
    "929": 5817,
    "1110": 5818,
    "\u25810xef": 5819,
    "\u25810x1820": 5820,
    "\u25810x1828": 5821,
    "\u25810x40938": 5822,
    "bac": 5823,
    "ance": 5824,
    "\u25810x4048": 5825,
    "\u25810x7730": 5826,
    "\u25810x4208e0": 5827,
    "1b2": 5828,
    "a45": 5829,
    "ecode": 5830,
    "roniz": 5831,
    "\u25810xda": 5832,
    "\u25810x183c": 5833,
    "\u25810x12117e8": 5834,
    "\u2581writeconsole": 5835,
    "b76": 5836,
    "c44": 5837,
    "\u25810x700": 5838,
    "\u25810x47ee08": 5839,
    "\u25810x12117fc": 5840,
    "\u2581synchroniz": 5841,
    "1c2": 5842,
    "\u25810xe2": 5843,
    "\u25810x1844": 5844,
    "\u25810x44d5": 5845,
    "\u25810x4a40": 5846,
    "\u25810x9030": 5847,
    "6948": 5848,
    "f9000": 5849,
    "\u25810x490": 5850,
    "\u25810x4a80": 5851,
    "\u25810x7eac": 5852,
    "networklicence": 5853,
    "\u2581regqueryvalueexa": 5854,
    "\u2581getuserdefaultlcid": 5855,
    "20e": 5856,
    "282": 5857,
    "765": 5858,
    "c85": 5859,
    "f64": 5860,
    "\u25810x42c": 5861,
    "ofaddress": 5862,
    "\u2581freeenvironmentstringsa": 5863,
    "9d50": 5864,
    "b47c": 5865,
    "betw": 5866,
    "between": 5867,
    "\u25810x181bc0": 5868,
    "installation": 5869,
    "systeminformation": 5870,
    "fc5": 5871,
    "b880": 5872,
    "\u25810xe8": 5873,
    "\u25810xec": 5874,
    "\u25810x5b2": 5875,
    "\u25810x1834": 5876,
    "\u25810x1858": 5877,
    "\u25810x8430": 5878,
    "\u25810x8cb0": 5879,
    "\u25810x593748": 5880,
    "\u2581localrealloc": 5881,
    "cons": 5882,
    "\u25810x182c": 5883,
    "\u25810x43b4": 5884,
    "\u25810xffda": 5885,
    "2ac": 5886,
    "a3c": 5887,
    "mple": 5888,
    "\u25810x1878": 5889,
    "\u25810x7ec4": 5890,
    "\u25810xebad": 5891,
    "37e": 5892,
    "a440": 5893,
    "\u2581from": 5894,
    "\u25810x1854": 5895,
    "\u25810x1868": 5896,
    "\u25810x186c": 5897,
    "eresource": 5898,
    "\u2581sldrl6660drl6660drl6660drl6660drl6660drl6660drl6660drl6660": 5899,
    "a1a": 5900,
    "b7f": 5901,
    "imer": 5902,
    "\u25810x42d8": 5903,
    "\u25810x4420": 5904,
    "\u2581freeresource": 5905,
    "1c8": 5906,
    "402": 5907,
    "d46": 5908,
    "6808": 5909,
    "ensions": 5910,
    "\u25810x1874": 5911,
    "\u25810x4e5e": 5912,
    "27e": 5913,
    "f10": 5914,
    "\u2581qt": 5915,
    "eexist": 5916,
    "\u25810x232": 5917,
    "\u25810x2b2": 5918,
    "\u25810x187c": 5919,
    "\u2581fileexist": 5920,
    "1848": 5921,
    "\u25810xc5": 5922,
    "\u25810x9c8": 5923,
    "\u25810x185c": 5924,
    "\u2581systemtim": 5925,
    "ert": 5926,
    "\u25810x1850": 5927,
    "\u25810x5607a8": 5928,
    "395": 5929,
    "our": 5930,
    "3cd8": 5931,
    "ongles": 5932,
    "\u2581writeconsolew": 5933,
    "a7c": 5934,
    "3130": 5935,
    "isplay": 5936,
    "\u25810x208": 5937,
    "\u25810x1864": 5938,
    "\u25810x1870": 5939,
    "\u2581shellexecutea": 5940,
    "25c": 5941,
    "648": 5942,
    "\u25810xebad74": 5943,
    "\u25810x1153ef0": 5944,
    "270": 5945,
    "713": 5946,
    "c018": 5947,
    "hell": 5948,
    "\u25810x584": 5949,
    "\u2581winht": 5950,
    "\u25810x7e50": 5951,
    "\u25810x7ba00000": 5952,
    "741": 5953,
    "ook": 5954,
    "e100": 5955,
    "created": 5956,
    "\u25810x44000": 5957,
    "\u25810x4208df": 5958,
    "542": 5959,
    "9b8": 5960,
    "ba8": 5961,
    "dlg": 5962,
    "\u25810x4033e6": 5963,
    "\u25810x4af460": 5964,
    "\u25810x2000000": 5965,
    "\u2581getconsolemode": 5966,
    "\u2581filetimetosystemtime": 5967,
    "18c": 5968,
    "915": 5969,
    "det": 5970,
    "bc48": 5971,
    "\u25810mb": 5972,
    "\u2581getthreadpriority": 5973,
    "126": 5974,
    "7a5": 5975,
    "b65": 5976,
    "hook": 5977,
    "dd000": 5978,
    "\u25810x42d": 5979,
    "\u25810x409e": 5980,
    "\u25810xffdb": 5981,
    "\u2581command": 5982,
    "\u2581gdiplus": 5983,
    "\u2581lstrcmpia": 5984,
    "ece": 5985,
    "\u25810x4e300": 5986,
    "\u2581coinitialize": 5987,
    "a75": 5988,
    "f6fc": 5989,
    "utton": 5990,
    "\u25810x3f29": 5991,
    "\u25810x1211f68": 5992,
    "e42": 5993,
    "param": 5994,
    "ci": 5995,
    "bf8": 5996,
    "d4e": 5997,
    "e40": 5998,
    "\u25810x42f3": 5999,
    "\u25810xffed": 6000,
    "\u2581charpreva": 6001,
    "c45": 6002,
    "\u25810x4491": 6003,
    "\u2581service": 6004,
    "\u25810x448ad0": 6005,
    "\u25810xfeee009d": 6006,
    "\u2581shgetfileinfoa": 6007,
    "mt": 6008,
    "630": 6009,
    "7de": 6010,
    "b74": 6011,
    "uldnot": 6012,
    "\u25810x7b80": 6013,
    "\u25810x7e51": 6014,
    "\u25810xed": 6015,
    "\u25810x1211de8": 6016,
    "\u25810x1211fe4": 6017,
    "\u2581applicationerror": 6018,
    "7f9": 6019,
    "rec": 6020,
    "\u2581ls": 6021,
    "6cbe": 6022,
    "ffa0": 6023,
    "ed000": 6024,
    "\u25810x1210f8c": 6025,
    "ookup": 6026,
    "\u25810x120e6d4": 6027,
    "localfiletime": 6028,
    "\u2581filetimetolocalfiletime": 6029,
    "d91": 6030,
    "b188": 6031,
    "\u25810x42fb": 6032,
    "\u25810x406698": 6033,
    "\u25810x419ce0": 6034,
    "13e": 6035,
    "230": 6036,
    "\u25810x5375": 6037,
    "\u2581lookup": 6038,
    "\u25810x1211fb0": 6039,
    "2f2": 6040,
    "3b6": 6041,
    "enter": 6042,
    "\u25810x8420": 6043,
    "\u25810x417d20": 6044,
    "\u25810x7eab78": 6045,
    "\u25810x12117b0": 6046,
    "\u2581getwindowdc": 6047,
    "14a": 6048,
    "5ab": 6049,
    "resourc": 6050,
    "\u25810xd000": 6051,
    "103": 6052,
    "209": 6053,
    "b8e": 6054,
    "94a8": 6055,
    "\u25810x3f28": 6056,
    "\u25810x51a0": 6057,
    "982": 6058,
    "a7b": 6059,
    "f54": 6060,
    "hash": 6061,
    "\u25817z8": 6062,
    "\u25817z2e": 6063,
    "\u25810x120e6d8": 6064,
    "\u25810x1211ba4": 6065,
    "ou": 6066,
    "558": 6067,
    "\u2581x0": 6068,
    "\u25810x1211e88": 6069,
    "\u25810xfeee009e": 6070,
    "a18": 6071,
    "f5000": 6072,
    "\u25817z30": 6073,
    "writeptr": 6074,
    "\u2581default": 6075,
    "\u25810x437116": 6076,
    "\u25810x437117": 6077,
    "\u2581isbadwriteptr": 6078,
    "bc88": 6079,
    "config": 6080,
    "\u25810x6e6": 6081,
    "\u25810x41ab": 6082,
    "be0": 6083,
    "anew": 6084,
    "core": 6085,
    "\u2581fast": 6086,
    "\u25810x99d0": 6087,
    "\u25810x437038": 6088,
    "\u25810x43b6e9": 6089,
    "\u25810x43b6f3": 6090,
    "\u2581riched20": 6091,
    "26d": 6092,
    "560": 6093,
    "6fc": 6094,
    "fb4": 6095,
    "datet": 6096,
    "\u25810x42db": 6097,
    "\u25810x416b50": 6098,
    "\u25810x4540b0": 6099,
    "bb5": 6100,
    "\u25810x452": 6101,
    "\u25810x6978": 6102,
    "00000000": 6103,
    "345": 6104,
    "6b5": 6105,
    "dfe": 6106,
    "eb6": 6107,
    "util": 6108,
    "ngine": 6109,
    "\u25810x2f2": 6110,
    "\u25810x40d": 6111,
    "\u25810x9050": 6112,
    "\u2581onexit": 6113,
    "\u25810x4af478": 6114,
    "\u25810xfeee009f": 6115,
    "161": 6116,
    "12b8": 6117,
    "3030": 6118,
    "ails": 6119,
    "\u2581all": 6120,
    "\u25810x7ea": 6121,
    "\u25810x4139": 6122,
    "\u25810x4deb": 6123,
    "\u25810x43a4c8": 6124,
    "b91": 6125,
    "0064": 6126,
    "1918": 6127,
    "2de0": 6128,
    "\u25810x171": 6129,
    "\u25810x59e": 6130,
    "\u25810x99a0": 6131,
    "\u2581formatmessagea": 6132,
    "30f": 6133,
    "9a0": 6134,
    "d75": 6135,
    "drawing": 6136,
    "\u25810x437800": 6137,
    "\u25810x1211ebc": 6138,
    "f42": 6139,
    "ffa": 6140,
    "red": 6141,
    "\u25810x1d4": 6142,
    "\u25810xfffffffc": 6143,
    "\u2581lcmapstringa": 6144,
    "5df": 6145,
    "\u2581cal": 6146,
    "d9000": 6147,
    "\u25810xd4": 6148,
    "\u25810x1104": 6149,
    "\u25810x1211d8c": 6150,
    "13d": 6151,
    "d3d": 6152,
    "\u25810x4e3": 6153,
    "\u25810x40ad": 6154,
    "\u25810x455438": 6155,
    "\u2581getcursorpos": 6156,
    "3dc": 6157,
    "7b9": 6158,
    "a65": 6159,
    "eac": 6160,
    "\u25810xf4": 6161,
    "ontrol": 6162,
    "\u25810x238": 6163,
    "\u25810x181c10": 6164,
    "\u25810xfeee00a1": 6165,
    "\u2581findwindoww": 6166,
    "705": 6167,
    "912": 6168,
    "e09": 6169,
    "fc1": 6170,
    "orary": 6171,
    "\u25810x824": 6172,
    "\u25810x7d27": 6173,
    "\u25810xfeee00a2": 6174,
    "ui": 6175,
    "274": 6176,
    "2ec": 6177,
    "a67": 6178,
    "dad": 6179,
    "0066": 6180,
    "a448": 6181,
    "e014": 6182,
    "10060": 6183,
    "\u25810xe4": 6184,
    "lotter": 6185,
    "\u25810x6300": 6186,
    "\u25810x181be8": 6187,
    "\u25810x1211ad4": 6188,
    "b64": 6189,
    "d5000": 6190,
    "\u25810xd5": 6191,
    "\u25810x4be": 6192,
    "\u25810x4780": 6193,
    "\u25810x6ab8": 6194,
    "\u25810x630062": 6195,
    "\u25810x650064": 6196,
    "\u25810x670066": 6197,
    "\u25810x1211eb4": 6198,
    "a68": 6199,
    "icen": 6200,
    "\u25810x181c38": 6201,
    "\u25810x40a3d1": 6202,
    "\u25810x40a3d2": 6203,
    "\u25810x40a3d3": 6204,
    "\u25810x610060": 6205,
    "vb": 6206,
    "2ed": 6207,
    "7a6": 6208,
    "whi": 6209,
    "anden": 6210,
    "\u25810x406c": 6211,
    "\u25810x42d0": 6212,
    "\u25810x457c": 6213,
    "\u25810x4c78": 6214,
    "\u25810x435024": 6215,
    "\u25810x4e2de0": 6216,
    "3f2": 6217,
    "500000": 6218,
    "ableto": 6219,
    "\u25810x435026": 6220,
    "\u25810x435032": 6221,
    "\u25810x1211d7c": 6222,
    "\u25810x4a20": 6223,
    "\u25810x42f318": 6224,
    "\u2581expanden": 6225,
    "\u25810x1210f80": 6226,
    "39c": 6227,
    "905": 6228,
    "1cad": 6229,
    "blead": 6230,
    "\u2581ismb": 6231,
    "ssetup": 6232,
    "yourpc": 6233,
    "\u25810x40e9": 6234,
    "visualfox": 6235,
    "\u2581ismbblead": 6236,
    "142": 6237,
    "9a6": 6238,
    "eb0": 6239,
    "zip": 6240,
    "9228": 6241,
    "follow": 6242,
    "\u25810x8660": 6243,
    "following": 6244,
    "\u25810xfeee01c": 6245,
    "\u25810xfeee00a3": 6246,
    "\u25810xfeee00a4": 6247,
    "993": 6248,
    "24ac": 6249,
    "\u25810x41aab0": 6250,
    "\u25810x1211708": 6251,
    "\u25810x1211f08": 6252,
    "\u25810xfeee00a5": 6253,
    "visualfoxpro": 6254,
    "268": 6255,
    "3e4": 6256,
    "b05": 6257,
    "febc": 6258,
    "\u2581vfp": 6259,
    "\u2581charup": 6260,
    "\u25810x41aa80": 6261,
    "\u25810x1211e50": 6262,
    "b38": 6263,
    "wil": 6264,
    "30ec": 6265,
    "bcb8": 6266,
    "\u2581cod": 6267,
    "a5958": 6268,
    "\u25810xc7": 6269,
    "\u25810x1002": 6270,
    "\u25810x4609": 6271,
    "\u25810x97b0": 6272,
    "informati": 6273,
    "\u2581thisprogram": 6274,
    "f66": 6275,
    "web": 6276,
    "18d5": 6277,
    "bdf0": 6278,
    "dc67": 6279,
    "driv": 6280,
    "\u2581choo": 6281,
    "fileex": 6282,
    "\u25810x423f": 6283,
    "\u25810x45cd": 6284,
    "\u25810x71a0": 6285,
    "\u25810x461500": 6286,
    "\u25810x1211b84": 6287,
    "ph": 6288,
    "98e0": 6289,
    "leaset": 6290,
    "\u25810x3f23": 6291,
    "\u25810x7ec8": 6292,
    "\u25810x40a5bc": 6293,
    "aaaaaaaaaaaaaaaa": 6294,
    "\u2581writeprivateprofile": 6295,
    "291": 6296,
    "a3f": 6297,
    "ce5": 6298,
    "dee": 6299,
    "727c": 6300,
    "word": 6301,
    "remov": 6302,
    "before": 6303,
    "\u25810x7ec5": 6304,
    "\u25810x7ed0": 6305,
    "\u2581msvcr71": 6306,
    "downloaded": 6307,
    "\u2581installation": 6308,
    "3534": 6309,
    "sthe": 6310,
    "25000": 6311,
    "advis": 6312,
    "e5000": 6313,
    "eexpi": 6314,
    "\u2581demo": 6315,
    "drive0": 6316,
    "\u25810x447": 6317,
    "\u25810x45b1": 6318,
    "\u25810x9028": 6319,
    "beforeyou": 6320,
    "\u25810xfeee00a6": 6321,
    "\u2581physicaldrive0": 6322,
    "723": 6323,
    "774": 6324,
    "artn": 6325,
    "itis": 6326,
    "roun": 6327,
    "acode": 6328,
    "codes": 6329,
    "\u2581itis": 6330,
    "dblack": 6331,
    "fromth": 6332,
    "inting": 6333,
    "stries": 6334,
    "\u25810x3b3": 6335,
    "edfiles": 6336,
    "withthi": 6337,
    "\u25810x40e4": 6338,
    "\u25810x53e4": 6339,
    "\u2581prints": 6340,
    "continue": 6341,
    "swindows": 6342,
    "isalready": 6343,
    "ofcadwork": 6344,
    "\u2581clientin": 6345,
    "abletoquit": 6346,
    "informatik": 6347,
    "roundblack": 6348,
    "sbeforeyou": 6349,
    "\u2581itisadvis": 6350,
    "\u2581startfile": 6351,
    "clientnumber": 6352,
    "\u2581pleasecheck": 6353,
    "withthissetup": 6354,
    "\u2581intermediate": 6355,
    "allyourrunning": 6356,
    "\u2581doyouwanttore": 6357,
    "\u2581dialogswindows": 6358,
    "\u2581backgroundblack": 6359,
    "sbeforeyoucontinue": 6360,
    "\u2581doyoureallywantto": 6361,
    "\u2581itisadvisabletoquit": 6362,
    "allyourrunningapplication": 6363,
    "sbeforeyoucontinuewiththissetup": 6364,
    "\u2581itisadvisabletoquitallyourrunningapplication": 6365,
    "36b": 6366,
    "7b0": 6367,
    "7c80": 6368,
    "39fa2": 6369,
    "\u25810x7e20": 6370,
    "\u25810x12108": 6371,
    "\u25810x40a3d4": 6372,
    "\u2581comparestringa": 6373,
    "abc": 6374,
    "f37": 6375,
    "fdc": 6376,
    "\u2581afx": 6377,
    "\u25810x4561": 6378,
    "filesfrom": 6379,
    "\u2581openmutexa": 6380,
    "a12": 6381,
    "ba4": 6382,
    "7d4c": 6383,
    "e5d5c": 6384,
    "\u25810x40c8": 6385,
    "available": 6386,
    "\u25810x83e014": 6387,
    "\u25810x1210f88": 6388,
    "\u25810x5f5e5d5c": 6389,
    "115": 6390,
    "14d": 6391,
    "75c": 6392,
    "7b7": 6393,
    "7a00": 6394,
    "f0f9": 6395,
    "\u25810x45d1": 6396,
    "\u25810x5b5a5958": 6397,
    "6aa": 6398,
    "\u2581os": 6399,
    "\u25810x42ea": 6400,
    "\u2581calloc": 6401,
    "\u25810x1f000": 6402,
    "vironmentblock": 6403,
    "298": 6404,
    "510": 6405,
    "93d": 6406,
    "\u25810x43c": 6407,
    "\u25810x6e7": 6408,
    "\u25810x1210dec": 6409,
    "\u25810x1210e2b": 6410,
    "thiscomputer": 6411,
    "imetofiletime": 6412,
    "76e": 6413,
    "be5": 6414,
    "laser": 6415,
    "\u25810x132": 6416,
    "\u25810x4ec0": 6417,
    "\u25810x1210bd7": 6418,
    "2e1": 6419,
    "b5b4": 6420,
    "\u25810xe5": 6421,
    "\u25810x532": 6422,
    "\u25810x3f21": 6423,
    "\u25810x40a6": 6424,
    "\u25810x99e0": 6425,
    "\u25810x1211d4c": 6426,
    "198": 6427,
    "674": 6428,
    "7df": 6429,
    "db4": 6430,
    "fa6": 6431,
    "f084": 6432,
    "c8000": 6433,
    "dec5b": 6434,
    "\u2581vfp6": 6435,
    "\u25810x4013": 6436,
    "\u25810x42ed": 6437,
    "\u25810x419cb0": 6438,
    "\u25810x1210d1b": 6439,
    "\u25810x1211a4c": 6440,
    "2fe": 6441,
    "762": 6442,
    "cf7": 6443,
    "e9a": 6444,
    "\u25810xef4": 6445,
    "\u2581class": 6446,
    "\u25810x7a40": 6447,
    "\u2581change": 6448,
    "\u2581regsetvalueexa": 6449,
    "1d1c": 6450,
    "ffcb": 6451,
    "dified": 6452,
    "\u25810xea6": 6453,
    "\u25810x41ce": 6454,
    "\u25810x4285c0": 6455,
    "\u25810x1210f84": 6456,
    "545": 6457,
    "69a": 6458,
    "9e2": 6459,
    "a71": 6460,
    "f435": 6461,
    "\u2581convert": 6462,
    "\u2581readonly": 6463,
    "\u25810x3820382": 6464,
    "\u25810xfeee00bc": 6465,
    "b67": 6466,
    "\u25811c": 6467,
    "dfor": 6468,
    "\u25810x118": 6469,
    "onsolec": 6470,
    "\u2581getconsolec": 6471,
    "\u2581regcreatekeyexa": 6472,
    "ba9": 6473,
    "d6ec": 6474,
    "\u2581inf": 6475,
    "\u2581oem": 6476,
    "\u25810x3f25": 6477,
    "\u25810x4239": 6478,
    "\u25810x5ab0": 6479,
    "\u2581setscroll": 6480,
    "e7e": 6481,
    "icli": 6482,
    "65554": 6483,
    "times": 6484,
    "\u25810xce": 6485,
    "\u25810x40958": 6486,
    "\u25810x40a3d5": 6487,
    "\u25810x40a3d6": 6488,
    "\u25810x40a3d7": 6489,
    "licenceson": 6490,
    "\u25810xfeedf200": 6491,
    "\u2581getsystemdefaultuilanguage": 6492,
    "154": 6493,
    "336": 6494,
    "555": 6495,
    "910": 6496,
    "10381": 6497,
    "a4948": 6498,
    "\u25810x464": 6499,
    "\u25810x4ee0": 6500,
    "\u2581iswindow": 6501,
    "\u25810x3810381": 6502,
    "3bc": 6503,
    "b6c": 6504,
    "sta": 6505,
    "3880": 6506,
    "\u2581sfc": 6507,
    "\u2581ssp": 6508,
    "locate": 6509,
    "f4e4d4c": 6510,
    "\u25810x44ed": 6511,
    "\u25810x48b0": 6512,
    "\u2581sspicli": 6513,
    "\u25810x40a230": 6514,
    "\u25810x4b4a4948": 6515,
    "\u25810x4f4e4d4c": 6516,
    "\u25810xfeee00a7": 6517,
    "\u2581fileexistsw": 6518,
    "ak": 6519,
    "258": 6520,
    "371": 6521,
    "598": 6522,
    "5a6": 6523,
    "7f2": 6524,
    "f3d": 6525,
    "fb6": 6526,
    "git": 6527,
    "14de": 6528,
    "2524": 6529,
    "a064": 6530,
    "\u25810x4175f4": 6531,
    "\u25810x120f7a8": 6532,
    "\u25810x57565554": 6533,
    "\u25810xfeee00a8": 6534,
    "dda": 6535,
    "2aa8": 6536,
    "fbf8": 6537,
    "\u25810x7aa": 6538,
    "\u25810x3332": 6539,
    "\u25810x42fc38": 6540,
    "\u25810x1210f28": 6541,
    "\u25810x1211a30": 6542,
    "\u25810xfeee00a9": 6543,
    "00f": 6544,
    "a5e": 6545,
    "ecd": 6546,
    "d8000": 6547,
    "\u25810x44d": 6548,
    "\u25810x43424": 6549,
    "\u25810x417d50": 6550,
    "\u25810x421708": 6551,
    "\u25810x1211e94": 6552,
    "\u25810x2280228": 6553,
    "\u2581getconsolecp": 6554,
    "vm": 6555,
    "6c0": 6556,
    "pkg": 6557,
    "vec": 6558,
    "b4e0": 6559,
    "64544": 6560,
    "\u25810x4528": 6561,
    "\u25810x42fbf0": 6562,
    "\u25810x2357b78": 6563,
    "\u25810x43424140": 6564,
    "\u25810x47464544": 6565,
    "gs": 6566,
    "af8": 6567,
    "d1a": 6568,
    "f98": 6569,
    "\u258103": 6570,
    "40a3": 6571,
    "entr": 6572,
    "\u2581qt5": 6573,
    "\u2581comp": 6574,
    "3e3d3c": 6575,
    "\u25810x42a": 6576,
    "\u25810x419638": 6577,
    "\u25810x2050000": 6578,
    "\u25810x3f3e3d3c": 6579,
    "\u25810xfeee00aa": 6580,
    "gcc": 6581,
    "11bc": 6582,
    "6088": 6583,
    "keya": 6584,
    "\u2581ldr": 6585,
    "ce000": 6586,
    "\u25810xdd": 6587,
    "\u25810xac0": 6588,
    "\u25810x3736": 6589,
    "\u25810x5619": 6590,
    "\u2581libgcc": 6591,
    "procedure": 6592,
    "396": 6593,
    "7c0": 6594,
    "f33": 6595,
    "f68": 6596,
    "\u2581dx": 6597,
    "22120": 6598,
    "61514": 6599,
    "e2d2c": 6600,
    "\u2581ifyou": 6601,
    "\u25810x4364": 6602,
    "\u25810x4680": 6603,
    "\u25810x1211f8c": 6604,
    "willinstall": 6605,
    "\u25810x17161514": 6606,
    "\u25810x2f2e2d2c": 6607,
    "\u25810x33323130": 6608,
    "\u25810x37363534": 6609,
    "\u25810xfeee00ac": 6610,
    "745": 6611,
    "a79": 6612,
    "50f4": 6613,
    "6925": 6614,
    "b2c0": 6615,
    "d250": 6616,
    "a2928": 6617,
    "a3938": 6618,
    "\u2581call": 6619,
    "1a1918": 6620,
    "1e1d1c": 6621,
    "7262524": 6622,
    "\u25810x3f27": 6623,
    "\u25810x4e00": 6624,
    "\u25810x9210": 6625,
    "\u25810x1b1a1918": 6626,
    "\u25810x1f1e1d1c": 6627,
    "\u25810x23222120": 6628,
    "\u25810x27262524": 6629,
    "\u25810x2b2a2928": 6630,
    "\u25810x3b3a3938": 6631,
    "\u25810xfeee00ab": 6632,
    "tokeninformation": 6633,
    "238": 6634,
    "7d5": 6635,
    "ba6": 6636,
    "4010": 6637,
    "25150": 6638,
    "\u25810x288": 6639,
    "\u25810x14475": 6640,
    "\u25810x53525150": 6641,
    "\u25810xfeee00ae": 6642,
    "\u2581commandline": 6643,
    "\u2581getvolumeinformationw": 6644,
    "mi": 6645,
    "1dd": 6646,
    "3d1": 6647,
    "775": 6648,
    "f95": 6649,
    "fd2": 6650,
    "ioc": 6651,
    "48bc": 6652,
    "f1000": 6653,
    "\u25810xfeee00ad": 6654,
    "241": 6655,
    "74e": 6656,
    "926": 6657,
    "d37": 6658,
    "fa61": 6659,
    "b0cbc": 6660,
    "\u25810xd6": 6661,
    "toyour": 6662,
    "\u25810x4a4": 6663,
    "\u2581shell": 6664,
    "\u25810x4450": 6665,
    "\u2581formatmessagew": 6666,
    "\u2581getstringtypea": 6667,
    "\u2581writeprocessmemory": 6668,
    "\u2581ntquerysysteminformation": 6669,
    "577": 6670,
    "7be": 6671,
    "93a8": 6672,
    "e4c0": 6673,
    "lang": 6674,
    "\u25810x537": 6675,
    "\u25810x7edc": 6676,
    "\u25810x5265c50": 6677,
    "etofiletime": 6678,
    "\u2581regopenkeya": 6679,
    "\u2581systemtimetofiletime": 6680,
    "390": 6681,
    "c84": 6682,
    "de5": 6683,
    "b640": 6684,
    "argvw": 6685,
    "toargvw": 6686,
    "\u25810x5000": 6687,
    "\u25810x1211f58": 6688,
    "\u25810xfeee01a": 6689,
    "\u2581commandlinetoargvw": 6690,
    "28c": 6691,
    "763": 6692,
    "aec": 6693,
    "tsb": 6694,
    "wit": 6695,
    "74f9": 6696,
    "dc000": 6697,
    "latsb": 6698,
    "\u25810xee": 6699,
    "\u25810x4d0": 6700,
    "rl6660d": 6701,
    "\u25810x4336": 6702,
    "\u25810x4533": 6703,
    "\u25810x5670": 6704,
    "\u25810xc0000": 6705,
    "540": 6706,
    "7ff": 6707,
    "ad9": 6708,
    "d64": 6709,
    "d69": 6710,
    "\u2581rsa": 6711,
    "\u2581rsaenh": 6712,
    "selection": 6713,
    "772": 6714,
    "7f5": 6715,
    "2433": 6716,
    "4090": 6717,
    "9c480": 6718,
    "\u2581dxgi": 6719,
    "\u25810x43a": 6720,
    "\u25810x4640": 6721,
    "\u25810xffd6": 6722,
    "\u25810x12112f8": 6723,
    "\u2581dxgidebug": 6724,
    "9df": 6725,
    "d06": 6726,
    "d90": 6727,
    "ec2": 6728,
    "\u2581ur": 6729,
    "7e68": 6730,
    "\u2581tol": 6731,
    "ca000": 6732,
    "\u25810x5ab": 6733,
    "\u2581tolower": 6734,
    "\u25810x100098": 6735,
    "\u2581getsystemdefault": 6736,
    "adc0": 6737,
    "b414": 6738,
    "da26": 6739,
    "\u25810x22c": 6740,
    "located": 6741,
    "\u25810x41d8": 6742,
    "belocated": 6743,
    "\u25810x417c10": 6744,
    "a60": 6745,
    "d42": 6746,
    "7bc0": 6747,
    "bd10": 6748,
    "f8e7": 6749,
    "lete": 6750,
    "da000": 6751,
    "\u25810x572c": 6752,
    "\u2581strcpyw": 6753,
    "\u25810x417be0": 6754,
    "\u25810x1211a38": 6755,
    "\u2581gettokeninformation": 6756,
    "710": 6757,
    "7f6": 6758,
    "996": 6759,
    "ed2": 6760,
    "\u258131": 6761,
    "7578": 6762,
    "uset": 6763,
    "textw": 6764,
    "\u25810x4055": 6765,
    "\u25810x40b2": 6766,
    "\u25810x4194": 6767,
    "\u25810x4692": 6768,
    "\u25810x9090": 6769,
    "3b4": 6770,
    "911": 6771,
    "d12": 6772,
    "3304": 6773,
    "lear": 6774,
    "\u25810x4551": 6775,
    "\u25810x40a538": 6776,
    "\u25810x42c0e0": 6777,
    "\u2581lookupprivilege": 6778,
    "2be": 6779,
    "33e": 6780,
    "97c": 6781,
    "bf5": 6782,
    "sin": 6783,
    "auth": 6784,
    "\u25810x7d0": 6785,
    "\u25810x4016": 6786,
    "\u25810x44c4": 6787,
    "\u25810x83e6": 6788,
    "\u2581createp": 6789,
    "\u25810xfeee00b1": 6790,
    "791": 6791,
    "b9e": 6792,
    "9053": 6793,
    "\u2581query": 6794,
    "\u25810x4a60": 6795,
    "\u2581globaladd": 6796,
    "771": 6797,
    "f02": 6798,
    "\u258133": 6799,
    "\u2581ro": 6800,
    "9448": 6801,
    "deee": 6802,
    "e9000": 6803,
    "place": 6804,
    "\u25810x56bb": 6805,
    "ecadwork": 6806,
    "fication": 6807,
    "\u25810x1211e84": 6808,
    "\u25810xfeee00af": 6809,
    "\u25810xfeee00b0": 6810,
    "3c5": 6811,
    "71f": 6812,
    "bda": 6813,
    "\u25810x59d": 6814,
    "egistry": 6815,
    "\u25810x90c0": 6816,
    "\u25810x40a548": 6817,
    "\u25810x40b3a0": 6818,
    "d26": 6819,
    "ddc": 6820,
    "ddf": 6821,
    "\u258174": 6822,
    "56c8": 6823,
    "c7000": 6824,
    "\u25810xfb": 6825,
    "\u25810x150": 6826,
    "\u25810x4b6": 6827,
    "\u25810x77000": 6828,
    "\u2581qt5core": 6829,
    "\u25810x40a92c": 6830,
    "\u25810x40a93c": 6831,
    "\u25810x1211894": 6832,
    "\u25810x1211e38": 6833,
    "2c1": 6834,
    "bde": 6835,
    "\u2581us": 6836,
    "brow": 6837,
    "\u2581cpp": 6838,
    "browse": 6839,
    "\u25810x4b7": 6840,
    "\u25810x515": 6841,
    "\u25810x412e": 6842,
    "\u2581choose": 6843,
    "debughook": 6844,
    "\u25810x40e500": 6845,
    "\u25810x1211d88": 6846,
    "\u2581cppdebughook": 6847,
    "134": 6848,
    "55c": 6849,
    "73e": 6850,
    "\u2581cb": 6851,
    "e5f0": 6852,
    "eatom": 6853,
    "\u25810x1312": 6854,
    "\u25810x42f1": 6855,
    "\u25810x4ad0": 6856,
    "\u25810x7e8c": 6857,
    "\u2581folder": 6858,
    "\u2581gettempfilenamew": 6859,
    "3c2": 6860,
    "30c4": 6861,
    "e488": 6862,
    "2e000": 6863,
    "\u25810x103": 6864,
    "\u25810x7d40": 6865,
    "\u25810x1f0001": 6866,
    "\u25810x1210e10": 6867,
    "5f6": 6868,
    "b1c": 6869,
    "b66": 6870,
    "c89": 6871,
    "\u2581at": 6872,
    "2c90": 6873,
    "7b50": 6874,
    "\u2581sen": 6875,
    "a84f1": 6876,
    "\u25810x4a30": 6877,
    "\u25810x53e0": 6878,
    "\u25810x42a402": 6879,
    "\u25810x42a410": 6880,
    "\u25810x54500000": 6881,
    "d79": 6882,
    "ef8": 6883,
    "24000": 6884,
    "fc000": 6885,
    "\u25810x7ecc": 6886,
    "\u25810x12117ec": 6887,
    "\u25810x121189c": 6888,
    "\u25810x1211c14": 6889,
    "\u25810x100fdd58": 6890,
    "\u25810xfeee00b2": 6891,
    "\u25810xfeee00b3": 6892,
    "\u25810xfeee00b4": 6893,
    "aba": 6894,
    "e8f": 6895,
    "f6e": 6896,
    "f96": 6897,
    "00a0": 6898,
    "a4e8": 6899,
    "b354": 6900,
    "\u25810xc6": 6901,
    "\u25810x470": 6902,
    "\u2581winhttp": 6903,
    "\u25810x41f6c0": 6904,
    "\u25810x41f750": 6905,
    "b96": 6906,
    "f844": 6907,
    "anual": 6908,
    "f7000": 6909,
    "\u25810xf2": 6910,
    "\u2581classes": 6911,
    "\u25810x41f780": 6912,
    "\u25810x46b188": 6913,
    "\u25810xe9a1c0": 6914,
    "acceleratorsw": 6915,
    "\u2581regqueryvalueexw": 6916,
    "\u2581loadacceleratorsw": 6917,
    "245": 6918,
    "20be": 6919,
    "6c00": 6920,
    "7d38": 6921,
    "acti": 6922,
    "16c00": 6923,
    "de000": 6924,
    "\u25810x12000": 6925,
    "\u25810x300175": 6926,
    "\u25810x409ab4": 6927,
    "\u25810x409ab5": 6928,
    "\u25810xba8b68": 6929,
    "\u25810x1211684": 6930,
    "\u25810xfeee00b5": 6931,
    "\u2581createsemaphorea": 6932,
    "6b8": 6933,
    "7c6": 6934,
    "ccc2": 6935,
    "alicen": 6936,
    "\u25810xfeee017": 6937,
    "bab": 6938,
    "bd5": 6939,
    "e90": 6940,
    "sel": 6941,
    "f8e4": 6942,
    "prop": 6943,
    "e8000": 6944,
    "ultip": 6945,
    "\u25810xea": 6946,
    "\u25810x6b2": 6947,
    "formultip": 6948,
    "35e": 6949,
    "550": 6950,
    "760": 6951,
    "793": 6952,
    "fb5": 6953,
    "3d1cc": 6954,
    "db000": 6955,
    "\u25810xe6": 6956,
    "\u2581licence": 6957,
    "\u25810x4e39b4": 6958,
    "formultipleob": 6959,
    "32a": 6960,
    "e06": 6961,
    "fde": 6962,
    "3bd2": 6963,
    "ba104": 6964,
    "f6000": 6965,
    "langid": 6966,
    "\u25810x5a4": 6967,
    "\u25810xea3": 6968,
    "\u25810x40ea": 6969,
    "\u25810x4554b0": 6970,
    "\u2581getfullnamew": 6971,
    "\u2581getsecurityinfo": 6972,
    "17c": 6973,
    "f47": 6974,
    "idto": 6975,
    "\u25810x9f": 6976,
    "author": 6977,
    "tochar": 6978,
    "\u25810x46b4": 6979,
    "\u25810x51b5": 6980,
    "\u25810x12116fc": 6981,
    "\u25810x12119b0": 6982,
    "\u2581oemtochar": 6983,
    "\u25810xc0000409": 6984,
    "fdb": 6985,
    "31c0": 6986,
    "da1c": 6987,
    "fb000": 6988,
    "order": 6989,
    "\u25810x7ec9": 6990,
    "usttoken": 6991,
    "\u25810x584d24": 6992,
    "\u25810xfeee00b7": 6993,
    "2fc": 6994,
    "6c4": 6995,
    "7b4": 6996,
    "88c": 6997,
    "92e": 6998,
    "a25": 6999,
    "f45": 7000,
    "ore": 7001,
    "ceff": 7002,
    "ectex": 7003,
    "\u25810xcb": 7004,
    "\u25810xf3": 7005,
    "\u25810x4122": 7006,
    "\u25810x452b": 7007,
    "\u25810x51b6": 7008,
    "privileges": 7009,
    "\u25810x1211cd0": 7010,
    "usttokenprivileges": 7011,
    "48d": 7012,
    "a03": 7013,
    "kar": 7014,
    "2468": 7015,
    "4e9c": 7016,
    "bcac": 7017,
    "ddb8": 7018,
    "dddc": 7019,
    "croll": 7020,
    "dpipe": 7021,
    "ec000": 7022,
    "\u25810xc9": 7023,
    "dialog": 7024,
    "karton": 7025,
    "\u25810x5456": 7026,
    "\u25810x503a8": 7027,
    "\u25810x51af1": 7028,
    "\u25810x51b56": 7029,
    "\u25810x1210f50": 7030,
    "\u25810x12115c4": 7031,
    "\u25810x121192f": 7032,
    "\u2581getscroll": 7033,
    "\u25810xfeee00b8": 7034,
    "983": 7035,
    "c49": 7036,
    "dio": 7037,
    "1cb0": 7038,
    "ocus": 7039,
    "\u25810xca": 7040,
    "\u25810x3c0": 7041,
    "\u25810x4197": 7042,
    "\u25810x1211d24": 7043,
    "\u25810xfeee00b6": 7044,
    "3fc": 7045,
    "a730": 7046,
    "ac18": 7047,
    "ache": 7048,
    "f5fb": 7049,
    "\u2581sdl": 7050,
    "\u25810x8258": 7051,
    "\u25810x120fd": 7052,
    "\u25810xbcf290": 7053,
    "codeprocess": 7054,
    "\u25810xfeee00b9": 7055,
    "\u2581setfiletime": 7056,
    "\u2581getexitcodeprocess": 7057,
    "332": 7058,
    "3d2": 7059,
    "65c": 7060,
    "bee": 7061,
    "da4": 7062,
    "faa": 7063,
    "ff2": 7064,
    "alle": 7065,
    "d4000": 7066,
    "\u25810x990": 7067,
    "\u25810x41cb": 7068,
    "\u25810x4880": 7069,
    "\u25810x7c16": 7070,
    "\u25810xa010": 7071,
    "\u2581selectan": 7072,
    "\u25810x1210f70": 7073,
    "\u25810x121178c": 7074,
    "\u25810x1211b80": 7075,
    "\u25810x1211d14": 7076,
    "\u25810x1211eb0": 7077,
    "uninitialize": 7078,
    "av": 7079,
    "243": 7080,
    "954": 7081,
    "7064": 7082,
    "af40": 7083,
    "45000": 7084,
    "hooke": 7085,
    "\u25810x488": 7086,
    "\u25810x7ee001": 7087,
    "\u25810x7ee002": 7088,
    "\u25810x7ee003": 7089,
    "\u25810x7ee004": 7090,
    "\u25810x7ee005": 7091,
    "\u25810x7ee006": 7092,
    "\u25810x7ee007": 7093,
    "\u25810x7ee008": 7094,
    "\u25810x7ee009": 7095,
    "\u25810x7ee00a": 7096,
    "\u25810x7ee00b": 7097,
    "\u25810x7ee00c": 7098,
    "\u25810x7ee00d": 7099,
    "\u25810x7ee00e": 7100,
    "\u25810x7ee00f": 7101,
    "\u25810x7ee010": 7102,
    "\u25810x7ee011": 7103,
    "\u25810x7ee012": 7104,
    "\u25810x7ee013": 7105,
    "\u25810x7ee014": 7106,
    "\u25810x7ee015": 7107,
    "\u25810x7ee016": 7108,
    "\u25810x7ee017": 7109,
    "\u25810x7ee018": 7110,
    "\u25810x7ee019": 7111,
    "\u2581movefilea": 7112,
    "\u25810xfeee00bb": 7113,
    "79e": 7114,
    "7c1": 7115,
    "baa": 7116,
    "b08c": 7117,
    "pies": 7118,
    "\u25810x567a88": 7119,
    "\u25810x1210e90": 7120,
    "\u25810x1210ee0": 7121,
    "\u25810x12119f4": 7122,
    "\u25810x1211ea0": 7123,
    "311": 7124,
    "348": 7125,
    "b97": 7126,
    "d82": 7127,
    "8a000": 7128,
    "ff000": 7129,
    "ource": 7130,
    "\u25810xfa": 7131,
    "\u2581pass": 7132,
    "context": 7133,
    "setting": 7134,
    "\u25810x412d": 7135,
    "\u2581ldrget": 7136,
    "\u2581destroywindow": 7137,
    "procedureaddress": 7138,
    "\u2581ldrgetprocedureaddress": 7139,
    "386": 7140,
    "be2": 7141,
    "bc20": 7142,
    "d591": 7143,
    "inac": 7144,
    "ec97c": 7145,
    "tries": 7146,
    "display": 7147,
    "\u25810x49b0": 7148,
    "\u25810x7e94": 7149,
    "\u2581cancel": 7150,
    "triesinac": 7151,
    "\u2581setentriesinac": 7152,
    "\u2581outputdebugstringw": 7153,
    "3f5": 7154,
    "5a0": 7155,
    "715": 7156,
    "76c8": 7157,
    "popup": 7158,
    "output": 7159,
    "\u2581stdio": 7160,
    "\u25810x48c0": 7161,
    "\u25810x49d0": 7162,
    "\u25810x1211eb8": 7163,
    "\u25810xfeee00ba": 7164,
    "3fa": 7165,
    "63c": 7166,
    "914": 7167,
    "e18": 7168,
    "desk": 7169,
    "df000": 7170,
    "\u25810x7e95": 7171,
    "\u25810xa020": 7172,
    "\u25810xfeee00d7": 7173,
    "13c": 7174,
    "166": 7175,
    "64c6": 7176,
    "fc360": 7177,
    "focus": 7178,
    "\u25810xfd": 7179,
    "\u25810x593": 7180,
    "\u25810x169bd": 7181,
    "\u25810x435403": 7182,
    "\u25810x435404": 7183,
    "\u25810x435405": 7184,
    "\u25810x435406": 7185,
    "\u25810x537500": 7186,
    "\u25810x6e7ab8": 7187,
    "\u25810x1211cbc": 7188,
    "162": 7189,
    "f07": 7190,
    "ee000": 7191,
    "\u25810xf9": 7192,
    "\u2581next": 7193,
    "\u25810x3f26": 7194,
    "\u25810x8de0": 7195,
    "\u25810x9070": 7196,
    "\u25810xff92": 7197,
    "formation": 7198,
    "deleteatom": 7199,
    "\u25810x1210fc0": 7200,
    "\u25810x1211784": 7201,
    "\u25810xfeee00bd": 7202,
    "\u2581getmenuitem": 7203,
    "\u2581globaldeleteatom": 7204,
    "ik": 7205,
    "234": 7206,
    "dae": 7207,
    "1800": 7208,
    "a088": 7209,
    "\u25810x830": 7210,
    "\u25810x40b0": 7211,
    "\u25810x4370": 7212,
    "\u25810x8a70": 7213,
    "\u25810xa264": 7214,
    "\u25810x42c40": 7215,
    "\u25810x409411": 7216,
    "\u25810x409412": 7217,
    "\u25810x409413": 7218,
    "\u25810x409414": 7219,
    "\u25810x409415": 7220,
    "\u25810x409416": 7221,
    "\u25810x409417": 7222,
    "\u25810x40a3e9": 7223,
    "\u25810x40a3ea": 7224,
    "\u25810x40a3eb": 7225,
    "\u25810x40a3ec": 7226,
    "\u25810x40a3ed": 7227,
    "\u25810x40a3ee": 7228,
    "\u25810x40a3ef": 7229,
    "\u25810x42d4b0": 7230,
    "\u25810x1000130": 7231,
    "\u25810xfeee00be": 7232,
    "\u2581setcurrentdirectoryw": 7233,
    "l6660drl6660drl6660drl6660drl6660drl6660drl6660drl6660drl6660": 7234,
    "2a8": 7235,
    "405": 7236,
    "bc1": 7237,
    "stina": 7238,
    "\u25810x6e4": 7239,
    "\u25810x4a70": 7240,
    "\u25810x9820": 7241,
    "registry": 7242,
    "stination": 7243,
    "\u25810x435407": 7244,
    "\u25810x1210e70": 7245,
    "\u25810x1210fa0": 7246,
    "\u25810x1211dc4": 7247,
    "685": 7248,
    "962": 7249,
    "9aa": 7250,
    "9640": 7251,
    "d874": 7252,
    "feb8": 7253,
    "\u25812db": 7254,
    "\u25810x45d3": 7255,
    "\u2581sample": 7256,
    "105": 7257,
    "9c6": 7258,
    "ee9": 7259,
    "c490": 7260,
    "fe000": 7261,
    "\u2581thefile": 7262,
    "\u25810xfeee00bf": 7263,
    "\u2581oemtochara": 7264,
    "2a9": 7265,
    "cc2": 7266,
    "3b40": 7267,
    "f0df": 7268,
    "\u2581tim": 7269,
    "endar": 7270,
    "f4000": 7271,
    "orrect": 7272,
    "\u25810x3cc": 7273,
    "\u25810x4155": 7274,
    "\u25810x7ed1": 7275,
    "calendar": 7276,
    "\u25810x435408": 7277,
    "\u25810x435409": 7278,
    "\u25810x43540a": 7279,
    "\u25810x43540b": 7280,
    "\u25810x43540c": 7281,
    "\u25810x12118d8": 7282,
    "372": 7283,
    "845": 7284,
    "9b7": 7285,
    "9dc": 7286,
    "drb": 7287,
    "57a9": 7288,
    "a7b0": 7289,
    "\u25813db": 7290,
    "reent": 7291,
    "\u25810xaf": 7292,
    "\u25810xe9": 7293,
    "\u25812drb": 7294,
    "\u25812dvb": 7295,
    "\u25810x1900": 7296,
    "\u2581screen": 7297,
    "\u25810x417cd8": 7298,
    "\u25810x1210e40": 7299,
    "\u25810x1210ed0": 7300,
    "\u2581getfullnamea": 7301,
    "1f8": 7302,
    "795": 7303,
    "12a3": 7304,
    "f8e6": 7305,
    "\u2581bak": 7306,
    "e6000": 7307,
    "\u25810xc3": 7308,
    "\u2581when": 7309,
    "\u2581pleas": 7310,
    "\u25810x1880": 7311,
    "\u25810x8e50": 7312,
    "\u25810xffd9": 7313,
    "\u25810x50e10": 7314,
    "\u25810x429000": 7315,
    "\u25810x42d4e0": 7316,
    "\u25810x1210f30": 7317,
    "\u2581dialogbox": 7318,
    "\u25810xfeee00c0": 7319,
    "unmapviewofsection": 7320,
    "fbf": 7321,
    "tac": 7322,
    "12e7": 7323,
    "ec80": 7324,
    "fileexw": 7325,
    "\u25810x7f03": 7326,
    "\u25810x88d0": 7327,
    "\u25810x41b0b8": 7328,
    "\u25810x430828": 7329,
    "\u25810x43540d": 7330,
    "\u25810xfeee00c1": 7331,
    "\u25810xfeee00c2": 7332,
    "\u2581globalrealloc": 7333,
    "4a": 7334,
    "xe": 7335,
    "\u25810x503": 7336,
    "\u25810x47ab": 7337,
    "\u25810x81a0": 7338,
    "\u25810xfff1": 7339,
    "\u25810x43a4b0": 7340,
    "\u25810x1211994": 7341,
    "\u25810xfeee00c3": 7342,
    "\u2581gettempfilenamea": 7343,
    "bd2": 7344,
    "eab8": 7345,
    "26000": 7346,
    "d6000": 7347,
    "\u25810xc1": 7348,
    "\u25810xe3": 7349,
    "\u25810x40aa": 7350,
    "\u2581getmenu": 7351,
    "\u25810x121185c": 7352,
    "\u2581charlower": 7353,
    "\u25810xfeee00c4": 7354,
    "2c2": 7355,
    "501": 7356,
    "ae6": 7357,
    "d67": 7358,
    "3230": 7359,
    "a9a8": 7360,
    "\u25810xcf": 7361,
    "\u25810xf6": 7362,
    "\u25810x7ce1": 7363,
    "\u25810xa030": 7364,
    "\u25810x43540e": 7365,
    "\u25810x43540f": 7366,
    "\u25810xbcf2c0": 7367,
    "\u2581ntunmapviewofsection": 7368,
    "d20": 7369,
    "2c55": 7370,
    "a120": 7371,
    "44000": 7372,
    "f3000": 7373,
    "\u25810xf7": 7374,
    "\u25810x598": 7375,
    "\u25810x4720": 7376,
    "indirect": 7377,
    "17e": 7378,
    "1c6": 7379,
    "335": 7380,
    "afd": 7381,
    "b45": 7382,
    "d19": 7383,
    "d95": 7384,
    "f75": 7385,
    "e4000": 7386,
    "\u25810x120fe": 7387,
    "\u25810x1210f00": 7388,
    "\u25810xfeee00c6": 7389,
    "27000": 7390,
    "\u25810x427": 7391,
    "\u25810x1074": 7392,
    "\u25810x79b0": 7393,
    "\u25810xf874": 7394,
    "\u2581flatsb": 7395,
    "\u25810x40f690": 7396,
    "\u25810x1211ec0": 7397,
    "2d9": 7398,
    "375": 7399,
    "7d2": 7400,
    "ac5": 7401,
    "chi": 7402,
    "50ee": 7403,
    "drag": 7404,
    "apture": 7405,
    "\u25810x4555": 7406,
    "\u25810x522a": 7407,
    "password": 7408,
    "\u25810x47ee50": 7409,
    "\u25810x566f18": 7410,
    "\u25810x1211e00": 7411,
    "\u2581removedirectoryw": 7412,
    "\u2581setentriesinacla": 7413,
    "7fe": 7414,
    "d9c": 7415,
    "e600": 7416,
    "\u2581dir": 7417,
    "\u2581qae": 7418,
    "2a000": 7419,
    "clear": 7420,
    "datec": 7421,
    "\u25810x1211e5c": 7422,
    "datecadwork": 7423,
    "\u25810xfeee00c5": 7424,
    "\u25810xfeee00c7": 7425,
    "lu": 7426,
    "602": 7427,
    "641": 7428,
    "3c90": 7429,
    "b028": 7430,
    "dbc0": 7431,
    "22000": 7432,
    "\u25810x577": 7433,
    "\u25810x4150": 7434,
    "\u25810xfeee00c8": 7435,
    "\u2581ntmapviewofsection": 7436,
    "24e": 7437,
    "3b3": 7438,
    "3d6": 7439,
    "cut": 7440,
    "d17": 7441,
    "rap": 7442,
    "top": 7443,
    "b445": 7444,
    "b820": 7445,
    "bce6": 7446,
    "bec4": 7447,
    "d1ff": 7448,
    "etch": 7449,
    "\u2581short": 7450,
    "\u25810x4126": 7451,
    "edownload": 7452,
    "\u25810x47b158": 7453,
    "codethread": 7454,
    "\u25810x1211954": 7455,
    "\u25810x1211e74": 7456,
    "initializeex": 7457,
    "\u2581coinitializeex": 7458,
    "\u2581getexitcodethread": 7459,
    "19d": 7460,
    "394": 7461,
    "5ec": 7462,
    "a2c": 7463,
    "0036": 7464,
    "7269": 7465,
    "9380": 7466,
    "\u25810x244": 7467,
    "\u25810x4b0": 7468,
    "\u2581lstrcpyw": 7469,
    "\u2581shortcut": 7470,
    "\u25810x1211df4": 7471,
    "\u25810x1211e18": 7472,
    "19c": 7473,
    "54a": 7474,
    "af2": 7475,
    "d5a": 7476,
    "f32": 7477,
    "3801": 7478,
    "386a": 7479,
    "78e8": 7480,
    "pixe": 7481,
    "2c000": 7482,
    "\u25810xe7": 7483,
    "\u2581users": 7484,
    "\u25810x120e": 7485,
    "\u25810x1210e2c": 7486,
    "\u25810xfeee00ca": 7487,
    "2c4": 7488,
    "ba5": 7489,
    "d6b": 7490,
    "1740": 7491,
    "f2000": 7492,
    "button": 7493,
    "\u25810x562": 7494,
    "\u25810x4908": 7495,
    "\u25810x1210eb0": 7496,
    "\u25810x1211bd0": 7497,
    "\u25810xfeee00c9": 7498,
    "\u2581regenumkey": 7499,
    "170": 7500,
    "lem": 7501,
    "69b2": 7502,
    "6c10": 7503,
    "ustom": 7504,
    "\u25810xa26": 7505,
    "uration": 7506,
    "\u25810x4032": 7507,
    "\u25810x41b8": 7508,
    "\u25810x54a4c4": 7509,
    "\u25810x77000723": 7510,
    "\u25810xfeee00cb": 7511,
    "2c0": 7512,
    "306": 7513,
    "3fe": 7514,
    "764": 7515,
    "9cc": 7516,
    "d73": 7517,
    "d94": 7518,
    "db7": 7519,
    "sen": 7520,
    "001e": 7521,
    "d910": 7522,
    "ef000": 7523,
    "\u25810x3ae": 7524,
    "\u25810x5267": 7525,
    "\u2581updater": 7526,
    "\u25810x1211cf0": 7527,
    "\u2581processidto": 7528,
    "\u2581getdateformatw": 7529,
    "\u2581setsecurityinfo": 7530,
    "\u2581processidtosessionid": 7531,
    "f9e": 7532,
    "sch": 7533,
    "0050": 7534,
    "baf0": 7535,
    "prob": 7536,
    "\u2581you": 7537,
    "ea000": 7538,
    "eb000": 7539,
    "\u25810x9b": 7540,
    "\u25810xe1": 7541,
    "plotter": 7542,
    "\u25810x415e": 7543,
    "\u25810x429d": 7544,
    "\u2581enable": 7545,
    "\u2581cocreate": 7546,
    "\u2581msvcr100": 7547,
    "\u25810x1210e20": 7548,
    "969": 7549,
    "9c5": 7550,
    "60e4": 7551,
    "fail": 7552,
    "d2000": 7553,
    "statu": 7554,
    "\u25810x444": 7555,
    "\u25810x570": 7556,
    "\u25810x4154": 7557,
    "\u25810x4530": 7558,
    "\u25810x8c20": 7559,
    "\u25810xb8ef": 7560,
    "\u25810x43f00": 7561,
    "\u25810x12114bc": 7562,
    "\u25810x1211960": 7563,
    "7a4": 7564,
    "7b2": 7565,
    "d3f": 7566,
    "d54": 7567,
    "e31": 7568,
    "row": 7569,
    "\u2581164": 7570,
    "e7000": 7571,
    "tomati": 7572,
    "problem": 7573,
    "\u25810x4ba0": 7574,
    "\u25810x7e90": 7575,
    "drawings": 7576,
    "\u25810x100220": 7577,
    "\u25810x447088": 7578,
    "\u2581fastfail": 7579,
    "\u25810x1210ed8": 7580,
    "\u2581variantclear": 7581,
    "7ed": 7582,
    "1a64": 7583,
    "53b0": 7584,
    "d1b4": 7585,
    "84000": 7586,
    "e2000": 7587,
    "\u25810xf5": 7588,
    "106000": 7589,
    "167": 7590,
    "7e3": 7591,
    "916": 7592,
    "9f4": 7593,
    "d8c8": 7594,
    "d7000": 7595,
    "oryst": 7596,
    "stodos": 7597,
    "\u2581rtlnt": 7598,
    "eengine": 7599,
    "hasbeen": 7600,
    "\u25810x40e6": 7601,
    "\u25810x40e8": 7602,
    "\u25810x4188": 7603,
    "orystatus": 7604,
    "\u25810x83e610": 7605,
    "\u2581lstrcmpiw": 7606,
    "statustodos": 7607,
    "\u2581sofaddress": 7608,
    "statustodoserror": 7609,
    "\u2581rtlntstatustodoserror": 7610,
    "206": 7611,
    "7f8": 7612,
    "aa1": 7613,
    "b2d": 7614,
    "e35": 7615,
    "65a0": 7616,
    "a310": 7617,
    "b738": 7618,
    "cc59": 7619,
    "4c000": 7620,
    "8c000": 7621,
    "ended": 7622,
    "ration": 7623,
    "\u25810x10e": 7624,
    "\u25810x47a": 7625,
    "\u25810x605": 7626,
    "\u25810x4034": 7627,
    "\u25810x40f4": 7628,
    "\u25810x44d3": 7629,
    "\u25810x120ed": 7630,
    "\u25810x409698": 7631,
    "\u25810x411c10": 7632,
    "\u25810x44d250": 7633,
    "\u25810xca0000": 7634,
    "\u25810x1211d10": 7635,
    "\u25810x1211ea8": 7636,
    "\u2581globalmem": 7637,
    "initializeengine": 7638,
    "\u2581globalmemorystatus": 7639,
    "\u2581failedtoinitializeengine": 7640,
    "ces": 7641,
    "7f48": 7642,
    "f42c": 7643,
    "86000": 7644,
    "88000": 7645,
    "\u25810xd9": 7646,
    "004000": 7647,
    "008000": 7648,
    "00c000": 7649,
    "\u25810x41d": 7650,
    "\u25810x4164": 7651,
    "\u25810x8ef0": 7652,
    "\u25810x4096a0": 7653,
    "\u25810x1211b8c": 7654,
    "\u25810x77001000": 7655,
    "\u25810x77002000": 7656,
    "\u25810x77003000": 7657,
    "\u25810x77004000": 7658,
    "\u25810x77005000": 7659,
    "\u25810x77006000": 7660,
    "\u25810x77007000": 7661,
    "\u25810x77008000": 7662,
    "\u25810x77009000": 7663,
    "\u25810x7700a000": 7664,
    "\u25810x7700b000": 7665,
    "\u25810x7700c000": 7666,
    "\u25810x7700d000": 7667,
    "\u25810x7700e000": 7668,
    "\u25810x7700f000": 7669,
    "\u25810x77010000": 7670,
    "\u25810x77011000": 7671,
    "\u25810x77012000": 7672,
    "\u25810x77013000": 7673,
    "\u25810x77014000": 7674,
    "\u25810x77015000": 7675,
    "\u25810x77016000": 7676,
    "\u25810x77017000": 7677,
    "\u25810x77018000": 7678,
    "\u25810x77019000": 7679,
    "\u25810x7701a000": 7680,
    "\u25810x7701b000": 7681,
    "\u25810x7701c000": 7682,
    "\u25810x7701d000": 7683,
    "\u25810x7701e000": 7684,
    "\u25810x7701f000": 7685,
    "\u25810x77020000": 7686,
    "\u25810x77021000": 7687,
    "\u25810x77022000": 7688,
    "\u25810x77023000": 7689,
    "\u25810x77024000": 7690,
    "\u25810x77025000": 7691,
    "\u25810x77026000": 7692,
    "\u25810x77027000": 7693,
    "\u25810x77028000": 7694,
    "\u25810x77029000": 7695,
    "\u25810x7702a000": 7696,
    "\u25810x7702b000": 7697,
    "\u25810x7702c000": 7698,
    "\u25810x7702d000": 7699,
    "\u25810x7702e000": 7700,
    "\u25810x7702f000": 7701,
    "\u25810x77030000": 7702,
    "\u25810x77031000": 7703,
    "\u25810x77032000": 7704,
    "\u25810x77033000": 7705,
    "\u25810x77034000": 7706,
    "\u25810x77035000": 7707,
    "\u25810x77036000": 7708,
    "\u25810x77037000": 7709,
    "\u25810x77038000": 7710,
    "\u25810x77039000": 7711,
    "\u25810x7703a000": 7712,
    "\u25810x7703b000": 7713,
    "\u25810x7703c000": 7714,
    "\u25810x7703d000": 7715,
    "\u25810x7703e000": 7716,
    "\u25810x7703f000": 7717,
    "\u25810x77040000": 7718,
    "\u25810x77041000": 7719,
    "\u25810x77042000": 7720,
    "\u25810x77043000": 7721,
    "\u25810x77044000": 7722,
    "\u25810x77045000": 7723,
    "\u25810x77046000": 7724,
    "\u25810x77047000": 7725,
    "\u25810x77048000": 7726,
    "\u25810x77049000": 7727,
    "\u25810x7704a000": 7728,
    "\u25810x7704b000": 7729,
    "\u25810x7704c000": 7730,
    "\u25810x7704d000": 7731,
    "\u25810x7704e000": 7732,
    "\u25810x7704f000": 7733,
    "\u25810x77050000": 7734,
    "\u25810x77051000": 7735,
    "\u25810x77052000": 7736,
    "\u25810x77053000": 7737,
    "\u25810x77054000": 7738,
    "\u25810x77055000": 7739,
    "\u25810x77056000": 7740,
    "\u25810x77057000": 7741,
    "\u25810x77058000": 7742,
    "\u25810x77059000": 7743,
    "\u25810x7705a000": 7744,
    "\u25810x7705b000": 7745,
    "\u25810x7705c000": 7746,
    "\u25810x7705d000": 7747,
    "\u25810x7705e000": 7748,
    "\u25810x7705f000": 7749,
    "\u25810x77060000": 7750,
    "\u25810x77061000": 7751,
    "\u25810x77062000": 7752,
    "\u25810x77063000": 7753,
    "\u25810x77064000": 7754,
    "\u25810x77065000": 7755,
    "\u25810x77066000": 7756,
    "\u25810x77067000": 7757,
    "\u25810x77068000": 7758,
    "\u25810x77069000": 7759,
    "\u25810x7706a000": 7760,
    "\u25810x7706b000": 7761,
    "\u25810x7706c000": 7762,
    "\u25810x7706d000": 7763,
    "\u25810x7706e000": 7764,
    "\u25810x7706f000": 7765,
    "\u25810x77070000": 7766,
    "\u25810x77071000": 7767,
    "\u25810x77072000": 7768,
    "\u25810x77073000": 7769,
    "\u25810x77074000": 7770,
    "\u25810x77075000": 7771,
    "\u25810x77076000": 7772,
    "\u25810x77077000": 7773,
    "\u25810x77078000": 7774,
    "\u25810x77079000": 7775,
    "\u25810x7707a000": 7776,
    "\u25810x7707b000": 7777,
    "\u25810x7707c000": 7778,
    "\u25810x7707d000": 7779,
    "\u25810x7707e000": 7780,
    "\u25810x7707f000": 7781,
    "\u25810x77080000": 7782,
    "\u25810x77081000": 7783,
    "\u25810x77082000": 7784,
    "\u25810x77083000": 7785,
    "\u25810x77084000": 7786,
    "\u25810x77085000": 7787,
    "\u25810x77086000": 7788,
    "\u25810x77087000": 7789,
    "\u25810x77088000": 7790,
    "\u25810x77089000": 7791,
    "\u25810x7708a000": 7792,
    "\u25810x7708b000": 7793,
    "\u25810x7708c000": 7794,
    "\u25810x7708d000": 7795,
    "\u25810x7708e000": 7796,
    "\u25810x7708f000": 7797,
    "\u25810x77090000": 7798,
    "\u25810x77091000": 7799,
    "\u25810x77092000": 7800,
    "\u25810x77093000": 7801,
    "\u25810x77094000": 7802,
    "\u25810x77095000": 7803,
    "\u25810x77096000": 7804,
    "\u25810x77097000": 7805,
    "\u25810x77098000": 7806,
    "\u25810x77099000": 7807,
    "\u25810x7709a000": 7808,
    "\u25810x7709b000": 7809,
    "\u25810x7709c000": 7810,
    "\u25810x7709d000": 7811,
    "\u25810x7709e000": 7812,
    "\u25810x7709f000": 7813,
    "\u25810x770a0000": 7814,
    "\u25810x770a1000": 7815,
    "\u25810x770a2000": 7816,
    "\u25810x770a3000": 7817,
    "\u25810x770a4000": 7818,
    "\u25810x770a5000": 7819,
    "\u25810x770a6000": 7820,
    "\u25810x770a7000": 7821,
    "\u25810x770a8000": 7822,
    "\u25810x770a9000": 7823,
    "\u25810x770aa000": 7824,
    "\u25810x770ab000": 7825,
    "\u25810x770ac000": 7826,
    "\u25810x770ad000": 7827,
    "\u25810x770ae000": 7828,
    "\u25810x770af000": 7829,
    "\u25810x770b0000": 7830,
    "\u25810x770b1000": 7831,
    "\u25810x770b2000": 7832,
    "\u25810x770b3000": 7833,
    "\u25810x770b4000": 7834,
    "\u25810x770b5000": 7835,
    "\u25810x770b6000": 7836,
    "\u25810x770b7000": 7837,
    "\u25810x770b8000": 7838,
    "\u25810x770b9000": 7839,
    "\u25810x770ba000": 7840,
    "\u25810x770bb000": 7841,
    "\u25810x770bc000": 7842,
    "\u25810x770bd000": 7843,
    "\u25810x770be000": 7844,
    "\u25810x770bf000": 7845,
    "\u25810x770c0000": 7846,
    "\u25810x770c1000": 7847,
    "\u25810x770c2000": 7848,
    "\u25810x770c3000": 7849,
    "\u25810x770c4000": 7850,
    "\u25810x770c5000": 7851,
    "\u25810x770c6000": 7852,
    "\u25810x770c7000": 7853,
    "\u25810x770c8000": 7854,
    "\u25810x770c9000": 7855,
    "\u25810x770ca000": 7856,
    "\u25810x770cb000": 7857,
    "\u25810x770cc000": 7858,
    "\u25810x770cd000": 7859,
    "\u25810x770ce000": 7860,
    "\u25810x770cf000": 7861,
    "\u25810x770d0000": 7862,
    "\u25810x770d1000": 7863,
    "\u25810x770d2000": 7864,
    "\u25810x770d3000": 7865,
    "\u25810x770d4000": 7866,
    "\u25810x770d5000": 7867,
    "\u25810x770d6000": 7868,
    "\u25810x770d7000": 7869,
    "\u25810x770d8000": 7870,
    "\u25810x770d9000": 7871,
    "\u25810x770da000": 7872,
    "\u25810x770db000": 7873,
    "\u25810x770dc000": 7874,
    "\u25810x770dd000": 7875,
    "\u25810x770de000": 7876,
    "\u25810x770df000": 7877,
    "\u25810x770e0000": 7878,
    "\u25810x770e1000": 7879,
    "\u25810x770e2000": 7880,
    "\u25810x770e3000": 7881,
    "\u25810x770e4000": 7882,
    "\u25810x770e5000": 7883,
    "\u25810x770e6000": 7884,
    "\u25810x770e7000": 7885,
    "\u25810x770e8000": 7886,
    "\u25810x770e9000": 7887,
    "\u25810x770ea000": 7888,
    "\u25810x770eb000": 7889,
    "\u25810x770ec000": 7890,
    "\u25810x770ed000": 7891,
    "\u25810x770ee000": 7892,
    "\u25810x770ef000": 7893,
    "\u25810x770f0000": 7894,
    "\u25810x770f1000": 7895,
    "\u25810x770f2000": 7896,
    "\u25810x770f3000": 7897,
    "\u25810x770f4000": 7898,
    "\u25810x770f5000": 7899,
    "\u25810x770f6000": 7900,
    "\u25810x770f7000": 7901,
    "\u25810x770f8000": 7902,
    "\u25810x770f9000": 7903,
    "\u25810x770fa000": 7904,
    "\u25810x770fb000": 7905,
    "\u25810x770fc000": 7906,
    "\u25810x770fd000": 7907,
    "\u25810x770fe000": 7908,
    "\u25810x770ff000": 7909,
    "\u25810x77100000": 7910,
    "\u25810x77101000": 7911,
    "\u25810x77102000": 7912,
    "\u25810x77103000": 7913,
    "\u25810x77104000": 7914,
    "\u25810x77105000": 7915,
    "\u25810x77106000": 7916,
    "\u25810x77107000": 7917,
    "\u25810x77108000": 7918,
    "\u25810x77109000": 7919,
    "\u25810x7710a000": 7920,
    "\u25810x7710b000": 7921,
    "\u25810x7710c000": 7922,
    "\u25810x7710d000": 7923,
    "\u25810x7710e000": 7924,
    "\u25810x7710f000": 7925,
    "\u25810x77110000": 7926,
    "\u25810x77111000": 7927,
    "\u25810x77112000": 7928,
    "\u25810x77113000": 7929,
    "\u25810x77114000": 7930,
    "\u25810x77115000": 7931,
    "\u25810x77116000": 7932,
    "\u25810x77117000": 7933,
    "\u25810x77118000": 7934,
    "\u25810x77119000": 7935,
    "\u25810x7711a000": 7936,
    "\u25810x7711b000": 7937,
    "\u25810x7711c000": 7938,
    "\u25810x7711d000": 7939,
    "\u25810x7711e000": 7940,
    "\u25810x7711f000": 7941,
    "\u25810x77120000": 7942,
    "\u25810x77121000": 7943,
    "\u25810x77122000": 7944,
    "\u25810x77123000": 7945,
    "\u25810x77124000": 7946,
    "\u25810x77125000": 7947,
    "\u25810x77126000": 7948,
    "\u25810x77127000": 7949,
    "\u25810x77128000": 7950,
    "\u25810x77129000": 7951,
    "\u25810x7712a000": 7952,
    "\u25810x7712b000": 7953,
    "\u25810x7712c000": 7954,
    "\u25810x7712d000": 7955,
    "\u25810x7712e000": 7956,
    "\u25810x7712f000": 7957,
    "\u25810x77130000": 7958,
    "\u25810x77131000": 7959,
    "\u25810x77132000": 7960,
    "\u25810x77133000": 7961,
    "\u25810x77134000": 7962,
    "\u25810x77135000": 7963,
    "\u25810x77136000": 7964,
    "\u25810x77137000": 7965,
    "\u25810x77138000": 7966,
    "\u25810x77139000": 7967,
    "\u25810x7713a000": 7968,
    "\u25810x7713b000": 7969,
    "\u25810x7713c000": 7970,
    "\u25810x7713d000": 7971,
    "\u25810x7713e000": 7972,
    "\u25810x7713f000": 7973,
    "\u25810x77140000": 7974,
    "\u25810x77141000": 7975,
    "\u25810x77142000": 7976,
    "\u25810x77143000": 7977,
    "\u25810x77144000": 7978,
    "\u25810x77145000": 7979,
    "\u25810x77146000": 7980,
    "\u25810x77147000": 7981,
    "\u25810x77148000": 7982,
    "\u25810x77149000": 7983,
    "\u25810x7714a000": 7984,
    "\u25810x7714b000": 7985,
    "\u25810x7714c000": 7986,
    "\u25810x7714d000": 7987,
    "\u25810x7714e000": 7988,
    "\u25810x7714f000": 7989,
    "\u25810x77150000": 7990,
    "\u25810x77151000": 7991,
    "\u25810x77152000": 7992,
    "\u25810x77153000": 7993,
    "\u25810x77154000": 7994,
    "\u25810x77155000": 7995,
    "\u25810x77156000": 7996,
    "\u25810x77157000": 7997,
    "\u25810x77158000": 7998,
    "\u25810x77159000": 7999,
    "\u25810x7715a000": 8000,
    "\u25810x7715b000": 8001,
    "\u25810x7715c000": 8002,
    "\u25810x7715d000": 8003,
    "\u25810x7715e000": 8004,
    "\u25810x7715f000": 8005,
    "\u25810x77160000": 8006,
    "\u25810x77161000": 8007,
    "\u25810x77162000": 8008,
    "\u25810x77163000": 8009,
    "\u25810x77164000": 8010,
    "\u25810x77165000": 8011,
    "\u25810x77166000": 8012,
    "\u25810x77167000": 8013,
    "\u25810x77168000": 8014,
    "\u25810x77169000": 8015,
    "\u25810x7716a000": 8016,
    "\u25810x7716b000": 8017,
    "\u25810x7716c000": 8018,
    "\u25810x7716d000": 8019,
    "\u25810x7716e000": 8020,
    "\u25810x7716f000": 8021,
    "\u25810x77170000": 8022,
    "\u25810x77171000": 8023,
    "\u25810x77172000": 8024,
    "\u25810x77173000": 8025,
    "\u25810x77174000": 8026,
    "\u25810x77175000": 8027,
    "\u25810x77176000": 8028,
    "\u25810x77177000": 8029,
    "\u25810x77178000": 8030,
    "\u25810x77179000": 8031,
    "\u25810x7717a000": 8032,
    "\u25810x7717b000": 8033,
    "\u25810x7717c000": 8034,
    "\u25810x7717d000": 8035,
    "\u25810x7717e000": 8036,
    "\u25810x7717f000": 8037,
    "\u25810x77180000": 8038,
    "\u25810x77181000": 8039,
    "\u25810x77182000": 8040,
    "\u25810x77183000": 8041,
    "\u25810x77184000": 8042,
    "\u25810x77185000": 8043,
    "\u25810x77186000": 8044,
    "\u25810x77187000": 8045,
    "\u25810x77188000": 8046,
    "\u25810x77189000": 8047,
    "\u25810x7718a000": 8048,
    "\u25810x7718b000": 8049,
    "\u25810x7718c000": 8050,
    "\u25810x7718d000": 8051,
    "\u25810x7718e000": 8052,
    "\u25810x7718f000": 8053,
    "\u25810x77190000": 8054,
    "\u2581readconsole": 8055,
    "\u2581module32next": 8056,
    "\u2581physicalmemory": 8057,
    "sh": 8058,
    "7e5": 8059,
    "e70": 8060,
    "wer": 8061,
    "78de": 8062,
    "797c": 8063,
    "anies": 8064,
    "flush": 8065,
    "\u25810x6a0": 8066,
    "\u25810x40ca": 8067,
    "\u25810x4c79": 8068,
    "\u25810x120f5": 8069,
    "\u25810x409696": 8070,
    "\u25810x40969a": 8071,
    "\u25810x40969c": 8072,
    "\u25810x545678": 8073,
    "\u25810x56c750": 8074,
    "\u25810x77191000": 8075,
    "\u25810x77192000": 8076,
    "\u25810x77193000": 8077,
    "\u25810x77194000": 8078,
    "\u25810x77195000": 8079,
    "\u25810x77196000": 8080,
    "\u25810x77197000": 8081,
    "\u25810x77198000": 8082,
    "\u25810x77199000": 8083,
    "\u25810x7719a000": 8084,
    "\u25810x7719b000": 8085,
    "\u25810x7719c000": 8086,
    "\u25810x7719d000": 8087,
    "\u25810x7719e000": 8088,
    "bba": 8089,
    "\u2581pro": 8090,
    "\u25810x1e4": 8091,
    "\u25810x40d6": 8092,
    "\u25810x4929": 8093,
    "\u25810x7541": 8094,
    "\u25810x9170": 8095,
    "\u25810x9230": 8096,
    "\u25810x120de": 8097,
    "\u25810x78000": 8098,
    "\u25810x40969e": 8099,
    "\u25810x447040": 8100,
    "\u25810x1210fe0": 8101,
    "\u25810x1211bf4": 8102,
    "\u25810x7719f000": 8103,
    "\u25810x771a0000": 8104,
    "\u25810x771a1000": 8105,
    "\u25810x771a2000": 8106,
    "\u25810x771a3000": 8107,
    "\u25810x771a4000": 8108,
    "\u25810x771a5000": 8109,
    "\u25810x771a6000": 8110,
    "\u25810x771a7000": 8111,
    "\u25810x771a8000": 8112,
    "\u25810x771a9000": 8113,
    "\u25810x771aa000": 8114,
    "\u25810x771ab000": 8115,
    "\u25810x771ac000": 8116,
    "\u25810x771ad000": 8117,
    "\u25810x771ae000": 8118,
    "\u25810x771af000": 8119,
    "\u25810x771b0000": 8120,
    "\u25810x771b1000": 8121,
    "\u25810x771b2000": 8122,
    "\u25810x771b3000": 8123,
    "\u25810x771b4000": 8124,
    "\u25810x771b5000": 8125,
    "\u25810x771b6000": 8126,
    "\u25810x771b7000": 8127,
    "\u25810x771b8000": 8128,
    "\u25810xfeee00cc": 8129,
    "\u2581globalfind": 8130,
    "3da": 8131,
    "9a4": 8132,
    "b16": 8133,
    "3844": 8134,
    "7865": 8135,
    "900f": 8136,
    "b1d0": 8137,
    "d96c": 8138,
    "f538": 8139,
    "\u25810x3ac": 8140,
    "\u25810x458": 8141,
    "\u25810x51c4": 8142,
    "emaphore": 8143,
    "\u25810x3b7fc": 8144,
    "\u25810x4096a2": 8145,
    "\u25810x1211984": 8146,
    "\u2581deviceioc": 8147,
    "\u25810x771b9000": 8148,
    "\u25810x771ba000": 8149,
    "\u25810x771bb000": 8150,
    "\u25810x771bc000": 8151,
    "\u25810x771bd000": 8152,
    "\u25810x771be000": 8153,
    "\u25810x771bf000": 8154,
    "\u25810x771c0000": 8155,
    "\u25810x771c1000": 8156,
    "\u25810x771c2000": 8157,
    "\u25810x771c3000": 8158,
    "\u25810x771c4000": 8159,
    "\u25810x771c5000": 8160,
    "\u25810x771c6000": 8161,
    "configuration": 8162,
    "14f": 8163,
    "1a8": 8164,
    "108a": 8165,
    "6c40": 8166,
    "def0": 8167,
    "ed60": 8168,
    "\u25810x7e98": 8169,
    "\u25810x7e99": 8170,
    "\u25810x7ed8": 8171,
    "\u25810x7ed9": 8172,
    "\u25810xf000": 8173,
    "attribute": 8174,
    "\u25810x855478": 8175,
    "\u25810xfeee00cd": 8176,
    "\u25810xfeee00ce": 8177,
    "\u2581localfilet": 8178,
    "\u2581localfiletimetofiletime": 8179,
    "67b": 8180,
    "ae4": 8181,
    "ba3": 8182,
    "ivq": 8183,
    "ofi": 8184,
    "\u2581sk": 8185,
    "69bc": 8186,
    "b6b0": 8187,
    "rein": 8188,
    "\u25810xeb": 8189,
    "mutexw": 8190,
    "\u25810x40f0": 8191,
    "\u25810x419a": 8192,
    "\u25810x7e8d": 8193,
    "\u25810x7ed4": 8194,
    "\u25810x7ed5": 8195,
    "\u25810x81a1": 8196,
    "\u25810x8850": 8197,
    "\u25810xfeee00cf": 8198,
    "225": 8199,
    "658": 8200,
    "f06": 8201,
    "gen": 8202,
    "16a6": 8203,
    "1ef0": 8204,
    "3382": 8205,
    "2acb2": 8206,
    "\u25810x5ec": 8207,
    "formata": 8208,
    "\u25810x7e9c": 8209,
    "\u25810x7e9d": 8210,
    "\u25810x7ecd": 8211,
    "\u2581b2acb2": 8212,
    "namedpipe": 8213,
    "stringlen": 8214,
    "\u25810x421030": 8215,
    "\u25810x7eabc0": 8216,
    "\u2581deviceiocontrol": 8217,
    "b93": 8218,
    "d41": 8219,
    "40e2": 8220,
    "\u2581uti": 8221,
    "cidto": 8222,
    "\u25810x4644": 8223,
    "\u25810x4820": 8224,
    "\u25810x7e91": 8225,
    "\u25810x7ea4": 8226,
    "\u2581lcidto": 8227,
    "\u25810x697864": 8228,
    "\u2581module32first": 8229,
    "uldnotbelocated": 8230,
    "\u2581lcidtolocalename": 8231,
    "2e2": 8232,
    "7c7": 8233,
    "ofa": 8234,
    "c7de": 8235,
    "igin": 8236,
    "resp": 8237,
    "iginal": 8238,
    "\u25810x4b2": 8239,
    "details": 8240,
    "\u25810x4368": 8241,
    "\u25810x8f30": 8242,
    "\u25810x120f9": 8243,
    "\u2581charlowerw": 8244,
    "\u2581cocreateinst": 8245,
    "uldnotbelocatedint": 8246,
    "80c": 8247,
    "b54": 8248,
    "can": 8249,
    "\u258100": 8250,
    "28de": 8251,
    "\u2581old": 8252,
    "3b594": 8253,
    "dlg32": 8254,
    "olcid": 8255,
    "enamet": 8256,
    "loading": 8257,
    "\u25810x413a": 8258,
    "\u25810x5357": 8259,
    "\u25810x7ead": 8260,
    "\u25810x86d8": 8261,
    "outputcp": 8262,
    "\u25810x4899b9": 8263,
    "\u25810xea3bd0": 8264,
    "enametolcid": 8265,
    "\u2581localenametolcid": 8266,
    "585": 8267,
    "tob": 8268,
    "f638": 8269,
    "\u2581tra": 8270,
    "which": 8271,
    "\u25810x40d4": 8272,
    "\u25810x7ea5": 8273,
    "\u25810x4919d0": 8274,
    "\u25810x491a5c": 8275,
    "\u25810x491a74": 8276,
    "todownload": 8277,
    "\u2581waitformultipleob": 8278,
    "290": 8279,
    "7a9": 8280,
    "bae": 8281,
    "db2": 8282,
    "3f20": 8283,
    "98c0": 8284,
    "\u2581skip": 8285,
    "\u25810x431": 8286,
    "\u25810x40d7": 8287,
    "\u25810x44ee": 8288,
    "\u25810x8a41": 8289,
    "\u25810x94c0": 8290,
    "\u25810x40300c": 8291,
    "\u2581comdlg32": 8292,
    "1d9": 8293,
    "b5b": 8294,
    "f4f": 8295,
    "f6f": 8296,
    "ff5": 8297,
    "9384": 8298,
    "b4ad": 8299,
    "b4f9": 8300,
    "fc20": 8301,
    "tine": 8302,
    "ynam": 8303,
    "\u2581not": 8304,
    "swith": 8305,
    "afcdff": 8306,
    "d1ffca": 8307,
    "updated": 8308,
    "\u25810x4222": 8309,
    "\u25810x4740": 8310,
    "\u25810x4bc0": 8311,
    "\u25810x7320": 8312,
    "\u2581utility": 8313,
    "\u25810x41de48": 8314,
    "\u25810x424f20": 8315,
    "afcdffceff": 8316,
    "tivewindow": 8317,
    "\u2581b2acb2afcdffceff": 8318,
    "9f2": 8319,
    "ab6": 8320,
    "005c": 8321,
    "384c": 8322,
    "a2f8": 8323,
    "bc97": 8324,
    "72852": 8325,
    "willex": 8326,
    "\u25810x5e0": 8327,
    "\u25810x4529": 8328,
    "\u25810x7e66": 8329,
    "\u2581backup": 8330,
    "\u2581myarg1": 8331,
    "\u25810x350b8": 8332,
    "ssoftware": 8333,
    "\u25810x4093a4": 8334,
    "\u25810x4093ac": 8335,
    "\u25810x42c070": 8336,
    "\u25810x43a480": 8337,
    "\u25810x44c280": 8338,
    "\u25810x44d500": 8339,
    "\u25810x566b14": 8340,
    "\u25810x7c16a0": 8341,
    "\u25810x1211df8": 8342,
    "\u2581getmenuinfo": 8343,
    "\u2581getconsoleoutputcp": 8344,
    "fx": 8345,
    "2f00": 8346,
    "a6b4": 8347,
    "a90e": 8348,
    "rchr": 8349,
    "187f4": 8350,
    "\u25810x498": 8351,
    "\u25810x6ed": 8352,
    "\u25810x4174": 8353,
    "istingfile": 8354,
    "\u2581setthreadpriority": 8355,
    "1fc": 8356,
    "33f": 8357,
    "7d4": 8358,
    "0054": 8359,
    "b374": 8360,
    "b554": 8361,
    "fine": 8362,
    "node": 8363,
    "\u2581sup": 8364,
    "382d9": 8365,
    "onthe": 8366,
    "ustbe": 8367,
    "\u25810x45c": 8368,
    "\u25810x53d": 8369,
    "connect": 8370,
    "\u25810x4072": 8371,
    "\u25810x4de9": 8372,
    "\u25810x7020": 8373,
    "\u25810x7ea8": 8374,
    "\u2581explorer": 8375,
    "73c": 8376,
    "9fa": 8377,
    "a13": 8378,
    "b73": 8379,
    "bbd": 8380,
    "bd6": 8381,
    "d8e": 8382,
    "fax": 8383,
    "\u2581pb": 8384,
    "a9c0": 8385,
    "b3f0": 8386,
    "b3f8": 8387,
    "d478": 8388,
    "40000": 8389,
    "enthe": 8390,
    "exist": 8391,
    "\u2581clic": 8392,
    "ynamic": 8393,
    "registered": 8394,
    "\u25810x1211118": 8395,
    "\u25810xfeee00d5": 8396,
    "\u25810xfeee00d6": 8397,
    "638": 8398,
    "dby": 8399,
    "dxf": 8400,
    "e75": 8401,
    "suc": 8402,
    "7d24": 8403,
    "9e00": 8404,
    "allh": 8405,
    "aper": 8406,
    "damm": 8407,
    "duet": 8408,
    "e1d8": 8409,
    "etoc": 8410,
    "expi": 8411,
    "faxt": 8412,
    "grey": 8413,
    "ofit": 8414,
    "\u25812to": 8415,
    "1646d": 8416,
    "726b2": 8417,
    "7a6e6": 8418,
    "befor": 8419,
    "c0000": 8420,
    "doyou": 8421,
    "elect": 8422,
    "fully": 8423,
    "mpres": 8424,
    "phone": 8425,
    "resin": 8426,
    "swill": 8427,
    "texts": 8428,
    "\u2581776f": 8429,
    "\u2581zipp": 8430,
    "alling": 8431,
    "allzip": 8432,
    "arenot": 8433,
    "custom": 8434,
    "forany": 8435,
    "licenc": 8436,
    "orutil": 8437,
    "pirein": 8438,
    "setthe": 8439,
    "stothe": 8440,
    "succes": 8441,
    "tineld": 8442,
    "willbe": 8443,
    "\u25810x457": 8444,
    "\u25810x4dc": 8445,
    "\u2581yours": 8446,
    "ageduet": 8447,
    "allhisp": 8448,
    "artners": 8449,
    "backups": 8450,
    "beforec": 8451,
[...]
