{
    "<pad>": 0,
    "<unk>": 1,
    "<mask>": 2,
    "\u25810": 3,
    "\u25810x": 4,
    "\u25810x0": 5,
    "er": 6,
    "00": 7,
    "ne": 8,
    "32": 9,
    "l32": 10,
    "\u2581k": 11,
    "erne": 12,
    "ernel32": 13,
    "\u2581kernel32": 14,
    "et": 15,
    "get": 16,
    "\u25810x1": 17,
    "\u25810x4": 18,
    "al": 19,
    "ee": 20,
    "in": 21,
    "\u2581get": 22,
    "ti": 23,
    "ec": 24,
    "\u25810xf": 25,
    "st": 26,
    "000": 27,
    "ue": 28,
    "\u25810x2": 29,
    "us": 30,
    "ro": 31,
    "94": 32,
    "43": 33,
    "\u25810x7": 34,
    "on": 35,
    "0000": 36,
    "ad": 37,
    "948": 38,
    "\u25810x243": 39,
    "\u25810x243948": 40,
    "le": 41,
    "eee": 42,
    "\u25810xfeee": 43,
    "re": 44,
    "user": 45,
    "\u2581user": 46,
    "\u2581user32": 47,
    "lo": 48,
    "ls": 49,
    "\u25810x12": 50,
    "iti": 51,
    "val": 52,
    "value": 53,
    "getvalue": 54,
    "lsgetvalue": 55,
    "en": 56,
    "cal": 57,
    "one": 58,
    "tion": 59,
    "ta": 60,
    "ar": 61,
    "\u25810xfeee000": 62,
    "\u25810x121": 63,
    "co": 64,
    "\u2581in": 65,
    "ss": 66,
    "an": 67,
    "pro": 68,
    "proc": 69,
    "\u2581n": 70,
    "\u2581c": 71,
    "\u2581s": 72,
    "\u2581none": 73,
    "\u25810x40": 74,
    "\u2581d": 75,
    "sec": 76,
    "riti": 77,
    "calsec": 78,
    "riticalsec": 79,
    "fo": 80,
    "\u2581t": 81,
    "\u25810x77": 82,
    "\u2581getproc": 83,
    "dre": 84,
    "ff": 85,
    "\u2581m": 86,
    "addre": 87,
    "address": 88,
    "ter": 89,
    "\u2581getprocaddress": 90,
    "f0": 91,
    "la": 92,
    "mp": 93,
    "\u25810x1211": 94,
    "000000": 95,
    "de": 96,
    "info": 97,
    "har": 98,
    "\u25810xfeee0001": 99,
    "\u2581f": 100,
    "ror": 101,
    "error": 102,
    "\u25810x46": 103,
    "last": 104,
    "lasterror": 105,
    "\u2581tlsgetvalue": 106,
    "\u25810x77000000": 107,
    "ap": 108,
    "ecriticalsec": 109,
    "li": 110,
    "at": 111,
    "dec": 112,
    "to": 113,
    "ac": 114,
    "ex": 115,
    "nex": 116,
    "\u2581char": 117,
    "ent": 118,
    "\u2581getc": 119,
    "\u2581charnex": 120,
    "a0": 121,
    "90": 122,
    "loc": 123,
    "let": 124,
    "str": 125,
    "\u2581flsgetvalue": 126,
    "\u2581set": 127,
    "em": 128,
    "and": 129,
    "pinfo": 130,
    "tom": 131,
    "he": 132,
    "iz": 133,
    "tr": 134,
    "\u2581lo": 135,
    "aliz": 136,
    "exw": 137,
    "itializ": 138,
    "po": 139,
    "ion": 140,
    "\u2581initializ": 141,
    "\u2581en": 142,
    "40": 143,
    "\u2581getcpinfo": 144,
    "\u2581initializecriticalsec": 145,
    "ble": 146,
    "\u25810x5": 147,
    "\u25810xfeee00": 148,
    "alloc": 149,
    "poin": 150,
    "ing": 151,
    "heap": 152,
    "dco": 153,
    "\u2581ini": 154,
    "a5": 155,
    "rt": 156,
    "\u25810x8": 157,
    "\u2581getcpinfoexw": 158,
    "\u25810x243948c": 159,
    "stat": 160,
    "lient": 161,
    "que": 162,
    "ans": 163,
    "pointer": 164,
    "dcomp": 165,
    "status": 166,
    "table": 167,
    "queue": 168,
    "letion": 169,
    "queuedcomp": 170,
    "letionstatus": 171,
    "queuedcompletionstatus": 172,
    "action": 173,
    "trans": 174,
    "\u2581ddec": 175,
    "\u2581getqueuedcompletionstatus": 176,
    "transaction": 177,
    "\u2581ddeclient": 178,
    "\u2581ddeclienttransaction": 179,
    "tatom": 180,
    "\u2581initatom": 181,
    "\u25810x2439480": 182,
    "\u25810x2439484": 183,
    "\u25810x2439488": 184,
    "\u2581initatomtable": 185,
    "\u2581heap": 186,
    "depointer": 187,
    "\u25810x100": 188,
    "string": 189,
    "\u25810xfa0": 190,
    "\u2581w": 191,
    "\u2581ms": 192,
    "\u25810x400": 193,
    "\u25810x41": 194,
    "tw": 195,
    "\u25810x40a5": 196,
    "\u2581getlasterror": 197,
    "\u2581load": 198,
    "\u25810x45": 199,
    "by": 200,
    "vc": 201,
    "\u2581setlasterror": 202,
    "\u2581msvc": 203,
    "byt": 204,
    "nt": 205,
    "bc": 206,
    "\u2581msvcrt": 207,
    "is": 208,
    "\u25810x3": 209,
    "ow": 210,
    "\u2581charnextw": 211,
    "lea": 212,
    "\u25810xc": 213,
    "10": 214,
    "fi": 215,
    "93": 216,
    "d0": 217,
    "\u25810x1210": 218,
    "\u25810x10": 219,
    "cmp": 220,
    "f8": 221,
    "e4": 222,
    "hand": 223,
    "\u25810x400000": 224,
    "\u25810x4690": 225,
    "onex": 226,
    "\u25810x43": 227,
    "\u2581enco": 228,
    "\u2581encodepointer": 229,
    "\u2581heapalloc": 230,
    "\u25810x45f0": 231,
    "byte": 232,
    "\u2581charnexta": 233,
    "\u2581is": 234,
    "ind": 235,
    "78": 236,
    "tionex": 237,
    "\u2581initializecriticalsectionex": 238,
    "ffff": 239,
    "\u2581mem": 240,
    "\u2581memcmp": 241,
    "mo": 242,
    "\u25810x41f0": 243,
    "unt": 244,
    "\u25810x41f040": 245,
    "cale": 246,
    "\u2581loadstring": 247,
    "ll": 248,
    "yst": 249,
    "count": 250,
    "\u25810x4093": 251,
    "ystem": 252,
    "ed": 253,
    "50": 254,
    "ul": 255,
    "read": 256,
    "du": 257,
    "\u2581initializecriticalsection": 258,
    "70": 259,
    "\u2581loadstringa": 260,
    "dule": 261,
    "indow": 262,
    "ecriticalsection": 263,
    "locale": 264,
    "module": 265,
    "ess": 266,
    "\u2581getmodule": 267,
    "60": 268,
    "\u25810x42": 269,
    "leav": 270,
    "\u2581leav": 271,
    "\u2581leavecriticalsection": 272,
    "\u2581l": 273,
    "eco": 274,
    "\u2581enter": 275,
    "\u2581dll": 276,
    "\u25810xc000": 277,
    "\u25810x1000": 278,
    "criticalsec": 279,
    "criticalsection": 280,
    "\u2581entercriticalsection": 281,
    "\u25810x4e4": 282,
    "sp": 283,
    "\u25810xff": 284,
    "sle": 285,
    "20": 286,
    "30": 287,
    "localeinfo": 288,
    "\u2581getlocaleinfo": 289,
    "dbc": 290,
    "indows": 291,
    "18": 292,
    "c0": 293,
    "ulti": 294,
    "idec": 295,
    "idechar": 296,
    "ur": 297,
    "slead": 298,
    "\u2581isdbc": 299,
    "\u2581isdbcslead": 300,
    "\u2581isdbcsleadbyte": 301,
    "\u25810x44": 302,
    "handle": 303,
    "28": 304,
    "\u2581windows": 305,
    "b0": 306,
    "\u2581getlocaleinfoa": 307,
    "file": 308,
    "e0": 309,
    "it": 310,
    "\u25810x6": 311,
    "\u25810x40a5d": 312,
    "vi": 313,
    "ea": 314,
    "spin": 315,
    "spincount": 316,
    "\u2581initializecriticalsectionand": 317,
    "\u2581initializecriticalsectionandspincount": 318,
    "\u2581deco": 319,
    "\u2581decodepointer": 320,
    "\u2581system": 321,
    "\u25810x1211f": 322,
    "\u2581system32": 323,
    "ce": 324,
    "ree": 325,
    "yp": 326,
    "66": 327,
    "\u25810x46f0": 328,
    "op": 329,
    "80": 330,
    "14": 331,
    "ment": 332,
    "cc": 333,
    "\u25810xfffff": 334,
    "b8": 335,
    "\u25810xfffffff": 336,
    "or": 337,
    "\u25810xf00": 338,
    "process": 339,
    "ag": 340,
    "\u25810x7d": 341,
    "ary": 342,
    "br": 343,
    "free": 344,
    "\u25810x47": 345,
    "di": 346,
    "rent": 347,
    "\u25810x78": 348,
    "urrent": 349,
    "f4": 350,
    "12": 351,
    "98": 352,
    "\u25810x1211d": 353,
    "libr": 354,
    "library": 355,
    "a8": 356,
    "\u2581getst": 357,
    "id": 358,
    "64": 359,
    "58": 360,
    "a4": 361,
    "\u25810x10c": 362,
    "\u2581a": 363,
    "34": 364,
    "\u2581p": 365,
    "\u25810x46d0": 366,
    "f800": 367,
    "d8": 368,
    "etow": 369,
    "\u2581multi": 370,
    "bytetow": 371,
    "\u2581multibytetow": 372,
    "\u2581multibytetowidechar": 373,
    "reat": 374,
    "lock": 375,
    "e8": 376,
    "2c": 377,
    "hread": 378,
    "\u25810x7de": 379,
    "68": 380,
    "74": 381,
    "d1": 382,
    "ey": 383,
    "un": 384,
    "38": 385,
    "\u25810x4378": 386,
    "d4": 387,
    "ype": 388,
    "c8": 389,
    "na": 390,
    "hi": 391,
    "\u2581inter": 392,
    "var": 393,
    "rec": 394,
    "\u25810x1210e": 395,
    "map": 396,
    "26": 397,
    "b4": 398,
    "15": 399,
    "fc": 400,
    "me": 401,
    "\u2581interlock": 402,
    "\u2581local": 403,
    "\u2581getmodulehand": 404,
    "filet": 405,
    "1c": 406,
    "\u25810x1210f": 407,
    "def": 408,
    "tor": 409,
    "\u2581getcurrent": 410,
    "\u2581getmodulehandlea": 411,
    "\u25810x9": 412,
    "ck": 413,
    "so": 414,
    "rst": 415,
    "\u2581loadlibrary": 416,
    "7c": 417,
    "\u2581re": 418,
    "5c": 419,
    "thread": 420,
    "\u2581lc": 421,
    "handlew": 422,
    "age": 423,
    "\u2581g": 424,
    "\u2581lcmap": 425,
    "\u2581lcmapstring": 426,
    "\u2581interlocked": 427,
    "\u2581getmodulehandlew": 428,
    "\u2581ap": 429,
    "rement": 430,
    "ch": 431,
    "tomulti": 432,
    "\u2581widechar": 433,
    "tomultibyte": 434,
    "\u2581widechartomultibyte": 435,
    "\u2581gets": 436,
    "56": 437,
    "\u2581creat": 438,
    "\u25810x1211e": 439,
    "key": 440,
    "rector": 441,
    "\u2581heapfree": 442,
    "\u2581fls": 443,
    "ual": 444,
    "\u2581getti": 445,
    "16": 446,
    "54": 447,
    "24": 448,
    "9c": 449,
    "\u2581vi": 450,
    "3c": 451,
    "rtual": 452,
    "ver": 453,
    "\u25810x4610": 454,
    "\u2581gettick": 455,
    "\u2581gettickcount": 456,
    "\u25810xcd": 457,
    "\u2581virtual": 458,
    "\u25810xffffffff": 459,
    "\u25810x20": 460,
    "f7": 461,
    "set": 462,
    "\u25810xfeee0004": 463,
    "f800000": 464,
    "\u25810x5f800000": 465,
    "\u2581getsystem": 466,
    "dc": 467,
    "vw": 468,
    "aa": 469,
    "\u2581lstr": 470,
    "ut": 471,
    "open": 472,
    "\u25810x1211c": 473,
    "lm": 474,
    "19": 475,
    "nop": 476,
    "\u2581var": 477,
    "xy": 478,
    "xyz": 479,
    "klm": 480,
    "\u2581abc": 481,
    "ghi": 482,
    "uvw": 483,
    "qrst": 484,
    "uvwxyz": 485,
    "nopqrst": 486,
    "defghi": 487,
    "klmnopqrst": 488,
    "\u2581abcdefghi": 489,
    "klmnopqrstuvwxyz": 490,
    "\u25810x18": 491,
    "rectory": 492,
    "rm": 493,
    "\u25810x7e": 494,
    "\u25810x12117": 495,
    "\u25811": 496,
    "e1": 497,
    "\u2581localalloc": 498,
    "f5": 499,
    "a6": 500,
    "44": 501,
    "mm": 502,
    "dr": 503,
    "f9": 504,
    "es": 505,
    "3d": 506,
    "\u2581read": 507,
    "\u2581lcmapstringw": 508,
    "\u25810x90": 509,
    "\u2581reg": 510,
    "\u2581getfilet": 511,
    "\u25810x12119": 512,
    "dhandle": 513,
    "\u2581getfiletype": 514,
    "\u2581co": 515,
    "f6": 516,
    "d10000": 517,
    "\u25810x77d10000": 518,
    "\u25810x4670": 519,
    "\u2581getstdhandle": 520,
    "inc": 521,
    "a2": 522,
    "\u25810x104": 523,
    "ear": 524,
    "\u2581o": 525,
    "mea": 526,
    "69": 527,
    "\u2581ex": 528,
    "eb": 529,
    "emp": 530,
    "qu": 531,
    "\u2581interlockedinc": 532,
    "\u2581interlockedincrement": 533,
    "vers": 534,
    "art": 535,
    "directory": 536,
    "a3": 537,
    "\u25810x54": 538,
    "88": 539,
    "db": 540,
    "\u25810xfeee001": 541,
    "\u25810x14": 542,
    "\u25810x70": 543,
    "ron": 544,
    "\u25810xfeee0": 545,
    "are": 546,
    "viron": 547,
    "6c": 548,
    "rit": 549,
    "\u25812": 550,
    "onso": 551,
    "\u25810xfeee0002": 552,
    "fe": 553,
    "f1": 554,
    "vironment": 555,
    "da": 556,
    "filena": 557,
    "\u25810xfeee0000": 558,
    "b7": 559,
    "onsole": 560,
    "91": 561,
    "setvalue": 562,
    "list": 563,
    "35": 564,
    "3e": 565,
    "artu": 566,
    "fa": 567,
    "earch": 568,
    "quer": 569,
    "rite": 570,
    "l66": 571,
    "artupinfo": 572,
    "\u2581getstartupinfo": 573,
    "\u25810x7de0": 574,
    "f2": 575,
    "se": 576,
    "comm": 577,
    "\u2581b": 578,
    "l6660": 579,
    "\u2581getcurrentthread": 580,
    "\u25810xfeee0003": 581,
    "line": 582,
    "sw": 583,
    "92": 584,
    "ab": 585,
    "\u2581getmodulefilena": 586,
    "\u25810x200": 587,
    "\u2581search": 588,
    "\u2581apis": 589,
    "e5": 590,
    "1000": 591,
    "a7": 592,
    "form": 593,
    "97": 594,
    "96": 595,
    "e7": 596,
    "b2": 597,
    "\u2581h": 598,
    "drl6660": 599,
    "\u25810x800": 600,
    "of": 601,
    "andline": 602,
    "\u25810x48": 603,
    "\u25810x33": 604,
    "\u2581getcurrentthreadid": 605,
    "500": 606,
    "ation": 607,
    "\u2581getcomm": 608,
    "\u2581getcommandline": 609,
    "\u2581loadlibraryexw": 610,
    "\u25810x79": 611,
    "\u25810x526": 612,
    "\u25810xfeee0005": 613,
    "\u2581lstrle": 614,
    "42": 615,
    "vironmentstring": 616,
    "b5": 617,
    "\u25810x4c": 618,
    "3f": 619,
    "\u25810x80": 620,
    "37": 621,
    "int": 622,
    "ic": 623,
    "tware": 624,
    "api": 625,
    "eex": 626,
    "drl6660drl6660": 627,
    "\u2581open": 628,
    "\u25810x4350": 629,
    "\u25810x4d": 630,
    "11": 631,
    "95": 632,
    "\u25810xfff": 633,
    "\u2581create": 634,
    "rom": 635,
    "\u25810x7f800": 636,
    "b6": 637,
    "\u2581sof": 638,
    "enu": 639,
    "\u25810x43780": 640,
    "\u2581hkey": 641,
    "\u25810x8000": 642,
    "\u2581de": 643,
    "\u2581find": 644,
    "from": 645,
    "\u2581software": 646,
    "\u25810x88": 647,
    "version": 648,
    "ol": 649,
    "vironmentstringsw": 650,
    "bd": 651,
    "\u25810xf002": 652,
    "\u25810xf001": 653,
    "\u2581temp": 654,
    "\u25810xf003": 655,
    "\u25810x52": 656,
    "ber": 657,
    "5f": 658,
    "\u2581virtualalloc": 659,
    "ect": 660,
    "48": 661,
    "\u25817": 662,
    "\u2581x": 663,
    "py": 664,
    "a9": 665,
    "\u25810x78000000": 666,
    "up": 667,
    "76": 668,
    "pre": 669,
    "\u25810xfeee002": 670,
    "bf": 671,
    "\u2581gdi": 672,
    "789": 673,
    "e2": 674,
    "ate": 675,
    "\u25810x3394": 676,
    "75": 677,
    "mess": 678,
    "41": 679,
    "\u2581str": 680,
    "menu": 681,
    "a1": 682,
    "ith": 683,
    "b9": 684,
    "\u25810x102": 685,
    "36": 686,
    "\u25810x7a": 687,
    "\u25810x44f8": 688,
    "type": 689,
    "\u2581page": 690,
    "\u2581flssetvalue": 691,
    "\u2581sh": 692,
    "\u2581getconsole": 693,
    "72": 694,
    "e6": 695,
    "lose": 696,
    "directoryw": 697,
    "1234": 698,
    "56789": 699,
    "\u258101234": 700,
    "\u25810123456789": 701,
    "valid": 702,
    "4c": 703,
    "\u2581getcurrentprocess": 704,
    "\u25810x7000": 705,
    "iv": 706,
    "\u2581ad": 707,
    "\u2581flsalloc": 708,
    "fd": 709,
    "write": 710,
    "rint": 711,
    "lob": 712,
    "\u2581glob": 713,
    "b3": 714,
    "\u2581quer": 715,
    "\u2581gdi32": 716,
    "bad": 717,
    "processlist": 718,
    "\u2581getconsoleprocesslist": 719,
    "cep": 720,
    "\u2581getstartupinfoa": 721,
    "71": 722,
    "ba": 723,
    "8c": 724,
    "yper": 725,
    "forman": 726,
    "yo": 727,
    "\u2581queryper": 728,
    "\u2581queryperforman": 729,
    "um": 730,
    "ception": 731,
    "\u25817z": 732,
    "e9": 733,
    "\u2581tls": 734,
    "\u25810x50": 735,
    "b1": 736,
    "menuinfo": 737,
    "api32": 738,
    "acc": 739,
    "\u25810x4000": 740,
    "dd": 741,
    "\u2581al": 742,
    "\u2581readwrite": 743,
    "\u2581current": 744,
    "unter": 745,
    "\u25810xfeee0006": 746,
    "dex": 747,
    "\u2581setmenuinfo": 748,
    "\u25810x40a5ce": 749,
    "\u25810x40a5d0": 750,
    "\u25810x40a5d2": 751,
    "\u25810x40a5d4": 752,
    "\u25810x40a5d6": 753,
    "\u25810x40a5d8": 754,
    "\u25810x40a5da": 755,
    "a40": 756,
    "\u2581getmodulefilenamea": 757,
    "ptr": 758,
    "\u2581isbad": 759,
    "ime": 760,
    "ceco": 761,
    "cecounter": 762,
    "\u2581queryperformancecounter": 763,
    "exa": 764,
    "\u2581getstring": 765,
    "55": 766,
    "cpy": 767,
    "\u25810x1f4": 768,
    "\u2581adv": 769,
    "\u2581advapi32": 770,
    "1e": 771,
    "\u25810x7b": 772,
    "\u2581lread": 773,
    "1a": 774,
    "\u25810x5266": 775,
    "\u25810x21000": 776,
    "messag": 777,
    "sent": 778,
    "\u25810x7d90": 779,
    "ile": 780,
    "present": 781,
    "f00": 782,
    "\u25810x1211c90": 783,
    "\u25810x1f400": 784,
    "\u25810x7ee": 785,
    "be": 786,
    "f3": 787,
    "\u25810x7c": 788,
    "typew": 789,
    "\u25810x4750": 790,
    "\u2581getstringtypew": 791,
    "900": 792,
    "\u25810x1c": 793,
    "readptr": 794,
    "\u2581isbadreadptr": 795,
    "\u2581loadlibrarya": 796,
    "vari": 797,
    "ork": 798,
    "84": 799,
    "c4": 800,
    "filetime": 801,
    "\u25810x12116": 802,
    "sprint": 803,
    "e10000": 804,
    "\u2581getsystemti": 805,
    "\u2581wsprint": 806,
    "\u25810x77e10000": 807,
    "\u25810xd": 808,
    "filew": 809,
    "9e": 810,
    "\u2581getcommandlinea": 811,
    "ure": 812,
    "\u2581locale": 813,
    "9d": 814,
    "\u2581lstrlena": 815,
    "\u2581interlockeddec": 816,
    "\u2581interlockeddecrement": 817,
    "window": 818,
    "\u2581locales": 819,
    "fil": 820,
    "\u2581strn": 821,
    "ra": 822,
    "fb": 823,
    "\u2581getsystemdirectoryw": 824,
    "9a": 825,
    "\u25810x422": 826,
    "\u25810x73": 827,
    "00000": 828,
    "\u2581strncmp": 829,
    "\u2581getprocess": 830,
    "creat": 831,
    "\u25810xfeee0007": 832,
    "ist": 833,
    "\u2581fr": 834,
    "\u2581with": 835,
    "\u25810x7de1": 836,
    "\u25810xa": 837,
    "7e": 838,
    "\u2581alter": 839,
    "\u2581altered": 840,
    "5d": 841,
    "\u25810x4e": 842,
    "52": 843,
    "\u2581geten": 844,
    "\u25810x49": 845,
    "\u2581getthread": 846,
    "\u2581getac": 847,
    "\u25810x3f7": 848,
    "22": 849,
    "ont": 850,
    "\u25810xffc": 851,
    "all": 852,
    "work": 853,
    "\u25810x40a": 854,
    "\u25810x460": 855,
    "bb": 856,
    "33": 857,
    "\u25810x4b": 858,
    "\u2581invalid": 859,
    "\u2581global": 860,
    "\u2581win": 861,
    "\u25810x1211dcc": 862,
    "\u2581getacp": 863,
    "17": 864,
    "\u25810x4428": 865,
    "\u2581bor": 866,
    "ug": 867,
    "processor": 868,
    "access": 869,
    "bo": 870,
    "lic": 871,
    "\u2581regopen": 872,
    "\u2581regopenkey": 873,
    "\u25810x1211dc0": 874,
    "9f": 875,
    "\u25810xfeee004": 876,
    "\u25810x4a": 877,
    "57": 878,
    "\u25810x44f9": 879,
    "sfiletime": 880,
    "ot": 881,
    "99": 882,
    "\u25810x169": 883,
    "sour": 884,
    "put": 885,
    "d6": 886,
    "\u2581delet": 887,
    "pool": 888,
    "af": 889,
    "ature": 890,
    "feature": 891,
    "\u2581isprocessor": 892,
    "featurepresent": 893,
    "\u2581isprocessorfeaturepresent": 894,
    "fw": 895,
    "\u2581wsprintfw": 896,
    "\u25810xb": 897,
    "\u2581ole": 898,
    "ob": 899,
    "mode": 900,
    "\u2581borl": 901,
    "dexception": 902,
    "der": 903,
    "\u25810x75": 904,
    "filter": 905,
    "\u2581getsystemtimea": 906,
    "5e": 907,
    "\u2581getsystemtimeasfiletime": 908,
    "\u25810x76": 909,
    "ies": 910,
    "86": 911,
    "unhandle": 912,
    "dexceptionfilter": 913,
    "unhandledexceptionfilter": 914,
    "\u2581core": 915,
    "\u25810xfeee006": 916,
    "filea": 917,
    "ang": 918,
    "d2": 919,
    "\u2581borland": 920,
    "\u25810x120": 921,
    "\u25810xfeee01": 922,
    "ive": 923,
    "\u2581getcurrentprocessid": 924,
    "77": 925,
    "82": 926,
    "\u25810x30": 927,
    "\u2581wc": 928,
    "day": 929,
    "\u2581lcmapstringex": 930,
    "\u25810x44f8e0": 931,
    "\u2581l1": 932,
    "inform": 933,
    "\u25810x74": 934,
    "create": 935,
    "\u25810x12117f8": 936,
    "im": 937,
    "\u2581loadstringw": 938,
    "ult": 939,
    "\u25810x7830": 940,
    "\u25810x220": 941,
    "\u2581getprocessheap": 942,
    "num": 943,
    "\u25810x72": 944,
    "\u25810xe": 945,
    "\u25810x17": 946,
    "\u25810x42a40": 947,
    "106": 948,
    "eeen": 949,
    "\u2581freeen": 950,
    "31": 951,
    "\u2581getversion": 952,
    "\u25810x71": 953,
    "adwork": 954,
    "\u2581free": 955,
    "\u25810x12116d8": 956,
    "handl": 957,
    "messagea": 958,
    "mew": 959,
    "\u2581r": 960,
    "\u25810x46b0": 961,
    "hel": 962,
    "\u25810x43500": 963,
    "d5": 964,
    "908": 965,
    "db10": 966,
    "first": 967,
    "nw": 968,
    "\u2581dr": 969,
    "\u25810x12115": 970,
    "close": 971,
    "information": 972,
    "\u25810x19": 973,
    "\u25810xfffffff6": 974,
    "\u25810x1211918": 975,
    "3a": 976,
    "\u2581library": 977,
    "51": 978,
    "defa": 979,
    "\u2581getenvironmentstringsw": 980,
    "default": 981,
    "\u25810x5265c": 982,
    "df": 983,
    "\u2581freeenvironmentstringsw": 984,
    "\u2581setunhandledexceptionfilter": 985,
    "il": 986,
    "\u25810xfffffff5": 987,
    "ant": 988,
    "\u25810xfffffff4": 989,
    "39": 990,
    "\u2581getthreadlocale": 991,
    "\u25810x435": 992,
    "\u25810x105": 993,
    "db10106": 994,
    "\u25810x1db10106": 995,
    "\u25810x40933d": 996,
    "\u25810x40933e": 997,
    "\u25810x40933f": 998,
    "\u25810x409340": 999,
    "\u25810x409341": 1000,
    "\u25810x409342": 1001,
    "\u25810x409343": 1002,
    "\u25810x2a": 1003,
    "\u25810x1211dd4": 1004,
    "source": 1005,
    "\u25810x5f5": 1006,
    "1b": 1007,
    "\u2581key": 1008,
    "dll": 1009,
    "7b": 1010,
    "\u25810x12114": 1011,
    "able": 1012,
    "loat": 1013,
    "loating": 1014,
    "400": 1015,
    "62": 1016,
    "\u25810x50000": 1017,
    "drl6660drl6660drl6660drl6660": 1018,
    "deb": 1019,
    "7d": 1020,
    "\u25810xfeee008": 1021,
    "directorya": 1022,
    "\u2581api": 1023,
    "fromstr": 1024,
    "ionex": 1025,
    "\u2581getvers": 1026,
    "\u2581getversionex": 1027,
    "ack": 1028,
    "\u25810x1211e0": 1029,
    "ef": 1030,
    "\u2581getfile": 1031,
    "\u25810x5f500000": 1032,
    "\u25810x7890": 1033,
    "2e": 1034,
    "53": 1035,
    "va": 1036,
    "79": 1037,
    "\u2581setfile": 1038,
    "uc": 1039,
    "dep": 1040,
    "180": 1041,
    "fol": 1042,
    "\u2581findfirst": 1043,
    "number": 1044,
    "debug": 1045,
    "d3": 1046,
    "urs": 1047,
    "\u2581heapcreate": 1048,
    "d9": 1049,
    "5b": 1050,
    "\u2581pf": 1051,
    "59": 1052,
    "\u2581vari": 1053,
    "\u2581lstrcpy": 1054,
    "variable": 1055,
    "\u2581init": 1056,
    "\u2581access": 1057,
    "\u25810x40a3": 1058,
    "\u25810x7e70": 1059,
    "bc0": 1060,
    "ecount": 1061,
    "date": 1062,
    "load": 1063,
    "\u2581getlocaleinfow": 1064,
    "\u2581virtualfree": 1065,
    "query": 1066,
    "\u2581getstartupinfow": 1067,
    "ond": 1068,
    "\u25810x7ec": 1069,
    "\u25810x7d91": 1070,
    "utes": 1071,
    "\u25810x13": 1072,
    "\u2581findclose": 1073,
    "\u25813": 1074,
    "73": 1075,
    "13": 1076,
    "002": 1077,
    "folder": 1078,
    "handlecount": 1079,
    "ma": 1080,
    "\u2581sethandlecount": 1081,
    "\u25810x7aa0": 1082,
    "\u25810x7810": 1083,
    "itprocess": 1084,
    "\u2581getcommandlinew": 1085,
    "low": 1086,
    "\u2581getmodulefilenamew": 1087,
    "\u2581mac": 1088,
    "hine": 1089,
    "\u2581machine": 1090,
    "\u25810x429": 1091,
    "\u2581regopenkeyexa": 1092,
    "ct": 1093,
    "00c": 1094,
    "\u25810x40a5dc": 1095,
    "\u25810x40a5cc": 1096,
    "\u25810x79d0": 1097,
    "ee0": 1098,
    "\u25810x47b0": 1099,
    "\u2581tlssetvalue": 1100,
    "\u25810x9000": 1101,
    "\u2581write": 1102,
    "\u2581file": 1103,
    "ait": 1104,
    "\u25810x1210d": 1105,
    "\u2581tlsalloc": 1106,
    "your": 1107,
    "\u2581lstrlenw": 1108,
    "lass": 1109,
    "\u25810x53": 1110,
    "c2": 1111,
    "input": 1112,
    "46": 1113,
    "ho": 1114,
    "\u2581sl": 1115,
    "\u2581app": 1116,
    "eek": 1117,
    "\u2581floating": 1118,
    "ae": 1119,
    "\u25810x60": 1120,
    "\u25810x3f": 1121,
    "ister": 1122,
    "\u25810x4015": 1123,
    "struc": 1124,
    "struction": 1125,
    "\u25810x1211e2c": 1126,
    "arg": 1127,
    "eep": 1128,
    "\u2581close": 1129,
    "\u25810x82": 1130,
    "\u25810x169bf": 1131,
    "\u25810x28": 1132,
    "780": 1133,
    "\u25810x1211f8": 1134,
    "\u25810x410": 1135,
    "hreadpool": 1136,
    "image": 1137,
    "\u25810x44f928": 1138,
    "met": 1139,
    "\u2581closehandle": 1140,
    "\u25810x2000": 1141,
    "sk": 1142,
    "point": 1143,
    "vali": 1144,
    "edi": 1145,
    "7a": 1146,
    "45": 1147,
    "\u25810x56": 1148,
    "ad0": 1149,
    "\u25810x16": 1150,
    "\u25810x5265c14": 1151,
    "\u2581shel": 1152,
    "\u2581peek": 1153,
    "for": 1154,
    "div": 1155,
    "\u2581com": 1156,
    "validco": 1157,
    "\u25810x1211908": 1158,
    "\u25810x12114b8": 1159,
    "\u25810x15": 1160,
    "\u25810x40152c": 1161,
    "\u2581sleep": 1162,
    "ofc": 1163,
    "een": 1164,
    "\u25810xf0019": 1165,
    "63": 1166,
    "61": 1167,
    "\u25810x409": 1168,
    "realloc": 1169,
    "depage": 1170,
    "\u2581peekmessagea": 1171,
    "\u2581isvalidco": 1172,
    "\u2581isvalidcodepage": 1173,
    "\u25810x1211718": 1174,
    "leas": 1175,
    "not": 1176,
    "\u2581register": 1177,
    "ition": 1178,
    "edc": 1179,
    "eric": 1180,
    "ondition": 1181,
    "lus": 1182,
    "d7": 1183,
    "ib": 1184,
    "3b": 1185,
    "\u25810x7ee00": 1186,
    "ord": 1187,
    "67": 1188,
    "th": 1189,
    "resource": 1190,
    "748": 1191,
    "\u2581findfirstfilew": 1192,
    "ursor": 1193,
    "ontro": 1194,
    "\u25810x8c": 1195,
    "\u25810x430": 1196,
    "\u2581readfile": 1197,
    "ila": 1198,
    "vaila": 1199,
    "rectories": 1200,
    "vailable": 1201,
    "640": 1202,
    "\u2581deletecriticalsection": 1203,
    "\u2581getversionexa": 1204,
    "\u25810x1211f30": 1205,
    "\u2581ma": 1206,
    "ys": 1207,
    "\u25810x43540": 1208,
    "trib": 1209,
    "\u2581exe": 1210,
    "attrib": 1211,
    "\u25810x4094": 1212,
    "\u25810x8810": 1213,
    "\u25810x67": 1214,
    "\u2581freelibrary": 1215,
    "\u25810x22": 1216,
    "flow": 1217,
    "\u2581getnumber": 1218,
    "5a": 1219,
    "directories": 1220,
    "inal": 1221,
    "ofconsole": 1222,
    "\u2581getnumberofconsole": 1223,
    "end": 1224,
    "\u25810x3f75f": 1225,
    "\u2581malloc": 1226,
    "ision": 1227,
    "\u2581getw": 1228,
    "\u2581image": 1229,
    "27": 1230,
    "mer": 1231,
    "ve": 1232,
    "\u2581no": 1233,
    "\u25810x38": 1234,
    "attributes": 1235,
    "\u25810x1e": 1236,
    "\u2581se": 1237,
    "\u25810x40f6": 1238,
    "\u2581globalalloc": 1239,
    "ero": 1240,
    "\u25810x1211dc8": 1241,
    "\u2581createt": 1242,
    "\u2581setdefault": 1243,
    "inputs": 1244,
    "\u2581getnumberofconsoleinputs": 1245,
    "\u25810x1f": 1246,
    "\u25810x12118": 1247,
    "\u25810x11": 1248,
    "ity": 1249,
    "\u2581gett": 1250,
    "dlldirectories": 1251,
    "\u2581setdefaultdlldirectories": 1252,
    "2a": 1253,
    "23": 1254,
    "\u2581drive": 1255,
    "\u25810x1210f8": 1256,
    "1d": 1257,
    "\u2581flsfree": 1258,
    "7f": 1259,
    "\u2581setfilepointer": 1260,
    "65": 1261,
    "b40": 1262,
    "\u2581exitprocess": 1263,
    "\u25810x58": 1264,
    "term": 1265,
    "\u2581imagelist": 1266,
    "ordinal": 1267,
    "\u2581ordinal": 1268,
    "\u2581initterm": 1269,
    "\u25810x1210ec": 1270,
    "\u2581shell32": 1271,
    "6e": 1272,
    "\u25810xfeee0008": 1273,
    "stringa": 1274,
    "\u2581available": 1275,
    "ca": 1276,
    "\u25810x423": 1277,
    "\u25810x21": 1278,
    "29": 1279,
    "pr": 1280,
    "prot": 1281,
    "6a": 1282,
    "\u2581ole32": 1283,
    "8a": 1284,
    "\u25810x7ee0": 1285,
    "lor": 1286,
    "\u25810x1211b": 1287,
    "\u2581wcs": 1288,
    "\u25810x69": 1289,
    "\u2581fi": 1290,
    "300": 1291,
    "\u2581virtualquery": 1292,
    "\u2581heaprealloc": 1293,
    "own": 1294,
    "\u25810x1211fd8": 1295,
    "\u2581st": 1296,
    "\u25810x7f": 1297,
    "cursor": 1298,
    "slen": 1299,
    "\u2581wcslen": 1300,
    "\u2581gen": 1301,
    "\u2581e": 1302,
    "ett": 1303,
    "alett": 1304,
    "\u2581releas": 1305,
    "\u2581gettemp": 1306,
    "\u25810x7f00": 1307,
    "\u25810xfeee0009": 1308,
    "930": 1309,
    "icon": 1310,
    "e3": 1311,
    "2d": 1312,
    "\u2581wcscpy": 1313,
    "\u25810xfeee000b": 1314,
    "\u2581instruction": 1315,
    "\u25810xfeee000a": 1316,
    "edirectory": 1317,
    "280": 1318,
    "i64": 1319,
    "\u2581setthread": 1320,
    "\u25810xcc": 1321,
    "cec": 1322,
    "\u2581xmm": 1323,
    "\u25810x68": 1324,
    "\u2581xmmi64": 1325,
    "\u2581instructions": 1326,
    "tra": 1327,
    "\u25810x101": 1328,
    "timer": 1329,
    "\u25810x1211e04": 1330,
    "\u25810x1210900": 1331,
    "\u25810x1a": 1332,
    "\u25810xfeee000c": 1333,
    "\u25810x3f2": 1334,
    "protect": 1335,
    "\u25810x1211fd0": 1336,
    "time": 1337,
    "ard": 1338,
    "ember": 1339,
    "500000": 1340,
    "ip": 1341,
    "\u25810x10000": 1342,
    "25": 1343,
    "\u2581loadlibraryw": 1344,
    "ock": 1345,
    "\u25810xfeee000e": 1346,
    "\u25810xfeee0010": 1347,
    "\u25810xfeee000d": 1348,
    "\u2581th": 1349,
    "yn": 1350,
    "de9": 1351,
    "\u25810xfeee0015": 1352,
    "\u2581createa": 1353,
    "\u2581virtualprotect": 1354,
    "cadwork": 1355,
    "\u25810xfeee0014": 1356,
    "\u25810x57": 1357,
    "aps": 1358,
    "\u2581generic": 1359,
    "4b": 1360,
    "\u25810xfeee0016": 1361,
    "\u25810xfeee0013": 1362,
    "\u2581shget": 1363,
    "eextra": 1364,
    "gi": 1365,
    "\u25810xfeee000f": 1366,
    "\u25810xfeee0012": 1367,
    "308": 1368,
    "f10000": 1369,
    "\u25810x40a5a0": 1370,
    "\u25810xfeee0011": 1371,
    "sof": 1372,
    "ownload": 1373,
    "2b": 1374,
    "c7": 1375,
    "ockob": 1376,
    "\u2581getstockob": 1377,
    "bit": 1378,
    "c6": 1379,
    "eextrainfo": 1380,
    "\u25810x1211f7c": 1381,
    "\u2581getmessag": 1382,
    "\u2581getmessageextrainfo": 1383,
    "\u25810x29": 1384,
    "\u25810x44280": 1385,
    "c08": 1386,
    "21": 1387,
    "\u25810x40a59e": 1388,
    "\u25810x40a5a2": 1389,
    "\u25810x40a5a4": 1390,
    "\u25810x40a5a6": 1391,
    "\u25810x40a5a8": 1392,
    "\u25810x40a5aa": 1393,
    "804": 1394,
    "yarg": 1395,
    "\u25810x40933c": 1396,
    "files": 1397,
    "\u25810x1211758": 1398,
    "cb": 1399,
    "eration": 1400,
    "\u25810x409344": 1401,
    "licen": 1402,
    "\u25810x77f10000": 1403,
    "\u25810x48400": 1404,
    "\u2581loadcursor": 1405,
    "ac0": 1406,
    "a00": 1407,
    "local": 1408,
    "und": 1409,
    "\u25810x7ea": 1410,
    "board": 1411,
    "\u2581delete": 1412,
    "\u2581lstrcmp": 1413,
    "lp": 1414,
    "\u25810x3f75": 1415,
    "isting": 1416,
    "verflow": 1417,
    "\u25810x43640": 1418,
    "\u25810x2c": 1419,
    "\u25810x700c": 1420,
    "ctl32": 1421,
    "\u2581comctl32": 1422,
    "condition": 1423,
    "2000": 1424,
    "508": 1425,
    "938": 1426,
    "e44": 1427,
    "\u25810x42b40": 1428,
    "\u25810x12119c0": 1429,
    "ange": 1430,
    "\u25810x4400": 1431,
    "\u25810x214": 1432,
    "bstr": 1433,
    "bstrfrom": 1434,
    "\u2581varbstrfrom": 1435,
    "9b": 1436,
    "940": 1437,
    "47": 1438,
    "\u2581createfilea": 1439,
    "\u25810x4e5": 1440,
    "1f": 1441,
    "\u2581inst": 1442,
    "saf": 1443,
    "allock": 1444,
    "vicec": 1445,
    "\u25810x1210e8": 1446,
    "ial": 1447,
    "\u25810x47c0": 1448,
    "\u25810x8f": 1449,
    "format": 1450,
    "\u25810x1210e0": 1451,
    "\u25810x1211cec": 1452,
    "708": 1453,
    "utput": 1454,
    "c3": 1455,
    "\u25810xfde9": 1456,
    "\u25810x704c": 1457,
    "\u2581globallock": 1458,
    "d08": 1459,
    "ynch": 1460,
    "\u25810x1210f0": 1461,
    "\u25810x708c": 1462,
    "\u2581writefile": 1463,
    "rw": 1464,
    "6b": 1465,
    "sa": 1466,
    "\u25810x65": 1467,
    "\u25810x25": 1468,
    "wait": 1469,
    "angu": 1470,
    "initializ": 1471,
    "438": 1472,
    "ontrol": 1473,
    "\u25810x4229": 1474,
    "\u2581existing": 1475,
    "de0": 1476,
    "\u25810x7e71": 1477,
    "ub": 1478,
    "anguage": 1479,
    "top": 1480,
    "\u25810x1211958": 1481,
    "eexw": 1482,
    "with": 1483,
    "\u25810x409a": 1484,
    "\u25810x4418": 1485,
    "spec": 1486,
    "isk": 1487,
    "94c": 1488,
    "\u2581synch": 1489,
    "\u25810x4228": 1490,
    "\u25810x64": 1491,
    "next": 1492,
    "ew": 1493,
    "\u2581fin": 1494,
    "lphi": 1495,
    "\u2581delphi": 1496,
    "988": 1497,
    "6f": 1498,
    "ffile": 1499,
    "\u2581findre": 1500,
    "b00": 1501,
    "\u25810x32": 1502,
    "lec": 1503,
    "\u2581output": 1504,
    "\u2581outputdebug": 1505,
    "\u25810x1210f4": 1506,
    "ust": 1507,
    "soft": 1508,
    "\u25810x34": 1509,
    "\u25810x1210ee": 1510,
    "inst": 1511,
    "\u25810x1d": 1512,
    "\u2581ch": 1513,
    "\u2581registerc": 1514,
    "\u25810x7de4": 1515,
    "\u25810x7de5": 1516,
    "\u2581createfilew": 1517,
    "2f": 1518,
    "\u2581remo": 1519,
    "\u25810x5c": 1520,
    "\u25810x4790": 1521,
    "\u2581getde": 1522,
    "\u2581regopenkeyexw": 1523,
    "you": 1524,
    "\u2581getfileattributes": 1525,
    "100": 1526,
    "vironmentvariable": 1527,
    "eck": 1528,
    "f80": 1529,
    "\u25810x67000000": 1530,
    "\u25810x4615": 1531,
    "icro": 1532,
    "\u25810x3c": 1533,
    "\u25810x42332": 1534,
    "\u25810x1212000": 1535,
    "93c": 1536,
    "ger": 1537,
    "icrosoft": 1538,
    "og": 1539,
    "ilanguage": 1540,
    "430": 1541,
    "cf": 1542,
    "cy": 1543,
    "\u25810x5a": 1544,
    "\u25810x79f0": 1545,
    "mask": 1546,
    "\u25810x42990": 1547,
    "am": 1548,
    "\u25810x1210ed": 1549,
    "89": 1550,
    "\u25810x24": 1551,
    "licence": 1552,
    "\u25810x4df0": 1553,
    "change": 1554,
    "lation": 1555,
    "stry": 1556,
    "\u25810x1211e28": 1557,
    "6d": 1558,
    "\u2581getdc": 1559,
    "4e": 1560,
    "\u25810x70cc": 1561,
    "\u25810xfeee0040": 1562,
    "\u2581up": 1563,
    "\u25810x2d": 1564,
    "c9": 1565,
    "infoa": 1566,
    "\u25810x1210e4": 1567,
    "\u25810x42900": 1568,
    "\u2581drag": 1569,
    "vicecaps": 1570,
    "\u2581getdevicecaps": 1571,
    "\u25810x23": 1572,
    "\u25810x181b": 1573,
    "a50": 1574,
    "comp": 1575,
    "f08": 1576,
    "\u25810x1b": 1577,
    "\u25810xfeee0017": 1578,
    "\u2581variant": 1579,
    "c5": 1580,
    "eentr": 1581,
    "\u2581releasedc": 1582,
    "\u25810x181": 1583,
    "\u25810x7d10": 1584,
    "4d": 1585,
    "\u25810x7ec0": 1586,
    "\u25810x7850": 1587,
    "lw": 1588,
    "offile": 1589,
    "\u2581comp": 1590,
    "\u25810x4d70": 1591,
    "\u25810x4f": 1592,
    "\u2581i": 1593,
    "sup": 1594,
    "ray": 1595,
    "\u2581to": 1596,
    "sc": 1597,
    "e88": 1598,
    "\u25810x1211528": 1599,
    "\u25810xfeee0018": 1600,
    "drl6660drl6660drl6660drl6660drl6660drl6660drl6660drl6660": 1601,
    "\u2581control": 1602,
    "\u2581interlocke": 1603,
    "\u25810x1211cc0": 1604,
    "ystemp": 1605,
    "808": 1606,
    "\u2581outputdebugstringa": 1607,
    "bits": 1608,
    "\u25810x437808": 1609,
    "errormode": 1610,
    "\u2581seterrormode": 1611,
    "\u25810x437806": 1612,
    "\u25810x43780a": 1613,
    "\u25810x43780c": 1614,
    "\u25810x43780e": 1615,
    "\u25810x437810": 1616,
    "\u25810x437812": 1617,
    "\u25810x437814": 1618,
    "\u25810x437816": 1619,
    "\u25810x437818": 1620,
    "\u25810x43781a": 1621,
    "\u25810x43781c": 1622,
    "\u25810x43781e": 1623,
    "\u25810x1211f20": 1624,
    "uto": 1625,
    "880": 1626,
    "\u2581microsoft": 1627,
    "ers": 1628,
    "\u2581nt": 1629,
    "\u2581getwindows": 1630,
    "aff": 1631,
    "ena": 1632,
    "rwlock": 1633,
    "the": 1634,
    "\u2581lstrcpyna": 1635,
    "\u25810xfeee001a": 1636,
    "\u2581mon": 1637,
    "\u25810x1211bc0": 1638,
    "mem": 1639,
    "hreadpooltimer": 1640,
    "49": 1641,
    "\u25810xfeee0019": 1642,
    "\u2581sat": 1643,
    "qa": 1644,
    "\u2581un": 1645,
    "\u25810x4554": 1646,
    "\u25810x1210ea": 1647,
    "\u2581mar": 1648,
    "\u25810x4630": 1649,
    "\u2581creates": 1650,
    "a256": 1651,
    "\u2581loadcursora": 1652,
    "lwapi": 1653,
    "\u2581shlwapi": 1654,
    "\u2581sha256": 1655,
    "\u2581loadicon": 1656,
    "\u2581nov": 1657,
    "\u25810x1211f28": 1658,
    "afile": 1659,
    "\u2581sep": 1660,
    "87": 1661,
    "sub": 1662,
    "want": 1663,
    "\u25810x7d00": 1664,
    "\u25810x37": 1665,
    "eto": 1666,
    "message": 1667,
    "eexa": 1668,
    "d04": 1669,
    "5000": 1670,
    "\u2581clo": 1671,
    "ext": 1672,
    "\u25810x44d4": 1673,
    "\u25810x8e": 1674,
    "\u25810x98": 1675,
    "\u2581rand": 1676,
    "call": 1677,
    "0000000": 1678,
    "debugger": 1679,
    "\u2581aug": 1680,
    "\u2581apr": 1681,
    "debuggerpresent": 1682,
    "\u2581wait": 1683,
    "eentries": 1684,
    "\u25810x40a3d": 1685,
    "aletteentries": 1686,
    "\u25810x1211a": 1687,
    "\u25810x420": 1688,
    "\u25810x8a": 1689,
    "\u25810x1211ee0": 1690,
    "ory": 1691,
    "\u2581dec": 1692,
    "\u2581sun": 1693,
    "ryp": 1694,
    "b48": 1695,
    "rect": 1696,
    "\u25810x4730": 1697,
    "ull": 1698,
    "\u2581isdebuggerpresent": 1699,
    "uary": 1700,
    "\u2581may": 1701,
    "\u2581getkey": 1702,
    "\u25810x12119ac": 1703,
    "sday": 1704,
    "\u2581tue": 1705,
    "\u2581wed": 1706,
    "memory": 1707,
    "320": 1708,
    "\u25810x2b": 1709,
    "aaaa": 1710,
    "cd": 1711,
    "\u25810x47a0": 1712,
    "\u25810xa000": 1713,
    "code": 1714,
    "\u25810x83": 1715,
    "\u25810x40a582": 1716,
    "\u25810x40a584": 1717,
    "\u25810x40a586": 1718,
    "\u25810x40a588": 1719,
    "\u25810x40a58a": 1720,
    "\u2581currentversion": 1721,
    "\u25810x40a580": 1722,
    "\u25810xfeee001b": 1723,
    "\u25810x40a57e": 1724,
    "\u25810x40b": 1725,
    "\u2581createdirectory": 1726,
    "iled": 1727,
    "\u25810x69000000": 1728,
    "74c": 1729,
    "\u25810x84": 1730,
    "om": 1731,
    "ser": 1732,
    "\u2581getsystemp": 1733,
    "\u25810x1211780": 1734,
    "\u25810x202": 1735,
    "184": 1736,
    "suped": 1737,
    "ire": 1738,
    "\u2581lstrcmpa": 1739,
    "c1": 1740,
    "\u2581compare": 1741,
    "\u2581do": 1742,
    "help": 1743,
    "\u25810x508": 1744,
    "\u25810x85": 1745,
    "zero": 1746,
    "\u25810xa0": 1747,
    "\u2581getsystempaletteentries": 1748,
    "668": 1749,
    "\u25810x88a0": 1750,
    "fe8": 1751,
    "metafile": 1752,
    "\u25810x3f75f60": 1753,
    "\u25810x408": 1754,
    "dat": 1755,
    "uter": 1756,
    "varian": 1757,
    "\u2581cryp": 1758,
    "vice": 1759,
    "computer": 1760,
    "ypec": 1761,
    "\u25810x8001": 1762,
    "\u2581floatingpoint": 1763,
    "byzero": 1764,
    "toperation": 1765,
    "isionbyzero": 1766,
    "box": 1767,
    "color": 1768,
    "\u2581z": 1769,
    "bers": 1770,
    "onc": 1771,
    "\u25810x7df0": 1772,
    "\u2581fibers": 1773,
    "\u2581registerclass": 1774,
    "\u25810x2e": 1775,
    "\u25810x1804": 1776,
    "\u25810x7de8": 1777,
    "\u25810x44f910": 1778,
    "\u25810x1211f0": 1779,
    "\u25810x7de9": 1780,
    "\u25810x94": 1781,
    "\u25810x430880": 1782,
    "\u2581getkeyboard": 1783,
    "earray": 1784,
    "\u2581er": 1785,
    "\u2581getsystemtime": 1786,
    "ecut": 1787,
    "\u25810x40a5ac": 1788,
    "\u25810xb8": 1789,
    "4f": 1790,
    "\u25810x4600": 1791,
    "clus": 1792,
    "bool": 1793,
    "\u25810x235": 1794,
    "\u25810x421": 1795,
    "a04": 1796,
    "\u2581varr": 1797,
    "4fromstr": 1798,
    "initialize": 1799,
    "c04": 1800,
    "\u2581closet": 1801,
    "\u25810x1211dd0": 1802,
    "\u2581localfree": 1803,
    "ec0": 1804,
    "d00": 1805,
    "\u25810x36": 1806,
    "\u25810x1211f88": 1807,
    "\u2581loadicona": 1808,
    "clusive": 1809,
    "stre": 1810,
    "rwlockex": 1811,
    "rwlockexclusive": 1812,
    "\u25810x40a93": 1813,
    "\u25810x42992": 1814,
    "\u25810x31": 1815,
    "\u25810x78c": 1816,
    "\u2581msvcr": 1817,
    "\u25810x7cd0": 1818,
    "\u25810x7dec": 1819,
    "\u25810x7ded": 1820,
    "\u25810x1211f2c": 1821,
    "full": 1822,
    "uff": 1823,
    "\u25810x2f": 1824,
    "\u25810xfeee001c": 1825,
    "81": 1826,
    "\u25810x1211f00": 1827,
    "\u258132": 1828,
    "ill": 1829,
    "\u25810x78c00000": 1830,
    "ak": 1831,
    "\u25810x99": 1832,
    "wantto": 1833,
    "\u25810x1211e30": 1834,
    "\u2581error": 1835,
    "\u25810xffff": 1836,
    "\u2581loadlibraryexa": 1837,
    "108": 1838,
    "\u2581u": 1839,
    "bc8": 1840,
    "\u25810x3e": 1841,
    "rata": 1842,
    "\u2581prec": 1843,
    "\u2581point": 1844,
    "\u2581errata": 1845,
    "\u2581precision": 1846,
    "\u2581getuser": 1847,
    "\u25810x1211748": 1848,
    "d000": 1849,
    "back": 1850,
    "ernet": 1851,
    "9000": 1852,
    "\u2581setc": 1853,
    "\u25810xd0": 1854,
    "\u25810x1211efc": 1855,
    "affin": 1856,
    "itymask": 1857,
    "affinitymask": 1858,
    "\u25810x8b": 1859,
    "torsaf": 1860,
    "torsafearray": 1861,
    "\u25810x7e8": 1862,
    "\u25810x7df1": 1863,
    "\u25810xfeee001d": 1864,
    "ly": 1865,
    "\u258120": 1866,
    "\u2581crypt": 1867,
    "\u2581copy": 1868,
    "\u2581getfileattributesw": 1869,
    "98c": 1870,
    "\u25810x4800": 1871,
    "ccc": 1872,
    "lush": 1873,
    "folderw": 1874,
    "metafilebits": 1875,
    "profile": 1876,
    "\u2581wsprintfa": 1877,
    "special": 1878,
    "\u2581shgetspecial": 1879,
    "eg": 1880,
    "\u2581getd": 1881,
    "\u25810x4290": 1882,
    "eed": 1883,
    "\u2581getsystemdirectorya": 1884,
    "\u2581getclass": 1885,
    "\u25810x80c0": 1886,
    "\u25810x1211c18": 1887,
    "\u25810x3a": 1888,
    "\u2581getprocessaffinitymask": 1889,
    "\u2581cadwork": 1890,
    "\u2581getkeyboardtype": 1891,
    "\u25810x2439f": 1892,
    "\u25810x4e30": 1893,
    "648": 1894,
    "\u25810x1211e08": 1895,
    "\u25810x4096": 1896,
    "\u25810x40ab": 1897,
    "pa": 1898,
    "b08": 1899,
    "ename": 1900,
    "view": 1901,
    "\u2581regi": 1902,
    "\u25810x43f0": 1903,
    "\u2581registry": 1904,
    "\u258117": 1905,
    "\u2581int": 1906,
    "584": 1907,
    "essage": 1908,
    "stream": 1909,
    "\u25810x7340": 1910,
    "\u2581type": 1911,
    "\u25810xfeee010": 1912,
    "\u25810x63": 1913,
    "\u25810xc00": 1914,
    "\u25810x181c": 1915,
    "788": 1916,
    "\u25810x80000000": 1917,
    "770": 1918,
    "ts": 1919,
    "\u2581process": 1920,
    "c8c": 1921,
    "\u25810x44180": 1922,
    "ivi": 1923,
    "8d": 1924,
    "\u25810x4960": 1925,
    "\u2581shgetspecialfolderw": 1926,
    "\u2581pro": 1927,
    "\u2581lock": 1928,
    "\u2581setup": 1929,
    "lete": 1930,
    "\u25810x41c0": 1931,
    "\u25810x8811": 1932,
    "inmetafilebits": 1933,
    "\u25810x97": 1934,
    "ivile": 1935,
    "\u25810x3b": 1936,
    "cef": 1937,
    "\u25810x39": 1938,
    "informationby": 1939,
    "\u2581fmode": 1940,
    "ut32": 1941,
    "\u2581olea": 1942,
    "\u2581oleaut32": 1943,
    "vio": 1944,
    "\u25810x121193c": 1945,
    "main": 1946,
    "\u25810x4bd0": 1947,
    "vol": 1948,
    "\u2581getwindowsdirectorya": 1949,
    "\u25810x35": 1950,
    "cea": 1951,
    "\u25810x4cb0": 1952,
    "\u25810x44d4b8": 1953,
    "\u25810x4df00": 1954,
    "any": 1955,
    "4a": 1956,
    "ace": 1957,
    "\u25810x4d50": 1958,
    "\u25810x5265": 1959,
    "\u2581getwinmetafilebits": 1960,
    "apho": 1961,
    "emapho": 1962,
    "\u2581initializes": 1963,
    "\u25810x432": 1964,
    "\u25810x61": 1965,
    "\u2581mo": 1966,
    "con": 1967,
    "\u25810x593": 1968,
    "\u25810x46e0": 1969,
    "\u25810x100000": 1970,
    "stro": 1971,
    "\u2581enum": 1972,
    "3c4": 1973,
    "endoffile": 1974,
    "\u25810x1211e20": 1975,
    "00210": 1976,
    "stroy": 1977,
    "\u2581getversionexw": 1978,
    "alog": 1979,
    "yarg1": 1980,
    "\u25810x7090": 1981,
    "\u25810x6c": 1982,
    "\u25810xfeee001e": 1983,
    "\u2581gettempa": 1984,
    "fer": 1985,
    "\u25814": 1986,
    "\u2581tr": 1987,
    "\u25810x52660": 1988,
    "\u25810x52662": 1989,
    "\u25810x53000000": 1990,
    "\u2581dragob": 1991,
    "allocate": 1992,
    "\u25810x1211f97": 1993,
    "884": 1994,
    "\u25810x1211fcc": 1995,
    "spac": 1996,
    "\u2581lstrcpynw": 1997,
    "host": 1998,
    "system": 1999,
    "85": 2000,
    "\u2581download": 2001,
    "ink": 2002,
    "iskfree": 2003,
    "iskfreespac": 2004,
    "\u2581getdiskfreespac": 2005,
    "conditionvariable": 2006,
    "c88": 2007,
    "\u25810x40a59c": 2008,
    "fac": 2009,
    "\u2581shfolder": 2010,
    "\u25810xfeee001f": 2011,
    "volu": 2012,
    "fromstream": 2013,
    "408": 2014,
    "de4": 2015,
    "\u25810x198": 2016,
    "e48": 2017,
    "\u25810x437820": 2018,
    "\u25810x81": 2019,
    "vironmentvariablea": 2020,
    "\u25810x437804": 2021,
    "\u25810x1211578": 2022,
    "\u25810x7540": 2023,
    "\u25810x1211308": 2024,
    "\u25810x7eab": 2025,
    "messagew": 2026,
    "\u25810xfeee012": 2027,
    "\u2581getsysteminfo": 2028,
    "\u25810x58000": 2029,
    "68c": 2030,
    "\u2581interlockedex": 2031,
    "\u25810x3d": 2032,
    "\u25810xfeee0020": 2033,
    "\u2581interlockedexchange": 2034,
    "\u25810x19a": 2035,
    "ires": 2036,
    "yarg2": 2037,
    "\u2581message": 2038,
    "callback": 2039,
    "fp": 2040,
    "\u2581of": 2041,
    "\u25810x4710": 2042,
    "ivileg": 2043,
    "hreadpoolwait": 2044,
    "\u2581setthreadpool": 2045,
    "violation": 2046,
    "\u25810x41c044": 2047,
    "new": 2048,
    "\u2581oleload": 2049,
    "\u2581oleloadfromstream": 2050,
    "volume": 2051,
    "a84": 2052,
    "\u25810x1211f74": 2053,
    "\u2581gettime": 2054,
    "bcc": 2055,
    "\u25810x43400": 2056,
    "\u2581getmain": 2057,
    "\u25810x1211948": 2058,
    "\u25810x8d": 2059,
    "\u25810x4614": 2060,
    "\u2581yo": 2061,
    "\u2581comparestring": 2062,
    "heck": 2063,
    "ec8": 2064,
    "\u25810x5265d": 2065,
    "\u2581messagebox": 2066,
    "\u2581mul": 2067,
    "\u2581muldiv": 2068,
    "data": 2069,
    "\u2581wak": 2070,
    "ha": 2071,
    "f8c": 2072,
    "\u2581flush": 2073,
    "\u2581show": 2074,
    "\u2581update": 2075,
    "\u2581loadresource": 2076,
    "188": 2077,
    "ok": 2078,
    "eme": 2079,
    "\u25810x7d95": 2080,
    "xth": 2081,
    "ee8": 2082,
    "\u25810x121194c": 2083,
    "\u2581sets": 2084,
    "\u25810x4088": 2085,
    "\u2581version": 2086,
    "ong": 2087,
    "ram": 2088,
    "83": 2089,
    "9c2": 2090,
    "\u25810x86": 2091,
    "302": 2092,
    "\u25810x4e50": 2093,
    "\u25810x509": 2094,
    "rtl": 2095,
    "\u25810x1211e44": 2096,
    "\u25810x44f": 2097,
    "\u25810x52661": 2098,
    "\u25810x169bf74": 2099,
    "\u2581process32": 2100,
    "\u2581deletefilea": 2101,
    "\u25810x7d94": 2102,
    "infow": 2103,
    "\u25810x3b7": 2104,
    "lication": 2105,
    "\u2581globalfree": 2106,
    "\u2581rtl": 2107,
    "\u25810x4086": 2108,
    "\u25810x1211f64": 2109,
    "\u2581plea": 2110,
    "myarg2": 2111,
    "\u25810x1211fd4": 2112,
    "\u2581oleinitialize": 2113,
    "a44": 2114,
    "b14": 2115,
    "ed8": 2116,
    "\u25810x4620": 2117,
    "metr": 2118,
    "delete": 2119,
    "26c": 2120,
    "base": 2121,
    "\u25810x41eb": 2122,
    "yarg1myarg2": 2123,
    "metric": 2124,
    "\u25810x1211ef8": 2125,
    "40c": 2126,
    "ast": 2127,
    "\u25810x65500000": 2128,
    "104": 2129,
    "b60": 2130,
    "439": 2131,
    "\u2581getuserdefault": 2132,
    "\u2581createsemapho": 2133,
    "\u25810x7930": 2134,
    "volumeinformation": 2135,
    "\u2581getvolumeinformation": 2136,
    "\u2581createp": 2137,
    "688": 2138,
    "\u25810x2100210": 2139,
    "lip": 2140,
    "sourcew": 2141,
    "\u25810x121157c": 2142,
    "\u25810x2439f74": 2143,
    "\u2581corex": 2144,
    "\u2581seten": 2145,
    "\u25810x12117a4": 2146,
    "head": 2147,
    "\u2581aaa": 2148,
    "\u2581install": 2149,
    "\u2581lstrcpya": 2150,
    "160": 2151,
    "\u2581ac": 2152,
    "\u2581corexitprocess": 2153,
    "uilanguage": 2154,
    "\u2581ofresource": 2155,
    "437": 2156,
    "sti": 2157,
    "gram": 2158,
    "a48": 2159,
    "\u2581getcurrentdirectorya": 2160,
    "f88": 2161,
    "instal": 2162,
    "sing": 2163,
    "namea": 2164,
    "download": 2165,
    "\u25810x406": 2166,
    "\u25810x4ab0": 2167,
    "his": 2168,
    "\u2581gettempw": 2169,
    "ea8": 2170,
    "\u25810x55": 2171,
    "\u25810x4232": 2172,
    "\u2581getclassinfoa": 2173,
    "imeto": 2174,
    "b88": 2175,
    "a044": 2176,
    "leob": 2177,
    "248": 2178,
    "\u25810x1211f84": 2179,
    "\u2581accessviolation": 2180,
    "\u25810xff8": 2181,
    "\u25818": 2182,
    "env": 2183,
    "\u25810x27": 2184,
    "alette": 2185,
    "\u25810x169bf64": 2186,
    "\u2581findresourcew": 2187,
    "\u2581uxth": 2188,
    "\u2581uxtheme": 2189,
    "\u25810x43a4": 2190,
    "\u25810x42b9": 2191,
    "\u2581run": 2192,
    "34c": 2193,
    "min": 2194,
    "\u2581sc": 2195,
    "edit": 2196,
    "e08": 2197,
    "\u25810x169bf94": 2198,
    "\u25810x40b3": 2199,
    "\u25810xfeee0021": 2200,
    "\u25810x46a0": 2201,
    "\u2581findnext": 2202,
    "\u2581noaccess": 2203,
    "\u2581code": 2204,
    "\u25810x403": 2205,
    "\u25810x91": 2206,
    "vchost": 2207,
    "\u25810x44000": 2208,
    "valu": 2209,
    "localename": 2210,
    "328": 2211,
    "\u2581con": 2212,
    "\u25810x3f4": 2213,
    "\u25810x422a0": 2214,
    "b44": 2215,
    "\u2581svchost": 2216,
    "\u25810x1211de4": 2217,
    "\u25810xfeee0022": 2218,
    "\u2581nto": 2219,
    "\u25810x1211c08": 2220,
    "\u2581ass": 2221,
    "382": 2222,
    "d28": 2223,
    "\u25816": 2224,
    "\u2581v": 2225,
    "208": 2226,
    "drive": 2227,
    "ivate": 2228,
    "no": 2229,
    "\u25810x54000": 2230,
    "prefer": 2231,
    "\u25810x60000": 2232,
    "\u25810x42b964": 2233,
    "\u25810x9c": 2234,
    "\u25810x1211728": 2235,
    "\u25810x1211e14": 2236,
    "private": 2237,
    "privateprofile": 2238,
    "\u258128": 2239,
    "\u25810x8f70": 2240,
    "\u25810x1211c98": 2241,
    "metrics": 2242,
    "\u2581findresour": 2243,
    "\u2581getsystemmetrics": 2244,
    "found": 2245,
    "cc8": 2246,
    "\u25810xa2": 2247,
    "\u25810xfeee014": 2248,
    "ff0": 2249,
    "\u2581gdip": 2250,
    "\u2581start": 2251,
    "bc5": 2252,
    "\u2581remov": 2253,
    "\u258112": 2254,
    "quires": 2255,
    "\u25810x435000": 2256,
    "\u2581dw": 2257,
    "330": 2258,
    "\u25810x7ab0": 2259,
    "\u25810x1211d30": 2260,
    "tp": 2261,
    "econdition": 2262,
    "econditionvariable": 2263,
    "quiresrwlockexclusive": 2264,
    "\u25810x423326": 2265,
    "\u25810x423327": 2266,
    "\u25810x8260": 2267,
    "d4c": 2268,
    "\u25810x8230": 2269,
    "\u25810x5d": 2270,
    "9c4": 2271,
    "\u25810xfeee0024": 2272,
    "\u25810x89": 2273,
    "run": 2274,
    "uffers": 2275,
    "\u25810x45f2": 2276,
    "d58": 2277,
    "\u25810x47f0": 2278,
    "ization": 2279,
    "\u25810x40a9": 2280,
    "\u25810x41f7": 2281,
    "f48": 2282,
    "polic": 2283,
    "\u25810x45f1": 2284,
    "\u25810xfeee0023": 2285,
    "\u2581font": 2286,
    "\u25810x1211e24": 2287,
    "\u2581setprocess": 2288,
    "\u25810xfeee0027": 2289,
    "sst": 2290,
    "\u25810x40c": 2291,
    "\u2581heapvalid": 2292,
    "\u2581ter": 2293,
    "\u2581setcurrent": 2294,
    "earchmode": 2295,
    "\u2581heapvalidate": 2296,
    "\u2581setsearchmode": 2297,
    "mb": 2298,
    "\u25810xa6": 2299,
    "\u258115": 2300,
    "\u25810xfeee0025": 2301,
    "ontrols": 2302,
    "70c": 2303,
    "stit": 2304,
    "\u2581lockresource": 2305,
    "\u25810xfeee0026": 2306,
    "\u2581termin": 2307,
    "\u25810x7ec1": 2308,
    "coree": 2309,
    "\u2581mscoree": 2310,
    "youwantto": 2311,
    "\u25810x45f4": 2312,
    "588": 2313,
    "e4c": 2314,
    "cc4": 2315,
    "\u2581userenv": 2316,
    "5c4": 2317,
    "\u25810x5c000": 2318,
    "f4c": 2319,
    "\u25810x405": 2320,
    "windows": 2321,
    "link": 2322,
    "atalog": 2323,
    "\u25810x92": 2324,
    "\u2581exception": 2325,
    "ool": 2326,
    "policy": 2327,
    "504": 2328,
    "\u25810x45f5": 2329,
    "listhead": 2330,
    "\u2581initializeslisthead": 2331,
    "\u25810x4076": 2332,
    "\u25810x1211f10": 2333,
    "\u25810x45f3": 2334,
    "\u25810x1210c": 2335,
    "nal": 2336,
    "will": 2337,
    "ument": 2338,
    "\u25810x45f8": 2339,
    "\u25810x7300": 2340,
    "variant": 2341,
    "\u25810xfeee015": 2342,
    "\u25810x45f6": 2343,
    "\u25810x4093e8": 2344,
    "internet": 2345,
    "substit": 2346,
    "\u25810x45f7": 2347,
    "\u25810x4093e5": 2348,
    "\u25810x4093e6": 2349,
    "\u25810x4093e7": 2350,
    "substitutes": 2351,
    "\u2581fontsubstitutes": 2352,
    "\u25810x45f9": 2353,
    "\u2581fe": 2354,
    "\u25810x502": 2355,
    "\u25810x5265e": 2356,
    "mapi": 2357,
    "\u25810x45fa": 2358,
    "deppolicy": 2359,
    "ay": 2360,
    "\u2581regedit": 2361,
    "\u25810x1211f78": 2362,
    "instruction": 2363,
    "\u25810x5265f": 2364,
    "\u2581setprocessdeppolicy": 2365,
    "\u25810x4700": 2366,
    "\u25810xfeee0046": 2367,
    "\u25810x7900": 2368,
    "rn": 2369,
    "\u25810xaa": 2370,
    "\u25810x45fe": 2371,
    "hen": 2372,
    "\u2581outo": 2373,
    "\u25810x4601": 2374,
    "\u25810xa4": 2375,
    "yscolor": 2376,
    "\u25810x78a0": 2377,
    "\u2581print": 2378,
    "\u2581dwmapi": 2379,
    "\u25810x181b70": 2380,
    "\u25810xfeee0045": 2381,
    "\u2581getsyscolor": 2382,
    "97f": 2383,
    "\u2581ver": 2384,
    "\u25810xb0": 2385,
    "atalogs": 2386,
    "\u25810x45ff": 2387,
    "\u2581createwindow": 2388,
    "\u25810x45fd": 2389,
    "\u2581cryptbase": 2390,
    "\u2581remove": 2391,
    "rnl": 2392,
    "\u25810x4340": 2393,
    "failed": 2394,
    "608": 2395,
    "904": 2396,
    "\u25810x1211db8": 2397,
    "388": 2398,
    "\u2581exem": 2399,
    "\u25810x7bd0": 2400,
    "\u2581exemyarg1myarg2": 2401,
    "tag": 2402,
    "skrnl": 2403,
    "\u2581ntoskrnl": 2404,
    "888": 2405,
    "lex": 2406,
    "\u2581di": 2407,
    "ffc": 2408,
    "lect": 2409,
    "\u25810x1211c04": 2410,
    "600": 2411,
    "redu": 2412,
    "\u25810x4990": 2413,
    "preferredu": 2414,
    "preferreduilanguage": 2415,
    "a08": 2416,
    "plor": 2417,
    "\u25810x7be0": 2418,
    "ac8": 2419,
    "\u25810x41a044": 2420,
    "606": 2421,
    "ab8": 2422,
    "add": 2423,
    "ce8": 2424,
    "preferreduilanguages": 2425,
    "plorer": 2426,
    "\u25810xffe1": 2427,
    "\u25810xfeee0044": 2428,
    "\u25810x644": 2429,
    "50c": 2430,
    "ec4": 2431,
    "\u25810x1211f1c": 2432,
    "be8": 2433,
    "ee4": 2434,
    "a4c": 2435,
    "\u25810x4093e9": 2436,
    "\u25810x4093ea": 2437,
    "\u25810x4093eb": 2438,
    "\u2581feb": 2439,
    "\u25810xfffe": 2440,
    "\u25810x52663": 2441,
    "\u25810x3f2000": 2442,
    "\u25810xa7": 2443,
    "\u25810xffe0": 2444,
    "ied": 2445,
    "gear": 2446,
    "b0c": 2447,
    "\u2581findresourcea": 2448,
    "\u2581wts": 2449,
    "ontin": 2450,
    "\u2581codegear": 2451,
    "406": 2452,
    "f84": 2453,
    "\u25810xffe4": 2454,
    "\u2581shgetfile": 2455,
    "3e8": 2456,
    "\u25810x1009": 2457,
    "\u2581isvalid": 2458,
    "768": 2459,
    "gical": 2460,
    "logical": 2461,
    "548": 2462,
    "ld": 2463,
    "creating": 2464,
    "\u2581getlogical": 2465,
    "\u25815": 2466,
    "\u25810x1211f18": 2467,
    "\u2581findfirstfilea": 2468,
    "\u25810x7270": 2469,
    "floating": 2470,
    "formatex": 2471,
    "\u25810x1211d04": 2472,
    "700": 2473,
    "\u2581fa": 2474,
    "\u25810x7ad0": 2475,
    "\u258114": 2476,
    "\u25810x410770": 2477,
    "echeck": 2478,
    "\u25810x50850": 2479,
    "\u25810x409aa4": 2480,
    "15c": 2481,
    "\u258134": 2482,
    "\u25810x4606": 2483,
    "\u25810x409aa5": 2484,
    "\u25810x5b": 2485,
    "ef0": 2486,
    "lay": 2487,
    "commonc": 2488,
    "\u2581regquery": 2489,
    "\u2581initcommonc": 2490,
    "\u2581initcommoncontrols": 2491,
    "220": 2492,
    "ethread": 2493,
    "\u25810x4614d0": 2494,
    "inter": 2495,
    "\u25810x40935d": 2496,
    "\u25810x40935e": 2497,
    "\u25810x40935f": 2498,
    "\u25810x409360": 2499,
    "\u25810x409361": 2500,
    "\u25810x409362": 2501,
    "\u25810x409363": 2502,
    "68b": 2503,
    "\u25810x4cf0": 2504,
    "\u2581ns": 2505,
    "\u2581sept": 2506,
    "\u25810x1211a04": 2507,
    "78c": 2508,
    "352": 2509,
    "\u25810xffbb": 2510,
    "\u25810xffba": 2511,
    "\u25810xffbd": 2512,
    "\u25810xffbe": 2513,
    "cto": 2514,
    "\u2581nsis": 2515,
    "\u25810x1005": 2516,
    "\u2581charpre": 2517,
    "operation": 2518,
    "\u2581nsiserror": 2519,
    "\u25810xffb8": 2520,
    "\u25810xffbc": 2521,
    "\u25810xffb7": 2522,
    "\u25810xffb9": 2523,
    "processw": 2524,
    "\u2581pr": 2525,
    "ping": 2526,
    "\u25810xfffd": 2527,
    "\u25810xa3": 2528,
    "\u25810x616": 2529,
    "\u2581setfileattributes": 2530,
    "\u25810xfffc": 2531,
    "\u2581varian": 2532,
    "\u25810xffbf": 2533,
    "ad4": 2534,
    "eall": 2535,
    "\u25810xffb6": 2536,
    "\u2581wakeall": 2537,
    "\u2581wakeallconditionvariable": 2538,
    "93e": 2539,
    "vis": 2540,
    "filemap": 2541,
    "filemapping": 2542,
    "\u25812d": 2543,
    "\u2581oct": 2544,
    "\u2581febr": 2545,
    "b46": 2546,
    "\u2581april": 2547,
    "\u2581august": 2548,
    "\u2581november": 2549,
    "\u25810x1211fc4": 2550,
    "\u2581september": 2551,
    "withtag": 2552,
    "poolwithtag": 2553,
    "\u2581exallocate": 2554,
    "\u2581exallocatepoolwithtag": 2555,
    "\u2581octo": 2556,
    "\u25810x1211f04": 2557,
    "exit": 2558,
    "502": 2559,
    "\u258124": 2560,
    "ati": 2561,
    "une": 2562,
    "\u25810xfffb": 2563,
    "d48": 2564,
    "\u25810xfeee0028": 2565,
    "740": 2566,
    "a81": 2567,
    "\u2581pi": 2568,
    "\u2581ndr": 2569,
    "\u2581controlfp": 2570,
    "\u25810xe0": 2571,
    "\u2581createdirectoryw": 2572,
    "\u2581ndrd": 2573,
    "\u25810xffb5": 2574,
    "\u25810xffe2": 2575,
    "80c": 2576,
    "\u2581div": 2577,
    "\u25810xffa0": 2578,
    "\u25810x7700": 2579,
    "\u25810x30000": 2580,
    "\u25810x41de": 2581,
    "\u25810x40ac": 2582,
    "\u25810x40b4": 2583,
    "\u25810x1211dfc": 2584,
    "\u25810x407": 2585,
    "\u25810xffa1": 2586,
    "\u25810xffa2": 2587,
    "\u2581createpalette": 2588,
    "index": 2589,
    "localtime": 2590,
    "\u2581localization": 2591,
    "e00": 2592,
    "uly": 2593,
    "anuary": 2594,
    "\u2581march": 2595,
    "\u2581december": 2596,
    "\u2581february": 2597,
    "a58": 2598,
    "\u2581outof": 2599,
    "\u2581october": 2600,
    "arc": 2601,
    "\u2581sunday": 2602,
    "\u25810x1211fc8": 2603,
    "\u2581outofmemory": 2604,
    "\u2581thu": 2605,
    "nesday": 2606,
    "\u2581monday": 2607,
    "\u2581tuesday": 2608,
    "\u2581wednesday": 2609,
    "ass": 2610,
    "hot": 2611,
    "pos": 2612,
    "ursday": 2613,
    "\u25810xffa3": 2614,
    "\u2581thursday": 2615,
    "120": 2616,
    "\u2581fri": 2617,
    "dc0": 2618,
    "\u25810x4c10": 2619,
    "\u25810x7a80": 2620,
    "\u2581commode": 2621,
    "iday": 2622,
    "anget": 2623,
    "urday": 2624,
    "\u2581friday": 2625,
    "\u25810x47a00": 2626,
    "\u2581saturday": 2627,
    "\u25810xa8": 2628,
    "\u25810xffcd": 2629,
    "f6c": 2630,
    "\u25810xffb4": 2631,
    "\u25810xfffa": 2632,
    "\u2581registerwindow": 2633,
    "den": 2634,
    "ken": 2635,
    "\u25810x41e": 2636,
    "\u25810xffa4": 2637,
    "\u25810xfeed": 2638,
    "\u2581the": 2639,
    "278": 2640,
    "\u25810x8a40": 2641,
    "\u2581getdiskfreespaceexa": 2642,
    "ound": 2643,
    "118": 2644,
    "130": 2645,
    "ecall": 2646,
    "ecute": 2647,
    "9c1": 2648,
    "fort": 2649,
    "\u25810x3f3": 2650,
    "\u25810x40a58c": 2651,
    "ded": 2652,
    "\u25810x8cc0": 2653,
    "a90": 2654,
    "ternal": 2655,
    "\u25810x40a57c": 2656,
    "forsing": 2657,
    "\u25810xffa7": 2658,
    "forsingleob": 2659,
    "\u25810x434": 2660,
    "\u25810xffa5": 2661,
    "\u25810xffa6": 2662,
    "\u25810xffe7": 2663,
    "\u2581getdate": 2664,
    "ff8": 2665,
    "\u2581external": 2666,
    "\u2581interfac": 2667,
    "\u25810x1211f3c": 2668,
    "\u2581asser": 2669,
    "exception": 2670,
    "\u2581interfacen": 2671,
    "\u25810x70000": 2672,
    "driv": 2673,
    "\u2581getwindow": 2674,
    "\u25810xfc": 2675,
    "\u2581filet": 2676,
    "\u2581filetimeto": 2677,
    "\u25810x7150": 2678,
    "\u25810xffe6": 2679,
    "\u2581getvolumeinformationa": 2680,
    "288": 2681,
    "\u2581stack": 2682,
    "\u25810x4540": 2683,
    "\u25810xb000": 2684,
    "safecall": 2685,
    "409": 2686,
    "\u2581ntdll": 2687,
    "\u2581assertion": 2688,
    "\u2581unhandledexceptionfilter": 2689,
    "urity": 2690,
    "\u2581move": 2691,
    "\u25810x404": 2692,
    "\u25810x566": 2693,
    "\u25810xffa8": 2694,
    "\u2581disk": 2695,
    "\u25810x73f0": 2696,
    "ivileged": 2697,
    "\u25810x448": 2698,
    "\u25810xffa9": 2699,
    "calls": 2700,
    "\u25810x78d0": 2701,
    "vironmentvariablew": 2702,
    "if": 2703,
    "insafecall": 2704,
    "\u2581exceptioninsafecall": 2705,
    "\u25810xffcc": 2706,
    "\u25810x95": 2707,
    "changet": 2708,
    "\u2581variantchanget": 2709,
    "140": 2710,
    "730": 2711,
    "install": 2712,
    "\u25810x42a1": 2713,
    "\u25810xfeee0043": 2714,
    "d88": 2715,
    "sto": 2716,
    "\u25810x4010": 2717,
    "\u25810x72a0": 2718,
    "lipboard": 2719,
    "notfound": 2720,
    "\u25810x2e7": 2721,
    "ontinue": 2722,
    "\u25810x1211f80": 2723,
    "ready": 2724,
    "under": 2725,
    "\u2581strcmp": 2726,
    "\u25810x12112": 2727,
    "544": 2728,
    "wind": 2729,
    "ypecast": 2730,
    "filename": 2731,
    "\u258118": 2732,
    "\u2581deletefilew": 2733,
    "\u258130": 2734,
    "\u25810xffce": 2735,
    "\u25810x1211438": 2736,
    "\u2581privileged": 2737,
    "\u2581assertionfailed": 2738,
    "pointeroperation": 2739,
    "cla": 2740,
    "outo": 2741,
    "\u2581crt": 2742,
    "ounds": 2743,
    "\u2581chit": 2744,
    "\u2581rang": 2745,
    "classt": 2746,
    "outofb": 2747,
    "otsuped": 2748,
    "\u25810xffaa": 2749,
    "callsnot": 2750,
    "overflow": 2751,
    "indexoutofb": 2752,
    "\u2581rangecheck": 2753,
    "callsnotsuped": 2754,
    "classtypecast": 2755,
    "creatingvarian": 2756,
    "indexoutofbounds": 2757,
    "\u2581externalexception": 2758,
    "\u2581interfacenotsuped": 2759,
    "\u2581errorcreatingvarian": 2760,
    "\u2581variantcallsnotsuped": 2761,
    "\u2581dra": 2762,
    "egero": 2763,
    "omany": 2764,
    "typec": 2765,
    "\u25810xc8": 2766,
    "pointo": 2767,
    "typecon": 2768,
    "\u2581toomany": 2769,
    "openfiles": 2770,
    "underflow": 2771,
    "\u2581integero": 2772,
    "floatingpoin": 2773,
    "pointoverflow": 2774,
    "divisionbyzero": 2775,
    "typeconversion": 2776,
    "\u2581invalidvarian": 2777,
    "\u2581stackoverflow": 2778,
    "\u2581divisionbyzero": 2779,
    "\u2581invalidvariant": 2780,
    "\u2581integeroverflow": 2781,
    "\u2581invalidfilename": 2782,
    "\u2581rangecheckerror": 2783,
    "\u2581toomanyopenfiles": 2784,
    "\u2581invalidfloatingpoin": 2785,
    "\u2581invalidclasstypecast": 2786,
    "\u2581floatingpointoverflow": 2787,
    "\u2581privilegedinstruction": 2788,
    "\u2581floatingpointunderflow": 2789,
    "\u2581invalidpointeroperation": 2790,
    "\u2581invalidvariantoperation": 2791,
    "\u2581floatingpointdivisionbyzero": 2792,
    "\u2581invalidvarianttypeconversion": 2793,
    "\u2581invalidfloatingpointoperation": 2794,
    "bey": 2795,
    "beyond": 2796,
    "denied": 2797,
    "numeric": 2798,
    "\u2581diskfull": 2799,
    "\u2581fileaccess": 2800,
    "\u2581readbeyond": 2801,
    "numericinput": 2802,
    "\u2581fileaccessdenied": 2803,
    "\u2581invalidnumericinput": 2804,
    "\u2581readbeyondendoffile": 2805,
    "\u2581waitforsingleob": 2806,
    "\u2581youm": 2807,
    "\u25810xffcf": 2808,
    "370": 2809,
    "app": 2810,
    "\u25810x64000": 2811,
    "ata": 2812,
    "\u25810x59": 2813,
    "\u2581cl": 2814,
    "\u2581createdirectorya": 2815,
    "\u25810x7060": 2816,
    "\u25810xfeee002d": 2817,
    "mod": 2818,
    "\u25810x3f75f30": 2819,
    "setinformation": 2820,
    "\u25810x68000": 2821,
    "\u25810xfeee0029": 2822,
    "\u25810xfeee002f": 2823,
    "\u2581getfileinformationby": 2824,
    "f85": 2825,
    "len": 2826,
    "\u25810x4607": 2827,
    "\u25810x1211f24": 2828,
    "e80": 2829,
    "698": 2830,
    "\u2581map": 2831,
    "f58": 2832,
    "\u2581va": 2833,
    "\u25810x364": 2834,
    "\u25810xffb0": 2835,
    "\u25810xffb3": 2836,
    "\u25810xffcb": 2837,
    "9c0": 2838,
    "\u2581back": 2839,
    "\u25810x3f5": 2840,
    "\u2581rtlun": 2841,
    "\u25810x100300": 2842,
    "\u25810xfeee002a": 2843,
    "204": 2844,
    "\u25810xf0": 2845,
    "\u25810x7690": 2846,
    "argument": 2847,
    "\u2581rtlunwind": 2848,
    "978": 2849,
    "\u25810xffb2": 2850,
    "\u25810x7f8003": 2851,
    "\u25810x7f8004": 2852,
    "\u25810x7f8005": 2853,
    "\u25810x7f8006": 2854,
    "\u25810x7f8007": 2855,
    "\u25810x7f8008": 2856,
    "\u25810x7f8009": 2857,
    "\u25810x7f800a": 2858,
    "\u25810x7f800b": 2859,
    "\u25810x7f800c": 2860,
    "\u25810x7f800d": 2861,
    "d38": 2862,
    "ypeex": 2863,
    "\u25810xffb1": 2864,
    "\u25810x63000000": 2865,
    "\u2581variantchangetypeex": 2866,
    "7b8": 2867,
    "\u25810x7f800e": 2868,
    "\u2581setcurrentdirectorya": 2869,
    "66c": 2870,
    "\u25810x3020": 2871,
    "\u2581destroy": 2872,
    "token": 2873,
    "\u25810x416": 2874,
    "netw": 2875,
    "\u25810xfff9": 2876,
    "\u25810x7f800f": 2877,
    "\u25810x77e0": 2878,
    "\u2581varbstrfrombool": 2879,
    "neg": 2880,
    "\u25810x502dc": 2881,
    "f8a": 2882,
    "mul": 2883,
    "xor": 2884,
    "\u2581varcy": 2885,
    "\u2581varor": 2886,
    "\u2581varr8": 2887,
    "\u2581varadd": 2888,
    "\u2581varand": 2889,
    "\u2581varcmp": 2890,
    "\u2581vardiv": 2891,
    "\u2581varmod": 2892,
    "\u2581varmul": 2893,
    "\u2581varneg": 2894,
    "\u2581varnot": 2895,
    "\u2581varsub": 2896,
    "\u2581varxor": 2897,
    "\u2581varbool": 2898,
    "\u2581vardate": 2899,
    "\u2581varidiv": 2900,
    "\u2581varcyfromstr": 2901,
    "\u2581vari4fromstr": 2902,
    "\u2581varr4fromstr": 2903,
    "\u2581varr8fromstr": 2904,
    "\u2581varbstrfromcy": 2905,
    "\u2581varboolfromstr": 2906,
    "\u2581vardatefromstr": 2907,
    "\u2581varbstrfromdate": 2908,
    "\u2581removedirectory": 2909,
    "dac": 2910,
    "ush": 2911,
    "namew": 2912,
    "\u2581messageboxa": 2913,
    "network": 2914,
    "\u2581getlocaltime": 2915,
    "\u2581createfilemapping": 2916,
    "\u25810xfeee002c": 2917,
    "\u2581dup": 2918,
    "\u25810xac": 2919,
    "\u25810x7910": 2920,
    "\u2581windowsnt": 2921,
    "\u25810xfeee002b": 2922,
    "\u2581getlocaleinfoex": 2923,
    "a88": 2924,
    "e05": 2925,
    "led": 2926,
    "\u2581comparestringex": 2927,
    "bd0": 2928,
    "434": 2929,
    "\u25810x41f": 2930,
    "\u25810x440": 2931,
    "ateprocess": 2932,
    "\u2581your": 2933,
    "\u25810xfeee002e": 2934,
    "f28": 2935,
    "\u2581em": 2936,
    "\u25810xffca": 2937,
    "\u2581createthread": 2938,
    "004": 2939,
    "148": 2940,
    "ea4": 2941,
    "\u25810x401": 2942,
    "\u25810xfeee016": 2943,
    "ae0": 2944,
    "ret": 2945,
    "\u25810x26": 2946,
    "709": 2947,
    "\u2581can": 2948,
    "\u25810xcf": 2949,
    "\u25810x52666": 2950,
    "\u25810x71b0": 2951,
    "\u25810x7df4": 2952,
    "\u25810x7df5": 2953,
    "\u25810x3000": 2954,
    "\u2581heapsetinformation": 2955,
    "\u25810xa9": 2956,
    "\u25810x417d": 2957,
    "\u25810x45fc": 2958,
    "\u25810xffe5": 2959,
    "\u25810xfff8": 2960,
    "e8c": 2961,
    "\u2581q": 2962,
    "\u258116": 2963,
    "720": 2964,
    "d84": 2965,
    "\u25810x7d50": 2966,
    "\u2581duplic": 2967,
    "\u2581getsystemtimes": 2968,
    "984": 2969,
    "344": 2970,
    "903": 2971,
    "only": 2972,
    "ware": 2973,
    "b98": 2974,
    "\u2581ra": 2975,
    "\u2581opena": 2976,
    "\u2581filenotfound": 2977,
    "\u25810xfeee0030": 2978,
    "item": 2979,
    "124": 2980,
    "\u25810x120fa": 2981,
    "b10": 2982,
    "5a7": 2983,
    "\u258126": 2984,
    "\u25810xa1": 2985,
    "\u25810xfff7": 2986,
    "1c4": 2987,
    "pack": 2988,
    "\u25810x93": 2989,
    "798": 2990,
    "ecc": 2991,
    "\u25810x4919": 2992,
    "\u25810x45fb": 2993,
    "\u2581instal": 2994,
    "\u2581terminateprocess": 2995,
    "emut": 2996,
    "\u25810x40f": 2997,
    "\u2581variantorsafearray": 2998,
    "\u2581errorcreatingvariantorsafearray": 2999,
    "\u2581variantorsafearrayindexoutofbounds": 3000,
    "\u2581invalidargument": 3001,
    "\u2581getprivateprofile": 3002,
    "\u2581draw": 3003,
    "\u25810xfeee018": 3004,
    "\u25810xfeee0031": 3005,
    "2c8": 3006,
    "a02": 3007,
    "\u25810x1210e30": 3008,
    "520": 3009,
    "\u2581comm": 3010,
    "\u25810xfeee011": 3011,
    "7d0": 3012,
    "\u25810x414": 3013,
    "\u25810x42c0": 3014,
    "\u25810x79c0": 3015,
    "\u2581failed": 3016,
    "ig": 3017,
    "1f4": 3018,
    "f40": 3019,
    "ning": 3020,
    "43c": 3021,
    "a5c": 3022,
    "\u25810x40a7": 3023,
    "\u2581setdll": 3024,
    "\u25810xfeee003b": 3025,
    "gro": 3026,
    "\u25810x7e00": 3027,
    "\u25810x7b40": 3028,
    "\u25810xffc8": 3029,
    "aaaaaaaa": 3030,
    "3c0": 3031,
    "d18": 3032,
    "664": 3033,
    "ed4": 3034,
    "435": 3035,
    "\u25810xffd2": 3036,
    "ym": 3037,
    "381": 3038,
    "d1c": 3039,
    "\u258110": 3040,
    "\u258119": 3041,
    "\u25810x7b10": 3042,
    "\u25810x169bc": 3043,
    "\u25810xfeee0033": 3044,
    "\u25810x461518": 3045,
    "\u25810xfeee0041": 3046,
    "\u25810xfeee005f": 3047,
    "\u2581initializeconditionvariable": 3048,
    "\u25810x40f6a8": 3049,
    "284": 3050,
    "state": 3051,
    "\u25810x480": 3052,
    "nexplorer": 3053,
    "\u25810xfeee0042": 3054,
    "ypea": 3055,
    "\u25810x140": 3056,
    "\u25810xfeee0065": 3057,
    "ps": 3058,
    "sn": 3059,
    "iseex": 3060,
    "\u25810x4af4": 3061,
    "\u25810x75d0": 3062,
    "\u2581raiseex": 3063,
    "\u25810xfeee0032": 3064,
    "\u2581raiseexception": 3065,
    "1b4": 3066,
    "keyw": 3067,
    "ad9": 3068,
    "e84": 3069,
    "\u25810xa5": 3070,
    "\u25810x144": 3071,
    "\u25810xfeee0035": 3072,
    "360": 3073,
    "\u2581select": 3074,
    "\u25810x1211508": 3075,
    "5b0": 3076,
    "db0": 3077,
    "\u25810x419": 3078,
    "\u25810x534": 3079,
    "\u25810xfeee0034": 3080,
    "\u25810xfeee0049": 3081,
    "\u2581setfilepointerex": 3082,
    "\u25810xffc9": 3083,
    "\u2581setupapi": 3084,
    "\u2581tmp": 3085,
    "\u25810xfeee0066": 3086,
    "\u2581acquiresrwlockexclusive": 3087,
    "fore": 3088,
    "iver": 3089,
    "youre": 3090,
    "\u25810x40e5": 3091,
    "\u25810x75500000": 3092,
    "ab5": 3093,
    "\u25810x7eaba8": 3094,
    "178": 3095,
    "\u25810xf8": 3096,
    "\u25810xfeee003f": 3097,
    "ority": 3098,
    "\u25810xfeee0067": 3099,
    "f02": 3100,
    "\u2581check": 3101,
    "\u25810x1210ec0": 3102,
    "\u2581initcommoncontrolsex": 3103,
    "name": 3104,
    "1a0": 3105,
    "d2c": 3106,
    "\u25810x42a0": 3107,
    "\u25810x4605": 3108,
    "\u25810xfeee0037": 3109,
    "\u25810xfeee0039": 3110,
    "801": 3111,
    "unch": 3112,
    "\u25810x435002": 3113,
    "\u25810x435004": 3114,
    "\u25810x435006": 3115,
    "\u25810x435008": 3116,
    "\u25810x43500a": 3117,
    "\u25810x43500c": 3118,
    "\u25810x43500e": 3119,
    "\u25810x435010": 3120,
    "\u25810x435018": 3121,
    "\u25810xfeee0036": 3122,
    "\u2581findnextfilea": 3123,
    "\u25810x435014": 3124,
    "a70": 3125,
    "\u25810x5f": 3126,
    "launch": 3127,
    "\u25810x52664": 3128,
    "\u25810x435016": 3129,
    "\u25810x1211f50": 3130,
    "me32": 3131,
    "\u2581mame32": 3132,
    "\u2581freeware": 3133,
    "60c": 3134,
    "d70": 3135,
    "ethe": 3136,
    "\u25810x4604": 3137,
    "9cc": 3138,
    "ac4": 3139,
    "\u25810x7030": 3140,
    "\u2581apphelp": 3141,
    "\u2581registerclassa": 3142,
    "\u2581createfilemappinga": 3143,
    "bd4": 3144,
    "isp": 3145,
    "\u2581aa": 3146,
    "\u2581oleacc": 3147,
    "\u25810x3f4000": 3148,
    "bcat": 3149,
    "psys": 3150,
    "closekey": 3151,
    "\u2581propsys": 3152,
    "\u2581regclosekey": 3153,
    "744": 3154,
    "bcatq": 3155,
    "\u25810x74000": 3156,
    "\u2581clbcatq": 3157,
    "\u25810xfeee0038": 3158,
    "749": 3159,
    "ere": 3160,
    "e4b8": 3161,
    "\u2581duplicate": 3162,
    "linkw": 3163,
    "928": 3164,
    "roll": 3165,
    "\u25810x96": 3166,
    "16c": 3167,
    "fa8": 3168,
    "ervice": 3169,
    "950": 3170,
    "958": 3171,
    "e10": 3172,
    "fc2": 3173,
    "\u25810x300": 3174,
    "\u25810x12110": 3175,
    "\u25810x435012": 3176,
    "\u25810xfeee003d": 3177,
    "fad": 3178,
    "\u25810x401000": 3179,
    "902": 3180,
    "\u2581loadcursorw": 3181,
    "\u2581setenvironmentvariablea": 3182,
    "drivet": 3183,
    "\u25810xffc7": 3184,
    "\u2581getdrivet": 3185,
    "e40": 3186,
    "\u25810xfeee003a": 3187,
    "\u25810xfeee0047": 3188,
    "\u25810x51": 3189,
    "\u25810x7a50": 3190,
    "\u2581msvcr90": 3191,
    "\u25810x1211f0c": 3192,
    "\u25810xfeee003e": 3193,
    "358": 3194,
    "\u25810xbe": 3195,
    "5cc": 3196,
    "\u25810x496": 3197,
    "\u2581setdlldirectoryw": 3198,
    "reque": 3199,
    "\u25810x4608": 3200,
    "\u2581duplicatehandle": 3201,
    "cata": 3202,
    "\u2581lstrcata": 3203,
    "\u25810x1211ccc": 3204,
    "\u25810xfeee003c": 3205,
    "d68": 3206,
    "\u25810x1211f70": 3207,
    "604": 3208,
    "\u25810x56c": 3209,
    "\u25810x7750": 3210,
    "cp": 3211,
    "3a8": 3212,
    "f46": 3213,
    "2c4": 3214,
    "718": 3215,
    "e58": 3216,
    "d40": 3217,
    "f8010": 3218,
    "valueexa": 3219,
    "\u25810xfeee0053": 3220,
    "\u2581at": 3221,
    "barc": 3222,
    "adero": 3223,
    "\u2581embarc": 3224,
    "\u2581embarcadero": 3225,
    "bf0": 3226,
    "areex": 3227,
    "dcompareex": 3228,
    "\u2581interlockedcompareex": 3229,
    "a31": 3230,
    "\u25810x2d4": 3231,
    "formata": 3232,
    "program": 3233,
    "\u25810x7cf0": 3234,
    "\u25810x1211fc0": 3235,
    "218": 3236,
    "\u25810x74e0": 3237,
    "\u25810xfff6": 3238,
    "\u25810x42a00": 3239,
    "\u25810x43f6": 3240,
    "\u25810x44c2": 3241,
    "\u25810x1211d08": 3242,
    "\u2581interlockedcompareexchange": 3243,
    "\u25810x537": 3244,
    "application": 3245,
    "profil": 3246,
    "301": 3247,
    "7bc": 3248,
    "970": 3249,
    "\u25810xbd": 3250,
    "\u25810x200020": 3251,
    "9260": 3252,
    "\u25810xab": 3253,
    "340": 3254,
    "\u25810x46c0": 3255,
    "\u25810x7870": 3256,
    "\u25810x7ae0": 3257,
    "\u25810x7bf0": 3258,
    "\u25810xfeee004a": 3259,
    "\u25810x10a": 3260,
    "\u25810x7390": 3261,
    "\u25810x4d500": 3262,
    "728": 3263,
    "\u25810x66": 3264,
    "\u25810xfeee0048": 3265,
    "303": 3266,
    "905": 3267,
    "help32": 3268,
    "\u25810x2100": 3269,
    "itthread": 3270,
    "\u2581enumsystem": 3271,
    "b5c": 3272,
    "ce3": 3273,
    "\u2581po": 3274,
    "\u25810x8090": 3275,
    "\u25810x43501a": 3276,
    "\u25810x1211790": 3277,
    "\u25810x3f75e88": 3278,
    "\u2581createtool": 3279,
    "1e4": 3280,
    "384": 3281,
    "64c": 3282,
    "emo": 3283,
    "snaps": 3284,
    "\u25810xffef": 3285,
    "security": 3286,
    "help32snaps": 3287,
    "\u2581enumsystemlocale": 3288,
    "\u2581createtoolhelp32snaps": 3289,
    "\u25810xfeee0068": 3290,
    "tex": 3291,
    "ns": 3292,
    "\u2581showwindow": 3293,
    "a54": 3294,
    "fec": 3295,
    "\u25810x7b90": 3296,
    "\u25810xffe3": 3297,
    "\u25810x1211928": 3298,
    "ad8": 3299,
    "f18": 3300,
    "\u25810x4602": 3301,
    "\u2581createtoolhelp32snapshot": 3302,
    "e04": 3303,
    "trl": 3304,
    "quit": 3305,
    "\u25810x1211584": 3306,
    "xw": 3307,
    "\u2581releases": 3308,
    "\u2581getfileinformationbyhandl": 3309,
    "lecs": 3310,
    "\u25810x62": 3311,
    "ablecs": 3312,
    "\u25810x42c": 3313,
    "package": 3314,
    "variablecs": 3315,
    "\u25810xfeee0069": 3316,
    "\u2581sleepcondition": 3317,
    "\u2581sleepconditionvariablecs": 3318,
    "1c0": 3319,
    "de8": 3320,
    "per": 3321,
    "e0c": 3322,
    "\u25810x770": 3323,
    "b84": 3324,
    "fa6": 3325,
    "\u2581send": 3326,
    "\u2581getthreadpreferreduilanguages": 3327,
    "348": 3328,
    "\u25810x450": 3329,
    "\u2581setwindow": 3330,
    "38c": 3331,
    "\u2581are": 3332,
    "\u25810x72d0": 3333,
    "sh": 3334,
    "d5c": 3335,
    "hreadpoolwork": 3336,
    "packageid": 3337,
    "\u2581getcurrentpackageid": 3338,
    "00220": 3339,
    "\u25810x47e0": 3340,
    "\u25810x7210": 3341,
    "\u25810x43501c": 3342,
    "\u25810x43501e": 3343,
    "\u25810x435020": 3344,
    "\u25810x435022": 3345,
    "\u25810x435028": 3346,
    "\u25810x43502a": 3347,
    "\u25810x43502c": 3348,
    "\u25810x43502e": 3349,
    "\u25810x435030": 3350,
    "nam": 3351,
    "\u25810x2200220": 3352,
    "\u2581findwindow": 3353,
    "lexecut": 3354,
    "\u25810x181b48": 3355,
    "\u2581shellexecut": 3356,
    "7038": 3357,
    "service": 3358,
    "\u25810x1211888": 3359,
    "684": 3360,
    "ymbo": 3361,
    "brush": 3362,
    "ymbolic": 3363,
    "\u2581sys": 3364,
    "\u25810x75a0": 3365,
    "\u25810x7600": 3366,
    "\u25810x1210cf0": 3367,
    "\u2581registerclassexa": 3368,
    "008": 3369,
    "a45": 3370,
    "pri": 3371,
    "viewoffile": 3372,
    "ymboliclinkw": 3373,
    "\u2581createsymboliclinkw": 3374,
    "a0c": 3375,
    "d3c": 3376,
    "d50": 3377,
    "priority": 3378,
    "\u25810xfeee019": 3379,
    "578": 3380,
    "682": 3381,
    "\u25810x4095": 3382,
    "\u25810x7ba0": 3383,
    "when": 3384,
    "\u25810x44c250": 3385,
    "\u25810xfeee004d": 3386,
    "lg": 3387,
    "ow64": 3388,
    "\u25810x7240": 3389,
    "\u25810xffc6": 3390,
    "\u2581selec": 3391,
    "\u25810x71e0": 3392,
    "\u25810x7660": 3393,
    "\u2581format": 3394,
    "\u25810x7a20": 3395,
    "\u25810xfeee0072": 3396,
    "b8c": 3397,
    "fc0": 3398,
    "row": 3399,
    "urns": 3400,
    "reexw": 3401,
    "riteb": 3402,
    "returns": 3403,
    "\u25810x7720": 3404,
    "ornumber": 3405,
    "callbacks": 3406,
    "\u2581waitfort": 3407,
    "ritebuffers": 3408,
    "whencallback": 3409,
    "\u2581flushprocessw": 3410,
    "\u2581setthreadpoolwait": 3411,
    "whencallbackreturns": 3412,
    "\u2581createsemaphoreexw": 3413,
    "\u2581setthreadpooltimer": 3414,
    "\u2581closethreadpoolwait": 3415,
    "\u2581closethreadpooltimer": 3416,
    "\u2581createthreadpoolwait": 3417,
    "\u2581createthreadpooltimer": 3418,
    "hreadpooltimercallbacks": 3419,
    "\u2581flushprocesswritebuffers": 3420,
    "\u2581getcurrentprocessornumber": 3421,
    "\u2581freelibrarywhencallbackreturns": 3422,
    "\u2581waitforthreadpooltimercallbacks": 3423,
    "7f0": 3424,
    "\u25810x11000": 3425,
    "\u25810xfeee004b": 3426,
    "\u25810xfeee004c": 3427,
    "310": 3428,
    "d0c": 3429,
    "\u25810x40a5b0": 3430,
    "\u25810x40a5b8": 3431,
    "\u25810xfeee006a": 3432,
    "\u2581doyouwantto": 3433,
    "90c": 3434,
    "gistry": 3435,
    "\u25810x40a5b4": 3436,
    "\u25810xbc": 3437,
    "\u25810x76f0": 3438,
    "\u25810x52665": 3439,
    "\u25810x40a5ae": 3440,
    "\u25810x40a5b2": 3441,
    "\u25810x40a5b6": 3442,
    "\u25810x40a5ba": 3443,
    "96c": 3444,
    "running": 3445,
    "\u25810x40b7": 3446,
    "\u25810x5676": 3447,
    "\u25810x76c0": 3448,
    "\u25810xfeee005a": 3449,
    "\u25810xfeee005c": 3450,
    "f74": 3451,
    "allyour": 3452,
    "\u2581openanexplorer": 3453,
    "\u2581createwindowexa": 3454,
    "ialog": 3455,
    "\u25810x7480": 3456,
    "\u25810xffdf": 3457,
    "32c": 3458,
    "\u25810xfeee0055": 3459,
    "\u25810xfeee005b": 3460,
    "frominternet": 3461,
    "\u25810x4c30": 3462,
    "\u25810x77002": 3463,
    "printer": 3464,
    "\u25810x181b98": 3465,
    "\u25810xfeee004e": 3466,
    "\u25810xfeee0050": 3467,
    "963": 3468,
    "\u25810x7570": 3469,
    "15f": 3470,
    "d83": 3471,
    "\u25810x7180": 3472,
    "\u2581dialog": 3473,
    "\u25810xfeee0054": 3474,
    "\u2581setfileattributesa": 3475,
    "a38": 3476,
    "ongle": 3477,
    "\u25810x6d": 3478,
    "\u25810x42a4": 3479,
    "ecadwork": 3480,
    "\u25810x76500000": 3481,
    "\u25810x7330": 3482,
    "\u25810xffec": 3483,
    "\u25810x43f00": 3484,
    "arta": 3485,
    "\u25810xfeee004f": 3486,
    "\u25810xfeee005e": 3487,
    "\u25810x7840": 3488,
    "\u25810x7960": 3489,
    "\u25810x7990": 3490,
    "wa": 3491,
    "210": 3492,
    "\u25810x1210e34": 3493,
    "\u25810xfeee0051": 3494,
    "au": 3495,
    "eb8": 3496,
    "\u25810x7120": 3497,
    "\u25810x77b0": 3498,
    "\u2581memset": 3499,
    "\u25810xfeee0052": 3500,
    "cc6": 3501,
    "\u2581zip": 3502,
    "\u25810x4bb0": 3503,
    "ht": 3504,
    "3a4": 3505,
    "\u25810x74b0": 3506,
    "372": 3507,
    "40b": 3508,
    "a6c": 3509,
    "\u25810x7360": 3510,
    "\u25810x7510": 3511,
    "do": 3512,
    "\u25810xfeee0057": 3513,
    "\u25810x3f6": 3514,
    "\u25810x4233": 3515,
    "\u25810x70c0": 3516,
    "\u25810xffd3": 3517,
    "\u25810xfeee0056": 3518,
    "fc4": 3519,
    "\u2581append": 3520,
    "\u25810x181c60": 3521,
    "\u25810x181c88": 3522,
    "7ec": 3523,
    "bbc": 3524,
    "enum": 3525,
    "\u25810xfeee0064": 3526,
    "a80": 3527,
    "\u25810x7450": 3528,
    "\u25810x3f3000": 3529,
    "\u25810xfeee0058": 3530,
    "\u25810x412": 3531,
    "\u25810x1211fbc": 3532,
    "74b": 3533,
    "em32": 3534,
    "\u25810x7420": 3535,
    "bc6": 3536,
    "reen": 3537,
    "\u25810x2b4": 3538,
    "\u25810xfeee0059": 3539,
    "bd1": 3540,
    "ldr": 3541,
    "\u25810x40969": 3542,
    "\u2581gettickcount64": 3543,
    "gn": 3544,
    "10c": 3545,
    "\u25810xad": 3546,
    "update": 3547,
    "\u25810x6a6": 3548,
    "\u25810x73c0": 3549,
    "d8c": 3550,
    "\u25810x7630": 3551,
    "\u25810xfeee0063": 3552,
    "647": 3553,
    "f78": 3554,
    "\u2581end": 3555,
    "updat": 3556,
    "\u25810xfeee0060": 3557,
    "324": 3558,
    "\u2581getenvironmentvariablea": 3559,
    "\u25810x70f0": 3560,
    "\u25810x4356": 3561,
    "\u25810x1211c94": 3562,
    "\u25810x420fe8": 3563,
    "\u25810xfeee005d": 3564,
    "\u25810xfeee0062": 3565,
    "15e": 3566,
    "b34": 3567,
    "4bb8": 3568,
    "\u25810xb3": 3569,
    "\u2581strcpy": 3570,
    "\u25810x455480": 3571,
    "932": 3572,
    "\u25810x7b70": 3573,
    "\u25810xfeee0061": 3574,
    "364": 3575,
    "bec": 3576,
    "paint": 3577,
    "\u25810x7780": 3578,
    "\u25810x1211f34": 3579,
    "3000": 3580,
    "\u258135": 3581,
    "atch": 3582,
    "\u25810x2357b": 3583,
    "\u25810x455468": 3584,
    "\u25810x3f75f7c": 3585,
    "f0c": 3586,
    "985": 3587,
    "b4c": 3588,
    "\u2581mso": 3589,
    "\u25810xd8": 3590,
    "\u25810xffde": 3591,
    "\u258136": 3592,
    "\u25810x7c90": 3593,
    "403": 3594,
    "b30": 3595,
    "a19": 3596,
    "c84": 3597,
    "\u25810x7ed": 3598,
    "\u25810x1210d90": 3599,
    "ce1": 3600,
    "cid": 3601,
    "\u2581me": 3602,
    "ee08": 3603,
    "tili": 3604,
    "\u2581mso97": 3605,
    "\u25810xfff5": 3606,
    "\u25810x3f75f84": 3607,
    "\u25810x3f75f8c": 3608,
    "7dc": 3609,
    "hed": 3610,
    "\u25810x567678": 3611,
    "945": 3612,
    "b20": 3613,
    "bd7": 3614,
    "\u25810xfeee006c": 3615,
    "12c": 3616,
    "952": 3617,
    "\u2581li": 3618,
    "\u2581y": 3619,
    "long": 3620,
    "92e": 3621,
    "\u25810x4012": 3622,
    "\u25810x8814": 3623,
    "\u2581shgetfileinfow": 3624,
    "670": 3625,
    "e28": 3626,
    "\u2581reset": 3627,
    "\u2581removedirectorya": 3628,
    "\u2581regcreate": 3629,
    "\u25810x3010": 3630,
    "\u25810x1211f48": 3631,
    "\u25810xfeee006b": 3632,
    "3e6": 3633,
    "\u25810x6f": 3634,
    "\u2581launch": 3635,
    "\u25810x6c000": 3636,
    "6e0": 3637,
    "ass2": 3638,
    "\u2581meip": 3639,
    "\u25810x169b": 3640,
    "\u25810x7b00": 3641,
    "\u2581meipass2": 3642,
    "54c": 3643,
    "778": 3644,
    "ects": 3645,
    "installed": 3646,
    "1cc": 3647,
    "338": 3648,
    "d78": 3649,
    "d98": 3650,
    "\u25810x455": 3651,
    "\u25810x1211738": 3652,
    "\u2581copyfilea": 3653,
    "b000": 3654,
    "handler": 3655,
    "\u25810xffe8": 3656,
    "\u2581getsystemdefault": 3657,
    "oem": 3658,
    "\u25810x429260": 3659,
    "\u2581regdelete": 3660,
    "ty": 3661,
    "\u25810x1211a44": 3662,
    "b50": 3663,
    "fe0": 3664,
    "f000": 3665,
    "\u25810x1211ec8": 3666,
    "\u2581createexw": 3667,
    "\u2581setfileinformationby": 3668,
    "specw": 3669,
    "inmodule": 3670,
    "\u2581appendw": 3671,
    "\u2581removefile": 3672,
    "\u25819": 3673,
    "bb0": 3674,
    "\u25810x4bcc": 3675,
    "\u2581appdata": 3676,
    "\u25810x7af0": 3677,
    "\u25810xffc5": 3678,
    "\u2581regcreatekey": 3679,
    "\u2581removefilespecw": 3680,
    "aw": 3681,
    "dfd": 3682,
    "ed0": 3683,
    "\u2581ws": 3684,
    "\u25810x4760": 3685,
    "gu": 3686,
    "ec9": 3687,
    "f34": 3688,
    "\u25810x40a2": 3689,
    "\u25810xfeee006e": 3690,
    "pc": 3691,
    "7c4": 3692,
    "fdc": 3693,
    "3cf0": 3694,
    "stringw": 3695,
    "\u25810x40b8": 3696,
    "\u2581process32first": 3697,
    "\u25810x418": 3698,
    "\u25810x1211dbc": 3699,
    "944": 3700,
    "\u25810x110": 3701,
    "b2c": 3702,
    "hook": 3703,
    "56c": 3704,
    "eedf": 3705,
    "\u25810x173": 3706,
    "\u25810x4175": 3707,
    "\u2581please": 3708,
    "\u25810xfeee006d": 3709,
    "\u25810xfeee0087": 3710,
    "66e": 3711,
    "rew": 3712,
    "ession": 3713,
    "\u25810x20019": 3714,
    "998": 3715,
    "f86": 3716,
    "\u25810x509e4": 3717,
    "\u25810x40a540": 3718,
    "201": 3719,
    "out": 3720,
    "\u25810x44f850": 3721,
    "\u2581charprevw": 3722,
    "d30": 3723,
    "d90": 3724,
    "\u25810x4548": 3725,
    "\u25810x430fec": 3726,
    "\u25810x44f8c8": 3727,
    "\u25810xfeee0088": 3728,
    "946": 3729,
    "acd": 3730,
    "fa4": 3731,
    "valuea": 3732,
    "\u25810x44f868": 3733,
    "\u25810x44f880": 3734,
    "\u25810x44f898": 3735,
    "\u25810x44f8b0": 3736,
    "\u2581sa": 3737,
    "\u25810xc0": 3738,
    "\u25810x491": 3739,
    "\u25810x4aa0": 3740,
    "\u25810x430db0": 3741,
    "\u25810x44f8f8": 3742,
    "\u25810x44f940": 3743,
    "\u25810x44f958": 3744,
    "\u25810x44f970": 3745,
    "\u25810x44f988": 3746,
    "\u2581updatewindow": 3747,
    "5e8": 3748,
    "\u25810x40a53a": 3749,
    "\u25810x40a53c": 3750,
    "\u25810x40a53e": 3751,
    "\u25810x40a542": 3752,
    "\u25810x40a544": 3753,
    "\u25810x42168c": 3754,
    "\u25810x1211e4c": 3755,
    "d85": 3756,
    "ups": 3757,
    "zone": 3758,
    "\u25810x40a546": 3759,
    "\u25810x41e93e": 3760,
    "\u25810x41ebfa": 3761,
    "\u25810x41ebfb": 3762,
    "\u25810x42168b": 3763,
    "1ac": 3764,
    "9c3": 3765,
    "oma": 3766,
    "\u25810x9a": 3767,
    "\u25810x4b7": 3768,
    "\u25810xfeee0070": 3769,
    "zoneinformation": 3770,
    "\u2581getwindowsdirectoryw": 3771,
    "\u2581gettimezoneinformation": 3772,
    "\u2581ts": 3773,
    "\u25810x47b1": 3774,
    "\u25810x3f5000": 3775,
    "1b0": 3776,
    "\u25810x7d99": 3777,
    "\u25810x7ee000": 3778,
    "\u25810xcf0000": 3779,
    "\u25810x7f8002": 3780,
    "\u2581lstrcmpi": 3781,
    "\u25810x40e7": 3782,
    "\u25810x4b40": 3783,
    "\u25810x4093e4": 3784,
    "\u25810x44e4b8": 3785,
    "\u25810xfeee0077": 3786,
    "1c6": 3787,
    "e69": 3788,
    "f90": 3789,
    "bitmap": 3790,
    "\u25810x8ad0": 3791,
    "1c7": 3792,
    "3cc": 3793,
    "\u25810x7f8010": 3794,
    "our": 3795,
    "\u25810x1b5": 3796,
    "\u2581getdrivetypea": 3797,
    "9920": 3798,
    "a41": 3799,
    "fig": 3800,
    "net": 3801,
    "50c0": 3802,
    "\u25810xfeee0079": 3803,
    "644": 3804,
    "cel": 3805,
    "d72": 3806,
    "vie": 3807,
    "\u25810xfeee006f": 3808,
    "\u2581om": 3809,
    "unlock": 3810,
    "\u25810xffab": 3811,
    "\u25810x422980": 3812,
    "\u25810xfeee0074": 3813,
    "784": 3814,
    "\u2581beg": 3815,
    "secor": 3816,
    "\u25810x600": 3817,
    "\u2581omsecor": 3818,
    "\u25810x4228e1": 3819,
    "\u25810x423cf0": 3820,
    "\u25810x1211e64": 3821,
    "\u25810x42286e": 3822,
    "\u25810x42286f": 3823,
    "\u25810x4228e2": 3824,
    "\u25810x422963": 3825,
    "\u25810x422964": 3826,
    "\u25810x42297f": 3827,
    "\u25810x4229c1": 3828,
    "\u25810x4229c2": 3829,
    "\u25810x4229fa": 3830,
    "\u25810x4229fb": 3831,
    "\u25810x422a0d": 3832,
    "\u25810x422a0e": 3833,
    "\u25810x42329e": 3834,
    "\u25810x42329f": 3835,
    "\u25810x4233fc": 3836,
    "\u25810x423cef": 3837,
    "145": 3838,
    "b94": 3839,
    "db5": 3840,
    "\u25810x40f5": 3841,
    "\u25810xfeee0071": 3842,
    "\u25810xfeee0078": 3843,
    "\u25810xfeee007b": 3844,
    "316": 3845,
    "indi": 3846,
    "\u25810xfeedf": 3847,
    "\u2581pleasec": 3848,
    "6c4": 3849,
    "ally": 3850,
    "\u2581ntm": 3851,
    "\u2581ntmarta": 3852,
    "\u25810xfeee0073": 3853,
    "\u25810xfeee007a": 3854,
    "3de": 3855,
    "a10": 3856,
    "\u25810xb7": 3857,
    "\u25810x4e300": 3858,
    "\u25810x40a92e": 3859,
    "\u25810x40a930": 3860,
    "\u25810x40a932": 3861,
    "\u25810x40a934": 3862,
    "\u25810x40a936": 3863,
    "\u25810x40a938": 3864,
    "\u25810x40a93a": 3865,
    "\u25810x429903": 3866,
    "\u2581internet": 3867,
    "\u25810x1211cb8": 3868,
    "\u25810xfeee0076": 3869,
    "b54": 3870,
    "veb": 3871,
    "\u25810x7da0": 3872,
    "\u25810x429902": 3873,
    "\u25810x42990c": 3874,
    "\u25810x42990d": 3875,
    "\u25810x429920": 3876,
    "\u25810x429921": 3877,
    "144": 3878,
    "\u25810x44c": 3879,
    "\u25810xfff3": 3880,
    "\u25810x1733c4": 3881,
    "\u25810x42992a": 3882,
    "\u25810x42992b": 3883,
    "550": 3884,
    "\u2581437": 3885,
    "vebeen": 3886,
    "\u25810x7ff": 3887,
    "already": 3888,
    "youreally": 3889,
    "7a8": 3890,
    "9b4": 3891,
    "122": 3892,
    "994": 3893,
    "f20": 3894,
    "fd4": 3895,
    "sid": 3896,
    "edp": 3897,
    "text": 3898,
    "d1b": 3899,
    "53a0": 3900,
    "\u2581verset": 3901,
    "\u25810x40f660": 3902,
    "conditionmask": 3903,
    "\u2581versetconditionmask": 3904,
    "\u2581releasesrwlockexclusive": 3905,
    "af4": 3906,
    "\u25810x1808": 3907,
    "eb0": 3908,
    "\u2581stem32": 3909,
    "\u25810x1211d50": 3910,
    "\u25810xfeee0075": 3911,
    "\u2581ie": 3912,
    "\u25810x7d98": 3913,
    "\u25810x12116c0": 3914,
    "\u25810x12118f8": 3915,
    "\u2581getcomputer": 3916,
    "\u2581getfileattributesa": 3917,
    "\u2581youmust": 3918,
    "ea20": 3919,
    "\u25810xffd8": 3920,
    "\u25810xfeee007c": 3921,
    "\u2581getmessagea": 3922,
    "sand": 3923,
    "\u2581this": 3924,
    "\u25810x3020302": 3925,
    "5ac": 3926,
    "\u2581op": 3927,
    "draw": 3928,
    "\u25817z6": 3929,
    "\u25817z72": 3930,
    "\u2581evie": 3931,
    "\u25810x508d0": 3932,
    "\u2581setendoffile": 3933,
    "oc": 3934,
    "f2c": 3935,
    "\u2581psc": 3936,
    "\u2581vie": 3937,
    "\u25810x87": 3938,
    "\u2581mail": 3939,
    "\u25810x509a8": 3940,
    "\u2581getfull": 3941,
    "\u2581regenum": 3942,
    "9a6": 3943,
    "\u25810x44d": 3944,
    "\u25810x478": 3945,
    "\u25810x44e9": 3946,
    "menuitem": 3947,
    "931": 3948,
    "ons": 3949,
    "\u25810x47ee": 3950,
    "\u25810xffac": 3951,
    "\u25810xffe9": 3952,
    "\u25810x169bc9c": 3953,
    "20c": 3954,
    "775": 3955,
    "\u2581registerclipboard": 3956,
    "pi": 3957,
    "\u2581getcursor": 3958,
    "\u25810xfeee007f": 3959,
    "b18": 3960,
    "fcc": 3961,
    "atom": 3962,
    "\u25810x1211edc": 3963,
    "d24": 3964,
    "fff0": 3965,
    "lower": 3966,
    "1e8": 3967,
    "e68": 3968,
    "df5": 3969,
    "acti": 3970,
    "\u25810x8815": 3971,
    "\u25810x120ee": 3972,
    "forcadwork": 3973,
    "\u2581fil": 3974,
    "\u25810x350": 3975,
    "5a0": 3976,
    "663": 3977,
    "a87": 3978,
    "\u25810x6b": 3979,
    "\u25810x7c000": 3980,
    "\u2581process32next": 3981,
    "5c0": 3982,
    "642": 3983,
    "a97": 3984,
    "eb4": 3985,
    "3c54": 3986,
    "\u2581runtime": 3987,
    "\u25810x40935c": 3988,
    "\u25810x4093ec": 3989,
    "35c": 3990,
    "f77": 3991,
    "pen": 3992,
    "\u25810x4420": 3993,
    "\u2581getthreaduilanguage": 3994,
    "\u2581getenvironmentstring": 3995,
    "ncy": 3996,
    "rip": 3997,
    "\u25810x3b7fb": 3998,
    "\u25810x1211fb8": 3999,
    "704": 4000,
    "f19": 4001,
    "ssp": 4002,
    "\u25810x4030": 4003,
    "\u25810x8554": 4004,
    "1d0": 4005,
    "fa2": 4006,
    "once": 4007,
    "\u25810xfeee007d": 4008,
    "\u25810xfeee007e": 4009,
    "\u25810xfeee0081": 4010,
    "\u25810xfeedf0": 4011,
    "bc4": 4012,
    "\u25810x4470": 4013,
    "\u25810x7d9c": 4014,
    "\u25810x7d9d": 4015,
    "\u2581regset": 4016,
    "cefreque": 4017,
    "cefrequency": 4018,
    "\u25810xfeee0080": 4019,
    "\u25810xfeee0082": 4020,
    "\u2581globalunlock": 4021,
    "\u2581queryperformancefrequency": 4022,
    "lt": 4023,
    "\u2581createmut": 4024,
    "\u2581movefilew": 4025,
    "b28": 4026,
    "gine": 4027,
    "\u2581884": 4028,
    "\u25810xfff4": 4029,
    "2ed": 4030,
    "5b2": 4031,
    "5f8": 4032,
    "fc8": 4033,
    "ways": 4034,
    "\u25810x1210f64": 4035,
    "\u25810xfeee0083": 4036,
    "ldrl66": 4037,
    "formatw": 4038,
    "\u2581getoem": 4039,
    "\u2581getexit": 4040,
    "\u2581tsldrl66": 4041,
    "\u25810x1211eac": 4042,
    "\u25810x1211f4c": 4043,
    "a64": 4044,
    "beb": 4045,
    "\u25810x1211ddc": 4046,
    "\u25810xfeee0086": 4047,
    "\u2581setthreadlocale": 4048,
    "b70": 4049,
    "scrip": 4050,
    "354": 4051,
    "901": 4052,
    "d7c": 4053,
    "\u2581getoemcp": 4054,
    "\u2581getenvironmentstrings": 4055,
    "\u25810x4210": 4056,
    "\u25810x4603": 4057,
    "2c0": 4058,
    "f60": 4059,
    "\u25810xfeee0084": 4060,
    "\u25810x40d": 4061,
    "\u25810x13fff0": 4062,
    "2c2": 4063,
    "aa4": 4064,
    "3ff": 4065,
    "\u2581qa": 4066,
    "\u25810x6ce": 4067,
    "windowproc": 4068,
    "\u25810xfeee0085": 4069,
    "bk": 4070,
    "14c": 4071,
    "7e8": 4072,
    "7675": 4073,
    "\u25810x22e": 4074,
    "\u25810x754": 4075,
    "4444": 4076,
    "\u25810x402": 4077,
    "\u25810x4012db": 4078,
    "db8": 4079,
    "buff": 4080,
    "f7a8": 4081,
    "\u25810xbb": 4082,
    "\u2581createw": 4083,
    "\u25810x1211e40": 4084,
    "\u25810xfeee0089": 4085,
    "\u25810x4020": 4086,
    "\u25810xfeee008c": 4087,
    "374": 4088,
    "\u25810xfeee008b": 4089,
    "a69": 4090,
    "b68": 4091,
    "\u25810x1fa": 4092,
    "destroy": 4093,
    "\u25810x7da1": 4094,
    "314": 4095,
    "528": 4096,
    "\u2581wm": 4097,
    "\u25810xb4": 4098,
    "\u25810x41f6": 4099,
    "378": 4100,
    "rame": 4101,
    "\u25810x7c000000": 4102,
    "\u25810xfeee008a": 4103,
    "ab7": 4104,
    "fd8": 4105,
    "\u2581trans": 4106,
    "\u25810x4300": 4107,
    "\u25810xffd0": 4108,
    "da9": 4109,
    "dc7": 4110,
    "f35": 4111,
    "blead": 4112,
    "\u2581ismb": 4113,
    "\u2581ismbblead": 4114,
    "log": 4115,
    "tob": 4116,
    "client": 4117,
    "\u25810xfeee008e": 4118,
    "\u25810xfffffffe": 4119,
    "\u2581getuserdefaultlocalename": 4120,
    "\u2581tx": 4121,
    "\u25810x411b": 4122,
    "\u25810x79a0": 4123,
    "tan": 4124,
    "\u25810x1b2": 4125,
    "\u25810x2439": 4126,
    "\u2581application": 4127,
    "9c7": 4128,
    "e6d": 4129,
    "\u25810xbf": 4130,
    "\u25810xffdc": 4131,
    "\u25810x1211788": 4132,
    "586": 4133,
    "d34": 4134,
    "228": 4135,
    "sex": 4136,
    "e000": 4137,
    "\u2581cqa": 4138,
    "f8000": 4139,
    "\u2581scqa": 4140,
    "\u2581pscqa": 4141,
    "\u25810x100fd": 4142,
    "\u25813d": 4143,
    "\u25810x572": 4144,
    "\u2581getdateformatex": 4145,
    "152": 4146,
    "692": 4147,
    "758": 4148,
    "7c6": 4149,
    "ae8": 4150,
    "b97": 4151,
    "\u25810x7bc": 4152,
    "\u25810xfeee008d": 4153,
    "\u2581gettimeformatex": 4154,
    "\u2581isvalidlocalename": 4155,
    "\u2581enumsystemlocalesex": 4156,
    "f49": 4157,
    "fox": 4158,
    "ction": 4159,
    "\u25810x1211e90": 4160,
    "aler": 4161,
    "drivestring": 4162,
    "\u2581getlogicaldrivestring": 4163,
    "\u25810x10005c": 4164,
    "ae2": 4165,
    "\u25810x4e39": 4166,
    "\u2581program": 4167,
    "\u25810x442806": 4168,
    "270": 4169,
    "741": 4170,
    "\u25810x415c": 4171,
    "\u25810x409364": 4172,
    "9b6": 4173,
    "9c8": 4174,
    "\u25810x4041": 4175,
    "\u25810x442808": 4176,
    "onsolew": 4177,
    "\u25810x44280a": 4178,
    "\u25810x44280c": 4179,
    "\u25810x44280e": 4180,
    "\u25810x442810": 4181,
    "\u25810x442812": 4182,
    "\u25810x442814": 4183,
    "\u25810x442816": 4184,
    "\u25810x442818": 4185,
    "\u25810x44281a": 4186,
    "\u25810x44281c": 4187,
    "\u25810x44281e": 4188,
    "\u25810x12119a0": 4189,
    "242": 4190,
    "244": 4191,
    "e42": 4192,
    "386": 4193,
    "7c5": 4194,
    "dc4": 4195,
    "7c58": 4196,
    "fa000": 4197,
    "dfc": 4198,
    "\u25810x41c4": 4199,
    "\u25810xffdd": 4200,
    "\u25810x454bb8": 4201,
    "\u25810x1211f40": 4202,
    "\u25810x1211f5c": 4203,
    "l6660d": 4204,
    "\u25810xcccc": 4205,
    "\u25810x1211808": 4206,
    "\u2581charlower": 4207,
    "b80": 4208,
    "\u25810xfeee008f": 4209,
    "\u2581comparestringw": 4210,
    "fbc": 4211,
    "\u2581ro": 4212,
    "\u25810x12117f4": 4213,
    "934": 4214,
    "96d": 4215,
    "b61": 4216,
    "66d": 4217,
    "\u2581new": 4218,
    "\u25810x604": 4219,
    "\u2581pleas": 4220,
    "\u25810x40d8": 4221,
    "\u2581userprofil": 4222,
    "\u2581def": 4223,
    "foxpro": 4224,
    "\u25810x3f9": 4225,
    "\u2581client": 4226,
    "\u2581tlsfree": 4227,
    "ualfoxpro": 4228,
    "\u25810x7bc00000": 4229,
    "69c": 4230,
    "cod": 4231,
    "\u25810x1075": 4232,
    "ecd": 4233,
    "descrip": 4234,
    "\u25810xfeee0090": 4235,
    "\u25810x40a6": 4236,
    "\u2581getcurrentdirectoryw": 4237,
    "\u25810xffea": 4238,
    "drl6660drl6660drl6660drl6660drl6660": 4239,
    "d46": 4240,
    "d55": 4241,
    "ee2": 4242,
    "ils": 4243,
    "\u25810xfeee0094": 4244,
    "\u2581getmodulehandl": 4245,
    "40284": 4246,
    "\u25810x6e": 4247,
    "\u25810x160": 4248,
    "\u25810x2840284": 4249,
    "\u2581gettempfilena": 4250,
    "dd4": 4251,
    "a4c4": 4252,
    "\u2581shellexecutew": 4253,
    "3e0": 4254,
    "d10": 4255,
    "b4a4": 4256,
    "f062": 4257,
    "start": 4258,
    "e1d4": 4259,
    "\u2581isvalidlocale": 4260,
    "a78": 4261,
    "blt": 4262,
    "ef4": 4263,
    "\u25810x10b": 4264,
    "\u25810x6f6": 4265,
    "\u25810x3820": 4266,
    "\u2581registerwindowmessagew": 4267,
    "fed": 4268,
    "find": 4269,
    "\u25810x78f0": 4270,
    "\u25810x6ce0000": 4271,
    "\u25810xfeee017": 4272,
    "\u2581conver": 4273,
    "123": 4274,
    "3b8": 4275,
    "par": 4276,
    "reg": 4277,
    "f4e4": 4278,
    "\u25810x1211e1c": 4279,
    "304": 4280,
    "99b9": 4281,
    "section": 4282,
    "\u25810x7da4": 4283,
    "\u25810xffeb": 4284,
    "3f4": 4285,
    "9c9": 4286,
    "\u2581ws2": 4287,
    "proced": 4288,
    "\u25810x4528": 4289,
    "\u2581createprocess": 4290,
    "10d": 4291,
    "e6c": 4292,
    "eec": 4293,
    "\u2581updat": 4294,
    "\u25810x4b00": 4295,
    "\u25810x4e80": 4296,
    "\u25810x80e0": 4297,
    "5f0": 4298,
    "7ac": 4299,
    "f1d": 4300,
    "1514": 4301,
    "68c8": 4302,
    "wow64": 4303,
    "\u2581execute": 4304,
    "\u2581registerwindowmessagea": 4305,
    "11c": 4306,
    "6b2": 4307,
    "7f4": 4308,
    "e90": 4309,
    "e94": 4310,
    "anag": 4311,
    "onceex": 4312,
    "\u25810x428": 4313,
    "ecuteonce": 4314,
    "\u2581initonceex": 4315,
    "\u2581initonceexecuteonce": 4316,
    "750": 4317,
    "\u25810x7f7": 4318,
    "\u2581files": 4319,
    "\u25810x491994": 4320,
    "\u25810x12117c8": 4321,
    "d60": 4322,
    "\u25810xea": 4323,
    "\u25810x4196": 4324,
    "\u25810x42eb": 4325,
    "\u25810x47d0": 4326,
    "\u25810x1211938": 4327,
    "\u2581getenvironmentvariablew": 4328,
    "974": 4329,
    "fb0": 4330,
    "\u25810x3810": 4331,
    "software": 4332,
    "7a0": 4333,
    "9d8": 4334,
    "\u25810x205": 4335,
    "2f8": 4336,
    "cor": 4337,
    "gex": 4338,
    "block": 4339,
    "\u25810xffc1": 4340,
    "\u25810x1211e98": 4341,
    "\u25810x1211f44": 4342,
    "7e0": 4343,
    "a07": 4344,
    "\u2581registerclipboardformata": 4345,
    "ible": 4346,
    "medi": 4347,
    "\u25810x2280": 4348,
    "114": 4349,
    "7de": 4350,
    "ated": 4351,
    "\u25810x9e": 4352,
    "3f0": 4353,
    "adc": 4354,
    "dc2": 4355,
    "pla": 4356,
    "init": 4357,
    "lcid": 4358,
    "\u25810x4093a5": 4359,
    "\u25810x4093a6": 4360,
    "\u25810x4093a7": 4361,
    "\u25810x4093a8": 4362,
    "\u25810x4093a9": 4363,
    "\u25810x4093aa": 4364,
    "\u25810x4093ab": 4365,
    "\u25810x41de00": 4366,
    "\u25810x1211768": 4367,
    "7d8": 4368,
    "thi": 4369,
    "\u25810x4c0": 4370,
    "\u25810x3001": 4371,
    "\u25810x1211e58": 4372,
    "\u25810x1211fa0": 4373,
    "368": 4374,
    "lack": 4375,
    "\u25810x411c": 4376,
    "7ce": 4377,
    "\u2581exp": 4378,
    "\u2581flushfile": 4379,
    "666": 4380,
    "790": 4381,
    "othe": 4382,
    "\u2581ftp": 4383,
    "driver": 4384,
    "\u25810x7500": 4385,
    "as": 4386,
    "334": 4387,
    "9d6": 4388,
    "9e4": 4389,
    "pdf": 4390,
    "\u25810x443": 4391,
    "session": 4392,
    "privileg": 4393,
    "322": 4394,
    "3ac": 4395,
    "trac": 4396,
    "\u25810x461548": 4397,
    "\u25810x1210bd7": 4398,
    "9bc": 4399,
    "\u25810x1211e0c": 4400,
    "\u2581directory": 4401,
    "yourcomputer": 4402,
    "\u2581getprivateprofilestringa": 4403,
    "f76": 4404,
    "rey": 4405,
    "days": 4406,
    "edby": 4407,
    "edco": 4408,
    "\u2581try": 4409,
    "eyour": 4410,
    "thiss": 4411,
    "dealer": 4412,
    "mediat": 4413,
    "\u25811days": 4414,
    "buffers": 4415,
    "\u25810x4066": 4416,
    "\u2581border": 4417,
    "havebeen": 4418,
    "\u2581backgro": 4419,
    "\u2581gdiplus": 4420,
    "allcadwork": 4421,
    "\u25810x3010301": 4422,
    "\u25810x10000000": 4423,
    "\u2581doyoureally": 4424,
    "\u2581intermediat": 4425,
    "pp": 4426,
    "5c6": 4427,
    "743": 4428,
    "\u25810xde": 4429,
    "\u25810x88c0": 4430,
    "\u2581flushfilebuffers": 4431,
    "\u25810x492": 4432,
    "\u25810x8280": 4433,
    "valueexw": 4434,
    "1a4": 4435,
    "d41": 4436,
    "wer": 4437,
    "a000": 4438,
    "\u25810x188": 4439,
    "238": 4440,
    "936": 4441,
    "bd6": 4442,
    "ens": 4443,
    "\u25810x5e": 4444,
    "\u25810x40c4": 4445,
    "\u2581environ": 4446,
    "\u2581messageboxw": 4447,
    "\u2581getmodulehandleexw": 4448,
    "\u2581getfileinformationbyhandleex": 4449,
    "b58": 4450,
    "\u2581ric": 4451,
    "\u25810xffd4": 4452,
    "lot": 4453,
    "uld": 4454,
    "\u2581txt": 4455,
    "\u2581setenvironmentvariablew": 4456,
    "760": 4457,
    "\u25810xffc0": 4458,
    "\u2581riched": 4459,
    "9a4": 4460,
    "69c0": 4461,
    "\u25810x7b7": 4462,
    "\u25810x42a190": 4463,
    "bd8": 4464,
    "ce5": 4465,
    "ension": 4466,
    "\u25810x1211180": 4467,
    "ows": 4468,
    "\u25810x130": 4469,
    "\u25810x7db0": 4470,
    "\u25810x1211d60": 4471,
    "difi": 4472,
    "nect": 4473,
    "f38": 4474,
    "ings": 4475,
    "\u25810x8e90": 4476,
    "\u25810x42a403": 4477,
    "\u25810x42a404": 4478,
    "\u25810x42a405": 4479,
    "\u25810x42a406": 4480,
    "\u25810x42a407": 4481,
    "\u25810x42a408": 4482,
    "\u25810x42a409": 4483,
    "\u25810x42a40a": 4484,
    "\u25810x42a40b": 4485,
    "\u25810x42a40c": 4486,
    "\u25810x42a40d": 4487,
    "\u25810x42a40e": 4488,
    "\u25810x42a40f": 4489,
    "\u25810x1211d3c": 4490,
    "269": 4491,
    "9e0": 4492,
    "isplay": 4493,
    "\u25810xba8": 4494,
    "\u25810x40a40": 4495,
    "\u25810xfeedf000": 4496,
    "3c2": 4497,
    "bc1": 4498,
    "\u25810x7da5": 4499,
    "b87": 4500,
    "20c0": 4501,
    "isea": 4502,
    "prec": 4503,
    "767574": 4504,
    "\u25810x28c": 4505,
    "\u25810x4e5c": 4506,
    "licences": 4507,
    "precisea": 4508,
    "\u25810x77767574": 4509,
    "\u2581getsystemtimeprecisea": 4510,
    "7d6": 4511,
    "d06": 4512,
    "\u25810x7230": 4513,
    "\u25810xffd5": 4514,
    "b7c": 4515,
    "\u25810x4164": 4516,
    "\u25810x2000000": 4517,
    "910": 4518,
    "edcc": 4519,
    "\u25810x8028": 4520,
    "\u25810x4cb00": 4521,
    "\u2581getsystemtimepreciseasfiletime": 4522,
    "eta": 4523,
    "a7978": 4524,
    "\u25810x452": 4525,
    "\u25810x700": 4526,
    "\u25810x4153a0": 4527,
    "\u25810x1211e80": 4528,
    "securitydescrip": 4529,
    "943": 4530,
    "9b0": 4531,
    "df8": 4532,
    "\u2581if": 4533,
    "3626": 4534,
    "6564": 4535,
    "\u25810x53e4": 4536,
    "\u25810x7100": 4537,
    "\u25810x7b7a7978": 4538,
    "63c": 4539,
    "sum": 4540,
    "7170": 4541,
    "\u2581strlen": 4542,
    "484": 4543,
    "\u2581dx": 4544,
    "\u25810x9d": 4545,
    "vironmentstringsa": 4546,
    "404": 4547,
    "srw": 4548,
    "config": 4549,
    "proces": 4550,
    "\u25810x44ea20": 4551,
    "conditionvariablesrw": 4552,
    "\u2581sleepconditionvariablesrw": 4553,
    "40f": 4554,
    "\u25810xf1": 4555,
    "eexist": 4556,
    "\u2581fileexist": 4557,
    "363": 4558,
    "407": 4559,
    "aec": 4560,
    "e74": 4561,
    "fd0": 4562,
    "orgex": 4563,
    "relea": 4564,
    "register": 4565,
    "\u25810x4540e0": 4566,
    "dlg": 4567,
    "utili": 4568,
    "3727170": 4569,
    "\u25810x73727170": 4570,
    "securitydescriptor": 4571,
    "580": 4572,
    "dd2": 4573,
    "\u25810x6766": 4574,
    "\u25810x6f00": 4575,
    "processt": 4576,
    "\u25810xfeee0097": 4577,
    "processmemory": 4578,
    "318": 4579,
    "747": 4580,
    "96e": 4581,
    "has": 4582,
    "\u25810x44e": 4583,
    "idto": 4584,
    "3626160": 4585,
    "\u25810x63626160": 4586,
    "\u25810x67666564": 4587,
    "88d": 4588,
    "9e5": 4589,
    "ad2": 4590,
    "e89": 4591,
    "f04": 4592,
    "word": 4593,
    "\u2581findwindoww": 4594,
    "\u25810x6b6": 4595,
    "\u25810xffc4": 4596,
    "\u25810xfeee0091": 4597,
    "\u2581createsemaphorew": 4598,
    "a6968": 4599,
    "\u25810x6b6a6968": 4600,
    "\u2581defwindowproc": 4601,
    "282": 4602,
    "\u2581x0": 4603,
    "\u25810x6900": 4604,
    "\u25810x1211e8c": 4605,
    "e2c": 4606,
    "rea": 4607,
    "\u25810xdb": 4608,
    "\u25810x3bc": 4609,
    "\u25810xfeee0093": 4610,
    "ansi": 4611,
    "\u25810xfeee0092": 4612,
    "\u25810x417": 4613,
    "\u25810x40a4": 4614,
    "\u25810x4445": 4615,
    "\u25810x7e80": 4616,
    "\u25810xfeee0098": 4617,
    "3a0": 4618,
    "918": 4619,
    "etw": 4620,
    "3e3d": 4621,
    "d006c": 4622,
    "e6d6c": 4623,
    "\u25810xdc": 4624,
    "\u25810x6d006c": 4625,
    "\u25810x6f006e": 4626,
    "\u25810x710070": 4627,
    "\u25810x770076": 4628,
    "\u25810x790078": 4629,
    "\u25810x1211f54": 4630,
    "\u25810x6f6e6d6c": 4631,
    "32a": 4632,
    "b90": 4633,
    "efd": 4634,
    "\u2581wi": 4635,
    "\u2581cau": 4636,
    "b006a": 4637,
    "\u2581caution": 4638,
    "\u25810x690068": 4639,
    "\u25810x6b006a": 4640,
    "\u25810x730072": 4641,
    "\u25810x750074": 4642,
    "\u25810x7b007a": 4643,
    "\u25810x7d007c": 4644,
    "\u25810x7f007e": 4645,
    "560": 4646,
    "aad": 4647,
    "fc1": 4648,
    "\u2581regqueryvalueexa": 4649,
    "7c7": 4650,
    "\u25810xffda": 4651,
    "738": 4652,
    "d44": 4653,
    "e7d7c": 4654,
    "\u25810x6a": 4655,
    "\u25810x7f7e7d7c": 4656,
    "\u25810xfeee0095": 4657,
    "f668": 4658,
    "\u25810x40e4": 4659,
    "versioninfow": 4660,
    "\u2581heapdestroy": 4661,
    "3e7": 4662,
    "436": 4663,
    "7c1": 4664,
    "a71": 4665,
    "\u25810xb1": 4666,
    "onsolec": 4667,
    "\u25810x70a8": 4668,
    "\u25810xfeee0099": 4669,
    "kg": 4670,
    "006": 4671,
    "a20": 4672,
    "bb8": 4673,
    "bff": 4674,
    "c89": 4675,
    "d12": 4676,
    "\u2581for": 4677,
    "\u2581begin": 4678,
    "\u25810x1211ef0": 4679,
    "75a": 4680,
    "ify": 4681,
    "\u25810x4ab": 4682,
    "\u25810x4a40": 4683,
    "\u2581iswow64": 4684,
    "\u2581openprocess": 4685,
    "\u2581iswow64process": 4686,
    "9ee": 4687,
    "bf4": 4688,
    "apis": 4689,
    "\u2581post": 4690,
    "\u25810x7a4": 4691,
    "\u25810x8410": 4692,
    "apisansi": 4693,
    "\u2581arefile": 4694,
    "\u25810xfeee0096": 4695,
    "\u2581fileexistsw": 4696,
    "\u2581arefileapisansi": 4697,
    "dc1": 4698,
    "enh": 4699,
    "\u2581verify": 4700,
    "\u25810x40a3d1": 4701,
    "\u25810x40a3d2": 4702,
    "\u25810x40a3d3": 4703,
    "\u25810x448ad0": 4704,
    "ff40": 4705,
    "\u25810xba": 4706,
    "fx": 4707,
    "3ad": 4708,
    "\u25810xb5": 4709,
    "\u25810x407b": 4710,
    "\u25810xffee": 4711,
    "\u25810x47ee08": 4712,
    "\u2581synchron": 4713,
    "\u25810xfeee009a": 4714,
    "154": 4715,
    "chr": 4716,
    "962": 4717,
    "ecode": 4718,
    "\u25810x41c": 4719,
    "\u25810x4d80": 4720,
    "\u2581failedto": 4721,
    "\u25810x1211ed4": 4722,
    "networklicence": 4723,
    "\u2581getlogicaldrivestringsa": 4724,
    "a33": 4725,
    "f50": 4726,
    "f5c": 4727,
    "fb4": 4728,
    "\u25810x500": 4729,
    "\u25810x1211518": 4730,
    "605": 4731,
    "7c8": 4732,
    "a30": 4733,
    "dfa": 4734,
    "972c": 4735,
    "b47c": 4736,
    "etween": 4737,
    "valuew": 4738,
    "virtual": 4739,
    "\u25810x7da8": 4740,
    "\u25810x181bc0": 4741,
    "\u25810x1211f14": 4742,
    "\u2581charpreva": 4743,
    "2b0": 4744,
    "f17": 4745,
    "class": 4746,
    "\u25810x406c": 4747,
    "\u25810x4a80": 4748,
    "\u2581atexit": 4749,
    "ataddress": 4750,
    "\u25810x4033e6": 4751,
    "ry": 4752,
    "5f6": 4753,
    "dd8": 4754,
    "5678": 4755,
    "this": 4756,
    "scroll": 4757,
    "\u25810x1211f6c": 4758,
    "installation": 4759,
    "\u2581accessviolationataddress": 4760,
    "171": 4761,
    "7b0": 4762,
    "993": 4763,
    "aa8": 4764,
    "b880": 4765,
    "\u25810xe2": 4766,
    "\u2581date": 4767,
    "\u25810x40c7": 4768,
    "\u2581shgetfileinfoa": 4769,
    "745": 4770,
    "a32": 4771,
    "texta": 4772,
    "\u2581sldrl6660drl6660drl6660drl6660drl6660drl6660drl6660drl6660": 4773,
    "fd1": 4774,
    "\u2581strcpyw": 4775,
    "401": 4776,
    "mple": 4777,
    "remo": 4778,
    "\u25810x120faa8": 4779,
    "ae1": 4780,
    "daa": 4781,
    "f98": 4782,
    "\u258133": 4783,
    "\u2581getlogicalprocessor": 4784,
    "23d": 4785,
    "ab0": 4786,
    "\u25810x8330": 4787,
    "\u25810x40a3d4": 4788,
    "\u25810x593748": 4789,
    "3ed": 4790,
    "774": 4791,
    "ceb": 4792,
    "\u25810x2b2": 4793,
    "\u25810x42e": 4794,
    "\u25810x522": 4795,
    "\u25810x457c": 4796,
    "\u25810x4770": 4797,
    "\u25810x7a10": 4798,
    "964": 4799,
    "ongles": 4800,
    "\u25810x49c8": 4801,
    "\u2581unlock": 4802,
    "sessionid": 4803,
    "84f": 4804,
    "b75": 4805,
    "d14": 4806,
    "vec": 4807,
    "ecomp": 4808,
    "frame": 4809,
    "\u25810x9c8": 4810,
    "\u25810x40e500": 4811,
    "\u2581createmutexa": 4812,
    "\u2581ext": 4813,
    "\u25810xb2": 4814,
    "\u25810x4285": 4815,
    "\u2581wtsapi32": 4816,
    "\u25810xfeee009b": 4817,
    "\u2581getlogicalprocessorinformation": 4818,
    "a9c": 4819,
    "lat": 4820,
    "\u2581sr": 4821,
    "52e8": 4822,
    "\u25810x210": 4823,
    "\u25810x5b2": 4824,
    "\u25810x7ba": 4825,
    "\u2581winht": 4826,
    "\u25810x43b4": 4827,
    "\u25810x8340": 4828,
    "\u25810x7ba00000": 4829,
    "294": 4830,
    "fc5": 4831,
    "\u25810xeb": 4832,
    "\u25810x4ac": 4833,
    "\u25810x409ab4": 4834,
    "\u25810x409ab5": 4835,
    "448": 4836,
    "d26": 4837,
    "\u25810x42ec": 4838,
    "\u25810x4af460": 4839,
    "\u25810x1211a4c": 4840,
    "bd2": 4841,
    "dc8": 4842,
    "ipe": 4843,
    "\u25810mb": 4844,
    "\u25810x5b5": 4845,
    "\u25810x40b5": 4846,
    "\u25810x40300": 4847,
    "\u25810x1211ed8": 4848,
    "\u2581findnextfilew": 4849,
    "\u2581mapviewoffile": 4850,
    "c018": 4851,
    "\u25810x415": 4852,
    "\u25810xfeee009c": 4853,
    "localfiletime": 4854,
    "\u2581filetimetolocalfiletime": 4855,
    "514": 4856,
    "e0b": 4857,
    "f084": 4858,
    "enter": 4859,
    "stack": 4860,
    "\u2581createwindowexw": 4861,
    "002a": 4862,
    "0048": 4863,
    "d310": 4864,
    "f6fc": 4865,
    "\u25810x208": 4866,
    "\u25810x40e": 4867,
    "\u25810x40a0": 4868,
    "24c": 4869,
    "ff4": 4870,
    "\u2581always": 4871,
    "trlhandler": 4872,
    "582": 4873,
    "\u2581vfp": 4874,
    "\u25810xe1": 4875,
    "\u2581exit": 4876,
    "\u25810x232": 4877,
    "ensions": 4878,
    "3c5": 4879,
    "utt": 4880,
    "2c8c": 4881,
    "\u25810xffad": 4882,
    "\u25810x40a3d5": 4883,
    "\u25810x40a3d6": 4884,
    "\u25810x40a3d7": 4885,
    "b7f": 4886,
    "bab": 4887,
    "uth": 4888,
    "\u2581resum": 4889,
    "\u2581resumethread": 4890,
    "115": 4891,
    "6b61": 4892,
    "d1e5": 4893,
    "guar": 4894,
    "antee": 4895,
    "\u25810x4c42": 4896,
    "guarantee": 4897,
    "stackguarantee": 4898,
    "\u2581setthreadstackguarantee": 4899,
    "765": 4900,
    "\u25810x1210f8c": 4901,
    "126": 4902,
    "542": 4903,
    "3030": 4904,
    "5150": 4905,
    "\u25810x7ce0": 4906,
    "\u2581getthreadpriority": 4907,
    "1f0": 4908,
    "90e": 4909,
    "923": 4910,
    "ba6": 4911,
    "\u25810x46b": 4912,
    "\u25810x406698": 4913,
    "\u2581lstrcmpia": 4914,
    "3e4": 4915,
    "93d": 4916,
    "94a8": 4917,
    "\u25810xfeee009d": 4918,
    "a8c": 4919,
    "orary": 4920,
    "\u25810x4c50c0": 4921,
    "\u25810x7eab78": 4922,
    "972": 4923,
    "d9c": 4924,
    "fb000": 4925,
    "\u25810x584": 4926,
    "\u25810x100b": 4927,
    "\u25810x84b0": 4928,
    "\u2581service": 4929,
    "6c0": 4930,
    "b78": 4931,
    "oken": 4932,
    "pass": 4933,
    "a1c": 4934,
    "\u25817z2": 4935,
    "\u25817z8": 4936,
    "\u25817z30": 4937,
    "processtoken": 4938,
    "\u2581openprocesstoken": 4939,
    "0x": 4940,
    "vb": 4941,
    "6e5": 4942,
    "b7e": 4943,
    "f14": 4944,
    "0012": 4945,
    "ablet": 4946,
    "\u25810xae": 4947,
    "\u25810x41d": 4948,
    "\u25810xffdb": 4949,
    "\u2581error0x": 4950,
    "\u25810x1210f80": 4951,
    "\u25810xe7": 4952,
    "\u2581tryac": 4953,
    "\u25810x44ed": 4954,
    "\u25810x4a20": 4955,
    "\u25810x7da9": 4956,
    "\u25810x40619": 4957,
    "systemtime": 4958,
    "\u2581tryacquiresrwlockexclusive": 4959,
    "1e2": 4960,
    "e9b": 4961,
    "14c8": 4962,
    "f200": 4963,
    "366": 4964,
    "b820": 4965,
    "yourpc": 4966,
    "\u25810x437038": 4967,
    "visualfoxpro": 4968,
    "\u2581initializesrwlock": 4969,
    "1b2": 4970,
    "bfc": 4971,
    "f39": 4972,
    "\u25810x43c": 4973,
    "\u25810x4106": 4974,
    "\u25810x4540b0": 4975,
    "c85": 4976,
    "ontext": 4977,
    "\u2581setst": 4978,
    "\u25810xfeee009e": 4979,
    "\u2581localrealloc": 4980,
    "ebc": 4981,
    "\u2581sp": 4982,
    "\u25810xfe": 4983,
    "\u25810x7b80": 4984,
    "\u25810x169be": 4985,
    "\u25810x4af478": 4986,
    "111": 4987,
    "6e8": 4988,
    "d80": 4989,
    "drag": 4990,
    "\u25810x4e2": 4991,
    "\u25810x43a4c8": 4992,
    "402": 4993,
    "a06": 4994,
    "bkcolor": 4995,
    "\u25810x4b80": 4996,
    "\u25810x8310": 4997,
    "\u25810xfffffffc": 4998,
    "\u2581setstdhandle": 4999,
    "14d": 5000,
    "3b0": 5001,
    "bac": 5002,
    "fae": 5003,
    "e7ec": 5004,
    "ffa0": 5005,
    "\u25810x437800": 5006,
    "\u25810x1211d8c": 5007,
    "325": 5008,
    "350": 5009,
    "a18": 5010,
    "ba0": 5011,
    "\u2581all": 5012,
    "\u25810x6978": 5013,
    "\u25810x1211ef4": 5014,
    "9ce": 5015,
    "f7c": 5016,
    "copy": 5017,
    "imag": 5018,
    "\u25810x4609": 5019,
    "\u25810x181c10": 5020,
    "28d": 5021,
    "9b8": 5022,
    "\u25810x455438": 5023,
    "afc": 5024,
    "b91": 5025,
    "ce6": 5026,
    "e054": 5027,
    "fault": 5028,
    "\u25810xa26": 5029,
    "\u25810x1104": 5030,
    "\u25810x181be8": 5031,
    "\u2581mapvirtual": 5032,
    "\u2581verifyversioninfow": 5033,
    "1c2": 5034,
    "74f7": 5035,
    "bcd4": 5036,
    "imer": 5037,
    "\u2581sub": 5038,
    "\u2581default": 5039,
    "\u2581wakeconditionvariable": 5040,
    "5f7": 5041,
    "pop": 5042,
    "d678": 5043,
    "lotter": 5044,
    "\u25810x1d4": 5045,
    "\u25810x6500": 5046,
    "\u25810x7d27": 5047,
    "\u25810x181c38": 5048,
    "\u25810xfeee009f": 5049,
    "906": 5050,
    "bf6": 5051,
    "pkg": 5052,
    "3f00": 5053,
    "\u2581deleteob": 5054,
    "40d": 5055,
    "66a": 5056,
    "954": 5057,
    "b26": 5058,
    "\u2581ti": 5059,
    "0066": 5060,
    "10060": 5061,
    "\u25810xd2": 5062,
    "ableto": 5063,
    "\u25810x1211d7c": 5064,
    "\u2581writeprivateprofile": 5065,
    "30062": 5066,
    "\u2581subm": 5067,
    "\u25810x474": 5068,
    "\u25810x409e": 5069,
    "\u25810x40ca": 5070,
    "poolwork": 5071,
    "writeptr": 5072,
    "\u25810x435024": 5073,
    "\u25810x630062": 5074,
    "\u25810x650064": 5075,
    "\u25810x670066": 5076,
    "\u2581submitthread": 5077,
    "\u2581isbadwriteptr": 5078,
    "\u2581closethreadpoolwork": 5079,
    "\u2581createthreadpoolwork": 5080,
    "\u2581submitthreadpoolwork": 5081,
    "\u2581setfileinformationbyhandle": 5082,
    "75c": 5083,
    "etup": 5084,
    "etails": 5085,
    "\u25810x50e10": 5086,
    "\u25810x435026": 5087,
    "\u25810x435032": 5088,
    "\u25810x610060": 5089,
    "5d0": 5090,
    "b43": 5091,
    "e38": 5092,
    "24ac": 5093,
    "3915": 5094,
    "\u2581writ": 5095,
    "\u25810x7e0": 5096,
    "\u25810x417c": 5097,
    "\u25810x6ab8": 5098,
    "\u2581screen": 5099,
    "\u25810x12119f0": 5100,
    "\u25810x1211eb4": 5101,
    "xf": 5102,
    "685": 5103,
    "920": 5104,
    "\u25810x7e4": 5105,
    "\u2581writec": 5106,
    "285c": 5107,
    "hell": 5108,
    "follow": 5109,
    "\u25810x7730": 5110,
    "following": 5111,
    "hoo": 5112,
    "zip": 5113,
    "\u2581choo": 5114,
    "\u25810x42ed": 5115,
    "\u25810xfeee00a1": 5116,
    "a65": 5117,
    "1cad": 5118,
    "9228": 5119,
    "\u2581cod": 5120,
    "\u25810x1211ad4": 5121,
    "\u25810x5265c28": 5122,
    "\u25810xfeee00a0": 5123,
    "\u25810xfeee00a2": 5124,
    "2e4": 5125,
    "12b8": 5126,
    "\u25810xaf": 5127,
    "\u25810xd1": 5128,
    "\u25810x7d20": 5129,
    "\u25810x1211ba4": 5130,
    "\u2581thisprogram": 5131,
    "3e2": 5132,
    "sin": 5133,
    "wil": 5134,
    "\u2581fre": 5135,
    "updated": 5136,
    "\u25810x40e9": 5137,
    "\u25810x4140": 5138,
    "\u25810x99a0": 5139,
    "\u25810x100098": 5140,
    "\u25810x461500": 5141,
    "\u2581filetimetosystemtime": 5142,
    "74f": 5143,
    "982": 5144,
    "now": 5145,
    "web": 5146,
    "9fa2": 5147,
    "node": 5148,
    "\u2581vfp6": 5149,
    "\u25810x40a5bc": 5150,
    "\u2581getstringt": 5151,
    "\u2581getcursorpos": 5152,
    "\u2581installation": 5153,
    "\u2581getuserdefaultlcid": 5154,
    "2c82": 5155,
    "7a00": 5156,
    "keya": 5157,
    "remov": 5158,
    "\u25810xdf": 5159,
    "\u25810xec": 5160,
    "before": 5161,
    "\u25810x2f2": 5162,
    "\u25810x4cf": 5163,
    "\u2581users": 5164,
    "dd0": 5165,
    "fax": 5166,
    "30ec": 5167,
    "febc": 5168,
    "pire": 5169,
    "advis": 5170,
    "\u2581demo": 5171,
    "\u25810x45b1": 5172,
    "beforeyo": 5173,
    "\u25810x10021": 5174,
    "\u25810x40400": 5175,
    "\u25810x40f690": 5176,
    "\u25810x4e2de0": 5177,
    "sav": 5178,
    "4010": 5179,
    "artn": 5180,
    "atik": 5181,
    "fora": 5182,
    "grey": 5183,
    "itis": 5184,
    "undb": 5185,
    "gistr": 5186,
    "notre": 5187,
    "onthe": 5188,
    "partn": 5189,
    "\u2581itis": 5190,
    "edcode": 5191,
    "fromth": 5192,
    "edfiles": 5193,
    "\u25810x4195": 5194,
    "\u2581prints": 5195,
    "catalogs": 5196,
    "continue": 5197,
    "gistries": 5198,
    "swindows": 5199,
    "undblack": 5200,
    "isalready": 5201,
    "ofcadwork": 5202,
    "sbeforeyo": 5203,
    "thissetup": 5204,
    "ucontinue": 5205,
    "abletoquit": 5206,
    "informatik": 5207,
    "\u2581itisadvis": 5208,
    "\u2581startfile": 5209,
    "clientnumber": 5210,
    "\u2581pleasecheck": 5211,
    "ucontinuewith": 5212,
    "allyourrunning": 5213,
    "\u2581doyouwanttore": 5214,
    "\u2581dialogswindows": 5215,
    "\u2581backgroundblack": 5216,
    "\u2581doyoureallywantto": 5217,
    "applicationsbeforeyo": 5218,
    "\u2581itisadvisabletoquit": 5219,
    "ucontinuewiththissetup": 5220,
    "allyourrunningapplicationsbeforeyo": 5221,
    "\u2581itisadvisabletoquitallyourrunningapplicationsbeforeyo": 5222,
    "\u25810xc4": 5223,
    "\u25810x410acd": 5224,
    "\u25810x410ace": 5225,
    "vm": 5226,
    "150": 5227,
    "3ba": 5228,
    "aa0": 5229,
    "e92": 5230,
    "\u25810x4364": 5231,
    "\u25810x71a0": 5232,
    "filesfrom": 5233,
    "\u2581formatmessagea": 5234,
    "1eb": 5235,
    "380": 5236,
    "d05": 5237,
    "f64": 5238,
    "fb8": 5239,
    "9d50": 5240,
    "bcb8": 5241,
    "e1000": 5242,
    "\u2581sendmessagea": 5243,
    "3c8": 5244,
    "7d4c": 5245,
    "80d8": 5246,
    "timet": 5247,
    "\u25810x97a0": 5248,
    "\u25810x442804": 5249,
    "\u25810x1210dec": 5250,
    "128": 5251,
    "f37": 5252,
    "\u2581dl": 5253,
    "7000": 5254,
    "9640": 5255,
    "\u25810x436": 5256,
    "\u25810x412c": 5257,
    "\u25810x1210e2b": 5258,
    "\u25810x1210f84": 5259,
    "vironmentblock": 5260,
    "\u2581getcomputernamea": 5261,
    "\u25810x9020": 5262,
    "\u25810x442820": 5263,
    "\u25810x1210e10": 5264,
    "hiscomputer": 5265,
    "laser": 5266,
    "\u2581regcreatekeyexa": 5267,
    "ece": 5268,
    "tions": 5269,
    "\u25810xb6": 5270,
    "\u25810xd000": 5271,
    "\u25810x1210f88": 5272,
    "\u2581setthreadpreferreduilanguages": 5273,
    "28c": 5274,
    "37ad": 5275,
    "dec5b": 5276,
    "\u25810x12108": 5277,
    "\u25810x3fb000": 5278,
    "\u25810x1210d1b": 5279,
    "\u2581systemtimet": 5280,
    "\u2581charlowerbuff": 5281,
    "dc67": 5282,
    "f0f9": 5283,
    "etime": 5284,
    "\u25810x42a": 5285,
    "\u25810x3f6000": 5286,
    "3b3": 5287,
    "uet": 5288,
    "\u25810xf3": 5289,
    "dified": 5290,
    "\u25810x798": 5291,
    "\u25810x40ea": 5292,
    "\u25810x1211d4c": 5293,
    "\u25810x1211fe4": 5294,
    "\u25810xfeee00a3": 5295,
    "3a1": 5296,
    "18d5": 5297,
    "\u2581readonly": 5298,
    "1f8": 5299,
    "37c": 5300,
    "510": 5301,
    "\u25810x5ab0": 5302,
    "\u25810xffd1": 5303,
    "\u2581convert": 5304,
    "\u25810x1210f28": 5305,
    "162": 5306,
    "a68": 5307,
    "\u25810x42d0": 5308,
    "\u25810x2050000": 5309,
    "\u2581createprocessa": 5310,
    "362": 5311,
    "9f0": 5312,
    "a74": 5313,
    "b62": 5314,
    "\u258103": 5315,
    "14de": 5316,
    "\u25810xe8": 5317,
    "\u2581dllo": 5318,
    "\u25810x59e": 5319,
    "\u25810x78c0": 5320,
    "\u25810x4175f4": 5321,
    "\u25810xfeedf200": 5322,
    "\u2581comparestringa": 5323,
    "\u2581applicationerror": 5324,
    "bfd": 5325,
    "\u2581ls": 5326,
    "3534": 5327,
    "artup": 5328,
    "nexit": 5329,
    "\u25810xc7": 5330,
    "\u2581winhttp": 5331,
    "\u2581dllonexit": 5332,
    "\u2581regsetvalueexa": 5333,
    "12a": 5334,
    "13d": 5335,
    "fc6": 5336,
    "3880": 5337,
    "\u2581ssp": 5338,
    "\u25810xb9": 5339,
    "\u25810x1f1": 5340,
    "\u25810xfff1": 5341,
    "\u25810x40a230": 5342,
    "\u2581exitthread": 5343,
    "\u2581freeenvironmentstringsa": 5344,
    "git": 5345,
    "c0f0": 5346,
    "e7ac": 5347,
    "datoma": 5348,
    "\u25810x606": 5349,
    "\u25810x4048": 5350,
    "\u25810x6970": 5351,
    "\u25810x7c40": 5352,
    "\u25810x120f7a8": 5353,
    "240": 5354,
    "36b": 5355,
    "723": 5356,
    "78e8": 5357,
    "icli": 5358,
    "\u2581inf": 5359,
    "\u25810xe4": 5360,
    "\u25810xef": 5361,
    "\u25810x602": 5362,
    "\u25810x7e81": 5363,
    "\u2581sspicli": 5364,
    "\u25810x3f7000": 5365,
    "\u25810x421708": 5366,
    "\u25810x1211e50": 5367,
    "\u25810xfeee00a4": 5368,
    "\u25810xfeee00a5": 5369,
    "\u2581beginpaint": 5370,
    "d250": 5371,
    "\u25810xf4": 5372,
    "\u25810x7460": 5373,
    "\u25810x1211dd8": 5374,
    "\u25810x1211e94": 5375,
    "\u2581mapvirtualkeyw": 5376,
    "527": 5377,
    "5a6": 5378,
    "7ea": 5379,
    "997": 5380,
    "b04": 5381,
    "db4": 5382,
    "f05": 5383,
    "f30": 5384,
    "f96": 5385,
    "fic": 5386,
    "\u25810x3f8000": 5387,
    "\u2581endpaint": 5388,
    "\u25810x1211a30": 5389,
    "\u25810x1211cbc": 5390,
    "\u25810x2357b78": 5391,
    "225": 5392,
    "99d": 5393,
    "e3d": 5394,
    "\u25810x132": 5395,
    "\u25810x7aa": 5396,
    "runtime": 5397,
    "eresource": 5398,
    "\u25810x3f9000": 5399,
    "\u25810x3fa000": 5400,
    "805": 5401,
    "e5d5c": 5402,
    "selec": 5403,
    "\u25810x447": 5404,
    "\u25810x3f20": 5405,
    "\u25810x4780": 5406,
    "\u25810x20009": 5407,
    "\u25810x3f757": 5408,
    "\u25810x4285c0": 5409,
    "\u2581setscroll": 5410,
    "\u25810x5f5e5d5c": 5411,
    "\u2581freeresource": 5412,
    "\u2581setfileattributesw": 5413,
    "18c": 5414,
    "590": 5415,
    "f70": 5416,
    "2625": 5417,
    "50f4": 5418,
    "a5958": 5419,
    "stand": 5420,
    "\u2581ifyou": 5421,
    "ispatch": 5422,
    "\u2581module": 5423,
    "willinstall": 5424,
    "\u25810x5b5a5958": 5425,
    "da4": 5426,
    "40a3": 5427,
    "b5b4": 5428,
    "\u2581log": 5429,
    "\u25810x1b1": 5430,
    "unction": 5431,
    "\u25810x4533": 5432,
    "\u25810x74d0": 5433,
    "\u2581gettext": 5434,
    "\u25810x1210ee0": 5435,
    "\u25810xfeee00a7": 5436,
    "ge": 5437,
    "oci": 5438,
    "\u2581ldr": 5439,
    "\u25810x14475": 5440,
    "\u2581module32": 5441,
    "\u25810xfeee00bc": 5442,
    "\u2581getsystemdefaultuilanguage": 5443,
    "706": 5444,
    "781": 5445,
    "a61": 5446,
    "d15": 5447,
    "fbf8": 5448,
    "\u2581sfc": 5449,
    "\u25810x4e00": 5450,
    "\u25810x572c": 5451,
    "\u25810x7dc8": 5452,
    "\u25810x1211894": 5453,
    "\u25810x1211bfc": 5454,
    "\u25810xfeee00a6": 5455,
    "\u25810xfeee00a8": 5456,
    "794": 5457,
    "tsb": 5458,
    "\u2581os": 5459,
    "3231": 5460,
    "bf3c": 5461,
    "da26": 5462,
    "b0cbc": 5463,
    "latsb": 5464,
    "toyour": 5465,
    "\u25810xfeee00a9": 5466,
    "\u2581getuserdefaultuilanguage": 5467,
    "3ae": 5468,
    "7e3": 5469,
    "d45": 5470,
    "fd70": 5471,
    "rintf": 5472,
    "\u25810x5670": 5473,
    "\u2581defwindowproca": 5474,
    "9ec": 5475,
    "ce7": 5476,
    "dos": 5477,
    "11d9": 5478,
    "5234": 5479,
    "5655": 5480,
    "\u25810x7e74": 5481,
    "\u25810x7e75": 5482,
    "\u2581command": 5483,
    "54a": 5484,
    "9d0": 5485,
    "ave": 5486,
    "tou": 5487,
    "accel": 5488,
    "\u25810xd3": 5489,
    "\u25810xfd": 5490,
    "\u25810x59d": 5491,
    "rl6660d": 5492,
    "\u25810x7070": 5493,
    "\u25810xffc2": 5494,
    "\u2581tsldrl666": 5495,
    "b66": 5496,
    "7137": 5497,
    "\u2581add": 5498,
    "anden": 5499,
    "\u25810x454": 5500,
    "\u25810x1211f38": 5501,
    "\u25810x3820382": 5502,
    "\u2581getvolumeinformationw": 5503,
    "mt": 5504,
    "35a": 5505,
    "361": 5506,
    "9a0": 5507,
    "a83": 5508,
    "f24": 5509,
    "2c3c": 5510,
    "40a8": 5511,
    "\u25810xd4": 5512,
    "display": 5513,
    "\u25810x3736": 5514,
    "\u25810x85d0": 5515,
    "selection": 5516,
    "\u25810x1210f50": 5517,
    "\u25810x1211f8c": 5518,
    "\u25810xfeee00aa": 5519,
    "tokeninformation": 5520,
    "7bc0": 5521,
    "a064": 5522,
    "ator": 5523,
    "\u2581rsa": 5524,
    "\u25810x288": 5525,
    "\u2581shell": 5526,
    "\u25810x419c": 5527,
    "\u2581rsaenh": 5528,
    "\u2581expanden": 5529,
    "\u25810x1210f70": 5530,
    "\u25810x1211dc4": 5531,
    "\u25810x3810381": 5532,
    "\u25810xfeee00ae": 5533,
    "a12": 5534,
    "4330": 5535,
    "e8ca": 5536,
    "\u25810xe6": 5537,
    "\u25810xf7": 5538,
    "\u2581dxgi": 5539,
    "\u25810x4b4a4": 5540,
    "atethread": 5541,
    "\u25810x40a538": 5542,
    "\u2581lstrcmpw": 5543,
    "\u2581dxgidebug": 5544,
    "\u25810xfeee00ab": 5545,
    "43f": 5546,
    "695": 5547,
    "ba7": 5548,
    "eth": 5549,
    "\u25810x7d40": 5550,
    "\u25810x1210e90": 5551,
    "\u25810x1211f68": 5552,
    "\u25810xfeee00ac": 5553,
    "\u25810xfeee00ad": 5554,
    "oo": 5555,
    "540": 5556,
    "c06": 5557,
    "74f9": 5558,
    "uset": 5559,
    "\u25810xac0": 5560,
    "f4e4d4c": 5561,
    "\u25810xffed": 5562,
    "\u25810x1211cfc": 5563,
    "\u25810x4b4a4948": 5564,
    "\u25810x4f4e4d4c": 5565,
    "\u2581createprocessw": 5566,
    "\u2581getsyscolorbrush": 5567,
    "70e": 5568,
    "aa6": 5569,
    "b82": 5570,
    "a590": 5571,
    "9c480": 5572,
    "\u2581from": 5573,
    "565554": 5574,
    "\u25810x3b3": 5575,
    "\u25810x5ab": 5576,
    "\u25810xffae": 5577,
    "\u25810x42c0e0": 5578,
    "\u2581globalad": 5579,
    "\u2581iswindow": 5580,
    "\u25810x1210fc0": 5581,
    "\u25810x57565554": 5582,
    "3f3": 5583,
    "f75": 5584,
    "d4a8": 5585,
    "\u2581dat": 5586,
    "a1918": 5587,
    "nextw": 5588,
    "\u2581clic": 5589,
    "\u25810x562": 5590,
    "\u2581unmap": 5591,
    "\u25810x53e0": 5592,
    "\u25810x7c70": 5593,
    "\u25810x7e78": 5594,
    "\u25810x1210e70": 5595,
    "\u25810x1210fa0": 5596,
    "\u25810x1211b84": 5597,
    "\u2581getmessagew": 5598,
    "\u2581getconsolemode": 5599,
    "\u2581unmapviewoffile": 5600,
    "b38": 5601,
    "b3c": 5602,
    "6088": 5603,
    "atic": 5604,
    "atible": 5605,
    "\u25810x411": 5606,
    "\u25810x4ad0": 5607,
    "\u25810x5352": 5608,
    "\u25810x7e79": 5609,
    "\u25810x43424": 5610,
    "\u25810x2280228": 5611,
    "ke": 5612,
    "568": 5613,
    "1cfd": 5614,
    "auth": 5615,
    "f7f0": 5616,
    "64544": 5617,
    "\u25810xed": 5618,
    "\u25810x43424140": 5619,
    "\u25810x47464544": 5620,
    "ffa": 5621,
    "51ce": 5622,
    "5c98": 5623,
    "dater": 5624,
    "e1d1c": 5625,
    "3e3d3c": 5626,
    "\u25810x577": 5627,
    "egistry": 5628,
    "\u25810x7c91": 5629,
    "\u25810x120ff": 5630,
    "\u25810x40a548": 5631,
    "\u25810x3f3e3d3c": 5632,
    "737": 5633,
    "e72": 5634,
    "f44": 5635,
    "\u2581us": 5636,
    "5920": 5637,
    "okup": 5638,
    "749fc": 5639,
    "\u25810x112": 5640,
    "\u25810x2f2e2": 5641,
    "\u25810x333231": 5642,
    "\u25810x40b3a0": 5643,
    "\u25810x7e3000": 5644,
    "\u25810x7e4000": 5645,
    "\u25810x7e5000": 5646,
    "e5c": 5647,
    "d1cc": 5648,
    "eaac": 5649,
    "22120": 5650,
    "\u25810xc3": 5651,
    "161514": 5652,
    "\u258120220": 5653,
    "\u25810x7ef0": 5654,
    "\u25810x77000": 5655,
    "\u25810x1210e40": 5656,
    "\u2581loadiconw": 5657,
    "\u25810x17161514": 5658,
    "\u25810x2f2e2d2c": 5659,
    "\u25810x33323130": 5660,
    "\u25810x37363534": 5661,
    "\u2581gettokeninformation": 5662,
    "357": 5663,
    "6c8": 5664,
    "705": 5665,
    "786": 5666,
    "bb4": 5667,
    "d3d": 5668,
    "e11": 5669,
    "eaa": 5670,
    "45a2": 5671,
    "56c8": 5672,
    "a2928": 5673,
    "a3938": 5674,
    "manag": 5675,
    "262524": 5676,
    "\u25810x20a": 5677,
    "\u25810x7dac": 5678,
    "\u25810x7dad": 5679,
    "\u25810x41f750": 5680,
    "\u25810x1211eb0": 5681,
    "\u25810x1b1a1918": 5682,
    "\u25810x1f1e1d1c": 5683,
    "\u25810x23222120": 5684,
    "\u25810x27262524": 5685,
    "\u25810x2b2a2928": 5686,
    "\u25810x3b3a3938": 5687,
    "665": 5688,
    "a56": 5689,
    "\u25811c": 5690,
    "ac18": 5691,
    "place": 5692,
    "\u2581call": 5693,
    "\u25810x7e88": 5694,
    "\u2581lookup": 5695,
    "\u25810x53525150": 5696,
    "b93": 5697,
    "3c28": 5698,
    "536c": 5699,
    "a84f1": 5700,
    "lease": 5701,
    "\u25810x180c": 5702,
    "\u25810x7e7c": 5703,
    "\u25810x7e7d": 5704,
    "\u25810x7ec4": 5705,
    "\u25810x7ec5": 5706,
    "procedure": 5707,
    "\u25810x42a402": 5708,
    "\u25810x42a410": 5709,
    "bed": 5710,
    "fe4": 5711,
    "\u25810x497": 5712,
    "\u25810x7c16": 5713,
    "\u25810x100fdd58": 5714,
    "\u2581formatmessagew": 5715,
    "3d4": 5716,
    "782": 5717,
    "99c": 5718,
    "4058": 5719,
    "16c00": 5720,
    "ration": 5721,
    "\u25810x504": 5722,
    "\u25810x7eac": 5723,
    "\u25810x7ee001": 5724,
    "\u25810x7ee002": 5725,
    "\u25810x7ee003": 5726,
    "\u25810x7ee004": 5727,
    "\u25810x7ee005": 5728,
    "\u25810x7ee006": 5729,
    "\u25810x7ee007": 5730,
    "\u25810x7ee008": 5731,
    "\u25810x7ee009": 5732,
    "\u25810x7ee00a": 5733,
    "\u25810x7ee00b": 5734,
    "\u25810x7ee00c": 5735,
    "\u25810x7ee00d": 5736,
    "\u25810x7ee00e": 5737,
    "\u25810x7ee00f": 5738,
    "\u25810x7ee010": 5739,
    "\u25810x7ee011": 5740,
    "\u25810x7ee012": 5741,
    "\u25810x7ee013": 5742,
    "\u25810x7ee014": 5743,
    "\u25810x7ee015": 5744,
    "\u25810x7ee016": 5745,
    "\u25810x7ee017": 5746,
    "\u25810x7ee018": 5747,
    "\u25810x7ee019": 5748,
    "\u25810x12115c4": 5749,
    "\u25810xfeee00af": 5750,
    "a76": 5751,
    "abc": 5752,
    "ort": 5753,
    "\u2581sen": 5754,
    "anual": 5755,
    "\u25810x41d8": 5756,
    "\u25810x44c4": 5757,
    "\u25810x41f6c0": 5758,
    "\u25810x41f780": 5759,
    "\u2581synchroniz": 5760,
    "imetofiletime": 5761,
    "383": 5762,
    "b74": 5763,
    "1800": 5764,
    "4e9c": 5765,
    "\u2581pre": 5766,
    "\u25810x164": 5767,
    "\u25810x57c": 5768,
    "\u25810x7f10": 5769,
    "\u25810x8258": 5770,
    "\u25810x46b188": 5771,
    "\u25810xba8b68": 5772,
    "\u25810x12117ec": 5773,
    "\u25810xfeee00b0": 5774,
    "\u25810xfeee00b1": 5775,
    "\u2581writeconsolew": 5776,
    "\u2581terminatethread": 5777,
    "sel": 5778,
    "31c0": 5779,
    "9448": 5780,
    "alic": 5781,
    "c888": 5782,
    "alicen": 5783,
    "\u25810x41b": 5784,
    "\u25810x438": 5785,
    "\u25810xffaf": 5786,
    "\u2581riched20": 5787,
    "\u25810x1210f00": 5788,
    "007": 5789,
    "\u2581cal": 5790,
    "\u25810x439": 5791,
    "\u25810x452b": 5792,
    "274": 5793,
    "1580": 5794,
    "3d77": 5795,
    "e5f0": 5796,
    "startup": 5797,
    "\u25810x169bd": 5798,
    "\u2581licence": 5799,
    "6a68": 5800,
    "b354": 5801,
    "ba104": 5802,
    "\u25810x7cb0": 5803,
    "\u25810xffd9": 5804,
    "\u25810x23533": 5805,
    "\u25810x80000": 5806,
    "\u25810x4554b0": 5807,
    "609": 5808,
    "\u25810xda": 5809,
    "licenc": 5810,
    "\u25810x424": 5811,
    "\u25810x412d": 5812,
    "\u25810x7620": 5813,
    "\u25810x1211708": 5814,
    "3cb": 5815,
    "ba1": 5816,
    "\u25810x41ce": 5817,
    "\u25810x4cf00": 5818,
    "available": 5819,
    "\u25810x40a92c": 5820,
    "\u25810x40a93c": 5821,
    "\u25810x40f688": 5822,
    "\u25810x584d24": 5823,
    "\u25810x121192f": 5824,
    "1a5": 5825,
    "49c0": 5826,
    "f844": 5827,
    "\u25810xe5": 5828,
    "\u25810xfb": 5829,
    "author": 5830,
    "\u25810x532": 5831,
    "\u25810x4ec0": 5832,
    "\u25810x12116fc": 5833,
    "565": 5834,
    "f15": 5835,
    "30c4": 5836,
    "5a80": 5837,
    "f738": 5838,
    "f8e4": 5839,
    "ultip": 5840,
    "namedp": 5841,
    "\u25810x150": 5842,
    "\u25810x4ee0": 5843,
    "\u25810x9810": 5844,
    "formultip": 5845,
    "\u25810xfeee00b3": 5846,
    "429": 5847,
    "f5fb": 5848,
    "emutex": 5849,
    "\u25810x413": 5850,
    "\u25810x48b0": 5851,
    "\u2581allocate": 5852,
    "\u25810x1210fe0": 5853,
    "\u25810x1211fb0": 5854,
    "\u25810xfeee00b2": 5855,
    "\u25810xfeee00b4": 5856,
    "\u2581setfiletime": 5857,
    "formultipleob": 5858,
    "1d8": 5859,
    "2fe": 5860,
    "ef8": 5861,
    "itw": 5862,
    "5014": 5863,
    "\u25810xca": 5864,
    "\u25810xf2": 5865,
    "\u25810x48c0": 5866,
    "\u25810x7dc0": 5867,
    "\u25810x1210f30": 5868,
    "\u25810x12119b0": 5869,
    "6d4": 5870,
    "a24": 5871,
    "bb5": 5872,
    "d56": 5873,
    "11b8": 5874,
    "alle": 5875,
    "esid": 5876,
    "\u25810x3f24": 5877,
    "\u25810x54a8": 5878,
    "\u2581cannot": 5879,
    "\u25810x121178c": 5880,
    "andinitializ": 5881,
    "andinitializesid": 5882,
    "\u2581allocateandinitializesid": 5883,
    "da1c": 5884,
    "\u25810xce": 5885,
    "\u25810x3c0": 5886,
    "\u25810x4336": 5887,
    "\u2581folder": 5888,
    "\u25810x4e39b4": 5889,
    "\u2581releasemutex": 5890,
    "3e5": 5891,
    "pies": 5892,
    "\u25810x78000": 5893,
    "\u25810x1211e38": 5894,
    "\u2581getexitcode": 5895,
    "\u2581getfullnamea": 5896,
    "fdb": 5897,
    "84ce": 5898,
    "\u25810x9f": 5899,
    "\u2581pass": 5900,
    "\u25810x4680": 5901,
    "\u2581ldrget": 5902,
    "\u2581selecta": 5903,
    "\u25810x1211d2c": 5904,
    "\u25810xfeee00b5": 5905,
    "procedureaddress": 5906,
    "\u2581ldrgetprocedureaddress": 5907,
    "a6f": 5908,
    "anc": 5909,
    "\u258150": 5910,
    "bdf0": 5911,
    "ec97c": 5912,
    "\u25810x4b20": 5913,
    "servicec": 5914,
    "3b6": 5915,
    "71f": 5916,
    "d42": 5917,
    "bd57": 5918,
    "croll": 5919,
    "fc360": 5920,
    "times": 5921,
    "\u25810x7541": 5922,
    "\u2581getscroll": 5923,
    "\u2581getexitcodeprocess": 5924,
    "389": 5925,
    "e14": 5926,
    "e32": 5927,
    "lear": 5928,
    "stin": 5929,
    "\u25810xc2": 5930,
    "\u25810x4a60": 5931,
    "\u25810x5000": 5932,
    "\u25810x7b60": 5933,
    "deleteatom": 5934,
    "\u25810x1211684": 5935,
    "\u25810x1211f08": 5936,
    "\u2581globaldeleteatom": 5937,
    "\u2581registerclassexw": 5938,
    "26d": 5939,
    "ach": 5940,
    "43e5": 5941,
    "7064": 5942,
    "sett": 5943,
    "created": 5944,
    "\u25810x4530": 5945,
    "\u25810x49b0": 5946,
    "\u25810x8b50": 5947,
    "\u25810x435403": 5948,
    "\u25810x435404": 5949,
    "\u25810x435405": 5950,
    "\u25810x435406": 5951,
    "\u25810x441806": 5952,
    "\u25810x441808": 5953,
    "\u25810x44180a": 5954,
    "\u25810x537500": 5955,
    "\u25810x1211994": 5956,
    "\u25810x1211f58": 5957,
    "\u2581regopenkeya": 5958,
    "\u2581getfullnamew": 5959,
    "eb6": 5960,
    "f27": 5961,
    "2468": 5962,
    "5410": 5963,
    "b088": 5964,
    "bcac": 5965,
    "lang": 5966,
    "correct": 5967,
    "\u25810x4551": 5968,
    "\u25810x4a30": 5969,
    "\u25810x409411": 5970,
    "\u25810x1211784": 5971,
    "\u25810x1211ebc": 5972,
    "ecompatible": 5973,
    "\u2581createcompatible": 5974,
    "ba9": 5975,
    "e31": 5976,
    "f22": 5977,
    "0036": 5978,
    "76c8": 5979,
    "\u2581164": 5980,
    "\u2581cpp": 5981,
    "\u25810x7e89": 5982,
    "\u25810xff90": 5983,
    "\u25810x409412": 5984,
    "\u25810x409413": 5985,
    "\u25810x409414": 5986,
    "\u25810x409415": 5987,
    "\u25810x409416": 5988,
    "\u25810x409417": 5989,
    "\u25810x40a3e9": 5990,
    "\u25810x40a3ea": 5991,
    "\u25810x40a3eb": 5992,
    "\u25810x40a3ec": 5993,
    "\u25810x40a3ed": 5994,
    "\u25810x40a3ee": 5995,
    "\u25810x40a3ef": 5996,
    "\u25810x44180c": 5997,
    "\u25810x1000130": 5998,
    "\u25810x1210ed0": 5999,
    "\u25810x1211cd0": 6000,
    "\u25810x1211d24": 6001,
    "\u25810x5265c3c": 6002,
    "\u25810xfeee00b7": 6003,
    "b6c": 6004,
    "da0": 6005,
    "f92": 6006,
    "1cb0": 6007,
    "55e7": 6008,
    "9918": 6009,
    "\u25810xdd": 6010,
    "\u25810x488": 6011,
    "\u25810x49d0": 6012,
    "\u25810x71c0": 6013,
    "\u2581thefile": 6014,
    "debughook": 6015,
    "stination": 6016,
    "\u25810x435407": 6017,
    "\u25810xfeee00b8": 6018,
    "\u2581coinitialize": 6019,
    "\u2581cppdebughook": 6020,
    "545": 6021,
    "e60": 6022,
    "ea0": 6023,
    "f66": 6024,
    "\u2581tim": 6025,
    "endar": 6026,
    "langid": 6027,
    "\u25810x226": 6028,
    "\u25810x70e0": 6029,
    "\u2581calloc": 6030,
    "\u2581sample": 6031,
    "calendar": 6032,
    "\u25810xfeee00b6": 6033,
    "\u2581globalrealloc": 6034,
    "3a3": 6035,
    "9dc": 6036,
    "\u2581reco": 6037,
    "\u25810x7e20": 6038,
    "\u25810x44180e": 6039,
    "\u2581createdi": 6040,
    "\u25810x12119f4": 6041,
    "\u25810x1211cf8": 6042,
    "\u25810x1211ea0": 6043,
    "\u25810xfeee00b9": 6044,
    "2c1": 6045,
    "12e7": 6046,
    "\u25812db": 6047,
    "\u25810x4f00": 6048,
    "\u25810x90f0": 6049,
    "registry": 6050,
    "\u25810x435408": 6051,
    "\u25810x435409": 6052,
    "\u25810x43540a": 6053,
    "\u25810x43540b": 6054,
    "\u25810x43540c": 6055,
    "\u25810x441810": 6056,
    "\u25810x441812": 6057,
    "\u25810x441814": 6058,
    "\u25810x441816": 6059,
    "aaaaaaaaaaaaaaaa": 6060,
    "615": 6061,
    "a7c": 6062,
    "drb": 6063,
    "tof": 6064,
    "adc0": 6065,
    "bc20": 6066,
    "itor": 6067,
    "\u25813db": 6068,
    "atoma": 6069,
    "notbe": 6070,
    "\u25810xc5": 6071,
    "\u25812drb": 6072,
    "\u25812dvb": 6073,
    "\u2581next": 6074,
    "\u25810x470": 6075,
    "\u25810x45d3": 6076,
    "\u25810x9210": 6077,
    "\u25810xf874": 6078,
    "\u25810xffd6": 6079,
    "\u25810xfeee00bb": 6080,
    "365": 6081,
    "620": 6082,
    "71c": 6083,
    "1110": 6084,
    "dddc": 6085,
    "ebad": 6086,
    "fc54": 6087,
    "\u2581bak": 6088,
    "notop": 6089,
    "\u2581when": 6090,
    "\u25810x4900": 6091,
    "\u25810x8af0": 6092,
    "\u25810x52667": 6093,
    "\u2581cannotop": 6094,
    "\u2581translat": 6095,
    "\u25810x1210eb0": 6096,
    "447": 6097,
    "37d0": 6098,
    "e1d8": 6099,
    "\u25810x9b": 6100,
    "\u25810xe3": 6101,
    "\u25810x43a": 6102,
    "\u25810x4c00": 6103,
    "\u25810x417d20": 6104,
    "\u25810x429000": 6105,
    "\u25810x43540d": 6106,
    "\u25810x441818": 6107,
    "\u25810x1211d14": 6108,
    "ph": 6109,
    "507": 6110,
    "645": 6111,
    "7c0": 6112,
    "\u2581mi": 6113,
    "12a3": 6114,
    "2482": 6115,
    "98c0": 6116,
    "\u25810xfa": 6117,
    "\u25810x3cc": 6118,
    "\u2581class": 6119,
    "\u25810x47ab": 6120,
    "\u25810x9030": 6121,
    "\u25810x100220": 6122,
    "\u25810x43a4b0": 6123,
    "\u25810xfeee01c": 6124,
    "b21": 6125,
    "f8b": 6126,
    "blem": 6127,
    "located": 6128,
    "problem": 6129,
    "\u25810xfeee00ba": 6130,
    "notbelocated": 6131,
    "5ce": 6132,
    "6c5": 6133,
    "7b7": 6134,
    "be7": 6135,
    "6861": 6136,
    "a0ef": 6137,
    "f8e6": 6138,
    "a9ef0": 6139,
    "utton": 6140,
    "fileex": 6141,
    "\u25810x40aa": 6142,
    "\u2581flatsb": 6143,
    "\u25810x43540e": 6144,
    "\u25810x43540f": 6145,
    "\u25810x44181a": 6146,
    "\u25810x44181c": 6147,
    "\u25810x44181e": 6148,
    "\u25810x4df006": 6149,
    "\u25810x4df008": 6150,
    "\u25810x4df00a": 6151,
    "\u25810x4df00c": 6152,
    "\u25810x4df00e": 6153,
    "\u25810x4df010": 6154,
    "\u25810x4df012": 6155,
    "\u25810x4df014": 6156,
    "\u25810x4df016": 6157,
    "281": 6158,
    "a34": 6159,
    "ert": 6160,
    "brow": 6161,
    "desk": 6162,
    "erator": 6163,
    "\u25810x1900": 6164,
    "\u25810x412e": 6165,
    "\u2581dispatch": 6166,
    "\u25810x1211b80": 6167,
    "\u2581setfileinformationbyhandlew": 6168,
    "\u2581getfileinformationbyhandleexw": 6169,
    "xe": 6170,
    "375": 6171,
    "390": 6172,
    "570": 6173,
    "649": 6174,
    "bde": 6175,
    "ddc": 6176,
    "fe3": 6177,
    "bbbb": 6178,
    "ec80": 6179,
    "fdc48": 6180,
    "\u25810xc6": 6181,
    "\u25810x238": 6182,
    "\u25810x990": 6183,
    "\u25810x4450": 6184,
    "\u25810x7db1": 6185,
    "\u2581msvcr100": 6186,
    "1dd": 6187,
    "2ec": 6188,
    "bb7": 6189,
    "f95": 6190,
    "\u25810x4370": 6191,
    "\u25810xf003f": 6192,
    "\u25810x4df018": 6193,
    "\u25810x1211ec0": 6194,
    "accelerator": 6195,
    "\u25810xfeee00be": 6196,
    "146": 6197,
    "popup": 6198,
    "\u25810x522a": 6199,
    "password": 6200,
    "\u25810x47ee50": 6201,
    "\u25810x566f18": 6202,
    "\u25810xfeee00bd": 6203,
    "315": 6204,
    "7e7": 6205,
    "971": 6206,
    "cut": 6207,
    "rap": 6208,
    "4df6": 6209,
    "eb80": 6210,
    "move": 6211,
    "\u2581dir": 6212,
    "\u25810x42e9": 6213,
    "\u25810x457e": 6214,
    "\u25810x1210e20": 6215,
    "\u2581gettempfilenamea": 6216,
    "d69": 6217,
    "d82": 6218,
    "ed2": 6219,
    "90e4": 6220,
    "bce6": 6221,
    "\u25810x41b8": 6222,
    "\u25810x75b0": 6223,
    "\u25810x7770": 6224,
    "ofiletime": 6225,
    "\u25810x4df01a": 6226,
    "\u25810x4df01c": 6227,
    "\u25810x4df01e": 6228,
    "\u25810x12114bc": 6229,
    "\u2581systemtimetofiletime": 6230,
    "307": 6231,
    "986": 6232,
    "a36": 6233,
    "b32": 6234,
    "b45": 6235,
    "f82": 6236,
    "faa": 6237,
    "78a2": 6238,
    "\u2581lib": 6239,
    "38358": 6240,
    "ingto": 6241,
    "\u25810xd5": 6242,
    "\u2581short": 6243,
    "\u2581srand": 6244,
    "\u25810x4880": 6245,
    "\u25810x7310": 6246,
    "\u25810x7e30": 6247,
    "\u25810x7e85": 6248,
    "\u25810xff91": 6249,
    "\u25810x10020": 6250,
    "\u25810x47b158": 6251,
    "codethread": 6252,
    "\u2581regenumkey": 6253,
    "\u2581getexitcodethread": 6254,
    "5c9": 6255,
    "c0c": 6256,
    "da5": 6257,
    "eab8": 6258,
    "ed24": 6259,
    "context": 6260,
    "\u25810x7e84": 6261,
    "\u2581shortcut": 6262,
    "\u25810x121185c": 6263,
    "\u25810x1211e5c": 6264,
    "\u25810xfeee00bf": 6265,
    "\u2581outputdebugstringw": 6266,
    "287": 6267,
    "529": 6268,
    "7ff": 6269,
    "a93": 6270,
    "ces": 6271,
    "f62": 6272,
    "anew": 6273,
    "ryto": 6274,
    "\u25810xf6": 6275,
    "dialog": 6276,
    "\u25810x22c": 6277,
    "\u25810x458": 6278,
    "\u25810xe00": 6279,
    "connect": 6280,
    "fileexw": 6281,
    "\u25810x4692": 6282,
    "\u25810x120f8": 6283,
    "\u25810x440000": 6284,
    "\u25810x1211954": 6285,
    "\u25810xfeee00d7": 6286,
    "dce": 6287,
    "96d8": 6288,
    "pixe": 6289,
    "\u25810x7380": 6290,
    "\u25810x40300c": 6291,
    "\u25810x1210e2c": 6292,
    "\u25810xfeee00c0": 6293,
    "\u2581pb": 6294,
    "7b50": 6295,
    "entr": 6296,
    "palette": 6297,
    "uration": 6298,
    "\u25810x40d9": 6299,
    "\u25810x99e0": 6300,
    "\u25810x54a4c4": 6301,
    "\u25810x77000723": 6302,
    "\u25810xfeee00c1": 6303,
    "\u25810xfeee00c2": 6304,
    "3d6": 6305,
    "9fc": 6306,
    "a73": 6307,
    "aa2": 6308,
    "af0": 6309,
    "bd10": 6310,
    "\u25810xd7": 6311,
    "\u2581fast": 6312,
    "button": 6313,
    "\u25810x40b1": 6314,
    "\u25810x121189c": 6315,
    "\u25810xfeee00c3": 6316,
    "710": 6317,
    "9f4": 6318,
    "e1ea": 6319,
    "\u25810xcb": 6320,
    "\u25810xd6": 6321,
    "plotter": 6322,
    "memorystatus": 6323,
    "\u2581getmenuitem": 6324,
    "\u2581globalmemorystatus": 6325,
    "\u2581setcurrentdirectoryw": 6326,
    "40e": 6327,
    "ba8": 6328,
    "f3e": 6329,
    "b028": 6330,
    "e2a4": 6331,
    "etch": 6332,
    "\u25810x464": 6333,
    "\u25810x4016": 6334,
    "\u25810x40f0": 6335,
    "\u25810x7b98": 6336,
    "\u25810x1210ed8": 6337,
    "\u25810x1211e74": 6338,
    "cus": 6339,
    "f68": 6340,
    "been": 6341,
    "de23": 6342,
    "fine": 6343,
    "font": 6344,
    "focus": 6345,
    "\u25810xe9": 6346,
    "\u25810xf9": 6347,
    "current": 6348,
    "\u25810x4238": 6349,
    "\u25810x7db4": 6350,
    "\u25810x7db5": 6351,
    "\u25810x81a0": 6352,
    "\u25810x8430": 6353,
    "\u25810x8f20": 6354,
    "drawings": 6355,
    "\u2581geticon": 6356,
    "\u25810xfeee00c4": 6357,
    "l6660drl6660drl6660drl6660drl6660drl6660drl6660drl6660drl6660": 6358,
    "aa7": 6359,
    "af1": 6360,
    "d0b": 6361,
    "ff2": 6362,
    "149c": 6363,
    "f066": 6364,
    "\u25810x4b6": 6365,
    "tomatic": 6366,
    "55c": 6367,
    "\u2581sn": 6368,
    "2d57": 6369,
    "arec": 6370,
    "f638": 6371,
    "tive": 6372,
    "upper": 6373,
    "\u25810x444": 6374,
    "hasbeen": 6375,
    "\u25810x3f28": 6376,
    "\u25810x4226": 6377,
    "\u2581msvcr71": 6378,
    "\u25810x1211960": 6379,
    "\u2581removedirectoryw": 6380,
    "405": 6381,
    "512": 6382,
    "\u2581readc": 6383,
    "\u25810x4555": 6384,
    "\u25810x40938": 6385,
    "\u25810x411c10": 6386,
    "\u25810x44d250": 6387,
    "\u25810x7c16a0": 6388,
    "\u25810x1211424": 6389,
    "\u2581regqueryvalueexw": 6390,
    "6a0": 6391,
    "e1c": 6392,
    "4720": 6393,
    "b594": 6394,
    "d1b4": 6395,
    "ffcb": 6396,
    "flush": 6397,
    "\u25810x4a70": 6398,
    "\u25810x82c0": 6399,
    "\u2581selectob": 6400,
    "\u25810xfeee00c6": 6401,
    "\u2581sofaddress": 6402,
    "f71": 6403,
    "anies": 6404,
    "\u25810x300175": 6405,
    "\u25810x40c98c": 6406,
    "\u25810x545678": 6407,
    "\u25810x56c750": 6408,
    "\u2581globalfind": 6409,
    "\u2581getdateformatw": 6410,
    "94a": 6411,
    "9eb": 6412,
    "hich": 6413,
    "tine": 6414,
    "35000": 6415,
    "\u25810xc1": 6416,
    "\u25810xee": 6417,
    "\u25810x4055": 6418,
    "\u25810x9010": 6419,
    "\u25810xffc3": 6420,
    "\u25810x120de": 6421,
    "\u25810x3b7fc": 6422,
    "\u25810xfeee00c5": 6423,
    "5fc": 6424,
    "dcc": 6425,
    "e35": 6426,
    "1848": 6427,
    "24c7": 6428,
    "60e4": 6429,
    "d8c8": 6430,
    "\u25814d5": 6431,
    "dlg32": 6432,
    "viewer": 6433,
    "\u25810x1074": 6434,
    "\u25810x40d7": 6435,
    "\u25810x4235": 6436,
    "\u25810xb8ef": 6437,
    "\u25810x5265c50": 6438,
    "\u25810x71000000": 6439,
    "\u25810xfeee00c7": 6440,
    "configuration": 6441,
    "\u2581lcmapstringa": 6442,
    "\u2581writeprocessmemory": 6443,
    "wh": 6444,
    "2d8": 6445,
    "4b0": 6446,
    "555": 6447,
    "7c2": 6448,
    "e02": 6449,
    "ned": 6450,
    "16a6": 6451,
    "9380": 6452,
    "\u25810x510": 6453,
    "\u25810x830": 6454,
    "\u25810x7ec8": 6455,
    "\u25810x8650": 6456,
    "\u2581findwindowa": 6457,
    "6c2": 6458,
    "772": 6459,
    "da6": 6460,
    "ite": 6461,
    "3843": 6462,
    "a9a8": 6463,
    "\u2581sup": 6464,
    "\u25810xd9": 6465,
    "\u25810x40b6": 6466,
    "\u2581change": 6467,
    "\u2581extrac": 6468,
    "\u2581comdlg32": 6469,
    "\u25810xfeee00c8": 6470,
    "516": 6471,
    "aa1": 6472,
    "apt": 6473,
    "bf5": 6474,
    "til": 6475,
    "108a": 6476,
    "cc59": 6477,
    "e446": 6478,
    "\u25810x457": 6479,
    "\u25810x40e6": 6480,
    "\u25810x7020": 6481,
    "\u25810x7320": 6482,
    "\u25810x7ec9": 6483,
    "\u2581choose": 6484,
    "\u25810x120f5": 6485,
    "\u2581classes": 6486,
    "\u2581replace": 6487,
    "\u25810x419638": 6488,
    "\u25810x421030": 6489,
    "\u25810x7eabc0": 6490,
    "\u25810x1210f60": 6491,
    "\u25810x12118d8": 6492,
    "2a8": 6493,
    "aga": 6494,
    "b12": 6495,
    "3cd8": 6496,
    "98527": 6497,
    "terect": 6498,
    "\u25810x118": 6499,
    "\u25810x40b9": 6500,
    "\u25810x7888": 6501,
    "\u2581cancel": 6502,
    "\u25810x697864": 6503,
    "\u25810x1211d44": 6504,
    "134": 6505,
    "ail": 6506,
    "bbd": 6507,
    "kip": 6508,
    "ofi": 6509,
    "\u2581ht": 6510,
    "0024": 6511,
    "5f00": 6512,
    "\u2581not": 6513,
    "oftware": 6514,
    "\u25810x4139": 6515,
    "00000000": 6516,
    "\u25810xfeee00ca": 6517,
    "198": 6518,
    "206": 6519,
    "a86": 6520,
    "d43": 6521,
    "d63": 6522,
    "0008": 6523,
    "a57b": 6524,
    "\u25810xf5": 6525,
    "reater": 6526,
    "details": 6527,
    "loading": 6528,
    "\u25810x4899b9": 6529,
    "\u25810x4919d0": 6530,
    "\u25810x491a5c": 6531,
    "\u25810x491a74": 6532,
    "\u25810x1211884": 6533,
    "\u25810xfeee00c9": 6534,
    "\u25810xfeee00cb": 6535,
    "\u2581globaladdatoma": 6536,
    "283": 6537,
    "387": 6538,
    "634": 6539,
    "da7": 6540,
    "ended": 6541,
    "which": 6542,
    "\u25810x4032": 6543,
    "\u25810x7428": 6544,
    "\u25810x99d0": 6545,
    "\u2581enable": 6546,
    "edownload": 6547,
    "\u25810x1211a6c": 6548,
    "245": 6549,
    "5c5": 6550,
    "914": 6551,
    "a1a": 6552,
    "e43": 6553,
    "w32": 6554,
    "b4f9": 6555,
    "tact": 6556,
    "\u25810xc9": 6557,
    "\u2581skip": 6558,
    "\u25810x40e8": 6559,
    "\u25810x7038": 6560,
    "\u25810x7118": 6561,
    "\u25810x71f8": 6562,
    "\u25810x7db9": 6563,
    "\u25810x8c60": 6564,
    "\u2581initialize": 6565,
    "3ce": 6566,
    "563": 6567,
    "757": 6568,
    "7f6": 6569,
    "ara": 6570,
    "f03": 6571,
    "lid": 6572,
    "\u2581be": 6573,
    "3f20": 6574,
    "ed60": 6575,
    "orig": 6576,
    "39000": 6577,
    "eback": 6578,
    "longa": 6579,
    "swith": 6580,
    "apture": 6581,
    "codeex": 6582,
    "\u25810x4150": 6583,
    "\u25810x7db8": 6584,
    "original": 6585,
    "\u25810x1210ceb": 6586,
    "\u2581setthreadpriority": 6587,
    "a43": 6588,
    "c87": 6589,
    "eas": 6590,
    "ucc": 6591,
    "6418": 6592,
    "aged": 6593,
    "b400": 6594,
    "usto": 6595,
    "edfrom": 6596,
    "willex": 6597,
    "\u25810x824": 6598,
    "\u25810x457d": 6599,
    "\u25810x5357": 6600,
    "\u25810x7348": 6601,
    "\u2581associ": 6602,
    "\u2581backup": 6603,
    "\u25810x350b8": 6604,
    "\u25810x4093a4": 6605,
    "\u25810x4093ac": 6606,
    "\u25810x41de48": 6607,
    "\u25810x43a480": 6608,
    "\u25810x44c280": 6609,
    "\u25810x44d500": 6610,
    "\u25810x566b14": 6611,
    "\u25810x1211a48": 6612,
    "\u2581setbkcolor": 6613,
    "\u2581getmenuinfo": 6614,
    "13e": 6615,
    "979": 6616,
    "e81": 6617,
    "3382": 6618,
    "d387": 6619,
    "e600": 6620,
    "f538": 6621,
    "\u2581coun": 6622,
    "\u25810x415e": 6623,
    "\u25810x7188": 6624,
    "\u25810x7268": 6625,
    "\u25810x72d8": 6626,
    "\u25810x73b8": 6627,
    "\u25810x7498": 6628,
    "\u25810x78f8": 6629,
    "\u25810x7a48": 6630,
    "\u25810x7ab8": 6631,
    "\u25810x7c08": 6632,
    "\u25810x7cc0": 6633,
    "\u25810x7e90": 6634,
    "\u25810x23534": 6635,
    "istingfile": 6636,
    "158": 6637,
    "a60": 6638,
    "wit": 6639,
    "def0": 6640,
    "\u2581old": 6641,
    "exist": 6642,
    "touta": 6643,
    "ustbe": 6644,
    "\u25810x4357": 6645,
    "\u25810x4368": 6646,
    "\u25810x7508": 6647,
    "\u25810x7578": 6648,
    "\u25810x75e8": 6649,
    "\u25810x7658": 6650,
    "\u25810x76c8": 6651,
    "\u25810x7738": 6652,
    "\u25810x77a8": 6653,
    "\u25810x7d58": 6654,
    "\u2581waitformultipleob": 6655,
    "199": 6656,
    "1e7": 6657,
    "b01": 6658,
    "tss": 6659,
    "28de": 6660,
    "5118": 6661,
    "a9c0": 6662,
    "b1d0": 6663,
    "b738": 6664,
    "rchr": 6665,
    "382d9": 6666,
    "phone": 6667,
    "\u2581brow": 6668,
    "\u25810x1e4": 6669,
    "\u25810x47f": 6670,
    "eengine": 6671,
    "\u25810x7818": 6672,
    "\u25810x7968": 6673,
    "\u25810x79d8": 6674,
    "\u25810x7b28": 6675,
    "\u25810x7c78": 6676,
    "\u25810x7ce8": 6677,
    "\u25810x9820": 6678,
    "helpdesk": 6679,
    "\u25810x417d50": 6680,
    "\u25810x12117b0": 6681,
    "105": 6682,
    "14f": 6683,
    "165": 6684,
    "630": 6685,
    "b1c": 6686,
    "dxf": 6687,
    "ofa": 6688,
    "sch": 6689,
    "suc": 6690,
    "7140": 6691,
    "aper": 6692,
    "b6b0": 6693,
    "befo": 6694,
    "damm": 6695,
    "elec": 6696,
    "hash": 6697,
    "illb": 6698,
    "seto": 6699,
    "\u25812to": 6700,
    "952e8": 6701,
    "beren": 6702,
    "clear": 6703,
    "custo": 6704,
    "eceiv": 6705,
    "enthe": 6706,
    "fully": 6707,
    "pires": 6708,
    "resst": 6709,
    "spons": 6710,
    "texts": 6711,
    "\u2581zipp": 6712,
    "allhis": 6713,
    "allzip": 6714,
    "ersare": 6715,
    "forany": 6716,
    "foryou": 6717,
    "frames": 6718,
    "ofitss": 6719,
    "pirein": 6720,
    "rectly": 6721,
    "sation": 6722,
    "setthe": 6723,
    "stothe": 6724,
    "succes": 6725,
    "willbe": 6726,
    "\u2581allre": 6727,
    "\u2581youma": 6728,
    "\u2581yours": 6729,
    "ageduet": 6730,
    "beforec": 6731,
    "between": 6732,
    "ecodeis": 6733,
    "edcodes": 6734,
    "hotline": 6735,
    "ingwith": 6736,
    "ingyour": 6737,
    "newcode": 6738,
    "orutili": 6739,
    "piresin": 6740,
    "ressthe": 6741,
    "stoyour": 6742,
    "\u25810x8420": 6743,
    "customer": 6744,
    "inyourpc": 6745,
    "ldongles": 6746,
    "piration": 6747,
    "verwrite": 6748,
    "yourcode": 6749,
    "\u2581already": 6750,
    "\u2581contact": 6751,
    "\u2581pleases": 6752,
    "andallhis": 6753,
    "ecatalogs": 6754,
    "fromthere": 6755,
    "incadwork": 6756,
    "installer": 6757,
    "releaseto": 6758,
    "sponsible": 6759,
    "stringlen": 6760,
    "\u25810x42c070": 6761,
    "\u25810x42c0a8": 6762,
    "\u2581notvalid": 6763,
    "\u2581unsetthe": 6764,
    "extensions": 6765,
    "foranydamm": 6766,
    "licencefor": 6767,
    "userprofil": 6768,
    "\u25810x1211df4": 6769,
    "\u2581temporary": 6770,
    "ageduetothe": 6771,
    "allregister": 6772,
    "edbycadwork": 6773,
    "ersarenotre": 6774,
    "etocontinue": 6775,
    "laserframes": 6776,
    "succesfully": 6777,
    "yourcadwork": 6778,
    "\u2581bordergrey": 6779,
    "\u2581clientinfo": 6780,
    "errormessage": 6781,
    "originalfile": 6782,
    "sandcatalogs": 6783,
    "sationofitss": 6784,
    "willexpirein": 6785,
    "\u2581zippedfiles": 6786,
    "codeexpiresin": 6787,
    "stothedefault": 6788,
    "\u2581sinformation": 6789,
    "andallhispartn": 6790,
    "customernumber": 6791,
    "\u2581allregistries": 6792,
    "\u2581borderwindows": 6793,
    "\u2581lookupprivileg": 6794,
    "\u2581pleasecallyour": 6795,
    "initializeengine": 6796,
    "\u2581installationfor": 6797,
    "yourcadworkdealer": 6798,
    "\u2581intermediateback": 6799,
    "\u2581openanexploreron": 6800,
    "\u2581unsetthedownload": 6801,
    "allcadworksoftware": 6802,
    "allregisteredcodes": 6803,
    "forcadworkhavebeen": 6804,
    "isalreadyinstalled": 6805,
    "\u2581cadworkinformatik": 6806,
    "\u2581printslaserframes": 6807,
    "installationorutili": 6808,
    "licencewillexpirein": 6809,
    "sationofitssoftware": 6810,
    "sponsibleforanydamm": 6811,
    "sandcatalogsinyourpc": 6812,
    "\u2581downloadfrominternet": 6813,
    "\u2581doyoureallywanttoremov": 6814,
    "\u2581temporarycodeexpiresin": 6815,
    "\u2581thisprogramwillinstall": 6816,
    "andallhispartnersarenotre": 6817,
    "\u2581failedtoinitializeengine": 6818,
    "ageduetotheinstallationorutili": 6819,
    "\u2581allregistriesforcadworkhavebeen": 6820,
    "allcadworksoftwaresandcatalogsinyourpc": 6821,
    "\u2581downloadfrominternetallregisteredcodes": 6822,
    "\u2581cadworkinformatikandallhispartnersarenotre": 6823,
    "ageduetotheinstallationorutilisationofitssoftware": 6824,
    "\u2581thisprogramwillinstallallcadworksoftwaresandcatalogsinyourpc": 6825,
    "\u2581cadworkinformatikandallhispartnersarenotresponsibleforanydamm": 6826,
    "ms": 6827,
    "7fd": 6828,
    "9a8": 6829,
    "cac": 6830,
    "ed6": 6831,
    "gle": 6832,
    "93a8": 6833,
    "b3f8": 6834,
    "c06c": 6835,
    "dbc0": 6836,
    "e5c0": 6837,
    "sert": 6838,
    "\u25810x518": 6839,
    "\u25810x4ba0": 6840,
    "\u25810x81a1": 6841,
    "\u25810x1211118": 6842,
    "\u25810x1211e00": 6843,
    "\u25810xfeee00cc": 6844,
    "\u2581gettempfilenamew": 6845,
    "142": 6846,
    "3d7": 6847,
    "882": 6848,
    "926": 6849,
    "9de": 6850,
    "b17": 6851,
    "b374": 6852,
    "bccc": 6853,
    "da34": 6854,
    "\u25810x4100": 6855,
    "\u25810x4be6": 6856,
    "\u25810x1211a38": 6857,
    "\u25810x1211af4": 6858,
    "247": 6859,
    "5bc": 6860,
    "5ec": 6861,
    "716": 6862,
    "afd": 6863,
    "df0": 6864,
    "eff": 6865,
    "23d8": 6866,
    "d91c": 6867,
    "cache": 6868,
    "\u25810x433": 6869,
    "\u25810x120e": 6870,
    "\u25810x40bd": 6871,
    "\u25810x4bc0": 6872,
    "\u25810x7e8c": 6873,
    "\u25810x97b0": 6874,
    "\u25810x452bf8": 6875,
    "\u25810x496760": 6876,
    "\u25810x53e4a0": 6877,
    "\u2581explorer": 6878,
    "\u25810x1210f20": 6879,
    "\u25810x1211bf4": 6880,
    "\u25810x2357bc0": 6881,
    "\u25810xfeee00cd": 6882,
    "\u2581getconsolec": 6883,
    "3c1": 6884,
    "990": 6885,
    "bda": 6886,
    "\u2581rec": 6887,
    "ground": 6888,
    "\u25810x38c": 6889,
    "\u25810x515": 6890,
    "\u25810xbca": 6891,
    "\u2581getmenu": 6892,
    "\u25810x457e3c": 6893,
    "\u25810x1210e80": 6894,
    "\u25810xfeee00ce": 6895,
    "88c": 6896,
    "df1": 6897,
    "3c70": 6898,
    "a448": 6899,
    "a860": 6900,
    "\u2581excep": 6901,
    "\u25810x45d1": 6902,
    "\u25810x47ed": 6903,
    "\u25810x7e8d": 6904,
    "\u25810xfeee00cf": 6905,
    "\u2581commandline": 6906,
    "\u2581variantclear": 6907,
    "3b9": 6908,
    "fee": 6909,
    "\u2581he": 6910,
    "384c": 6911,
    "a6b4": 6912,
    "atal": 6913,
    "\u25810x498": 6914,
    "\u25810x40d6": 6915,
    "\u25810xf000": 6916,
    "\u2581translatem": 6917,
    "onthiscomputer": 6918,
    "f0b": 6919,
    "f9f": 6920,
    "\u2581ob": 6921,
    "\u2581rb": 6922,
    "506c": 6923,
    "7d24": 6924,
    "bc48": 6925,
    "e4c0": 6926,
    "inki": 6927,
    "utor": 6928,
    "ement": 6929,
    "\u25810x475": 6930,
    "utorial": 6931,
    "\u25810x4013": 6932,
    "\u25810x4484": 6933,
    "\u25810x8a70": 6934,
    "\u2581updater": 6935,
    "\u25810x4096a0": 6936,
    "ingcadwork": 6937,
    "\u25810x1210f98": 6938,
    "\u2581pleasewait": 6939,
    "ax": 6940,
    "332": 6941,
    "752": 6942,
    "796": 6943,
    "7a1": 6944,
    "f8d": 6945,
    "4005": 6946,
    "b1e0": 6947,
    "e243": 6948,
    "ight": 6949,
    "dc1b4": 6950,
    "\u2581fatal": 6951,
    "\u25810x7ed0": 6952,
    "enthread": 6953,
    "\u25810x409698": 6954,
    "\u25810x1211eb8": 6955,
    "\u2581processidto": 6956,
    "\u2581registerservicec": 6957,
    "\u2581processidtosessionid": 6958,
    "\u2581registerservicectrlhandler": 6959,
    "3f6": 6960,
    "5c2": 6961,
    "db2": 6962,
    "ec5": 6963,
    "fa0": 6964,
    "28ac": 6965,
    "3230": 6966,
    "6030": 6967,
    "bb18": 6968,
    "e0c0": 6969,
    "e445": 6970,
    "eba0": 6971,
    "argvw": 6972,
    "\u25810x3ac": 6973,
    "\u25810x45c": 6974,
    "toargvw": 6975,
    "\u25810x7e91": 6976,
    "44444444": 6977,
    "\u25810x300174": 6978,
    "\u25810x40969e": 6979,
    "\u25810x40a3f0": 6980,
    "\u25810x447f4c": 6981,
    "\u25810x572c10": 6982,
    "\u25810x1210e60": 6983,
    "\u25810x1210f94": 6984,
    "\u2581openthread": 6985,
    "\u2581getconsolecp": 6986,
    "\u2581commandlinetoargvw": 6987,
    "74c2": 6988,
    "cc58": 6989,
    "aramet": 6990,
    "\u25810x358": 6991,
    "isation": 6992,
    "\u25810x419b": 6993,
    "usttoken": 6994,
    "\u25810x4093d1": 6995,
    "\u25810x4093d2": 6996,
    "\u25810x4093d3": 6997,
    "\u25810x409696": 6998,
    "\u25810x40969a": 6999,
    "\u25810x40969c": 7000,
    "\u25810x4096a2": 7001,
    "\u25810x40a3d0": 7002,
    "yourauthor": 7003,
    "yourauthorisation": 7004,
    "baa": 7005,
    "df2": 7006,
    "66aa": 7007,
    "9498": 7008,
    "\u25810x5700": 7009,
    "emodified": 7010,
    "namedpipe": 7011,
    "foreground": 7012,
    "privileges": 7013,
    "\u25810x12117e8": 7014,
    "\u2581getfiletime": 7015,
    "\u2581showrunning": 7016,
    "foregroundwindow": 7017,
    "usttokenprivileges": 7018,
    "\u2581showrunninglicences": 7019,
    "a92": 7020,
    "sen": 7021,
    "17e8": 7022,
    "2998": 7023,
    "a844": 7024,
    "b3f0": 7025,
    "bd64": 7026,
    "de7f": 7027,
    "\u25810x5ec": 7028,
    "\u25810x4374": 7029,
    "\u25810x4500": 7030,
    "00000004": 7031,
    "ffff0000": 7032,
    "indirect": 7033,
    "\u25810x4c100": 7034,
    "\u25810x1211c14": 7035,
    "\u25810x1211e54": 7036,
    "ln": 7037,
    "c86": 7038,
    "d65": 7039,
    "f32": 7040,
    "\u2581work": 7041,
    "\u25810x6a0": 7042,
    "\u25810x1210ef0": 7043,
    "\u25810x1210f40": 7044,
    "\u2581myarg1myarg2": 7045,
    "b73": 7046,
    "\u258100": 7047,
    "bd58": 7048,
    "d22c": 7049,
    "eentry": 7050,
    "\u25810x41e9": 7051,
    "\u25810x73d0": 7052,
    "\u25810x8cf0": 7053,
    "eservice": 7054,
    "\u25810x40500": 7055,
    "bitmapbits": 7056,
    "\u25810x1210f90": 7057,
    "\u25810x12117fc": 7058,
    "\u2581getusernamea": 7059,
    "194": 7060,
    "a46": 7061,
    "ich": 7062,
    "69bc": 7063,
    "7168": 7064,
    "ccf5": 7065,
    "\u2581wsa": 7066,
    "\u2581hels": 7067,
    "\u25810x519": 7068,
    "\u25810x71e": 7069,
    "\u25810x4043": 7070,
    "\u25810x419a": 7071,
    "\u25810x4483": 7072,
    "\u25810x5d00": 7073,
    "\u25810x8180": 7074,
    "\u25810x8a80": 7075,
    "\u25810x42ff40": 7076,
    "\u2581helsinki": 7077,
    "\u25810x1210e28": 7078,
    "3ea": 7079,
    "957": 7080,
    "a0e": 7081,
    "a3f": 7082,
    "adm": 7083,
    "ba5": 7084,
    "0081": 7085,
    "16e7": 7086,
    "5614": 7087,
    "e8c1": 7088,
    "\u2581onex": 7089,
    "\u25810x4a5": 7090,
    "\u25810x570": 7091,
    "\u25810x5500": 7092,
    "\u2581onexit": 7093,
    "\u25810x1211e60": 7094,
    "\u2581getbitmapbits": 7095,
    "\u2581lookupprivilege": 7096,
    "34b": 7097,
    "dd1": 7098,
    "ea6": 7099,
    "\u2581vc": 7100,
    "0032": 7101,
    "3844": 7102,
    "aaf6": 7103,
    "f8d0": 7104,
    "7447d": 7105,
    "active": 7106,
    "\u25810x3b7f": 7107,
    "\u25810x408c": 7108,
    "\u25810x40c9": 7109,
    "\u25810x5718": 7110,
    "\u25810x5f00": 7111,
    "\u2581memcpy": 7112,
    "\u25810x1210ebc": 7113,
    "\u25810x1210f34": 7114,
    "\u25810x3b7fb98": 7115,
    "\u25810x3b7fbe0": 7116,
    "558": 7117,
    "da8": 7118,
    "84f2": 7119,
    "d108": 7120,
    "request": 7121,
    "\u25810x7a40": 7122,
    "\u25810x7f02": 7123,
    "\u2581creater": 7124,
    "\u25810x41f738": 7125,
    "\u25810x7023d8": 7126,
    "\u2581lstrcmpiw": 7127,
    "313": 7128,
    "6aa": 7129,
    "846": 7130,
    "b72": 7131,
    "c055": 7132,
    "eac8": 7133,
    "entrys": 7134,
    "etchblt": 7135,
    "\u25810x2300": 7136,
    "\u25810x4089": 7137,
    "\u25810x413a": 7138,
    "\u25810x7ce1": 7139,
    "\u25810x7dbc": 7140,
    "\u25810x8cb0": 7141,
    "entryslist": 7142,
    "7ee": 7143,
    "a28": 7144,
    "bdc": 7145,
    "d89": 7146,
    "e59": 7147,
    "fd6": 7148,
    "off": 7149,
    "0010": 7150,
    "78d0": 7151,
    "moun": 7152,
    "90058": 7153,
    "b005a": 7154,
    "tofmb": 7155,
    "\u25810x5d0": 7156,
    "\u2581amoun": 7157,
    "\u25810x40de": 7158,
    "\u25810x230022": 7159,
    "\u25810x550054": 7160,
    "\u25810x570056": 7161,
    "\u25810x590058": 7162,
    "\u25810x5b005a": 7163,
    "\u25810x5d005c": 7164,
    "\u25810x5f005e": 7165,
    "\u2581amountofmb": 7166,
    "\u2581regsetvalueexw": 7167,
    "260": 7168,
    "306": 7169,
    "551": 7170,
    "c23": 7171,
    "ede": 7172,
    "izn": 7173,
    "18ff": 7174,
    "26e0": 7175,
    "59bc": 7176,
    "b94c": 7177,
    "cc3d": 7178,
    "fe08": 7179,
    "\u2581184": 7180,
    "\u2581dac": 7181,
    "iznadm": 7182,
    "\u25810x17d4": 7183,
    "\u25810x4154": 7184,
    "\u25810x7dbd": 7185,
    "\u25810x86d8": 7186,
    "\u25810x8ae0": 7187,
    "\u25810x40000": 7188,
    "\u2581triznadm": 7189,
    "\u25810x1210e00": 7190,
    "\u25810x1210ecc": 7191,
    "\u2581charupper": 7192,
    "\u2581getprofile": 7193,
    "\u2581readconsolew": 7194,
    "721c": 7195,
    "a264": 7196,
    "dows": 7197,
    "ynam": 7198,
    "\u25810x5a1": 7199,
    "\u25810x4220": 7200,
    "\u25810x8d60": 7201,
    "\u25810x1211a00": 7202,
    "88b": 7203,
    "912": 7204,
    "97c": 7205,
    "b9c": 7206,
    "d20": 7207,
    "f54": 7208,
    "10a6": 7209,
    "6460": 7210,
    "7519": 7211,
    "b4b8": 7212,
    "page": 7213,
    "resour": 7214,
    "\u25810x441f": 7215,
    "\u25810x574c": 7216,
    "\u2581string": 7217,
    "\u25810x5026c": 7218,
    "\u2581launcher": 7219,
    "\u25810x1210e50": 7220,
    "125": 7221,
    "57a": 7222,
    "bf2": 7223,
    "mit": 7224,
    "51d1": 7225,
    "53b0": 7226,
    "70e4": 7227,
    "9eac": 7228,
    "ad00": 7229,
    "d198": 7230,
    "bd000": 7231,
    "cc000": 7232,
    "tility": 7233,
    "ynamic": 7234,
    "\u25810x18cc": 7235,
    "\u25810x44c0": 7236,
    "\u25810x4c78": 7237,
    "\u25810x4d00": 7238,
    "\u25810x7ea0": 7239,
    "\u2581utility": 7240,
    "\u25810x40f640": 7241,
    "\u25810x484003": 7242,
    "\u25810x484004": 7243,
    "\u25810x484005": 7244,
    "\u25810x484006": 7245,
    "\u25810x484007": 7246,
    "\u25810x484008": 7247,
    "\u25810x484009": 7248,
    "\u25810x48400a": 7249,
    "\u25810x48400b": 7250,
    "\u25810x48400c": 7251,
    "\u25810x48400d": 7252,
    "\u25810x48400e": 7253,
    "\u25810x48400f": 7254,
    "\u25810x1210f10": 7255,
    "\u25810x1211898": 7256,
    "\u25810x100fdd70": 7257,
    "1a8": 7258,
    "58c": 7259,
    "641": 7260,
    "9c6": 7261,
    "c01": 7262,
    "dee": 7263,
    "1734": 7264,
    "a5f0": 7265,
    "extex": 7266,
    "\u25810x5cc": 7267,
    "\u25810x44c9": 7268,
    "icrosoftvisualfoxpro": 7269,
    "179": 7270,
    "3e1": 7271,
    "3fc": 7272,
    "fea": 7273,
    "002c": 7274,
    "37e2": 7275,
    "eb50": 7276,
    "75000": 7277,
    "\u25810x4b0": 7278,
    "\u25810x605": 7279,
    "\u25810x4098": 7280,
    "\u25810x4122": 7281,
    "\u25810x4222": 7282,
    "\u25810x4740": 7283,
    "\u25810x4076aa": 7284,
    "\u25810x4076ab": 7285,
    "\u25810x436408": 7286,
    "\u25810xfeee00d5": 7287,
    "\u25810xfeee00d6": 7288,
    "3d2": 7289,
    "980": 7290,
    "b42": 7291,
    "10a4": 7292,
    "1260": 7293,
    "35ce": 7294,
    "91000": 7295,
    "\u25810x190": 7296,
    "\u25810x6e4": 7297,
    "\u25810xc74": 7298,
    "\u25810xecc": 7299,
    "visible": 7300,
    "\u2581device": 7301,
    "\u25810x1210f54": 7302,
    "\u25810x1211e84": 7303,
    "51c": 7304,
    "7f8": 7305,
    "af7": 7306,
    "b06": 7307,
    "e1d": 7308,
    "2268": 7309,
    "2c2c": 7310,
    "9138": 7311,
    "a8d8": 7312,
    "b082": 7313,
    "b477": 7314,
    "f060": 7315,
    "fa2c": 7316,
    "fcac": 7317,
    "raph": 7318,
    "92000": 7319,
    "strum": 7320,
    "\u2581wine": 7321,
    "\u25810x3b6": 7322,
    "utility": 7323,
    "\u25810x412b": 7324,
    "\u25810x7e94": 7325,
    "\u25810x403000": 7326,
    "localdrive": 7327,
    "\u25810x2100302": 7328,
    "\u25810x2200210": 7329,
    "\u2581globalhandle": 7330,
    "00000004000000": 7331,
    "toyourlocaldrive": 7332,
    "00000004000000ffff0000": 7333,
    "md": 7334,
    "110": 7335,
    "gcc": 7336,
    "23cc": 7337,
    "313f": 7338,
    "72f0": 7339,
    "7874": 7340,
    "945e": 7341,
    "a2a0": 7342,
    "d58c": 7343,
    "e442": 7344,
    "e5f4": 7345,
    "\u25810x23c": 7346,
    "\u25810x468": 7347,
    "\u25810x40d4": 7348,
    "\u25810x42ad": 7349,
    "\u25810x7d68": 7350,
    "\u2581libgcc": 7351,
    "ynamiclink": 7352,
    "\u25810x1211ea4": 7353,
    "\u2581destroywindow": 7354,
    "ynamiclinklibrary": 7355,
    "gl": 7356,
    "7b4": 7357,
    "7df": 7358,
    "91a": 7359,
    "be0": 7360,
    "upt": 7361,
    "34b8": 7362,
    "5432": 7363,
    "6408": 7364,
    "6c10": 7365,
    "9040": 7366,
    "dacl": 7367,
    "ff34": 7368,
    "\u2581midi": 7369,
    "ection": 7370,
    "ecurity": 7371,
    "\u25810x4042": 7372,
    "\u25810x7710": 7373,
    "\u25810x7e95": 7374,
    "datetime": 7375,
    "\u25810x120ce": 7376,
    "\u25810x436403": 7377,
    "\u25810x436404": 7378,
    "\u25810x436405": 7379,
    "\u25810x436406": 7380,
    "\u25810x436407": 7381,
    "\u25810x436409": 7382,
    "\u25810x43640a": 7383,
    "\u25810x43640b": 7384,
    "\u25810x43640c": 7385,
    "\u25810x43640d": 7386,
    "\u25810x43640e": 7387,
    "\u25810x43640f": 7388,
    "\u25810x43a438": 7389,
    "\u25810xfeee00da": 7390,
    "\u2581gettimeformatw": 7391,
    "securitydescriptordacl": 7392,
    "190": 7393,
    "1fc": 7394,
    "785": 7395,
    "e93": 7396,
    "341f": 7397,
    "5c68": 7398,
    "9958": 7399,
    "b850": 7400,
    "d8b4": 7401,
    "\u25810x1500": 7402,
    "\u25810x42db": 7403,
    "\u25810xff92": 7404,
    "\u2581backups": 7405,
    "createinst": 7406,
    "\u25810x1210ea0": 7407,
    "\u2581dialogbox": 7408,
    "\u2581expandenvironmentstringsw": 7409,
    "lu": 7410,
    "33f": 7411,
    "7d4": 7412,
    "f1b": 7413,
    "7658": 7414,
    "7a50": 7415,
    "a67c": 7416,
    "e8f8": 7417,
    "f795": 7418,
    "fc2c": 7419,
    "hild": 7420,
    "fd000": 7421,
    "textw": 7422,
    "\u2581clos": 7423,
    "protection": 7424,
    "\u25810x1210e24": 7425,
    "\u25810x1211d10": 7426,
    "\u25810x1211e78": 7427,
    "\u2581setcursor": 7428,
    "\u2581getstringtypea": 7429,
    "924": 7430,
    "9d5": 7431,
    "9e8": 7432,
    "e15": 7433,
    "f7d": 7434,
    "fb6": 7435,
    "fro": 7436,
    "0052": 7437,
    "5fac": 7438,
    "66ec": 7439,
    "92d0": 7440,
    "a2f8": 7441,
    "acdb": 7442,
    "ae40": 7443,
    "ee00": 7444,
    "hort": 7445,
    "mous": 7446,
    "3d000": 7447,
    "7486c": 7448,
    "\u2581issp": 7449,
    "\u25810x103": 7450,
    "\u25810x944": 7451,
    "\u2581gener": 7452,
    "\u25810x1b00": 7453,
    "\u25810x4720": 7454,
    "\u25810x82f0": 7455,
    "\u25810xa0c0": 7456,
    "\u2581isspace": 7457,
    "\u25810x403008": 7458,
    "\u25810x42b408": 7459,
    "\u25810x44ea08": 7460,
    "dosdatetime": 7461,
    "tracatalogs": 7462,
    "\u2581filetimetodosdatetime": 7463,
    "23a": 7464,
    "tar": 7465,
    "0016": 7466,
    "35dd": 7467,
    "3898": 7468,
    "5560": 7469,
    "7b5c": 7470,
    "94b8": 7471,
    "9ca0": 7472,
    "d0f8": 7473,
    "d956": 7474,
    "dd43": 7475,
    "\u2581lls": 7476,
    "d49e4": 7477,
    "\u25812022": 7478,
    "\u25810x248": 7479,
    "\u25810x838": 7480,
    "\u25810xa6c": 7481,
    "console": 7482,
    "\u25810x1d00": 7483,
    "\u25810x2500": 7484,
    "\u25810x2900": 7485,
    "\u25810x40f1": 7486,
    "\u25810x4108": 7487,
    "\u2581llseek": 7488,
    "\u25810x2439d": 7489,
    "\u25810x414b8": 7490,
    "\u25810x56b880": 7491,
    "\u2581getshort": 7492,
    "\u2581localfilet": 7493,
    "\u2581localfiletimetofiletime": 7494,
    "161": 7495,
    "18a": 7496,
    "5df": 7497,
    "767": 7498,
    "ade": 7499,
    "bba": 7500,
    "mpo": 7501,
    "2484": 7502,
    "505c": 7503,
    "50ea": 7504,
    "64ec": 7505,
    "79dc": 7506,
    "a4de": 7507,
    "c84c": 7508,
    "ddad": 7509,
    "demo": 7510,
    "f580": 7511,
    "fe20": 7512,
    "\u2581uni": 7513,
    "\u25810xb84": 7514,
    "\u25810x3f26": 7515,
    "\u25810x4360": 7516,
    "\u25810x88b0": 7517,
    "\u25810x98e0": 7518,
    "\u25810x1210e27": 7519,
    "notbelocatedint": 7520,
    "uldnotbelocatedint": 7521,
    "2f2": 7522,
    "951": 7523,
    "10f0": 7524,
    "18a7": 7525,
    "43f5": 7526,
    "8143": 7527,
    "a7e6": 7528,
    "b71d": 7529,
    "ca11": 7530,
    "da93": 7531,
    "ec35": 7532,
    "aming": 7533,
    "22b3f0": 7534,
    "\u25810x43e": 7535,
    "\u25810x654": 7536,
    "browser": 7537,
    "\u25810x4346": 7538,
    "\u25810x7dc1": 7539,
    "\u25810x7ecc": 7540,
    "\u25810x7ecd": 7541,
    "\u25810x91f2": 7542,
    "\u2581general": 7543,
    "\u2581roaming": 7544,
    "\u25810x42b403": 7545,
    "\u25810x42b404": 7546,
    "\u25810x42b405": 7547,
    "\u25810x42b406": 7548,
    "\u25810x42b407": 7549,
    "\u25810x42b409": 7550,
    "\u25810x42b40a": 7551,
    "\u25810x42b40b": 7552,
    "\u25810x42b40c": 7553,
    "\u25810x42b40d": 7554,
    "\u25810x42b40e": 7555,
    "\u25810x42b40f": 7556,
    "\u25810x1211674": 7557,
    "\u25810x1211cf0": 7558,
    "385": 7559,
    "c8a": 7560,
    "cat": 7561,
    "d35": 7562,
    "daf": 7563,
    "\u2581ha": 7564,
    "0026": 7565,
    "385b": 7566,
    "68b2": 7567,
    "72e7": 7568,
    "91bd": 7569,
    "ardc": 7570,
    "b4b6": 7571,
    "e090": 7572,
    "eb28": 7573,
    "f3e0": 7574,
    "a9000": 7575,
    "f001e": 7576,
    "f003e": 7577,
    "\u2581pbvm": 7578,
    "\u25810xb04": 7579,
    "usethis": 7580,
    "\u25810x4034": 7581,
    "\u25810x40f4": 7582,
    "\u25810x8660": 7583,
    "\u25810xa210": 7584,
    "standardc": 7585,
    "\u25810x110010": 7586,
    "\u25810x403004": 7587,
    "\u25810x121198c": 7588,
    "\u25810x1211b8c": 7589,
    "\u2581movefilea": 7590,
    "standardcatalogs": 7591,
    "264": 7592,
    "usp": 7593,
    "utd": 7594,
    "\u2581ci": 7595,
    "2ca4": 7596,
    "35e0": 7597,
    "39cc": 7598,
    "5892": 7599,
    "5f64": 7600,
    "6fb4": 7601,
    "77fe": 7602,
    "79e8": 7603,
    "ad0c": 7604,
    "b0ac": 7605,
    "b2b1": 7606,
    "ff42": 7607,
    "glti": 7608,
    "leng": 7609,
    "uble": 7610,
    "00003": 7611,
    "38c32": 7612,
    "\u25810x490": 7613,
    "\u25810x53d": 7614,
    "\u25810x854": 7615,
    "\u25810xafc": 7616,
    "\u25814d5a9": 7617,
    "\u25810x5100": 7618,
    "\u25810x19000": 7619,
    "topwindow": 7620,
    "\u25810x4093f1": 7621,
    "\u25810x4093f2": 7622,
    "\u25810x4093f3": 7623,
    "\u25810x40a3d8": 7624,
    "\u25810x410040": 7625,
    "\u25810x416488": 7626,
    "\u2581checking": 7627,
    "\u25810x1210df0": 7628,
    "\u25810x1210e2f": 7629,
    "\u25810x1211094": 7630,
    "\u2581copyfilew": 7631,
    "\u2581utilityto": 7632,
    "\u25814d5a900003": 7633,
    "\u25814d5a90000300000004000000ffff0000": 7634,
    "3f9": 7635,
    "701": 7636,
    "7a4": 7637,
    "7dd": 7638,
    "969": 7639,
    "9fa": 7640,
    "b64": 7641,
    "\u258167": 7642,
    "3f16": 7643,
    "70ce": 7644,
    "a042": 7645,
    "b410": 7646,
    "ckey": 7647,
    "d1d4": 7648,
    "d3a9": 7649,
    "e778": 7650,
    "e960": 7651,
    "f769": 7652,
    "d003c": 7653,
    "nection": 7654,
    "resourc": 7655,
    "\u25810x8a90": 7656,
    "\u2581double": 7657,
    "\u25810xd000c": 7658,
    "\u25810xf000e": 7659,
    "\u25810x130012": 7660,
    "\u25810x150014": 7661,
    "\u25810x170016": 7662,
    "\u25810x190018": 7663,
    "\u25810x1b001a": 7664,
    "\u25810x1d001c": 7665,
    "\u25810x1f001e": 7666,
    "\u25810x210020": 7667,
    "\u25810x250024": 7668,
    "\u25810x270026": 7669,
    "\u25810x3d003c": 7670,
    "\u25810x3f003e": 7671,
    "\u25810x404180": 7672,
    "\u25810x404184": 7673,
    "\u25810x404190": 7674,
    "\u25810x416408": 7675,
    "\u25810x41645c": 7676,
    "\u25810x417cd8": 7677,
    "\u25810x430042": 7678,
    "\u25810x450044": 7679,
    "\u25810x470046": 7680,
    "\u25810x4786e0": 7681,
    "\u25810x490048": 7682,
    "\u25810x4b004a": 7683,
    "\u25810x4d004c": 7684,
    "\u25810x4f004e": 7685,
    "\u25810x510050": 7686,
    "\u25810x530052": 7687,
    "\u25810x1211480": 7688,
    "\u25810x1211e70": 7689,
    "indirectory": 7690,
    "updatecadwork": 7691,
    "326": 7692,
    "396": 7693,
    "f11": 7694,
    "18a3": 7695,
    "2cf9": 7696,
    "349c": 7697,
    "709c": 7698,
    "784d": 7699,
    "a734": 7700,
    "bbed": 7701,
    "f088": 7702,
    "\u2581yap": 7703,
    "43518": 7704,
    "9a6cb": 7705,
    "f002e": 7706,
    "lgitem": 7707,
    "\u25810x10f": 7708,
    "\u25810x550": 7709,
    "\u25810x1860": 7710,
    "\u25810x4040": 7711,
    "\u25810x40df": 7712,
    "\u25810x82d0": 7713,
    "\u25810x24397": 7714,
    "\u25810x290028": 7715,
    "\u25810x2b002a": 7716,
    "\u25810x2d002c": 7717,
    "\u25810x2f002e": 7718,
    "\u25810x404178": 7719,
    "\u25810x5b2bd0": 7720,
    "\u25810x1210e1b": 7721,
    "\u25810x1211cf4": 7722,
    "\u2581attributes": 7723,
    "\u2581charlowerbuffa": 7724,
    "241": 7725,
    "e55": 7726,
    "ioc": 7727,
    "1291": 7728,
    "1787": 7729,
    "187f": 7730,
    "1ded": 7731,
    "28f0": 7732,
    "3fb5": 7733,
    "4b00": 7734,
    "569c": 7735,
    "606e": 7736,
    "7622": 7737,
    "773d": 7738,
    "9091": 7739,
    "939c": 7740,
    "9880": 7741,
    "9cf6": 7742,
    "9dfd": 7743,
    "ad80": 7744,
    "b5cc": 7745,
    "b720": 7746,
    "dd91": 7747,
    "eea1": 7748,
    "\u2581mfc": 7749,
    "69000": 7750,
    "\u25810x427": 7751,
    "\u25810x43d": 7752,
    "\u25810x544": 7753,
    "\u25810x4060": 7754,
    "\u25810x88d0": 7755,
    "\u25810x1211d48": 7756,
    "versioninfoa": 7757,
    "gs": 7758,
    "52c": 7759,
    "686": 7760,
    "2498": 7761,
    "2860": 7762,
    "36ac": 7763,
    "5040": 7764,
    "5840": 7765,
    "7cab": 7766,
    "9538": 7767,
    "c4a0": 7768,
    "ebb0": 7769,
    "f228": 7770,
    "938f3": 7771,
    "ef456": 7772,
    "points": 7773,
    "\u25810x574": 7774,
    "\u25810x680": 7775,
    "\u25810x452c": 7776,
    "\u25810x4650": 7777,
    "\u25810x16000": 7778,
    "\u25810x4c42c0": 7779,
    "\u25810x71e000": 7780,
    "\u25810x1210e1c": 7781,
    "\u25810x1211db0": 7782,
    "\u2581deviceioc": 7783,
    "\u25810xfeee00d8": 7784,
    "\u2581updateregistry": 7785,
    "546": 7786,
    "a2c": 7787,
    "aaa": 7788,
    "02ed": 7789,
    "1390": 7790,
    "32bb": 7791,
    "4656": 7792,
    "56ac": 7793,
    "6cec": 7794,
    "9308": 7795,
    "asyn": 7796,
    "cf77": 7797,
    "1e2f8": 7798,
    "20408": 7799,
    "35b00": 7800,
    "52316": 7801,
    "528e9": 7802,
    "55000": 7803,
    "74dac": 7804,
    "c0775": 7805,
    "cbea8": 7806,
    "ea7c7": 7807,
    "ec46c": 7808,
    "fe5b2": 7809,
    "\u25817z2e": 7810,
    "\u25817z77": 7811,
    "\u25817zff": 7812,
    "02eddc": 7813,
    "171f34": 7814,
    "1deda0": 7815,
    "2c2c67": 7816,
    "606e7c": 7817,
    "7a503e": 7818,
    "7c5826": 7819,
    "fe08e8": 7820,
    "\u25810x980": 7821,
    "\u25817z2e7": 7822,
    "\u25817z34c": 7823,
    "\u25817z74c": 7824,
    "\u25817z8d0": 7825,
    "\u25817zda6": 7826,
    "38c5920": 7827,
    "d956130": 7828,
    "\u25810x4069": 7829,
    "\u25810x4718": 7830,
    "\u25810x8ef0": 7831,
    "\u25810x8f50": 7832,
    "\u25817z3042": 7833,
    "\u25817z30be": 7834,
    "\u25817z50ea": 7835,
    "\u25817z6fb4": 7836,
    "\u25817zca11": 7837,
    "\u25817zcf77": 7838,
    "35b001ac": 7839,
    "528e9d28": 7840,
    "9a6cbea4": 7841,
    "ea7c7ee8": 7842,
    "ef456a04": 7843,
    "\u25817z6da26": 7844,
    "\u25817zfe5b2": 7845,
    "\u25817z02eddc": 7846,
    "\u25817z1deda0": 7847,
    "\u25817z2c2c67": 7848,
    "\u25817z6ec46c": 7849,
    "\u25817z72341f": 7850,
    "\u25817z72b71d": 7851,
    "\u25817z7a503e": 7852,
    "\u25817z7c5826": 7853,
    "\u25817z8938f3": 7854,
    "\u25817zffeb28": 7855,
    "\u25810xfeee00d9": 7856,
    "\u25817z2d956130": 7857,
    "\u25817z2e606e7c": 7858,
    "\u25817z35b001ac": 7859,
    "\u25817z50ea94a8": 7860,
    "\u25817z528e9d28": 7861,
    "\u25817z638c5920": 7862,
    "\u25817z6fb469c0": 7863,
    "\u25817z72171f34": 7864,
    "\u25817z74c20408": 7865,
    "\u25817z77fe08e8": 7866,
    "\u25817z8d01e2f8": 7867,
    "\u25817z9a6cbea4": 7868,
    "\u25817zca11ff34": 7869,
    "\u25817zcf77eaac": 7870,
    "\u25817zda6cbea8": 7871,
    "\u25817zea7c7ee8": 7872,
    "\u25817zef456a04": 7873,
    "stinationdrive": 7874,
    "398": 7875,
    "4c5": 7876,
    "a72": 7877,
    "bc9": 7878,
    "104c": 7879,
    "2041": 7880,
    "33c8": 7881,
    "38ee": 7882,
    "3bd2": 7883,
    "6caa": 7884,
    "6dd4": 7885,
    "7543": 7886,
    "b419": 7887,
    "bf20": 7888,
    "d4e0": 7889,
    "d9c4": 7890,
    "dc93": 7891,
    "ecc4": 7892,
    "f2bc": 7893,
    "scan": 7894,
    "43568": 7895,
    "\u25810x47a": 7896,
    "\u25810x3100": 7897,
    "\u25810x7ed1": 7898,
    "asynckey": 7899,
    "\u2581freesid": 7900,
    "\u25810x40619d": 7901,
    "\u25810x40619e": 7902,
    "\u25810x45d154": 7903,
    "\u25810x10005c64": 7904,
    "\u2581getasynckey": 7905,
    "rl6660dl6660d": 7906,
    "\u2581getasynckeystate": 7907,
    "\u2581readprocessmemory": 7908,
    "14a": 7909,
    "73d": 7910,
    "7a5": 7911,
    "lit": 7912,
    "\u2581eh": 7913,
    "1350": 7914,
    "1f50": 7915,
    "3cee": 7916,
    "4e93": 7917,
    "69b2": 7918,
    "787c": 7919,
    "7a98": 7920,
    "8c80": 7921,
    "bcb3": 7922,
    "bcc7": 7923,
    "e51c": 7924,
    "e7f0": 7925,
    "ec28": 7926,
    "ee9a": 7927,
    "efa2": 7928,
    "f004": 7929,
    "0073e": 7930,
    "2c8bd": 7931,
    "435e4": 7932,
    "79000": 7933,
    "7ef19": 7934,
    "91124": 7935,
    "9c315": 7936,
    "9f931": 7937,
    "a5000": 7938,
    "a7be8": 7939,
    "d45eb": 7940,
    "df931": 7941,
    "385b5c": 7942,
    "4339cc": 7943,
    "51184c": 7944,
    "5610f0": 7945,
    "57b4f9": 7946,
    "7d2465": 7947,
    "b477dd": 7948,
    "e4c038": 7949,
    "f0604c": 7950,
    "f46bc6": 7951,
    "gineer": 7952,
    "length": 7953,
    "option": 7954,
    "\u25810x1a0": 7955,
    "\u25810x244": 7956,
    "\u25810x469": 7957,
    "17e8278": 7958,
    "307f769": 7959,
    "313fcc8": 7960,
    "a042439": 7961,
    "d48e5f4": 7962,
    "manager": 7963,
    "\u25810x79b0": 7964,
    "\u25810x8080": 7965,
    "\u25810x8f30": 7966,
    "0073eac8": 7967,
    "15e435e4": 7968,
    "15f43568": 7969,
    "32bbbd58": 7970,
    "74dac5e8": 7971,
    "773d7b5c": 7972,
    "79e86030": 7973,
    "92283f20": 7974,
    "9f931acc": 7975,
    "cf385b5c": 7976,
    "d49e46d4": 7977,
    "df931ad0": 7978,
    "efa2db10": 7979,
    "17872c8bd": 7980,
    "4339ccaec": 7981,
    "9c051184c": 7982,
    "\u25810x408000": 7983,
    "\u25810x7d2778": 7984,
    "50817e8278": 7985,
    "a02313fcc8": 7986,
    "b477dd79dc": 7987,
    "c0775a7be8": 7988,
    "d48e5f4ffc": 7989,
    "\u25810x1210e23": 7990,
    "\u25817z2e766ec": 7991,
    "15e435e4720": 7992,
    "15f43568721c": 7993,
    "\u25817z02eddca00": 7994,
    "\u2581setconsolec": 7995,
    "a042439f0604c": 7996,
    "\u25817z2c2c679c315": 7997,
    "\u25817z2e606e7c338": 7998,
    "\u25817z35b001ac3ad": 7999,
    "\u25817zfe5b2e4c038": 8000,
    "\u25817z638c592068b2": 8001,
    "\u2581getdateformata": 8002,
    "\u25817z7a503e307f769": 8003,
    "\u2581deviceiocontrol": 8004,
    "\u25817z50ea94a85610f0": 8005,
    "\u25817z528e9d2857b4f9": 8006,
    "\u25817z6da2617872c8bd": 8007,
    "\u25817z6ec46c0073eac8": 8008,
    "\u25817z77fe08e87d2465": 8009,
    "\u25817zef456a04f46bc6": 8010,
    "\u25817z30be15e435e4720": 8011,
    "\u25817zffeb289c051184c": 8012,
    "\u25817z1deda0a02313fcc8": 8013,
    "\u25817z2d95613032bbbd58": 8014,
    "\u25817z2e766ec4339ccaec": 8015,
    "\u25817z304215f43568721c": 8016,
    "\u25817z34ca042439f0604c": 8017,
    "\u25817z6fb469c074dac5e8": 8018,
    "\u25817z72171f34773d7b5c": 8019,
    "\u25817z72341fc0775a7be8": 8020,
    "\u25817z72b71db477dd79dc": 8021,
    "\u25817z74c2040879e86030": 8022,
    "\u25817z7c582650817e8278": 8023,
    "\u25817z8938f3d48e5f4ffc": 8024,
    "\u25817z8d01e2f892283f20": 8025,
    "\u25817z9a6cbea49f931acc": 8026,
    "\u25817zca11ff34cf385b5c": 8027,
    "\u25817zcf77eaacd49e46d4": 8028,
    "\u25817zda6cbea8df931ad0": 8029,
    "\u25817zea7c7ee8efa2db10": 8030,
    "uldnotbelocatedinthed": 8031,
    "ada": 8032,
    "b76": 8033,
    "f10": 8034,
    "f73": 8035,
    "2481": 8036,
    "2f00": 8037,
    "43db": 8038,
    "44a0": 8039,
    "51a1": 8040,
    "72ff": 8041,
    "8278": 8042,
    "9617": 8043,
    "c0c8": 8044,
    "ff86": 8045,
    "513e8": 8046,
    "check": 8047,
    "itmap": 8048,
    "namet": 8049,
    "3f16bc": 8050,
    "\u25810x549": 8051,
    "\u25810x413d": 8052,
    "veupdate": 8053,
    "\u25810x169b7": 8054,
    "\u25810xb84648": 8055,
    "\u25810xb8ef30": 8056,
    "\u25810x1210ef4": 8057,
    "\u25810x1211850": 8058,
    "681": 8059,
    "762": 8060,
    "iff": 8061,
    "\u2581ef": 8062,
    "4367": 8063,
    "5544": 8064,
    "58c6": 8065,
    "9df4": 8066,
    "e010": 8067,
    "f9ef": 8068,
    "3a8ec": 8069,
    "40a37": 8070,
    "438ad": 8071,
    "9374c": 8072,
    "974e9": 8073,
    "9d000": 8074,
    "a3268": 8075,
    "a4b97": 8076,
    "a5884": 8077,
    "b5486": 8078,
    "e4b97": 8079,
    "\u2581play": 8080,
    "2cf992": 8081,
    "37e219": 8082,
    "65dd43": 8083,
    "7a0122": 8084,
    "7c80d8": 8085,
    "7d03d6": 8086,
    "86a4de": 8087,
    "9385ac": 8088,
    "c3b0ac": 8089,
    "d9c4a3": 8090,
    "frompo": 8091,
    "10824ac": 8092,
    "18a7408": 8093,
    "505cdb5": 8094,
    "9112464": 8095,
    "b374d0c": 8096,
    "d3a9504": 8097,
    "dd91184": 8098,
    "\u25810x3500": 8099,
    "\u25810x3b00": 8100,
    "2c3c4367": 8101,
    "38c32728": 8102,
    "3a8ece58": 8103,
    "81438c80": 8104,
    "974e9b5c": 8105,
    "a077ef19": 8106,
    "a4b97708": 8107,
    "d45eb798": 8108,
    "f4c9374c": 8109,
    "\u25810x3b7f4": 8110,
    "438ad26e0": 8111,
    "65dd43ffc": 8112,
    "a58849cf6": 8113,
    "c3b0ace48": 8114,
    "frompoint": 8115,
    "\u25810x6ab800": 8116,
    "2879112464": 8117,
    "2cf9922268": 8118,
    "d05b374d0c": 8119,
    "\u25810x1210fb0": 8120,
    "18a7408a7e6": 8121,
    "b5486dd91184": 8122,
    "2c3c436792000": 8123,
    "6caa438ad26e0": 8124,
    "81438c80d3a9504": 8125,
    "\u25817z1deda0a02313fcc8283": 8126,
    "\u25817z72171f34773d7b5c7c6": 8127,
    "\u25817z74c2040879e860307f0": 8128,
    "\u25817z35b001ac3ad65dd43ffc": 8129,
    "\u25817zffeb289c051184c40a37": 8130,
    "\u25817z528e9d2857b4f9505cdb5": 8131,
    "\u25817z77fe08e87d246510824ac": 8132,
    "\u25817zda6cbea8df931ad0e4b97": 8133,
    "\u25817z2d95613032bbbd5837e219": 8134,
    "\u25817z34ca042439f0604c3f16bc": 8135,
    "\u25817z6da2617872c8bda077ef19": 8136,
    "\u25817z6fb469c074dac5e87a0122": 8137,
    "\u25817z72341fc0775a7be87c80d8": 8138,
    "\u25817z72b71db477dd79dc7d03d6": 8139,
    "\u25817z7a503e307f769a58849cf6": 8140,
    "\u25817z7c582650817e827886a4de": 8141,
    "\u25817z8938f3d48e5f4ffc9385ac": 8142,
    "\u25817zcf77eaacd49e46d4d9c4a3": 8143,
    "\u25817zfe5b2e4c03818a7408a7e6": 8144,
    "\u25817z02eddca0081438c80d3a9504": 8145,
    "\u25817z2c2c679c3152c3c436792000": 8146,
    "\u25817z2e606e7c3386caa438ad26e0": 8147,
    "\u25817z2e766ec4339ccaec38c32728": 8148,
    "\u25817z304215f43568721c3a8ece58": 8149,
    "\u25817z30be15e435e4720c3b0ace48": 8150,
    "\u25817z50ea94a85610f0d05b374d0c": 8151,
    "\u25817z638c592068b2b5486dd91184": 8152,
    "\u25817z6ec46c0073eac82879112464": 8153,
    "\u25817z8d01e2f892283f20974e9b5c": 8154,
    "\u25817z9a6cbea49f931acca4b97708": 8155,
    "\u25817zca11ff34cf385b5cd45eb798": 8156,
    "\u25817zea7c7ee8efa2db10f4c9374c": 8157,
    "\u25817zef456a04f46bc62cf9922268": 8158,
    "235": 8159,
    "52e": 8160,
    "601": 8161,
    "f12": 8162,
    "1e00": 8163,
    "303c": 8164,
    "5b2c": 8165,
    "7552": 8166,
    "86b0": 8167,
    "8897": 8168,
    "9351": 8169,
    "b9e7": 8170,
    "bea0": 8171,
    "c164": 8172,
    "deab": 8173,
    "f49f": 8174,
    "7825c": 8175,
    "90f19": 8176,
    "98378": 8177,
    "ac088": 8178,
    "eeaff": 8179,
    "fbcb4": 8180,
    "\u25810x4d0": 8181,
    "\u25810x41c7": 8182,
    "\u25810x4e40": 8183,
    "\u25810x10011": 8184,
    "\u25810x350034": 8185,
    "\u25810x370036": 8186,
    "\u25810x434000": 8187,
    "\u25810x435402": 8188,
    "\u25810x441804": 8189,
    "\u25810x455120": 8190,
    "\u2581createen": 8191,
    "\u25810x1210e8c": 8192,
    "\u25810x1210f5c": 8193,
    "\u25810x1211904": 8194,
    "\u25810x1211a14": 8195,
    "\u25810x3f75e08": 8196,
    "windowshook": 8197,
    "305": 8198,
    "75d": 8199,
    "cli": 8200,
    "14a8": 8201,
    "19d4": 8202,
    "42f9": 8203,
    "6688": 8204,
    "ac00": 8205,
    "b2e2": 8206,
    "d4d8": 8207,
    "ebc6": 8208,
    "f7af": 8209,
    "ools": 8210,
    "ster": 8211,
    "18822": 8212,
    "201b1": 8213,
    "3dd38": 8214,
    "42d60": 8215,
    "430fd": 8216,
    "43d18": 8217,
    "90038": 8218,
    "9489c": 8219,
    "a9dfd": 8220,
    "bc895": 8221,
    "c8c97": 8222,
    "d0875": 8223,
    "d1576": 8224,
    "dce43": 8225,
    "f277e": 8226,
    "f5e3d": 8227,
    "solid": 8228,
    "14c877": 8229,
    "3b9f7c": 8230,
    "3d7988": 8231,
    "3fb52a": 8232,
    "40312a": 8233,
    "605da9": 8234,
    "74f7ac": 8235,
    "7e3780": 8236,
    "ebc6c8": 8237,
    "18a33e8": 8238,
    "42d60b5": 8239,
    "b48bcb3": 8240,
    "10deeaff": 8241,
    "247f277e": 8242,
    "2481a734": 8243,
    "3dd38330": 8244,
    "3de98378": 8245,
    "70ce9dfd": 8246,
    "72ff6dd4": 8247,
    "88443d18": 8248,
    "943d0875": 8249,
    "9489c352": 8250,
    "9c74f7ac": 8251,
    "a9dfd358": 8252,
    "b00dce43": 8253,
    "d98513e8": 8254,
    "dc7d1576": 8255,
    "f9ef939c": 8256,
    "58c6201b1": 8257,
    "\u25810x390038": 8258,
    "\u25810x3b003a": 8259,
    "18822a3268": 8260,
    "b48bcb3b04": 8261,
    "ba10452316": 8262,
    "e1000f5e3d": 8263,
    "\u25810x1210e18": 8264,
    "\u25810x1210e88": 8265,
    "\u25810x1211914": 8266,
    "\u25810x121191c": 8267,
    "\u25810x1211e88": 8268,
    "a59042d60b5": 8269,
    "ebc6c843518": 8270,
    "\u25810xfeee00d0": 8271,
    "3d798818a33e8": 8272,
    "\u2581getsystemdefaultlangid": 8273,
    "\u25817z8938f3d48e5f4ffc9385ac3898": 8274,
    "\u25817zef456a04f46bc62cf9922268fe": 8275,
    "\u25817z77fe08e87d246510824ac14c877": 8276,
    "\u25817z02eddca0081438c80d3a95041260": 8277,
    "\u25817zda6cbea8df931ad0e4b9770ce9dfd": 8278,
    "\u25817z1deda0a02313fcc8283a59042d60b5": 8279,
    "\u25817z2c2c679c3152c3c4367920003b9f7c": 8280,
    "\u25817z2d95613032bbbd5837e219943d0875": 8281,
    "\u25817z304215f43568721c3a8ece583fb52a": 8282,
    "\u25817z30be15e435e4720c3b0ace4840312a": 8283,
    "\u25817z34ca042439f0604c3f16bc88443d18": 8284,
    "\u25817z35b001ac3ad65dd43ffcba10452316": 8285,
    "\u25817z50ea94a85610f0d05b374d0c605da9": 8286,
    "\u25817z528e9d2857b4f9505cdb558c6201b1": 8287,
    "\u25817z6da2617872c8bda077ef19dc7d1576": 8288,
    "\u25817z6ec46c0073eac828791124647e3780": 8289,
    "\u25817z6fb469c074dac5e87a0122247f277e": 8290,
    "\u25817z72341fc0775a7be87c80d82481a734": 8291,
    "\u25817z74c2040879e860307f0ebc6c843518": 8292,
    "\u25817z7a503e307f769a58849cf69489c352": 8293,
    "\u25817zcf77eaacd49e46d4d9c4a310deeaff": 8294,
    "\u25817zfe5b2e4c03818a7408a7e6b00dce43": 8295,
    "\u25817zffeb289c051184c40a37e1000f5e3d": 8296,
    "\u25817z2e606e7c3386caa438ad26e03dd38330": 8297,
    "\u25817z2e766ec4339ccaec38c327283de98378": 8298,
    "\u25817z638c592068b2b5486dd9118472ff6dd4": 8299,
    "\u25817z72171f34773d7b5c7c63d798818a33e8": 8300,
    "\u25817z72b71db477dd79dc7d03d618822a3268": 8301,
    "\u25817z7c582650817e827886a4deb48bcb3b04": 8302,
    "\u25817z8d01e2f892283f20974e9b5c9c74f7ac": 8303,
    "\u25817z9a6cbea49f931acca4b97708a9dfd358": 8304,
    "\u25817zca11ff34cf385b5cd45eb798d98513e8": 8305,
    "\u25817zea7c7ee8efa2db10f4c9374cf9ef939c": 8306,
    "530": 8307,
    "bb1": 8308,
    "d5d": 8309,
    "f23": 8310,
    "\u2581d0": 8311,
    "7c6c": 8312,
    "9658": 8313,
    "9fad": 8314,
    "a4a0": 8315,
    "a596": 8316,
    "a730": 8317,
    "ates": 8318,
    "b838": 8319,
    "ba24": 8320,
    "ebug": 8321,
    "90537": 8322,
    "offil": 8323,
    "output": 8324,
    "\u25810x423d": 8325,
    "\u25810x4258": 8326,
    "\u25810x5a45": 8327,
    "procedur": 8328,
    "\u25810x310030": 8329,
    "\u25810x330032": 8330,
    "\u25810x697070": 8331,
    "\u2581settimer": 8332,
    "\u25810x1210e1f": 8333,
    "\u25810x1210e68": 8334,
    "\u25810x1210e84": 8335,
    "\u25810x1210e94": 8336,
    "\u25810x1211de8": 8337,
    "\u2581globalfindatoma": 8338,
    "fs": 8339,
    "dc9": 8340,
    "e78": 8341,
    "1478": 8342,
    "1550": 8343,
    "53a8": 8344,
    "74c8": 8345,
    "8499": 8346,
    "961c": 8347,
    "9b3e": 8348,
    "b2bd": 8349,
    "bc26": 8350,
    "fab0": 8351,
    "1d406": 8352,
    "3dedb": 8353,
    "55786": 8354,
    "604a4": 8355,
    "74844": 8356,
    "87508": 8357,
    "89dd2": 8358,
    "96375": 8359,
    "af062": 8360,
    "f1541": 8361,
    "ff15f": 8362,
    "280e40": 8363,
    "42f9df": 8364,
    "5040c5": 8365,
    "543287": 8366,
    "a19b54": 8367,
    "adc0de": 8368,
    "eright": 8369,
    "\u25810x180": 8370,
    "\u25810x4ec": 8371,
    "\u25810x702": 8372,
    "35ddd18": 8373,
    "58405c0": 8374,
    "60e4115": 8375,
    "7874db8": 8376,
    "a844db8": 8377,
    "b87eb80": 8378,
    "e4422ed": 8379,
    "e48ee9a": 8380,
    "f062fc0": 8381,
    "\u25810x4072": 8382,
    "\u25810x7260": 8383,
    "\u25810xffd7": 8384,
    "\u2581manual": 8385,
    "0012f49f": 8386,
    "2c823bd2": 8387,
    "50148499": 8388,
    "7486cd90": 8389,
    "7825ca38": 8390,
    "90f19768": 8391,
    "98455786": 8392,
    "d8496375": 8393,
    "\u25810x8c000": 8394,
    "11d9c8c97": 8395,
    "89dd264ec": 8396,
    "\u25810x4093d4": 8397,
    "5040c5d8b4": 8398,
    "54328711b8": 8399,
    "5c658405c0": 8400,
    "b4835ddd18": 8401,
    "dc67280e40": 8402,
    "e48ee9af48": 8403,
    "\u25810x1210f35": 8404,
    "35cef062fc0": 8405,
    "\u25810xdeadc0de": 8406,
    "\u25810xfeee00d1": 8407,
    "\u25810xfeee00db": 8408,
    "b87eb803dedb": 8409,
    "f15417874db8": 8410,
    "11d9c8c977a00": 8411,
    "ac08889dd264ec": 8412,
    "\u2581manualselection": 8413,
    "\u25817z35b001ac3ad65dd43ffcba10452316604a4": 8414,
    "\u25817z6fb469c074dac5e87a0122247f277e74844": 8415,
    "\u25817z74c2040879e860307f0ebc6c843518bc895": 8416,
    "\u25817z72171f34773d7b5c7c63d798818a33e886b0": 8417,
    "\u25817zca11ff34cf385b5cd45eb798d98513e8deab": 8418,
    "\u25817z2d95613032bbbd5837e219943d0875e4422ed": 8419,
    "\u25817z2e766ec4339ccaec38c327283de98378430fd": 8420,
    "\u25817z304215f43568721c3a8ece583fb52aa844db8": 8421,
    "\u25817z72b71db477dd79dc7d03d618822a326887508": 8422,
    "\u25817z9a6cbea49f931acca4b97708a9dfd358af062": 8423,
    "\u25817zcf77eaacd49e46d4d9c4a310deeaff60e4115": 8424,
    "\u25817zea7c7ee8efa2db10f4c9374cf9ef939cff15f": 8425,
    "\u25817z2e606e7c3386caa438ad26e03dd3833042f9df": 8426,
    "\u25817z30be15e435e4720c3b0ace4840312a98455786": 8427,
    "\u25817z34ca042439f0604c3f16bc88443d18d8496375": 8428,
    "\u25817z6da2617872c8bda077ef19dc7d15762c823bd2": 8429,
    "\u25817z72341fc0775a7be87c80d82481a7347486cd90": 8430,
    "\u25817z8d01e2f892283f20974e9b5c9c74f7aca19b54": 8431,
    "\u25817zef456a04f46bc62cf9922268feb87eb803dedb": 8432,
    "\u25817zfe5b2e4c03818a7408a7e6b00dce430012f49f": 8433,
    "\u25817zffeb289c051184c40a37e1000f5e3d50148499": 8434,
    "\u25817z02eddca0081438c80d3a95041260f15417874db8": 8435,
    "\u25817z1deda0a02313fcc8283a59042d60b554328711b8": 8436,
    "\u25817z2c2c679c3152c3c4367920003b9f7c5040c5d8b4": 8437,
    "\u25817z50ea94a85610f0d05b374d0c605da95c658405c0": 8438,
    "\u25817z528e9d2857b4f9505cdb558c6201b1dc67280e40": 8439,
    "\u25817z638c592068b2b5486dd9118472ff6dd47825ca38": 8440,
    "\u25817z6ec46c0073eac828791124647e3780b4835ddd18": 8441,
    "\u25817z77fe08e87d246510824ac14c87711d9c8c977a00": 8442,
    "\u25817z7a503e307f769a58849cf69489c352e48ee9af48": 8443,
    "\u25817z7c582650817e827886a4deb48bcb3b0490f19768": 8444,
    "\u25817z8938f3d48e5f4ffc9385ac3898ac08889dd264ec": 8445,
    "\u25817zda6cbea8df931ad0e4b9770ce9dfd35cef062fc0": 8446,
    "205": 8447,
    "6d7": 8448,
    "94d": 8449,
    "38f9": 8450,
    "41a1": 8451,
    "46e0": 8452,
    "562c": 8453,
    "6034": 8454,
    "71e0": 8455,
    "9623": 8456,
    "962a": 8457,
    "a442": 8458,
    "a7de": 8459,
    "abb8": 8460,
    "bc6c": 8461,
    "bf70": 8462,
    "58800": 8463,
    "94100": 8464,
    "ad457": 8465,
    "e6ab8": 8466,
    "ecc8c": 8467,
    "ining": 8468,
    "longw": 8469,
    "\u2581susp": 8470,
    "\u2581wave": 8471,
    "\u25810x716": 8472,
    "\u2581space": 8473,
    "\u2581suspend": 8474,
    "\u25810x567020": 8475,
    "freememory": 8476,
    "\u25810x1210a64": 8477,
    "\u25810x1210a84": 8478,
    "\u25810x1210e08": 8479,
    "\u25810x1210f68": 8480,
    "\u25810xfeee00d2": 8481,
    "\u2581suspendthread": 8482,
    "009": 8483,
    "1ae": 8484,
    "922": 8485,
    "929": 8486,
    "9ac": 8487,
    "bdb": 8488,
    "can": 8489,
    "erc": 8490,
    "f9e": 8491,
    "1afb": 8492,
    "287e": 8493,
    "3a43": 8494,
    "5091": 8495,
    "50ee": 8496,
    "60c3": 8497,
    "68c0": 8498,
    "727c": 8499,
    "7c98": 8500,
    "a5b3": 8501,
    "bc2c": 8502,
    "c4d4": 8503,
    "c5a8": 8504,
    "f4d1": 8505,
    "\u2581afx": 8506,
    "\u2581tra": 8507,
    "203c0": 8508,
[...]
