{
    "<pad>": 0,
    "<unk>": 1,
    "<mask>": 2,
    "\u25810": 3,
    "\u25810x": 4,
    "00": 5,
    "er": 6,
    "ne": 7,
    "32": 8,
    "\u2581k": 9,
    "l32": 10,
    "erne": 11,
    "ernel32": 12,
    "\u2581kernel32": 13,
    "\u25810x1": 14,
    "\u25810x0": 15,
    "ti": 16,
    "et": 17,
    "al": 18,
    "ad": 19,
    "ee": 20,
    "000": 21,
    "get": 22,
    "ec": 23,
    "\u25810x7": 24,
    "\u25810x4": 25,
    "re": 26,
    "in": 27,
    "\u25810xf": 28,
    "\u2581get": 29,
    "iti": 30,
    "0000": 31,
    "oc": 32,
    "\u25810x77": 33,
    "tio": 34,
    "eee": 35,
    "\u25810xfeee": 36,
    "tr": 37,
    "ter": 38,
    "sec": 39,
    "cal": 40,
    "sectio": 41,
    "riti": 42,
    "ritical": 43,
    "riticalsectio": 44,
    "ss": 45,
    "le": 46,
    "pr": 47,
    "is": 48,
    "proc": 49,
    "read": 50,
    "ue": 51,
    "\u25810x1000": 52,
    "\u2581is": 53,
    "ecriticalsectio": 54,
    "no": 55,
    "\u2581getproc": 56,
    "readp": 57,
    "en": 58,
    "dre": 59,
    "\u2581in": 60,
    "dress": 61,
    "address": 62,
    "\u2581getprocaddress": 63,
    "ls": 64,
    "val": 65,
    "bad": 66,
    "\u2581isbad": 67,
    "readptr": 68,
    "\u2581isbadreadptr": 69,
    "\u2581no": 70,
    "\u2581none": 71,
    "value": 72,
    "getvalue": 73,
    "lsgetvalue": 74,
    "000000": 75,
    "\u25810xfeee000": 76,
    "a0": 77,
    "ap": 78,
    "\u25810x12": 79,
    "iz": 80,
    "aliz": 81,
    "co": 82,
    "\u25810x77000000": 83,
    "itializ": 84,
    "loc": 85,
    "\u2581initializ": 86,
    "de": 87,
    "\u2581initializecriticalsectio": 88,
    "or": 89,
    "11": 90,
    "nex": 91,
    "\u2581s": 92,
    "\u25810xfa0": 93,
    "\u25810x46": 94,
    "\u25810xfeee00": 95,
    "ff": 96,
    "f0": 97,
    "te": 98,
    "\u25810x2": 99,
    "\u25810x1211": 100,
    "\u2581f": 101,
    "ar": 102,
    "\u25810x8": 103,
    "an": 104,
    "he": 105,
    "\u2581en": 106,
    "us": 107,
    "\u2581initializecriticalsectionex": 108,
    "\u2581t": 109,
    "heap": 110,
    "as": 111,
    "\u2581heap": 112,
    "\u25810xfeee0001": 113,
    "\u25810x770": 114,
    "ror": 115,
    "\u2581tlsgetvalue": 116,
    "alloc": 117,
    "las": 118,
    "laster": 119,
    "lasterror": 120,
    "\u2581c": 121,
    "po": 122,
    "dec": 123,
    "user": 124,
    "poin": 125,
    "pointer": 126,
    "and": 127,
    "\u2581user": 128,
    "\u2581l": 129,
    "48": 130,
    "depointer": 131,
    "\u2581user32": 132,
    "39": 133,
    "\u25810x771": 134,
    "\u2581flsgetvalue": 135,
    "ow": 136,
    "lea": 137,
    "\u2581set": 138,
    "d0": 139,
    "10": 140,
    "90": 141,
    "\u2581heapalloc": 142,
    "nt": 143,
    "\u2581m": 144,
    "ta": 145,
    "\u25810x24": 146,
    "\u25810x2439": 147,
    "\u25810x243948": 148,
    "str": 149,
    "\u2581w": 150,
    "\u25810x41": 151,
    "\u25810x100": 152,
    "\u25810x5": 153,
    "pin": 154,
    "\u25810x42": 155,
    "ing": 156,
    "\u25810x10": 157,
    "fi": 158,
    "terc": 159,
    "ecriticalsection": 160,
    "ex": 161,
    "har": 162,
    "leav": 163,
    "\u2581leav": 164,
    "\u2581leavecriticalsection": 165,
    "string": 166,
    "riticalsection": 167,
    "tercriticalsection": 168,
    "\u2581entercriticalsection": 169,
    "\u2581enco": 170,
    "\u2581encodepointer": 171,
    "mp": 172,
    "\u25810x45": 173,
    "\u2581d": 174,
    "oad": 175,
    "tion": 176,
    "00000": 177,
    "\u2581load": 178,
    "ent": 179,
    "e4": 180,
    "\u2581getlasterror": 181,
    "ac": 182,
    "\u25810x40": 183,
    "\u2581setlasterror": 184,
    "\u25810x45f0": 185,
    "li": 186,
    "hand": 187,
    "\u25810x46f0": 188,
    "fo": 189,
    "by": 190,
    "\u25810x46d0": 191,
    "tu": 192,
    "\u25810x3": 193,
    "ffff": 194,
    "unt": 195,
    "\u25810x4e4": 196,
    "ul": 197,
    "\u2581getc": 198,
    "ess": 199,
    "count": 200,
    "c0": 201,
    "to": 202,
    "\u25810x43": 203,
    "\u25810xc": 204,
    "ys": 205,
    "20": 206,
    "\u2581initializecriticalsection": 207,
    "40": 208,
    "ind": 209,
    "ab": 210,
    "\u25810x7d": 211,
    "\u25810x78": 212,
    "ll": 213,
    "file": 214,
    "ulti": 215,
    "idec": 216,
    "ultiby": 217,
    "idechar": 218,
    "handle": 219,
    "mo": 220,
    "local": 221,
    "ur": 222,
    "ir": 223,
    "ate": 224,
    "10000": 225,
    "50": 226,
    "\u2581gets": 227,
    "du": 228,
    "\u25810x6": 229,
    "30": 230,
    "indow": 231,
    "tem": 232,
    "ed": 233,
    "ystem": 234,
    "\u2581dec": 235,
    "dule": 236,
    "module": 237,
    "\u2581getmodule": 238,
    "\u25810x400000": 239,
    "f8": 240,
    "\u2581deco": 241,
    "\u2581decodepointer": 242,
    "18": 243,
    "me": 244,
    "tom": 245,
    "ands": 246,
    "pincount": 247,
    "andspincount": 248,
    "\u2581initializecriticalsectionandspincount": 249,
    "78": 250,
    "\u2581cre": 251,
    "70": 252,
    "\u25810x10c": 253,
    "b0": 254,
    "exw": 255,
    "pinfo": 256,
    "tet": 257,
    "ment": 258,
    "\u2581dll": 259,
    "d8": 260,
    "on": 261,
    "\u2581g": 262,
    "e0": 263,
    "\u25810xfeee001": 264,
    "yp": 265,
    "indows": 266,
    "\u25810x1211f": 267,
    "br": 268,
    "38": 269,
    "locale": 270,
    "\u2581ms": 271,
    "\u2581getcpinfo": 272,
    "\u2581windows": 273,
    "ary": 274,
    "process": 275,
    "\u2581char": 276,
    "vir": 277,
    "60": 278,
    "\u2581create": 279,
    "\u25810x9": 280,
    "brary": 281,
    "\u2581charnex": 282,
    "fr": 283,
    "\u2581loadstring": 284,
    "ce": 285,
    "\u25810xf00": 286,
    "id": 287,
    "28": 288,
    "\u2581multiby": 289,
    "tetow": 290,
    "tetowidechar": 291,
    "\u2581multibytetowidechar": 292,
    "ri": 293,
    "a5": 294,
    "map": 295,
    "cc": 296,
    "d10000": 297,
    "\u25810x77d10000": 298,
    "lock": 299,
    "rt": 300,
    "64": 301,
    "\u25810xfffff": 302,
    "\u25810x70": 303,
    "tions": 304,
    "\u2581ini": 305,
    "\u25810xfffffff": 306,
    "80": 307,
    "\u2581system": 308,
    "\u2581getst": 309,
    "rent": 310,
    "urrent": 311,
    "\u2581system32": 312,
    "tw": 313,
    "free": 314,
    "98": 315,
    "bc": 316,
    "\u25810x7e": 317,
    "34": 318,
    "\u25810xc000": 319,
    "ge": 320,
    "comp": 321,
    "localein": 322,
    "\u2581getlocalein": 323,
    "temp": 324,
    "\u25810xff": 325,
    "c4": 326,
    "ype": 327,
    "68": 328,
    "ble": 329,
    "\u2581inter": 330,
    "def": 331,
    "th": 332,
    "\u2581lc": 333,
    "tat": 334,
    "tatus": 335,
    "\u2581lcmap": 336,
    "\u2581lcmapstring": 337,
    "ans": 338,
    "\u2581interlock": 339,
    "trans": 340,
    "lo": 341,
    "age": 342,
    "\u2581interlocked": 343,
    "hi": 344,
    "que": 345,
    "rement": 346,
    "\u2581getcpinfoexw": 347,
    "lient": 348,
    "\u25810x243948c": 349,
    "action": 350,
    "library": 351,
    "table": 352,
    "queue": 353,
    "26": 354,
    "dcomp": 355,
    "dcomple": 356,
    "tionstatus": 357,
    "queuedcomple": 358,
    "queuedcompletionstatus": 359,
    "\u2581ddec": 360,
    "\u2581getqueuedcompletionstatus": 361,
    "transaction": 362,
    "\u2581ddeclient": 363,
    "\u2581ddeclienttransaction": 364,
    "tatom": 365,
    "\u2581initatom": 366,
    "\u25810x2439480": 367,
    "\u25810x2439484": 368,
    "\u25810x2439488": 369,
    "\u2581initatomtable": 370,
    "\u2581ap": 371,
    "vc": 372,
    "let": 373,
    "ect": 374,
    "\u25810x1211c": 375,
    "a8": 376,
    "\u25810x88": 377,
    "\u2581msvc": 378,
    "na": 379,
    "69": 380,
    "\u2581getcurrent": 381,
    "pen": 382,
    "\u25810x90": 383,
    "\u2581msvcrt": 384,
    "un": 385,
    "oo": 386,
    "58": 387,
    "rs": 388,
    "fow": 389,
    "1000": 390,
    "\u25810x4690": 391,
    "b8": 392,
    "\u25810x40a5": 393,
    "\u2581heapfree": 394,
    "\u2581loadlibrary": 395,
    "\u25810x1210": 396,
    "ers": 397,
    "it": 398,
    "\u25810xa": 399,
    "\u2581p": 400,
    "handlew": 401,
    "3000": 402,
    "\u2581o": 403,
    "ey": 404,
    "\u2581temp": 405,
    "\u2581getmodulehandlew": 406,
    "virtu": 407,
    "\u25810x12117": 408,
    "virtual": 409,
    "56": 410,
    "ch": 411,
    "con": 412,
    "14": 413,
    "c8": 414,
    "vw": 415,
    "abc": 416,
    "2000": 417,
    "for": 418,
    "\u2581charnextw": 419,
    "kl": 420,
    "nop": 421,
    "time": 422,
    "rite": 423,
    "xy": 424,
    "5000": 425,
    "xyz": 426,
    "\u2581abc": 427,
    "ghi": 428,
    "klm": 429,
    "qrs": 430,
    "tuvw": 431,
    "tuvwxyz": 432,
    "nopqrs": 433,
    "defghi": 434,
    "nopqrstuvwxyz": 435,
    "\u2581abcdefghi": 436,
    "klmnopqrstuvwxyz": 437,
    "\u2581getfi": 438,
    "\u25811": 439,
    "var": 440,
    "\u25810x79": 441,
    "fe": 442,
    "so": 443,
    "\u25810x47": 444,
    "\u25810x80": 445,
    "\u2581loadstringw": 446,
    "mm": 447,
    "\u25810xfeee002": 448,
    "ultibyte": 449,
    "\u2581widechar": 450,
    "tomultibyte": 451,
    "\u2581widechartomultibyte": 452,
    "\u2581re": 453,
    "d4": 454,
    "name": 455,
    "b000": 456,
    "qu": 457,
    "em": 458,
    "a000": 459,
    "7000": 460,
    "f000": 461,
    "7c": 462,
    "\u2581virtual": 463,
    "letype": 464,
    "\u2581getfiletype": 465,
    "\u25810x12119": 466,
    "cmp": 467,
    "d000": 468,
    "sset": 469,
    "\u2581ex": 470,
    "12": 471,
    "thread": 472,
    "\u2581co": 473,
    "key": 474,
    "fc": 475,
    "lsset": 476,
    "lssetvalue": 477,
    "\u2581fls": 478,
    "dhandle": 479,
    "6000": 480,
    "inc": 481,
    "form": 482,
    "\u25810x3f": 483,
    "\u25810x78000000": 484,
    "\u2581interlockedinc": 485,
    "\u2581interlockedincrement": 486,
    "\u25810xfeee0004": 487,
    "i32": 488,
    "\u25810xfeee007": 489,
    "ck": 490,
    "\u2581getstdhandle": 491,
    "9000": 492,
    "\u2581read": 493,
    "\u25810x409": 494,
    "\u25810xfeee004": 495,
    "e000": 496,
    "\u25810x70cc": 497,
    "\u2581loadstringa": 498,
    "\u25810x200": 499,
    "5c": 500,
    "\u25810x44": 501,
    "a4": 502,
    "\u2581mem": 503,
    "\u2581charnexta": 504,
    "\u25810xffffffff": 505,
    "\u25810xcd": 506,
    "\u25810x1211d": 507,
    "sw": 508,
    "vers": 509,
    "tick": 510,
    "\u2581gettick": 511,
    "\u2581gettickcount": 512,
    "\u25810x4610": 513,
    "\u25810x41de": 514,
    "viron": 515,
    "\u25810x7d90": 516,
    "\u2581getsystem": 517,
    "\u25810x18": 518,
    "dir": 519,
    "vironment": 520,
    "\u2581lcmapstringex": 521,
    "ool": 522,
    "\u2581se": 523,
    "\u2581memcmp": 524,
    "quer": 525,
    "\u25810x20": 526,
    "ad0": 527,
    "54": 528,
    "\u25810xfeee008": 529,
    "dd": 530,
    "\u25810x7b": 531,
    "ector": 532,
    "\u2581flssetvalue": 533,
    "\u2581getlocaleinfo": 534,
    "\u25810x41f0": 535,
    "filename": 536,
    "e8": 537,
    "se": 538,
    "\u25810x41f040": 539,
    "\u2581reg": 540,
    "\u25810xfeee0002": 541,
    "e6": 542,
    "\u2581getlocaleinfow": 543,
    "director": 544,
    "74": 545,
    "\u2581flsalloc": 546,
    "\u25810x526": 547,
    "\u2581getmodulehand": 548,
    "ic": 549,
    "\u25810x104": 550,
    "91": 551,
    "b4": 552,
    "\u2581getmodulehandlea": 553,
    "\u2581open": 554,
    "\u25810xfeee006": 555,
    "f4": 556,
    "3c": 557,
    "\u25810x78c": 558,
    "\u25810x78c00000": 559,
    "\u25810xfeee0000": 560,
    "\u2581a": 561,
    "\u25810xf001": 562,
    "\u25810xfeee005": 563,
    "dc": 564,
    "\u25810x5f8": 565,
    "\u25810x5f800000": 566,
    "artu": 567,
    "\u2581getlocaleinfoa": 568,
    "\u25810x4c4": 569,
    "\u2581win": 570,
    "9c": 571,
    "24": 572,
    "2c": 573,
    "versi": 574,
    "arch": 575,
    "\u25810x77e": 576,
    "\u25810x77e10000": 577,
    "readpool": 578,
    "\u25810x800": 579,
    "\u25810x7c": 580,
    "ute": 581,
    "eco": 582,
    "mmand": 583,
    "\u2581l1": 584,
    "line": 585,
    "able": 586,
    "\u25810x7ec": 587,
    "3d": 588,
    "\u25810x7de": 589,
    "stringsw": 590,
    "\u2581getmodulefilename": 591,
    "\u25810xfeee0003": 592,
    "mmandline": 593,
    "94": 594,
    "\u2581getstartu": 595,
    "\u25810x54": 596,
    "\u2581api": 597,
    "sle": 598,
    "\u2581getco": 599,
    "\u25810x8ad0": 600,
    "\u2581getcommandline": 601,
    "\u2581lcmapstringw": 602,
    "res": 603,
    "eex": 604,
    "dbc": 605,
    "filew": 606,
    "dll": 607,
    "da": 608,
    "\u2581clo": 609,
    "\u2581search": 610,
    "\u25810x12115": 611,
    "vironmentstringsw": 612,
    "\u25810x1211e": 613,
    "\u2581loadlibraryexw": 614,
    "\u2581getcurrentthread": 615,
    "ve": 616,
    "\u2581local": 617,
    "byte": 618,
    "slead": 619,
    "\u2581isdbc": 620,
    "\u2581isdbcslead": 621,
    "\u2581isdbcsleadbyte": 622,
    "\u25810xfeee0005": 623,
    "\u2581getcurrentthreadid": 624,
    "\u2581fr": 625,
    "window": 626,
    "vari": 627,
    "\u2581h": 628,
    "\u2581core": 629,
    "\u25810xf003": 630,
    "valid": 631,
    "1c": 632,
    "\u2581ad": 633,
    "\u25810xf002": 634,
    "processor": 635,
    "\u2581b": 636,
    "\u2581apis": 637,
    "ation": 638,
    "\u25810x7a": 639,
    "\u25810x76": 640,
    "\u2581write": 641,
    "api32": 642,
    "\u25810x7700": 643,
    "\u2581li": 644,
    "\u2581adv": 645,
    "\u25810xfeee003": 646,
    "\u2581advapi32": 647,
    "71": 648,
    "b9": 649,
    "\u25810x73": 650,
    "789": 651,
    "\u25810x7708": 652,
    "\u25810x7718": 653,
    "\u25810x7711": 654,
    "es": 655,
    "75": 656,
    "e5": 657,
    "\u2581library": 658,
    "directory": 659,
    "\u25810x120": 660,
    "\u25810x4600": 661,
    "3456": 662,
    "\u2581012": 663,
    "sour": 664,
    "3456789": 665,
    "\u25810123456789": 666,
    "are": 667,
    "\u25810x8a": 668,
    "\u25810x400": 669,
    "ab0": 670,
    "\u25810x7710": 671,
    "il": 672,
    "b7": 673,
    "\u25810x75": 674,
    "\u25810x7704": 675,
    "\u25810x7714": 676,
    "of": 677,
    "\u2581getprocess": 678,
    "\u25812": 679,
    "\u25810x72": 680,
    "vi": 681,
    "\u2581de": 682,
    "a9": 683,
    "write": 684,
    "e2": 685,
    "\u25810x8810": 686,
    "info": 687,
    "\u2581loadlibrarya": 688,
    "\u2581fi": 689,
    "um": 690,
    "35": 691,
    "\u2581getprocessheap": 692,
    "a1": 693,
    "66": 694,
    "\u2581virtualalloc": 695,
    "db": 696,
    "\u2581x": 697,
    "\u25810x71": 698,
    "a2": 699,
    "tin": 700,
    "cep": 701,
    "pres": 702,
    "present": 703,
    "\u2581interlockeddec": 704,
    "\u2581interlockeddecrement": 705,
    "\u2581getversi": 706,
    "fea": 707,
    "\u25810x1c": 708,
    "\u2581var": 709,
    "\u25810x8c": 710,
    "\u25810x4c42": 711,
    "\u2581crea": 712,
    "ist": 713,
    "6c": 714,
    "\u25810x74": 715,
    "type": 716,
    "f1": 717,
    "\u25810x4093": 718,
    "\u2581geten": 719,
    "essage": 720,
    "ture": 721,
    "\u25810x770b": 722,
    "\u25810x7717": 723,
    "\u25810x7707": 724,
    "\u25810x7709": 725,
    "\u25810x7719": 726,
    "\u25810x771b": 727,
    "\u25810x7000": 728,
    "source": 729,
    "\u2581nt": 730,
    "\u25810x9000": 731,
    "feature": 732,
    "\u2581isprocessor": 733,
    "featurepresent": 734,
    "\u2581isprocessorfeaturepresent": 735,
    "\u25810x220": 736,
    "\u2581getcurrentprocess": 737,
    "ception": 738,
    "\u25810xfeee0006": 739,
    "\u25810x4378": 740,
    "\u2581quer": 741,
    "63": 742,
    "\u2581getstring": 743,
    "\u2581page": 744,
    "\u2581getstringtype": 745,
    "yper": 746,
    "forman": 747,
    "yperforman": 748,
    "\u2581queryperforman": 749,
    "\u2581sh": 750,
    "\u25810x48": 751,
    "int": 752,
    "filetime": 753,
    "eric": 754,
    "message": 755,
    "\u25810x8000": 756,
    "\u25810x41dd": 757,
    "\u2581getsystemtime": 758,
    "b5": 759,
    "open": 760,
    "unter": 761,
    "gle": 762,
    "f5": 763,
    "\u25810x770c": 764,
    "ition": 765,
    "\u25810x7706": 766,
    "\u25810x7716": 767,
    "\u25810x7702": 768,
    "\u25810x7705": 769,
    "\u25810x770d": 770,
    "\u25810x7712": 771,
    "\u25810x7715": 772,
    "ceco": 773,
    "dition": 774,
    "cecounter": 775,
    "\u2581queryperformancecounter": 776,
    "f9": 777,
    "a6": 778,
    "tim": 779,
    "pinfow": 780,
    "\u2581getstartupinfow": 781,
    "\u2581readwrite": 782,
    "\u2581getstringtypew": 783,
    "\u25810x14": 784,
    "\u2581localalloc": 785,
    "\u2581goo": 786,
    "\u2581google": 787,
    "\u2581gen": 788,
    "ut": 789,
    "ol": 790,
    "ait": 791,
    "\u25810x437": 792,
    "dex": 793,
    "\u25810x7e70": 794,
    "\u25810x7d91": 795,
    "list": 796,
    "\u25810x42d": 797,
    "\u2581ls": 798,
    "a7": 799,
    "\u2581generic": 800,
    "\u25810xfeee009": 801,
    "asfiletime": 802,
    "\u2581close": 803,
    "4c": 804,
    "\u2581sl": 805,
    "\u2581pf": 806,
    "\u2581hkey": 807,
    "oftw": 808,
    "eep": 809,
    "hel": 810,
    "oftware": 811,
    "hreadpool": 812,
    "up": 813,
    "\u2581sleep": 814,
    "\u2581software": 815,
    "ra": 816,
    "15": 817,
    "uc": 818,
    "\u25810x7701": 819,
    "\u25810x7703": 820,
    "\u25810x770e": 821,
    "\u25810x770f": 822,
    "\u25810x7713": 823,
    "timer": 824,
    "b2": 825,
    "rive": 826,
    "struc": 827,
    "eexw": 828,
    "bo": 829,
    "\u2581lstr": 830,
    "\u25810x42c": 831,
    "ail": 832,
    "390": 833,
    "\u2581getsystemtimeasfiletime": 834,
    "\u25810xfeee0007": 835,
    "directoryw": 836,
    "\u25810x169": 837,
    "set": 838,
    "ting": 839,
    "\u2581gd": 840,
    "fil": 841,
    "\u25810x102": 842,
    "vail": 843,
    "vailable": 844,
    "filea": 845,
    "\u2581getac": 846,
    "code": 847,
    "508": 848,
    "fd": 849,
    "\u2581available": 850,
    "\u2581getmodulefilenamew": 851,
    "\u25810x420": 852,
    "\u2581getacp": 853,
    "\u2581createfilew": 854,
    "19": 855,
    "\u25810x416": 856,
    "67": 857,
    "dexception": 858,
    "\u25810x770a": 859,
    "\u25810x47b0": 860,
    "\u25810x771a": 861,
    "filter": 862,
    "unhandle": 863,
    "dexceptionfilter": 864,
    "unhandledexceptionfilter": 865,
    "29": 866,
    "\u2581instruc": 867,
    "i64": 868,
    "\u2581instructions": 869,
    "\u2581xmm": 870,
    "\u2581xmmi64": 871,
    "aa": 872,
    "\u2581ws": 873,
    "\u2581getcurrentprocessid": 874,
    "\u2581current": 875,
    "\u2581gdi32": 876,
    "ecute": 877,
    "\u2581ac": 878,
    "bd": 879,
    "\u2581createt": 880,
    "\u2581getcommandlinea": 881,
    "\u2581gettemp": 882,
    "\u2581find": 883,
    "\u25810x7f": 884,
    "\u25810x1210f": 885,
    "37": 886,
    "\u2581isvalid": 887,
    "condition": 888,
    "36": 889,
    "\u2581delet": 890,
    "\u25810xfff": 891,
    "\u25810x8d": 892,
    "\u2581regis": 893,
    "la": 894,
    "query": 895,
    "formation": 896,
    "b1": 897,
    "27": 898,
    "\u25810x82": 899,
    "eeen": 900,
    "\u2581freeen": 901,
    "lob": 902,
    "\u2581glob": 903,
    "conso": 904,
    "\u25810x7ec0": 905,
    "55": 906,
    "bf": 907,
    "defa": 908,
    "defaul": 909,
    "\u2581closehandle": 910,
    "ser": 911,
    "ock": 912,
    "\u2581setunhandledexceptionfilter": 913,
    "exa": 914,
    "locales": 915,
    "\u2581getcommandlinew": 916,
    "\u25810x7de0": 917,
    "\u25810x4c": 918,
    "\u2581getenvironmentstringsw": 919,
    "e7": 920,
    "\u2581freeenvironmentstringsw": 921,
    "ies": 922,
    "4000": 923,
    "\u25810x1211c98": 924,
    "\u2581getmodulefilenamea": 925,
    "\u25810x430": 926,
    "\u2581crt": 927,
    "console": 928,
    "\u2581shel": 929,
    "print": 930,
    "88": 931,
    "default": 932,
    "\u25810x69": 933,
    "31": 934,
    "onex": 935,
    "\u25810x7890": 936,
    "f6": 937,
    "\u25810x4ab0": 938,
    "\u2581virtualquery": 939,
    "\u25810x5265c": 940,
    "yn": 941,
    "3e": 942,
    "printf": 943,
    "\u25810xfffffff6": 944,
    "\u25810x41de20": 945,
    "\u25810x12116": 946,
    "\u25810xfffffff5": 947,
    "\u25810xfffffff4": 948,
    "\u25810x7c000000": 949,
    "25": 950,
    "variable": 951,
    "at": 952,
    "\u2581drive": 953,
    "\u2581getversionex": 954,
    "\u25810x41ddd8": 955,
    "be": 956,
    "b6": 957,
    "\u25810x180": 958,
    "\u25810x49": 959,
    "lus": 960,
    "d6": 961,
    "\u25810x435": 962,
    "\u25810x50": 963,
    "ack": 964,
    "om": 965,
    "\u2581writefile": 966,
    "ob": 967,
    "threadpool": 968,
    "information": 969,
    "f7": 970,
    "\u25810x1211b": 971,
    "c000": 972,
    "\u25810x19": 973,
    "d5": 974,
    "\u2581regopen": 975,
    "e9": 976,
    "\u2581regopenkey": 977,
    "from": 978,
    "\u25810xa4": 979,
    "ity": 980,
    "8c": 981,
    "cess": 982,
    "\u25810x30": 983,
    "\u2581setfile": 984,
    "\u25810x1211c18": 985,
    "ile": 986,
    "79": 987,
    "f3": 988,
    "\u2581tmp": 989,
    "\u25810x1804": 990,
    "\u25810x4670": 991,
    "codep": 992,
    "b3": 993,
    "\u2581getconsole": 994,
    "handl": 995,
    "wait": 996,
    "cre": 997,
    "lass": 998,
    "308": 999,
    "codepage": 1000,
    "ynch": 1001,
    "vice": 1002,
    "\u2581execute": 1003,
    "\u2581locales": 1004,
    "\u2581isvalidcodepage": 1005,
    "\u2581synch": 1006,
    "lor": 1007,
    "\u25810x1210e": 1008,
    "d2": 1009,
    "\u25810x1211dc0": 1010,
    "\u2581164": 1011,
    "ib": 1012,
    "ber": 1013,
    "\u25810x7ee": 1014,
    "urs": 1015,
    "\u25810x69000000": 1016,
    "olf": 1017,
    "ba": 1018,
    "\u2581access": 1019,
    "bers": 1020,
    "\u2581free": 1021,
    "st": 1022,
    "\u25810x4c42c0": 1023,
    "76": 1024,
    "\u2581getstartupinfo": 1025,
    "\u2581getstartupinfoa": 1026,
    "messagea": 1027,
    "sc": 1028,
    "color": 1029,
    "\u2581global": 1030,
    "44": 1031,
    "1a": 1032,
    "\u25810x2a": 1033,
    "22": 1034,
    "rw": 1035,
    "\u2581al": 1036,
    "\u25810x4238": 1037,
    "\u25810x12116d8": 1038,
    "\u2581getuser": 1039,
    "\u2581golf": 1040,
    "\u25810x1211918": 1041,
    "d7": 1042,
    "create": 1043,
    "\u2581invalid": 1044,
    "\u25810xe": 1045,
    "processlist": 1046,
    "\u2581getconsoleprocesslist": 1047,
    "17": 1048,
    "secur": 1049,
    "\u25810x1211518": 1050,
    "\u25810x423d": 1051,
    "security": 1052,
    "\u25810x4fe": 1053,
    "\u2581lstrle": 1054,
    "resource": 1055,
    "99": 1056,
    "fa": 1057,
    "\u25810x11": 1058,
    "ton": 1059,
    "\u25810x1211f38": 1060,
    "\u25810x1211748": 1061,
    "8000": 1062,
    "84": 1063,
    "f2": 1064,
    "section": 1065,
    "\u25810x42e5": 1066,
    "boar": 1067,
    "\u25810x1211e0": 1068,
    "\u2581process": 1069,
    "16": 1070,
    "ursor": 1071,
    "\u2581crtdll": 1072,
    "\u2581r": 1073,
    "tor": 1074,
    "\u2581delete": 1075,
    "\u25810x7e71": 1076,
    "\u2581shell32": 1077,
    "\u2581setfilepointer": 1078,
    "directories": 1079,
    "\u25810x41e2": 1080,
    "icon": 1081,
    "\u25810xd": 1082,
    "\u25810x8af0": 1083,
    "\u2581setdefault": 1084,
    "dlldirectories": 1085,
    "\u2581setdefaultdlldirectories": 1086,
    "08": 1087,
    "\u25810xfeee0": 1088,
    "\u25810x771c": 1089,
    "\u2581fibers": 1090,
    "cursor": 1091,
    "\u25810x7810": 1092,
    "version": 1093,
    "\u25810x7910": 1094,
    "ae": 1095,
    "\u25810x4b": 1096,
    "py": 1097,
    "num": 1098,
    "\u25810x56": 1099,
    "\u25810xb": 1100,
    "\u25810x41e218": 1101,
    "\u25810x8811": 1102,
    "rwlock": 1103,
    "\u2581loadcursor": 1104,
    "ical": 1105,
    "\u25810x5265c14": 1106,
    "\u2581getsys": 1107,
    "00c": 1108,
    "\u2581process32": 1109,
    "908": 1110,
    "3f": 1111,
    "gu": 1112,
    "tex": 1113,
    "\u25810x12114": 1114,
    "\u25810x418": 1115,
    "date": 1116,
    "95": 1117,
    "pro": 1118,
    "\u2581gettempw": 1119,
    "bu": 1120,
    "f10000": 1121,
    "\u2581closet": 1122,
    "\u2581closethreadpool": 1123,
    "\u2581createthreadpool": 1124,
    "\u25810x40934": 1125,
    "service": 1126,
    "1e": 1127,
    "\u2581heapcreate": 1128,
    "\u25810x77f10000": 1129,
    "ork": 1130,
    "\u25810x417": 1131,
    "error": 1132,
    "\u2581file": 1133,
    "\u25810x4d": 1134,
    "33": 1135,
    "106": 1136,
    "\u25810xfeee0008": 1137,
    "sa": 1138,
    "\u25810x7ed": 1139,
    "\u2581map": 1140,
    "\u2581ntdll": 1141,
    "\u25810x3000": 1142,
    "fb": 1143,
    "isting": 1144,
    "\u25810x80c0": 1145,
    "hread": 1146,
    "\u2581getversion": 1147,
    "\u25810x79f0": 1148,
    "all": 1149,
    "\u2581existing": 1150,
    "97": 1151,
    "cs": 1152,
    "\u25810xfeee0009": 1153,
    "ro": 1154,
    "\u25810x4e": 1155,
    "\u25810x34": 1156,
    "\u25810xfeee000a": 1157,
    "\u25810xfeee000b": 1158,
    "d1": 1159,
    "\u25810xfeee000c": 1160,
    "board": 1161,
    "vie": 1162,
    "e1": 1163,
    "call": 1164,
    "\u25810xfeee000d": 1165,
    "\u25810xfeee000e": 1166,
    "\u25810xfeee0014": 1167,
    "\u25810xfeee000f": 1168,
    "erw": 1169,
    "bb": 1170,
    "realloc": 1171,
    "\u25810xfeee0010": 1172,
    "\u25810xffc": 1173,
    "\u25810xfeee0015": 1174,
    "\u25810xfeee0013": 1175,
    "\u25810xfeee0012": 1176,
    "\u2581tls": 1177,
    "\u25810xfeee0016": 1178,
    "\u25810xfeee0011": 1179,
    "\u25810x120e6": 1180,
    "\u2581getthread": 1181,
    "\u2581createdirectoryw": 1182,
    "\u2581key": 1183,
    "\u25810x84": 1184,
    "\u2581flsfree": 1185,
    "\u25810x8a40": 1186,
    "db10": 1187,
    "\u2581rt": 1188,
    "\u2581rtl": 1189,
    "\u25810x4a": 1190,
    "firs": 1191,
    "\u2581freelibrary": 1192,
    "back": 1193,
    "db10106": 1194,
    "\u25810x1db10106": 1195,
    "\u25810x32": 1196,
    "\u2581exit": 1197,
    "vic": 1198,
    "\u25810x94": 1199,
    "\u2581str": 1200,
    "lic": 1201,
    "\u25810x4305": 1202,
    "\u25810x13": 1203,
    "trib": 1204,
    "tribute": 1205,
    "raw": 1206,
    "\u25810x41bc": 1207,
    "view": 1208,
    "ho": 1209,
    "\u25810x5266": 1210,
    "vicec": 1211,
    "ask": 1212,
    "\u25810x4750": 1213,
    "met": 1214,
    "9d": 1215,
    "\u25817": 1216,
    "leas": 1217,
    "ttribute": 1218,
    "ive": 1219,
    "\u25810xfeee0017": 1220,
    "\u25810x43b7": 1221,
    "callback": 1222,
    "\u25810xfeee0018": 1223,
    "\u25810x41de50": 1224,
    "\u2581setthreadpool": 1225,
    "a3": 1226,
    "directorya": 1227,
    "\u25810xfeee0019": 1228,
    "\u2581regopenkeyexw": 1229,
    "\u2581heaprealloc": 1230,
    "\u2581registerc": 1231,
    "\u25810x1211738": 1232,
    "\u25810x7ec1": 1233,
    "ating": 1234,
    "lip": 1235,
    "clus": 1236,
    "clusive": 1237,
    "rwlockex": 1238,
    "rwlockexclusive": 1239,
    "aps": 1240,
    "\u25810x7f00": 1241,
    "\u25810x42d4": 1242,
    "try": 1243,
    "achi": 1244,
    "achine": 1245,
    "\u2581machine": 1246,
    "\u25810xfeee001c": 1247,
    "\u25810x1211dfc": 1248,
    "\u25810x83": 1249,
    "\u25810x4feb": 1250,
    "\u25810x7930": 1251,
    "\u2581tlssetvalue": 1252,
    "\u2581fin": 1253,
    "2e": 1254,
    "\u25810x1211e04": 1255,
    "\u2581tlsalloc": 1256,
    "\u2581findre": 1257,
    "\u2581readfile": 1258,
    "d9": 1259,
    "a40": 1260,
    "\u2581golfinfo": 1261,
    "2f8": 1262,
    "\u25810xfeee001a": 1263,
    "\u25810x7de1": 1264,
    "\u25810x1211908": 1265,
    "\u2581bor": 1266,
    "ecount": 1267,
    "\u25810x64": 1268,
    "dr": 1269,
    "ant": 1270,
    "394": 1271,
    "\u25810x428": 1272,
    "\u25810x58": 1273,
    "21": 1274,
    "\u25810x1f": 1275,
    "mask": 1276,
    "handlecount": 1277,
    "\u2581sethandlecount": 1278,
    "\u25810x50000": 1279,
    "lose": 1280,
    "utex": 1281,
    "7e": 1282,
    "men": 1283,
    "\u25810x12114b8": 1284,
    "\u2581getsyscolor": 1285,
    "\u25810x1211718": 1286,
    "9e": 1287,
    "\u2581registerclass": 1288,
    "mem": 1289,
    "close": 1290,
    "\u2581i": 1291,
    "\u2581borl": 1292,
    "ame": 1293,
    "\u25810xfeee001b": 1294,
    "log": 1295,
    "mode": 1296,
    "econ": 1297,
    "qui": 1298,
    "\u25810x7850": 1299,
    "keyw": 1300,
    "\u25810x423": 1301,
    "\u2581borland": 1302,
    "day": 1303,
    "\u25810x92": 1304,
    "ld": 1305,
    "780": 1306,
    "\u25810xa3": 1307,
    "iv": 1308,
    "\u2581releas": 1309,
    "net": 1310,
    "51": 1311,
    "work": 1312,
    "esource": 1313,
    "ico": 1314,
    "initializ": 1315,
    "\u25811646": 1316,
    "wa": 1317,
    "\u25810x8b": 1318,
    "rip": 1319,
    "scrip": 1320,
    "l66": 1321,
    "ver": 1322,
    "45": 1323,
    "\u2581initializes": 1324,
    "\u2581wait": 1325,
    "term": 1326,
    "descrip": 1327,
    "ways": 1328,
    "first": 1329,
    "\u2581mapvirtual": 1330,
    "menu": 1331,
    "descriptor": 1332,
    "\u25810x198": 1333,
    "securitydescriptor": 1334,
    "\u2581mapvirtualkeyw": 1335,
    "\u25810x7ab0": 1336,
    "icona": 1337,
    "eb": 1338,
    "dater": 1339,
    "280": 1340,
    "\u25810xfeee0071": 1341,
    "\u2581always": 1342,
    "number": 1343,
    "\u2581sprintf": 1344,
    "edc": 1345,
    "fromstr": 1346,
    "\u25810x19a": 1347,
    "\u25810x12112f8": 1348,
    "ero": 1349,
    "\u2581wsprintf": 1350,
    "\u25810xfeee001d": 1351,
    "c1": 1352,
    "\u25810x8260": 1353,
    "\u25810x7f8": 1354,
    "loating": 1355,
    "\u2581getenvironment": 1356,
    "l6660": 1357,
    "next": 1358,
    "\u25810x42c4": 1359,
    "dateresource": 1360,
    "\u25810x436": 1361,
    "\u2581waitfor": 1362,
    "180": 1363,
    "\u25810x1211758": 1364,
    "52": 1365,
    "api": 1366,
    "ename": 1367,
    "\u2581vers": 1368,
    "\u25810x700c": 1369,
    "\u2581verset": 1370,
    "conditionmask": 1371,
    "\u2581versetconditionmask": 1372,
    "\u25810x99": 1373,
    "\u2581getfile": 1374,
    "\u25810x1211f64": 1375,
    "b00": 1376,
    "5d": 1377,
    "af": 1378,
    "\u25810x410": 1379,
    "metri": 1380,
    "\u25810x1211c7c": 1381,
    "\u25810x1211528": 1382,
    "metrics": 1383,
    "\u2581getsystemmetrics": 1384,
    "\u25810x704c": 1385,
    "\u2581getversionexw": 1386,
    "\u25810x708c": 1387,
    "72": 1388,
    "lec": 1389,
    "ink": 1390,
    "\u25810x1211958": 1391,
    "ke": 1392,
    "quires": 1393,
    "logical": 1394,
    "\u2581getlogical": 1395,
    "ee0": 1396,
    "quiresrwlockexclusive": 1397,
    "\u25810x4f": 1398,
    "\u2581getthreadlocale": 1399,
    "1d": 1400,
    "c6": 1401,
    "\u25810x7e8": 1402,
    "\u2581creat": 1403,
    "drl6660": 1404,
    "\u25810x4350": 1405,
    "iconw": 1406,
    "ffile": 1407,
    "eg": 1408,
    "end": 1409,
    "96": 1410,
    "\u25810xfeee007e": 1411,
    "atex": 1412,
    "\u25810x4c4308": 1413,
    "\u25810x169b": 1414,
    "iled": 1415,
    "480": 1416,
    "\u2581wi": 1417,
    "77": 1418,
    "\u2581ole": 1419,
    "variab": 1420,
    "\u25810xa0": 1421,
    "pa": 1422,
    "sof": 1423,
    "\u25810x41de08": 1424,
    "\u25810x1211a": 1425,
    "\u2581wa": 1426,
    "pend": 1427,
    "\u2581beg": 1428,
    "nec": 1429,
    "\u2581exitprocess": 1430,
    "localename": 1431,
    "connec": 1432,
    "\u25810xfeee001e": 1433,
    "lipboard": 1434,
    "not": 1435,
    "\u2581createfilea": 1436,
    "\u25810x8cc0": 1437,
    "windowexa": 1438,
    "7d": 1439,
    "semap": 1440,
    "61": 1441,
    "\u25810x4000": 1442,
    "2a": 1443,
    "\u25810x28": 1444,
    "\u2581begin": 1445,
    "\u25810x89": 1446,
    "\u25810xf0019": 1447,
    "c08": 1448,
    "\u2581e": 1449,
    "9f": 1450,
    "\u2581gut": 1451,
    "\u2581gum": 1452,
    "drl6660drl6660": 1453,
    "\u25810x1e": 1454,
    "\u25810x2c": 1455,
    "\u25810x411": 1456,
    "\u25810xcc": 1457,
    "soft": 1458,
    "nw": 1459,
    "offile": 1460,
    "\u25810x1211728": 1461,
    "icro": 1462,
    "conditionvariable": 1463,
    "icrosoft": 1464,
    "formatex": 1465,
    "\u2581lstrlenw": 1466,
    "ub": 1467,
    "\u25810x42a1": 1468,
    "1b": 1469,
    "\u2581createsemap": 1470,
    "\u2581comp": 1471,
    "ace": 1472,
    "\u2581getversionexa": 1473,
    "\u2581microsoft": 1474,
    "namea": 1475,
    "\u2581king": 1476,
    "\u25810x105": 1477,
    "\u25810xfeee001f": 1478,
    "\u25810xfeee0020": 1479,
    "\u25810x7a80": 1480,
    "\u25810x364": 1481,
    "\u25810x4630": 1482,
    "ion": 1483,
    "1f": 1484,
    "lush": 1485,
    "\u25810x1211c90": 1486,
    "\u2581compare": 1487,
    "mutex": 1488,
    "23": 1489,
    "\u25810x42a190": 1490,
    "\u2581floating": 1491,
    "df": 1492,
    "c7": 1493,
    "lw": 1494,
    "\u2581virtualfree": 1495,
    "ttributesw": 1496,
    "memor": 1497,
    "\u2581comparestring": 1498,
    "\u25810x8f": 1499,
    "buff": 1500,
    "\u25810x437b": 1501,
    "\u2581wsprintfw": 1502,
    "lwapi": 1503,
    "\u2581shlwapi": 1504,
    "servicew": 1505,
    "ockob": 1506,
    "\u2581getstockob": 1507,
    "\u2581deletefilew": 1508,
    "kar": 1509,
    "karton": 1510,
    "59": 1511,
    "low": 1512,
    "\u2581fa": 1513,
    "mutexa": 1514,
    "\u25810x7f800": 1515,
    "\u2581kingkarton": 1516,
    "ocket": 1517,
    "\u2581flush": 1518,
    "\u25810x97": 1519,
    "\u2581up": 1520,
    "\u25810x7540": 1521,
    "a256": 1522,
    "\u2581getsystemdirectoryw": 1523,
    "\u2581sha256": 1524,
    "\u25810x569": 1525,
    "\u25810x3394": 1526,
    "trac": 1527,
    "\u25810x1211cf8": 1528,
    "\u2581getdc": 1529,
    "informationby": 1530,
    "mapview": 1531,
    "head": 1532,
    "\u25810x42e5b0": 1533,
    "\u2581loadicona": 1534,
    "\u25810x414": 1535,
    "\u2581loadcursora": 1536,
    "sta": 1537,
    "angu": 1538,
    "buffers": 1539,
    "anguage": 1540,
    "\u25810x3f30": 1541,
    "6f": 1542,
    "\u2581wnet": 1543,
    "\u2581extrac": 1544,
    "2d": 1545,
    "\u2581setmenu": 1546,
    "\u25810x8d00": 1547,
    "listhead": 1548,
    "\u2581initializeslisthead": 1549,
    "paint": 1550,
    "\u25810xfeee00f1": 1551,
    "\u25810x9010": 1552,
    "\u2581currentversion": 1553,
    "ilanguage": 1554,
    "\u25810x1210f35": 1555,
    "\u2581lstrlena": 1556,
    "\u25810x44f8": 1557,
    "memory": 1558,
    "\u2581register": 1559,
    "dateresourcea": 1560,
    "\u2581failed": 1561,
    "de9": 1562,
    "\u2581ntopen": 1563,
    "\u2581ntopensection": 1564,
    "put": 1565,
    "ef": 1566,
    "\u25810x4336": 1567,
    "ns": 1568,
    "\u25810x7bd0": 1569,
    "ea": 1570,
    "\u25810x7990": 1571,
    "\u2581loc": 1572,
    "\u2581localiz": 1573,
    "\u2581localization": 1574,
    "\u25810x17": 1575,
    "\u2581st": 1576,
    "\u2581exe": 1577,
    "\u25810xa000": 1578,
    "\u25810x67": 1579,
    "\u25818": 1580,
    "\u25810x429": 1581,
    "\u25810x42d8": 1582,
    "\u2581vari": 1583,
    "\u25810x23": 1584,
    "\u25810x7150": 1585,
    "\u25810x72a0": 1586,
    "\u2581ole32": 1587,
    "oy": 1588,
    "\u25810x42b0": 1589,
    "eek": 1590,
    "\u25810x73f0": 1591,
    "\u2581setmenuinfo": 1592,
    "cb": 1593,
    "\u258116463": 1594,
    "\u25810x42c508": 1595,
    "\u25810x1211568": 1596,
    "\u25810x2000": 1597,
    "d3": 1598,
    "\u25810x7690": 1599,
    "\u25810x4790": 1600,
    "\u25810x12119c0": 1601,
    "\u25810x77e0": 1602,
    "een": 1603,
    "und": 1604,
    "\u2581findfirst": 1605,
    "\u2581try": 1606,
    "\u25810x1211948": 1607,
    "\u25810x9c": 1608,
    "\u2581regopenkeyexa": 1609,
    "\u25810x4169": 1610,
    "\u25810x43780": 1611,
    "nts": 1612,
    "\u25810x436390": 1613,
    "\u2581loadiconw": 1614,
    "fold": 1615,
    "5f": 1616,
    "\u25810x1211fcc": 1617,
    "\u25810x88a0": 1618,
    "\u2581tryac": 1619,
    "\u2581tryacquiresrwlockexclusive": 1620,
    "\u25810x1211fc8": 1621,
    "\u25810x7d50": 1622,
    "link": 1623,
    "\u25810x42c4d8": 1624,
    "\u25810x38": 1625,
    "flow": 1626,
    "\u25810x1211fc0": 1627,
    "\u25810x439": 1628,
    "\u2581globalalloc": 1629,
    "\u25810x1211f7c": 1630,
    "\u25810x1075": 1631,
    "art": 1632,
    "\u2581getde": 1633,
    "\u2581loadcursorw": 1634,
    "3a": 1635,
    "tun": 1636,
    "\u258120": 1637,
    "sp": 1638,
    "sy": 1639,
    "0000000": 1640,
    "\u25810x1211fd8": 1641,
    "\u2581varb": 1642,
    "\u25817z": 1643,
    "\u25810xfeee0027": 1644,
    "\u25810x7aa0": 1645,
    "prot": 1646,
    "lex": 1647,
    "isp": 1648,
    "\u2581findclose": 1649,
    "\u25810x1211fd0": 1650,
    "top": 1651,
    "\u25810xfeee0026": 1652,
    "\u25810x7d10": 1653,
    "\u2581lstrc": 1654,
    "\u25810xfeee0021": 1655,
    "\u25810x7830": 1656,
    "\u25810x1f4": 1657,
    "\u25810x60": 1658,
    "\u25810xfeee0022": 1659,
    "5e": 1660,
    "\u2581getd": 1661,
    "\u25810x1b": 1662,
    "ision": 1663,
    "\u25810xfeee0023": 1664,
    "\u25810xfeee0024": 1665,
    "220": 1666,
    "vicecaps": 1667,
    "\u2581getdevicecaps": 1668,
    "ord": 1669,
    "\u25810xfeee0025": 1670,
    "e40": 1671,
    "\u25810xfeee008b": 1672,
    "\u2581wake": 1673,
    "ackage": 1674,
    "\u2581wakeall": 1675,
    "\u2581wakeallconditionvariable": 1676,
    "\u25810x1211cc0": 1677,
    "protect": 1678,
    "\u25810x40a5ce": 1679,
    "\u25810x40a5d0": 1680,
    "\u25810x40a5d2": 1681,
    "\u25810x40a5d4": 1682,
    "\u25810x40a5d6": 1683,
    "\u25810x40a5d8": 1684,
    "\u25810x40a5da": 1685,
    "\u25810x214": 1686,
    "dac": 1687,
    "wh": 1688,
    "2f": 1689,
    "ga": 1690,
    "linkw": 1691,
    "\u25810xfde9": 1692,
    "package": 1693,
    "\u2581shellex": 1694,
    "\u25810x41db": 1695,
    "packageid": 1696,
    "\u2581getcurrentpackageid": 1697,
    "\u2581virtualprotect": 1698,
    "65": 1699,
    "\u25810x42d508": 1700,
    "zero": 1701,
    "\u2581copy": 1702,
    "\u2581createwindowexa": 1703,
    "atch": 1704,
    "\u25810x42c5": 1705,
    "\u2581th": 1706,
    "sourc": 1707,
    "\u2581append": 1708,
    "3b": 1709,
    "ock32": 1710,
    "allock": 1711,
    "\u2581wsock32": 1712,
    "708": 1713,
    "\u2581strn": 1714,
    "\u2581lread": 1715,
    "\u25810x4305b0": 1716,
    "\u2581getm": 1717,
    "300": 1718,
    "\u25810x21000": 1719,
    "\u2581comparestringex": 1720,
    "\u2581appendw": 1721,
    "\u2581getlocaleinfoex": 1722,
    "\u2581gettempfilename": 1723,
    "\u25810xfeee005f": 1724,
    "tries": 1725,
    "d04": 1726,
    "econdition": 1727,
    "econditionvariable": 1728,
    "\u2581init": 1729,
    "gd": 1730,
    "help": 1731,
    "\u2581draw": 1732,
    "hor": 1733,
    "\u25814": 1734,
    "\u25810x1211f20": 1735,
    "\u25810x1f400": 1736,
    "mbo": 1737,
    "mbolic": 1738,
    "\u25810x434": 1739,
    "symbolic": 1740,
    "\u25810x3f34": 1741,
    "symboliclinkw": 1742,
    "\u2581createsymboliclinkw": 1743,
    "inal": 1744,
    "\u25810x12118": 1745,
    "\u2581setc": 1746,
    "\u2581start": 1747,
    "\u2581findresourc": 1748,
    "ispatch": 1749,
    "\u25810x42d4d8": 1750,
    "\u25810x435390": 1751,
    "\u2581findresourceexw": 1752,
    "ret": 1753,
    "\u25810xa429": 1754,
    "ed8": 1755,
    "\u2581createprocess": 1756,
    "\u2581strncmp": 1757,
    "2b": 1758,
    "\u2581send": 1759,
    "\u25810x21": 1760,
    "\u25810x4239": 1761,
    "ag": 1762,
    "\u2581gettempfilenamew": 1763,
    "drive": 1764,
    "ati": 1765,
    "\u25810x1211f8": 1766,
    "ordinal": 1767,
    "retur": 1768,
    "ryp": 1769,
    "\u2581ordinal": 1770,
    "\u25810x1211e14": 1771,
    "\u2581globallock": 1772,
    "when": 1773,
    "processwrite": 1774,
    "processornumber": 1775,
    "\u2581flushprocesswrite": 1776,
    "\u2581closethreadpoolwait": 1777,
    "\u2581flushprocesswritebuffers": 1778,
    "\u2581getcurrentprocessornumber": 1779,
    "horeexw": 1780,
    "returns": 1781,
    "callbacks": 1782,
    "whencallback": 1783,
    "timercallbacks": 1784,
    "\u2581setthreadpoolwait": 1785,
    "\u2581waitforthreadpool": 1786,
    "whencallbackreturns": 1787,
    "\u2581createsemaphoreexw": 1788,
    "\u2581setthreadpooltimer": 1789,
    "\u2581closethreadpooltimer": 1790,
    "\u2581createthreadpoolwait": 1791,
    "\u2581createthreadpooltimer": 1792,
    "\u2581freelibrarywhencallbackreturns": 1793,
    "\u2581waitforthreadpooltimercallbacks": 1794,
    "\u2581getfilea": 1795,
    "\u2581peek": 1796,
    "320": 1797,
    "c04": 1798,
    "\u25810x8e": 1799,
    "\u25810x2e": 1800,
    "\u2581setfilea": 1801,
    "\u25810x98": 1802,
    "a04": 1803,
    "ush": 1804,
    "d0a": 1805,
    "\u2581shget": 1806,
    "\u25810x678": 1807,
    "3d8": 1808,
    "\u2581pr": 1809,
    "\u25810x3f75": 1810,
    "variablew": 1811,
    "\u2581ch": 1812,
    "\u25810x1a": 1813,
    "57": 1814,
    "\u25810x4feba8": 1815,
    "696": 1816,
    "stroy": 1817,
    "\u25810xfeee0028": 1818,
    "\u25810x16": 1819,
    "\u25810x78a0": 1820,
    "eck": 1821,
    "tered": 1822,
    "\u2581code": 1823,
    "brush": 1824,
    "\u25810x8230": 1825,
    "\u25810x4371": 1826,
    "64000": 1827,
    "92": 1828,
    "xt": 1829,
    "\u25810x1211bc0": 1830,
    "\u2581setup": 1831,
    "004": 1832,
    "\u25810xc00": 1833,
    "\u2581with": 1834,
    "\u25810xa9": 1835,
    "\u25810x1211e2c": 1836,
    "yo": 1837,
    "\u2581peekmessagea": 1838,
    "\u25810x7090": 1839,
    "\u25810x1211ee0": 1840,
    "\u25816": 1841,
    "gear": 1842,
    "\u2581codegear": 1843,
    "770": 1844,
    "\u2581altered": 1845,
    "ay": 1846,
    "\u2581hgd": 1847,
    "\u2581hgdraw": 1848,
    "point": 1849,
    "\u25810x460": 1850,
    "\u25810x7ae0": 1851,
    "ecomp": 1852,
    "\u2581getlogicaldrive": 1853,
    "servicec": 1854,
    "\u25810x53": 1855,
    "\u25810x12119ac": 1856,
    "6d": 1857,
    "692": 1858,
    "\u2581cryp": 1859,
    "servicectr": 1860,
    "div": 1861,
    "ca": 1862,
    "\u25810x44f9": 1863,
    "588": 1864,
    "atible": 1865,
    "62": 1866,
    "380": 1867,
    "messagew": 1868,
    "\u25810x1211dcc": 1869,
    "\u25810x42e": 1870,
    "ecompatible": 1871,
    "\u2581createcompatible": 1872,
    "\u25810xfeee0040": 1873,
    "\u25810x7300": 1874,
    "\u25810xfeee0072": 1875,
    "\u2581setthread": 1876,
    "alet": 1877,
    "\u25810x5f5": 1878,
    "53": 1879,
    "\u25810xfeee0029": 1880,
    "e6c": 1881,
    "ated": 1882,
    "\u2581process32next": 1883,
    "\u25810x7390": 1884,
    "\u25810x4967": 1885,
    "\u25810x7900": 1886,
    "system": 1887,
    "\u2581getuserdefault": 1888,
    "e66": 1889,
    "\u25810x12113": 1890,
    "\u2581createmutexa": 1891,
    "\u2581getenvironmentvariablew": 1892,
    "\u25810x46b0": 1893,
    "d80": 1894,
    "7b": 1895,
    "\u25810x169bf": 1896,
    "e6b": 1897,
    "\u25810x569b00": 1898,
    "\u25810x1211fd4": 1899,
    "lp": 1900,
    "\u25810x437880": 1901,
    "hot": 1902,
    "\u25810x78d0": 1903,
    "\u25810x22": 1904,
    "\u2581findfirstfilew": 1905,
    "\u25810xb8": 1906,
    "bit": 1907,
    "13": 1908,
    "\u2581initterm": 1909,
    "\u25810x1211f00": 1910,
    "\u25810xfeee002a": 1911,
    "ssoc": 1912,
    "ssoci": 1913,
    "ac000": 1914,
    "\u2581findresource": 1915,
    "\u25810x101": 1916,
    "\u25810x78c0": 1917,
    "bug": 1918,
    "\u25810x419c": 1919,
    "\u25810x7270": 1920,
    "\u25810xfeee005d": 1921,
    "\u2581releasedc": 1922,
    "\u25813": 1923,
    "unmapview": 1924,
    "3c000": 1925,
    "\u25810xa1": 1926,
    "39000": 1927,
    "\u25810x15": 1928,
    "\u25810x7060": 1929,
    "e3": 1930,
    "ini": 1931,
    "sn": 1932,
    "\u2581createa": 1933,
    "eration": 1934,
    "\u25810x71b0": 1935,
    "clipboard": 1936,
    "help32": 1937,
    "oolhelp32": 1938,
    "snaps": 1939,
    "oolhelp32snaps": 1940,
    "\u2581createtoolhelp32snaps": 1941,
    "f04": 1942,
    "\u2581createtoolhelp32snapshot": 1943,
    "\u2581getfileattributesw": 1944,
    "\u25810x7b80": 1945,
    "\u25810x7870": 1946,
    "\u2581enum": 1947,
    "\u2581initialize": 1948,
    "\u25810x85": 1949,
    "verflow": 1950,
    "ac6": 1951,
    "69000": 1952,
    "ecta": 1953,
    "\u25810x422": 1954,
    "a5000": 1955,
    "\u25810x416b": 1956,
    "\u2581getusernamea": 1957,
    "\u2581hton": 1958,
    "\u25810x9a": 1959,
    "connection": 1960,
    "dacl": 1961,
    "securitydescriptordacl": 1962,
    "\u25810x7030": 1963,
    "ain": 1964,
    "\u2581initializesecuritydescriptor": 1965,
    "54000": 1966,
    "2w": 1967,
    "ad000": 1968,
    "188": 1969,
    "\u2581gettime": 1970,
    "strfrom": 1971,
    "connection2w": 1972,
    "\u2581varbstrfrom": 1973,
    "\u2581error": 1974,
    "untime": 1975,
    "\u25810x7ad0": 1976,
    "debug": 1977,
    "own": 1978,
    "\u25810x7b40": 1979,
    "\u25810x25": 1980,
    "lect": 1981,
    "\u25810x7b10": 1982,
    "\u25810x53000": 1983,
    "\u25810x75d0": 1984,
    "\u2581setsecuritydescriptordacl": 1985,
    "\u25810x1211efc": 1986,
    "\u25810x79c0": 1987,
    "\u2581golfset": 1988,
    "tok": 1989,
    "\u25810x71e0": 1990,
    "termin": 1991,
    "\u25810x7f0": 1992,
    "\u25810xa3a7": 1993,
    "chan": 1994,
    "\u25810xfeee0046": 1995,
    "c2": 1996,
    "26000": 1997,
    "icode": 1998,
    "bc000": 1999,
    "b8000": 2000,
    "\u25810x7210": 2001,
    "32000": 2002,
    "\u25810x188": 2003,
    "\u25810x74e0": 2004,
    "ab000": 2005,
    "\u25810x7a50": 2006,
    "ab8": 2007,
    "34000": 2008,
    "\u25810x7750": 2009,
    "\u25810x7240": 2010,
    "24000": 2011,
    "\u25810x72d0": 2012,
    "tassoci": 2013,
    "tassociated": 2014,
    "\u2581extractassociated": 2015,
    "securityinfo": 2016,
    "\u25810x70c0": 2017,
    "9c000": 2018,
    "\u25810x7180": 2019,
    "48000": 2020,
    "\u25810x7120": 2021,
    "\u25810x8090": 2022,
    "de0": 2023,
    "a8000": 2024,
    "6c000": 2025,
    "38000": 2026,
    "7c000": 2027,
    "man": 2028,
    "408": 2029,
    "28000": 2030,
    "56000": 2031,
    "74000": 2032,
    "\u25810x8920": 2033,
    "5c000": 2034,
    "a4000": 2035,
    "\u25810x70f0": 2036,
    "token": 2037,
    "\u2581termin": 2038,
    "\u25810x7330": 2039,
    "icodestring": 2040,
    "\u25810x2f": 2041,
    "\u25810x7600": 2042,
    "\u2581beginup": 2043,
    "b4000": 2044,
    "98000": 2045,
    "ofsection": 2046,
    "\u25810x7480": 2047,
    "\u25810x75a0": 2048,
    "78000": 2049,
    "\u25810x7360": 2050,
    "ast": 2051,
    "\u25810x7a20": 2052,
    "2c000": 2053,
    "initun": 2054,
    "\u25810x7570": 2055,
    "\u25810x7cf0": 2056,
    "\u2581rtlinitun": 2057,
    "\u2581rtlinitunicodestring": 2058,
    "c4000": 2059,
    "58000": 2060,
    "\u25810x7660": 2061,
    "\u25810x7720": 2062,
    "68000": 2063,
    "\u25810x6d": 2064,
    "\u25810x6b": 2065,
    "\u25810x7840": 2066,
    "\u25810x73c0": 2067,
    "\u25810x76f0": 2068,
    "94000": 2069,
    "\u25810x7450": 2070,
    "\u25810x74b0": 2071,
    "\u25810x76c0": 2072,
    "\u25810x4363": 2073,
    "\u25810x7420": 2074,
    "\u25810x7510": 2075,
    "\u25810x7ba0": 2076,
    "\u25810x77b0": 2077,
    "688": 2078,
    "\u25810x86": 2079,
    "\u25810xfeee007c": 2080,
    "lecs": 2081,
    "variablecs": 2082,
    "\u2581sleepcondition": 2083,
    "\u2581sleepconditionvariablecs": 2084,
    "\u25810x7630": 2085,
    "3696": 2086,
    "\u2581deletecriticalsection": 2087,
    "\u25810x7960": 2088,
    "\u25810xfeee002c": 2089,
    "e6669": 2090,
    "\u25810d0a": 2091,
    "e6b692": 2092,
    "\u25810x7780": 2093,
    "3696e6b692": 2094,
    "3696e6b692e6669": 2095,
    "\u25810x42b9": 2096,
    "\u25810x7d0": 2097,
    "\u25810x51": 2098,
    "\u25810x7b70": 2099,
    "\u25810x79d0": 2100,
    "\u258110": 2101,
    "\u2581lock": 2102,
    "\u2581select": 2103,
    "\u25810x3c": 2104,
    "\u25810xfeee002b": 2105,
    "cel": 2106,
    "\u25810x120e": 2107,
    "ysical": 2108,
    "\u25810x3f2000": 2109,
    "\u25810xfeee002d": 2110,
    "\u25810xfeee002f": 2111,
    "hysical": 2112,
    "contr": 2113,
    "\u2581physical": 2114,
    "\u2581update": 2115,
    "\u25810xfeee0074": 2116,
    "ec0": 2117,
    "\u25810xfeee002e": 2118,
    "118": 2119,
    "c5": 2120,
    "\u25810x6781": 2121,
    "\u2581wc": 2122,
    "\u25810x59": 2123,
    "\u25810xfeee006b": 2124,
    "\u25810x66": 2125,
    "\u25810x9030": 2126,
    "\u25810xfeee006d": 2127,
    "\u25810x1211f28": 2128,
    "\u2581txt": 2129,
    "\u25810xfeee01": 2130,
    "tes": 2131,
    "\u25810x68": 2132,
    "valu": 2133,
    "\u25810xfeee0045": 2134,
    "\u25810xfeee0030": 2135,
    "\u2581getdate": 2136,
    "\u25810x42a9": 2137,
    "\u25810x1211dd4": 2138,
    "\u25810x1211780": 2139,
    "sti": 2140,
    "9a": 2141,
    "\u25810x94c0": 2142,
    "\u25810xfeee0031": 2143,
    "\u25810x408": 2144,
    "\u25810x41d": 2145,
    "\u25810xfeee009a": 2146,
    "\u25810x7db0": 2147,
    "\u2581createthread": 2148,
    "\u258132": 2149,
    "6e": 2150,
    "add": 2151,
    "\u25810x47c0": 2152,
    "\u25810xfeee0044": 2153,
    "fer": 2154,
    "\u2581loadresource": 2155,
    "\u258120220": 2156,
    "\u25812022030": 2157,
    "sup": 2158,
    "\u2581of": 2159,
    "\u25810xfeee005e": 2160,
    "\u25810x12117f8": 2161,
    "\u25810x1211508": 2162,
    "\u25810x96": 2163,
    "\u25810x412": 2164,
    "\u25810x420c": 2165,
    "\u2581fo": 2166,
    "\u2581mon": 2167,
    "\u25810x42a9a0": 2168,
    "\u25810x5a": 2169,
    "lphi": 2170,
    "\u2581delphi": 2171,
    "110": 2172,
    "73": 2173,
    "\u25810xfeee0043": 2174,
    "\u25810x48f8": 2175,
    "\u25810xfeee0047": 2176,
    "\u25810x44f8e0": 2177,
    "\u2581po": 2178,
    "\u25810x41bc20": 2179,
    "\u25810x80000000": 2180,
    "\u25810xfeee0033": 2181,
    "\u25810xfeee0032": 2182,
    "\u25810x567": 2183,
    "c9": 2184,
    "folderw": 2185,
    "\u2581enumsystem": 2186,
    "ec8": 2187,
    "\u25810xfeee0035": 2188,
    "\u25810x5f500000": 2189,
    "\u25810xfeee0048": 2190,
    "\u25810xfeee0034": 2191,
    "\u25810xfeee003b": 2192,
    "\u2581coinitializ": 2193,
    "\u2581rec": 2194,
    "infow": 2195,
    "\u25810xfeee0036": 2196,
    "\u25810x4fec": 2197,
    "\u25810x1211928": 2198,
    "\u25810xfeee0037": 2199,
    "\u2581findresourcew": 2200,
    "refer": 2201,
    "\u2581ofresource": 2202,
    "\u2581malloc": 2203,
    "\u25810xfeee0049": 2204,
    "arg": 2205,
    "\u25810xe0": 2206,
    "\u25810x1211578": 2207,
    "\u25810xfeee0038": 2208,
    "\u2581show": 2209,
    "\u25810xfeee0039": 2210,
    "7f": 2211,
    "\u2581fonts": 2212,
    "\u25810xfeee0041": 2213,
    "\u2581lockresource": 2214,
    "\u25810xfeee003f": 2215,
    "text": 2216,
    "5b": 2217,
    "\u25810xd000": 2218,
    "\u25810xfeee0042": 2219,
    "\u25810x1211308": 2220,
    "\u25810xfeee0062": 2221,
    "\u25810x7d95": 2222,
    "\u25810xfeee003a": 2223,
    "\u25810xfeee003d": 2224,
    "\u25810xfeee003e": 2225,
    "\u25810xfeee003c": 2226,
    "stitu": 2227,
    "ubstitu": 2228,
    "ubstitutes": 2229,
    "\u2581fontsubstitutes": 2230,
    "\u25810x4c32": 2231,
    "\u25810x7d94": 2232,
    "\u25810x42dac6": 2233,
    "\u2581createdirectorya": 2234,
    "e08": 2235,
    "\u25810x424": 2236,
    "cad": 2237,
    "\u25810xd0": 2238,
    "\u25810x3e": 2239,
    "\u25810x7be0": 2240,
    "\u25810xfeee0053": 2241,
    "\u25810xfeee0060": 2242,
    "208": 2243,
    "\u25810x40a": 2244,
    "\u25810xfeee0065": 2245,
    "\u2581getsysteminfo": 2246,
    "\u25810xfeee004a": 2247,
    "\u25810xfeee005c": 2248,
    "\u25810xfeee0066": 2249,
    "\u2581enumsystemlocales": 2250,
    "allocate": 2251,
    "\u25810xfeee0067": 2252,
    "\u25810xfeee0061": 2253,
    "\u25810xfeee004d": 2254,
    "\u25810xfeee005a": 2255,
    "isk": 2256,
    "if": 2257,
    "\u25810x42a40": 2258,
    "\u25810xfeee004b": 2259,
    "\u25810xfeee004c": 2260,
    "\u2581getuserdefaultlocalename": 2261,
    "input": 2262,
    "\u25810x121193c": 2263,
    "\u25810xfeee005b": 2264,
    "\u25810xfeee0073": 2265,
    "\u25810xfeee0050": 2266,
    "\u2581enumsystemlocalesex": 2267,
    "\u2581getdateformatex": 2268,
    "\u2581isvalidlocalename": 2269,
    "\u25810xfeee0063": 2270,
    "\u2581gettimeformatex": 2271,
    "\u25810xfeee004e": 2272,
    "\u25810xfeee0055": 2273,
    "\u2581gettickcount64": 2274,
    "\u25810xfeee0054": 2275,
    "\u25810xfeee004f": 2276,
    "\u25810xfeee0051": 2277,
    "\u25810xfeee0052": 2278,
    "\u25810xfeee0068": 2279,
    "e44": 2280,
    "\u25810xfeee0056": 2281,
    "\u25810xfeee0057": 2282,
    "\u25810xfeee0058": 2283,
    "\u25810xfeee0059": 2284,
    "ac0": 2285,
    "\u25810xa2": 2286,
    "\u2581q": 2287,
    "oct": 2288,
    "\u25810x1211f2c": 2289,
    "errormode": 2290,
    "\u2581seterrormode": 2291,
    "656": 2292,
    "leob": 2293,
    "\u25810x4340": 2294,
    "\u25810x29": 2295,
    "\u25810xfeee0064": 2296,
    "\u2581initializeconditionvariable": 2297,
    "7a": 2298,
    "388": 2299,
    "\u25810xfeee0075": 2300,
    "a58": 2301,
    "\u25810xfeee0070": 2302,
    "\u25810xfeee0081": 2303,
    "\u25810x39": 2304,
    "variablea": 2305,
    "cy": 2306,
    "\u2581getmessagea": 2307,
    "\u25810xfeee006c": 2308,
    "sing": 2309,
    "\u25810x41b9": 2310,
    "\u2581windowsnt": 2311,
    "windowproc": 2312,
    "\u25810x655": 2313,
    "\u2581getmain": 2314,
    "\u2581recv": 2315,
    "redu": 2316,
    "referredu": 2317,
    "referreduilanguage": 2318,
    "threadp": 2319,
    "threadpreferreduilanguage": 2320,
    "\u25810xfeee006f": 2321,
    "threadpreferreduilanguages": 2322,
    "\u25810xfeee006e": 2323,
    "\u25810xfeee006a": 2324,
    "\u2581registerclassexa": 2325,
    "ows": 2326,
    "\u25810x1211f34": 2327,
    "\u25810x3f34c0": 2328,
    "\u25810xfeee0069": 2329,
    "\u2581getsystemdirectorya": 2330,
    "\u25810x65500000": 2331,
    "\u2581findnext": 2332,
    "\u25810x7bf0": 2333,
    "\u25810x3bc": 2334,
    "\u25810x7b90": 2335,
    "ata": 2336,
    "nextw": 2337,
    "keyboard": 2338,
    "93": 2339,
    "\u25810x78f0": 2340,
    "\u2581crypt": 2341,
    "\u25810x42b9a0": 2342,
    "\u2581getlogicalprocessor": 2343,
    "\u25810x40a58": 2344,
    "\u2581getlogicalprocessorinformation": 2345,
    "\u25810x7ee0": 2346,
    "\u25810x4c43": 2347,
    "\u25810x4c42d8": 2348,
    "\u25810x4c42f0": 2349,
    "guar": 2350,
    "\u2581getkeyboard": 2351,
    "stack": 2352,
    "\u2581def": 2353,
    "antee": 2354,
    "guarantee": 2355,
    "stackguarantee": 2356,
    "\u2581setthreadstackguarantee": 2357,
    "\u25810x1211fc4": 2358,
    "\u25810x7df0": 2359,
    "\u25810x36": 2360,
    "\u2581process32nextw": 2361,
    "valueexw": 2362,
    "\u25810x40a9": 2363,
    "\u25810x40933d": 2364,
    "\u25810x40933e": 2365,
    "\u2581getfileinformationby": 2366,
    "\u25810x40933f": 2367,
    "\u25810x409340": 2368,
    "\u25810x409341": 2369,
    "\u25810x41f3": 2370,
    "\u25810x409342": 2371,
    "\u25810x409343": 2372,
    "\u2581deletefilea": 2373,
    "\u2581showwindow": 2374,
    "008": 2375,
    "\u2581createw": 2376,
    "9b": 2377,
    "\u2581bat": 2378,
    "6a": 2379,
    "\u25810x6781d8": 2380,
    "\u2581defwindowproc": 2381,
    "ray": 2382,
    "\u2581shellexecute": 2383,
    "reg": 2384,
    "\u25810xfeee0089": 2385,
    "cc8": 2386,
    "singleob": 2387,
    "\u25810x51a": 2388,
    "\u25810x1211bfc": 2389,
    "\u25810x4208": 2390,
    "\u2581san": 2391,
    "\u25810xfeee008a": 2392,
    "\u25810x1211d04": 2393,
    "\u2581app": 2394,
    "\u25810x6c": 2395,
    "\u25810x42e0": 2396,
    "\u2581waitforsingleob": 2397,
    "localtime": 2398,
    "\u2581trans": 2399,
    "b04": 2400,
    "\u2581com": 2401,
    "\u2581end": 2402,
    "\u25810x7cd0": 2403,
    "fe8": 2404,
    "\u2581registry": 2405,
    "\u2581loadlibraryw": 2406,
    "fdr": 2407,
    "\u2581sanfdr": 2408,
    "uter": 2409,
    "windows": 2410,
    "\u2581updatewindow": 2411,
    "\u25810x1211f4c": 2412,
    "f8000": 2413,
    "\u25810xfeee0078": 2414,
    "\u25810xfeee0077": 2415,
    "\u25810xfeee0079": 2416,
    "\u2581getfileinformationbyhandl": 2417,
    "\u25810x1211c04": 2418,
    "\u25810xfeee0076": 2419,
    "computer": 2420,
    "mage": 2421,
    "\u25810x8280": 2422,
    "\u25810xfeee007a": 2423,
    "5a": 2424,
    "\u25810x1211cfc": 2425,
    "vol": 2426,
    "\u25810x433648": 2427,
    "\u25810x8a80": 2428,
    "e04": 2429,
    "\u25810x1211a04": 2430,
    "\u25810x80c4": 2431,
    "\u25810xa8": 2432,
    "\u25810xfeee007f": 2433,
    "\u2581registerwindow": 2434,
    "drl6660drl6660drl6660drl6660": 2435,
    "bitmap": 2436,
    "\u2581beginpaint": 2437,
    "\u2581getlocaltime": 2438,
    "e4000": 2439,
    "stringsa": 2440,
    "pos": 2441,
    "\u25810x1211dc8": 2442,
    "\u2581destroy": 2443,
    "\u2581endpaint": 2444,
    "closekey": 2445,
    "\u2581regclosekey": 2446,
    "load": 2447,
    "\u2581setfileinformationby": 2448,
    "ume": 2449,
    "\u2581createexw": 2450,
    "\u25810x12117e8": 2451,
    "\u2581globalfree": 2452,
    "volume": 2453,
    "\u25810x12117fc": 2454,
    "10c": 2455,
    "\u2581variant": 2456,
    "002": 2457,
    "\u25810x527": 2458,
    "array": 2459,
    "ed4": 2460,
    "\u25810x42fc": 2461,
    "\u2581olea": 2462,
    "ce8": 2463,
    "\u25810x410770": 2464,
    "\u25810xffff": 2465,
    "520": 2466,
    "\u2581exed": 2467,
    "\u2581exedows": 2468,
    "328": 2469,
    "\u25810x1211f30": 2470,
    "cd": 2471,
    "rect": 2472,
    "\u2581post": 2473,
    "quit": 2474,
    "\u25810x4800": 2475,
    "\u25810x43b8": 2476,
    "c3": 2477,
    "\u2581au": 2478,
    "\u25810x8814": 2479,
    "\u2581seten": 2480,
    "d08": 2481,
    "\u2581transl": 2482,
    "\u2581setwindow": 2483,
    "\u25810x404": 2484,
    "\u2581lstrcmp": 2485,
    "140": 2486,
    "\u25810xfeee0080": 2487,
    "ify": 2488,
    "\u25810x1211768": 2489,
    "\u25810x527ed8": 2490,
    "\u25810x4330": 2491,
    "typ": 2492,
    "volumeinformation": 2493,
    "\u2581getvolumeinformation": 2494,
    "host": 2495,
    "ial": 2496,
    "\u2581nov": 2497,
    "b40": 2498,
    "\u2581sep": 2499,
    "\u25810xfeee007d": 2500,
    "\u25810xfeee0095": 2501,
    "6d7": 2502,
    "\u25810x33": 2503,
    "\u25810x418a": 2504,
    "\u25810x423e": 2505,
    "\u2581ver": 2506,
    "tof": 2507,
    "\u25810x42a": 2508,
    "\u25810x8815": 2509,
    "\u25810xfeee008e": 2510,
    "\u2581regset": 2511,
    "\u25810x4bc": 2512,
    "68c": 2513,
    "\u2581apr": 2514,
    "\u2581aug": 2515,
    "ember": 2516,
    "\u25810x60000": 2517,
    "\u2581getenvironmentvariablea": 2518,
    "\u25810x40a2": 2519,
    "ttributesa": 2520,
    "\u2581sun": 2521,
    "mappin": 2522,
    "filemappin": 2523,
    "\u2581registerclassexw": 2524,
    "\u25810x1d": 2525,
    "\u25810xa7": 2526,
    "\u25810xfeee0082": 2527,
    "unlock": 2528,
    "108": 2529,
    "\u25810x42d8c6": 2530,
    "\u25810x4428": 2531,
    "\u2581ws2": 2532,
    "uary": 2533,
    "\u2581may": 2534,
    "\u2581translate": 2535,
    "sday": 2536,
    "\u2581tue": 2537,
    "\u2581wed": 2538,
    "\u25810x5b": 2539,
    "versioninfow": 2540,
    "lon": 2541,
    "teen": 2542,
    "\u25810x7e80": 2543,
    "aletteen": 2544,
    "aletteentries": 2545,
    "state": 2546,
    "\u25810xfeee008c": 2547,
    "\u25810x42a0": 2548,
    "\u2581verify": 2549,
    "726": 2550,
    "\u25810x1211f3c": 2551,
    "utof": 2552,
    "\u2581connec": 2553,
    "spec": 2554,
    "\u25810x1211e08": 2555,
    "\u25810x4340c8": 2556,
    "texta": 2557,
    "\u25810xfeee008d": 2558,
    "\u25810xfeee007b": 2559,
    "varian": 2560,
    "suped": 2561,
    "\u25810x7e74": 2562,
    "\u25810xfeee0084": 2563,
    "\u25810x7e75": 2564,
    "\u2581n": 2565,
    "\u2581dispatch": 2566,
    "\u25810x7e78": 2567,
    "\u25810x4620": 2568,
    "\u25810x7e79": 2569,
    "b7c": 2570,
    "\u25810x7e7c": 2571,
    "rag": 2572,
    "\u25810x7e7d": 2573,
    "\u2581verifyversioninfow": 2574,
    "\u25810x9020": 2575,
    "down": 2576,
    "\u25810x8410": 2577,
    "\u2581getsystemp": 2578,
    "\u2581getsystempaletteentries": 2579,
    "notsuped": 2580,
    "\u2581floatingpoin": 2581,
    "toperation": 2582,
    "byzero": 2583,
    "isionbyzero": 2584,
    "\u2581createfilemappin": 2585,
    "\u25810x7e81": 2586,
    "\u25810x8330": 2587,
    "\u25810x1211cdc": 2588,
    "\u25810x42c0": 2589,
    "namew": 2590,
    "164": 2591,
    "3c0": 2592,
    "\u25810x3e6c": 2593,
    "\u2581er": 2594,
    "\u2581varr": 2595,
    "4fromstr": 2596,
    "\u25810x37": 2597,
    "\u25810x10000": 2598,
    "\u25810x8340": 2599,
    "\u2581contr": 2600,
    "\u25810x7e84": 2601,
    "\u25810x7e85": 2602,
    "\u25810xfeee0087": 2603,
    "\u25810x4e5": 2604,
    "fearray": 2605,
    "\u25810x57": 2606,
    "tou": 2607,
    "\u25810xfeee0088": 2608,
    "\u25810x2d4": 2609,
    "\u25810x1211e40": 2610,
    "\u25810x31": 2611,
    "enum": 2612,
    "textou": 2613,
    "\u25810x431f": 2614,
    "og": 2615,
    "\u25810x52": 2616,
    "\u25810xfeee0083": 2617,
    "\u2581gettempa": 2618,
    "\u25810x4710": 2619,
    "sid": 2620,
    "\u25810x4169c0": 2621,
    "\u25810x4169c1": 2622,
    "\u25810x120e6d4": 2623,
    "\u25810xfeee0085": 2624,
    "\u25810x9d": 2625,
    "\u25810xfeee0086": 2626,
    "\u25810x5f": 2627,
    "pe": 2628,
    "\u25810x4227": 2629,
    "\u2581postquit": 2630,
    "\u2581postquitmessage": 2631,
    "\u25810x9b": 2632,
    "\u2581coinitializeex": 2633,
    "\u2581createfilemappinga": 2634,
    "5d54": 2635,
    "ow64": 2636,
    "\u25810x2d": 2637,
    "\u25810xfeee008f": 2638,
    "\u2581tr": 2639,
    "\u2581registerwindowmessagew": 2640,
    "your": 2641,
    "\u25810x432": 2642,
    "change": 2643,
    "\u25810x9230": 2644,
    "torsa": 2645,
    "torsafearray": 2646,
    "\u25810xfeee0090": 2647,
    "\u25810x3f75f": 2648,
    "\u25810x6a6": 2649,
    "\u25810x41d8": 2650,
    "\u2581translatemessage": 2651,
    "\u25810x40a5dc": 2652,
    "\u25810x40a5cc": 2653,
    "\u25810x5265c28": 2654,
    "\u25810x120e6d0": 2655,
    "\u25810x7d98": 2656,
    "900": 2657,
    "\u25810x4015": 2658,
    "\u2581check": 2659,
    "\u25810x7d99": 2660,
    "114": 2661,
    "\u2581image": 2662,
    "3f8": 2663,
    "\u25810xa5": 2664,
    "\u25810x41de80": 2665,
    "\u25810x1210d": 2666,
    "e68": 2667,
    "\u2581regsetvalueexw": 2668,
    "bc8": 2669,
    "\u2581createprocessa": 2670,
    "\u25810x45fc": 2671,
    "\u2581device": 2672,
    "\u25810x61": 2673,
    "dec8": 2674,
    "\u25810xfeee0092": 2675,
    "\u25810x42ce": 2676,
    "\u2581getcurrentdirectoryw": 2677,
    "\u25810x42c588": 2678,
    "\u25810x9240": 2679,
    "\u25810x41678": 2680,
    "\u25810x1211fdc": 2681,
    "ty": 2682,
    "808": 2683,
    "a44": 2684,
    "\u25810x7da0": 2685,
    "\u25810x169b9": 2686,
    "\u25810x4094": 2687,
    "\u25810x8cf0": 2688,
    "files": 2689,
    "round": 2690,
    "\u2581lstrcpy": 2691,
    "\u2581ge": 2692,
    "6b": 2693,
    "400": 2694,
    "wow64": 2695,
    "\u25810x7d9c": 2696,
    "\u25810x8d10": 2697,
    "\u25810x7d9d": 2698,
    "new": 2699,
    "\u25810x1211ef0": 2700,
    "ad4": 2701,
    "tate": 2702,
    "\u25810x9460": 2703,
    "\u25810x7da1": 2704,
    "\u2581allocate": 2705,
    "\u2581cb": 2706,
    "\u25810xfeee0094": 2707,
    "atet": 2708,
    "tinformation": 2709,
    "nal": 2710,
    "\u2581point": 2711,
    "378": 2712,
    "rata": 2713,
    "\u2581prec": 2714,
    "\u2581errata": 2715,
    "\u2581precision": 2716,
    "\u25810x121194c": 2717,
    "rand": 2718,
    "cf": 2719,
    "\u25810x4960": 2720,
    "\u25810x1211bd0": 2721,
    "\u25810x4054": 2722,
    "\u25810xfeee0091": 2723,
    "\u2581globalunlock": 2724,
    "yarg": 2725,
    "\u25810x7db4": 2726,
    "bl": 2727,
    "\u25810x7da4": 2728,
    "\u25810x7db5": 2729,
    "\u2581mapview": 2730,
    "\u25810x41d7": 2731,
    "\u2581defwindowproca": 2732,
    "\u25810x801000": 2733,
    "\u2581selec": 2734,
    "\u25810x1211c14": 2735,
    "lhandl": 2736,
    "bk": 2737,
    "\u2581getsyscolorbrush": 2738,
    "\u25810xfeee0093": 2739,
    "\u25810x4330c8": 2740,
    "\u2581deleteob": 2741,
    "\u2581res": 2742,
    "\u2581findwindow": 2743,
    "nexec": 2744,
    "\u2581mapviewoffile": 2745,
    "\u2581registerclassa": 2746,
    "\u25810x7de4": 2747,
    "\u25810x7da5": 2748,
    "\u25810x41dda8": 2749,
    "\u25810x800000": 2750,
    "\u25810x41ddc0": 2751,
    "\u2581dispatchmessagea": 2752,
    "f828": 2753,
    "\u25810x4d70": 2754,
    "\u25810x41db74": 2755,
    "\u25810x41db9c": 2756,
    "\u25810x41ddf0": 2757,
    "\u25810xfeee0098": 2758,
    "\u25810x405d54": 2759,
    "tob": 2760,
    "\u25810x41de38": 2761,
    "\u25810x41de68": 2762,
    "\u25810x41de98": 2763,
    "\u25810x41deb0": 2764,
    "\u25810x7de5": 2765,
    "\u25810x41dec8": 2766,
    "\u25810x12117a4": 2767,
    "\u25810x121157c": 2768,
    "\u25810xfeee0099": 2769,
    "\u2581setfileattributesa": 2770,
    "ut32": 2771,
    "\u2581oleaut32": 2772,
    "foreg": 2773,
    "foreground": 2774,
    "b08": 2775,
    "cept": 2776,
    "foregroundwindow": 2777,
    "\u25810xfeee0097": 2778,
    "\u2581sa": 2779,
    "\u25810x40a2d5": 2780,
    "manag": 2781,
    "\u25810xfeee0096": 2782,
    "\u25810x58de": 2783,
    "\u25810x4bd0": 2784,
    "\u25810x81": 2785,
    "\u25810x95": 2786,
    "a0000": 2787,
    "\u25810xfeee009b": 2788,
    "ethread": 2789,
    "\u25810xfeee009c": 2790,
    "788": 2791,
    "\u25810x80e0": 2792,
    "\u25810x7da8": 2793,
    "\u2581copyfilea": 2794,
    "\u2581680": 2795,
    "\u2581drag": 2796,
    "\u25810x84b0": 2797,
    "ust": 2798,
    "a18": 2799,
    "\u2581winexec": 2800,
    "\u25810x8310": 2801,
    "\u2581imagelist": 2802,
    "f08": 2803,
    "\u2581shgetfolderw": 2804,
    "\u25810x48f898": 2805,
    "blt": 2806,
    "\u25810x41d6": 2807,
    "\u2581runtime": 2808,
    "\u25810x4170": 2809,
    "\u25810x423818": 2810,
    "\u25810x7da9": 2811,
    "\u25810x1211f88": 2812,
    "ator": 2813,
    "988": 2814,
    "\u25810x4255": 2815,
    "\u25810x152": 2816,
    "riv": 2817,
    "\u25810x35": 2818,
    "\u25810x2b": 2819,
    "do": 2820,
    "\u25810x416ed": 2821,
    "box": 2822,
    "fec": 2823,
    "\u25810x1211f04": 2824,
    "\u25810xa6": 2825,
    "\u25810x44f928": 2826,
    "\u25810x120fb": 2827,
    "\u2581getcomputer": 2828,
    "am": 2829,
    "\u25810x41f": 2830,
    "42": 2831,
    "\u25810x4189": 2832,
    "\u25810x1211af0": 2833,
    "00a": 2834,
    "bkcolor": 2835,
    "\u2581accept": 2836,
    "\u25810x120e69": 2837,
    "\u25810x41d838": 2838,
    "setinformation": 2839,
    "\u2581selectob": 2840,
    "\u2581textou": 2841,
    "\u25810x8026": 2842,
    "\u25810x41f828": 2843,
    "\u25810x41d6d0": 2844,
    "\u25810x8d80": 2845,
    "\u25810x41d740": 2846,
    "\u25810x41d708": 2847,
    "\u25810x4e50": 2848,
    "\u25810x405461": 2849,
    "\u2581heapsetinformation": 2850,
    "\u25810x8d2": 2851,
    "104": 2852,
    "\u25810x12110": 2853,
    "\u25810x525": 2854,
    "\u2581setfileattributesw": 2855,
    "\u2581iswow64": 2856,
    "\u2581iswow64process": 2857,
    "\u25810x41b": 2858,
    "\u25810x41b910": 2859,
    "\u2581z": 2860,
    "\u2581process32first": 2861,
    "\u25810x7dac": 2862,
    "\u25810x7dad": 2863,
    "hore": 2864,
    "ticon": 2865,
    "ccc": 2866,
    "\u2581op": 2867,
    "\u25810x40f6": 2868,
    "\u25810x1211f48": 2869,
    "a88": 2870,
    "\u25810x7db1": 2871,
    "\u25810x4317": 2872,
    "endoffile": 2873,
    "cc4c": 2874,
    "\u25810x107568": 2875,
    "ystate": 2876,
    "a08": 2877,
    "\u25810x1211938": 2878,
    "\u2581getlogicaldrivestringsa": 2879,
    "\u2581createprocessw": 2880,
    "\u25810x70b8": 2881,
    "\u25810x40152c": 2882,
    "e88": 2883,
    "f0000": 2884,
    "\u25810x1525000": 2885,
    "\u25810x58c0": 2886,
    "lid": 2887,
    "\u2581setbkcolor": 2888,
    "artup": 2889,
    "a17": 2890,
    "\u25810x4270": 2891,
    "\u25810xf0": 2892,
    "terect": 2893,
    "\u25810x11cc4c": 2894,
    "\u2581findnextfilew": 2895,
    "\u2581deletedc": 2896,
    "\u2581getforegroundwindow": 2897,
    "\u25810x97a0": 2898,
    "\u25810x70b86f": 2899,
    "its": 2900,
    "erator": 2901,
    "status": 2902,
    "ger": 2903,
    "\u25810x20000": 2904,
    "servicectrlhandl": 2905,
    "\u2581registerservicectrlhandl": 2906,
    "\u25810x4229": 2907,
    "der": 2908,
    "ee8": 2909,
    "ceff": 2910,
    "\u25810x42cd": 2911,
    "\u2581resum": 2912,
    "\u2581resumethread": 2913,
    "\u25810x4febf0": 2914,
    "\u2581sendmessagea": 2915,
    "\u25810x519": 2916,
    "pyn": 2917,
    "socket": 2918,
    "\u2581lstrcpyn": 2919,
    "\u2581closesocket": 2920,
    "ff8": 2921,
    "emutex": 2922,
    "\u2581releasemutex": 2923,
    "\u25810x42d3d8": 2924,
    "\u2581drawtexta": 2925,
    "d8000": 2926,
    "ternal": 2927,
    "\u2581initializesrwlock": 2928,
    "\u25810x3f4000": 2929,
    "textcolor": 2930,
    "\u2581bit": 2931,
    "aterect": 2932,
    "servicehandle": 2933,
    "\u2581closeservicehandle": 2934,
    "\u2581exitthread": 2935,
    "bar": 2936,
    "scmanag": 2937,
    "\u2581openscmanag": 2938,
    "\u2581setwindowpos": 2939,
    "\u2581unmapview": 2940,
    "\u2581unmapviewoffile": 2941,
    "\u25810x437a": 2942,
    "\u2581mpr": 2943,
    "\u2581createcompatibledc": 2944,
    "\u2581getcomputernamea": 2945,
    "\u25810x3f3000": 2946,
    "lasslon": 2947,
    "\u2581bitblt": 2948,
    "atethread": 2949,
    "numberof": 2950,
    "\u25810x42d390": 2951,
    "\u2581settextcolor": 2952,
    "dup": 2953,
    "can": 2954,
    "\u2581failedto": 2955,
    "\u25810x1f000": 2956,
    "\u2581terminatethread": 2957,
    "\u2581textouta": 2958,
    "\u25810x91": 2959,
    "\u25810x7db9": 2960,
    "\u25810x7db8": 2961,
    "46": 2962,
    "\u25810x7f10": 2963,
    "\u2581createcompatiblebitmap": 2964,
    "esid": 2965,
    "\u25810x42a7": 2966,
    "andinitializ": 2967,
    "andinitializesid": 2968,
    "\u2581allocateandinitializesid": 2969,
    "\u2581he": 2970,
    "ull": 2971,
    "\u25810x7dc8": 2972,
    "\u25810x5d": 2973,
    "\u25810xb4": 2974,
    "ldispatch": 2975,
    "\u2581startservicectr": 2976,
    "\u2581startservicectrldispatch": 2977,
    "\u2581openscmanagerw": 2978,
    "\u2581getke": 2979,
    "\u2581getkeystate": 2980,
    "0x": 2981,
    "\u25810x46e0": 2982,
    "\u2581error0x": 2983,
    "\u2581geticon": 2984,
    "\u2581openservicew": 2985,
    "\u25810x7dbc": 2986,
    "dib": 2987,
    "\u2581startservicectrldispatcherw": 2988,
    "\u2581setservice": 2989,
    "\u2581setservicestatus": 2990,
    "adm": 2991,
    "\u2581srand": 2992,
    "\u25810x7dbd": 2993,
    "\u2581startservicew": 2994,
    "\u2581createservicew": 2995,
    "\u2581ra": 2996,
    "\u2581getdib": 2997,
    "d4000": 2998,
    "\u2581copyfilew": 2999,
    "2ac": 3000,
    "\u2581u": 3001,
    "\u25810x99e0": 3002,
    "\u2581acquiresrwlockexclusive": 3003,
    "\u25810x4315": 3004,
    "\u25810x437ad": 3005,
    "\u25810x437c4": 3006,
    "\u2581work": 3007,
    "eexception": 3008,
    "\u25810x4371e6": 3009,
    "\u25810x4371e7": 3010,
    "cc000": 3011,
    "\u2581rais": 3012,
    "\u2581raiseexception": 3013,
    "inki": 3014,
    "\u2581findwindowa": 3015,
    "\u258174": 3016,
    "b7c3": 3017,
    "enthread": 3018,
    "\u2581hels": 3019,
    "\u2581helsinki": 3020,
    "\u25810x43b7b9": 3021,
    "\u2581createfo": 3022,
    "\u25810x43b7c3": 3023,
    "\u2581openthread": 3024,
    "\u25810xb0": 3025,
    "querys": 3026,
    "488": 3027,
    "\u2581sus": 3028,
    "\u2581freesid": 3029,
    "\u2581suspend": 3030,
    "\u2581getdibits": 3031,
    "\u2581suspendthread": 3032,
    "\u25810x56bb": 3033,
    "\u25810x120ff": 3034,
    "\u2581htons": 3035,
    "utput": 3036,
    "\u25810x4308": 3037,
    "\u2581socket": 3038,
    "\u2581wsast": 3039,
    "\u25810x42e5f8": 3040,
    "\u2581wsastartup": 3041,
    "izn": 3042,
    "\u2581for": 3043,
    "iznadm": 3044,
    "\u2581triznadm": 3045,
    "\u2581getob": 3046,
    "\u25810x3d": 3047,
    "\u25810x2ac": 3048,
    "ntin": 3049,
    "ntindir": 3050,
    "\u2581createfontindir": 3051,
    "ed000": 3052,
    "solid": 3053,
    "\u2581settimer": 3054,
    "\u25810x67000000": 3055,
    "\u2581createdib": 3056,
    "\u2581connect": 3057,
    "\u25810x3f22": 3058,
    "\u25810x51000": 3059,
    "\u25810x567a40": 3060,
    "querysystem": 3061,
    "\u25810x55": 3062,
    "querysysteminformation": 3063,
    "solidbrush": 3064,
    "\u2581createsolidbrush": 3065,
    "b20": 3066,
    "\u2581getusernamew": 3067,
    "utdown": 3068,
    "\u2581invalidaterect": 3069,
    "\u2581fill": 3070,
    "nenum": 3071,
    "\u2581getlogicaldrivestringsw": 3072,
    "\u2581remo": 3073,
    "\u2581gethost": 3074,
    "\u2581getnumberof": 3075,
    "\u2581bind": 3076,
    "\u25810x79a0": 3077,
    "\u2581getnumberofconsole": 3078,
    "tope": 3079,
    "\u2581wne": 3080,
    "\u2581wnetope": 3081,
    "\u2581wnetopenenum": 3082,
    "\u25810x1211b04": 3083,
    "\u2581wnetopenenumw": 3084,
    "wi": 3085,
    "c8000": 3086,
    "\u2581createfontindirecta": 3087,
    "ddata": 3088,
    "lipboar": 3089,
    "lipboarddata": 3090,
    "\u25810x46b3": 3091,
    "\u2581destroyicon": 3092,
    "11000": 3093,
    "\u2581openmutexa": 3094,
    "\u25810x52000": 3095,
    "byname": 3096,
    "\u25810x7a10": 3097,
    "\u25810x6b9": 3098,
    "lasslonga": 3099,
    "hip": 3100,
    "\u25810x4319": 3101,
    "\u2581gethostbyname": 3102,
    "\u25810x7dc0": 3103,
    "members": 3104,
    "membership": 3105,
    "\u2581getkeyboardstate": 3106,
    "\u25810xab": 3107,
    "\u2581wnetadd": 3108,
    "\u2581checktoken": 3109,
    "\u2581checktokenmembership": 3110,
    "resourcew": 3111,
    "\u2581wnetaddconnection2w": 3112,
    "a81": 3113,
    "\u2581wnetenum": 3114,
    "\u2581createsemaphore": 3115,
    "\u2581wnetenumresourcew": 3116,
    "ce000": 3117,
    "\u2581fillrect": 3118,
    "app": 3119,
    "\u25810x4168": 3120,
    "\u25810x7b000": 3121,
    "\u25810x4028": 3122,
    "\u25810x1210f8": 3123,
    "\u2581createdibsection": 3124,
    "\u25810x7f03": 3125,
    "\u2581ntquerysysteminformation": 3126,
    "cancel": 3127,
    "\u2581wnetcancel": 3128,
    "\u2581wnetcancelconnection2w": 3129,
    "freesp": 3130,
    "\u25810x7af0": 3131,
    "\u2581getdisk": 3132,
    "\u2581getdiskfreesp": 3133,
    "\u25810x1e5": 3134,
    "\u25810x4275": 3135,
    "dc000": 3136,
    "26b2": 3137,
    "nexw": 3138,
    "fc000": 3139,
    "\u2581emp": 3140,
    "de000": 3141,
    "\u2581geticoninfo": 3142,
    "\u2581msvcr": 3143,
    "e8000": 3144,
    "\u25810x1f0001": 3145,
    "14000": 3146,
    "\u25810x3a": 3147,
    "\u2581drawicon": 3148,
    "\u25810x3b": 3149,
    "ec000": 3150,
    "\u2581openclipboard": 3151,
    "\u2581setclipboarddata": 3152,
    "\u2581getthreadpreferreduilanguages": 3153,
    "\u2581empty": 3154,
    "\u2581closec": 3155,
    "\u2581closeclipboard": 3156,
    "ecut": 3157,
    "\u2581shellexecut": 3158,
    "\u2581emptyclipboard": 3159,
    "ivi": 3160,
    "ab4": 3161,
    "18000": 3162,
    "\u2581net": 3163,
    "ivile": 3164,
    "\u2581getsecurityinfo": 3165,
    "inac": 3166,
    "ff000": 3167,
    "triesinac": 3168,
    "\u2581setclasslonga": 3169,
    "\u2581setentriesinac": 3170,
    "eto": 3171,
    "\u25810x431998": 3172,
    "f4000": 3173,
    "\u2581shellexecuteexw": 3174,
    "todo": 3175,
    "\u2581extractassociatedicona": 3176,
    "\u2581extractassociatediconw": 3177,
    "ee000": 3178,
    "a6e6": 3179,
    "\u2581list": 3180,
    "\u25810x7c70": 3181,
    "fe000": 3182,
    "geo": 3183,
    "\u2581shutdown": 3184,
    "\u2581rtlzero": 3185,
    "\u2581rtlzeromemory": 3186,
    "76f7": 3187,
    "1c000": 3188,
    "dateresourcew": 3189,
    "\u2581findwindowexa": 3190,
    "\u25810x181b": 3191,
    "\u2581registerservicectrlhandlerw": 3192,
    "\u2581endup": 3193,
    "\u25810x47a0": 3194,
    "\u2581updateresourcea": 3195,
    "unmapviewofsection": 3196,
    "\u2581endupdateresourcea": 3197,
    "\u2581beginupdateresourcea": 3198,
    "geoid": 3199,
    "\u2581getusergeoid": 3200,
    "\u2581setentriesinacla": 3201,
    "tico": 3202,
    "\u2581htonl": 3203,
    "\u2581extractico": 3204,
    "\u2581beginupdateresourcew": 3205,
    "\u2581ntunmapviewofsection": 3206,
    "ntstatus": 3207,
    "\u2581gb": 3208,
    "serror": 3209,
    "todoserror": 3210,
    "\u2581rtlntstatus": 3211,
    "\u2581rtlntstatustodoserror": 3212,
    "inputs": 3213,
    "\u2581getnumberofconsoleinputs": 3214,
    "\u2581ntmapview": 3215,
    "\u2581ntmapviewofsection": 3216,
    "octls": 3217,
    "\u2581ioctls": 3218,
    "\u2581ioctlsocket": 3219,
    "\u25810x7dc1": 3220,
    "\u2581extracticonexw": 3221,
    "\u2581setsecurityinfo": 3222,
    "ct": 3223,
    "\u2581listen": 3224,
    "\u25810x3410c": 3225,
    "f00": 3226,
    "\u25810xca0000": 3227,
    "\u25810x77001000": 3228,
    "\u25810x77002000": 3229,
    "\u25810x77003000": 3230,
    "\u25810x77004000": 3231,
    "\u25810x77005000": 3232,
    "\u25810x77006000": 3233,
    "\u25810x77007000": 3234,
    "\u25810x77008000": 3235,
    "\u25810x77009000": 3236,
    "\u25810x7700a000": 3237,
    "\u25810x7700b000": 3238,
    "\u25810x7700c000": 3239,
    "\u25810x7700d000": 3240,
    "\u25810x7700e000": 3241,
    "\u25810x7700f000": 3242,
    "\u25810x77010000": 3243,
    "\u25810x77011000": 3244,
    "\u25810x77012000": 3245,
    "\u25810x77013000": 3246,
    "\u25810x77014000": 3247,
    "\u25810x77015000": 3248,
    "\u25810x77016000": 3249,
    "\u25810x77017000": 3250,
    "\u25810x77018000": 3251,
    "\u25810x77019000": 3252,
    "\u25810x7701a000": 3253,
    "\u25810x7701b000": 3254,
    "\u25810x7701c000": 3255,
    "\u25810x7701d000": 3256,
    "\u25810x7701e000": 3257,
    "\u25810x7701f000": 3258,
    "\u25810x77020000": 3259,
    "\u25810x77021000": 3260,
    "\u25810x77022000": 3261,
    "\u25810x77023000": 3262,
    "\u25810x77024000": 3263,
    "\u25810x77025000": 3264,
    "\u25810x77026000": 3265,
    "\u25810x77027000": 3266,
    "\u25810x77028000": 3267,
    "\u25810x77029000": 3268,
    "\u25810x7702a000": 3269,
    "\u25810x7702b000": 3270,
    "\u25810x7702c000": 3271,
    "\u25810x7702d000": 3272,
    "\u25810x7702e000": 3273,
    "\u25810x7702f000": 3274,
    "\u25810x77030000": 3275,
    "\u25810x77031000": 3276,
    "\u25810x77032000": 3277,
    "\u25810x77033000": 3278,
    "\u25810x77034000": 3279,
    "\u25810x77035000": 3280,
    "\u25810x77036000": 3281,
    "\u25810x77037000": 3282,
    "\u25810x77038000": 3283,
    "\u25810x77039000": 3284,
    "\u25810x7703a000": 3285,
    "\u25810x7703b000": 3286,
    "\u25810x7703c000": 3287,
    "\u25810x7703d000": 3288,
    "\u25810x7703e000": 3289,
    "\u25810x7703f000": 3290,
    "\u25810x77040000": 3291,
    "\u25810x77041000": 3292,
    "\u25810x77042000": 3293,
    "\u25810x77043000": 3294,
    "\u25810x77044000": 3295,
    "\u25810x77045000": 3296,
    "\u25810x77046000": 3297,
    "\u25810x77047000": 3298,
    "\u25810x77048000": 3299,
    "\u25810x77049000": 3300,
    "\u25810x7704a000": 3301,
    "\u25810x7704b000": 3302,
    "\u25810x7704c000": 3303,
    "\u25810x7704d000": 3304,
    "\u25810x7704e000": 3305,
    "\u25810x7704f000": 3306,
    "\u25810x77050000": 3307,
    "\u25810x77051000": 3308,
    "\u25810x77052000": 3309,
    "\u25810x77053000": 3310,
    "\u25810x77054000": 3311,
    "\u25810x77055000": 3312,
    "\u25810x77056000": 3313,
    "\u25810x77057000": 3314,
    "\u25810x77058000": 3315,
    "\u25810x77059000": 3316,
    "\u25810x7705a000": 3317,
    "\u25810x7705b000": 3318,
    "\u25810x7705c000": 3319,
    "\u25810x7705d000": 3320,
    "\u25810x7705e000": 3321,
    "\u25810x7705f000": 3322,
    "\u25810x77060000": 3323,
    "\u25810x77061000": 3324,
    "\u25810x77062000": 3325,
    "\u25810x77063000": 3326,
    "\u25810x77064000": 3327,
    "\u25810x77065000": 3328,
    "\u25810x77066000": 3329,
    "\u25810x77067000": 3330,
    "\u25810x77068000": 3331,
    "\u25810x77069000": 3332,
    "\u25810x7706a000": 3333,
    "\u25810x7706b000": 3334,
    "\u25810x7706c000": 3335,
    "\u25810x7706d000": 3336,
    "\u25810x7706e000": 3337,
    "\u25810x7706f000": 3338,
    "\u25810x77070000": 3339,
    "\u25810x77071000": 3340,
    "\u25810x77072000": 3341,
    "\u25810x77073000": 3342,
    "\u25810x77074000": 3343,
    "\u25810x77075000": 3344,
    "\u25810x77076000": 3345,
    "\u25810x77077000": 3346,
    "\u25810x77078000": 3347,
    "\u25810x77079000": 3348,
    "\u25810x7707a000": 3349,
    "\u25810x7707b000": 3350,
    "\u25810x7707c000": 3351,
    "\u25810x7707d000": 3352,
    "\u25810x7707e000": 3353,
    "\u25810x7707f000": 3354,
    "\u25810x77080000": 3355,
    "\u25810x77081000": 3356,
    "\u25810x77082000": 3357,
    "\u25810x77083000": 3358,
    "\u25810x77084000": 3359,
    "\u25810x77085000": 3360,
    "\u25810x77086000": 3361,
    "\u25810x77087000": 3362,
    "\u25810x77088000": 3363,
    "\u25810x77089000": 3364,
    "\u25810x7708a000": 3365,
    "\u25810x7708b000": 3366,
    "\u25810x7708c000": 3367,
    "\u25810x7708d000": 3368,
    "\u25810x7708e000": 3369,
    "\u25810x7708f000": 3370,
    "\u25810x77090000": 3371,
    "\u25810x77091000": 3372,
    "\u25810x77092000": 3373,
    "\u25810x77093000": 3374,
    "\u25810x77094000": 3375,
    "\u25810x77095000": 3376,
    "\u25810x77096000": 3377,
    "\u25810x77097000": 3378,
    "\u25810x77098000": 3379,
    "\u25810x77099000": 3380,
    "\u25810x7709a000": 3381,
    "\u25810x7709b000": 3382,
    "\u25810x7709c000": 3383,
    "\u25810x7709d000": 3384,
    "\u25810x7709e000": 3385,
    "\u25810x7709f000": 3386,
    "\u25810x770a0000": 3387,
    "\u25810x770a1000": 3388,
    "\u25810x770a2000": 3389,
    "\u25810x770a3000": 3390,
    "\u25810x770a4000": 3391,
    "\u25810x770a5000": 3392,
    "\u25810x770a6000": 3393,
    "\u25810x770a7000": 3394,
    "\u25810x770a8000": 3395,
    "\u25810x770a9000": 3396,
    "\u25810x770aa000": 3397,
    "\u25810x770ab000": 3398,
    "\u25810x770ac000": 3399,
    "\u25810x770ad000": 3400,
    "\u25810x770ae000": 3401,
    "\u25810x770af000": 3402,
    "\u25810x770b0000": 3403,
    "\u25810x770b1000": 3404,
    "\u25810x770b2000": 3405,
    "\u25810x770b3000": 3406,
    "\u25810x770b4000": 3407,
    "\u25810x770b5000": 3408,
    "\u25810x770b6000": 3409,
    "\u25810x770b7000": 3410,
    "\u25810x770b8000": 3411,
    "\u25810x770b9000": 3412,
    "\u25810x770ba000": 3413,
    "\u25810x770bb000": 3414,
    "\u25810x770bc000": 3415,
    "\u25810x770bd000": 3416,
    "\u25810x770be000": 3417,
    "\u25810x770bf000": 3418,
    "\u25810x770c0000": 3419,
    "\u25810x770c1000": 3420,
    "\u25810x770c2000": 3421,
    "\u25810x770c3000": 3422,
    "\u25810x770c4000": 3423,
    "\u25810x770c5000": 3424,
    "\u25810x770c6000": 3425,
    "\u25810x770c7000": 3426,
    "\u25810x770c8000": 3427,
    "\u25810x770c9000": 3428,
    "\u25810x770ca000": 3429,
    "\u25810x770cb000": 3430,
    "\u25810x770cc000": 3431,
    "\u25810x770cd000": 3432,
    "\u25810x770ce000": 3433,
    "\u25810x770cf000": 3434,
    "\u25810x770d0000": 3435,
    "\u25810x770d1000": 3436,
    "\u25810x770d2000": 3437,
    "\u25810x770d3000": 3438,
    "\u25810x770d4000": 3439,
    "\u25810x770d5000": 3440,
    "\u25810x770d6000": 3441,
    "\u25810x770d7000": 3442,
    "\u25810x770d8000": 3443,
    "\u25810x770d9000": 3444,
    "\u25810x770da000": 3445,
    "\u25810x770db000": 3446,
    "\u25810x770dc000": 3447,
    "\u25810x770dd000": 3448,
    "\u25810x770de000": 3449,
    "\u25810x770df000": 3450,
    "\u25810x770e0000": 3451,
    "\u25810x770e1000": 3452,
    "\u25810x770e2000": 3453,
    "\u25810x770e3000": 3454,
    "\u25810x770e4000": 3455,
    "\u25810x770e5000": 3456,
    "\u25810x770e6000": 3457,
    "\u25810x770e7000": 3458,
    "\u25810x770e8000": 3459,
    "\u25810x770e9000": 3460,
    "\u25810x770ea000": 3461,
    "\u25810x770eb000": 3462,
    "\u25810x770ec000": 3463,
    "\u25810x770ed000": 3464,
    "\u25810x770ee000": 3465,
    "\u25810x770ef000": 3466,
    "\u25810x770f0000": 3467,
    "\u25810x770f1000": 3468,
    "\u25810x770f2000": 3469,
    "\u25810x770f3000": 3470,
    "\u25810x770f4000": 3471,
    "\u25810x770f5000": 3472,
    "\u25810x770f6000": 3473,
    "\u25810x770f7000": 3474,
    "\u25810x770f8000": 3475,
    "\u25810x770f9000": 3476,
    "\u25810x770fa000": 3477,
    "\u25810x770fb000": 3478,
    "\u25810x770fc000": 3479,
    "\u25810x770fd000": 3480,
    "\u25810x770fe000": 3481,
    "\u25810x770ff000": 3482,
    "\u25810x77100000": 3483,
    "\u25810x77101000": 3484,
    "\u25810x77102000": 3485,
    "\u25810x77103000": 3486,
    "\u25810x77104000": 3487,
    "\u25810x77105000": 3488,
    "\u25810x77106000": 3489,
    "\u25810x77107000": 3490,
    "\u25810x77108000": 3491,
    "\u25810x77109000": 3492,
    "\u25810x7710a000": 3493,
    "\u25810x7710b000": 3494,
    "\u25810x7710c000": 3495,
    "\u25810x7710d000": 3496,
    "\u25810x7710e000": 3497,
    "\u25810x7710f000": 3498,
    "\u25810x77110000": 3499,
    "\u25810x77111000": 3500,
    "\u25810x77112000": 3501,
    "\u25810x77113000": 3502,
    "\u25810x77114000": 3503,
    "\u25810x77115000": 3504,
    "\u25810x77116000": 3505,
    "\u25810x77117000": 3506,
    "\u25810x77118000": 3507,
    "\u25810x77119000": 3508,
    "\u25810x7711a000": 3509,
    "\u25810x7711b000": 3510,
    "\u25810x7711c000": 3511,
    "\u25810x7711d000": 3512,
    "\u25810x7711e000": 3513,
    "\u25810x7711f000": 3514,
    "\u25810x77120000": 3515,
    "\u25810x77121000": 3516,
    "\u25810x77122000": 3517,
    "\u25810x77123000": 3518,
    "\u25810x77124000": 3519,
    "\u25810x77125000": 3520,
    "\u25810x77126000": 3521,
    "\u25810x77127000": 3522,
    "\u25810x77128000": 3523,
    "\u25810x77129000": 3524,
    "\u25810x7712a000": 3525,
    "\u25810x7712b000": 3526,
    "\u25810x7712c000": 3527,
    "\u25810x7712d000": 3528,
    "\u25810x7712e000": 3529,
    "\u25810x7712f000": 3530,
    "\u25810x77130000": 3531,
    "\u25810x77131000": 3532,
    "\u25810x77132000": 3533,
    "\u25810x77133000": 3534,
    "\u25810x77134000": 3535,
    "\u25810x77135000": 3536,
    "\u25810x77136000": 3537,
    "\u25810x77137000": 3538,
    "\u25810x77138000": 3539,
    "\u25810x77139000": 3540,
    "\u25810x7713a000": 3541,
    "\u25810x7713b000": 3542,
    "\u25810x7713c000": 3543,
    "\u25810x7713d000": 3544,
    "\u25810x7713e000": 3545,
    "\u25810x7713f000": 3546,
    "\u25810x77140000": 3547,
    "\u25810x77141000": 3548,
    "\u25810x77142000": 3549,
    "\u25810x77143000": 3550,
    "\u25810x77144000": 3551,
    "\u25810x77145000": 3552,
    "\u25810x77146000": 3553,
    "\u25810x77147000": 3554,
    "\u25810x77148000": 3555,
    "\u25810x77149000": 3556,
    "\u25810x7714a000": 3557,
    "\u25810x7714b000": 3558,
    "\u25810x7714c000": 3559,
    "\u25810x7714d000": 3560,
    "\u25810x7714e000": 3561,
    "\u25810x7714f000": 3562,
    "\u25810x77150000": 3563,
    "\u25810x77151000": 3564,
    "\u25810x77152000": 3565,
    "\u25810x77153000": 3566,
    "\u25810x77154000": 3567,
    "\u25810x77155000": 3568,
    "\u25810x77156000": 3569,
    "\u25810x77157000": 3570,
    "\u25810x77158000": 3571,
    "\u25810x77159000": 3572,
    "\u25810x7715a000": 3573,
    "\u25810x7715b000": 3574,
    "\u25810x7715c000": 3575,
    "\u25810x7715d000": 3576,
    "\u25810x7715e000": 3577,
    "\u25810x7715f000": 3578,
    "\u25810x77160000": 3579,
    "\u25810x77161000": 3580,
    "\u25810x77162000": 3581,
    "\u25810x77163000": 3582,
    "\u25810x77164000": 3583,
    "\u25810x77165000": 3584,
    "\u25810x77166000": 3585,
    "\u25810x77167000": 3586,
    "\u25810x77168000": 3587,
    "\u25810x77169000": 3588,
    "\u25810x7716a000": 3589,
    "\u25810x7716b000": 3590,
    "\u25810x7716c000": 3591,
    "\u25810x7716d000": 3592,
    "\u25810x7716e000": 3593,
    "\u25810x7716f000": 3594,
    "\u25810x77170000": 3595,
    "\u25810x77171000": 3596,
    "\u25810x77172000": 3597,
    "\u25810x77173000": 3598,
    "\u25810x77174000": 3599,
    "\u25810x77175000": 3600,
    "\u25810x77176000": 3601,
    "\u25810x77177000": 3602,
    "\u25810x77178000": 3603,
    "\u25810x77179000": 3604,
    "\u25810x7717a000": 3605,
    "\u25810x7717b000": 3606,
    "\u25810x7717c000": 3607,
    "\u25810x7717d000": 3608,
    "\u25810x7717e000": 3609,
    "\u25810x7717f000": 3610,
    "\u25810x77180000": 3611,
    "\u25810x77181000": 3612,
    "\u25810x77182000": 3613,
    "\u25810x77183000": 3614,
    "\u25810x77184000": 3615,
    "\u25810x77185000": 3616,
    "\u25810x77186000": 3617,
    "\u25810x77187000": 3618,
    "\u25810x77188000": 3619,
    "\u25810x77189000": 3620,
    "\u25810x7718a000": 3621,
    "\u25810x7718b000": 3622,
    "\u25810x7718c000": 3623,
    "\u25810x7718d000": 3624,
    "\u25810x7718e000": 3625,
    "\u25810x7718f000": 3626,
    "\u25810x77190000": 3627,
    "\u25810x77191000": 3628,
    "\u25810x77192000": 3629,
    "\u25810x77193000": 3630,
    "\u25810x77194000": 3631,
    "\u25810x77195000": 3632,
    "\u25810x77196000": 3633,
    "\u25810x77197000": 3634,
    "\u25810x77198000": 3635,
    "\u25810x77199000": 3636,
    "\u25810x7719a000": 3637,
    "\u2581physicalmemory": 3638,
    "\u25810x1e00000": 3639,
    "\u25810x1e50000": 3640,
    "\u25810x7719b000": 3641,
    "\u25810x7719c000": 3642,
    "\u25810x7719d000": 3643,
    "\u25810x7719e000": 3644,
    "\u25810x7719f000": 3645,
    "\u25810x771a0000": 3646,
    "\u25810x771a1000": 3647,
    "\u25810x771a2000": 3648,
    "\u25810x771a3000": 3649,
    "\u25810x771a4000": 3650,
    "\u25810x771a5000": 3651,
    "\u25810x771a6000": 3652,
    "\u25810x771a7000": 3653,
    "\u25810x771a8000": 3654,
    "\u25810x771a9000": 3655,
    "\u25810x771aa000": 3656,
    "\u25810x771ab000": 3657,
    "\u25810x771ac000": 3658,
    "\u25810x771ad000": 3659,
    "\u25810x771ae000": 3660,
    "\u25810x771af000": 3661,
    "\u25810x771b0000": 3662,
    "\u25810x771b1000": 3663,
    "\u25810x771b2000": 3664,
    "\u25810x771b3000": 3665,
    "\u25810x771b4000": 3666,
    "\u25810x771b5000": 3667,
    "\u25810x771b6000": 3668,
    "\u25810x771b7000": 3669,
    "\u25810x771b8000": 3670,
    "\u25810x771b9000": 3671,
    "\u25810x771ba000": 3672,
    "\u25810x771bb000": 3673,
    "\u25810x771bc000": 3674,
    "\u25810x771bd000": 3675,
    "\u25810x771be000": 3676,
    "\u25810x771bf000": 3677,
    "\u25810x771c0000": 3678,
    "\u25810x771c1000": 3679,
    "\u25810x771c2000": 3680,
    "\u25810x771c3000": 3681,
    "\u25810x771c4000": 3682,
    "\u25810x771c5000": 3683,
    "\u25810x771c6000": 3684,
    "268": 3685,
    "debugger": 3686,
    "\u2581getpe": 3687,
    "ername": 3688,
    "\u25810x4730": 3689,
    "\u2581getpeername": 3690,
    "\u25810xb0000": 3691,
    "debuggerpresent": 3692,
    "656c7": 3693,
    "72697": 3694,
    "1646d7": 3695,
    "\u2581776f7": 3696,
    "26b2e68": 3697,
    "\u25817472697": 3698,
    "a6e61646d7": 3699,
    "26b2e68656c7": 3700,
    "\u25817472697a6e61646d7": 3701,
    "\u2581776f726b2e68656c7": 3702,
    "\u25817472697a6e61646d73696e6b692e6669": 3703,
    "\u2581776f726b2e68656c73696e6b692e6669": 3704,
    "\u25810x40a3": 3705,
    "slen": 3706,
    "\u25810x421": 3707,
    "\u2581wcslen": 3708,
    "\u25810x2ac45": 3709,
    "\u25810x40287e": 3710,
    "\u25810x7de8": 3711,
    "\u25810x28c": 3712,
    "\u25810xa42a": 3713,
    "\u25810x26": 3714,
    "\u25810x5c": 3715,
    "\u25810xad": 3716,
    "folder": 3717,
    "\u2581shellexecutew": 3718,
    "\u25810x7de9": 3719,
    "\u25810x40935": 3720,
    "\u25810x169b7": 3721,
    "\u25810x1211cec": 3722,
    "prog": 3723,
    "\u25810x43540": 3724,
    "\u2581isdebuggerpresent": 3725,
    "\u25810x7dec": 3726,
    "\u25810x7ef0": 3727,
    "cp": 3728,
    "\u25810x41bcb0": 3729,
    "\u25810x41bce0": 3730,
    "41": 3731,
    "288": 3732,
    "eed": 3733,
    "stringa": 3734,
    "\u25810x5265": 3735,
    "\u2581new": 3736,
    "49": 3737,
    "\u25810xac": 3738,
    "aaaa": 3739,
    "\u25810x7230": 3740,
    "a80": 3741,
    "afc": 3742,
    "\u25810x70a8": 3743,
    "\u25810x4237": 3744,
    "tra": 3745,
    "\u25810x7ded": 3746,
    "\u25810x52660": 3747,
    "\u25810x491": 3748,
    "\u25810x419d": 3749,
    "\u25810x7070": 3750,
    "\u25815": 3751,
    "full": 3752,
    "e4c": 3753,
    "584": 3754,
    "\u25810xa429c8": 3755,
    "\u25810x90f0": 3756,
    "94c": 3757,
    "afd": 3758,
    "\u25810x42e2": 3759,
    "cpy": 3760,
    "\u25810x121": 3761,
    "\u25810x7d00": 3762,
    "\u25810x8a60": 3763,
    "\u2581mo": 3764,
    "\u25810x448": 3765,
    "\u25810x7c40": 3766,
    "\u25810x42c520": 3767,
    "\u25810x210": 3768,
    "\u25810x417b": 3769,
    "\u25810x7b00": 3770,
    "\u25810x4238a8": 3771,
    "\u25810x4238d8": 3772,
    "ateprocess": 3773,
    "driv": 3774,
    "\u25810x8250": 3775,
    "\u2581physicaldriv": 3776,
    "\u25810x8420": 3777,
    "\u25810x71c0": 3778,
    "f74": 3779,
    "\u2581physicaldrive0": 3780,
    "\u25810x4b80": 3781,
    "\u25810x416c": 3782,
    "\u25810x7d20": 3783,
    "\u25810x7cc0": 3784,
    "\u2581wcsc": 3785,
    "9c1": 3786,
    "\u2581unhandledexceptionfilter": 3787,
    "\u2581getwindows": 3788,
    "ctl32": 3789,
    "op": 3790,
    "\u25810x416a17": 3791,
    "\u25810x416a18": 3792,
    "\u25810xc0": 3793,
    "\u2581getdiskfreespac": 3794,
    "\u2581control": 3795,
    "\u2581comctl32": 3796,
    "stall": 3797,
    "\u25810x63": 3798,
    "ceex": 3799,
    "5088": 3800,
    "ip": 3801,
    "\u25810x1210e8": 3802,
    "\u25810x4c32c0": 3803,
    "\u25810x12119f0": 3804,
    "\u25810x7df1": 3805,
    "47": 3806,
    "\u25810x7460": 3807,
    "\u2581wcscpy": 3808,
    "\u25810x4393f8": 3809,
    "\u25810xa42": 3810,
    "\u25810x42da": 3811,
    "3b5": 3812,
    "f80": 3813,
    "\u25810x419f": 3814,
    "\u25810x1212000": 3815,
    "gi": 3816,
    "\u2581terminateprocess": 3817,
    "\u25810x74d0": 3818,
    "\u25810xaa": 3819,
    "a41": 3820,
    "\u25810x70e0": 3821,
    "ang": 3822,
    "\u25810xe00": 3823,
    "\u25810x43b880": 3824,
    "\u25810x41a5": 3825,
    "aff": 3826,
    "\u25810x7038": 3827,
    "\u25810x72d8": 3828,
    "\u25810x7620": 3829,
    "heck": 3830,
    "\u25810x71f8": 3831,
    "\u25810x7498": 3832,
    "\u25810x7cb0": 3833,
    "\u2581releases": 3834,
    "\u25810x7310": 3835,
    "504": 3836,
    "de8": 3837,
    "\u25810x7b60": 3838,
    "\u2581releasesrwlockexclusive": 3839,
    "\u2581the": 3840,
    "\u25810x7380": 3841,
    "\u25810x1211c80": 3842,
    "\u25810x42e2f0": 3843,
    "\u25810x1211e28": 3844,
    "\u2581sn": 3845,
    "firstw": 3846,
    "\u25810x75b0": 3847,
    "\u25810x7188": 3848,
    "\u25810x7118": 3849,
    "\u25810x7770": 3850,
    "\u25810x1210900": 3851,
    "\u25810x7428": 3852,
    "\u25810x7268": 3853,
    "\u25810x7a48": 3854,
    "ise": 3855,
    "\u25810x435088": 3856,
    "uilanguage": 3857,
    "\u2581v": 3858,
    "\u25810x7348": 3859,
    "eextra": 3860,
    "\u25810x7b98": 3861,
    "\u25810x7508": 3862,
    "\u25810x73b8": 3863,
    "\u25810x7578": 3864,
    "\u25810x75e8": 3865,
    "adwork": 3866,
    "\u25810x7658": 3867,
    "\u25810x120fa": 3868,
    "\u25810x7888": 3869,
    "\u2581message": 3870,
    "\u25810x76c8": 3871,
    "\u25810x46b4": 3872,
    "\u25810x7818": 3873,
    "\u25810x7738": 3874,
    "\u25810x77a8": 3875,
    "\u25810x78f8": 3876,
    "\u25810x7ce8": 3877,
    "\u25810x7968": 3878,
    "\u25810x1211f18": 3879,
    "\u25810x79d8": 3880,
    "\u25810x7c08": 3881,
    "\u25810x7b28": 3882,
    "\u25810x7d58": 3883,
    "once": 3884,
    "\u25810x7ab8": 3885,
    "\u25810x7c78": 3886,
    "\u2581createsemaphorew": 3887,
    "\u25810x7e0": 3888,
    "\u2581form": 3889,
    "\u2581getwindow": 3890,
    "\u2581messagebox": 3891,
    "\u25810x58c01c": 3892,
    "viol": 3893,
    "\u2581initon": 3894,
    "\u25810x6b9c08": 3895,
    "\u2581getthreaduilanguage": 3896,
    "\u25810x52662": 3897,
    "ceexecute": 3898,
    "ceexecuteonce": 3899,
    "\u2581initonceexecuteonce": 3900,
    "6e8": 3901,
    "mit": 3902,
    "violation": 3903,
    "\u25810x4090": 3904,
    "\u2581process32firstw": 3905,
    "a84": 3906,
    "prec": 3907,
    "de4": 3908,
    "essag": 3909,
    "eextrainfo": 3910,
    "\u2581getmessag": 3911,
    "\u2581getmessageextrainfo": 3912,
    "edex": 3913,
    "\u25810xcf0000": 3914,
    "edexchange": 3915,
    "\u2581interlockedexchange": 3916,
    "windowexw": 3917,
    "\u2581createwindowexw": 3918,
    "\u25810xff8": 3919,
    "\u25810x120f8": 3920,
    "9e00": 3921,
    "\u25810x20019": 3922,
    "\u25810x41e": 3923,
    "\u25810x42d520": 3924,
    "\u25810x4317e0": 3925,
    "be8": 3926,
    "precise": 3927,
    "preciseasfiletime": 3928,
    "\u2581getsystemtimepreciseasfiletime": 3929,
    "\u2581getfileinformationbyhandleex": 3930,
    "\u2581snap": 3931,
    "ec4": 3932,
    "32cs": 3933,
    "\u2581th32cs": 3934,
    "\u2581mul": 3935,
    "\u2581muldiv": 3936,
    "ac4": 3937,
    "3a8": 3938,
    "\u25810x7ee00": 3939,
    "accel": 3940,
    "srw": 3941,
    "\u25810x169bc": 3942,
    "\u25810x40a5a0": 3943,
    "\u25810x41a0": 3944,
    "conditionvariablesrw": 3945,
    "\u2581sleepconditionvariablesrw": 3946,
    "\u25810x1211e44": 3947,
    "b88": 3948,
    "c8c": 3949,
    "\u25810x169be04": 3950,
    "\u25810x566": 3951,
    "ram": 3952,
    "accelerator": 3953,
    "\u25810x496760": 3954,
    "ash": 3955,
    "wind": 3956,
    "\u25810x1210e7": 3957,
    "\u25810x7ed0": 3958,
    "\u25810x1211690": 3959,
    "mod": 3960,
    "\u2581wak": 3961,
    "unwind": 3962,
    "\u2581wakeconditionvariable": 3963,
    "d1c": 3964,
    "\u25810x65": 3965,
    "destroy": 3966,
    "\u2581rtlunwind": 3967,
    "d1ff": 3968,
    "cadwork": 3969,
    "\u25810x52666": 3970,
    "\u25810xae": 3971,
    "dff": 3972,
    "\u2581sub": 3973,
    "\u25810x46b5": 3974,
    "\u25810x3f20": 3975,
    "d88": 3976,
    "\u25810x7ec4": 3977,
    "\u25810x40a59e": 3978,
    "\u25810x40a5a2": 3979,
    "\u25810x40a5a4": 3980,
    "\u25810x40a5a6": 3981,
    "\u25810x40a5a8": 3982,
    "\u25810x40a5aa": 3983,
    "\u25810x7ec5": 3984,
    "\u2581submit": 3985,
    "\u25810x40933c": 3986,
    "\u2581setfileinformationbyhandle": 3987,
    "threadpoolwork": 3988,
    "\u2581closethreadpoolwork": 3989,
    "\u2581createthreadpoolwork": 3990,
    "\u2581submitthreadpoolwork": 3991,
    "\u2581type": 3992,
    "\u25810x85d0": 3993,
    "struction": 3994,
    "\u25810x4400": 3995,
    "\u25810x1211e1c": 3996,
    "\u25810x4284": 3997,
    "\u25810x4f5": 3998,
    "\u25810x1211f6c": 3999,
    "\u2581wsprintfa": 4000,
    "\u25810x5265d": 4001,
    "\u2581vc": 4002,
    "\u25810x1211f74": 4003,
    "f20": 4004,
    "544": 4005,
    "2acb2": 4006,
    "b190": 4007,
    "\u2581b2acb2": 4008,
    "\u25810x409344": 4009,
    "e2b": 4010,
    "\u2581output": 4011,
    "\u25810x12110d8": 4012,
    "\u2581outputdebug": 4013,
    "\u25810x1211338": 4014,
    "the": 4015,
    "\u25810x419d50": 4016,
    "\u25810x4237d8": 4017,
    "f0c": 4018,
    "\u25810x42b020": 4019,
    "\u25810x3f34e0": 4020,
    "\u25810x409020": 4021,
    "\u25810x419e00": 4022,
    "a10": 4023,
    "\u25810x419f40": 4024,
    "\u25810x42a070": 4025,
    "\u25810x42b024": 4026,
    "\u25810x42b028": 4027,
    "\u25810x7ec8": 4028,
    "c88": 4029,
    "\u25810x3e8": 4030,
    "\u25810x4305f8": 4031,
    "\u25810x7ec9": 4032,
    "\u25810x4418": 4033,
    "\u2581accessviolation": 4034,
    "\u25810x71a0": 4035,
    "ssp": 4036,
    "\u2581snapprocess": 4037,
    "class": 4038,
    "program": 4039,
    "runtime": 4040,
    "\u25810x1076": 4041,
    "\u25810x423d18": 4042,
    "\u25810x4528": 4043,
    "ffd1ff": 4044,
    "\u25810x52661": 4045,
    "\u25810x1211f10": 4046,
    "\u2581lstrcpynw": 4047,
    "\u2581kk": 4048,
    "\u25810x140": 4049,
    "ecc": 4050,
    "\u2581sat": 4051,
    "\u2581em": 4052,
    "timeto": 4053,
    "\u25810x8001": 4054,
    "\u25810x417d": 4055,
    "b44": 4056,
    "bas": 4057,
    "special": 4058,
    "\u2581shgetspecial": 4059,
    "\u25810x7ecc": 4060,
    "\u25810x7edc": 4061,
    "\u25810x7ecd": 4062,
    "palet": 4063,
    "palette": 4064,
    "variant": 4065,
    "instruction": 4066,
    "isset": 4067,
    "\u25810x43b6": 4068,
    "ee4": 4069,
    "\u25810x42b190": 4070,
    "\u25810x42eace": 4071,
    "\u2581fe": 4072,
    "\u25810x7ed1": 4073,
    "initialize": 4074,
    "e00": 4075,
    "\u25810x7e88": 4076,
    "\u25810x8c70": 4077,
    "\u25810x41e1": 4078,
    "\u25810x40c": 4079,
    "\u25810x8c60": 4080,
    "\u25810x7e89": 4081,
    "runtime140": 4082,
    "\u2581vcruntime140": 4083,
    "5c8": 4084,
    "b1f": 4085,
    "3c8": 4086,
    "\u25810x40e": 4087,
    "\u25810x6f": 4088,
    "\u2581mar": 4089,
    "\u2581exception": 4090,
    "b7b": 4091,
    "irector": 4092,
    "f62": 4093,
    "\u25810x7ed4": 4094,
    "b48": 4095,
    "echeck": 4096,
    "\u25810x7ed5": 4097,
    "\u25810x7ed8": 4098,
    "360": 4099,
    "\u25810x7ed9": 4100,
    "ac8": 4101,
    "398": 4102,
    "\u25810x508": 4103,
    "\u25810x8aa0": 4104,
    "\u25810x42b": 4105,
    "\u25810x4363d8": 4106,
    "\u25810x1211ef8": 4107,
    "\u25810x4ad4": 4108,
    "\u25810x7edd": 4109,
    "\u25810x100000": 4110,
    "\u25810x56bb00": 4111,
    "7e0": 4112,
    "\u25810x423da8": 4113,
    "\u25810x423dd8": 4114,
    "\u25810xaf": 4115,
    "\u25819": 4116,
    "\u25810x52664": 4117,
    "a5c": 4118,
    "\u25810x169b958": 4119,
    "\u25810x8c90": 4120,
    "\u25810x11000": 4121,
    "\u25810x7ee4": 4122,
    "\u25810x7ee5": 4123,
    "\u25810x1211d14": 4124,
    "\u25810x423df8": 4125,
    "failed": 4126,
    "found": 4127,
    "\u25810x8ab0": 4128,
    "barcad": 4129,
    "barcadero": 4130,
    "\u2581embarcadero": 4131,
    "\u25810x169b780": 4132,
    "\u2581lstrcmpa": 4133,
    "\u25810x4228": 4134,
    "\u25810xffe1": 4135,
    "\u25810x7ee1": 4136,
    "\u25810x5638": 4137,
    "ffcb": 4138,
    "\u25810x1009": 4139,
    "\u25810xffe0": 4140,
    "\u2581feb": 4141,
    "gument": 4142,
    "\u25810xffe4": 4143,
    "\u258111": 4144,
    "ms": 4145,
    "cef": 4146,
    "\u25810xfffe": 4147,
    "207": 4148,
    "aa4": 4149,
    "\u25810x8d20": 4150,
    "abd": 4151,
    "irectory": 4152,
    "argument": 4153,
    "f88": 4154,
    "oem": 4155,
    "ccess": 4156,
    "une": 4157,
    "\u25810x8c30": 4158,
    "\u25810x80c410": 4159,
    "\u2581openprocess": 4160,
    "ied": 4161,
    "\u2581oc": 4162,
    "eexa": 4163,
    "infoa": 4164,
    "\u25810x1005": 4165,
    "\u2581septem": 4166,
    "\u25810xfeee010": 4167,
    "330": 4168,
    "\u25810x1211e34": 4169,
    "\u25810x1211a00": 4170,
    "\u25810x415": 4171,
    "creating": 4172,
    "\u25810x8bd0": 4173,
    "sser": 4174,
    "ged": 4175,
    "\u25810x164": 4176,
    "\u25810x43640": 4177,
    "\u2581febr": 4178,
    "\u2581sta": 4179,
    "\u25810x5265e": 4180,
    "558": 4181,
    "\u25810xffba": 4182,
    "\u2581oct": 4183,
    "\u25810xffb7": 4184,
    "tober": 4185,
    "\u2581april": 4186,
    "\u25810xffbb": 4187,
    "\u2581august": 4188,
    "\u25810x5265f": 4189,
    "\u2581november": 4190,
    "\u2581september": 4191,
    "\u2581div": 4192,
    "\u25810xffb8": 4193,
    "\u25810x9e": 4194,
    "\u25810xffbe": 4195,
    "\u25810xffbd": 4196,
    "face": 4197,
    "\u25810xffb9": 4198,
    "\u25810xffbc": 4199,
    "608": 4200,
    "\u25810xfffd": 4201,
    "\u25810x1211a14": 4202,
    "\u25810x41cb": 4203,
    "bound": 4204,
    "\u25810x8ba0": 4205,
    "\u25810x1211c08": 4206,
    "\u2581outof": 4207,
    "tur": 4208,
    "\u25810xffbf": 4209,
    "\u2581outofmemory": 4210,
    "\u25810x3f24": 4211,
    "\u25810x3410c60": 4212,
    "\u25810x8c10": 4213,
    "\u25810xfffc": 4214,
    "\u25810x42e0f0": 4215,
    "\u2581varian": 4216,
    "with": 4217,
    "\u2581fmode": 4218,
    "exception": 4219,
    "anuary": 4220,
    "\u2581march": 4221,
    "\u25810x40b8": 4222,
    "\u2581february": 4223,
    "uly": 4224,
    "\u2581december": 4225,
    "\u2581october": 4226,
    "\u2581thu": 4227,
    "nesday": 4228,
    "\u25810xffa0": 4229,
    "\u2581monday": 4230,
    "\u2581sunday": 4231,
    "\u2581tuesday": 4232,
    "\u2581wednesday": 4233,
    "ursday": 4234,
    "\u25810xffb6": 4235,
    "\u2581thursday": 4236,
    "ond": 4237,
    "\u25810x82c0": 4238,
    "\u25810xffa2": 4239,
    "\u2581fri": 4240,
    "index": 4241,
    "\u2581setfileinformationbyhandlew": 4242,
    "cor": 4243,
    "iday": 4244,
    "turday": 4245,
    "\u25810xffa1": 4246,
    "\u2581friday": 4247,
    "\u2581saturday": 4248,
    "\u25810xffa3": 4249,
    "\u2581getfileinformationbyhandleexw": 4250,
    "\u25810x5265c3c": 4251,
    "bc0": 4252,
    "\u2581chi": 4253,
    "\u25810x4318": 4254,
    "\u2581loadaccelerator": 4255,
    "\u25810xffa4": 4256,
    "\u2581interface": 4257,
    "\u25810x416b50": 4258,
    "904": 4259,
    "228": 4260,
    "den": 4261,
    "operation": 4262,
    "\u25810xffa7": 4263,
    "\u2581getoem": 4264,
    "\u25810xffa6": 4265,
    "\u25810xffa5": 4266,
    "\u2581getoemcp": 4267,
    "a90000": 4268,
    "ff0": 4269,
    "\u25810x714": 4270,
    "\u25810x8ca0": 4271,
    "\u25810xfffb": 4272,
    "\u2581createpalette": 4273,
    "\u2581asser": 4274,
    "safec": 4275,
    "safecall": 4276,
    "\u2581inte": 4277,
    "\u25810x8c40": 4278,
    "\u25810x418970": 4279,
    "\u25814d5": 4280,
    "184": 4281,
    "\u25810xffcd": 4282,
    "licen": 4283,
    "sspace": 4284,
    "\u2581stack": 4285,
    "\u2581external": 4286,
    "\u25810x8cd0": 4287,
    "\u25810xffb5": 4288,
    "\u25810x8be0": 4289,
    "\u25810xffa8": 4290,
    "\u2581isspace": 4291,
    "\u25810x8bb0": 4292,
    "\u25810x42b40": 4293,
    "\u2581privile": 4294,
    "\u2581assertion": 4295,
    "\u25810xffa9": 4296,
    "\u25810x58de20": 4297,
    "\u25810x419": 4298,
    "gero": 4299,
    "\u25810x4398": 4300,
    "\u25810x8820": 4301,
    "684": 4302,
    "\u2581too": 4303,
    "insafecall": 4304,
    "\u2581exceptioninsafecall": 4305,
    "\u25810x8c00": 4306,
    "\u25810x431d": 4307,
    "sub": 4308,
    "calls": 4309,
    "changet": 4310,
    "\u2581variantchanget": 4311,
    "\u2581disk": 4312,
    "\u25810x7e90": 4313,
    "\u25810x4394": 4314,
    "\u25810xffaa": 4315,
    "\u2581getwindowsdirectorya": 4316,
    "\u25810x413": 4317,
    "notfound": 4318,
    "\u25810xffe6": 4319,
    "\u25810x53000000": 4320,
    "ecast": 4321,
    "\u25810x202": 4322,
    "740": 4323,
    "500000": 4324,
    "denied": 4325,
    "bcf": 4326,
    "\u2581assertionfailed": 4327,
    "bounds": 4328,
    "\u25810x4338": 4329,
    "\u2581privileged": 4330,
    "\u2581chit": 4331,
    "indexo": 4332,
    "classtyp": 4333,
    "classtypecast": 4334,
    "\u2581externalexception": 4335,
    "\u2581interfacenotsuped": 4336,
    "\u2581rang": 4337,
    "tunder": 4338,
    "\u25810xfffa": 4339,
    "ffff0000": 4340,
    "overflow": 4341,
    "indexoutof": 4342,
    "tunderflow": 4343,
    "\u2581rangecheck": 4344,
    "callsnotsuped": 4345,
    "\u2581errorcreating": 4346,
    "\u2581floatingpoint": 4347,
    "indexoutofbounds": 4348,
    "\u2581invalidclasstypecast": 4349,
    "\u2581variantcallsnotsuped": 4350,
    "\u2581floatingpointunderflow": 4351,
    "typecon": 4352,
    "typeconversion": 4353,
    "\u2581invalidvarian": 4354,
    "\u2581stackoverflow": 4355,
    "\u2581invalidvariant": 4356,
    "pointeroperation": 4357,
    "\u2581privilegedinstruction": 4358,
    "\u2581invalidvariantoperation": 4359,
    "\u2581invalidvarianttypeconversion": 4360,
    "leaccess": 4361,
    "toverflow": 4362,
    "divisionbyzero": 4363,
    "\u2581floatingpointoverflow": 4364,
    "\u2581floatingpointdivisionbyzero": 4365,
    "yopen": 4366,
    "floating": 4367,
    "\u2581integero": 4368,
    "floatingpoin": 4369,
    "\u2581divisionbyzero": 4370,
    "\u2581integeroverflow": 4371,
    "\u2581rangecheckerror": 4372,
    "\u2581invalidfloatingpoin": 4373,
    "\u2581invalidpointeroperation": 4374,
    "\u2581invalidfloatingpointoperation": 4375,
    "bey": 4376,
    "beyond": 4377,
    "numeric": 4378,
    "\u25810xffb4": 4379,
    "\u2581tooman": 4380,
    "\u2581diskfull": 4381,
    "yopenfiles": 4382,
    "\u2581readbeyond": 4383,
    "numericinput": 4384,
    "\u2581invalidfilename": 4385,
    "\u2581toomanyopenfiles": 4386,
    "\u2581invalidnumericinput": 4387,
    "\u2581readbeyondendoffile": 4388,
    "3f0": 4389,
    "\u2581fileaccess": 4390,
    "\u2581fileaccessdenied": 4391,
    "bool": 4392,
    "\u25810xffce": 4393,
    "\u2581varbstrfrombool": 4394,
    "\u25810x437808": 4395,
    "\u2581string": 4396,
    "\u2581lstrcpyna": 4397,
    "\u25810x4a20": 4398,
    "000000ffff0000": 4399,
    "\u25810xb000": 4400,
    "neg": 4401,
    "b5c": 4402,
    "ypeex": 4403,
    "\u2581variantchangetypeex": 4404,
    "\u2581un": 4405,
    "\u25810x1210f4": 4406,
    "\u25810xffe5": 4407,
    "mul": 4408,
    "\u25810xffcf": 4409,
    "\u2581varadd": 4410,
    "\u2581varneg": 4411,
    "\u2581varnot": 4412,
    "\u2581varsub": 4413,
    "xor": 4414,
    "idiv": 4415,
    "\u2581varcy": 4416,
    "\u2581varor": 4417,
    "\u2581varr8": 4418,
    "\u2581varand": 4419,
    "\u2581varcmp": 4420,
    "\u2581vardiv": 4421,
    "\u2581varmod": 4422,
    "\u2581varmul": 4423,
    "\u2581varxor": 4424,
    "\u25810x52665": 4425,
    "\u2581varbool": 4426,
    "\u2581vardate": 4427,
    "\u2581varidiv": 4428,
    "\u2581varcyfromstr": 4429,
    "\u2581vari4fromstr": 4430,
    "\u2581varr4fromstr": 4431,
    "\u2581varr8fromstr": 4432,
    "\u2581varbstrfromcy": 4433,
    "\u2581varboolfromstr": 4434,
    "\u2581vardatefromstr": 4435,
    "\u2581varbstrfromdate": 4436,
    "\u25810x9f": 4437,
    "\u25810x100300": 4438,
    "350": 4439,
    "\u2581wsafd": 4440,
    "\u25810x40a3d": 4441,
    "\u2581wsafdisset": 4442,
    "afcdff": 4443,
    "afcdffceff": 4444,
    "\u2581b2acb2afcdffceff": 4445,
    "cc4": 4446,
    "4000000ffff0000": 4447,
    "\u25810x8f50": 4448,
    "\u25810x7d40": 4449,
    "\u25810x4299": 4450,
    "\u25810x8d60": 4451,
    "\u25810x1211f78": 4452,
    "ctr": 4453,
    "fff0": 4454,
    "\u25810x7340": 4455,
    "\u25810x88e0": 4456,
    "\u2581flushfile": 4457,
    "\u2581flushfilebuffers": 4458,
    "\u25810x120e6d8": 4459,
    "d44": 4460,
    "\u25810x417c": 4461,
    "\u25810x44280": 4462,
    "search": 4463,
    "searchmode": 4464,
    "\u2581setsearchmode": 4465,
    "\u25810xa9b0": 4466,
    "\u2581setthreadpreferreduilanguages": 4467,
    "204": 4468,
    "a900003": 4469,
    "\u25810x4224": 4470,
    "\u25814d5a900003": 4471,
    "\u25814d5a9000030000000": 4472,
    "\u25814d5a90000300000004000000ffff0000": 4473,
    "\u25810x1211fb8": 4474,
    "484": 4475,
    "\u25810x42fb": 4476,
    "240": 4477,
    "\u25810xb5": 4478,
    "\u25810xffb0": 4479,
    "\u25810xfff9": 4480,
    "\u25810x4187": 4481,
    "d3c": 4482,
    "\u25810x4353d8": 4483,
    "\u25810x40ee": 4484,
    "74c": 4485,
    "\u25810xffb3": 4486,
    "yarg1": 4487,
    "\u25810x4615": 4488,
    "\u25810x46b5d4": 4489,
    "c7ffd1ff": 4490,
    "c7ffd1ffca": 4491,
    "\u25810x343b5": 4492,
    "\u25810xffb2": 4493,
    "ffcbff": 4494,
    "c7ffd1ffcaffcbff": 4495,
    "\u2581b2acb2afcdffceffc7ffd1ffcaffcbff": 4496,
    "\u25810x42332": 4497,
    "\u25810x13fff0": 4498,
    "\u25810x1211ec8": 4499,
    "ts": 4500,
    "ae3": 4501,
    "\u25810xffb1": 4502,
    "bb8": 4503,
    "\u25810x8818": 4504,
    "\u2581invalidargument": 4505,
    "variantorsafearray": 4506,
    "\u2581variantorsafearray": 4507,
    "\u2581errorcreatingvariantorsafearray": 4508,
    "\u2581variantorsafearrayindexoutofbounds": 4509,
    "gine": 4510,
    "\u25810x8819": 4511,
    "\u25810x42990": 4512,
    "\u2581localfree": 4513,
    "\u25810x52663": 4514,
    "\u25810x42d408": 4515,
    "\u25810x881c": 4516,
    "validate": 4517,
    "\u25810x1211ed4": 4518,
    "\u25810x4df0": 4519,
    "\u2581heapvalidate": 4520,
    "\u2581getclass": 4521,
    "\u25810x881d": 4522,
    "\u25810x8821": 4523,
    "bb0": 4524,
    "econso": 4525,
    "ook": 4526,
    "\u25810xa39": 4527,
    "\u25810x431e": 4528,
    "\u25810x1b2": 4529,
    "\u25810x46a0": 4530,
    "\u25810xfff8": 4531,
    "\u2581setprocess": 4532,
    "\u25810x420e": 4533,
    "\u25810x4fec20": 4534,
    "\u2581are": 4535,
    "\u25810x8d50": 4536,
    "324": 4537,
    "\u25810xfff7": 4538,
    "\u25810x41678c": 4539,
    "\u25810x41678d": 4540,
    "\u25810xfeed": 4541,
    "\u25810x8f20": 4542,
    "\u25810x7f02": 4543,
    "384": 4544,
    "profile": 4545,
    "\u25810x1211f24": 4546,
    "\u25810x1211e00": 4547,
    "\u25810x41c": 4548,
    "a70": 4549,
    "\u25810x8430": 4550,
    "unc": 4551,
    "\u25810x1210e0": 4552,
    "\u25810x8d30": 4553,
    "\u25810x7c10": 4554,
    "\u2581outputdebugstringa": 4555,
    "\u25810x9cc0": 4556,
    "\u2581loadacceleratorsw": 4557,
    "\u25810x51c": 4558,
    "vis": 4559,
    "ou": 4560,
    "\u25810x4fea": 4561,
    "\u25810x8650": 4562,
    "700": 4563,
    "\u25810x426": 4564,
    "98c": 4565,
    "dep": 4566,
    "\u25810xa42a10": 4567,
    "\u25810x3f5000": 4568,
    "\u258103": 4569,
    "xit": 4570,
    "\u25810x40f9": 4571,
    "301": 4572,
    "\u2581rand": 4573,
    "\u2581setst": 4574,
    "\u25810x4225": 4575,
    "\u25810x42e6": 4576,
    "b60": 4577,
    "\u25810x8660": 4578,
    "\u2581setstdhandle": 4579,
    "ad8": 4580,
    "eec": 4581,
    "lication": 4582,
    "\u25810x190": 4583,
    "318": 4584,
    "\u25810x4306": 4585,
    "344": 4586,
    "\u2581comm": 4587,
    "\u25810x109": 4588,
    "licy": 4589,
    "\u25810x5e": 4590,
    "policy": 4591,
    "\u2581messageboxa": 4592,
    "338": 4593,
    "\u25810x3f31": 4594,
    "\u25810x3f3": 4595,
    "\u25810x4e80": 4596,
    "\u25810x20a": 4597,
    "3e8": 4598,
    "\u25810xfff6": 4599,
    "\u25810x51af": 4600,
    "\u25810x7df4": 4601,
    "\u25810x563868": 4602,
    "c44": 4603,
    "\u25810x110": 4604,
    "\u25810x103": 4605,
    "\u2581move": 4606,
    "\u2581shellexecutea": 4607,
    "f84": 4608,
    "\u25810x1211f40": 4609,
    "\u25810x41a": 4610,
    "deppolicy": 4611,
    "\u2581loadlibraryexa": 4612,
    "\u25810x1211e30": 4613,
    "984": 4614,
    "bd0": 4615,
    "\u25810x7df5": 4616,
    "\u25810x8fc0": 4617,
    "ff4": 4618,
    "\u25810x1211f5c": 4619,
    "drl6660drl6660drl6660drl6660drl6660drl6660drl6660drl6660": 4620,
    "768": 4621,
    "\u2581heapdestroy": 4622,
    "\u25810x48f894": 4623,
    "\u25810x12117f4": 4624,
    "\u25810x40f937": 4625,
    "\u25810x437806": 4626,
    "\u25810x43780a": 4627,
    "\u25810x43780c": 4628,
    "\u25810x43780e": 4629,
    "\u25810x437810": 4630,
    "\u25810x437812": 4631,
    "\u25810x437814": 4632,
    "\u25810x437816": 4633,
    "\u25810x437818": 4634,
    "\u25810x43781a": 4635,
    "\u25810x43781c": 4636,
    "\u25810x43781e": 4637,
    "\u2581wri": 4638,
    "\u25810x42eb": 4639,
    "\u25810x488": 4640,
    "\u2581writ": 4641,
    "win": 4642,
    "\u2581y": 4643,
    "msg": 4644,
    "apis": 4645,
    "\u2581writeconso": 4646,
    "\u25810x4f62": 4647,
    "mon": 4648,
    "ownload": 4649,
    "e10": 4650,
    "\u2581setprocessdeppolicy": 4651,
    "hash": 4652,
    "\u25810x416ed1": 4653,
    "\u25810xffd3": 4654,
    "\u25810x416ed2": 4655,
    "\u2581memcpy": 4656,
    "cid": 4657,
    "\u25810x8b50": 4658,
    "ctrl": 4659,
    "inst": 4660,
    "prop": 4661,
    "\u25810x43500": 4662,
    "ansi": 4663,
    "ved": 4664,
    "\u25810x52667": 4665,
    "\u2581regquery": 4666,
    "c4c": 4667,
    "\u25810xffc6": 4668,
    "apisansi": 4669,
    "\u2581arefile": 4670,
    "\u2581arefileapisansi": 4671,
    "\u25810x4c3": 4672,
    "\u25810x120e694": 4673,
    "\u25810x120e69c": 4674,
    "368": 4675,
    "a4c": 4676,
    "listmsg": 4677,
    "\u2581commctrl": 4678,
    "\u2581draglistmsg": 4679,
    "\u2581shgetspecialfolderw": 4680,
    "784": 4681,
    "a20": 4682,
    "100": 4683,
    "\u25810x2012": 4684,
    "\u2581corexit": 4685,
    "\u2581corexitprocess": 4686,
    "\u2581memset": 4687,
    "\u25810x48400": 4688,
    "\u25810xfc": 4689,
    "\u25810x1210e4": 4690,
    "\u25810x1211dd0": 4691,
    "\u25810x1210ec": 4692,
    "704": 4693,
    "ef0": 4694,
    "\u25810x598": 4695,
    "\u25810xfeee0108": 4696,
    "yarg2": 4697,
    "ialog": 4698,
    "\u25810x4300": 4699,
    "\u25810x99d0": 4700,
    "\u25810x1210f0": 4701,
    "\u25810x181c": 4702,
    "160": 4703,
    "afile": 4704,
    "\u25810x4332": 4705,
    "\u25810x437390": 4706,
    "ernet": 4707,
    "\u25810x97b0": 4708,
    "\u25810x4378c8": 4709,
    "\u25810x8830": 4710,
    "\u25810x8ce0": 4711,
    "\u25810x120fb48": 4712,
    "data": 4713,
    "\u25810x1211df4": 4714,
    "a0f": 4715,
    "want": 4716,
    "e24": 4717,
    "\u25810x500": 4718,
    "550": 4719,
    "ifi": 4720,
    "260": 4721,
    "\u25810x4c51": 4722,
    "\u2581program": 4723,
    "\u2581install": 4724,
    "\u2581getdiskfreespaceexw": 4725,
    "\u258117": 4726,
    "\u25810xffc5": 4727,
    "a48": 4728,
    "unction": 4729,
    "\u25810x480": 4730,
    "\u25810x169b5": 4731,
    "\u25810x4245": 4732,
    "\u2581comparestringw": 4733,
    "363": 4734,
    "\u25810x490": 4735,
    "928": 4736,
    "d4c": 4737,
    "\u25810xffab": 4738,
    "licence": 4739,
    "\u25810xfff5": 4740,
    "\u25810x8a41": 4741,
    "\u25810x120fd": 4742,
    "bits": 4743,
    "\u25810x406": 4744,
    "\u25810x7ee9": 4745,
    "\u25810x44d4": 4746,
    "556": 4747,
    "eengine": 4748,
    "\u25810x43ff": 4749,
    "initializeengine": 4750,
    "\u2581failedtoinitializeengine": 4751,
    "\u25810xffac": 4752,
    "\u2581getkeyboardtype": 4753,
    "\u25810x4196": 4754,
    "\u25810x429e": 4755,
    "b8c": 4756,
    "00210": 4757,
    "\u25810x407": 4758,
    "sk": 4759,
    "d98": 4760,
    "\u25810x428a": 4761,
    "\u25810xffcc": 4762,
    "f8c": 4763,
    "\u25810x3f30b0": 4764,
    "\u25810x8d90": 4765,
    "b30": 4766,
    "\u25810x51c4": 4767,
    "delet": 4768,
    "\u25810x431d00": 4769,
    "\u25810x3f30e0": 4770,
    "\u25810x3f3030": 4771,
    "\u25810x3f3110": 4772,
    "\u25810x422e": 4773,
    "\u25810x41688": 4774,
    "\u25810x3f3140": 4775,
    "124": 4776,
    "\u25810x40b": 4777,
    "\u25810x7ee8": 4778,
    "\u25810xa41e": 4779,
    "\u25810x3f6000": 4780,
    "\u25810x1210e6": 4781,
    "\u2581cd": 4782,
    "580": 4783,
    "\u25810x12118f8": 4784,
    "\u25810x1211f70": 4785,
    "\u25810xffd0": 4786,
    "744": 4787,
    "\u25810x3f7000": 4788,
    "\u2581as": 4789,
    "3d1": 4790,
    "\u25810x3fb000": 4791,
    "\u25810x3f8000": 4792,
    "\u25810x423d38": 4793,
    "26c": 4794,
    "leasec": 4795,
    "\u25810x4c4230": 4796,
    "\u25810x4c4260": 4797,
    "\u25810x4c42a8": 4798,
    "\u25810x42a730": 4799,
    "\u25810x42a731": 4800,
    "\u25810x4c4248": 4801,
    "\u25810x4c4278": 4802,
    "\u25810x4c4290": 4803,
    "\u25810x4c4320": 4804,
    "\u25810x4c4338": 4805,
    "\u25810x4c4350": 4806,
    "\u25810x4c4368": 4807,
    "a00": 4808,
    "ly": 4809,
    "\u25810x40a584": 4810,
    "202": 4811,
    "\u25810x40a582": 4812,
    "\u25810x40a586": 4813,
    "\u25810x40a588": 4814,
    "\u25810x40a58a": 4815,
    "\u25810x40a580": 4816,
    "b84": 4817,
    "144": 4818,
    "\u25810x40a57e": 4819,
    "\u25810x429a81": 4820,
    "\u25810x41624": 4821,
    "\u25810x3f9000": 4822,
    "\u25810x3fa000": 4823,
    "358": 4824,
    "\u25810x8824": 4825,
    "b24": 4826,
    "\u25810x437ae4": 4827,
    "\u25810x437207": 4828,
    "\u25810x437208": 4829,
    "\u25810x437ad2": 4830,
    "\u25810x437ad3": 4831,
    "\u25810x437ae3": 4832,
    "\u25810x437b63": 4833,
    "\u25810x437b64": 4834,
    "\u25810x437b7b": 4835,
    "\u25810x437b7c": 4836,
    "\u25810x437bbd": 4837,
    "\u25810x437bbe": 4838,
    "\u25810x437bce": 4839,
    "\u25810x437bcf": 4840,
    "\u25810x437c42": 4841,
    "\u25810x437c43": 4842,
    "\u25810x1210e5": 4843,
    "\u25810x41c0": 4844,
    "\u25810x8825": 4845,
    "\u25810x4c5158": 4846,
    "\u25810x1211f84": 4847,
    "284": 4848,
    "\u25810x429e2b": 4849,
    "\u25810x429e2c": 4850,
    "\u25810x434d1c": 4851,
    "\u25810x43b7a9": 4852,
    "\u25810x43b7aa": 4853,
    "\u25810x43b7b8": 4854,
    "\u25810x8828": 4855,
    "\u25810x422ebe": 4856,
    "\u25810x43b7b3": 4857,
    "\u25810x43b7b4": 4858,
    "\u25810x43b7ba": 4859,
    "\u25810x43b7c4": 4860,
    "\u25810x1210ed": 4861,
    "\u25810x1210e9": 4862,
    "\u25810x1210f5": 4863,
    "\u25810x433618": 4864,
    "metafile": 4865,
    "fc8": 4866,
    "\u25810x1210f9": 4867,
    "\u25810x130": 4868,
    "9c2": 4869,
    "\u25810x3f25": 4870,
    "\u25810x1211d08": 4871,
    "7f0": 4872,
    "570": 4873,
    "ols": 4874,
    "\u25810x3f75f60": 4875,
    "\u25810x8829": 4876,
    "\u25810x42ce10": 4877,
    "c0c": 4878,
    "\u25810x4315b0": 4879,
    "\u25810x882c": 4880,
    "\u25810x1211f80": 4881,
    "ae8": 4882,
    "\u25810x882d": 4883,
    "\u25810x8834": 4884,
    "\u25810x4967a8": 4885,
    "\u25810x509": 4886,
    "\u2581findfirstfilea": 4887,
    "302": 4888,
    "\u25810x420f": 4889,
    "\u25810x7e3000": 4890,
    "\u25810x7e4000": 4891,
    "bf0": 4892,
    "fa8": 4893,
    "ffc": 4894,
    "\u25810x438": 4895,
    "\u25810x8831": 4896,
    "stre": 4897,
    "\u25810x8835": 4898,
    "\u25810xbc": 4899,
    "\u25810x42fc38": 4900,
    "409": 4901,
    "\u25810x1211968": 4902,
    "\u25810x11db": 4903,
    "fd8": 4904,
    "d00": 4905,
    "404": 4906,
    "dc0": 4907,
    "\u2581ob": 4908,
    "\u2581tlsfree": 4909,
    "f21": 4910,
    "\u25810x4470": 4911,
    "\u25810x4554": 4912,
    "\u25810xffd2": 4913,
    "\u25810xfeee00f4": 4914,
    "40c": 4915,
    "\u25810x125": 4916,
    "aa5": 4917,
    "\u25810x4289": 4918,
    "item": 4919,
    "\u25810x423b20": 4920,
    "f4c": 4921,
    "\u25810x423b1f": 4922,
    "\u25810x3f75f30": 4923,
    "66c": 4924,
    "\u25810xffad": 4925,
    "controls": 4926,
    "e84": 4927,
    "\u25810x3f21": 4928,
    "access": 4929,
    "\u25810x42fbf0": 4930,
    "\u25810x41d1": 4931,
    "\u25810x44f910": 4932,
    "f48": 4933,
    "7b0": 4934,
    "\u25810x235": 4935,
    "a09": 4936,
    "\u25810xffef": 4937,
    "f1b": 4938,
    "\u25810x1210e2": 4939,
    "\u25810x423868": 4940,
    "\u25810x423898": 4941,
    "\u25810x3f23": 4942,
    "\u25810x430880": 4943,
    "b4c": 4944,
    "myarg2": 4945,
    "758": 4946,
    "218": 4947,
    "\u25810x419c20": 4948,
    "\u25810x40a5ac": 4949,
    "f40": 4950,
    "569": 4951,
    "\u25810x41bd": 4952,
    "120": 4953,
    "gen": 4954,
    "coree": 4955,
    "\u2581mscoree": 4956,
    "32c": 4957,
    "d68": 4958,
    "\u25810x4e30": 4959,
    "yarg1myarg2": 4960,
    "718": 4961,
    "310": 4962,
    "bad8": 4963,
    "\u25810x30000": 4964,
    "\u2581lcmapstringa": 4965,
    "\u25810x4de": 4966,
    "2e0": 4967,
    "\u25810x1210c": 4968,
    "\u25810x7eab": 4969,
    "\u25810x169b7a4": 4970,
    "304": 4971,
    "918": 4972,
    "\u2581lstrcpya": 4973,
    "inity": 4974,
    "\u25810x4c3308": 4975,
    "\u25810x4290": 4976,
    "\u25810x169b57c": 4977,
    "348": 4978,
    "\u25810x1211ccc": 4979,
    "\u25810x169b94c": 4980,
    "\u25810x343b570": 4981,
    "baf": 4982,
    "affinity": 4983,
    "affinitymask": 4984,
    "\u25810x7e5000": 4985,
    "a45": 4986,
    "b18": 4987,
    "\u25810xffe3": 4988,
    "\u25810x486d": 4989,
    "\u2581removed": 4990,
    "\u25810xffc4": 4991,
    "\u25810x4febd8": 4992,
    "\u25810x431": 4993,
    "\u25810xffe2": 4994,
    "pi": 4995,
    "3e0": 4996,
    "\u25810x100b": 4997,
    "1d0": 4998,
    "\u2581removedirectory": 4999,
    "f70": 5000,
    "\u25810x437820": 5001,
    "\u25810x43f0": 5002,
    "\u25810x42d3c0": 5003,
    "\u25810x4244": 5004,
    "\u25810x1210ee": 5005,
    "\u25810x1211e24": 5006,
    "\u25810xc4": 5007,
    "3f1c": 5008,
    "\u25810xffe7": 5009,
    "91c": 5010,
    "\u25810x431f38": 5011,
    "\u25810x2100210": 5012,
    "\u25810x4130": 5013,
    "\u2581cq": 5014,
    "\u25810x47e0": 5015,
    "316": 5016,
    "34c": 5017,
    "370": 5018,
    "278": 5019,
    "\u25810xffec": 5020,
    "\u2581getstringtypea": 5021,
    "\u25810x7bc": 5022,
    "\u2581164634": 5023,
    "541": 5024,
    "db0": 5025,
    "\u25810x42c1": 5026,
    "\u2581asw": 5027,
    "\u25810x12106": 5028,
    "\u2581coinitialize": 5029,
    "\u25810x4fe2": 5030,
    "\u25810x42ae": 5031,
    "\u25810xffae": 5032,
    "382": 5033,
    "\u25810x4084": 5034,
    "ified": 5035,
    "54c": 5036,
    "555": 5037,
    "d40": 5038,
    "\u25810x431ef0": 5039,
    "001": 5040,
    "\u25810xffaf": 5041,
    "bcc": 5042,
    "\u25810x99a0": 5043,
    "\u25810x5004": 5044,
    "\u25810xa429f8": 5045,
    "\u25810x1211d00": 5046,
    "d28": 5047,
    "\u2581getprocessaffinitymask": 5048,
    "644": 5049,
    "\u25810x8930": 5050,
    "\u25810x4700": 5051,
    "528": 5052,
    "d8c": 5053,
    "70c": 5054,
    "tac": 5055,
    "c8d": 5056,
    "\u25810xffc2": 5057,
    "\u25810xff90": 5058,
    "b78": 5059,
    "fb0": 5060,
    "stream": 5061,
    "defaultu": 5062,
    "defaultuilanguage": 5063,
    "\u25810x4fe6e8": 5064,
    "\u25810x4010": 5065,
    "\u2581164630": 5066,
    "metafilebits": 5067,
    "b14": 5068,
    "\u25810x40ab": 5069,
    "\u2581format": 5070,
    "\u2581setenvironment": 5071,
    "par": 5072,
    "\u25810x423dc8": 5073,
    "b10": 5074,
    "\u25810x41681a": 5075,
    "you": 5076,
    "\u25810x41681b": 5077,
    "\u2581sys": 5078,
    "textw": 5079,
    "bc4": 5080,
    "2c8": 5081,
    "2dc": 5082,
    "\u25810x42bf": 5083,
    "\u2581remove": 5084,
    "\u25810x421d": 5085,
    "\u25810x58000": 5086,
    "d0c": 5087,
    "\u25810x8ec0": 5088,
    "e80": 5089,
    "\u25810x120e68c": 5090,
    "\u25810x1211ad0": 5091,
    "190": 5092,
    "e28": 5093,
    "\u2581getmenu": 5094,
    "itor": 5095,
    "\u25810x4efd": 5096,
    "forma": 5097,
    "\u25810x20009": 5098,
    "\u25810x1211de4": 5099,
    "oyou": 5100,
    "\u25810x56bad8": 5101,
    "\u2581setendoffile": 5102,
    "\u25810x41a6": 5103,
    "\u25810x41d114": 5104,
    "\u25810x120f8c2": 5105,
    "38c": 5106,
    "\u25810xff91": 5107,
    "\u2581cadwork": 5108,
    "\u25810x1211f1c": 5109,
    "678": 5110,
    "4005": 5111,
    "af4": 5112,
    "\u25810x118": 5113,
    "\u25810x42e5c8": 5114,
    "\u25810x42e5e0": 5115,
    "\u25810x4cb0": 5116,
    "\u25810x3f26": 5117,
    "\u25810x46b3d0": 5118,
    "\u25810x418a00": 5119,
    "\u25810x418a30": 5120,
    "lcid": 5121,
    "990": 5122,
    "\u25810x417a": 5123,
    "wantto": 5124,
    "888": 5125,
    "\u2581gdip": 5126,
    "core": 5127,
    "\u25810x49c8": 5128,
    "\u25810x4395c8": 5129,
    "\u25810x59c1": 5130,
    "\u25810x1211e20": 5131,
    "\u25810x405": 5132,
    "\u25810x59bf": 5133,
    "f28": 5134,
    "340": 5135,
    "\u25810x45f1": 5136,
    "\u25810x42e598": 5137,
    "\u25810xfeee011": 5138,
    "\u25810x7bc00000": 5139,
    "210": 5140,
    "\u25810xa3a8": 5141,
    "numberis": 5142,
    "priv": 5143,
    "\u25810x7d51": 5144,
    "\u25810x107": 5145,
    "f30": 5146,
    "f44": 5147,
    "a8a8": 5148,
    "\u25810x3f2": 5149,
    "\u25810x42daa2": 5150,
    "\u25810x42daab": 5151,
    "\u25810x42dab4": 5152,
    "\u25810x42dabd": 5153,
    "\u25810x1253f1c": 5154,
    "\u25810x4dd": 5155,
    "\u25810x1211808": 5156,
    "ig": 5157,
    "884": 5158,
    "\u2581164632": 5159,
    "\u2581noaccess": 5160,
    "consolec": 5161,
    "\u25810x87": 5162,
    "ocon": 5163,
    "b70": 5164,
    "\u2581wcs": 5165,
    "\u25810x9a90": 5166,
    "\u25810x4254": 5167,
    "12c": 5168,
    "ned": 5169,
    "\u25810x4aa0": 5170,
    "winmetafilebits": 5171,
    "strings": 5172,
    "\u25810xffc3": 5173,
    "b0c": 5174,
    "private": 5175,
    "\u25810x5658": 5176,
    "\u25810x1210f1": 5177,
    "b90": 5178,
    "\u25810x6e": 5179,
    "\u25810x4155": 5180,
    "\u2581getenvironmentstrings": 5181,
    "a54": 5182,
    "\u25810x40b3": 5183,
    "\u25810x4307e0": 5184,
    "\u25810x3f27": 5185,
    "privateprofile": 5186,
    "tp": 5187,
    "5c0": 5188,
    "60c": 5189,
    "720": 5190,
    "c84": 5191,
    "ority": 5192,
    "\u25810x419a": 5193,
    "\u25810x41c4": 5194,
    "264": 5195,
    "len": 5196,
    "\u2581findnextfilea": 5197,
    "d50": 5198,
    "\u25810x4d50": 5199,
    "\u2581setcurrent": 5200,
    "tokeninformation": 5201,
    "298": 5202,
    "\u25810x60c6": 5203,
    "b68": 5204,
    "\u25810xfff4": 5205,
    "d18": 5206,
    "\u25810x9210": 5207,
    "\u25810x44d4b8": 5208,
    "\u25810x42be": 5209,
    "\u25810x97c0": 5210,
    "\u2581gettokeninformation": 5211,
    "ba8": 5212,
    "fe0": 5213,
    "b50": 5214,
    "\u25810x47f0": 5215,
    "948": 5216,
    "\u2581lstrcmpw": 5217,
    "\u25810x401000": 5218,
    "\u2581getwinmetafilebits": 5219,
    "\u25810x1211ef4": 5220,
    "9c0": 5221,
    "\u2581setdll": 5222,
    "\u25810xbd": 5223,
    "fd0": 5224,
    "978": 5225,
    "\u25810x27": 5226,
    "\u25810x401": 5227,
    "red": 5228,
    "application": 5229,
    "3a4": 5230,
    "\u25810x2825": 5231,
    "function": 5232,
    "944": 5233,
    "e48": 5234,
    "edit": 5235,
    "\u25810x9810": 5236,
    "\u2581qt": 5237,
    "\u25810x4a7": 5238,
    "\u25810x41a8a8": 5239,
    "\u25810x41bc98": 5240,
    "\u25810x41bcc8": 5241,
    "f18": 5242,
    "f318": 5243,
    "olfp": 5244,
    "\u2581controlfp": 5245,
    "381": 5246,
    "\u25810x45f2": 5247,
    "internal": 5248,
    "\u25810x53e4": 5249,
    "reque": 5250,
    "\u25810x3f3060": 5251,
    "bd4": 5252,
    "d30": 5253,
    "\u25810x3f3010": 5254,
    "7a8": 5255,
    "\u25810x4088": 5256,
    "\u25810x82f0": 5257,
    "\u2581commode": 5258,
    "errornumberis": 5259,
    "\u2581programinternal": 5260,
    "\u2581programinternalerrornumberis": 5261,
    "69c": 5262,
    "inter": 5263,
    "\u25810x12119d0": 5264,
    "dc1": 5265,
    "\u25810x8ef0": 5266,
    "aaaaaaaa": 5267,
    "\u25810x12115bc": 5268,
    "958": 5269,
    "\u25810x120f": 5270,
    "\u25810x4096": 5271,
    "\u25810x42aa58": 5272,
    "90c": 5273,
    "\u2581dragob": 5274,
    "\u2581version": 5275,
    "\u25810x1211f97": 5276,
    "reate": 5277,
    "\u25810xffdd": 5278,
    "\u25810x107538": 5279,
    "\u25810x12115d0": 5280,
    "base": 5281,
    "\u25810x4bb0": 5282,
    "\u2581download": 5283,
    "aa0": 5284,
    "716": 5285,
    "e58": 5286,
    "50c": 5287,
    "stringw": 5288,
    "fromstream": 5289,
    "\u2581164638": 5290,
    "738": 5291,
    "fc4": 5292,
    "\u25810x40a59c": 5293,
    "\u2581shfolder": 5294,
    "a38": 5295,
    "\u25810x1211f44": 5296,
    "created": 5297,
    "f58": 5298,
    "\u25810x408478": 5299,
    "3b8": 5300,
    "\u25810x41f7": 5301,
    "\u25810x120faa8": 5302,
    "\u2581setfilepointerex": 5303,
    "3c4": 5304,
    "\u25810x7e00": 5305,
    "b58": 5306,
    "ba0": 5307,
    "\u25810x107598": 5308,
    "\u25810x120e690": 5309,
    "\u25810x120e698": 5310,
    "11c": 5311,
    "\u25810x437804": 5312,
    "gw": 5313,
    "\u25810x417b50": 5314,
    "\u25810x42c4f0": 5315,
    "\u2581log": 5316,
    "\u25810x4614": 5317,
    "248": 5318,
    "hook": 5319,
    "\u2581wts": 5320,
    "owned": 5321,
    "\u25810x422798": 5322,
    "\u25810x423890": 5323,
    "\u25810x4238c0": 5324,
    "\u25810x1211900": 5325,
    "728": 5326,
    "\u2581fil": 5327,
    "\u25810x42ae20": 5328,
    "lew": 5329,
    "\u25810x107658": 5330,
    "\u25810x566a40": 5331,
    "ae0": 5332,
    "\u25810x439880": 5333,
    "\u25810x4310": 5334,
    "\u2581monitor": 5335,
    "\u2581yo": 5336,
    "568": 5337,
    "\u2581getsystemtimes": 5338,
    "\u25810xa163": 5339,
    "f46": 5340,
    "\u2581202203040": 5341,
    "ession": 5342,
    "\u25810x8ed0": 5343,
    "\u25810x41c044": 5344,
    "\u25810x169bf64": 5345,
    "b28": 5346,
    "\u25810x10e9": 5347,
    "\u2581oleload": 5348,
    "\u2581oleloadfromstream": 5349,
    "\u25810x120f7": 5350,
    "\u25810xa42980": 5351,
    "\u2581removedirectorya": 5352,
    "\u25810x54000": 5353,
    "\u25810x7ff": 5354,
    "\u25810x4a40": 5355,
    "reen": 5356,
    "\u25810x160": 5357,
    "\u25810x5c000": 5358,
    "d20": 5359,
    "f60": 5360,
    "param": 5361,
    "\u25810x120e6cc": 5362,
    "\u2581dat": 5363,
    "\u25810x4a80": 5364,
    "\u25810x107688": 5365,
    "116": 5366,
    "1cc": 5367,
    "b80": 5368,
    "\u25810x4100": 5369,
    "\u25810x42f318": 5370,
    "\u258124": 5371,
    "b98": 5372,
    "notin": 5373,
    "\u25810x120f9": 5374,
    "mb": 5375,
    "2b0": 5376,
    "\u2581writeconsolew": 5377,
    "atal": 5378,
    "\u25810x4cf": 5379,
    "itialized": 5380,
    "notinitialized": 5381,
    "\u25810x3b7": 5382,
    "\u25810x644": 5383,
    "vironmentstringsa": 5384,
    "694": 5385,
    "\u25810x4828": 5386,
    "\u25810xffc7": 5387,
    "\u2581setthreadlocale": 5388,
    "ectlock": 5389,
    "\u25810x45f4": 5390,
    "notowned": 5391,
    "supfunction": 5392,
    "ectlocknotowned": 5393,
    "\u2581monitorsupfunction": 5394,
    "\u2581monitorsupfunctionnotinitialized": 5395,
    "1e8": 5396,
    "\u25810xffc1": 5397,
    "timetofiletime": 5398,
    "\u25810x4990": 5399,
    "\u25810x3200a": 5400,
    "\u2581coun": 5401,
    "\u25810x4912": 5402,
    "\u2581dw": 5403,
    "\u25810x50850": 5404,
    "vchost": 5405,
    "\u2581formal": 5406,
    "\u2581getconsolemode": 5407,
    "a0e": 5408,
    "compar": 5409,
    "\u2581svchost": 5410,
    "\u25810x484": 5411,
    "compareex": 5412,
    "\u2581oleinitialize": 5413,
    "compareexchange": 5414,
    "\u2581interlockedcompareexchange": 5415,
    "e8c": 5416,
    "200": 5417,
    "\u25810x1fa": 5418,
    "\u2581regedit": 5419,
    "\u25810x423e08": 5420,
    "\u25812022": 5421,
    "ha": 5422,
    "\u25810x1075c8": 5423,
    "\u25810xa42a40": 5424,
    "\u2581setdlldirectoryw": 5425,
    "6d8": 5426,
    "\u25810x1210e78": 5427,
    "\u25810x1210e7c": 5428,
    "quired": 5429,
    "\u25810x42f": 5430,
    "\u25810x412e": 5431,
    "\u25810xcb000": 5432,
    "\u25810x40f": 5433,
    "filewas": 5434,
    "\u25810x8190": 5435,
    "\u25810x420a0f": 5436,
    "\u25810x420a10": 5437,
    "specified": 5438,
    "\u25810x433660": 5439,
    "\u25810x4179": 5440,
    "\u25810x42900": 5441,
    "604": 5442,
    "acc": 5443,
    "\u25810x416be0": 5444,
    "\u25810x1211e18": 5445,
    "\u2581thespecified": 5446,
    "filewasnotfound": 5447,
    "\u2581thespecifiedfilewasnotfound": 5448,
    "\u25810x169bf74": 5449,
    "\u25810x416c10": 5450,
    "6d7363": 5451,
    "\u25810xe06d7363": 5452,
    "798": 5453,
    "\u25810x62": 5454,
    "\u25810x1075f8": 5455,
    "\u25810x107628": 5456,
    "\u2581tw": 5457,
    "\u25810x188e00": 5458,
    "\u25810x1211db8": 5459,
    "5e8": 5460,
    "\u25810x88b0": 5461,
    "\u25810xc8": 5462,
    "f78": 5463,
    "lower": 5464,
    "dl": 5465,
    "\u2581msvcr90": 5466,
    "f51": 5467,
    "\u2581getcurrentdirectorya": 5468,
    "\u2581movefilea": 5469,
    "a7c": 5470,
    "\u2581int": 5471,
    "\u25810x188d3c": 5472,
    "998": 5473,
    "e20": 5474,
    "\u25810x169bc5c": 5475,
    "101": 5476,
    "10428": 5477,
    "\u25810x4086": 5478,
    "\u2581getconsolec": 5479,
    "\u2581strcmp": 5480,
    "\u25810x5199": 5481,
    "lsid": 5482,
    "\u25810x5000": 5483,
    "io": 5484,
    "7e7": 5485,
    "\u2581pleas": 5486,
    "\u2581getuserdefaultlcid": 5487,
    "\u2581required": 5488,
    "\u2581tw10428": 5489,
    "\u2581getconsolecp": 5490,
    "18c": 5491,
    "af0": 5492,
    "bb4": 5493,
    "\u25810x8f70": 5494,
    "a98": 5495,
    "f50": 5496,
    "\u25810x181": 5497,
    "558f": 5498,
    "321": 5499,
    "dd4": 5500,
    "fc0": 5501,
    "d48": 5502,
    "\u25810x42d4f0": 5503,
    "\u25810x563": 5504,
    "\u25810x42c5d0": 5505,
    "3a0": 5506,
    "d5c": 5507,
    "d84": 5508,
    "\u25810x4200": 5509,
    "\u25810x42558f": 5510,
    "\u25810x425590": 5511,
    "\u25810x63000000": 5512,
    "\u25810x5617": 5513,
    "794": 5514,
    "d2c": 5515,
    "\u25810x42a6": 5516,
    "\u25810xb3": 5517,
    "\u25810x80c": 5518,
    "fed": 5519,
    "\u25810x412f": 5520,
    "\u258128": 5521,
    "\u25810x45fe": 5522,
    "\u25810xc94": 5523,
    "\u25810x9af0": 5524,
    "\u25810x188e24": 5525,
    "ad9": 5526,
    "\u25810x45f6": 5527,
    "\u25810x44000": 5528,
    "2a0": 5529,
    "\u25810x44180": 5530,
    "com": 5531,
    "f85": 5532,
    "\u25810xa4a0": 5533,
    "\u25810x42be20": 5534,
    "\u25810x45f5": 5535,
    "\u25810x9d10": 5536,
    "\u25810x42efe8": 5537,
    "306": 5538,
    "\u2581e000": 5539,
    "\u25810x45f3": 5540,
    "80004005": 5541,
    "\u2581error0x80004005": 5542,
    "quir": 5543,
    "tacquir": 5544,
    "\u25810x45f7": 5545,
    "\u25810x45fa": 5546,
    "tacquirecon": 5547,
    "\u2581cryptacquirecon": 5548,
    "\u25810x422c": 5549,
    "1e4": 5550,
    "fdd": 5551,
    "\u25810x45f8": 5552,
    "\u25810x2439f74": 5553,
    "9e0": 5554,
    "\u2581doyou": 5555,
    "\u25810x4134": 5556,
    "560": 5557,
    "bd8": 5558,
    "\u25810xa3a768": 5559,
    "\u25810x4233": 5560,
    "600": 5561,
    "\u25810x4efd98": 5562,
    "334": 5563,
    "3d0": 5564,
    "\u2581clsid": 5565,
    "\u2581filetimeto": 5566,
    "ef8": 5567,
    "\u25810x40b4": 5568,
    "\u25810x45f9": 5569,
    "1c0": 5570,
    "f16": 5571,
    "\u25810x9ad0": 5572,
    "aba": 5573,
    "\u25810xffde": 5574,
    "seek": 5575,
    "\u25810x46b": 5576,
    "leasecon": 5577,
    "\u2581std": 5578,
    "\u25810x4fc": 5579,
    "\u25810x42d8a2": 5580,
    "\u25810x42d8ab": 5581,
    "\u25810x42d8b4": 5582,
    "\u25810x42d8bd": 5583,
    "\u25810x1211ecc": 5584,
    "\u25810x40a0": 5585,
    "\u25810x9a70": 5586,
    "\u25810x10e9bc": 5587,
    "\u25810x41ab": 5588,
    "\u25810x42ba58": 5589,
    "releasecon": 5590,
    "\u25810xfeee012": 5591,
    "releasecontext": 5592,
    "14c": 5593,
    "\u25810x3f2210": 5594,
    "\u2581defwindowprocw": 5595,
    "d6c": 5596,
    "\u25810x4184": 5597,
    "\u25810x9c30": 5598,
    "\u2581clsidfrom": 5599,
    "pool": 5600,
    "\u25810xa3a7b0": 5601,
    "985": 5602,
    "\u2581couninitialize": 5603,
    "39c": 5604,
    "960": 5605,
    "a64": 5606,
    "\u2581registerclipboard": 5607,
    "\u2581cryptreleasecontext": 5608,
    "70e": 5609,
    "bf8": 5610,
    "heme": 5611,
    "\u2581uxt": 5612,
    "\u25810x4232": 5613,
    "\u2581uxtheme": 5614,
    "\u25810x1211c00": 5615,
    "\u2581getclassinfoa": 5616,
    "\u25810x45fd": 5617,
    "\u25810xdd": 5618,
    "\u25810x51b": 5619,
    "\u2581164635": 5620,
    "\u25810x1860": 5621,
    "\u25810x4601": 5622,
    "a90": 5623,
    "\u25810x22e": 5624,
    "\u25810x120fb30": 5625,
    "regis": 5626,
    "delete": 5627,
    "printer": 5628,
    "\u25810x45ff": 5629,
    "\u2581mso": 5630,
    "\u25810x71000000": 5631,
    "env": 5632,
    "178": 5633,
    "56c": 5634,
    "\u25810x150": 5635,
    "\u25810xe8": 5636,
    "f90": 5637,
    "748": 5638,
    "a50": 5639,
    "common": 5640,
    "\u25810x46b400": 5641,
    "565": 5642,
    "\u2581openprocesstoken": 5643,
    "690": 5644,
    "940": 5645,
    "af8": 5646,
    "a8c": 5647,
    "f65": 5648,
    "\u258126": 5649,
    "\u25810x80c458": 5650,
    "\u25810x4199": 5651,
    "\u25810x4f60": 5652,
    "\u25810x42759f": 5653,
    "\u25810x4275a0": 5654,
    "\u2581initcommon": 5655,
    "\u2581initcommoncontrols": 5656,
    "f17": 5657,
    "\u25810x9850": 5658,
    "\u25810x440": 5659,
    "\u25810x41af": 5660,
    "\u25810x169bf94": 5661,
    "\u25810x423d90": 5662,
    "\u25810x423dc0": 5663,
    "update": 5664,
    "\u25810x208": 5665,
    "c01": 5666,
    "\u25810x43a4": 5667,
    "\u2581qt5": 5668,
    "\u25810x8900": 5669,
    "\u25810x40ac": 5670,
    "emyarg1myarg2": 5671,
    "804": 5672,
    "\u2581exemyarg1myarg2": 5673,
    "\u25810x3020": 5674,
    "\u2581getdiskfreespaceexa": 5675,
    "9c6": 5676,
    "ocreate": 5677,
    "\u25810x50e10": 5678,
    "749": 5679,
    "\u2581nto": 5680,
    "\u25810x9730": 5681,
    "\u25810x4305c8": 5682,
    "\u25810x4305e0": 5683,
    "5b0": 5684,
    "\u258118": 5685,
    "\u25810xf8": 5686,
    "\u25810x60c690": 5687,
    "\u25810x41cc": 5688,
    "\u25810x431828": 5689,
    "778": 5690,
    "3378": 5691,
    "\u25810x41ebf": 5692,
    "ded": 5693,
    "\u25810x1211d30": 5694,
    "2c5": 5695,
    "e0c": 5696,
    "\u25810x68000": 5697,
    "\u2581freeenvironmentstringsa": 5698,
    "\u25810x9c80": 5699,
    "bfc": 5700,
    "\u25810x411555": 5701,
    "\u25810x411556": 5702,
    "eb8": 5703,
    "\u25810x4030": 5704,
    "\u25810x42b964": 5705,
    "\u2581aaa": 5706,
    "download": 5707,
    "\u25810x42ebc0": 5708,
    "48c": 5709,
    "974": 5710,
    "fa4": 5711,
    "\u25810x430598": 5712,
    "33a": 5713,
    "64c": 5714,
    "78c": 5715,
    "\u25810x433860": 5716,
    "\u2581getuserdefaultuilanguage": 5717,
    "\u25810x4126": 5718,
    "\u25810x4298": 5719,
    "130": 5720,
    "\u25810x41b0": 5721,
    "\u25810x4c97": 5722,
    "\u2581sc": 5723,
    "\u25810xa210": 5724,
    "244": 5725,
    "\u25810x40d": 5726,
    "only": 5727,
    "\u25810x435000": 5728,
    "\u25810x99c0": 5729,
    "\u25810x41568c": 5730,
    "317": 5731,
    "7978": 5732,
    "\u2581ru": 5733,
    "\u2581getvolumeinformationa": 5734,
    "\u25810x423326": 5735,
    "\u25810x423327": 5736,
    "\u25810x1211f54": 5737,
    "50000": 5738,
    "\u25810xe9": 5739,
    "\u25810x4ec": 5740,
    "647": 5741,
    "iserror": 5742,
    "2e8": 5743,
    "ible": 5744,
    "\u25810x9600": 5745,
    "\u2581qt5core": 5746,
    "\u25810x1211ce0": 5747,
    "d60": 5748,
    "7e8": 5749,
    "fd4": 5750,
    "ctype": 5751,
    "\u258114": 5752,
    "\u2581dialog": 5753,
    "bc5": 5754,
    "bd7": 5755,
    "\u25810x4139": 5756,
    "pre": 5757,
    "2c4": 5758,
    "658": 5759,
    "750": 5760,
    "df8": 5761,
    "ncy": 5762,
    "\u25810x181b70": 5763,
    "\u25810x434280": 5764,
    "\u25810x4363c0": 5765,
    "\u25810x433378": 5766,
    "\u25810x434268": 5767,
    "938": 5768,
    "aa8": 5769,
    "\u25810x423baf": 5770,
    "\u25810x423bb0": 5771,
    "270": 5772,
    "acd": 5773,
    "\u25810x40b7": 5774,
    "\u25810x41cbd0": 5775,
    "7a0": 5776,
    "ils": 5777,
    "\u25810xa6b0": 5778,
    "\u2581164639": 5779,
    "requency": 5780,
    "715": 5781,
    "\u2581lstrcmpi": 5782,
    "a69": 5783,
    "\u25810xffcb": 5784,
    "\u25810x1211ee8": 5785,
    "\u2581findresourcea": 5786,
    "20c": 5787,
    "\u25810x468": 5788,
    "\u25810x4650": 5789,
    "\u2581hd": 5790,
    "\u2581inst": 5791,
    "a02": 5792,
    "d38": 5793,
    "\u25810x42b6": 5794,
    "\u25810x88f0": 5795,
    "cefrequency": 5796,
    "\u2581queryperformancefrequency": 5797,
    "\u2581userenv": 5798,
    "a78": 5799,
    "e100": 5800,
    "\u2581stor": 5801,
    "f7c": 5802,
    "\u25810xfff3": 5803,
    "\u2581storage": 5804,
    "\u2581connector": 5805,
    "950": 5806,
    "9c5": 5807,
    "7c8": 5808,
    "\u25810x4079": 5809,
    "\u25810x4160": 5810,
    "\u25810x423de0": 5811,
    "994": 5812,
    "\u25810xf000": 5813,
    "\u25810x41a044": 5814,
    "7d0": 5815,
    "f68": 5816,
    "\u25810x534": 5817,
    "\u2581getmodulehandl": 5818,
    "\u25810x4cf0": 5819,
    "\u25810x4feaac": 5820,
    "158": 5821,
    "extex": 5822,
    "\u2581regqueryvalueexw": 5823,
    "294": 5824,
    "trol": 5825,
    "atalog": 5826,
    "\u25810x616": 5827,
    "dc8": 5828,
    "1a4": 5829,
    "mapi": 5830,
    "\u25810xfeee014": 5831,
    "9c8": 5832,
    "non": 5833,
    "\u25810x4364": 5834,
    "\u25810x40a3e": 5835,
    "\u25810x4d7978": 5836,
    "345": 5837,
    "\u2581getprivateprofile": 5838,
    "\u25810xa260": 5839,
    "\u25810x4093e8": 5840,
    "a0c": 5841,
    "9bc": 5842,
    "\u25810x4093e5": 5843,
    "\u25810x4093e6": 5844,
    "\u25810x4093e7": 5845,
    "314": 5846,
    "366": 5847,
    "\u25812d": 5848,
    "\u25810x454": 5849,
    "e50": 5850,
    "\u25810x9a60": 5851,
    "\u2581tow": 5852,
    "formatw": 5853,
    "\u25810x41e1d8": 5854,
    "\u2581qae": 5855,
    "\u25810x4ddb24": 5856,
    "\u25810x500410": 5857,
    "397": 5858,
    "plor": 5859,
    "instal": 5860,
    "internet": 5861,
    "\u25810x422470": 5862,
    "1b0": 5863,
    "will": 5864,
    "a60": 5865,
    "\u25810x560": 5866,
    "\u2581dwmapi": 5867,
    "rn": 5868,
    "910": 5869,
    "eta": 5870,
    "367": 5871,
    "\u25810x409c": 5872,
    "\u2581filenotfound": 5873,
    "\u25810x402": 5874,
    "\u25810x422788": 5875,
    "\u2581cryptbase": 5876,
    "\u25810x41b8": 5877,
    "\u25810x1211370": 5878,
    "d90": 5879,
    "\u25810x4259": 5880,
    "\u25810x8490": 5881,
    "\u2581con": 5882,
    "\u2581atex": 5883,
    "atalogs": 5884,
    "\u2581atexit": 5885,
    "bff": 5886,
    "rnl": 5887,
    "\u2581getmodulehandleexw": 5888,
    "148": 5889,
    "be0": 5890,
    "\u25810x4076": 5891,
    "nonce": 5892,
    "\u2581runonce": 5893,
    "311": 5894,
    "d78": 5895,
    "f1a": 5896,
    "1740": 5897,
    "dregen": 5898,
    "\u25810x1bf9": 5899,
    "\u25810x42aa": 5900,
    "\u2581hddregen": 5901,
    "\u2581hddregenerator": 5902,
    "9f8": 5903,
    "tive": 5904,
    "install": 5905,
    "730": 5906,
    "b2c": 5907,
    "eexist": 5908,
    "\u25810x678208": 5909,
    "\u2581fileexist": 5910,
    "69e": 5911,
    "fad": 5912,
    "\u25810x4df": 5913,
    "\u25810x5f3": 5914,
    "d10": 5915,
    "skrnl": 5916,
    "\u2581ntoskrnl": 5917,
    "dd6": 5918,
    "fb8": 5919,
    "\u25810xa010": 5920,
    "\u25810x70000": 5921,
    "\u25810x423d78": 5922,
    "\u25810x423e38": 5923,
    "fa2": 5924,
    "\u25810xffca": 5925,
    "au": 5926,
    "506": 5927,
    "\u25810x42f1": 5928,
    "\u25810x94f0": 5929,
    "\u25810x74000": 5930,
    "d7c": 5931,
    "su": 5932,
    "620": 5933,
    "f98": 5934,
    "\u2581cl": 5935,
    "61c": 5936,
    "ed1": 5937,
    "tag": 5938,
    "\u2581dup": 5939,
    "538": 5940,
    "71f": 5941,
    "a68": 5942,
    "ce1": 5943,
    "2f5": 5944,
    "hlp": 5945,
    "\u2581task": 5946,
    "396": 5947,
    "9b4": 5948,
    "\u25810xffc8": 5949,
    "amet": 5950,
    "d24": 5951,
    "\u2581ns": 5952,
    "\u2581shgetfile": 5953,
    "a28": 5954,
    "\u25810x10e": 5955,
    "\u25810x42fc68": 5956,
    "\u25810x1211d44": 5957,
    "\u2581commandline": 5958,
    "351": 5959,
    "a74": 5960,
    "\u25810x5937": 5961,
    "\u25810xa9a0": 5962,
    "\u2581isvalidlocale": 5963,
    "\u25810x5617a8": 5964,
    "star": 5965,
    "argvw": 5966,
    "toargvw": 5967,
    "\u25810x4093e9": 5968,
    "\u25810x4093ea": 5969,
    "\u25810x4093eb": 5970,
    "\u2581commandlinetoargvw": 5971,
    "\u25810x1a0": 5972,
    "qa": 5973,
    "374": 5974,
    "\u25810x4170d4": 5975,
    "\u25810x4170d5": 5976,
    "7b8": 5977,
    "b34": 5978,
    "\u25810x131": 5979,
    "\u25810x42c0a4": 5980,
    "3d6": 5981,
    "2c6": 5982,
    "66e": 5983,
    "\u25810x95d0": 5984,
    "\u25810x1211e54": 5985,
    "a99": 5986,
    "\u25810xba": 5987,
    "mi": 5988,
    "lien": 5989,
    "\u25810xd8": 5990,
    "\u25810x16000": 5991,
    "354": 5992,
    "\u2581taskbar": 5993,
    "dd7": 5994,
    "\u25810x4ec0": 5995,
    "628": 5996,
    "\u25810x442": 5997,
    "\u2581duplic": 5998,
    "dcc": 5999,
    "\u25810x455": 6000,
    "\u25810xa420": 6001,
    "\u2581pi": 6002,
    "6e0": 6003,
    "9f0": 6004,
    "641": 6005,
    "a6c": 6006,
    "\u25810x423d68": 6007,
    "\u25810x598740": 6008,
    "305": 6009,
    "e69": 6010,
    "\u25810x423e28": 6011,
    "ad6": 6012,
    "\u25810x4219": 6013,
    "150": 6014,
    "9d8": 6015,
    "\u25810x41aa": 6016,
    "\u25810x80be": 6017,
    "ocontrol": 6018,
    "\u25810x409aa4": 6019,
    "chr": 6020,
    "vip": 6021,
    "iocontrol": 6022,
    "\u25810x409aa5": 6023,
    "\u25810x4350c8": 6024,
    "\u25810x4614d0": 6025,
    "ab5": 6026,
    "\u2581prvip": 6027,
    "\u2581charpre": 6028,
    "\u25810x8000000": 6029,
    "312": 6030,
    "adc": 6031,
    "\u25810xbe": 6032,
    "\u25810x4c10": 6033,
    "3d4": 6034,
    "f38": 6035,
    "\u25810x40935d": 6036,
    "\u25810x40935e": 6037,
    "\u25810x40935f": 6038,
    "\u25810x409360": 6039,
    "\u25810x409361": 6040,
    "\u25810x409362": 6041,
    "\u25810x409363": 6042,
    "med": 6043,
    "\u2581deviceiocontrol": 6044,
    "ba9": 6045,
    "\u25810x1211fbc": 6046,
    "\u25810x450": 6047,
    "\u25810x419ce0": 6048,
    "\u2581nsiserror": 6049,
    "58c": 6050,
    "mar": 6051,
    "pass": 6052,
    "\u25810xffc9": 6053,
    "\u25810x432378": 6054,
    "\u25810x1210e80": 6055,
    "\u25810x2e7": 6056,
    "\u25810x518": 6057,
    "\u25810x42ea": 6058,
    "a2c": 6059,
    "db8": 6060,
    "\u25810x45fb": 6061,
    "df0": 6062,
    "\u25810x9940": 6063,
    "\u25810x4353c0": 6064,
    "932": 6065,
    "lay": 6066,
    "\u25810x414c": 6067,
    "\u25810x53e498": 6068,
    "15c": 6069,
    "seekto": 6070,
    "\u25810x1808": 6071,
    "\u25810x433268": 6072,
    "\u25810x433280": 6073,
    "\u25810x1211ebc": 6074,
    "\u25810x3200a48": 6075,
    "\u25810xfeee009d": 6076,
    "\u2581failedtoseekto": 6077,
    "instan": 6078,
    "\u25810x4606": 6079,
    "\u25810x569b48": 6080,
    "\u25810xb7": 6081,
    "\u25810x4ac": 6082,
    "formata": 6083,
    "\u25810x4240": 6084,
    "starto": 6085,
    "startoffile": 6086,
    "\u2581failedtoseektostartoffile": 6087,
    "df5": 6088,
    "\u25810x169bf28": 6089,
    "ed0": 6090,
    "\u25810xb2": 6091,
    "741": 6092,
    "bc9": 6093,
    "d34": 6094,
    "\u25810x430828": 6095,
    "\u25810x40f1": 6096,
    "\u2581oleacc": 6097,
    "\u2581failedtoinitializeenginesection": 6098,
    "364": 6099,
    "\u2581wm": 6100,
    "\u25810x4217": 6101,
    "\u25810x4ee0": 6102,
    "eb4": 6103,
    "withtag": 6104,
    "\u25810x4208e0": 6105,
    "poolwithtag": 6106,
    "\u2581exallocate": 6107,
    "\u2581exallocatepoolwithtag": 6108,
    "680": 6109,
    "\u2581getmessagew": 6110,
    "68b": 6111,
    "656c": 6112,
    "ters": 6113,
    "\u25810x46c0": 6114,
    "a526": 6115,
    "\u2581failedtoinitializeenginestate": 6116,
    "1b4": 6117,
    "3ac": 6118,
    "privile": 6119,
    "valueexa": 6120,
    "\u25810x1211e80": 6121,
    "\u2581aa": 6122,
    "\u2581ea": 6123,
    "\u25810x169ba04": 6124,
    "da8": 6125,
    "\u25810x1211f50": 6126,
    "one": 6127,
    "\u2581strlen": 6128,
    "\u25810x3f3080": 6129,
    "22c": 6130,
    "\u2581ndr": 6131,
    "\u25810x2200": 6132,
    "3b0": 6133,
    "970": 6134,
    "\u2581reset": 6135,
    "\u25810x1211f98": 6136,
    "\u2581ndrd": 6137,
    "\u25810x424470": 6138,
    "1a0": 6139,
    "2d0": 6140,
    "\u25810x134": 6141,
    "7dc": 6142,
    "\u25810x9290": 6143,
    "566": 6144,
    "9d0": 6145,
    "etype": 6146,
    "\u25810x4335": 6147,
    "\u25810x47ee": 6148,
    "\u25810x8de0": 6149,
    "\u2581864000": 6150,
    "\u25810x169bc04": 6151,
    "\u25810x169bd04": 6152,
    "\u25810x39569": 6153,
    "290": 6154,
    "\u25810x3f3040": 6155,
    "\u25810x431f68": 6156,
    "a87": 6157,
    "dfd": 6158,
    "\u2581af": 6159,
    "510": 6160,
    "ce6": 6161,
    "\u25810x41688a": 6162,
    "\u25810x41688b": 6163,
    "\u25810x4208df": 6164,
    "325": 6165,
    "plorer": 6166,
    "\u25810x4324": 6167,
    "\u2581cocreate": 6168,
    "\u25810xa427": 6169,
    "9c4": 6170,
    "\u258108": 6171,
    "\u25810x1210e84": 6172,
    "238": 6173,
    "d9f": 6174,
    "\u25810x419cb0": 6175,
    "\u2581programinternalerrornumberis6": 6176,
    "198": 6177,
    "\u25810xa429b0": 6178,
    "\u258186400040": 6179,
    "\u25810x52668": 6180,
    "\u25810x144": 6181,
    "\u25810x8838": 6182,
    "\u2581formatmessagea": 6183,
    "\u25810x4540": 6184,
    "\u25810x1211ed8": 6185,
    "\u25810x1211f30h": 6186,
    "\u25810x3f2420": 6187,
    "33c": 6188,
    "\u25810xffd4": 6189,
    "\u25810x4175": 6190,
    "3b9": 6191,
    "a24": 6192,
    "c8e": 6193,
    "\u25810x170": 6194,
    "a94": 6195,
    "dd8": 6196,
    "5ec": 6197,
    "\u25810x8839": 6198,
    "790": 6199,
    "\u25810x2200220": 6200,
    "\u2581ip": 6201,
    "\u25810x41d2": 6202,
    "3ec": 6203,
    "\u258134": 6204,
    "20224": 6205,
    "utton": 6206,
    "\u25810x40a58c": 6207,
    "315": 6208,
    "9cc": 6209,
    "bc7": 6210,
    "ddc": 6211,
    "d0a64": 6212,
    "\u25810x4718": 6213,
    "\u2581initcommoncontrolsex": 6214,
    "6c5": 6215,
    "570656": 6216,
    "\u25813a526": 6217,
    "2022433a": 6218,
    "1740d0a64": 6219,
    "\u25810x200020": 6220,
    "\u2581internet": 6221,
    "656c2022433a": 6222,
    "\u25813a526570656": 6223,
    "1740d0a64656c2022433a": 6224,
    "\u25813a5265706561740d0a64656c2022433a": 6225,
    "9b8": 6226,
    "exit": 6227,
    "\u25810x40a57c": 6228,
    "\u2581duplicate": 6229,
    "505": 6230,
    "\u2581date": 6231,
    "\u2581command": 6232,
    "30c": 6233,
    "\u2581cocreateinstan": 6234,
    "\u25810x4c0": 6235,
    "2d8": 6236,
    "ef4": 6237,
    "gex": 6238,
    "\u25810x7ac0": 6239,
    "\u25810x169b9c0": 6240,
    "7c5": 6241,
    "b23": 6242,
    "\u25810xd3d": 6243,
    "privilege": 6244,
    "f69": 6245,
    "ready": 6246,
    "\u25810x40a7": 6247,
    "\u25810x43f6": 6248,
    "\u2581lstrcata": 6249,
    "bf4": 6250,
    "screen": 6251,
    "\u25810x41cba4": 6252,
    "392": 6253,
    "a06": 6254,
    "atom": 6255,
    "\u25810xa41": 6256,
    "\u25810x4258": 6257,
    "\u2581can": 6258,
    "\u25810x42b4": 6259,
    "\u25810xa3a790": 6260,
    "7a7": 6261,
    "\u25810x1211b08": 6262,
    "\u25810x44b7": 6263,
    "\u2581getdriv": 6264,
    "\u25810x12117ec": 6265,
    "\u2581setenvironmentvariablea": 6266,
    "3cc": 6267,
    "hlpapi": 6268,
    "\u25810x1210cf0": 6269,
    "\u2581getdrivetype": 6270,
    "\u25810xfeee015": 6271,
    "\u25810xfeee00f3": 6272,
    "\u25810x1211fa0": 6273,
    "\u2581duplicatehandle": 6274,
    "roll": 6275,
    "ware": 6276,
    "\u2581202203031": 6277,
    "\u25810xfeee00f2": 6278,
    "117": 6279,
    "\u25810x4354": 6280,
    "\u25810x1211dbc": 6281,
    "545": 6282,
    "fdc": 6283,
    "\u25810x64000": 6284,
    "\u25810x413f": 6285,
    "\u25810x416c0": 6286,
    "\u25810x416242": 6287,
    "\u25810x416243": 6288,
    "\u25810x42a0a0": 6289,
    "\u2581mta": 6290,
    "a30": 6291,
    "\u25810xb1": 6292,
    "\u2581setcurrentdirectorya": 6293,
    "\u2581isctype": 6294,
    "\u25810x58de50": 6295,
    "exist": 6296,
    "tinue": 6297,
    "\u25810xfff2": 6298,
    "\u25810x41ba": 6299,
    "\u25810x7eec": 6300,
    "\u25810x1211438": 6301,
    "916": 6302,
    "toc": 6303,
    "\u25810x120e6dc": 6304,
    "37c": 6305,
    "aec": 6306,
    "\u25810x422778": 6307,
    "385": 6308,
    "630": 6309,
    "\u25810x426f": 6310,
    "\u25810x120fe": 6311,
    "\u25810x4f6200": 6312,
    "2c0": 6313,
    "\u2581youm": 6314,
    "\u2581opena": 6315,
    "\u25810x7e30": 6316,
    "920": 6317,
    "605": 6318,
    "\u25810x4607": 6319,
    "3fc": 6320,
    "\u25810xb6": 6321,
    "\u25810x7eed": 6322,
    "d05": 6323,
    "move": 6324,
    "netw": 6325,
    "\u25810x7e4": 6326,
    "\u25810xa3a0": 6327,
    "\u2581security": 6328,
    "75c8": 6329,
    "\u25810x169bf04": 6330,
    "336": 6331,
    "\u25810x7f4": 6332,
    "\u25810x4604": 6333,
    "sd": 6334,
    "\u2581destroywindow": 6335,
    "bbc": 6336,
    "\u2581ab": 6337,
    "\u25810x169bf2c": 6338,
    "\u25810x75500000": 6339,
    "pl": 6340,
    "\u25810x6b9c": 6341,
    "\u25810x7df9": 6342,
    "\u25810x1211bf4": 6343,
    "\u258135": 6344,
    "5a0": 6345,
    "698": 6346,
    "709": 6347,
    "bac": 6348,
    "output": 6349,
    "\u25810x7df8": 6350,
    "\u25810x6ba": 6351,
    "memorys": 6352,
    "\u25810x4190": 6353,
    "\u25810x8554": 6354,
    "memorystatus": 6355,
    "\u2581globalmemorystatus": 6356,
    "1b8": 6357,
    "be4": 6358,
    "\u25810x3010": 6359,
    "\u258104": 6360,
    "\u2581back": 6361,
    "network": 6362,
    "\u25810x40d8": 6363,
    "\u25810x4d5": 6364,
    "\u2581iphlpapi": 6365,
    "fac": 6366,
    "pri": 6367,
    "\u25810x6a": 6368,
    "\u25810x2010": 6369,
    "2d4": 6370,
    "\u25810x7f8003": 6371,
    "\u25810x7f8004": 6372,
    "\u25810x7f8005": 6373,
    "\u25810x7f8006": 6374,
    "\u25810x7f8007": 6375,
    "\u25810x7f8008": 6376,
    "\u25810x7f8009": 6377,
    "\u25810x7f800a": 6378,
    "\u25810x7f800b": 6379,
    "\u25810x7f800c": 6380,
    "\u25810x7f800d": 6381,
    "186": 6382,
    "\u25810x41ac": 6383,
    "\u25810x5266c": 6384,
    "\u25810x7f800e": 6385,
    "\u25810x502dc": 6386,
    "\u25810x52669": 6387,
    "\u25810x169bec8": 6388,
    "d58": 6389,
    "\u25810x413b": 6390,
    "660": 6391,
    "bec": 6392,
    "\u2581oa": 6393,
    "3d28": 6394,
    "outputcp": 6395,
    "\u25810x40eeca": 6396,
    "\u25810x40eecb": 6397,
    "\u25810x7f800f": 6398,
    "aae": 6399,
    "unch": 6400,
    "priority": 6401,
    "3de": 6402,
    "\u25810x4020": 6403,
    "3ff": 6404,
    "\u25810x4176": 6405,
    "230": 6406,
    "f35": 6407,
    "\u2581towlower": 6408,
    "\u2581getconsoleoutputcp": 6409,
    "3e1": 6410,
    "bed": 6411,
    "\u25810x1211584": 6412,
    "e14": 6413,
    "\u2581fre": 6414,
    "\u2581globalf": 6415,
    "\u25810x40ef1b": 6416,
    "a89": 6417,
    "ad5": 6418,
    "alse": 6419,
    "\u2581openw": 6420,
    "\u25810xa710": 6421,
    "\u25810x2357b": 6422,
    "\u25810x4378b0": 6423,
    "332": 6424,
    "\u25810x4608": 6425,
    "\u25810xffdf": 6426,
    "\u25810x40ef1a": 6427,
    "\u2581getcursor": 6428,
    "3b4": 6429,
    "7ce": 6430,
    "times": 6431,
    "\u25810x600": 6432,
    "f64": 6433,
    "\u25810xffed": 6434,
    "7d8": 6435,
    "\u2581your": 6436,
    "\u25810x1211b74": 6437,
    "7de": 6438,
    "ervice": 6439,
    "128": 6440,
    "eb2": 6441,
    "\u25810x6940": 6442,
    "\u25810x1211888": 6443,
    "35c": 6444,
    "a5b": 6445,
    "\u2581qa": 6446,
    "9c24": 6447,
    "\u25810x4218": 6448,
    "\u25810x58c034": 6449,
    "\u2581getconsolewindow": 6450,
    "1c4": 6451,
    "386": 6452,
    "\u25810x4b7": 6453,
    "\u25810x40c8": 6454,
    "339": 6455,
    "a0d": 6456,
    "a32": 6457,
    "16c": 6458,
    "2ec": 6459,
    "a86": 6460,
    "170": 6461,
    "b74": 6462,
    "\u25810x42390": 6463,
    "\u25810x491288": 6464,
    "bf1": 6465,
    "f71": 6466,
    "\u25810x40e5": 6467,
    "\u25810x7dc4": 6468,
    "\u2581environ": 6469,
    "a49": 6470,
    "\u25810x5627": 6471,
    "\u25810xa41f": 6472,
    "b3c": 6473,
    "bc6": 6474,
    "efc": 6475,
    "\u25810x4c30": 6476,
    "\u2581regcreate": 6477,
    "3dc": 6478,
    "applet": 6479,
    "\u25810xa0e6": 6480,
    "b6c": 6481,
    "\u25810x7ce0": 6482,
    "\u25810x500010": 6483,
    "115": 6484,
    "a76": 6485,
    "\u25810x4dc": 6486,
    "\u25810x4251": 6487,
    "\u25810xffd1": 6488,
    "gs": 6489,
    "b33": 6490,
    "\u25810x43b8c8": 6491,
    "\u25810x1906000": 6492,
    "f6c": 6493,
    "fcc": 6494,
    "\u25810x4140": 6495,
    "\u25810x2d4df": 6496,
    "\u25810x80be54": 6497,
    "296": 6498,
    "\u25810x4605": 6499,
    "\u25810x3fd00": 6500,
    "\u25810x414f20": 6501,
    "235": 6502,
    "ea0": 6503,
    "\u25810x6970": 6504,
    "\u25810x7dd9": 6505,
    "\u25810xff86": 6506,
    "\u25810x640000": 6507,
    "\u25810x40f6a8": 6508,
    "\u25810x1211b50": 6509,
    "\u2581failedtoopen": 6510,
    "\u2581failedtoopenapplication": 6511,
    "9b0": 6512,
    "\u25810x1b0": 6513,
    "\u2581failedtoopenapplicationlog": 6514,
    "fa0": 6515,
    "\u25810x4212": 6516,
    "\u25810x7dc5": 6517,
    "\u25810x414f21": 6518,
    "3a5": 6519,
    "b94": 6520,
    "f3c": 6521,
    "\u25810x5f6": 6522,
    "\u25810x7dd0": 6523,
    "\u25810x565868": 6524,
    "che": 6525,
    "\u25810x599": 6526,
    "\u25810x42ec": 6527,
    "e38": 6528,
    "30000": 6529,
    "ba4": 6530,
    "\u25810x10a": 6531,
    "\u25810x4760": 6532,
    "\u25810xffe8": 6533,
    "\u25810x598758": 6534,
    "\u2581regcreatekey": 6535,
    "6c4": 6536,
    "407": 6537,
    "695": 6538,
    "a39": 6539,
    "\u25810x740": 6540,
    "\u25810x1210e30": 6541,
    "f10": 6542,
    "adap": 6543,
    "ning": 6544,
    "\u2581prop": 6545,
    "\u25810x522": 6546,
    "adapters": 6547,
    "\u2581to": 6548,
    "\u25810x41e9": 6549,
    "e90": 6550,
    "sion": 6551,
    "\u25810x417da0": 6552,
    "\u25810x1211790": 6553,
    "\u25810x420f2": 6554,
    "\u25810x42b0a0": 6555,
    "\u2581getadapters": 6556,
    "319": 6557,
    "f37": 6558,
    "70000": 6559,
    "\u25810x1211b54": 6560,
    "ects": 6561,
    "\u2581lib": 6562,
    "\u25810x417d9f": 6563,
    "1c6": 6564,
    "a7d": 6565,
    "\u2581bo": 6566,
    "\u2581ri": 6567,
    "\u25810x4602": 6568,
    "5a8": 6569,
    "place": 6570,
    "\u25810x2100": 6571,
    "\u2581messageboxw": 6572,
    "80c": 6573,
    "d49": 6574,
    "fd5": 6575,
    "led": 6576,
    "\u25810x1211f0c": 6577,
    "a9c": 6578,
    "ab6": 6579,
    "bdc": 6580,
    "main": 6581,
    "\u25810x478": 6582,
    "\u25810x940000": 6583,
    "2b8": 6584,
    "7ec": 6585,
    "per": 6586,
    "7170": 6587,
    "\u25810x46b3b8": 6588,
    "dfc": 6589,
    "his": 6590,
    "run": 6591,
    "\u25810x2d4d9": 6592,
    "rap": 6593,
    "\u25810x4e5c": 6594,
    "\u25810x4f53c8": 6595,
    "\u25810x1211cf4": 6596,
    "button": 6597,
    "\u25810x3f29": 6598,
    "\u25810xff69": 6599,
    "\u25810x4316": 6600,
    "aac": 6601,
    "ally": 6602,
    "f2c": 6603,
    "\u25810x56c": 6604,
    "24c": 6605,
    "enamew": 6606,
    "3b6": 6607,
    "6f0": 6608,
    "97c": 6609,
    "9a8": 6610,
    "\u25810x9520": 6611,
    "\u25810x188e4c": 6612,
    "\u25810x420818": 6613,
    "96c": 6614,
    "17f4": 6615,
    "\u25810x43400": 6616,
    "\u25810x5b5": 6617,
    "250": 6618,
    "e4b8": 6619,
    "a3c": 6620,
    "f14": 6621,
    "\u2581ps": 6622,
    "2fc": 6623,
    "\u25810x4106": 6624,
    "\u25810x4af4": 6625,
    "eresource": 6626,
    "\u25810x461518": 6627,
    "\u25810x1211c4c": 6628,
    "\u2581run": 6629,
    "\u25810x4b40": 6630,
    "\u2581logme": 6631,
    "orno": 6632,
    "\u25810xd7": 6633,
    "\u2581riche": 6634,
    "\u25810x486d18": 6635,
    "\u25810x1211e0c": 6636,
    "635": 6637,
    "fd9": 6638,
    "ae00": 6639,
    "\u25810x1211f68": 6640,
    "945": 6641,
    "\u25810x6b6": 6642,
    "7f4": 6643,
    "ei": 6644,
    "31c": 6645,
    "b1e": 6646,
    "\u2581setupapi": 6647,
    "zone": 6648,
    "119": 6649,
    "3e5": 6650,
    "ee2": 6651,
    "\u2581regdelete": 6652,
    "\u2581freeresource": 6653,
    "5f8": 6654,
    "ae2": 6655,
    "e81": 6656,
    "\u25810x427": 6657,
    "7cc": 6658,
    "\u25810xdc": 6659,
    "\u25810xa020": 6660,
    "\u25810x42fc20": 6661,
    "406": 6662,
    "543": 6663,
    "7c0": 6664,
    "b0000": 6665,
    "\u25810x42b7": 6666,
    "\u25810x423db0": 6667,
    "\u2581el": 6668,
    "\u25810x4902e0": 6669,
    "224": 6670,
    "river": 6671,
    "\u25810x496790": 6672,
    "b12": 6673,
    "\u25810x423df0": 6674,
    "\u25810x7eaba8": 6675,
    "723": 6676,
    "ae4": 6677,
    "e64": 6678,
    "f24": 6679,
    "f99": 6680,
    "ted": 6681,
    "\u25810x423e20": 6682,
    "\u25810x599b5c": 6683,
    "\u25810x599c24": 6684,
    "\u25810x59bf3c": 6685,
    "\u25810x59bf7c": 6686,
    "\u25810x59c120": 6687,
    "\u25810x59c138": 6688,
    "zoneinformation": 6689,
    "db4": 6690,
    "\u2581getwindowsdirectoryw": 6691,
    "f5c": 6692,
    "\u25810x8e90": 6693,
    "\u2581gettimezoneinformation": 6694,
    "sys": 6695,
    "\u25810x4255ef": 6696,
    "\u25810x4255f0": 6697,
    "\u25810x567678": 6698,
    "2e2": 6699,
    "fb4": 6700,
    "\u2581la": 6701,
    "0068": 6702,
    "orgex": 6703,
    "\u2581psapi": 6704,
    "\u25810x4137": 6705,
    "\u25810x7dc9": 6706,
    "\u25810x42e0a4": 6707,
    "\u25810x120ff7c": 6708,
    "\u25810x1210ec0": 6709,
    "b38": 6710,
    "eb6": 6711,
    "\u25810xfeedf000": 6712,
    "710": 6713,
    "\u25810xb9": 6714,
    "\u25810x435018": 6715,
    "\u25810xd4": 6716,
    "\u2581print": 6717,
    "\u25810x7ddd": 6718,
    "\u25810x419c54": 6719,
    "\u25810x435002": 6720,
    "\u25810x435004": 6721,
    "\u25810x435006": 6722,
    "\u25810x435008": 6723,
    "\u25810x43500a": 6724,
    "\u25810x43500c": 6725,
    "\u25810x43500e": 6726,
    "\u25810x435010": 6727,
    "686": 6728,
    "e74": 6729,
    "\u25810x44c2": 6730,
    "\u25810x419c53": 6731,
    "\u25810x435014": 6732,
    "548": 6733,
    "e70": 6734,
    "\u25810xe4": 6735,
    "\u25810x435016": 6736,
    "d32": 6737,
    "ame32": 6738,
    "\u2581call": 6739,
    "\u25810x407b": 6740,
    "\u2581mame32": 6741,
    "\u25810x42398": 6742,
    "\u2581freeware": 6743,
    "aad": 6744,
    "ed2": 6745,
    "\u2581apphelp": 6746,
    "\u2581iswindow": 6747,
    "912": 6748,
    "a34": 6749,
    "b39": 6750,
    "fa6": 6751,
    "bcat": 6752,
    "\u25810x4188": 6753,
    "\u25810x509e4": 6754,
    "ht": 6755,
    "v1": 6756,
    "\u25810x447": 6757,
    "\u25810x44f": 6758,
    "\u25810x8e50": 6759,
    "\u2581propsys": 6760,
    "161": 6761,
    "bcatq": 6762,
    "\u25810x4b4": 6763,
    "\u25810x4011": 6764,
    "\u2581clbcatq": 6765,
    "681": 6766,
    "376": 6767,
    "ce9": 6768,
    "cue": 6769,
    "rescue": 6770,
    "\u25810x42d498": 6771,
    "72c": 6772,
    "d55": 6773,
    "inrescue": 6774,
    "\u25810x417c10": 6775,
    "\u25810xc417f4": 6776,
    "\u2581getmessage": 6777,
    "\u2581logmeinrescue": 6778,
    "\u25810xa3a7d8": 6779,
    "9c7": 6780,
    "20000": 6781,
    "\u25810x2b4": 6782,
    "\u25810x422750": 6783,
    "\u25810x423850": 6784,
    "\u25810x423880": 6785,
    "\u2581logmeinrescueapplet": 6786,
    "\u2581registerwindowmessagea": 6787,
    "f39": 6788,
    "\u25810x435012": 6789,
    "\u25810x535": 6790,
    "263": 6791,
    "\u25810x7fc": 6792,
    "\u25810x7c000": 6793,
    "\u25810x417be0": 6794,
    "b75": 6795,
    "\u25810x5ab": 6796,
    "\u25810x415c": 6797,
    "777": 6798,
    "dbd": 6799,
    "\u2581getmodulebas": 6800,
    "23d": 6801,
    "274": 6802,
    "33c4": 6803,
    "7f8": 6804,
    "ad50": 6805,
    "\u25810x1b5": 6806,
    "\u25810x7e20": 6807,
    "\u25810xff92": 6808,
    "55c8": 6809,
    "idto": 6810,
    "\u25810x7dcc": 6811,
    "\u25810xffe9": 6812,
    "646": 6813,
    "\u25810x3f28": 6814,
    "\u25810xfeee009e": 6815,
    "\u2581getmodulebasenamew": 6816,
    "185": 6817,
    "valuea": 6818,
    "\u25810x8cb0": 6819,
    "\u25810x700": 6820,
    "datom": 6821,
    "\u25810x7dd4": 6822,
    "\u25810xfeee00f0": 6823,
    "b22": 6824,
    "d26": 6825,
    "this": 6826,
    "profil": 6827,
    "\u25810x4d0": 6828,
    "\u25810x12000": 6829,
    "\u25810x431f20": 6830,
    "5b4": 6831,
    "9c9": 6832,
    "\u25810x5e9": 6833,
    "\u25810x1211e38": 6834,
    "\u2581cp": 6835,
    "\u25810x41a9": 6836,
    "\u25810x4c33": 6837,
    "\u25810x7dd8": 6838,
    "\u25810x3020302": 6839,
    "\u25810xfeee00f5": 6840,
    "\u2581cocreateinstance": 6841,
    "buf": 6842,
    "\u25810x9c50": 6843,
    "225": 6844,
    "6f1": 6845,
    "be7": 6846,
    "f76": 6847,
    "\u2581endd": 6848,
    "\u25810x7dd1": 6849,
    "\u25810x7dcd": 6850,
    "\u25810xfeee00a0": 6851,
    "540": 6852,
    "691": 6853,
    "df4": 6854,
    "\u25810x4040": 6855,
    "\u25810x7ddc": 6856,
    "\u25810x4c32d8": 6857,
    "\u25810x4c32f0": 6858,
    "a43": 6859,
    "fe4": 6860,
    "nexit": 6861,
    "\u2581enable": 6862,
    "\u2581onexit": 6863,
    "pc": 6864,
    "911": 6865,
    "\u25810xcccc": 6866,
    "2a8": 6867,
    "ill": 6868,
    "\u25810x7100": 6869,
    "\u25810x4093d": 6870,
    "\u25810x42ce08": 6871,
    "28c": 6872,
    "f54": 6873,
    "7675": 6874,
    "\u2581line": 6875,
    "\u25810x169b8": 6876,
    "\u25810x47a00": 6877,
    "\u25810x181b48": 6878,
    "168": 6879,
    "234": 6880,
    "618": 6881,
    "\u25810x40d9": 6882,
    "\u25810x7dd5": 6883,
    "fde": 6884,
    "\u25810x366": 6885,
    "\u25810x458": 6886,
    "\u25810x46a1": 6887,
    "f95": 6888,
    "\u25810x40a6": 6889,
    "mt": 6890,
    "745": 6891,
    "\u258103t": 6892,
    "\u25810xe6": 6893,
    "\u2581fast": 6894,
    "\u25810x7730": 6895,
    "\u25810x9b30": 6896,
    "b56": 6897,
    "\u25810x115": 6898,
    "\u25810x4012": 6899,
    "\u25810x408c8d": 6900,
    "\u25810x408c8e": 6901,
    "\u25810x4254ef": 6902,
    "\u25810x4254f0": 6903,
    "\u25810x1211cb8": 6904,
    "\u2581getfileattributesa": 6905,
    "2f0": 6906,
    "e05": 6907,
    "\u25810x8a44": 6908,
    "\u2581lstrcmpia": 6909,
    "670": 6910,
    "f3f": 6911,
    "\u25810xa3a": 6912,
    "\u25810x9ab0": 6913,
    "\u25810x1211eac": 6914,
    "145": 6915,
    "7ac": 6916,
    "9ac": 6917,
    "trect": 6918,
    "valuew": 6919,
    "\u2581cryptget": 6920,
    "eac": 6921,
    "\u2581ol": 6922,
    "3ed": 6923,
    "\u25810x7f5": 6924,
    "\u25810x508d0": 6925,
    "645": 6926,
    "\u25810xbf": 6927,
    "\u25810x9110": 6928,
    "\u25810x509a8": 6929,
    "\u25810x3f75e88": 6930,
    "\u25810xfeee019": 6931,
    "365": 6932,
    "375": 6933,
    "ea8": 6934,
    "\u25810x43501a": 6935,
    "\u2581writeconsolea": 6936,
    "fa5": 6937,
    "propw": 6938,
    "\u25810x41cc54": 6939,
    "\u25810x120e6a0": 6940,
    "\u25810x120f8a6": 6941,
    "sgd": 6942,
    "\u25810x40e9": 6943,
    "356": 6944,
    "b008": 6945,
    "\u25810x504": 6946,
    "\u25810x7f9": 6947,
    "\u25810xec": 6948,
    "\u25810x4b8": 6949,
    "\u25810x677": 6950,
    "\u25810x99f0": 6951,
    "\u25810x120f3": 6952,
    "\u25810x181b98": 6953,
    "648": 6954,
    "sions": 6955,
    "\u25810x474": 6956,
    "\u2581cryptdestroy": 6957,
    "760": 6958,
    "a61": 6959,
    "\u2581hi": 6960,
    "\u25810x77000": 6961,
    "634": 6962,
    "a9b": 6963,
    "d14": 6964,
    "eab": 6965,
    "300b": 6966,
    "\u2581launch": 6967,
    "\u25810x1211ec0": 6968,
    "ax": 6969,
    "\u25810xd2": 6970,
    "a33": 6971,
    "0048": 6972,
    "aac0": 6973,
    "\u25810x180c": 6974,
    "\u25810x40f4": 6975,
    "\u25810x7c90": 6976,
    "\u25810x41f9": 6977,
    "\u2581localrealloc": 6978,
    "53a0": 6979,
    "\u25810xde": 6980,
    "\u25810x7dc": 6981,
    "\u25810x4c9778": 6982,
    "\u2581getmenuitem": 6983,
    "processmemory": 6984,
    "\u25810x44c": 6985,
    "\u25810x434388": 6986,
    "b91": 6987,
    "image": 6988,
    "\u25810xa050": 6989,
    "\u25810xffd8": 6990,
    "\u25810x563a20": 6991,
    "\u25810x1210550": 6992,
    "fami": 6993,
    "famili": 6994,
    "\u25810x4ed": 6995,
    "\u25810x9630": 6996,
    "\u25810x435228": 6997,
    "\u25810x435240": 6998,
    "cc5": 6999,
    "fn": 7000,
    "6f8": 7001,
    "dd5": 7002,
    "0074": 7003,
    "\u25810x40e7": 7004,
    "\u25810x42eab0": 7005,
    "\u25810xa3a7e0": 7006,
    "3f4": 7007,
    "\u2581vf": 7008,
    "765": 7009,
    "\u25810x112": 7010,
    "\u25810x71a1": 7011,
    "\u25810x43501c": 7012,
    "\u25810x43501e": 7013,
    "\u25810x435020": 7014,
    "\u25810x435022": 7015,
    "\u25810x435028": 7016,
    "\u25810x43502a": 7017,
    "\u25810x43502c": 7018,
    "\u25810x43502e": 7019,
    "\u25810x435030": 7020,
    "\u2581getthreadtimes": 7021,
    "1d4": 7022,
    "\u25810x636": 7023,
    "\u2581mso97": 7024,
    "\u25810x4095": 7025,
    "\u25810x40c5": 7026,
    "\u25810x9890": 7027,
    "\u25810x41d1e0": 7028,
    "\u25810x46b388": 7029,
    "\u25810xfffffffe": 7030,
    "964": 7031,
    "\u2581regenum": 7032,
    "a65": 7033,
    "dd0": 7034,
    "blead": 7035,
    "\u2581ismb": 7036,
    "\u25810x513d28": 7037,
    "\u25810x1211a44": 7038,
    "\u2581ismbblead": 7039,
    "e2c": 7040,
    "60000": 7041,
    "\u2581getdrivetypea": 7042,
    "006c": 7043,
    "\u25810x43f": 7044,
    "\u25810x422530": 7045,
    "\u25810x423e10": 7046,
    "27c": 7047,
    "\u2581pa": 7048,
    "\u2581xz": 7049,
    "ocus": 7050,
    "\u25810x1211f94": 7051,
    "\u2581setenvironmentvariablew": 7052,
    "b66": 7053,
    "d99": 7054,
    "\u25810x40ad": 7055,
    "\u25810x1211800": 7056,
    "111": 7057,
    "aab": 7058,
    "uti": 7059,
    "icen": 7060,
    "\u25810x4375c8": 7061,
    "\u25810xfeedf0": 7062,
    "\u25810x1210e70": 7063,
    "d9c": 7064,
    "\u25810x423c": 7065,
    "\u25810xa950": 7066,
    "\u25810x44c250": 7067,
    "c43": 7068,
    "d70": 7069,
    "f05": 7070,
    "\u25810x80c488": 7071,
    "\u25810x1211c60": 7072,
    "905": 7073,
    "\u25810xfeee009f": 7074,
    "db9": 7075,
    "row": 7076,
    "\u25810x8a45": 7077,
    "00000000": 7078,
    "\u25810x422500": 7079,
    "\u25810x4338a8": 7080,
    "\u25810x1211ddc": 7081,
    "b64": 7082,
    "e55": 7083,
    "e94": 7084,
    "\u2581ext": 7085,
    "\u2581zip": 7086,
    "\u25810x4220": 7087,
    "\u25810x47d0": 7088,
    "\u25810x40a5b8": 7089,
    "\u25810x1211f14": 7090,
    "7bc": 7091,
    "a9a": 7092,
    "bb9": 7093,
    "3008": 7094,
    "focus": 7095,
    "running": 7096,
    "\u25810x40a5b0": 7097,
    "\u25810x42c020": 7098,
    "\u25810x1210e34": 7099,
    "775": 7100,
    "\u25810xa9d0": 7101,
    "\u25810x42c024": 7102,
    "\u25810x42c028": 7103,
    "\u2581doyouwantto": 7104,
    "af3": 7105,
    "b42": 7106,
    "false": 7107,
    "\u25810x422a": 7108,
    "\u2581164629": 7109,
    "\u25810x40a5b4": 7110,
    "\u2581openanex": 7111,
    "filespec": 7112,
    "\u25810x40a5ae": 7113,
    "\u25810x40a5b2": 7114,
    "\u25810x40a5b6": 7115,
    "\u25810x40a5ba": 7116,
    "gn": 7117,
    "b26": 7118,
    "da0": 7119,
    "fe9": 7120,
    "\u25810x42d420": 7121,
    "\u25810x120e688": 7122,
    "\u25810x1211edc": 7123,
    "\u2581removefilespec": 7124,
    "134": 7125,
    "0060": 7126,
    "true": 7127,
    "thash": 7128,
    "nexist": 7129,
    "allyour": 7130,
    "\u25810x2840": 7131,
    "\u25810x4356": 7132,
    "\u25810x4c50": 7133,
    "\u2581istrue": 7134,
    "\u2581iszero": 7135,
    "\u2581isexist": 7136,
    "\u2581isfalse": 7137,
    "\u25810x4355c8": 7138,
    "ornonexist": 7139,
    "\u2581iszeroornonexist": 7140,
    "2a4": 7141,
    "685": 7142,
    "a1c": 7143,
    "\u25810x4a50": 7144,
    "\u25810xffdc": 7145,
    "\u25810x169be": 7146,
    "thashdata": 7147,
    "\u25810x181c88": 7148,
    "\u25810x41af40": 7149,
    "createhash": 7150,
    "2cc": 7151,
    "a14": 7152,
    "\u25810x154": 7153,
    "\u25810x40a4": 7154,
    "\u25810x4189e8": 7155,
    "frominternet": 7156,
    "395": 7157,
    "a37": 7158,
    "\u25810x181c60": 7159,
    "\u25810x4177b0": 7160,
    "\u25810x41ae00": 7161,
    "e49": 7162,
    "codeptr": 7163,
    "\u25810x40a020": 7164,
    "\u25810x4111d0": 7165,
    "\u25810x41ad50": 7166,
    "\u25810x42b070": 7167,
    "\u25810x42eaa6": 7168,
    "\u25810x42eaba": 7169,
    "\u25810x42eac4": 7170,
    "\u2581isbadcodeptr": 7171,
    "\u2581removefilespecw": 7172,
    "355": 7173,
    "\u25813d": 7174,
    "\u25810x406c": 7175,
    "\u25810x40d5": 7176,
    "\u25810x80ba": 7177,
    "\u25810x418a18": 7178,
    "e60": 7179,
    "\u25810x120fd64": 7180,
    "\u25810x1211e4c": 7181,
    "3ad": 7182,
    "\u25810x132": 7183,
    "\u25810x6f00": 7184,
    "\u25810xffea": 7185,
    "\u25810x409c2c": 7186,
    "\u25810x439458": 7187,
    "\u25810xda": 7188,
    "\u25810x120e100": 7189,
    "\u2581crypthashdata": 7190,
    "\u2581cryptcreatehash": 7191,
    "\u2581shgetspecialfolder": 7192,
    "121": 7193,
    "\u2581mfn": 7194,
    "ongle": 7195,
    "\u2581elvis": 7196,
    "\u2581gender": 7197,
    "ecadwork": 7198,
    "familiar": 7199,
    "\u25810x1211c94": 7200,
    "\u2581formality": 7201,
    "\u25810x76500000": 7202,
    "\u2581formalfamiliar": 7203,
    "\u25810x4370": 7204,
    "\u25810x169bd": 7205,
    "7c58": 7206,
    "\u25810x4491": 7207,
    "\u25810x4f5320": 7208,
    "\u2581registerclipboardformata": 7209,
    "ual": 7210,
    "tem32": 7211,
    "\u2581cryptdestroyhash": 7212,
    "ba1": 7213,
    "\u2581cm": 7214,
    "\u25810x51a0": 7215,
    "\u25810x403": 7216,
    "\u25810x7f80": 7217,
    "\u2581memmove": 7218,
    "\u25810x2840284": 7219,
    "d01": 7220,
    "eb0": 7221,
    "\u25810x85c0": 7222,
    "486": 7223,
    "\u25810x41ff": 7224,
    "menuitem": 7225,
    "hashparam": 7226,
    "\u25810x1211e88": 7227,
    "295": 7228,
    "\u25810xe2": 7229,
    "\u25810x5188": 7230,
    "a95": 7231,
    "df9": 7232,
    "7540": 7233,
    "ower": 7234,
    "\u25810x4912d0": 7235,
    "154": 7236,
    "2de": 7237,
    "a85": 7238,
    "ead": 7239,
    "icmp": 7240,
    "\u25810x2280": 7241,
    "\u25810x431a": 7242,
    "\u25810x42a670": 7243,
    "f19": 7244,
    "\u25810x1211ba8": 7245,
    "\u2581cryptgethashparam": 7246,
    "\u25810x3810": 7247,
    "\u25810x4128": 7248,
    "\u25810x4195": 7249,
    "\u2581please": 7250,
    "visible": 7251,
    "\u25810x40f5": 7252,
    "\u25810x6f6": 7253,
    "\u25810x6b00": 7254,
    "\u2581systemtimetofiletime": 7255,
    "dee": 7256,
    "e09": 7257,
    "f49": 7258,
    "uld": 7259,
    "\u25810xf4": 7260,
    "\u25810x9050": 7261,
    "005": 7262,
    "3c6": 7263,
    "d94": 7264,
    "\u25810xfeee018": 7265,
    "919": 7266,
    "bd5": 7267,
    "e9c": 7268,
    "\u25810x4a8": 7269,
    "\u25810x8770": 7270,
    "\u25810x6d006c": 7271,
    "\u25810x169b7f4": 7272,
    "\u2581globalmemorystatusex": 7273,
    "307": 7274,
    "\u25810x4f4": 7275,
    "\u25810x4156": 7276,
    "\u25810xa030": 7277,
    "\u2581cryptacquirecontexta": 7278,
    "beb": 7279,
    "abc0": 7280,
    "\u25810xa290": 7281,
    "\u25810xa980": 7282,
    "\u2581strcpy": 7283,
    "\u25810x455480": 7284,
    "\u2581dialogbox": 7285,
    "f75": 7286,
    "\u2581getfull": 7287,
    "\u25810x6f006e": 7288,
    "\u25810x710070": 7289,
    "\u25810x770076": 7290,
    "\u25810x790078": 7291,
    "\u25810xfffff8": 7292,
    "\u25810x169bca4": 7293,
    "f34": 7294,
    "1cd8": 7295,
    "\u25810x9d30": 7296,
    "\u25810x690068": 7297,
    "\u25810x6b006a": 7298,
    "\u25810x714d98": 7299,
    "\u25810x730072": 7300,
    "\u25810x750074": 7301,
    "\u25810x7b007a": 7302,
    "\u25810x7d007c": 7303,
    "\u25810x7f007e": 7304,
    "138": 7305,
    "syd": 7306,
    "\u25810xbcf2": 7307,
    "\u25810x455468": 7308,
    "\u25810x1211ec4": 7309,
    "lu": 7310,
    "1ac": 7311,
    "6b2": 7312,
    "ce5": 7313,
    "ceb": 7314,
    "pipe": 7315,
    "\u25810xae20": 7316,
    "\u25810x419970": 7317,
    "3e4": 7318,
    "ere": 7319,
    "\u25810x3f75f7c": 7320,
    "\u25810xfeee00a1": 7321,
    "1b5": 7322,
    "\u25810x420fe8": 7323,
    "\u25810x4bc298": 7324,
    "226": 7325,
    "77c": 7326,
    "lientrect": 7327,
    "\u2581getclientrect": 7328,
    "now": 7329,
    "\u2581this": 7330,
    "\u25810x350": 7331,
    "\u25810x9028": 7332,
    "\u25810xa3a2": 7333,
    "b9c": 7334,
    "\u258116462": 7335,
    "\u25810x41a9f0": 7336,
    "\u25810x4f6230": 7337,
    "\u25810xfeee00a2": 7338,
    "fox": 7339,
    "\u2581getexit": 7340,
    "windowshook": 7341,
    "006": 7342,
    "b7e": 7343,
    "\u2581a7": 7344,
    "1dd": 7345,
    "b46": 7346,
    "f94": 7347,
    "fa1": 7348,
    "6564": 7349,
    "\u25810x4529": 7350,
    "\u25810x42559f": 7351,
    "\u25810x4255a0": 7352,
    "\u25810x3010301": 7353,
    "582": 7354,
    "d35": 7355,
    "\u258150": 7356,
    "\u2581winmain": 7357,
    "\u2581application": 7358,
    "\u2581shgetfileinfow": 7359,
    "ah": 7360,
    "27d5": 7361,
    "a66": 7362,
    "955": 7363,
    "\u25810x6b4": 7364,
    "\u2581getsid": 7365,
    "17c": 7366,
    "1d5": 7367,
    "\u2581mb": 7368,
    "\u25810x1210d90": 7369,
    "\u25810x77000723": 7370,
    "88c": 7371,
    "f5e": 7372,
    "\u25810x970": 7373,
    "\u25810x40b5": 7374,
    "\u25810x9cf0": 7375,
    "\u25810x3f75f84": 7376,
    "\u25810x57c": 7377,
    "\u25810x53d": 7378,
    "\u25810x4aac": 7379,
    "\u25810x3f75f8c": 7380,
    "b71": 7381,
    "\u25810x6c000": 7382,
    "\u2581stdio": 7383,
    "\u2581appdata": 7384,
    "\u2581getdl": 7385,
    "\u25810x169b834": 7386,
    "\u25810xfeee00a3": 7387,
    "thority": 7388,
    "\u25810x40af": 7389,
    "\u25810x92e0": 7390,
    "f3a": 7391,
    "prov": 7392,
    "qstring": 7393,
    "\u2581shgetspecialfoldera": 7394,
    "5bc": 7395,
    "\u25810x120ee": 7396,
    "\u25810x1211788": 7397,
    "\u25810x1211d2c": 7398,
    "\u25810xfeee00a4": 7399,
    "\u25810xfeee00a5": 7400,
    "\u25810xed": 7401,
    "\u25810x537": 7402,
    "\u25810x4154": 7403,
    "\u25810x40a92e": 7404,
    "\u25810x40a930": 7405,
    "\u25810x40a932": 7406,
    "\u25810x40a934": 7407,
    "\u25810x40a936": 7408,
    "\u25810x40a938": 7409,
    "\u25810x40a93a": 7410,
    "\u25810x40b888": 7411,
    "\u25810x4208a8": 7412,
    "\u25810x4208d8": 7413,
    "b47": 7414,
    "\u2581mei": 7415,
    "pass2": 7416,
    "\u25810x4229c1": 7417,
    "\u2581meipass2": 7418,
    "cc6": 7419,
    "e78": 7420,
    "f1c": 7421,
    "ups": 7422,
    "22c0": 7423,
    "767574": 7424,
    "session": 7425,
    "\u25810x4420": 7426,
    "\u25810x422790": 7427,
    "\u25810x77767574": 7428,
    "676": 7429,
    "232": 7430,
    "bee": 7431,
    "f47": 7432,
    "7a7978": 7433,
    "\u25810x40c7": 7434,
    "\u25810x410acd": 7435,
    "\u25810x410ace": 7436,
    "\u25810x41e208": 7437,
    "\u25810x7b7a7978": 7438,
    "757": 7439,
    "\u25810xfeee00a6": 7440,
    "di": 7441,
    "245": 7442,
    "e98": 7443,
    "f96": 7444,
    "\u25810x4bcc": 7445,
    "\u25810xd27d5": 7446,
    "\u25810x424530": 7447,
    "371": 7448,
    "e1c": 7449,
    "progid": 7450,
    "\u25810x73a0": 7451,
    "\u25810x424500": 7452,
    "38a": 7453,
    "d81": 7454,
    "\u25810x1733c4": 7455,
    "\u25810x4315f8": 7456,
    "\u25810x452868": 7457,
    "\u2581clsidfromprogid": 7458,
    "\u2581clsidfromstring": 7459,
    "6c0": 7460,
    "\u25810x6ce": 7461,
    "\u25810x42b778": 7462,
    "3e2": 7463,
    "26160": 7464,
    "\u25810x1e0": 7465,
    "\u25810x42a4": 7466,
    "\u25810x41b9f0": 7467,
    "\u25810x429260": 7468,
    "b16": 7469,
    "\u25810x6700": 7470,
    "\u25810x4014": 7471,
    "\u25810xb4ec": 7472,
    "\u25810x1211684": 7473,
    "\u25810x1211c3c": 7474,
    "hd": 7475,
    "\u25810x7372": 7476,
    "bau": 7477,
    "0064": 7478,
    "erun": 7479,
    "\u2581cal": 7480,
    "\u25810x4603": 7481,
    "\u25810x42cdf8": 7482,
    "\u25810x4bc328": 7483,
    "\u25810x4bc358": 7484,
    "\u25810x63626160": 7485,
    "\u25810x73727170": 7486,
    "214": 7487,
    "subau": 7488,
    "\u25810x108": 7489,
    "\u25810x6766": 7490,
    "subauthority": 7491,
    "\u2581getsidsubauthority": 7492,
    "980": 7493,
    "db1": 7494,
    "\u25810x42d480": 7495,
    "\u25810x1211e90": 7496,
    "\u2581fileexistsa": 7497,
    "e34": 7498,
    "f06": 7499,
    "\u25810x67666564": 7500,
    "f45": 7501,
    "addatom": 7502,
    "\u25810x4328": 7503,
    "\u25810x42d468": 7504,
    "\u2581globaladdatom": 7505,
    "b1c": 7506,
    "ee9": 7507,
    "a6968": 7508,
    "longw": 7509,
    "\u25810x42d438": 7510,
    "\u25810x4548": 7511,
    "\u2581olerun": 7512,
    "topwindow": 7513,
    "vieworgex": 7514,
    "\u25810x42d450": 7515,
    "\u25810x1210bd7": 7516,
    "\u25810x12116c0": 7517,
    "\u25810x6b6a6968": 7518,
    "746": 7519,
    "ae7": 7520,
    "ache": 7521,
    "\u2581afx": 7522,
    "ectex": 7523,
    "\u25810x1211c28": 7524,
    "\u2581getwindowdc": 7525,
    "\u2581cryptacquirecontextw": 7526,
    "201": 7527,
    "\u25810xfeee00a7": 7528,
    "e6d6c": 7529,
    "\u25810xd5": 7530,
    "\u25810x32000": 7531,
    "\u25810xfeee00a8": 7532,
    "\u25810x238": 7533,
    "\u25810x2b2": 7534,
    "\u25810x584": 7535,
    "\u25810x429920": 7536,
    "\u25810x59c": 7537,
    "\u25810x44ea": 7538,
    "\u25810x8ee0": 7539,
    "\u25810x433630": 7540,
    "\u25810x6f6e6d6c": 7541,
    "5400": 7542,
    "\u25810xc2": 7543,
    "7e7d7c": 7544,
    "\u25810xffeb": 7545,
    "\u25810x435408": 7546,
    "\u2581charprevw": 7547,
    "\u25810x7f7e7d7c": 7548,
    "f32": 7549,
    "\u25810x40b9": 7550,
    "\u25810x4222": 7551,
    "\u25810x44f850": 7552,
    "\u25810xfeee00a9": 7553,
    "\u2581formatmessagew": 7554,
    "a31": 7555,
    "d0000": 7556,
    "\u25810x4127": 7557,
    "\u25810x6300": 7558,
    "\u2581164636": 7559,
    "\u25810x40a540": 7560,
    "\u25810x1211180": 7561,
    "\u25810xfeee00bc": 7562,
    "6b0": 7563,
    "7e9": 7564,
    "3cf8": 7565,
    "ares": 7566,
    "\u25810x4155a0": 7567,
    "\u25810x1211e64": 7568,
    "25c": 7569,
    "bb7": 7570,
    "ptr": 7571,
    "\u25810x42168c": 7572,
    "\u25810x44f868": 7573,
    "fb5": 7574,
    "\u2581om": 7575,
    "raphi": 7576,
    "\u25810x40b0": 7577,
    "\u25810x42168b": 7578,
    "\u25810x430fec": 7579,
    "\u25810x44f8c8": 7580,
    "\u25810xfeee00aa": 7581,
    "\u25810xfeee00ae": 7582,
    "379": 7583,
    "da9": 7584,
    "ort": 7585,
    "ange": 7586,
    "\u25810x4a5c": 7587,
    "\u25810x44f880": 7588,
    "\u25810x44f898": 7589,
    "\u25810x44f8b0": 7590,
    "\u25810x1211bf0": 7591,
    "\u25810xfeee017": 7592,
    "\u25810xfeee00ac": 7593,
    "309": 7594,
    "3ba": 7595,
    "e5c": 7596,
    "been": 7597,
    "\u25810x6a7": 7598,
    "\u25810x40a544": 7599,
    "\u25810x430db0": 7600,
    "\u25810x44f8f8": 7601,
    "\u25810x44f940": 7602,
    "\u25810x44f958": 7603,
    "\u25810x44f970": 7604,
    "\u25810x44f988": 7605,
    "\u25810xfeee00ab": 7606,
    "a25": 7607,
    "\u2581uh": 7608,
    "52e8": 7609,
    "\u2581fastf": 7610,
    "\u25810x9980": 7611,
    "\u25810x40a53a": 7612,
    "\u25810x40a53c": 7613,
    "\u25810x40a53e": 7614,
    "\u25810x40a542": 7615,
    "\u25810x1211c44": 7616,
    "\u25810xfeee00ad": 7617,
    "754": 7618,
    "df1": 7619,
    "fee": 7620,
    "\u25810x40a546": 7621,
    "\u25810x41e93e": 7622,
    "\u25810x41ebfa": 7623,
    "\u25810x41ebfb": 7624,
    "6a0": 7625,
    "bca": 7626,
    "\u25810x4034": 7627,
    "d19": 7628,
    "\u2581winapp": 7629,
    "219": 7630,
    "\u2581cs": 7631,
    "\u25810x1010": 7632,
    "\u25810x47b1": 7633,
    "\u25810x7e50": 7634,
    "\u2581getsidsubauthoritycount": 7635,
    "random": 7636,
    "\u25810x630062": 7637,
    "\u25810x650064": 7638,
    "\u25810x670066": 7639,
    "\u2581fastfail": 7640,
    "bce": 7641,
    "\u25810x5619": 7642,
    "\u25810x418210": 7643,
    "\u25810x610060": 7644,
    "\u25810x7ee000": 7645,
    "tore": 7646,
    "\u25810x422964": 7647,
    "\u25810x7f8002": 7648,
    "212": 7649,
    "2ad": 7650,
    "0050": 7651,
    "\u25810x4093e4": 7652,
    "\u25810x44e4b8": 7653,
    "\u25810x11dbed4": 7654,
    "\u25810x11dbef0": 7655,
    "\u25810x11dbf48": 7656,
    "\u2581loadbitmap": 7657,
    "2f6": 7658,
    "335": 7659,
    "d15": 7660,
    "ea4": 7661,
    "\u25810xe7": 7662,
    "\u25810x4235": 7663,
    "\u25810xa3a6": 7664,
    "\u25810x6781c0": 7665,
    "\u25810x6781f0": 7666,
    "b54": 7667,
    "e0000": 7668,
    "genrandom": 7669,
    "\u25810x7f8010": 7670,
    "\u2581getsystemdefault": 7671,
    "\u2581outputdebugstringw": 7672,
    "any": 7673,
    "b29": 7674,
    "e75": 7675,
    "eb5": 7676,
    "\u2581ts": 7677,
    "\u25810xf1": 7678,
    "\u25810x42db": 7679,
    "\u25810x4444": 7680,
    "\u25810x40f660": 7681,
    "\u25810x4228e1": 7682,
    "\u25810x431068": 7683,
    "\u25810x12117e0": 7684,
    "\u2581isvalidsid": 7685,
    "aa1": 7686,
    "ider": 7687,
    "d54": 7688,
    "\u25810x698": 7689,
    "\u25810x4033": 7690,
    "\u25810x9640": 7691,
    "\u25810x422980": 7692,
    "\u25810xfeee00af": 7693,
    "b15": 7694,
    "lash": 7695,
    "\u25810x41300b": 7696,
    "\u25810x42ce24": 7697,
    "\u25810x436408": 7698,
    "\u25810x1211c5c": 7699,
    "secor": 7700,
    "\u25810x8e70": 7701,
    "\u2581omsecor": 7702,
    "\u25810x423cf0": 7703,
    "\u2581cryptgenrandom": 7704,
    "2b7": 7705,
    "ith": 7706,
    "\u25810x4770": 7707,
    "\u25810x42286e": 7708,
    "\u25810x42286f": 7709,
    "\u25810x4228e2": 7710,
    "\u25810x422963": 7711,
    "\u25810x42297f": 7712,
    "\u25810x4229c2": 7713,
    "\u25810x4229fa": 7714,
    "\u25810x4229fb": 7715,
    "\u25810x422a0d": 7716,
    "\u25810x422a0e": 7717,
    "\u25810x42329e": 7718,
    "\u25810x42329f": 7719,
    "\u25810x4233fc": 7720,
    "\u25810x423cef": 7721,
    "\u25810xfeee00b0": 7722,
    "\u25810xfeee00b1": 7723,
    "3e3d": 7724,
    "ualfox": 7725,
    "\u25810x4a84": 7726,
    "\u25810xa424": 7727,
    "provider": 7728,
    "controlset": 7729,
    "\u2581currentcontrolset": 7730,
    "69d": 7731,
    "ebc": 7732,
    "\u2581437": 7733,
    "marta": 7734,
    "\u25810x464": 7735,
    "\u25810x40df": 7736,
    "\u25810x4210": 7737,
    "\u2581ntmarta": 7738,
    "\u258120220304": 7739,
    "\u2581localfile": 7740,
    "\u2581movefilew": 7741,
    "\u2581localfiletimetofiletime": 7742,
    "7b7": 7743,
    "\u2581ie": 7744,
    "graphi": 7745,
    "\u25810x2d4dd": 7746,
    "\u25810x42cdfc": 7747,
    "2c1": 7748,
    "485": 7749,
    "9da": 7750,
    "a96": 7751,
    "b96": 7752,
    "f55": 7753,
    "e667": 7754,
    "ee98": 7755,
    "\u25810x4060": 7756,
    "\u25810x416bc8": 7757,
    "\u25810x4fecb0": 7758,
    "systemtime": 7759,
    "egis": 7760,
    "\u2581sin": 7761,
    "\u25810x1810": 7762,
    "\u25810x426d": 7763,
    "\u25810x7e51": 7764,
    "\u2581calloc": 7765,
    "\u25810x120f6": 7766,
    "\u25810x429903": 7767,
    "\u25810x4922c0": 7768,
    "\u25810x4feb14": 7769,
    "\u25810x4feb78": 7770,
    "\u25810x4feb90": 7771,
    "\u2581setcurrentdirectoryw": 7772,
    "fore": 7773,
    "hide": 7774,
    "\u25810x429902": 7775,
    "\u25810x42990c": 7776,
    "\u25810x42990d": 7777,
    "\u25810x429921": 7778,
    "\u25810x42d360": 7779,
    "\u25810x42d378": 7780,
    "\u25810x4febc0": 7781,
    "\u25810x4fec08": 7782,
    "\u25810x4fec38": 7783,
    "\u25810x4fec50": 7784,
    "\u25810x4fec68": 7785,
    "2b5": 7786,
    "\u2581oem": 7787,
    "apture": 7788,
    "already": 7789,
    "\u2581myarg1": 7790,
    "\u2581pleasec": 7791,
    "\u25810x42992a": 7792,
    "\u25810x42992b": 7793,
    "\u25810x42d3f0": 7794,
    "\u25810x4fec80": 7795,
    "\u25810x4fec98": 7796,
    "\u2581getsystemwindows": 7797,
    "3ce": 7798,
    "b32": 7799,
    "really": 7800,
    "\u25810x416bf8": 7801,
    "\u25810x42d3a8": 7802,
    "\u25810x431e28": 7803,
    "\u25810x4acbc0": 7804,
    "\u25810x1211d3c": 7805,
    "\u25810x1211d50": 7806,
    "\u2581openanexplorer": 7807,
    "2d9": 7808,
    "361": 7809,
    "\u25810xee": 7810,
    "\u25810x44e9": 7811,
    "\u2581stem32": 7812,
    "\u25810xfeee00b3": 7813,
    "\u2581getsystemwindowsdirectoryw": 7814,
    "712": 7815,
    "eatom": 7816,
    "\u2581instal": 7817,
    "\u2581unlock": 7818,
    "deleteatom": 7819,
    "\u25810xfeee00b2": 7820,
    "\u25810xfeee00b4": 7821,
    "\u2581globaldeleteatom": 7822,
    "1d8": 7823,
    "ahk": 7824,
    "ilser": 7825,
    "sgdwh": 7826,
    "\u2581boahk": 7827,
    "\u25810x41c6": 7828,
    "sgdwhsyd": 7829,
    "\u2581boahkilser": 7830,
    "\u2581gdsgdwhsyd": 7831,
    "cod": 7832,
    "d37": 7833,
    "da4": 7834,
    "e1f": 7835,
    "165": 7836,
    "756": 7837,
    "our": 7838,
    "\u25810x411c": 7839,
    "\u25810xb4eb": 7840,
    "\u25810xddf1": 7841,
    "\u25810xfeee00b5": 7842,
    "ba5": 7843,
    "e89": 7844,
    "\u2581vie": 7845,
    "\u25810x40b1": 7846,
    "\u25810x8028": 7847,
    "addresses": 7848,
    "\u25810x412850": 7849,
    "\u2581dispatchmessagew": 7850,
    "67f": 7851,
    "711": 7852,
    "a72": 7853,
    "rypto": 7854,
    "\u25810x431a50": 7855,
    "\u25810x1211fe4": 7856,
    "a63": 7857,
    "c1b": 7858,
    "\u25810x515": 7859,
    "\u2581getadaptersaddresses": 7860,
    "\u2581registerclipboardformatw": 7861,
    "a05": 7862,
    "e54": 7863,
    "aramet": 7864,
    "\u25810x6a09": 7865,
    "\u25810x7dfc": 7866,
    "36c": 7867,
    "666": 7868,
    "70f": 7869,
    "ron": 7870,
    "\u2581exp": 7871,
    "\u2581evie": 7872,
    "\u25810x1210e6f": 7873,
    "\u25810x1210e73": 7874,
    "\u25810x1210e74": 7875,
    "\u25810x1210e77": 7876,
    "\u25810x1210e7b": 7877,
    "7d4": 7878,
    "\u2581psc": 7879,
    "splash": 7880,
    "\u2581class": 7881,
    "\u2581youmust": 7882,
    "\u25810xa3a798": 7883,
    "\u25810x1210f66": 7884,
    "\u25810x1210f6a": 7885,
    "15f": 7886,
    "\u25817z6": 7887,
    "\u25810x5b2": 7888,
    "\u25810x7dfd": 7889,
    "\u25810xfeee00b7": 7890,
    "\u2581isbadwrite": 7891,
    "21c": 7892,
    "af1": 7893,
    "pop": 7894,
    "\u2581mail": 7895,
    "graphic": 7896,
    "\u25810x6ba3c8": 7897,
    "\u25810xfeee00b8": 7898,
    "\u2581findwindoww": 7899,
    "3f3": 7900,
    "5b2": 7901,
    "\u25810xffd5": 7902,
    "\u2581deallocate": 7903,
    "\u25810x169bc9c": 7904,
    "\u2581isbadwriteptr": 7905,
    "126": 7906,
    "\u2581arg": 7907,
    "\u25810x418c": 7908,
    "\u25810xfeee00b6": 7909,
    "\u25810xfeee00b9": 7910,
    "369": 7911,
    "\u25810x4780": 7912,
    "\u25810xffc0": 7913,
    "screenhide": 7914,
    "\u2581aswsplash": 7915,
    "buttoncreated": 7916,
    "\u2581aswsplashscreenhide": 7917,
    "\u2581taskbarbuttoncreated": 7918,
    "ookup": 7919,
    "\u25810x4180": 7920,
    "\u2581msvcr71": 7921,
    "\u25810x42c5a0": 7922,
    "\u25810x42c5b8": 7923,
    "\u25810x439440": 7924,
    "\u25810x824": 7925,
    "\u25810x413972": 7926,
    "\u25810x42ca80": 7927,
    "\u25810xfeee00bb": 7928,
    "514": 7929,
    "aha": 7930,
    "rio": 7931,
    "rty": 7932,
    "eyrio": 7933,
    "fdrty": 7934,
    "\u2581hiaha": 7935,
    "eyrioere": 7936,
    "\u2581uhfdrty": 7937,
    "viewextex": 7938,
    "\u25810x42abc0": 7939,
    "\u25810x4f5390": 7940,
    "\u25810x4f5400": 7941,
    "\u25810x5003e8": 7942,
    "\u25810x1211e98": 7943,
    "\u2581uhfdrtyeyrioere": 7944,
    "\u2581getprivateprofilestringa": 7945,
    "76c": 7946,
    "927": 7947,
    "a3d": 7948,
    "\u25810x572": 7949,
    "\u25810x9b50": 7950,
    "\u2581lookup": 7951,
    "\u25810x4fea28": 7952,
    "forcadwork": 7953,
    "3f5": 7954,
    "577": 7955,
    "b37": 7956,
    "\u25810x232": 7957,
    "\u25810x684": 7958,
    "\u25810x7fe": 7959,
    "\u25810x4373d8": 7960,
    "\u25810x4718f0": 7961,
    "\u25810x4fe2c0": 7962,
    "\u25810x4fe2d8": 7963,
    "\u25810xfeee00ba": 7964,
    "\u2581myarg1myarg2": 7965,
    "1f0": 7966,
    "a56": 7967,
    "dc9": 7968,
    "3130": 7969,
    "draw": 7970,
    "\u2581884": 7971,
    "basec": 7972,
    "\u25810x489d": 7973,
    "\u25810x42ca2c": 7974,
    "\u25810x42ca44": 7975,
    "\u25810x42cdd0": 7976,
    "\u25810x4fe2f0": 7977,
    "\u25810x4fe308": 7978,
    "\u25810x4fe320": 7979,
    "\u25810x4fe338": 7980,
    "\u25810x4fe350": 7981,
    "\u25810x4fe368": 7982,
    "\u25810x4fea80": 7983,
    "1c8": 7984,
    "2a6": 7985,
    "7b5": 7986,
    "e18": 7987,
    "\u25810x7e01": 7988,
    "\u25810x42c170": 7989,
    "\u25810x42c1a8": 7990,
    "\u25810x42c1e0": 7991,
    "\u25810x42c570": 7992,
    "basecrypto": 7993,
    "providerv1": 7994,
    "basecryptographic": 7995,
    "basecryptographicproviderv1": 7996,
    "\u2581microsoftbasecryptographicproviderv1": 7997,
    "\u2581nar": 7998,
    "\u2581tsl": 7999,
    "0000040": 8000,
    "\u25810x7e04": 8001,
    "\u25810x40935c": 8002,
    "\u25810x4093ec": 8003,
    "\u25810x411218": 8004,
    "lete": 8005,
    "\u2581narrow": 8006,
    "kg": 8007,
    "2e9": 8008,
    "3bc": 8009,
    "7f9": 8010,
    "dc4": 8011,
    "\u25810x604": 8012,
    "\u25810x3b7fb": 8013,
    "\u25810xf0000040": 8014,
    "\u25810xfeee00bd": 8015,
    "\u2581createsemaphorea": 8016,
    "6b4": 8017,
    "bab": 8018,
    "\u2581a7k": 8019,
    "toyour": 8020,
    "\u25810x500448": 8021,
    "\u25810x6a09e667": 8022,
    "\u25810xfeee00be": 8023,
    "efd": 8024,
    "\u25810x1211368": 8025,
    "5e0": 8026,
    "\u25810x4066": 8027,
    "\u25810x9870": 8028,
    "\u2581session": 8029,
    "\u25810xfeee00bf": 8030,
    "2e7": 8031,
    "7a5": 8032,
    "d12": 8033,
    "\u25810x5040": 8034,
    "254": 8035,
    "db7": 8036,
    "\u25810x4151": 8037,
    "\u25810x4966": 8038,
    "\u25810xff87": 8039,
    "\u25810x436378": 8040,
    "\u25810x131aac0": 8041,
    "\u25810xfeee00c0": 8042,
    "\u25810x532": 8043,
    "\u25810x40c4": 8044,
    "\u25810x3f22a0": 8045,
    "\u25810x42e0c0": 8046,
    "747": 8047,
    "d61": 8048,
    "ec5": 8049,
    "\u25810x510": 8050,
    "\u25810x410b20": 8051,
    "\u25810x427520": 8052,
    "\u25810x1210f64": 8053,
    "\u25810xfeee00c1": 8054,
    "\u2581globalrealloc": 8055,
    "389": 8056,
    "3b2": 8057,
    "ef9": 8058,
    "\u2581ff": 8059,
    "drl66": 8060,
    "\u25810x4640": 8061,
    "\u25810x42751f": 8062,
    "\u2581tsldrl66": 8063,
    "\u25810x1010101": 8064,
    "\u25810x1211268": 8065,
    "\u25810xfeee00c2": 8066,
    "578": 8067,
    "e32": 8068,
    "f29": 8069,
    "\u25810xdb": 8070,
    "\u25810x7e05": 8071,
    "\u25810x8e60": 8072,
    "\u25810x1211478": 8073,
    "007": 8074,
    "a11": 8075,
    "36d8": 8076,
    "\u25810x1814": 8077,
    "\u25810xfeee00d7": 8078,
    "\u2581filetimetosystemtime": 8079,
    "3b1": 8080,
    "e4f": 8081,
    "\u25810x571": 8082,
    "\u25810x42e658": 8083,
    "\u25810xfeee00c3": 8084,
    "bd2": 8085,
    "ethe": 8086,
    "indatom": 8087,
    "\u25810x4105": 8088,
    "\u2581globalfindatom": 8089,
    "764": 8090,
    "bde": 8091,
    "\u25810x1b1": 8092,
    "\u25810x45d1": 8093,
    "\u25810x7e10": 8094,
    "\u25810xa040": 8095,
    "\u25810x42e520": 8096,
    "\u25810xfeee00c4": 8097,
    "668": 8098,
    "805": 8099,
    "\u25810x7a40": 8100,
    "\u25810x80c3": 8101,
    "\u25810xffee": 8102,
    "\u25810x42e0a8": 8103,
    "eaa": 8104,
    "\u25810x444": 8105,
    "\u25810x8f30": 8106,
    "\u25810x412e39": 8107,
    "\u25810x413f64": 8108,
    "\u25810x413f65": 8109,
    "\u25810x42c990": 8110,
    "\u25810x42ca48": 8111,
    "\u25810x42e538": 8112,
    "\u25810x42e550": 8113,
    "\u25810x42e568": 8114,
    "\u25810x42e580": 8115,
    "\u25810x42e610": 8116,
    "\u25810x42e628": 8117,
    "\u25810x42e640": 8118,
    "\u25810xd27d571f": 8119,
    "c45": 8120,
    "\u25810x4e39": 8121,
    "146": 8122,
    "f3d": 8123,
    "paramw": 8124,
    "\u25810x8640": 8125,
    "\u25810x120ce": 8126,
    "\u25810x80c440": 8127,
    "\u25810x40e4": 8128,
    "\u25810x4720": 8129,
    "\u25810x4df00": 8130,
    "\u25810x4012db": 8131,
    "\u25810x4259af": 8132,
    "\u25810x4259b0": 8133,
    "\u25810x42cd78": 8134,
    "\u25810x42ce38": 8135,
    "ae9": 8136,
    "f27": 8137,
    "lang": 8138,
    "isplay": 8139,
    "tochar": 8140,
    "\u25810x6e6": 8141,
    "\u25810x1824": 8142,
    "\u25810x1211cf0": 8143,
    "\u2581oemtochar": 8144,
    "\u25810xfeee00c6": 8145,
    "sh": 8146,
    "589": 8147,
    "a4c4": 8148,
    "\u25810x10b": 8149,
    "\u25810x7d54": 8150,
    "\u25810x482854": 8151,
    "\u25810x482870": 8152,
    "\u25810xfeee00c7": 8153,
    "b79": 8154,
    "fdb": 8155,
    "\u258104t": 8156,
    "\u25810xfeee00c5": 8157,
    "943": 8158,
    "e11": 8159,
    "f91": 8160,
    "\u25810x7e08": 8161,
    "\u25810x42e090": 8162,
    "\u2581202203032": 8163,
    "377": 8164,
    "a71": 8165,
    "\u25810x4820": 8166,
    "\u25810xffda": 8167,
    "installed": 8168,
    "\u25810x42e0d8": 8169,
    "\u25810xfeee00ca": 8170,
    "1f8": 8171,
    "fc5": 8172,
    "\u2581msvcr100": 8173,
    "\u25810x1211e8c": 8174,
    "\u25810xfeee00c8": 8175,
    "3a2": 8176,
    "632": 8177,
    "bf5": 8178,
    "remo": 8179,
    "\u25810x7e8c": 8180,
    "\u25810x88c0": 8181,
    "\u2581module": 8182,
    "\u25810x420c30": 8183,
    "3f7": 8184,
    "bd6": 8185,
    "d3d": 8186,
    "hell": 8187,
    "langid": 8188,
    "\u25810x9070": 8189,
    "\u25810x420c00": 8190,
    "9e5": 8191,
    "f22": 8192,
    "\u2581virtu": 8193,
    "\u25810x7d55": 8194,
    "\u25810x90c0": 8195,
    "\u25810x10005c": 8196,
    "\u25810x413dd6": 8197,
    "\u25810x413dd7": 8198,
    "\u25810x4170f5": 8199,
    "\u25810x4170f6": 8200,
    "\u25810x4179b4": 8201,
    "\u25810x4179b5": 8202,
    "\u25810x4179c5": 8203,
    "\u25810x4179c6": 8204,
    "\u25810x417a43": 8205,
    "\u25810x417a44": 8206,
    "\u25810x417a5b": 8207,
    "\u25810x417a5c": 8208,
    "\u25810x417a9b": 8209,
    "\u25810x417a9c": 8210,
    "\u25810x417aac": 8211,
    "\u25810x417aad": 8212,
    "\u25810x417b1e": 8213,
    "\u25810x417b1f": 8214,
    "\u25810x420c2f": 8215,
    "\u25810x46b5fc": 8216,
    "\u25810x2825ef8": 8217,
    "\u2581virtuallock": 8218,
    "3dd": 8219,
    "dat": 8220,
    "\u2581lm": 8221,
    "\u2581scal": 8222,
    "\u25810x80b": 8223,
    "\u25810x420bf0": 8224,
    "\u25810x420bf1": 8225,
    "\u25810x420c01": 8226,
    "\u25810x420c10": 8227,
    "\u25810x420c11": 8228,
    "\u25810x420c1b": 8229,
    "\u25810x420c1c": 8230,
    "\u25810x420c25": 8231,
    "\u25810x420c26": 8232,
    "\u25810x420c39": 8233,
    "\u25810x420c3a": 8234,
    "\u25810x420c43": 8235,
    "\u25810x420c44": 8236,
    "\u25810x420c50": 8237,
    "\u25810x420c51": 8238,
    "\u25810x42f194": 8239,
    "\u25810x1211fb0": 8240,
    "\u25810xfeee00c9": 8241,
    "\u25810xfeee00cb": 8242,
    "\u2581regqueryvalueexa": 8243,
    "b76": 8244,
    "aler": 8245,
    "\u25810x7a4": 8246,
[...]
