{
    "<pad>": 0,
    "<unk>": 1,
    "<mask>": 2,
    "\u25810": 3,
    "\u25810x": 4,
    "\u25810x0": 5,
    "er": 6,
    "00": 7,
    "32": 8,
    "ne": 9,
    "l32": 10,
    "\u2581k": 11,
    "erne": 12,
    "ernel32": 13,
    "\u2581kernel32": 14,
    "et": 15,
    "get": 16,
    "\u25810x1": 17,
    "\u25810x4": 18,
    "ee": 19,
    "in": 20,
    "\u2581get": 21,
    "al": 22,
    "ti": 23,
    "ec": 24,
    "\u25810x2": 25,
    "94": 26,
    "\u25810xf": 27,
    "43": 28,
    "ue": 29,
    "\u25810x243": 30,
    "948": 31,
    "\u25810x243948": 32,
    "st": 33,
    "us": 34,
    "0000": 35,
    "on": 36,
    "oc": 37,
    "le": 38,
    "\u25810x7": 39,
    "ad": 40,
    "user": 41,
    "\u2581user": 42,
    "\u2581user32": 43,
    "000": 44,
    "eee": 45,
    "re": 46,
    "\u25810xfeee": 47,
    "\u25810x12": 48,
    "ta": 49,
    "en": 50,
    "om": 51,
    "iti": 52,
    "ar": 53,
    "tion": 54,
    "ls": 55,
    "val": 56,
    "\u2581in": 57,
    "value": 58,
    "\u25810x121": 59,
    "an": 60,
    "one": 61,
    "\u2581c": 62,
    "getvalue": 63,
    "lsgetvalue": 64,
    "\u25810x40": 65,
    "pr": 66,
    "ss": 67,
    "\u2581d": 68,
    "\u2581m": 69,
    "\u25810xfeee000": 70,
    "proc": 71,
    "fo": 72,
    "f0": 73,
    "ent": 74,
    "har": 75,
    "\u2581s": 76,
    "info": 77,
    "\u2581n": 78,
    "loc": 79,
    "or": 80,
    "\u2581getproc": 81,
    "\u25810x77": 82,
    "dre": 83,
    "\u2581none": 84,
    "cal": 85,
    "sec": 86,
    "addre": 87,
    "address": 88,
    "\u2581getprocaddress": 89,
    "riti": 90,
    "calsec": 91,
    "riticalsec": 92,
    "ff": 93,
    "ex": 94,
    "000000": 95,
    "at": 96,
    "dc": 97,
    "ac": 98,
    "dec": 99,
    "li": 100,
    "\u2581getc": 101,
    "\u25810x1211": 102,
    "\u2581t": 103,
    "\u25810x77000000": 104,
    "nex": 105,
    "\u2581char": 106,
    "\u2581charnex": 107,
    "\u2581f": 108,
    "de": 109,
    "la": 110,
    "let": 111,
    "\u25810x46": 112,
    "\u25810xfeee0001": 113,
    "err": 114,
    "em": 115,
    "error": 116,
    "pinfo": 117,
    "last": 118,
    "lasterror": 119,
    "tom": 120,
    "tr": 121,
    "ecriticalsec": 122,
    "ap": 123,
    "\u2581tlsgetvalue": 124,
    "exw": 125,
    "ion": 126,
    "\u2581getcpinfo": 127,
    "ble": 128,
    "\u2581ini": 129,
    "40": 130,
    "omp": 131,
    "\u2581getcpinfoexw": 132,
    "\u25810x243948c": 133,
    "stat": 134,
    "que": 135,
    "dcomp": 136,
    "ans": 137,
    "status": 138,
    "lient": 139,
    "table": 140,
    "queue": 141,
    "letion": 142,
    "queuedcomp": 143,
    "letionstatus": 144,
    "queuedcompletionstatus": 145,
    "action": 146,
    "trans": 147,
    "\u2581ddec": 148,
    "\u2581getqueuedcompletionstatus": 149,
    "transaction": 150,
    "\u2581ddeclient": 151,
    "\u2581ddeclienttransaction": 152,
    "tatom": 153,
    "\u2581initatom": 154,
    "\u25810x2439480": 155,
    "\u25810x2439484": 156,
    "\u25810x2439488": 157,
    "\u2581initatomtable": 158,
    "\u2581l": 159,
    "a0": 160,
    "ter": 161,
    "rt": 162,
    "a5": 163,
    "str": 164,
    "\u2581ms": 165,
    "\u25810xfeee00": 166,
    "and": 167,
    "\u2581set": 168,
    "vc": 169,
    "90": 170,
    "\u2581flsgetvalue": 171,
    "\u2581msvc": 172,
    "\u25810x41": 173,
    "iz": 174,
    "aliz": 175,
    "\u2581msvcrt": 176,
    "itializ": 177,
    "he": 178,
    "alloc": 179,
    "cm": 180,
    "\u2581initializ": 181,
    "\u25810x40a5": 182,
    "po": 183,
    "\u2581initializecriticalsec": 184,
    "co": 185,
    "\u2581w": 186,
    "tw": 187,
    "heap": 188,
    "\u25810x8": 189,
    "poin": 190,
    "\u2581heap": 191,
    "bc": 192,
    "by": 193,
    "\u25810x5": 194,
    "ing": 195,
    "pointer": 196,
    "\u2581charnextw": 197,
    "byt": 198,
    "\u25810x45": 199,
    "\u25810x1210": 200,
    "depointer": 201,
    "cmp": 202,
    "\u25810xfa0": 203,
    "\u25810x100": 204,
    "string": 205,
    "is": 206,
    "\u2581lo": 207,
    "\u2581load": 208,
    "ow": 209,
    "93": 210,
    "00000": 211,
    "\u25810x43": 212,
    "\u2581mem": 213,
    "\u2581getlasterror": 214,
    "\u2581memcmp": 215,
    "10": 216,
    "\u25810x41f0": 217,
    "\u2581setlasterror": 218,
    "\u25810x41f040": 219,
    "d0": 220,
    "fi": 221,
    "\u2581charnexta": 222,
    "lea": 223,
    "nt": 224,
    "local": 225,
    "\u25810x3": 226,
    "78": 227,
    "\u25810xc": 228,
    "byte": 229,
    "\u2581is": 230,
    "e4": 231,
    "\u25810x10": 232,
    "f8": 233,
    "hand": 234,
    "\u25810x45f0": 235,
    "ind": 236,
    "onex": 237,
    "\u25810x4093": 238,
    "\u2581heapalloc": 239,
    "\u2581en": 240,
    "ffff": 241,
    "stem": 242,
    "tionex": 243,
    "\u2581initializecriticalsectionex": 244,
    "\u2581enco": 245,
    "\u2581encodepointer": 246,
    "ystem": 247,
    "\u25810x400000": 248,
    "50": 249,
    "mo": 250,
    "ll": 251,
    "indow": 252,
    "60": 253,
    "sle": 254,
    "dbc": 255,
    "read": 256,
    "slead": 257,
    "\u2581isdbc": 258,
    "\u2581isdbcslead": 259,
    "\u2581isdbcsleadbyte": 260,
    "\u25810x42": 261,
    "ul": 262,
    "du": 263,
    "locale": 264,
    "ecriticalsection": 265,
    "70": 266,
    "indows": 267,
    "\u2581dll": 268,
    "\u25810x4690": 269,
    "dule": 270,
    "module": 271,
    "erc": 272,
    "\u2581loadstring": 273,
    "\u2581getmodule": 274,
    "\u2581initializecriticalsection": 275,
    "\u2581windows": 276,
    "unt": 277,
    "ed": 278,
    "leav": 279,
    "\u2581leav": 280,
    "\u2581leavecriticalsection": 281,
    "riticalsection": 282,
    "enterc": 283,
    "entercriticalsection": 284,
    "\u2581entercriticalsection": 285,
    "\u25810x40a5d": 286,
    "18": 287,
    "\u25810x4e4": 288,
    "20": 289,
    "30": 290,
    "count": 291,
    "\u2581loadstringa": 292,
    "ce": 293,
    "ulti": 294,
    "idec": 295,
    "idechar": 296,
    "b0": 297,
    "eco": 298,
    "\u25810xc000": 299,
    "c0": 300,
    "handle": 301,
    "\u25810xff": 302,
    "file": 303,
    "\u2581system": 304,
    "localeinfo": 305,
    "\u2581getlocaleinfo": 306,
    "\u2581system32": 307,
    "80": 308,
    "e0": 309,
    "ur": 310,
    "me": 311,
    "\u25810x46f0": 312,
    "sp": 313,
    "\u25810x44": 314,
    "\u25810x1211f": 315,
    "\u25810x1000": 316,
    "66": 317,
    "28": 318,
    "\u25810x6": 319,
    "14": 320,
    "\u2581getlocaleinfoa": 321,
    "it": 322,
    "spin": 323,
    "spincount": 324,
    "\u2581initializecriticalsectionand": 325,
    "\u2581initializecriticalsectionandspincount": 326,
    "\u25810x1210e": 327,
    "f4": 328,
    "op": 329,
    "fr": 330,
    "\u2581deco": 331,
    "\u2581decodepointer": 332,
    "b8": 333,
    "yp": 334,
    "vi": 335,
    "br": 336,
    "ary": 337,
    "\u25810x4378": 338,
    "ess": 339,
    "a8": 340,
    "98": 341,
    "\u25810xfffff": 342,
    "libr": 343,
    "library": 344,
    "a4": 345,
    "\u25810xfffffff": 346,
    "12": 347,
    "ment": 348,
    "\u25810x7d": 349,
    "ect": 350,
    "cc": 351,
    "58": 352,
    "di": 353,
    "\u25810x47": 354,
    "\u25810x400": 355,
    "\u25810xf00": 356,
    "d4": 357,
    "free": 358,
    "rent": 359,
    "urrent": 360,
    "64": 361,
    "\u25810x1210f": 362,
    "d1": 363,
    "34": 364,
    "\u25810x46d0": 365,
    "d8": 366,
    "38": 367,
    "2c": 368,
    "74": 369,
    "68": 370,
    "e8": 371,
    "\u25810x78": 372,
    "\u2581getst": 373,
    "\u2581a": 374,
    "fc": 375,
    "ag": 376,
    "b4": 377,
    "ate": 378,
    "etow": 379,
    "\u2581multi": 380,
    "bytetow": 381,
    "\u2581multibytetow": 382,
    "\u2581multibytetowidechar": 383,
    "process": 384,
    "hread": 385,
    "\u25810x10c": 386,
    "1c": 387,
    "5c": 388,
    "lo": 389,
    "id": 390,
    "\u2581local": 391,
    "lock": 392,
    "7c": 393,
    "na": 394,
    "ype": 395,
    "9c": 396,
    "\u2581loadlibrary": 397,
    "15": 398,
    "ey": 399,
    "6c": 400,
    "3c": 401,
    "hi": 402,
    "rect": 403,
    "\u2581getcurrent": 404,
    "def": 405,
    "\u2581getmodulehand": 406,
    "rst": 407,
    "filet": 408,
    "\u2581gets": 409,
    "\u2581getmodulehandlea": 410,
    "\u2581inter": 411,
    "var": 412,
    "\u2581g": 413,
    "\u2581cre": 414,
    "un": 415,
    "tomulti": 416,
    "\u2581widechar": 417,
    "tomultibyte": 418,
    "\u2581widechartomultibyte": 419,
    "rector": 420,
    "\u2581interlock": 421,
    "thread": 422,
    "54": 423,
    "\u2581re": 424,
    "age": 425,
    "56": 426,
    "16": 427,
    "26": 428,
    "ch": 429,
    "cmap": 430,
    "\u2581lcmap": 431,
    "\u2581lcmapstring": 432,
    "24": 433,
    "\u25810x7de": 434,
    "\u25810x9": 435,
    "\u2581interlocked": 436,
    "\u2581getsystem": 437,
    "aa": 438,
    "\u25810x4610": 439,
    "\u2581localalloc": 440,
    "\u25810x7e": 441,
    "\u2581lstr": 442,
    "\u2581heapfree": 443,
    "ut": 444,
    "\u25810x18": 445,
    "handlew": 446,
    "\u2581ap": 447,
    "a3": 448,
    "\u2581getmodulehandlew": 449,
    "rement": 450,
    "\u2581fls": 451,
    "key": 452,
    "dr": 453,
    "director": 454,
    "\u25810xffffffff": 455,
    "\u25810x1211e": 456,
    "\u25810x12117": 457,
    "so": 458,
    "f5": 459,
    "e1": 460,
    "44": 461,
    "\u25810xcd": 462,
    "set": 463,
    "vw": 464,
    "ver": 465,
    "88": 466,
    "\u2581p": 467,
    "a2": 468,
    "a6": 469,
    "91": 470,
    "\u25810x104": 471,
    "d10000": 472,
    "\u25810x77d10000": 473,
    "lm": 474,
    "l66": 475,
    "xy": 476,
    "xyz": 477,
    "klm": 478,
    "nop": 479,
    "ghi": 480,
    "uvw": 481,
    "qrst": 482,
    "\u2581abc": 483,
    "uvwxyz": 484,
    "nopqrst": 485,
    "defghi": 486,
    "klmnopqrst": 487,
    "\u2581abcdefghi": 488,
    "klmnopqrstuvwxyz": 489,
    "\u25810xfeee0004": 490,
    "\u25810x1211d": 491,
    "f6": 492,
    "\u25810x14": 493,
    "\u25810x40933": 494,
    "fe": 495,
    "\u25810xfeee001": 496,
    "\u25810x20": 497,
    "l6660": 498,
    "ab": 499,
    "open": 500,
    "\u25810xfeee0": 501,
    "name": 502,
    "se": 503,
    "directory": 504,
    "\u2581reg": 505,
    "db": 506,
    "f1": 507,
    "\u25810x12119": 508,
    "96": 509,
    "\u2581lcmapstringw": 510,
    "emp": 511,
    "\u25810x5f8": 512,
    "drl6660": 513,
    "\u25810x5f800000": 514,
    "\u2581getfilet": 515,
    "ual": 516,
    "dhandle": 517,
    "a7": 518,
    "\u2581getfiletype": 519,
    "\u25810x90": 520,
    "\u2581var": 521,
    "\u2581se": 522,
    "\u2581vi": 523,
    "84": 524,
    "\u2581create": 525,
    "1000": 526,
    "f7": 527,
    "arch": 528,
    "\u2581getstdhandle": 529,
    "92": 530,
    "eb": 531,
    "rm": 532,
    "rtual": 533,
    "\u25810x1211dc": 534,
    "\u2581ex": 535,
    "\u25810x33": 536,
    "\u2581virtual": 537,
    "97": 538,
    "e7": 539,
    "drl6660drl6660": 540,
    "\u25810x4350": 541,
    "vers": 542,
    "\u25810x54": 543,
    "\u25810x435": 544,
    "\u25810x70": 545,
    "35": 546,
    "\u2581read": 547,
    "f2": 548,
    "\u25810x43780": 549,
    "95": 550,
    "vir": 551,
    "viron": 552,
    "inc": 553,
    "omm": 554,
    "tu": 555,
    "vironment": 556,
    "\u2581search": 557,
    "b2": 558,
    "filename": 559,
    "\u2581interlockedinc": 560,
    "\u2581interlockedincrement": 561,
    "a1": 562,
    "f9": 563,
    "sw": 564,
    "\u25810xfeee0002": 565,
    "\u25810x3394": 566,
    "\u25810xfeee0000": 567,
    "f3": 568,
    "\u25810xf001": 569,
    "\u2581getti": 570,
    "artu": 571,
    "\u25817": 572,
    "\u2581lstrle": 573,
    "8c": 574,
    "setvalue": 575,
    "da": 576,
    "ol": 577,
    "artupinfo": 578,
    "\u2581getstartupinfo": 579,
    "\u2581loadlibraryexw": 580,
    "42": 581,
    "\u2581temp": 582,
    "9b": 583,
    "55": 584,
    "eex": 585,
    "api": 586,
    "11": 587,
    "of": 588,
    "\u2581getcurrentthread": 589,
    "\u2581getmodulefilename": 590,
    "\u2581fr": 591,
    "\u2581apis": 592,
    "line": 593,
    "ommand": 594,
    "e6": 595,
    "37": 596,
    "b5": 597,
    "\u25810x7f8": 598,
    "fa": 599,
    "e2": 600,
    "ommandline": 601,
    "\u25810x4d": 602,
    "\u2581getcommandline": 603,
    "\u25810xfeee0003": 604,
    "ck": 605,
    "e5": 606,
    "\u2581x": 607,
    "\u2581str": 608,
    "\u25810x78000000": 609,
    "\u2581gettick": 610,
    "\u25810x4c": 611,
    "\u2581gettickcount": 612,
    "b3": 613,
    "b6": 614,
    "fd": 615,
    "\u25810x88": 616,
    "b7": 617,
    "qu": 618,
    "17": 619,
    "\u2581getcurrentthreadid": 620,
    "\u25810x200": 621,
    "\u25817z": 622,
    "41": 623,
    "are": 624,
    "rit": 625,
    "vironmentstring": 626,
    "\u25810x4670": 627,
    "\u25810x40a5ce": 628,
    "\u25810x40a5d0": 629,
    "\u25810x40a5d2": 630,
    "\u25810x40a5d4": 631,
    "\u25810x40a5d6": 632,
    "\u25810x40a5d8": 633,
    "\u25810x40a5da": 634,
    "\u25810x7f800": 635,
    "\u25810x102": 636,
    "900": 637,
    "a40": 638,
    "\u25810x80": 639,
    "\u25810x1f4": 640,
    "lose": 641,
    "ic": 642,
    "\u2581lread": 643,
    "directoryw": 644,
    "\u25810x21000": 645,
    "\u25810xfeee002": 646,
    "d6": 647,
    "es": 648,
    "a9": 649,
    "\u25810x8000": 650,
    "\u25810x1f400": 651,
    "\u2581o": 652,
    "int": 653,
    "\u25810x800": 654,
    "\u25810xfeee0005": 655,
    "76": 656,
    "cp": 657,
    "\u25810xf003": 658,
    "1e": 659,
    "\u2581sh": 660,
    "form": 661,
    "9a": 662,
    "\u2581h": 663,
    "vironmentstringsw": 664,
    "rite": 665,
    "\u2581getvers": 666,
    "\u25810xf002": 667,
    "d5": 668,
    "lob": 669,
    "ith": 670,
    "\u2581glob": 671,
    "\u2581de": 672,
    "72": 673,
    "quer": 674,
    "\u25810x7de0": 675,
    "pre": 676,
    "\u2581ws": 677,
    "d2": 678,
    "ber": 679,
    "1a": 680,
    "\u25810x79": 681,
    "4c": 682,
    "\u2581open": 683,
    "ba": 684,
    "e3": 685,
    "789": 686,
    "print": 687,
    "75": 688,
    "48": 689,
    "cpy": 690,
    "9f": 691,
    "ea": 692,
    "d3": 693,
    "onso": 694,
    "bad": 695,
    "\u2581gdi": 696,
    "type": 697,
    "\u2581hkey": 698,
    "\u25810x48": 699,
    "\u2581sof": 700,
    "ation": 701,
    "\u25810x7000": 702,
    "\u2581al": 703,
    "\u2581strn": 704,
    "time": 705,
    "\u2581b": 706,
    "c8": 707,
    "\u2581wsprint": 708,
    "\u2581getcurrentprocess": 709,
    "tware": 710,
    "36": 711,
    "\u2581software": 712,
    "\u2581strncmp": 713,
    "um": 714,
    "\u25810x7d90": 715,
    "filew": 716,
    "\u25810x7a": 717,
    "\u25810xfff": 718,
    "\u2581flssetvalue": 719,
    "71": 720,
    "1234": 721,
    "56789": 722,
    "\u258101234": 723,
    "\u25810123456789": 724,
    "onsole": 725,
    "f00": 726,
    "\u2581loadlibrarya": 727,
    "\u2581ad": 728,
    "\u25810x1211c": 729,
    "ve": 730,
    "\u2581getsystemdirectoryw": 731,
    "b1": 732,
    "\u2581flsalloc": 733,
    "tered": 734,
    "ptr": 735,
    "\u2581isbad": 736,
    "\u2581with": 737,
    "\u2581altered": 738,
    "cep": 739,
    "9e": 740,
    "d7": 741,
    "e10000": 742,
    "as": 743,
    "\u25810x77e10000": 744,
    "\u25810x460": 745,
    "\u2581tls": 746,
    "\u2581lstrlena": 747,
    "\u25810x50": 748,
    "\u2581getstartupinfoa": 749,
    "ception": 750,
    "\u25810x40a3": 751,
    "e9": 752,
    "ime": 753,
    "\u25810x526": 754,
    "\u25810x7b": 755,
    "readptr": 756,
    "\u2581isbadreadptr": 757,
    "api32": 758,
    "82": 759,
    "\u25810x7ee": 760,
    "\u2581fin": 761,
    "13": 762,
    "exa": 763,
    "\u2581gdi32": 764,
    "put": 765,
    "sent": 766,
    "window": 767,
    "\u25810xa": 768,
    "present": 769,
    "\u2581getstring": 770,
    "\u2581getmodulefilenamea": 771,
    "\u25810xb": 772,
    "c4": 773,
    "\u2581wc": 774,
    "\u2581getstringtype": 775,
    "\u25810xfeee0006": 776,
    "list": 777,
    "\u2581find": 778,
    "\u2581adv": 779,
    "df": 780,
    "\u2581advapi32": 781,
    "7e": 782,
    "\u2581co": 783,
    "\u25810x12117f8": 784,
    "filetime": 785,
    "\u2581getstringtypew": 786,
    "86": 787,
    "ot": 788,
    "ug": 789,
    "\u25810xfeee006": 790,
    "99": 791,
    "52": 792,
    "\u2581getcommandlinea": 793,
    "vari": 794,
    "\u2581virtualalloc": 795,
    "mess": 796,
    "\u25810x7c": 797,
    "sour": 798,
    "\u25810x42a40": 799,
    "bb": 800,
    "\u2581creat": 801,
    "enu": 802,
    "fw": 803,
    "\u2581global": 804,
    "\u2581wsprintfw": 805,
    "\u25810x43500": 806,
    "\u25810x12116": 807,
    "\u2581current": 808,
    "73": 809,
    "bo": 810,
    "\u2581r": 811,
    "22": 812,
    "bd": 813,
    "locales": 814,
    "menu": 815,
    "\u25810x73": 816,
    "source": 817,
    "\u25811": 818,
    "\u2581dr": 819,
    "\u25810xfeee0007": 820,
    "\u25810x4a": 821,
    "33": 822,
    "\u2581getsystemtime": 823,
    "\u2581getac": 824,
    "dd": 825,
    "\u2581geten": 826,
    "pool": 827,
    "ist": 828,
    "\u2581interlockeddec": 829,
    "\u2581interlockeddecrement": 830,
    "\u2581quer": 831,
    "\u2581fi": 832,
    "\u25810x4b": 833,
    "exception": 834,
    "\u25810x120": 835,
    "fb": 836,
    "\u25810x1c": 837,
    "5e": 838,
    "\u25810xfeee004": 839,
    "mode": 840,
    "fil": 841,
    "5f": 842,
    "\u2581win": 843,
    "drl6660drl6660drl6660drl6660": 844,
    "\u2581getacp": 845,
    "acce": 846,
    "forman": 847,
    "erforman": 848,
    "\u2581queryp": 849,
    "\u2581queryperforman": 850,
    "\u25810x1211dcc": 851,
    "7b": 852,
    "\u2581page": 853,
    "valid": 854,
    "\u2581locales": 855,
    "from": 856,
    "ob": 857,
    "\u25810xfeee01": 858,
    "im": 859,
    "first": 860,
    "\u25810x4750": 861,
    "9d": 862,
    "\u2581delet": 863,
    "filea": 864,
    "\u2581getthread": 865,
    "77": 866,
    "access": 867,
    "1b": 868,
    "unter": 869,
    "\u25810x16": 870,
    "\u25810x1211dc0": 871,
    "nw": 872,
    "53": 873,
    "\u25810x76": 874,
    "processor": 875,
    "\u25810x1211dd4": 876,
    "cre": 877,
    "dexception": 878,
    "ceco": 879,
    "cecounter": 880,
    "\u2581queryperformancecounter": 881,
    "deb": 882,
    "filter": 883,
    "unhandle": 884,
    "dexceptionfilter": 885,
    "unhandledexceptionfilter": 886,
    "\u25810x12115": 887,
    "\u2581getprocess": 888,
    "\u2581core": 889,
    "up": 890,
    "\u2581regopen": 891,
    "5b": 892,
    "\u2581regopenkey": 893,
    "62": 894,
    "num": 895,
    "\u2581lcmapstringex": 896,
    "hel": 897,
    "write": 898,
    "5d": 899,
    "dll": 900,
    "\u2581getcurrentprocessid": 901,
    "b9": 902,
    "ure": 903,
    "\u25810x72": 904,
    "debug": 905,
    "to": 906,
    "\u25810xffc": 907,
    "ature": 908,
    "\u2581findfirst": 909,
    "asfiletime": 910,
    "\u2581getsystemtimeasfiletime": 911,
    "feature": 912,
    "\u2581isprocessor": 913,
    "featurepresent": 914,
    "\u2581isprocessorfeaturepresent": 915,
    "be": 916,
    "defa": 917,
    "\u25810x49": 918,
    "\u25810x40933d": 919,
    "\u25810x40933e": 920,
    "\u25810x40933f": 921,
    "\u25810x409340": 922,
    "\u25810x409341": 923,
    "\u25810x44f8": 924,
    "\u25810x409342": 925,
    "\u25810x409343": 926,
    "defaul": 927,
    "directorya": 928,
    "\u25810x19": 929,
    "\u25810x40a5cc": 930,
    "\u25810x40a5dc": 931,
    "\u25810x5f5": 932,
    "menuinfo": 933,
    "\u25810x75": 934,
    "ae": 935,
    "\u25810x422": 936,
    "51": 937,
    "\u25810xfeee008": 938,
    "\u25810x30": 939,
    "\u2581free": 940,
    "ang": 941,
    "ive": 942,
    "\u25810x220": 943,
    "af": 944,
    "\u25810x7de1": 945,
    "\u2581readwrite": 946,
    "\u2581findc": 947,
    "\u2581findclose": 948,
    "\u2581l1": 949,
    "\u25810xe": 950,
    "\u2581setfile": 951,
    "\u2581loadstringw": 952,
    "handl": 953,
    "106": 954,
    "\u2581getversion": 955,
    "\u25810xfeee003": 956,
    "d9": 957,
    "\u25810x5f500000": 958,
    "eeen": 959,
    "\u2581freeen": 960,
    "\u25810x4e": 961,
    "ies": 962,
    "orl": 963,
    "\u2581setmenuinfo": 964,
    "23": 965,
    "\u2581library": 966,
    "2e": 967,
    "\u25810x71": 968,
    "\u2581borl": 969,
    "908": 970,
    "db10": 971,
    "\u25810x4015": 972,
    "create": 973,
    "inform": 974,
    "able": 975,
    "information": 976,
    "\u2581borland": 977,
    "\u25810x1211e0": 978,
    "\u25810xfffffff6": 979,
    "number": 980,
    "\u25810x74": 981,
    "\u25810x7e70": 982,
    "\u2581getfile": 983,
    "\u2581setunhandledexceptionfilter": 984,
    "\u2581getenvironmentstringsw": 985,
    "19": 986,
    "default": 987,
    "input": 988,
    "\u2581freeenvironmentstringsw": 989,
    "59": 990,
    "\u25810xfffffff5": 991,
    "63": 992,
    "\u25810xfffffff4": 993,
    "\u25810x2a": 994,
    "\u25810xd": 995,
    "db10106": 996,
    "\u25810x1db10106": 997,
    "\u25810x7d91": 998,
    "ant": 999,
    "\u2581init": 1000,
    "\u2581invalid": 1001,
    "57": 1002,
    "180": 1003,
    "\u25810x40152c": 1004,
    "c2": 1005,
    "\u25810x7ec": 1006,
    "\u2581lstrcpy": 1007,
    "ionex": 1008,
    "\u25810x7830": 1009,
    "\u25810x105": 1010,
    "\u25810x12116d8": 1011,
    "46": 1012,
    "\u2581getversionex": 1013,
    "\u25810x5265c": 1014,
    "\u2581ole": 1015,
    "\u25810x40a": 1016,
    "ef": 1017,
    "00c": 1018,
    "der": 1019,
    "\u25810x53": 1020,
    "\u25810x1211918": 1021,
    "version": 1022,
    "ating": 1023,
    "\u25810x1210d": 1024,
    "variable": 1025,
    "\u2581lstrlenw": 1026,
    "\u25810x50000": 1027,
    "\u2581getmodulefilenamew": 1028,
    "\u25810x12114": 1029,
    "\u2581getthreadlocale": 1030,
    "itprocess": 1031,
    "\u2581findfirstfilew": 1032,
    "dep": 1033,
    "\u25810x43540": 1034,
    "lass": 1035,
    "\u2581getprocessheap": 1036,
    "780": 1037,
    "con": 1038,
    "\u25810x52": 1039,
    "ay": 1040,
    "\u25810x17": 1041,
    "\u25810x4094": 1042,
    "met": 1043,
    "\u2581getnumber": 1044,
    "\u25812": 1045,
    "\u2581getstartupinfow": 1046,
    "ofc": 1047,
    "ofconsole": 1048,
    "\u2581getnumberofconsole": 1049,
    "bc0": 1050,
    "\u2581getcommandlinew": 1051,
    "day": 1052,
    "\u2581api": 1053,
    "61": 1054,
    "\u2581write": 1055,
    "image": 1056,
    "7d": 1057,
    "\u25810x1211f30": 1058,
    "\u2581access": 1059,
    "b40": 1060,
    "\u25810x13": 1061,
    "640": 1062,
    "\u2581app": 1063,
    "inputs": 1064,
    "\u2581getnumberofconsoleinputs": 1065,
    "2a": 1066,
    "\u2581getmess": 1067,
    "\u2581close": 1068,
    "\u2581getlocaleinfow": 1069,
    "ecount": 1070,
    "1d": 1071,
    "\u25810x60": 1072,
    "\u2581malloc": 1073,
    "\u2581shel": 1074,
    "\u2581key": 1075,
    "\u2581heapcreate": 1076,
    "\u2581pf": 1077,
    "ee0": 1078,
    "ait": 1079,
    "poolw": 1080,
    "79": 1081,
    "bf": 1082,
    "\u2581com": 1083,
    "\u25810x1210ec": 1084,
    "pri": 1085,
    "idc": 1086,
    "8a": 1087,
    "validc": 1088,
    "7a": 1089,
    "handlecount": 1090,
    "\u2581sethandlecount": 1091,
    "\u2581tlsalloc": 1092,
    "\u25810x1211f8": 1093,
    "45": 1094,
    "resource": 1095,
    "\u2581closehandle": 1096,
    "urs": 1097,
    "ction": 1098,
    "loating": 1099,
    "\u2581mac": 1100,
    "\u2581tlssetvalue": 1101,
    "hine": 1102,
    "\u2581wcs": 1103,
    "arg": 1104,
    "\u2581machine": 1105,
    "\u25810x7810": 1106,
    "\u2581readfile": 1107,
    "\u25810x9000": 1108,
    "7f": 1109,
    "slen": 1110,
    "\u2581wcslen": 1111,
    "stringa": 1112,
    "fromstr": 1113,
    "\u25810x15": 1114,
    "8b": 1115,
    "\u25810x7ee00": 1116,
    "\u2581setfilepointer": 1117,
    "\u25810x44f9": 1118,
    "\u2581wcscpy": 1119,
    "ib": 1120,
    "lus": 1121,
    "\u2581gett": 1122,
    "\u2581vari": 1123,
    "\u25810x40f6": 1124,
    "c6": 1125,
    "\u25810x1210900": 1126,
    "point": 1127,
    "\u25810x28": 1128,
    "ad0": 1129,
    "defaultdll": 1130,
    "directories": 1131,
    "\u2581setdefaultdll": 1132,
    "\u2581setdefaultdlldirectories": 1133,
    "\u25810x484": 1134,
    "\u25810x2000": 1135,
    "stru": 1136,
    "\u25810x82": 1137,
    "\u2581freelibrary": 1138,
    "\u2581image": 1139,
    "83": 1140,
    "\u2581getw": 1141,
    "\u25810x7aa0": 1142,
    "a00": 1143,
    "struction": 1144,
    "\u25810x1210f8": 1145,
    "\u25810x5265c14": 1146,
    "lder": 1147,
    "100": 1148,
    "4b": 1149,
    "\u25810x79d0": 1150,
    "\u2581regist": 1151,
    "\u2581globalalloc": 1152,
    "\u25810x410": 1153,
    "67": 1154,
    "\u2581regopenkeyexa": 1155,
    "ethread": 1156,
    "\u25810x67": 1157,
    "65": 1158,
    "\u25810x8810": 1159,
    "\u2581out": 1160,
    "folder": 1161,
    "ack": 1162,
    "3a": 1163,
    "eric": 1164,
    "tra": 1165,
    "\u2581imagelist": 1166,
    "ageex": 1167,
    "trainfo": 1168,
    "ageextrainfo": 1169,
    "\u2581getmessageextrainfo": 1170,
    "\u2581shell32": 1171,
    "ai": 1172,
    "ibut": 1173,
    "tribut": 1174,
    "3d": 1175,
    "attribut": 1176,
    "\u2581drive": 1177,
    "1f": 1178,
    "ys": 1179,
    "ition": 1180,
    "748": 1181,
    "\u25810x47b0": 1182,
    "\u25810x1e": 1183,
    "depage": 1184,
    "\u25810x44f8e0": 1185,
    "ct": 1186,
    "dition": 1187,
    "\u2581getconsole": 1188,
    "ro": 1189,
    "term": 1190,
    "\u2581gettemp": 1191,
    "odepage": 1192,
    "\u2581isvalidc": 1193,
    "\u2581isvalidcodepage": 1194,
    "69": 1195,
    "\u2581exitprocess": 1196,
    "6a": 1197,
    "\u2581file": 1198,
    "29": 1199,
    "\u2581initterm": 1200,
    "\u2581getversionexa": 1201,
    "5a": 1202,
    "lic": 1203,
    "\u25810x8c": 1204,
    "\u25810x43640": 1205,
    "\u2581deletecriticalsection": 1206,
    "\u25810x3f": 1207,
    "c3": 1208,
    "\u2581floating": 1209,
    "\u2581virtualfree": 1210,
    "\u25810x409": 1211,
    "804": 1212,
    "39": 1213,
    "\u25810x1211908": 1214,
    "end": 1215,
    "\u2581loadlibraryw": 1216,
    "ursor": 1217,
    "ca": 1218,
    "f10000": 1219,
    "27": 1220,
    "\u25810x1a": 1221,
    "tim": 1222,
    "\u25810x42b40": 1223,
    "2b": 1224,
    "\u2581sl": 1225,
    "\u2581shget": 1226,
    "message": 1227,
    "3e": 1228,
    "ger": 1229,
    "\u25810x12114b8": 1230,
    "\u25810x1211718": 1231,
    "\u25810x48400": 1232,
    "\u2581e": 1233,
    "low": 1234,
    "\u25810x22": 1235,
    "89": 1236,
    "\u25810x1210e0": 1237,
    "\u25810x1211e04": 1238,
    "31": 1239,
    "ac0": 1240,
    "ord": 1241,
    "\u25810x1210f0": 1242,
    "3f": 1243,
    "div": 1244,
    "query": 1245,
    "\u25810xf0019": 1246,
    "eexw": 1247,
    "\u25810x77f10000": 1248,
    "6e": 1249,
    "\u25810x7ee0": 1250,
    "\u2581lstrcmp": 1251,
    "\u25810x12118": 1252,
    "\u25810x1211b": 1253,
    "mm": 1254,
    "timer": 1255,
    "\u25810xfeee0008": 1256,
    "yarg": 1257,
    "ho": 1258,
    "date": 1259,
    "\u2581av": 1260,
    "aila": 1261,
    "ailable": 1262,
    "\u2581exe": 1263,
    "930": 1264,
    "\u25810x434": 1265,
    "\u25810x1f": 1266,
    "de9": 1267,
    "3b": 1268,
    "\u2581flsfree": 1269,
    "\u25810x1210e4": 1270,
    "inal": 1271,
    "\u25810x1210f4": 1272,
    "c7": 1273,
    "edi": 1274,
    "\u2581ord": 1275,
    "\u2581ordinal": 1276,
    "8d": 1277,
    "\u2581available": 1278,
    "\u25810x1210ee": 1279,
    "\u2581setthread": 1280,
    "\u25810x47c0": 1281,
    "not": 1282,
    "\u25810x40933c": 1283,
    "cursor": 1284,
    "sa": 1285,
    "\u25810x11": 1286,
    "allock": 1287,
    "500": 1288,
    "\u2581gen": 1289,
    "\u25810x409344": 1290,
    "\u25810xfeee0009": 1291,
    "prot": 1292,
    "\u25810x8f": 1293,
    "\u25810x4000": 1294,
    "\u25810x10000": 1295,
    "\u2581generic": 1296,
    "\u25810x429": 1297,
    "eep": 1298,
    "\u2581delete": 1299,
    "\u2581globallock": 1300,
    "\u25810x38": 1301,
    "\u25810x1211fd8": 1302,
    "protect": 1303,
    "\u2581no": 1304,
    "\u2581instruction": 1305,
    "\u25810xfeee000b": 1306,
    "ctl32": 1307,
    "\u2581comctl32": 1308,
    "i64": 1309,
    "\u25810x1211758": 1310,
    "\u25810x1210ed": 1311,
    "\u25810xfeee000a": 1312,
    "\u2581xmm": 1313,
    "\u2581xmmi64": 1314,
    "\u2581instructions": 1315,
    "\u25810x4418": 1316,
    "\u2581output": 1317,
    "\u2581outputdebug": 1318,
    "ile": 1319,
    "\u2581virtualprotect": 1320,
    "rectory": 1321,
    "edirectory": 1322,
    "pro": 1323,
    "\u25810x3f2": 1324,
    "\u25810xfeee000c": 1325,
    "bit": 1326,
    "\u2581relea": 1327,
    "2d": 1328,
    "processlist": 1329,
    "\u2581getconsoleprocesslist": 1330,
    "ision": 1331,
    "47": 1332,
    "\u25810x42900": 1333,
    "flow": 1334,
    "2f": 1335,
    "\u25810x409a": 1336,
    "cb": 1337,
    "\u25810x1211fd0": 1338,
    "\u25810x5266": 1339,
    "pooltimer": 1340,
    "308": 1341,
    "508": 1342,
    "\u25810xfeee0010": 1343,
    "\u25810xcc": 1344,
    "25": 1345,
    "ard": 1346,
    "2000": 1347,
    "\u25810xfeee000e": 1348,
    "\u25810xfeee000d": 1349,
    "\u25810xfeee0015": 1350,
    "\u2581sleep": 1351,
    "\u25810xfeee0014": 1352,
    "\u25810x7f00": 1353,
    "\u2581findre": 1354,
    "b00": 1355,
    "ity": 1356,
    "drl6660drl6660drl6660drl6660drl6660drl6660drl6660drl6660": 1357,
    "\u25810xfeee0013": 1358,
    "\u25810xfeee0016": 1359,
    "\u25810xfeee0012": 1360,
    "de0": 1361,
    "\u25810xfeee000f": 1362,
    "een": 1363,
    "il": 1364,
    "\u2581drag": 1365,
    "808": 1366,
    "\u25810xfeee0011": 1367,
    "\u25810x437808": 1368,
    "81": 1369,
    "\u25810x437806": 1370,
    "\u25810x43780a": 1371,
    "\u25810x43780c": 1372,
    "\u25810x43780e": 1373,
    "\u25810x437810": 1374,
    "\u25810x437812": 1375,
    "\u25810x437814": 1376,
    "\u25810x437816": 1377,
    "\u25810x437818": 1378,
    "\u25810x43781a": 1379,
    "\u25810x43781c": 1380,
    "\u25810x43781e": 1381,
    "438": 1382,
    "\u2581outputdebugstringa": 1383,
    "\u25810x46b0": 1384,
    "spec": 1385,
    "dc0": 1386,
    "\u25810x7e71": 1387,
    "board": 1388,
    "21": 1389,
    "94c": 1390,
    "6b": 1391,
    "6f": 1392,
    "\u2581con": 1393,
    "format": 1394,
    "\u25810x1211958": 1395,
    "\u2581createthread": 1396,
    "938": 1397,
    "\u25810x67000000": 1398,
    "\u25810x2c": 1399,
    "\u2581writefile": 1400,
    "\u25810x1211f7c": 1401,
    "cec": 1402,
    "\u25810x69": 1403,
    "\u2581getfileattribut": 1404,
    "ett": 1405,
    "\u25810x29": 1406,
    "pal": 1407,
    "palett": 1408,
    "\u25810x430": 1409,
    "\u25810xfde9": 1410,
    "icon": 1411,
    "aps": 1412,
    "\u2581createfilea": 1413,
    "\u2581findresource": 1414,
    "\u25810x4554": 1415,
    "isting": 1416,
    "\u2581existing": 1417,
    "infoa": 1418,
    "\u25810x4615": 1419,
    "initializ": 1420,
    "condition": 1421,
    "rw": 1422,
    "\u25810x44d4": 1423,
    "\u2581loadcursor": 1424,
    "ock": 1425,
    "\u2581release": 1426,
    "\u25810x56": 1427,
    "184": 1428,
    "ts": 1429,
    "87": 1430,
    "\u25810x700c": 1431,
    "vironmentvariable": 1432,
    "8f": 1433,
    "ange": 1434,
    "ember": 1435,
    "ft": 1436,
    "\u25810x1212000": 1437,
    "940": 1438,
    "cd": 1439,
    "\u25810x1211dc8": 1440,
    "cf": 1441,
    "meta": 1442,
    "\u2581variant": 1443,
    "\u25810x25": 1444,
    "\u25810x34": 1445,
    "oper": 1446,
    "lw": 1447,
    "\u2581createa": 1448,
    "\u25810x4428": 1449,
    "\u25810x12119c0": 1450,
    "errormode": 1451,
    "\u2581seterrormode": 1452,
    "debugger": 1453,
    "\u25810x23": 1454,
    "debuggerpresent": 1455,
    "9000": 1456,
    "\u25810x420": 1457,
    "5500000": 1458,
    "\u25810x214": 1459,
    "6d": 1460,
    "metafile": 1461,
    "d04": 1462,
    "708": 1463,
    "soft": 1464,
    "trol": 1465,
    "\u25810x704c": 1466,
    "4e": 1467,
    "\u2581isdebuggerpresent": 1468,
    "430": 1469,
    "\u25810x708c": 1470,
    "a256": 1471,
    "\u2581createfilew": 1472,
    "\u25810x44f928": 1473,
    "\u2581sha256": 1474,
    "change": 1475,
    "\u25810x70cc": 1476,
    "\u25810x4df0": 1477,
    "ata": 1478,
    "\u2581rand": 1479,
    "\u25810x1d": 1480,
    "qa": 1481,
    "bits": 1482,
    "988": 1483,
    "\u2581ole32": 1484,
    "icro": 1485,
    "all": 1486,
    "\u2581pr": 1487,
    "lor": 1488,
    "icrosoft": 1489,
    "lwapi": 1490,
    "\u2581shlwapi": 1491,
    "off": 1492,
    "\u25810x47a0": 1493,
    "a50": 1494,
    "variant": 1495,
    "realloc": 1496,
    "ockob": 1497,
    "\u2581getstockob": 1498,
    "\u2581nt": 1499,
    "\u25810x1b": 1500,
    "\u25810x7ec0": 1501,
    "\u2581lstrcmpa": 1502,
    "\u2581registerc": 1503,
    "\u25810x5a": 1504,
    "c9": 1505,
    "c08": 1506,
    "\u25810x24": 1507,
    "\u25810x88a0": 1508,
    "\u25810x32": 1509,
    "operation": 1510,
    "\u25810x235": 1511,
    "th": 1512,
    "lp": 1513,
    "vicec": 1514,
    "eto": 1515,
    "\u25810x1211528": 1516,
    "5000": 1517,
    "esw": 1518,
    "map": 1519,
    "ryp": 1520,
    "\u25810x79f0": 1521,
    "4f": 1522,
    "\u2581regopenkeyexw": 1523,
    "\u25810xfeee0017": 1524,
    "yn": 1525,
    "srw": 1526,
    "49": 1527,
    "\u25810x1211f28": 1528,
    "verflow": 1529,
    "\u25810x7850": 1530,
    "\u25810x1211f20": 1531,
    "\u25810x1211dd0": 1532,
    "\u25810x2d": 1533,
    "\u25810x3c": 1534,
    "ub": 1535,
    "d08": 1536,
    "\u25810xfeee0018": 1537,
    "74c": 1538,
    "\u25810x101": 1539,
    "\u2581localfree": 1540,
    "\u2581loadcursora": 1541,
    "\u25810x58": 1542,
    "angu": 1543,
    "4d": 1544,
    "ero": 1545,
    "\u25810x40b3": 1546,
    "poolwait": 1547,
    "\u25810x8e": 1548,
    "\u25810x7f": 1549,
    "\u2581loadlibraryexa": 1550,
    "anguage": 1551,
    "\u25810x423": 1552,
    "\u25810x2439f": 1553,
    "\u25810x57": 1554,
    "\u2581microsoft": 1555,
    "acc": 1556,
    "\u25810x7e8": 1557,
    "\u25810x4f": 1558,
    "aaaa": 1559,
    "metafilebits": 1560,
    "tex": 1561,
    "ilanguage": 1562,
    "\u25810x4600": 1563,
    "isk": 1564,
    "\u2581cryp": 1565,
    "offile": 1566,
    "\u2581setc": 1567,
    "\u2581wait": 1568,
    "\u25810x4290": 1569,
    "\u25810x181c": 1570,
    "\u25810x1211e28": 1571,
    "ip": 1572,
    "\u25810xfeee0019": 1573,
    "ial": 1574,
    "bstr": 1575,
    "bstrfrom": 1576,
    "\u2581varbstrfrom": 1577,
    "\u25810xfeee001a": 1578,
    "\u2581comp": 1579,
    "\u2581creates": 1580,
    "\u25810x69000000": 1581,
    "\u2581getde": 1582,
    "\u25810x40ab": 1583,
    "\u25810x98": 1584,
    "\u25810x40a5a0": 1585,
    "\u25810x181b": 1586,
    "\u25810x40a582": 1587,
    "\u25810x40a584": 1588,
    "\u25810x40a586": 1589,
    "\u25810x40a588": 1590,
    "\u25810x40a58a": 1591,
    "\u25810x40a580": 1592,
    "\u25810x40a57e": 1593,
    "\u2581getsystemdirectorya": 1594,
    "lphi": 1595,
    "\u2581delphi": 1596,
    "\u25810x68": 1597,
    "d000": 1598,
    "\u2581control": 1599,
    "\u2581wsprintfa": 1600,
    "300": 1601,
    "fe8": 1602,
    "initialize": 1603,
    "\u25810x1211780": 1604,
    "c04": 1605,
    "\u25810x1211a": 1606,
    "\u2581compare": 1607,
    "\u2581lstrcpyna": 1608,
    "\u2581th": 1609,
    "f80": 1610,
    "eexa": 1611,
    "inmetafilebits": 1612,
    "\u2581remo": 1613,
    "color": 1614,
    "econ": 1615,
    "\u25810x41c0": 1616,
    "ew": 1617,
    "und": 1618,
    "\u2581getwindows": 1619,
    "668": 1620,
    "cy": 1621,
    "\u25810x1211e30": 1622,
    "320": 1623,
    "\u25810x44d4b8": 1624,
    "\u2581getdc": 1625,
    "f08": 1626,
    "\u25810x8001": 1627,
    "\u25810x83": 1628,
    "\u25810x4d50": 1629,
    "\u2581createdirectory": 1630,
    "mem": 1631,
    "b48": 1632,
    "\u2581getwinmetafilebits": 1633,
    "\u25810x40a59e": 1634,
    "\u25810x40a5a2": 1635,
    "\u25810x40a5a4": 1636,
    "\u25810x40a5a6": 1637,
    "\u25810x40a5a8": 1638,
    "\u25810x40a5aa": 1639,
    "93c": 1640,
    "next": 1641,
    "\u25810x43f0": 1642,
    "ask": 1643,
    "sc": 1644,
    "\u25810x4d70": 1645,
    "ynch": 1646,
    "\u2581synch": 1647,
    "\u25810x7d10": 1648,
    "85": 1649,
    "vicecaps": 1650,
    "\u25810x44180": 1651,
    "\u2581getdevicecaps": 1652,
    "\u2581currentversion": 1653,
    "\u2581getkey": 1654,
    "\u25810x1211cc0": 1655,
    "folderw": 1656,
    "\u25810xfeee001b": 1657,
    "0000000": 1658,
    "special": 1659,
    "\u2581shgetspecial": 1660,
    "eentr": 1661,
    "\u25810x1804": 1662,
    "messagea": 1663,
    "\u2581dragob": 1664,
    "\u25810x1211f97": 1665,
    "am": 1666,
    "\u2581getfileattributesw": 1667,
    "mask": 1668,
    "\u25810xa0": 1669,
    "ory": 1670,
    "box": 1671,
    "\u2581clo": 1672,
    "c5": 1673,
    "\u2581crypt": 1674,
    "\u25810x4960": 1675,
    "\u25810x437820": 1676,
    "\u25810x7700": 1677,
    "\u25810x437804": 1678,
    "\u25810x8a": 1679,
    "\u2581getclass": 1680,
    "iv": 1681,
    "\u25810x7eab": 1682,
    "eed": 1683,
    "\u25810x7de4": 1684,
    "\u25810x7de5": 1685,
    "\u2581releasedc": 1686,
    "ray": 1687,
    "\u25810x4790": 1688,
    "\u25810xfeee010": 1689,
    "d4c": 1690,
    "\u2581msvcr": 1691,
    "\u258117": 1692,
    "\u25810x41c044": 1693,
    "ccc": 1694,
    "memory": 1695,
    "clus": 1696,
    "\u25810x84": 1697,
    "34c": 1698,
    "\u25810x37": 1699,
    "8e": 1700,
    "\u25810x1211f2c": 1701,
    "a04": 1702,
    "\u2581shgetspecialfolderw": 1703,
    "ers": 1704,
    "sup": 1705,
    "essage": 1706,
    "\u25810x4730": 1707,
    "98c": 1708,
    "\u25810x99": 1709,
    "allocate": 1710,
    "\u25810x1211bc0": 1711,
    "\u25810xd0": 1712,
    "exclus": 1713,
    "srwlock": 1714,
    "exclusive": 1715,
    "\u25810xfeee001c": 1716,
    "srwlockexclusive": 1717,
    "sk": 1718,
    "ce0": 1719,
    "\u25810x94": 1720,
    "\u25810x4096": 1721,
    "\u25810xa000": 1722,
    "\u2581closet": 1723,
    "\u2581closethread": 1724,
    "ame": 1725,
    "\u2581gettempa": 1726,
    "ec0": 1727,
    "help": 1728,
    "aff": 1729,
    "uff": 1730,
    "6c8": 1731,
    "\u25810x442": 1732,
    "\u2581waitfo": 1733,
    "\u2581getkeyboard": 1734,
    "\u2581getuser": 1735,
    "3c4": 1736,
    "\u2581registerclass": 1737,
    "\u25810x7d00": 1738,
    "lush": 1739,
    "\u25810x1211748": 1740,
    "\u2581u": 1741,
    "profile": 1742,
    "\u2581virtualquery": 1743,
    "\u2581mon": 1744,
    "c1": 1745,
    "d00": 1746,
    "\u2581mo": 1747,
    "\u25810xc00": 1748,
    "\u2581sat": 1749,
    "\u25810x63": 1750,
    "\u25810x1211ee0": 1751,
    "\u25810x4088": 1752,
    "ace": 1753,
    "bers": 1754,
    "call": 1755,
    "\u2581fibers": 1756,
    "9c8": 1757,
    "\u25810x40b": 1758,
    "\u2581nov": 1759,
    "\u25810x7890": 1760,
    "\u2581lock": 1761,
    "\u25810xfeee001d": 1762,
    "\u2581sep": 1763,
    "\u25810x8b": 1764,
    "4a": 1765,
    "\u25810x43400": 1766,
    "\u25810x12119ac": 1767,
    "\u2581shfolder": 1768,
    "\u25810x2b": 1769,
    "\u25810x97": 1770,
    "\u25810x4086": 1771,
    "\u25810x2e": 1772,
    "e48": 1773,
    "yarg1": 1774,
    "\u25810x2439f74": 1775,
    "\u2581enum": 1776,
    "\u25810x1211e08": 1777,
    "\u2581aaa": 1778,
    "\u2581un": 1779,
    "\u2581message": 1780,
    "\u25810x8811": 1781,
    "ok": 1782,
    "\u2581oc": 1783,
    "\u2581aug": 1784,
    "\u25810x1211f88": 1785,
    "gi": 1786,
    "f04": 1787,
    "\u2581loadicon": 1788,
    "host": 1789,
    "eentries": 1790,
    "paletteentries": 1791,
    "\u25810x4630": 1792,
    "\u25810x40a93": 1793,
    "\u25810x4e30": 1794,
    "\u25810x4710": 1795,
    "ain": 1796,
    "array": 1797,
    "\u2581lstrcpynw": 1798,
    "\u25810x80c0": 1799,
    "327": 1800,
    "a44": 1801,
    "a044": 1802,
    "\u2581sun": 1803,
    "108": 1804,
    "9bc": 1805,
    "408": 1806,
    "\u2581messagebox": 1807,
    "a84": 1808,
    "\u2581heaprealloc": 1809,
    "700": 1810,
    "yarg2": 1811,
    "\u25810x4cb0": 1812,
    "\u25810xfeee012": 1813,
    "\u2581dec": 1814,
    "uary": 1815,
    "\u25810x36": 1816,
    "\u2581interlockedex": 1817,
    "\u2581may": 1818,
    "\u2581interlockedexchange": 1819,
    "\u25810x1211efc": 1820,
    "sday": 1821,
    "\u2581tue": 1822,
    "\u2581wed": 1823,
    "\u25810x4df00": 1824,
    "stry": 1825,
    "informationby": 1826,
    "cef": 1827,
    "\u25810x181": 1828,
    "\u2581getversionexw": 1829,
    "\u2581nto": 1830,
    "\u25810x43a4": 1831,
    "\u25810x7090": 1832,
    "data": 1833,
    "\u25810x4614": 1834,
    "\u2581getd": 1835,
    "\u2581getcurrentdirectorya": 1836,
    "\u25810x31": 1837,
    "\u25810x1211948": 1838,
    "ename": 1839,
    "\u2581loadresource": 1840,
    "\u2581getkeyboardtype": 1841,
    "vironmentvariablea": 1842,
    "\u25810x4400": 1843,
    "\u25810xfeee001e": 1844,
    "oy": 1845,
    "b44": 1846,
    "\u2581gettime": 1847,
    "\u25810x435000": 1848,
    "\u25810x64": 1849,
    "base": 1850,
    "\u25810x4076": 1851,
    "\u2581version": 1852,
    "\u25810x1211d30": 1853,
    "\u2581oleinitialize": 1854,
    "suped": 1855,
    "out": 1856,
    "\u2581seten": 1857,
    "\u25810x2f": 1858,
    "\u25810xfeee001f": 1859,
    "env": 1860,
    "648": 1861,
    "\u2581i": 1862,
    "\u25810x3a": 1863,
    "\u25810x502": 1864,
    "stroy": 1865,
    "40c": 1866,
    "\u25810x8f70": 1867,
    "\u25810x1211c90": 1868,
    "\u25810x1211f00": 1869,
    "\u25810x3e": 1870,
    "emap": 1871,
    "\u25810x65500000": 1872,
    "e44": 1873,
    "\u25810x4228": 1874,
    "myarg2": 1875,
    "\u2581process": 1876,
    "\u25810x80000000": 1877,
    "\u2581wa": 1878,
    "\u25810xfeee0020": 1879,
    "system": 1880,
    "\u25810x7d95": 1881,
    "439": 1882,
    "9c4": 1883,
    "\u2581getsystempaletteentries": 1884,
    "\u2581of": 1885,
    "\u2581type": 1886,
    "\u25810x1211308": 1887,
    "d58": 1888,
    "\u25810x7cd0": 1889,
    "\u25810x1211578": 1890,
    "\u25810x121194c": 1891,
    "ull": 1892,
    "vate": 1893,
    "\u25810x4800": 1894,
    "zero": 1895,
    "yarg1myarg2": 1896,
    "ink": 1897,
    "\u2581ofresource": 1898,
    "them": 1899,
    "\u25810x421": 1900,
    "\u2581ux": 1901,
    "\u2581getclassinfoa": 1902,
    "bc8": 1903,
    "namea": 1904,
    "\u25810xffff": 1905,
    "theme": 1906,
    "\u2581floatingpoint": 1907,
    "\u2581st": 1908,
    "byzero": 1909,
    "overflow": 1910,
    "isionbyzero": 1911,
    "qui": 1912,
    "back": 1913,
    "\u2581getsysteminfo": 1914,
    "\u2581invalidvariant": 1915,
    "\u2581uxtheme": 1916,
    "210": 1917,
    "\u25810x7d94": 1918,
    "\u25810x78c": 1919,
    "\u25810x53000000": 1920,
    "d28": 1921,
    "\u25810x169b": 1922,
    "callback": 1923,
    "fearray": 1924,
    "\u25810x40c": 1925,
    "\u25810x4093e8": 1926,
    "fp": 1927,
    "vol": 1928,
    "\u25810x4093e5": 1929,
    "\u25810x4093e6": 1930,
    "\u25810x4093e7": 1931,
    "ab8": 1932,
    "788": 1933,
    "\u2581deletefilea": 1934,
    "\u25810x78c00000": 1935,
    "437": 1936,
    "ork": 1937,
    "\u25810x1211f74": 1938,
    "\u2581fmode": 1939,
    "\u25810x40a5ac": 1940,
    "\u2581comparestring": 1941,
    "ge": 1942,
    "f4c": 1943,
    "\u2581initializes": 1944,
    "\u25810x198": 1945,
    "\u2581lstrcpya": 1946,
    "istry": 1947,
    "private": 1948,
    "\u2581registry": 1949,
    "\u2581flush": 1950,
    "rn": 1951,
    "\u2581err": 1952,
    "privateprofile": 1953,
    "\u25814": 1954,
    "vchost": 1955,
    "\u25810x1211fcc": 1956,
    "\u25810x4340": 1957,
    "\u25810x19a": 1958,
    "main": 1959,
    "rnl": 1960,
    "\u2581gdip": 1961,
    "\u25810x45f2": 1962,
    "\u2581svchost": 1963,
    "ecut": 1964,
    "584": 1965,
    "ut32": 1966,
    "\u2581olea": 1967,
    "\u2581oleaut32": 1968,
    "conditionvariable": 1969,
    "bool": 1970,
    "skrnl": 1971,
    "\u2581varr": 1972,
    "4fromstr": 1973,
    "\u2581ntoskrnl": 1974,
    "\u2581loadicona": 1975,
    "ric": 1976,
    "\u25810x21": 1977,
    "metric": 1978,
    "\u25810x4e3": 1979,
    "tag": 1980,
    "atom": 1981,
    "\u2581z": 1982,
    "full": 1983,
    "imeto": 1984,
    "\u25810x39": 1985,
    "\u2581userenv": 1986,
    "\u2581setcurrent": 1987,
    "\u25810x41a044": 1988,
    "\u2581error": 1989,
    "\u25810x45f4": 1990,
    "orsa": 1991,
    "\u2581dw": 1992,
    "b14": 1993,
    "rtl": 1994,
    "valu": 1995,
    "\u25810x45f1": 1996,
    "\u2581findresourcew": 1997,
    "\u25810x121157c": 1998,
    "\u25810x1211f84": 1999,
    "\u25810x4ab0": 2000,
    "\u2581prec": 2001,
    "\u25810x404": 2002,
    "\u2581point": 2003,
    "\u2581errata": 2004,
    "\u25810x4093e9": 2005,
    "\u25810x4093ea": 2006,
    "\u25810x4093eb": 2007,
    "\u25810x1211fd4": 2008,
    "\u2581precision": 2009,
    "9b4": 2010,
    "endoffile": 2011,
    "\u25810x12117a4": 2012,
    "b0c": 2013,
    "privi": 2014,
    "b08": 2015,
    "\u25810x35": 2016,
    "\u25810x45f5": 2017,
    "\u25810x47a00": 2018,
    "b60": 2019,
    "\u25810x45f3": 2020,
    "volu": 2021,
    "\u2581rtl": 2022,
    "\u25810x4bd0": 2023,
    "\u25810x45f8": 2024,
    "f88": 2025,
    "ac8": 2026,
    "volume": 2027,
    "\u25810x45f6": 2028,
    "\u25810x45f7": 2029,
    "spac": 2030,
    "\u25810x45f9": 2031,
    "160": 2032,
    "\u25810x508": 2033,
    "\u25810x45fa": 2034,
    "\u25810x85": 2035,
    "iskfree": 2036,
    "privile": 2037,
    "iskfreespac": 2038,
    "\u2581getdiskfreespac": 2039,
    "\u25810x40935d": 2040,
    "\u25810x40935e": 2041,
    "\u25810x40935f": 2042,
    "\u25810x409360": 2043,
    "\u25810x409361": 2044,
    "\u25810x409362": 2045,
    "\u25810x409363": 2046,
    "esa": 2047,
    "\u2581gettempw": 2048,
    "leob": 2049,
    "\u25810x42990": 2050,
    "cc8": 2051,
    "\u25810x45fe": 2052,
    "\u25810x4601": 2053,
    "quire": 2054,
    "\u25810x100000": 2055,
    "\u25810x1211f64": 2056,
    "\u25810xfeee014": 2057,
    "cc4": 2058,
    "ee4": 2059,
    "\u2581ac": 2060,
    "\u25810x45ff": 2061,
    "50c": 2062,
    "\u25810x45fd": 2063,
    "\u25810x55": 2064,
    "\u25810x7df0": 2065,
    "\u25810x89": 2066,
    "\u25810x616": 2067,
    "\u25810x3b": 2068,
    "\u2581tr": 2069,
    "infow": 2070,
    "\u2581getwindowsdirectorya": 2071,
    "\u25810x41f7": 2072,
    "\u25810x46a0": 2073,
    "606": 2074,
    "9e4": 2075,
    "mapi": 2076,
    "ithtag": 2077,
    "\u25810x1211728": 2078,
    "poolwithtag": 2079,
    "\u2581exallocate": 2080,
    "\u2581exallocatepoolwithtag": 2081,
    "\u2581setup": 2082,
    "\u2581register": 2083,
    "\u2581findresourcea": 2084,
    "\u25810x4620": 2085,
    "\u2581createsemap": 2086,
    "\u2581wak": 2087,
    "orsafearray": 2088,
    "\u2581dwmapi": 2089,
    "\u2581ndr": 2090,
    "9c2": 2091,
    "tro": 2092,
    "\u2581ndrd": 2093,
    "\u2581cryptbase": 2094,
    "bc5": 2095,
    "\u25810x4606": 2096,
    "\u2581getmain": 2097,
    "\u25810x7340": 2098,
    "\u25810x86": 2099,
    "\u25810x65": 2100,
    "7c8": 2101,
    "vice": 2102,
    "\u2581ch": 2103,
    "\u25810x2100": 2104,
    "\u25810xfeee0021": 2105,
    "e4c": 2106,
    "close": 2107,
    "\u25810x61": 2108,
    "metrics": 2109,
    "\u25810x44c2": 2110,
    "\u2581getsystemmetrics": 2111,
    "\u25810x7de8": 2112,
    "\u25810x7de9": 2113,
    "\u2581corex": 2114,
    "\u25810x3d": 2115,
    "\u25810x40b4": 2116,
    "\u25810x7930": 2117,
    "b46": 2118,
    "\u25810xfeee0022": 2119,
    "\u2581lockresource": 2120,
    "\u2581corexitprocess": 2121,
    "608": 2122,
    "\u25810x9c": 2123,
    "\u2581exem": 2124,
    "lation": 2125,
    "messagew": 2126,
    "\u2581exemyarg1myarg2": 2127,
    "\u25816": 2128,
    "104": 2129,
    "localename": 2130,
    "a81": 2131,
    "\u25810x4c10": 2132,
    "\u25810x409aa4": 2133,
    "\u25810x409aa5": 2134,
    "80c": 2135,
    "min": 2136,
    "\u25810x41de": 2137,
    "ust": 2138,
    "f0c": 2139,
    "lete": 2140,
    "\u2581ter": 2141,
    "dcc": 2142,
    "trols": 2143,
    "\u25810x121193c": 2144,
    "comm": 2145,
    "\u25810x7ab0": 2146,
    "004": 2147,
    "hor": 2148,
    "affin": 2149,
    "itymask": 2150,
    "affinitymask": 2151,
    "78c": 2152,
    "add": 2153,
    "\u25810x7ec1": 2154,
    "\u25810x4540": 2155,
    "520": 2156,
    "\u2581wts": 2157,
    "\u25810x4229": 2158,
    "383": 2159,
    "240": 2160,
    "504": 2161,
    "9cc": 2162,
    "yscolor": 2163,
    "\u2581termin": 2164,
    "\u2581getsyscolor": 2165,
    "head": 2166,
    "uffers": 2167,
    "\u25810x46e0": 2168,
    "cor": 2169,
    "919": 2170,
    "\u2581process32": 2171,
    "a08": 2172,
    "\u2581mul": 2173,
    "\u2581muldiv": 2174,
    "view": 2175,
    "382": 2176,
    "435": 2177,
    "ed8": 2178,
    "\u25810x42a1": 2179,
    "\u2581shgetfile": 2180,
    "ecc": 2181,
    "\u2581findnext": 2182,
    "e8c": 2183,
    "b2b": 2184,
    "\u25810x1211e14": 2185,
    "\u25810xfeee0024": 2186,
    "aw": 2187,
    "\u25810x2e7": 2188,
    "iserror": 2189,
    "\u25810x1211f78": 2190,
    "118": 2191,
    "ec4": 2192,
    "ef0": 2193,
    "68c": 2194,
    "a58": 2195,
    "polic": 2196,
    "\u25810x593": 2197,
    "\u25810x7dec": 2198,
    "\u25810x7ded": 2199,
    "quiresrwlockexclusive": 2200,
    "ee8": 2201,
    "\u2581ns": 2202,
    "\u25810x41f": 2203,
    "15c": 2204,
    "\u2581charpre": 2205,
    "\u2581setprocess": 2206,
    "\u2581getprocessaffinitymask": 2207,
    "\u2581nsiserror": 2208,
    "\u2581pi": 2209,
    "\u25810xfeee0023": 2210,
    "\u25810x8d": 2211,
    "\u25810x408": 2212,
    "\u2581getvolume": 2213,
    "\u2581getvolumeinformation": 2214,
    "\u25810x566": 2215,
    "olation": 2216,
    "\u25810x8260": 2217,
    "\u25810xfeee0025": 2218,
    "220": 2219,
    "\u25810xaa": 2220,
    "1a0": 2221,
    "\u25810x4e50": 2222,
    "\u2581run": 2223,
    "controls": 2224,
    "ping": 2225,
    "\u25810x405": 2226,
    "\u25810x1211c04": 2227,
    "ce8": 2228,
    "eck": 2229,
    "\u25810xfeee0027": 2230,
    "\u2581globalfree": 2231,
    "b88": 2232,
    "\u25810x407": 2233,
    "search": 2234,
    "fac": 2235,
    "searchmode": 2236,
    "\u25810xfeee0026": 2237,
    "\u2581setsearchmode": 2238,
    "a48": 2239,
    "403": 2240,
    "filemap": 2241,
    "filemapping": 2242,
    "388": 2243,
    "730": 2244,
    "violation": 2245,
    "\u25810x4614d0": 2246,
    "ad4": 2247,
    "884": 2248,
    "\u25810xfeee015": 2249,
    "3c0": 2250,
    "e00": 2251,
    "e80": 2252,
    "f48": 2253,
    "lip": 2254,
    "9a8": 2255,
    "\u25810xfeed": 2256,
    "\u2581regquery": 2257,
    "\u25818": 2258,
    "588": 2259,
    "\u2581int": 2260,
    "\u25810xb8": 2261,
    "policy": 2262,
    "40b": 2263,
    "9c0": 2264,
    "coree": 2265,
    "\u2581mscoree": 2266,
    "a33": 2267,
    "common": 2268,
    "\u2581initcommon": 2269,
    "\u2581initcommoncontrols": 2270,
    "\u25810xa2": 2271,
    "ffc": 2272,
    "\u25810x3f3": 2273,
    "\u25810xff8": 2274,
    "len": 2275,
    "lec": 2276,
    "processw": 2277,
    "\u25810x1211438": 2278,
    "fc2": 2279,
    "\u25810x5c": 2280,
    "\u25810x1211d04": 2281,
    "670": 2282,
    "698": 2283,
    "deppolicy": 2284,
    "\u2581v": 2285,
    "188": 2286,
    "ken": 2287,
    "\u25810x4607": 2288,
    "\u25810x7df1": 2289,
    "d3c": 2290,
    "\u2581setprocessdeppolicy": 2291,
    "130": 2292,
    "a45": 2293,
    "f85": 2294,
    "tit": 2295,
    "2c4": 2296,
    "\u2581setcurrentdirectorya": 2297,
    "f74": 2298,
    "\u25810xb0": 2299,
    "406": 2300,
    "\u2581noaccess": 2301,
    "302": 2302,
    "dc8": 2303,
    "\u25810xe0": 2304,
    "d84": 2305,
    "\u25810x66": 2306,
    "904": 2307,
    "\u25810x8cc0": 2308,
    "\u25810x1211a04": 2309,
    "880": 2310,
    "onts": 2311,
    "7b8": 2312,
    "\u2581fonts": 2313,
    "stit": 2314,
    "f02": 2315,
    "248": 2316,
    "delete": 2317,
    "formatex": 2318,
    "\u2581getwindow": 2319,
    "204": 2320,
    "\u2581sc": 2321,
    "148": 2322,
    "\u25810x5b": 2323,
    "dc1": 2324,
    "mp": 2325,
    "palette": 2326,
    "\u25810x7540": 2327,
    "344": 2328,
    "link": 2329,
    "\u2581move": 2330,
    "932": 2331,
    "\u25810x7be0": 2332,
    "\u25810x202": 2333,
    "\u25810x1211f24": 2334,
    "\u2581createdirectoryw": 2335,
    "e05": 2336,
    "listhead": 2337,
    "\u2581initializeslisthead": 2338,
    "888": 2339,
    "a4c": 2340,
    "\u2581cop": 2341,
    "\u2581isvalid": 2342,
    "120": 2343,
    "952": 2344,
    "\u25810x1211f18": 2345,
    "\u25810x1211dfc": 2346,
    "\u2581ntdll": 2347,
    "\u2581registerwindow": 2348,
    "740": 2349,
    "647": 2350,
    "\u25810x27": 2351,
    "econdition": 2352,
    "econditionvariable": 2353,
    "\u25810xa7": 2354,
    "5a7": 2355,
    "ast": 2356,
    "\u2581getdate": 2357,
    "\u25810x42c0": 2358,
    "\u25810x45fc": 2359,
    "\u25810x42a00": 2360,
    "\u2581findfirstfilea": 2361,
    "\u2581controlfp": 2362,
    "\u25810x4af4": 2363,
    "\u25813": 2364,
    "utes": 2365,
    "\u25810x1211ef8": 2366,
    "60c": 2367,
    "ubstit": 2368,
    "\u25810x30000": 2369,
    "ubstitutes": 2370,
    "\u2581fontsubstitutes": 2371,
    "d2c": 2372,
    "d8c": 2373,
    "dac": 2374,
    "\u2581cl": 2375,
    "\u25810x12112": 2376,
    "\u25810xfeee0028": 2377,
    "178": 2378,
    "\u25810x432": 2379,
    "\u25810x40a7": 2380,
    "\u25810x7eaba8": 2381,
    "privileg": 2382,
    "\u25810x44f910": 2383,
    "\u2581getuserdefault": 2384,
    "\u2581filet": 2385,
    "\u25810x40a58c": 2386,
    "\u2581filetimeto": 2387,
    "rs": 2388,
    "5c8": 2389,
    "\u25810x40a57c": 2390,
    "e88": 2391,
    "\u25810x40f": 2392,
    "\u2581commode": 2393,
    "\u25810x430880": 2394,
    "\u2581createfilemapping": 2395,
    "rsing": 2396,
    "token": 2397,
    "rsingleob": 2398,
    "\u25810x42a0": 2399,
    "ab5": 2400,
    "\u25810x8a40": 2401,
    "vironmentvariablew": 2402,
    "278": 2403,
    "\u25810x435002": 2404,
    "\u25810x435004": 2405,
    "\u25810x435006": 2406,
    "\u25810x435008": 2407,
    "\u25810x43500a": 2408,
    "\u25810x43500c": 2409,
    "\u25810x43500e": 2410,
    "\u25810x435010": 2411,
    "\u25810xfeee011": 2412,
    "1f4": 2413,
    "ec8": 2414,
    "500000": 2415,
    "\u25810x435014": 2416,
    "\u25810x435018": 2417,
    "a90": 2418,
    "\u25810x435016": 2419,
    "\u2581deletefilew": 2420,
    "600": 2421,
    "\u25810x45fb": 2422,
    "\u2581remove": 2423,
    "9d8": 2424,
    "\u25810x7270": 2425,
    "\u2581aa": 2426,
    "\u25810x4cf0": 2427,
    "\u25810x7bd0": 2428,
    "\u25810x502dc": 2429,
    "\u25810x1210ec0": 2430,
    "\u2581accessviolation": 2431,
    "124": 2432,
    "\u25810x40a9": 2433,
    "\u25810x169bc": 2434,
    "\u25810xa3": 2435,
    "poolwork": 2436,
    "10c": 2437,
    "\u25810x435012": 2438,
    "namew": 2439,
    "\u25810x181b70": 2440,
    "\u2581getprivateprofile": 2441,
    "\u2581waitforsingleob": 2442,
    "\u25810x1211f04": 2443,
    "\u25810x63000000": 2444,
    "\u2581unhandledexceptionfilter": 2445,
    "\u25810x7300": 2446,
    "\u25810x42992": 2447,
    "\u2581setfileattribut": 2448,
    "903": 2449,
    "e4b8": 2450,
    "5c4": 2451,
    "\u25810x7910": 2452,
    "d18": 2453,
    "\u2581destroy": 2454,
    "\u25810x1211ccc": 2455,
    "\u2581copy": 2456,
    "d40": 2457,
    "f28": 2458,
    "\u25810x26": 2459,
    "434": 2460,
    "9c7": 2461,
    "352": 2462,
    "80e": 2463,
    "erre": 2464,
    "\u2581dup": 2465,
    "\u2581messageboxa": 2466,
    "70c": 2467,
    "\u25810x40a59c": 2468,
    "945": 2469,
    "9f8": 2470,
    "b98": 2471,
    "pos": 2472,
    "\u2581remov": 2473,
    "9260": 2474,
    "\u25810x7900": 2475,
    "502": 2476,
    "\u25810xa8": 2477,
    "\u25810x1211f80": 2478,
    "\u25810x4605": 2479,
    "140": 2480,
    "\u25810x40f6a8": 2481,
    "744": 2482,
    "\u2581setenvironmentvariablea": 2483,
    "e84": 2484,
    "wind": 2485,
    "64c": 2486,
    "548": 2487,
    "\u2581ver": 2488,
    "text": 2489,
    "\u25810x43501a": 2490,
    "eall": 2491,
    "\u2581tmp": 2492,
    "\u2581wakeall": 2493,
    "\u2581wakeallconditionvariable": 2494,
    "604": 2495,
    "\u25810xfeee002a": 2496,
    "\u25810xfeee0029": 2497,
    "ac4": 2498,
    "exit": 2499,
    "gical": 2500,
    "\u2581setupapi": 2501,
    "1c4": 2502,
    "a38": 2503,
    "\u2581loc": 2504,
    "logical": 2505,
    "\u25810x7a80": 2506,
    "\u2581getlogical": 2507,
    "218": 2508,
    "\u2581rtlun": 2509,
    "\u25810x43f6": 2510,
    "\u2581duplic": 2511,
    "\u2581localiz": 2512,
    "\u2581localization": 2513,
    "da0": 2514,
    "ument": 2515,
    "\u25810x78a0": 2516,
    "\u2581rtlunwind": 2517,
    "43c": 2518,
    "688": 2519,
    "1b0": 2520,
    "2c8": 2521,
    "326": 2522,
    "\u25810xfeee002d": 2523,
    "arc": 2524,
    "\u2581fe": 2525,
    "\u25810x4700": 2526,
    "nal": 2527,
    "\u25810x644": 2528,
    "1e4": 2529,
    "\u25810x3f2000": 2530,
    "\u25810xfeee002c": 2531,
    "\u2581createwindow": 2532,
    "\u25810xa4": 2533,
    "\u25810x40e5": 2534,
    "bcc": 2535,
    "\u2581mar": 2536,
    "\u25810x10a": 2537,
    "\u25810xfeee002b": 2538,
    "7dc": 2539,
    "\u25810x4608": 2540,
    "\u25810x43501c": 2541,
    "\u25810x43501e": 2542,
    "\u25810x435020": 2543,
    "\u25810x435022": 2544,
    "\u25810x435028": 2545,
    "\u25810x43502a": 2546,
    "\u25810x43502c": 2547,
    "\u25810x43502e": 2548,
    "\u25810x435030": 2549,
    "\u25810x75500000": 2550,
    "\u25810xfeee002f": 2551,
    "330": 2552,
    "6c4": 2553,
    "e58": 2554,
    "\u2581code": 2555,
    "\u2581prop": 2556,
    "\u25810xfeee002e": 2557,
    "eb8": 2558,
    "sys": 2559,
    "pref": 2560,
    "\u25810x406": 2561,
    "\u2581oleacc": 2562,
    "\u2581apphelp": 2563,
    "\u25810xfeee017": 2564,
    "\u2581getfileinformationby": 2565,
    "902": 2566,
    "905": 2567,
    "bcat": 2568,
    "d44": 2569,
    "bcatq": 2570,
    "\u2581clbcatq": 2571,
    "\u2581propsys": 2572,
    "a70": 2573,
    "f46": 2574,
    "gear": 2575,
    "item": 2576,
    "\u25810x44c250": 2577,
    "\u2581codegear": 2578,
    "33c": 2579,
    "d50": 2580,
    "\u2581exception": 2581,
    "008": 2582,
    "\u25810x7150": 2583,
    "\u25810x7ad0": 2584,
    "ateprocess": 2585,
    "9d1": 2586,
    "\u2581setfilepointerex": 2587,
    "\u25810x461518": 2588,
    "928": 2589,
    "typ": 2590,
    "7038": 2591,
    "\u2581msvcr90": 2592,
    "\u25810xfeee005f": 2593,
    "\u25810x4604": 2594,
    "lipboard": 2595,
    "\u25810x40a5b0": 2596,
    "\u25810x40a5b8": 2597,
    "\u25810x1211c08": 2598,
    "\u2581inst": 2599,
    "\u25810xb000": 2600,
    "\u25810xfeee0065": 2601,
    "\u2581createfilemappinga": 2602,
    "\u25810x40a5b4": 2603,
    "setinformation": 2604,
    "e43": 2605,
    "\u25810x40a5ae": 2606,
    "\u25810x40a5b2": 2607,
    "\u25810x40a5b6": 2608,
    "\u25810x40a5ba": 2609,
    "9dc": 2610,
    "acd": 2611,
    "5cc": 2612,
    "978": 2613,
    "\u25810xa1": 2614,
    "\u25810x73f0": 2615,
    "aaaaaaaa": 2616,
    "\u25810xfeee0030": 2617,
    "544": 2618,
    "66e": 2619,
    "\u25810xa6": 2620,
    "998": 2621,
    "e74": 2622,
    "\u25810xfeee018": 2623,
    "instruction": 2624,
    "\u2581terminateprocess": 2625,
    "d48": 2626,
    "d83": 2627,
    "370": 2628,
    "950": 2629,
    "\u25810x46c0": 2630,
    "\u25810xfeee0049": 2631,
    "\u25810xfeee0066": 2632,
    "ym": 2633,
    "ais": 2634,
    "ce3": 2635,
    "e1a": 2636,
    "\u25810xfeee0031": 2637,
    "704": 2638,
    "f40": 2639,
    "f8a": 2640,
    "\u25810x4095": 2641,
    "\u25810x72a0": 2642,
    "7c5": 2643,
    "enum": 2644,
    "\u25810x1211508": 2645,
    "1c0": 2646,
    "\u25810xc8": 2647,
    "\u25810x76500000": 2648,
    "\u25810xfeee0067": 2649,
    "pack": 2650,
    "erredu": 2651,
    "\u25810x7f8003": 2652,
    "\u25810x7f8004": 2653,
    "\u25810x7f8005": 2654,
    "\u25810x7f8006": 2655,
    "\u25810x7f8007": 2656,
    "\u25810x7f8008": 2657,
    "\u25810x7f8009": 2658,
    "\u25810x7f800a": 2659,
    "\u25810x7f800b": 2660,
    "\u25810x7f800c": 2661,
    "\u25810x7f800d": 2662,
    "preferredu": 2663,
    "\u2581registerclassa": 2664,
    "preferreduilanguage": 2665,
    "ff8": 2666,
    "\u25810x4602": 2667,
    "closekey": 2668,
    "\u2581regclosekey": 2669,
    "\u2581setdll": 2670,
    "f86": 2671,
    "\u25810x7f800e": 2672,
    "\u2581feb": 2673,
    "\u25810xffe1": 2674,
    "ass": 2675,
    "fc8": 2676,
    "\u25810x95": 2677,
    "\u2581draw": 2678,
    "\u25810x3f4": 2679,
    "\u25810x7f800f": 2680,
    "\u2581comparestringex": 2681,
    "\u2581getlocaleinfoex": 2682,
    "preferreduilanguages": 2683,
    "1cc": 2684,
    "ech": 2685,
    "\u25810x71b0": 2686,
    "\u25810xfffe": 2687,
    "38c": 2688,
    "dd4": 2689,
    "\u25810x448": 2690,
    "\u25810xfeee016": 2691,
    "\u2581createdirectorya": 2692,
    "\u2581up": 2693,
    "\u25810x1211fc4": 2694,
    "\u25810xfeee0033": 2695,
    "\u25810x42c": 2696,
    "\u25810xffe0": 2697,
    "720": 2698,
    "\u2581rais": 2699,
    "\u25810x450": 2700,
    "\u2581raiseex": 2701,
    "\u2581raiseexception": 2702,
    "b5c": 2703,
    "driv": 2704,
    "emut": 2705,
    "9c3": 2706,
    "\u25810xfeee0032": 2707,
    "\u2581initcommoncontrolsex": 2708,
    "\u25810xffe4": 2709,
    "valueexa": 2710,
    "fa8": 2711,
    "\u2581heapsetinformation": 2712,
    "\u25810xfeee0035": 2713,
    "\u2581removedirectory": 2714,
    "\u25810x93": 2715,
    "\u25810x1211e24": 2716,
    "\u25810x364": 2717,
    "\u25810x1009": 2718,
    "\u25810x420fe8": 2719,
    "\u25810xfeee0034": 2720,
    "\u2581acquiresrwlockexclusive": 2721,
    "sn": 2722,
    "288": 2723,
    "f77": 2724,
    "\u25810x1211f50": 2725,
    "20b": 2726,
    "\u2581map": 2727,
    "files": 2728,
    "\u25810x5d": 2729,
    "664": 2730,
    "801": 2731,
    "a54": 2732,
    "\u25810x42a4": 2733,
    "\u25810x7690": 2734,
    "\u25815": 2735,
    "15e": 2736,
    "\u25810x401": 2737,
    "\u25810x1210e30": 2738,
    "\u25810x2357b": 2739,
    "\u25810x1211f10": 2740,
    "\u25810xffbb": 2741,
    "\u25810xffbd": 2742,
    "\u25810xffbe": 2743,
    "\u25810x1211f70": 2744,
    "\u2581duplicate": 2745,
    "b10": 2746,
    "\u25810xffbc": 2747,
    "\u2581sept": 2748,
    "\u25810xffb8": 2749,
    "\u25810xffb9": 2750,
    "\u25810xffba": 2751,
    "\u2581oct": 2752,
    "\u25810x7060": 2753,
    "\u25810x8230": 2754,
    "\u25810xffb7": 2755,
    "\u25810xfffd": 2756,
    "\u25810x455480": 2757,
    "\u25810xbe": 2758,
    "\u25810x77e0": 2759,
    "\u25810xfeee0037": 2760,
    "4bb8": 2761,
    "\u25810xfeee0046": 2762,
    "\u25810xfeee0053": 2763,
    "14c": 2764,
    "echeck": 2765,
    "\u25810x1005": 2766,
    "\u25810xfffc": 2767,
    "\u25810x455468": 2768,
    "\u25810xfeee0036": 2769,
    "918": 2770,
    "\u25810x440": 2771,
    "\u25810xffb6": 2772,
    "d20": 2773,
    "\u2581sys": 2774,
    "\u25810x44f": 2775,
    "formata": 2776,
    "\u25810xffbf": 2777,
    "\u25810x43f00": 2778,
    "\u25810xfeee0045": 2779,
    "586": 2780,
    "a0c": 2781,
    "\u25810xfeee0038": 2782,
    "fad": 2783,
    "\u2581me": 2784,
    "ee08": 2785,
    "\u2581duplicatehandle": 2786,
    "bc4": 2787,
    "384": 2788,
    "ed4": 2789,
    "edit": 2790,
    "dc4": 2791,
    "e08": 2792,
    "\u2581to": 2793,
    "bound": 2794,
    "\u25810xfffb": 2795,
    "\u2581windowsnt": 2796,
    "\u25810xfeee0047": 2797,
    "15f": 2798,
    "984": 2799,
    "\u25810x1211fc8": 2800,
    "\u2581findwindow": 2801,
    "270": 2802,
    "284": 2803,
    "\u25810xfeee003d": 2804,
    "load": 2805,
    "\u25810xfeee003b": 2806,
    "9b9": 2807,
    "\u25810x59": 2808,
    "\u25810xffb5": 2809,
    "\u25810xfeee003e": 2810,
    "cid": 2811,
    "\u2581regedit": 2812,
    "\u25810xfeee003a": 2813,
    "state": 2814,
    "\u2581febr": 2815,
    "74b": 2816,
    "pril": 2817,
    "roll": 2818,
    "tober": 2819,
    "\u25810xcf": 2820,
    "\u2581april": 2821,
    "\u2581august": 2822,
    "\u2581november": 2823,
    "\u2581september": 2824,
    "208": 2825,
    "eni": 2826,
    "une": 2827,
    "\u2581apr": 2828,
    "\u25810xffe2": 2829,
    "\u25810xfeee0043": 2830,
    "\u25810xfeee0044": 2831,
    "\u25810xfeee004a": 2832,
    "663": 2833,
    "\u25810x429260": 2834,
    "\u25810xfeee0039": 2835,
    "\u25810xfeee0040": 2836,
    "\u2581setdlldirectoryw": 2837,
    "\u25810x433": 2838,
    "\u25810xfeee0048": 2839,
    "\u2581div": 2840,
    "linkw": 2841,
    "\u25810xfeee0041": 2842,
    "7d0": 2843,
    "\u25810xfeee003f": 2844,
    "\u25810xfeee0042": 2845,
    "e04": 2846,
    "ec9": 2847,
    "\u25810x6c": 2848,
    "\u25810x4012": 2849,
    "\u2581setwindow": 2850,
    "\u25810xfeee003c": 2851,
    "1ac": 2852,
    "\u25810xfeee0068": 2853,
    "fa2": 2854,
    "lex": 2855,
    "brus": 2856,
    "prior": 2857,
    "\u25810x96": 2858,
    "\u25810xffa0": 2859,
    "priority": 2860,
    "\u2581getmessage": 2861,
    "areex": 2862,
    "edcomp": 2863,
    "localtime": 2864,
    "edcompareex": 2865,
    "\u2581interlockedcompareex": 2866,
    "6c5": 2867,
    "ass2": 2868,
    "index": 2869,
    "\u2581meip": 2870,
    "\u2581meipass2": 2871,
    "\u2581getdiskfreespaceexa": 2872,
    "32c": 2873,
    "las": 2874,
    "trl": 2875,
    "\u25810xfeee0069": 2876,
    "\u2581interlockedcompareexchange": 2877,
    "123": 2878,
    "ternal": 2879,
    "\u25810x455": 2880,
    "\u25810xffa1": 2881,
    "fa6": 2882,
    "\u2581format": 2883,
    "fa4": 2884,
    "\u25810xffa2": 2885,
    "\u25810xffb4": 2886,
    "lg": 2887,
    "a5c": 2888,
    "ervice": 2889,
    "103": 2890,
    "\u25810x480": 2891,
    "\u25810xfffa": 2892,
    "\u25810x1211dbc": 2893,
    "92e": 2894,
    "dfc": 2895,
    "\u25810x40a540": 2896,
    "uly": 2897,
    "\u2581ass": 2898,
    "anuary": 2899,
    "\u2581march": 2900,
    "\u25810x4d500": 2901,
    "\u2581february": 2902,
    "\u2581em": 2903,
    "cata": 2904,
    "\u25810x44e": 2905,
    "\u2581strcpy": 2906,
    "\u2581october": 2907,
    "\u2581december": 2908,
    "\u2581lstrcata": 2909,
    "\u25810x600": 2910,
    "\u25810xffa3": 2911,
    "\u25810xffe6": 2912,
    "\u25810x1211c94": 2913,
    "\u2581getvolumeinformationa": 2914,
    "f92": 2915,
    "ret": 2916,
    "iled": 2917,
    "\u2581thu": 2918,
    "failed": 2919,
    "nesday": 2920,
    "\u2581outof": 2921,
    "\u25810xffcd": 2922,
    "\u2581monday": 2923,
    "\u2581sunday": 2924,
    "\u2581tuesday": 2925,
    "\u2581wednesday": 2926,
    "\u2581createpalette": 2927,
    "6cd": 2928,
    "985": 2929,
    "ursday": 2930,
    "\u2581thursday": 2931,
    "\u25810x1211db8": 2932,
    "\u2581outofmemory": 2933,
    "96c": 2934,
    "iday": 2935,
    "\u2581fri": 2936,
    "urday": 2937,
    "\u25810xbc": 2938,
    "\u2581friday": 2939,
    "\u25810x40a53a": 2940,
    "\u25810x40a53c": 2941,
    "\u25810x40a53e": 2942,
    "\u25810x40a542": 2943,
    "\u25810x40a544": 2944,
    "\u2581saturday": 2945,
    "db8": 2946,
    "\u25810x40a546": 2947,
    "3c8": 2948,
    "anget": 2949,
    "\u25810x1211928": 2950,
    "e0c": 2951,
    "ecall": 2952,
    "\u25810x81": 2953,
    "\u25810x47f0": 2954,
    "\u2581enumsystem": 2955,
    "lexecut": 2956,
    "\u25810x78d0": 2957,
    "\u25810xffa4": 2958,
    "\u2581shellexecut": 2959,
    "pa": 2960,
    "605": 2961,
    "718": 2962,
    "hore": 2963,
    "\u2581show": 2964,
    "946": 2965,
    "ae0": 2966,
    "\u2581ts": 2967,
    "\u25810x4010": 2968,
    "\u2581append": 2969,
    "\u25810xfeee004d": 2970,
    "afecall": 2971,
    "\u25810x4093e4": 2972,
    "\u25810x44e4b8": 2973,
    "\u2581external": 2974,
    "409": 2975,
    "\u25810xffe7": 2976,
    "\u2581interfac": 2977,
    "found": 2978,
    "\u25810x416": 2979,
    "\u25810x4760": 2980,
    "364": 2981,
    "7e0": 2982,
    "a0b": 2983,
    "d0c": 2984,
    "6c00": 2985,
    "\u25810x140": 2986,
    "\u2581asser": 2987,
    "\u25810x1211e4c": 2988,
    "\u25810xfeee004b": 2989,
    "\u25810xfeee004c": 2990,
    "\u25810xfeee006a": 2991,
    "68b": 2992,
    "\u25810xac": 2993,
    "\u2581inte": 2994,
    "\u25810x4356": 2995,
    "743": 2996,
    "d1c": 2997,
    "fc4": 2998,
    "ins": 2999,
    "ns": 3000,
    "\u25810xffa5": 3001,
    "784": 3002,
    "944": 3003,
    "d24": 3004,
    "\u25810xffa6": 3005,
    "\u25810x1211e2c": 3006,
    "958": 3007,
    "\u2581exit": 3008,
    "\u25810x4232": 3009,
    "\u25810x7d50": 3010,
    "etype": 3011,
    "\u2581stack": 3012,
    "\u25810xffa7": 3013,
    "\u2581memset": 3014,
    "\u25810xfeee013": 3015,
    "\u2581assertion": 3016,
    "\u2581interfacen": 3017,
    "\u2581q": 3018,
    "\u25810x414": 3019,
    "\u25810x7b40": 3020,
    "\u2581integer": 3021,
    "9640": 3022,
    "styp": 3023,
    "\u2581crt": 3024,
    "\u25810x2b4": 3025,
    "\u25810x2439": 3026,
    "\u25810x7b90": 3027,
    "\u25810xad": 3028,
    "\u25810x7bf0": 3029,
    "\u25810x1211a44": 3030,
    "\u25810xfeee0055": 3031,
    "\u25810x415c": 3032,
    "\u25810x1211fbc": 3033,
    "\u25810xfeee0050": 3034,
    "684": 3035,
    "770": 3036,
    "\u25810x91": 3037,
    "changet": 3038,
    "privileged": 3039,
    "\u2581variantchanget": 3040,
    "oman": 3041,
    "\u2581disk": 3042,
    "\u25810x120fa": 3043,
    "\u25810xfeee0054": 3044,
    "310": 3045,
    "\u25810xfeee004e": 3046,
    "6e0": 3047,
    "\u25810x2100210": 3048,
    "calls": 3049,
    "\u25810x40ac": 3050,
    "\u25810xfeee005e": 3051,
    "\u25810x51": 3052,
    "insafecall": 3053,
    "viewoffile": 3054,
    "\u25810x1211f34": 3055,
    "\u25810xfeee004f": 3056,
    "\u2581exceptioninsafecall": 3057,
    "a31": 3058,
    "bf0": 3059,
    "d70": 3060,
    "\u25810x412": 3061,
    "package": 3062,
    "\u25810x7a50": 3063,
    "303": 3064,
    "\u2581po": 3065,
    "\u25810xab": 3066,
    "\u25810xffa8": 3067,
    "f58": 3068,
    "\u25810xffcc": 3069,
    "wh": 3070,
    "12c": 3071,
    "deni": 3072,
    "\u25810xffa9": 3073,
    "notfound": 3074,
    "\u25810xfeee0051": 3075,
    "\u25810xfeee0052": 3076,
    "\u25810x7c90": 3077,
    "90c": 3078,
    "ond": 3079,
    "\u25817z6": 3080,
    "under": 3081,
    "\u25817z72": 3082,
    "\u25810x12110": 3083,
    "packageid": 3084,
    "\u2581getcurrentpackageid": 3085,
    "1c7": 3086,
    "ecast": 3087,
    "\u25810xffe3": 3088,
    "tp": 3089,
    "122": 3090,
    "145": 3091,
    "ymbo": 3092,
    "ymbolic": 3093,
    "\u25810x44ea": 3094,
    "\u25810xfeee0064": 3095,
    "\u2581stem": 3096,
    "\u25810x44e9": 3097,
    "\u25810x47ee": 3098,
    "\u25810xffce": 3099,
    "\u2581stem32": 3100,
    "creating": 3101,
    "\u25810x169bc9c": 3102,
    "\u25810xfeee0057": 3103,
    "\u2581privileged": 3104,
    "pointeroperation": 3105,
    "\u2581assertionfailed": 3106,
    "\u2581rang": 3107,
    "\u2581rangecheck": 3108,
    "ymboliclinkw": 3109,
    "\u2581createsymboliclinkw": 3110,
    "682": 3111,
    "fc0": 3112,
    "omany": 3113,
    "outof": 3114,
    "\u2581chit": 3115,
    "bounds": 3116,
    "pointo": 3117,
    "lasstyp": 3118,
    "otsuped": 3119,
    "\u25810x41eb": 3120,
    "callsnot": 3121,
    "floating": 3122,
    "\u2581toomany": 3123,
    "createkey": 3124,
    "openfiles": 3125,
    "\u2581invalidc": 3126,
    "indexoutof": 3127,
    "\u25810xfeee0056": 3128,
    "lasstypecast": 3129,
    "callsnotsuped": 3130,
    "floatingpoint": 3131,
    "pointoverflow": 3132,
    "\u2581regcreatekey": 3133,
    "divisionbyzero": 3134,
    "\u2581errorcreating": 3135,
    "\u2581divisionbyzero": 3136,
    "indexoutofbounds": 3137,
    "\u2581integeroverflow": 3138,
    "\u2581invalidfilename": 3139,
    "\u2581rangecheckerror": 3140,
    "\u2581toomanyopenfiles": 3141,
    "\u2581externalexception": 3142,
    "\u2581interfacenotsuped": 3143,
    "\u2581invalidfloatingpoint": 3144,
    "\u2581variantcallsnotsuped": 3145,
    "\u2581floatingpointoverflow": 3146,
    "\u2581invalidpointeroperation": 3147,
    "\u2581floatingpointdivisionbyzero": 3148,
    "\u2581invalidfloatingpointoperation": 3149,
    "7bc": 3150,
    "a4a": 3151,
    "ac5": 3152,
    "bey": 3153,
    "d85": 3154,
    "\u258132": 3155,
    "beyond": 3156,
    "denied": 3157,
    "\u25810x41e": 3158,
    "numeric": 3159,
    "typecon": 3160,
    "underflow": 3161,
    "\u2581diskfull": 3162,
    "\u25810xfeee005c": 3163,
    "\u2581fileaccess": 3164,
    "\u2581readbeyond": 3165,
    "numericinput": 3166,
    "typeconversion": 3167,
    "\u2581stackoverflow": 3168,
    "\u2581fileaccessdenied": 3169,
    "\u2581invalidnumericinput": 3170,
    "\u2581readbeyondendoffile": 3171,
    "\u2581invalidclasstypecast": 3172,
    "\u2581privilegedinstruction": 3173,
    "\u2581floatingpointunderflow": 3174,
    "\u2581invalidvariantoperation": 3175,
    "\u2581invalidvarianttypeconversion": 3176,
    "2c2": 3177,
    "3de": 3178,
    "d5c": 3179,
    "\u25810x7750": 3180,
    "\u25810xfeee0058": 3181,
    "\u2581findnextfilea": 3182,
    "\u2581shgetfileinfow": 3183,
    "f05": 3184,
    "when": 3185,
    "589": 3186,
    "argument": 3187,
    "\u25810xfeee005a": 3188,
    "\u25810xfeee005b": 3189,
    "eek": 3190,
    "specw": 3191,
    "\u25810xffcf": 3192,
    "\u2581appendw": 3193,
    "\u25810xfeee0063": 3194,
    "\u2581getlocaltime": 3195,
    "\u2581getfileinformationbyhandl": 3196,
    "994": 3197,
    "\u25810x1211f1c": 3198,
    "\u25810xfeee0059": 3199,
    "\u2581removefile": 3200,
    "b84": 3201,
    "urns": 3202,
    "riteb": 3203,
    "\u25810xb3": 3204,
    "handler": 3205,
    "horeexw": 3206,
    "returns": 3207,
    "rthread": 3208,
    "\u25810xffaa": 3209,
    "\u2581strcmp": 3210,
    "ornumber": 3211,
    "\u2581getdriv": 3212,
    "callbacks": 3213,
    "ritebuffers": 3214,
    "whencallback": 3215,
    "\u2581getdrivetype": 3216,
    "\u2581flushprocessw": 3217,
    "\u2581waitforthread": 3218,
    "pooltimercallbacks": 3219,
    "\u2581setthreadpoolwait": 3220,
    "whencallbackreturns": 3221,
    "\u2581createsemaphoreexw": 3222,
    "\u2581setthreadpooltimer": 3223,
    "\u2581closethreadpoolwait": 3224,
    "\u2581closethreadpooltimer": 3225,
    "\u2581createthreadpoolwait": 3226,
    "\u2581createthreadpooltimer": 3227,
    "\u2581flushprocesswritebuffers": 3228,
    "\u2581getcurrentprocessornumber": 3229,
    "\u2581freelibrarywhencallbackreturns": 3230,
    "\u2581waitforthreadpooltimercallbacks": 3231,
    "1c6": 3232,
    "af4": 3233,
    "mar": 3234,
    "\u2581tsl": 3235,
    "\u25810x40b7": 3236,
    "\u25810x40935c": 3237,
    "\u25810x4093ec": 3238,
    "\u25810xffcb": 3239,
    "\u25810xfeee0060": 3240,
    "\u2581removefilespecw": 3241,
    "de8": 3242,
    "\u25810x42b9": 3243,
    "\u25810x74e0": 3244,
    "mod": 3245,
    "\u2581initializeconditionvariable": 3246,
    "324": 3247,
    "5c0": 3248,
    "bbc": 3249,
    "dc2": 3250,
    "ef4": 3251,
    "pen": 3252,
    "f000": 3253,
    "\u25810x92": 3254,
    "\u25810xf0": 3255,
    "\u25810xffb0": 3256,
    "\u25810xffb3": 3257,
    "\u25810xfeee005d": 3258,
    "1e2": 3259,
    "\u25810x1211c98": 3260,
    "\u25810xfeee0061": 3261,
    "\u25810xfeee0062": 3262,
    "a78": 3263,
    "e94": 3264,
    "f2c": 3265,
    "f78": 3266,
    "fcc": 3267,
    "\u25810x403": 3268,
    "\u25810x47e0": 3269,
    "\u25810xffb1": 3270,
    "\u25810xffb2": 3271,
    "a6c": 3272,
    "\u25810x537": 3273,
    "\u25810x7e00": 3274,
    "\u25810x1210f64": 3275,
    "964": 3276,
    "98d": 3277,
    "9d3": 3278,
    "keyw": 3279,
    "drl66": 3280,
    "\u25810x7ae0": 3281,
    "\u2581tsldrl66": 3282,
    "scr": 3283,
    "ypeex": 3284,
    "\u25810x7030": 3285,
    "\u2581regdelete": 3286,
    "\u2581variantchangetypeex": 3287,
    "hot": 3288,
    "\u25810xa5": 3289,
    "\u25810x4bb0": 3290,
    "931": 3291,
    "db5": 3292,
    "93e": 3293,
    "sub": 3294,
    "\u25810xfff9": 3295,
    "ow64": 3296,
    "\u25810x7d99": 3297,
    "\u2581update": 3298,
    "ff0": 3299,
    "\u25810x4210": 3300,
    "\u25810x7cf0": 3301,
    "\u25810xffe5": 3302,
    "\u2581charprevw": 3303,
    "7c4": 3304,
    "neg": 3305,
    "\u25810x100300": 3306,
    "mul": 3307,
    "xor": 3308,
    "\u25810x110": 3309,
    "\u2581varcy": 3310,
    "\u2581varor": 3311,
    "\u2581varr8": 3312,
    "\u2581varadd": 3313,
    "\u2581varand": 3314,
    "\u2581varcmp": 3315,
    "\u2581vardiv": 3316,
    "\u2581varmod": 3317,
    "\u2581varmul": 3318,
    "\u2581varneg": 3319,
    "\u2581varnot": 3320,
    "\u2581varsub": 3321,
    "\u2581varxor": 3322,
    "\u2581varbool": 3323,
    "\u2581vardate": 3324,
    "\u2581varidiv": 3325,
    "\u2581varcyfromstr": 3326,
    "\u2581vari4fromstr": 3327,
    "\u2581varr4fromstr": 3328,
    "\u2581varr8fromstr": 3329,
    "\u2581varbstrfromcy": 3330,
    "\u2581varboolfromstr": 3331,
    "\u2581vardatefromstr": 3332,
    "\u2581varbstrfrombool": 3333,
    "\u2581varbstrfromdate": 3334,
    "\u25810x4012db": 3335,
    "\u25810xfeee0087": 3336,
    "806": 3337,
    "\u25810x1808": 3338,
    "\u25810x422a0": 3339,
    "\u2581gettickcount64": 3340,
    "9b6": 3341,
    "b4c": 3342,
    "b50": 3343,
    "etool": 3344,
    "be8": 3345,
    "vis": 3346,
    "help32": 3347,
    "\u2581appdata": 3348,
    "\u25810x75d0": 3349,
    "\u2581createtool": 3350,
    "snaps": 3351,
    "\u25810x6a6": 3352,
    "\u25810x7da0": 3353,
    "\u25810x40f660": 3354,
    "help32snaps": 3355,
    "\u25810xfeee0088": 3356,
    "\u2581createtoolhelp32snaps": 3357,
    "348": 3358,
    "3cc": 3359,
    "atoma": 3360,
    "\u25810x72d0": 3361,
    "\u25810x120ee": 3362,
    "\u25810x1211fc0": 3363,
    "360": 3364,
    "\u25810xffca": 3365,
    "defaultu": 3366,
    "\u25810xfeee006b": 3367,
    "defaultuilanguage": 3368,
    "\u25810xfff8": 3369,
    "9c1": 3370,
    "a03": 3371,
    "a97": 3372,
    "\u25810x7ff": 3373,
    "\u2581reset": 3374,
    "\u25810x7210": 3375,
    "f18": 3376,
    "zone": 3377,
    "\u2581createtoolhelp32snapshot": 3378,
    "hook": 3379,
    "\u25810x1b5": 3380,
    "\u25810x4175": 3381,
    "zoneinformation": 3382,
    "uter": 3383,
    "urity": 3384,
    "\u25810x42b964": 3385,
    "\u2581gettimezoneinformation": 3386,
    "778": 3387,
    "vie": 3388,
    "code": 3389,
    "\u25810x7870": 3390,
    "\u25810x100fd": 3391,
    "\u25810xfeee0070": 3392,
    "d38": 3393,
    "\u25810x7600": 3394,
    "e87": 3395,
    "oem": 3396,
    "marta": 3397,
    "\u25810x350": 3398,
    "\u25810x478": 3399,
    "\u25810x50850": 3400,
    "\u2581ntmarta": 3401,
    "\u25810x1211738": 3402,
    "\u25810x1211edc": 3403,
    "bd4": 3404,
    "f70": 3405,
    "brush": 3406,
    "\u25810x423326": 3407,
    "\u25810x423327": 3408,
    "\u25810xfeee0077": 3409,
    "\u2581filenotfound": 3410,
    "\u25810x7b10": 3411,
    "lication": 3412,
    "2ed": 3413,
    "db3": 3414,
    "reque": 3415,
    "\u25810x1211e40": 3416,
    "\u2581getfileattributesa": 3417,
    "7f0": 3418,
    "53a0": 3419,
    "\u25810x7ba0": 3420,
    "\u25810x1211d08": 3421,
    "a20": 3422,
    "e31": 3423,
    "lat": 3424,
    "\u2581437": 3425,
    "\u25810x7660": 3426,
    "\u25810x409364": 3427,
    "\u25810xfeee0079": 3428,
    "\u2581getwindowsdirectoryw": 3429,
    "valuea": 3430,
    "\u25810x7240": 3431,
    "\u25810x7d98": 3432,
    "4444": 3433,
    "omputer": 3434,
    "\u25810x7a20": 3435,
    "\u25810x8090": 3436,
    "\u25810x12119a0": 3437,
    "\u25810xfeee006e": 3438,
    "lecs": 3439,
    "ablecs": 3440,
    "\u25810x7390": 3441,
    "variablecs": 3442,
    "\u2581sleepcondition": 3443,
    "\u2581sleepconditionvariablecs": 3444,
    "7cc": 3445,
    "\u25810x4603": 3446,
    "\u25810x3f4000": 3447,
    "\u25810xfeee006c": 3448,
    "2c0": 3449,
    "\u25810x7ed": 3450,
    "\u25810x1211f3c": 3451,
    "\u25810xfeee006f": 3452,
    "\u25810xfeee0078": 3453,
    "5b2": 3454,
    "a02": 3455,
    "ession": 3456,
    "\u25810x44000": 3457,
    "34d": 3458,
    "b000": 3459,
    "\u25810xfeee007a": 3460,
    "244": 3461,
    "7c58": 3462,
    "l6660d": 3463,
    "\u25810x40a2": 3464,
    "\u25810x76f0": 3465,
    "\u25810xfeee0076": 3466,
    "\u25810xfeee007b": 3467,
    "\u2581getcomputer": 3468,
    "d9c": 3469,
    "\u2581ie": 3470,
    "\u25810x75a0": 3471,
    "\u25810xfeee006d": 3472,
    "147": 3473,
    "\u25810x71e0": 3474,
    "\u25810x76c0": 3475,
    "\u25810x7720": 3476,
    "\u2581getfull": 3477,
    "\u25810x181b48": 3478,
    "1d0": 3479,
    "\u2581om": 3480,
    "\u25810xfeee0071": 3481,
    "\u25810x401000": 3482,
    "\u25810xfeee0074": 3483,
    "secor": 3484,
    "\u2581evie": 3485,
    "\u25810x52660": 3486,
    "\u2581omsecor": 3487,
    "\u25810x10005c": 3488,
    "\u25810x454bb8": 3489,
    "\u2581psc": 3490,
    "\u2581vie": 3491,
    "\u25810xfff7": 3492,
    "gn": 3493,
    "barc": 3494,
    "adero": 3495,
    "\u2581embarc": 3496,
    "security": 3497,
    "\u25810xfeee0073": 3498,
    "\u2581embarcadero": 3499,
    "variantorsafearray": 3500,
    "\u2581variantorsafearray": 3501,
    "\u2581errorcreatingvariantorsafearray": 3502,
    "\u2581variantorsafearrayindexoutofbounds": 3503,
    "328": 3504,
    "unlock": 3505,
    "\u25810xfeee0072": 3506,
    "\u2581invalidargument": 3507,
    "d78": 3508,
    "\u25810x7180": 3509,
    "\u2581regenum": 3510,
    "\u2581createexw": 3511,
    "\u2581setfileinformationby": 3512,
    "drl6660drl6660drl6660drl6660drl6660": 3513,
    "fd4": 3514,
    "session": 3515,
    "\u25810x7480": 3516,
    "\u25810x7d9c": 3517,
    "\u25810x7d9d": 3518,
    "validate": 3519,
    "\u2581heapvalidate": 3520,
    "\u2581y": 3521,
    "b70": 3522,
    "a4c4": 3523,
    "\u25810x7570": 3524,
    "1f8": 3525,
    "68c8": 3526,
    "\u25810x7f80": 3527,
    "\u25810x12116c0": 3528,
    "\u2581movefilew": 3529,
    "\u25810xfeee0075": 3530,
    "5f8": 3531,
    "e10": 3532,
    "\u25810x7990": 3533,
    "\u25810xfeee007c": 3534,
    "\u2581setendoffile": 3535,
    "66c": 3536,
    "nam": 3537,
    "\u25810x2200": 3538,
    "\u25810x4c30": 3539,
    "f062": 3540,
    "\u25810x77b0": 3541,
    "\u25810x7840": 3542,
    "\u2581exp": 3543,
    "\u25810x41f6": 3544,
    "\u25810x8814": 3545,
    "\u25810x74b0": 3546,
    "\u25810x3020": 3547,
    "\u25810x7510": 3548,
    "\u2581setfileattributesa": 3549,
    "fbc": 3550,
    "\u25810x7360": 3551,
    "\u25810xffe8": 3552,
    "3a4": 3553,
    "974": 3554,
    "b3b": 3555,
    "644": 3556,
    "95c": 3557,
    "\u25810x70c0": 3558,
    "\u25810x7330": 3559,
    "10d": 3560,
    "901": 3561,
    "\u25810xa9": 3562,
    "og": 3563,
    "1b4": 3564,
    "242": 3565,
    "30c": 3566,
    "\u25810x7450": 3567,
    "\u25810x7da1": 3568,
    "\u25810x1211e44": 3569,
    "7de": 3570,
    "f7a8": 3571,
    "lon": 3572,
    "\u25810x7120": 3573,
    "\u25810x181b98": 3574,
    "386": 3575,
    "a07": 3576,
    "ed0": 3577,
    "edu": 3578,
    "ecute": 3579,
    "procedu": 3580,
    "stringw": 3581,
    "\u25810x40f5": 3582,
    "\u25810x7960": 3583,
    "\u25810x79c0": 3584,
    "\u25810xffc8": 3585,
    "\u2581showwindow": 3586,
    "6b6": 3587,
    "f90": 3588,
    "\u25810x7420": 3589,
    "9ee": 3590,
    "eab": 3591,
    "\u25810x3f5": 3592,
    "\u25810x73c0": 3593,
    "e06": 3594,
    "\u25810x7630": 3595,
    "3a8": 3596,
    "d88": 3597,
    "\u25810xfeedf0": 3598,
    "\u25810xfeee007d": 3599,
    "\u25810xfeee007e": 3600,
    "\u25810xfeee0081": 3601,
    "728": 3602,
    "bc6": 3603,
    "\u25810x4919": 3604,
    "\u25810x4093a5": 3605,
    "\u25810x4093a6": 3606,
    "\u25810x4093a7": 3607,
    "\u25810x4093a8": 3608,
    "\u25810x4093a9": 3609,
    "\u25810x4093aa": 3610,
    "\u25810x4093ab": 3611,
    "\u2581lstrcmpi": 3612,
    "\u25810x1211790": 3613,
    "lt": 3614,
    "9852": 3615,
    "formatw": 3616,
    "982": 3617,
    "e6c": 3618,
    "\u2581end": 3619,
    "\u25810x173": 3620,
    "\u25810x8815": 3621,
    "\u25810xfeee007f": 3622,
    "\u25810xfeee0082": 3623,
    "\u25810xffc7": 3624,
    "\u2581getthreadpreferreduilanguages": 3625,
    "atet": 3626,
    "\u2581regset": 3627,
    "\u25810xfeee0080": 3628,
    "\u25810xfeee0083": 3629,
    "304": 3630,
    "\u25810x411b": 3631,
    "\u25810x70f0": 3632,
    "\u25810x12117c8": 3633,
    "\u25810xfeee0086": 3634,
    "e3a": 3635,
    "\u2581getexit": 3636,
    "11c": 3637,
    "309": 3638,
    "\u25810x47b1": 3639,
    "\u25810x7b70": 3640,
    "\u25810x1211d50": 3641,
    "269": 3642,
    "\u2581qa": 3643,
    "\u25810x4041": 3644,
    "\u25810x1210c": 3645,
    "\u25810x1211ec8": 3646,
    "e40": 3647,
    "\u2581registerclipboard": 3648,
    "920": 3649,
    "ee2": 3650,
    "long": 3651,
    "\u25810x7780": 3652,
    "menuitem": 3653,
    "\u25810x181c60": 3654,
    "\u25810x181c88": 3655,
    "a05": 3656,
    "b97": 3657,
    "fcf": 3658,
    "\u25810xffc9": 3659,
    "\u25810xfeee0084": 3660,
    "3f4": 3661,
    "758": 3662,
    "a24": 3663,
    "\u25810x20019": 3664,
    "\u25810x1211e58": 3665,
    "\u25810xfeee0085": 3666,
    "54c": 3667,
    "781": 3668,
    "\u25810xffd2": 3669,
    "\u2581globalunlock": 3670,
    "768": 3671,
    "\u25810x11000": 3672,
    "\u25810x41de00": 3673,
    "\u2581getenvironmentstring": 3674,
    "763": 3675,
    "5410": 3676,
    "\u2581createmut": 3677,
    "\u25810xfeee008c": 3678,
    "gr": 3679,
    "\u2581be": 3680,
    "\u25810x42a190": 3681,
    "\u25810x7ee000": 3682,
    "\u25810xfeee0089": 3683,
    "\u2581enumsystemlocales": 3684,
    "\u2581releasesrwlockexclusive": 3685,
    "9fb": 3686,
    "par": 3687,
    "\u2581cqa": 3688,
    "\u2581scqa": 3689,
    "\u25810x418": 3690,
    "\u25810x492": 3691,
    "\u2581pscqa": 3692,
    "\u25810x1002": 3693,
    "\u25810x7f8002": 3694,
    "35c": 3695,
    "dd1": 3696,
    "ceex": 3697,
    "\u25810x1211e1c": 3698,
    "\u25810xfeee008b": 3699,
    "1c8": 3700,
    "\u25810x62": 3701,
    "\u25810x9b": 3702,
    "\u25810x56c": 3703,
    "ht": 3704,
    "d55": 3705,
    "\u25810xffab": 3706,
    "\u25810x5265d": 3707,
    "\u25810x42a403": 3708,
    "\u25810x42a404": 3709,
    "\u25810x42a405": 3710,
    "\u25810x42a406": 3711,
    "\u25810x42a407": 3712,
    "\u25810x42a408": 3713,
    "\u25810x42a409": 3714,
    "\u25810x42a40a": 3715,
    "\u25810x42a40b": 3716,
    "\u25810x42a40c": 3717,
    "\u25810x42a40d": 3718,
    "\u25810x42a40e": 3719,
    "\u25810x42a40f": 3720,
    "\u25810x7f8010": 3721,
    "\u25810xfeee008a": 3722,
    "34b": 3723,
    "\u25810x2d4": 3724,
    "\u25810x40c4": 3725,
    "\u25810xfeee008e": 3726,
    "7c1": 3727,
    "\u25810x5f": 3728,
    "\u25810x4aa0": 3729,
    "\u25810x77002": 3730,
    "\u2581removedirectorya": 3731,
    "\u25810x5265": 3732,
    "\u25810x7df4": 3733,
    "os": 3734,
    "\u25810x6ce": 3735,
    "\u25810x7df5": 3736,
    "\u25810x40a40": 3737,
    "\u25810x7c000000": 3738,
    "\u2581messageboxw": 3739,
    "378": 3740,
    "20c0": 3741,
    "3c54": 3742,
    "\u2581getenvironmentstrings": 3743,
    "372": 3744,
    "782": 3745,
    "a68": 3746,
    "b87": 3747,
    "ncy": 3748,
    "ows": 3749,
    "\u25810xc0": 3750,
    "d06": 3751,
    "inst": 3752,
    "\u2581getenvironmentvariablea": 3753,
    "152": 3754,
    "528": 3755,
    "90a": 3756,
    "b0b": 3757,
    "\u2581verset": 3758,
    "\u25810xfeee008d": 3759,
    "conditionmask": 3760,
    "\u2581versetconditionmask": 3761,
    "fdc": 3762,
    "onexit": 3763,
    "onsolew": 3764,
    "\u25810x4300": 3765,
    "cefreque": 3766,
    "\u25810x200020": 3767,
    "cefrequency": 3768,
    "\u2581queryperformancefrequency": 3769,
    "338": 3770,
    "bc1": 3771,
    "e28": 3772,
    "oemcp": 3773,
    "\u25810x44ea20": 3774,
    "\u2581getoemcp": 3775,
    "\u2581createsemaphore": 3776,
    "\u2581gettempfilename": 3777,
    "b5b": 3778,
    "\u25810x4540e0": 3779,
    "bk": 3780,
    "b2c": 3781,
    "\u25810x4b40": 3782,
    "1b8": 3783,
    "df5": 3784,
    "\u25810xffc6": 3785,
    "\u2581getprivateprofilestringa": 3786,
    "\u25810x4164": 3787,
    "\u25810x7da4": 3788,
    "cc6": 3789,
    "\u25810x7bc": 3790,
    "\u2581createw": 3791,
    "\u25810x10000000": 3792,
    "\u25810x78f0": 3793,
    "\u25810x6ce0000": 3794,
    "980": 3795,
    "ssp": 3796,
    "26c": 3797,
    "\u25810x409e": 3798,
    "\u25810x88c0": 3799,
    "\u2581gdiplus": 3800,
    "\u25810x1211938": 3801,
    "a87": 3802,
    "adc": 3803,
    "dc3": 3804,
    "\u25810x10b": 3805,
    "\u25810x4066": 3806,
    "40f": 3807,
    "666": 3808,
    "a000": 3809,
    "\u25810xfffffffe": 3810,
    "282": 3811,
    "69c": 3812,
    "ere": 3813,
    "fd8": 3814,
    "\u25810xffac": 3815,
    "\u25810x4cb00": 3816,
    "ce5": 3817,
    "\u25810x1211f48": 3818,
    "\u2581copyfilea": 3819,
    "\u25810xfeee008f": 3820,
    "\u2581x0": 3821,
    "\u25810x5265e": 3822,
    "uilanguage": 3823,
    "\u25810x1211e90": 3824,
    "\u2581registerwindowmessagew": 3825,
    "150": 3826,
    "436": 3827,
    "\u25810x9a": 3828,
    "\u2581strlen": 3829,
    "\u2581getuserdefaultlocalename": 3830,
    "910": 3831,
    "\u25810xb7": 3832,
    "\u25810x40b8": 3833,
    "\u25810xfff6": 3834,
    "\u25810x1211e64": 3835,
    "9be": 3836,
    "ebc": 3837,
    "tive": 3838,
    "5d0": 3839,
    "d6c": 3840,
    "\u25810xb1": 3841,
    "\u25810xffe9": 3842,
    "inmodule": 3843,
    "\u25810x1211f0c": 3844,
    "\u25810xfeee0090": 3845,
    "\u2581comparestringw": 3846,
    "1d8": 3847,
    "\u25810xde": 3848,
    "\u25810x7bc00000": 3849,
    "60f": 3850,
    "747": 3851,
    "\u25810x1211f40": 3852,
    "\u2581shellexecutew": 3853,
    "9fe": 3854,
    "b8c": 3855,
    "e1d4": 3856,
    "\u25810x1733c4": 3857,
    "\u2581getdateformatex": 3858,
    "d12": 3859,
    "69c0": 3860,
    "\u2581gettimeformatex": 3861,
    "\u2581isvalidlocalename": 3862,
    "\u2581enumsystemlocalesex": 3863,
    "9fc": 3864,
    "bf4": 3865,
    "\u2581send": 3866,
    "\u25810x1211d60": 3867,
    "\u2581process32first": 3868,
    "a88": 3869,
    "db0": 3870,
    "\u2581wm": 3871,
    "\u25810x52662": 3872,
    "\u25810x40a3d1": 3873,
    "\u25810x40a3d2": 3874,
    "\u25810x40a3d3": 3875,
    "\u25810x40a92e": 3876,
    "\u25810x40a930": 3877,
    "\u25810x40a932": 3878,
    "\u25810x40a934": 3879,
    "\u25810x40a936": 3880,
    "\u25810x40a938": 3881,
    "\u25810x40a93a": 3882,
    "\u25810x448ad0": 3883,
    "\u25810xfeee0094": 3884,
    "\u25810x205": 3885,
    "\u25810x4990": 3886,
    "201": 3887,
    "9a4": 3888,
    "f8c": 3889,
    "eac8": 3890,
    "\u25810x47ee08": 3891,
    "5f0": 3892,
    "blt": 3893,
    "ff40": 3894,
    "\u25810x7a4": 3895,
    "\u2581getdrivetypea": 3896,
    "aec": 3897,
    "f1d": 3898,
    "f49": 3899,
    "fff0": 3900,
    "\u25810x3000": 3901,
    "gex": 3902,
    "\u2581getcurrentdirectoryw": 3903,
    "5a0": 3904,
    "7c7": 3905,
    "bd1": 3906,
    "b47c": 3907,
    "\u25810x411c": 3908,
    "\u25810x4196": 3909,
    "\u25810x42eb": 3910,
    "\u25810x7b00": 3911,
    "20c": 3912,
    "d60": 3913,
    "eedf": 3914,
    "952e8": 3915,
    "\u25810x160": 3916,
    "\u25810x40a6": 3917,
    "\u2581tlsfree": 3918,
    "238": 3919,
    "b7c": 3920,
    "scrip": 3921,
    "\u25810x604": 3922,
    "745": 3923,
    "f60": 3924,
    "\u25810x7af0": 3925,
    "340": 3926,
    "\u2581are": 3927,
    "\u25810x1211eac": 3928,
    "\u2581sldrl6660drl6660drl6660drl6660drl6660drl6660drl6660drl6660": 3929,
    "376": 3930,
    "\u2581at": 3931,
    "b880": 3932,
    "\u25810x4033": 3933,
    "\u25810x3f3000": 3934,
    "\u2581createwindowexa": 3935,
    "972c": 3936,
    "kg": 3937,
    "lay": 3938,
    "\u25810x40a3d4": 3939,
    "\u25810x461548": 3940,
    "\u25810x1211808": 3941,
    "\u25810x1211f5c": 3942,
    "\u25810x1211fa0": 3943,
    "\u25819": 3944,
    "7ac": 3945,
    "934": 3946,
    "\u2581ws2": 3947,
    "bitmap": 3948,
    "\u25810x7da5": 3949,
    "\u25810xffec": 3950,
    "\u25810x12117f4": 3951,
    "\u2581getenvironmentvariablew": 3952,
    "28d": 3953,
    "5678": 3954,
    "\u25810x1210e34": 3955,
    "va": 3956,
    "8c3": 3957,
    "f668": 3958,
    "leex": 3959,
    "\u25810x49c8": 3960,
    "gu": 3961,
    "3ad": 3962,
    "b6c": 3963,
    "bd8": 3964,
    "ated": 3965,
    "84f": 3966,
    "d14": 3967,
    "\u25810x700": 3968,
    "99e": 3969,
    "leexist": 3970,
    "\u25810x4af460": 3971,
    "\u2581fileexist": 3972,
    "774": 3973,
    "daa": 3974,
    "\u25810x452": 3975,
    "a71": 3976,
    "ad6": 3977,
    "d72": 3978,
    "\u25810x13fff0": 3979,
    "\u25810x1211e98": 3980,
    "\u2581registerclassexa": 3981,
    "805": 3982,
    "943": 3983,
    "f084": 3984,
    "lcid": 3985,
    "\u25810xffef": 3986,
    "c85": 3987,
    "f17": 3988,
    "\u25810x402": 3989,
    "\u25810x4a40": 3990,
    "valueexw": 3991,
    "\u25810xcf0000": 3992,
    "\u2581setthreadlocale": 3993,
    "580": 3994,
    "dd7": 3995,
    "ert": 3996,
    "\u2581findwindoww": 3997,
    "\u25810x8e90": 3998,
    "\u25810x4153a0": 3999,
    "\u25810x1211f4c": 4000,
    "\u2581registerclipboardformata": 4001,
    "006": 4002,
    "5bc": 4003,
    "ae2": 4004,
    "d26": 4005,
    "fox": 4006,
    "285c": 4007,
    "fileb": 4008,
    "\u25810x7db0": 4009,
    "\u25810x40a3d5": 4010,
    "\u25810x40a3d6": 4011,
    "\u25810x40a3d7": 4012,
    "\u2581flushfileb": 4013,
    "7e8": 4014,
    "bff": 4015,
    "descrip": 4016,
    "\u2581registerwindowmessagea": 4017,
    "642": 4018,
    "7d8": 4019,
    "fb0": 4020,
    "2c8c": 4021,
    "texta": 4022,
    "\u25810x41ce": 4023,
    "\u25810xffeb": 4024,
    "\u2581setenvironmentvariablew": 4025,
    "582": 4026,
    "709": 4027,
    "d1e5": 4028,
    "\u25810x6f": 4029,
    "\u25810xfeedf": 4030,
    "550": 4031,
    "\u25810x4770": 4032,
    "802": 4033,
    "fd3": 4034,
    "c018": 4035,
    "\u25810x40a0": 4036,
    "\u25810x406698": 4037,
    "dd8": 4038,
    "fb4": 4039,
    "6cbe": 4040,
    "\u25810xf8": 4041,
    "\u2581flushfilebuffers": 4042,
    "68a": 4043,
    "enh": 4044,
    "pip": 4045,
    "once": 4046,
    "\u25810xd3": 4047,
    "\u25810xd8": 4048,
    "\u25810xffdf": 4049,
    "\u25810x7eab78": 4050,
    "\u25810x12118f8": 4051,
    "404": 4052,
    "db2": 4053,
    "buff": 4054,
    "\u25810x4a80": 4055,
    "66a": 4056,
    "70b": 4057,
    "144": 4058,
    "7ec": 4059,
    "sid": 4060,
    "9b5c": 4061,
    "\u25817z2": 4062,
    "\u25817z8": 4063,
    "\u25817zc": 4064,
    "\u25817z30": 4065,
    "windowproc": 4066,
    "\u25810x1211f44": 4067,
    "1e7": 4068,
    "lect": 4069,
    "\u2581pro": 4070,
    "\u25810x40c7": 4071,
    "28c": 4072,
    "ad8": 4073,
    "\u25810x44d5": 4074,
    "\u25810x5265f": 4075,
    "sessionid": 4076,
    "\u25810x1211e20": 4077,
    "\u2581regqueryvalueexa": 4078,
    "906": 4079,
    "a30": 4080,
    "a76": 4081,
    "e68": 4082,
    "93c0": 4083,
    "\u25810x491": 4084,
    "\u2581application": 4085,
    "\u2581fileexistsw": 4086,
    "\u2581getmodulehandl": 4087,
    "578": 4088,
    "954": 4089,
    "d41": 4090,
    "dlg": 4091,
    "\u2581beg": 4092,
    "\u25810x437038": 4093,
    "\u25810x2000000": 4094,
    "\u2581charpreva": 4095,
    "1f0": 4096,
    "nect": 4097,
    "\u25810x7ba": 4098,
    "\u2581winht": 4099,
    "\u25810x4540b0": 4100,
    "\u25810x7ba00000": 4101,
    "vironmentstringsa": 4102,
    "a8b": 4103,
    "14c8": 4104,
    "\u25810x6b": 4105,
    "ualfox": 4106,
    "\u25810x3bc": 4107,
    "\u25810x41d": 4108,
    "\u25810x4020": 4109,
    "\u25810x5b2b": 4110,
    "\u2581wtsapi32": 4111,
    "\u2581process32next": 4112,
    "eec": 4113,
    "sum": 4114,
    "\u25810x4af478": 4115,
    "\u2581shgetfileinfoa": 4116,
    "ec5": 4117,
    "esst": 4118,
    "\u25810x406c": 4119,
    "processt": 4120,
    "\u25810x70a8": 4121,
    "\u25810xfffffffc": 4122,
    "115": 4123,
    "37c": 4124,
    "section": 4125,
    "\u25810xffd3": 4126,
    "\u25810xffd4": 4127,
    "\u25810x437800": 4128,
    "\u25810x1211e0c": 4129,
    "eb4": 4130,
    "\u25810x413": 4131,
    "\u2581updatewindow": 4132,
    "301": 4133,
    "paint": 4134,
    "\u25810x40e500": 4135,
    "a46": 4136,
    "b94": 4137,
    "reg": 4138,
    "50c0": 4139,
    "f4e4": 4140,
    "\u2581createprocess": 4141,
    "a64": 4142,
    "c07": 4143,
    "e054": 4144,
    "f200": 4145,
    "\u25810xa26": 4146,
    "\u25810x1211d8c": 4147,
    "\u2581isvalidlocale": 4148,
    "74f7": 4149,
    "d678": 4150,
    "\u2581add": 4151,
    "\u25810x6d": 4152,
    "\u25810x7da8": 4153,
    "\u25810xfeee0097": 4154,
    "692": 4155,
    "e2c": 4156,
    "94a8": 4157,
    "b4a4": 4158,
    "\u25810x7d27": 4159,
    "\u2581runtime": 4160,
    "f14": 4161,
    "f25": 4162,
    "f38": 4163,
    "7675": 4164,
    "bcd4": 4165,
    "\u25810x419": 4166,
    "\u25810x584": 4167,
    "\u25810x40e4": 4168,
    "\u25810x1211768": 4169,
    "5f6": 4170,
    "annot": 4171,
    "wow64": 4172,
    "\u25810xfc": 4173,
    "\u25810x4b80": 4174,
    "\u25810x455438": 4175,
    "\u2581openprocess": 4176,
    "407": 4177,
    "f20": 4178,
    "f44": 4179,
    "80d8": 4180,
    "block": 4181,
    "\u25810x435024": 4182,
    "\u25810x43a4c8": 4183,
    "\u25810x1211d7c": 4184,
    "stre": 4185,
    "\u25810xd2": 4186,
    "onceex": 4187,
    "ecuteonce": 4188,
    "\u25810x435026": 4189,
    "\u25810x435032": 4190,
    "\u25810x1211518": 4191,
    "\u2581initonceex": 4192,
    "\u2581initonceexecuteonce": 4193,
    "401": 4194,
    "4c8": 4195,
    "91c": 4196,
    "a9d": 4197,
    "aa8": 4198,
    "f75": 4199,
    "\u25810x6ab8": 4200,
    "\u25810xffea": 4201,
    "\u2581strcpyw": 4202,
    "\u2581getthreaduilanguage": 4203,
    "e07": 4204,
    "\u25810xc4": 4205,
    "128": 4206,
    "40d": 4207,
    "1882": 4208,
    "\u25810xfff5": 4209,
    "\u25810x1211ddc": 4210,
    "3e8": 4211,
    "751": 4212,
    "d46": 4213,
    "fec": 4214,
    "gram": 4215,
    "valuew": 4216,
    "a1c": 4217,
    "a41": 4218,
    "fc5": 4219,
    "1514": 4220,
    "2c82": 4221,
    "9228": 4222,
    "\u25810x7230": 4223,
    "\u25810x509e4": 4224,
    "\u25810xfeee0091": 4225,
    "\u25810xfeee0098": 4226,
    "24ac": 4227,
    "9fa2": 4228,
    "lower": 4229,
    "\u25810x7e80": 4230,
    "\u25810xffc5": 4231,
    "\u25810x1211e8c": 4232,
    "\u25810xfeee0093": 4233,
    "pl": 4234,
    "381": 4235,
    "b21": 4236,
    "\u2581ric": 4237,
    "\u25810xffde": 4238,
    "\u2581select": 4239,
    "\u25810x1211ad4": 4240,
    "\u25810x1211cec": 4241,
    "\u25810xfeee0092": 4242,
    "161": 4243,
    "a32": 4244,
    "aae": 4245,
    "\u2581def": 4246,
    "\u25810x44c": 4247,
    "\u25810x4140": 4248,
    "\u25810xffc1": 4249,
    "\u25810x40a5bc": 4250,
    "\u25810x1211fb8": 4251,
    "processmemory": 4252,
    "3f3": 4253,
    "a65": 4254,
    "own": 4255,
    "b188": 4256,
    "printf": 4257,
    "\u25810x1d4": 4258,
    "\u2581riche": 4259,
    "\u25810xffc0": 4260,
    "402": 4261,
    "d7c": 4262,
    "12b8": 4263,
    "30ec": 4264,
    "a448": 4265,
    "\u25810x4a20": 4266,
    "\u2581charlower": 4267,
    "\u25810xfeee0099": 4268,
    "90e": 4269,
    "d34": 4270,
    "lib": 4271,
    "per": 4272,
    "prec": 4273,
    "\u25810x41c4": 4274,
    "\u25810xfeee0095": 4275,
    "fx": 4276,
    "773": 4277,
    "ad2": 4278,
    "\u25810xf1": 4279,
    "\u25810x7ea": 4280,
    "\u25810x4233": 4281,
    "\u25810x45b1": 4282,
    "\u25810x47d0": 4283,
    "765": 4284,
    "b90": 4285,
    "\u2581the": 4286,
    "750": 4287,
    "907": 4288,
    "97b": 4289,
    "9ae": 4290,
    "a22": 4291,
    "ansi": 4292,
    "\u25810xfeee0096": 4293,
    "\u2581createmutexa": 4294,
    "\u2581getthreadpriority": 4295,
    "14d": 4296,
    "58a": 4297,
    "5c5": 4298,
    "970": 4299,
    "e92": 4300,
    "3030": 4301,
    "\u25810x1210dec": 4302,
    "\u25810x1211ed4": 4303,
    "\u2581getmodulehandleexw": 4304,
    "542": 4305,
    "e42": 4306,
    "18d5": 4307,
    "3915": 4308,
    "4010": 4309,
    "\u25810xffc4": 4310,
    "\u25810xfeee009a": 4311,
    "vironmentblock": 4312,
    "b80": 4313,
    "db4": 4314,
    "fed": 4315,
    "indi": 4316,
    "e1000": 4317,
    "\u25810x500": 4318,
    "descript": 4319,
    "trlhandler": 4320,
    "9f3": 4321,
    "ab0": 4322,
    "ects": 4323,
    "onsolec": 4324,
    "\u25810x44d2": 4325,
    "\u25810x3f5000": 4326,
    "localfiletime": 4327,
    "securitydescript": 4328,
    "\u2581filetimetolocalfiletime": 4329,
    "963": 4330,
    "9ec": 4331,
    "\u2581rec": 4332,
    "\u25810xffee": 4333,
    "126": 4334,
    "922": 4335,
    "b58": 4336,
    "dec5b": 4337,
    "\u25810x40e": 4338,
    "destroy": 4339,
    "\u25810x4609": 4340,
    "997": 4341,
    "a83": 4342,
    "b06": 4343,
    "e7c": 4344,
    "pkg": 4345,
    "cher": 4346,
    "\u25810x443": 4347,
    "conditionvariablesrw": 4348,
    "\u2581sleepconditionvariablesrw": 4349,
    "a7c": 4350,
    "f76": 4351,
    "bcb8": 4352,
    "\u25810xdb": 4353,
    "\u25810x4364": 4354,
    "\u25810x1211f54": 4355,
    "mb": 4356,
    "af6": 4357,
    "ati": 4358,
    "d42": 4359,
    "dc6": 4360,
    "\u25810x9f": 4361,
    "\u25810xb4": 4362,
    "\u25810xdc": 4363,
    "\u25810x1211d4c": 4364,
    "\u2581loadcursorw": 4365,
    "\u2581getlogicalprocessor": 4366,
    "apis": 4367,
    "oken": 4368,
    "scroll": 4369,
    "\u25810x40e7": 4370,
    "\u25810xffd5": 4371,
    "apisansi": 4372,
    "\u2581arefile": 4373,
    "\u2581arefileapisansi": 4374,
    "fy": 4375,
    "24c": 4376,
    "264": 4377,
    "ce1": 4378,
    "d10": 4379,
    "\u25810x1fa": 4380,
    "\u25810x5ab0": 4381,
    "1c2": 4382,
    "723": 4383,
    "54ba": 4384,
    "\u2581setst": 4385,
    "\u25810x407b": 4386,
    "\u25810x4106": 4387,
    "\u25810x412c": 4388,
    "\u25810x79a0": 4389,
    "\u25810xfeedf200": 4390,
    "\u2581findnextfilew": 4391,
    "d43": 4392,
    "d5f7": 4393,
    "stream": 4394,
    "\u25810x43c": 4395,
    "\u25810x42ed": 4396,
    "processtoken": 4397,
    "\u2581openprocesstoken": 4398,
    "e11": 4399,
    "\u25810x7da9": 4400,
    "\u25810x8410": 4401,
    "\u2581unlock": 4402,
    "\u25810x12108": 4403,
    "\u25810x40a230": 4404,
    "\u2581getlogicalprocessorinformation": 4405,
    "366": 4406,
    "b23": 4407,
    "drag": 4408,
    "\u25810x4e2": 4409,
    "\u25810x534": 4410,
    "\u25810x1211584": 4411,
    "\u2581setstdhandle": 4412,
    "\u25810x421708": 4413,
    "3c2": 4414,
    "685": 4415,
    "a72": 4416,
    "isp": 4417,
    "7a00": 4418,
    "\u25810xae": 4419,
    "\u25810xd7": 4420,
    "\u2581formatmessagea": 4421,
    "vec": 4422,
    "b445": 4423,
    "d6ec": 4424,
    "windows": 4425,
    "\u25810x2357": 4426,
    "\u25810xffda": 4427,
    "\u25810x2357b78": 4428,
    "\u25810xfeee009b": 4429,
    "a06": 4430,
    "de5": 4431,
    "14de": 4432,
    "amet": 4433,
    "fbf8": 4434,
    "\u25810x1211dd8": 4435,
    "968": 4436,
    "a63": 4437,
    "e7ac": 4438,
    "\u25810x7aa": 4439,
    "\u25810x1211cb8": 4440,
    "\u25810xfeee009c": 4441,
    "b05": 4442,
    "3880": 4443,
    "\u25810x42ec": 4444,
    "354": 4445,
    "b04": 4446,
    "b42": 4447,
    "d0b": 4448,
    "log": 4449,
    "40a3": 4450,
    "\u25810x6e": 4451,
    "\u25810x415": 4452,
    "\u25810x1210d1": 4453,
    "\u25810xfeee009d": 4454,
    "18a": 4455,
    "eb7": 4456,
    "\u2581ldr": 4457,
    "\u25810xaf": 4458,
    "\u25810x4533": 4459,
    "\u25810x7b80": 4460,
    "\u25810x1211a30": 4461,
    "\u25810x1211e50": 4462,
    "a47": 4463,
    "59f0": 4464,
    "6684": 4465,
    "blead": 4466,
    "\u25810xba": 4467,
    "\u2581ismb": 4468,
    "\u25810x798": 4469,
    "\u25810x1210e10": 4470,
    "\u2581ismbblead": 4471,
    "wer": 4472,
    "\u25810x40d": 4473,
    "\u25810x4030": 4474,
    "\u25810x4d80": 4475,
    "\u25810x4e00": 4476,
    "\u25810x1211f14": 4477,
    "\u2581getcomputernamea": 4478,
    "\u2581getfileinformationbyhandleex": 4479,
    "dc9": 4480,
    "alog": 4481,
    "b0cbc": 4482,
    "\u25810x4033e6": 4483,
    "\u25810x40f690": 4484,
    "\u25810x1211ed8": 4485,
    "ac2": 4486,
    "eas": 4487,
    "3000": 4488,
    "\u2581resum": 4489,
    "\u25810x1075": 4490,
    "\u2581getmessagea": 4491,
    "\u2581resumethread": 4492,
    "646": 4493,
    "9e5": 4494,
    "bec": 4495,
    "iseas": 4496,
    "rl6660d": 4497,
    "\u25810xffd8": 4498,
    "preciseas": 4499,
    "preciseasfiletime": 4500,
    "\u2581writeprivateprofile": 4501,
    "\u2581getsystemtimepreciseasfiletime": 4502,
    "433": 4503,
    "drive": 4504,
    "\u25810x42e": 4505,
    "\u25810x8330": 4506,
    "\u25810x4e2de0": 4507,
    "d310": 4508,
    "stack": 4509,
    "\u2581regcreatekeyexa": 4510,
    "374": 4511,
    "665": 4512,
    "de4": 4513,
    "\u2581ro": 4514,
    "da26": 4515,
    "\u25810x7500": 4516,
    "\u2581lstrcmpia": 4517,
    "\u2581createwindowexw": 4518,
    "7ca": 4519,
    "a8c": 4520,
    "40a8": 4521,
    "50f4": 4522,
    "guar": 4523,
    "hell": 4524,
    "antee": 4525,
    "service": 4526,
    "guarantee": 4527,
    "stackguarantee": 4528,
    "\u2581setthreadstackguarantee": 4529,
    "14f": 4530,
    "7ae": 4531,
    "ays": 4532,
    "ba6": 4533,
    "d02": 4534,
    "efd": 4535,
    "2c3c": 4536,
    "6088": 4537,
    "a064": 4538,
    "ways": 4539,
    "\u2581try": 4540,
    "\u2581always": 4541,
    "\u25810xfeee009e": 4542,
    "969": 4543,
    "b02": 4544,
    "\u2581wi": 4545,
    "7137": 4546,
    "e8ca": 4547,
    "\u25810x8340": 4548,
    "\u25810xfff3": 4549,
    "\u25810x508d0": 4550,
    "\u25810x7c000": 4551,
    "sh": 4552,
    "bac": 4553,
    "pop": 4554,
    "74f9": 4555,
    "a590": 4556,
    "f3ed": 4557,
    "\u25810x188": 4558,
    "\u25810x41c": 4559,
    "\u25810xac0": 4560,
    "\u25810x509a8": 4561,
    "\u25810x54000": 4562,
    "54a": 4563,
    "7ee": 4564,
    "96d": 4565,
    "ba4": 4566,
    "bdc": 4567,
    "chr": 4568,
    "e60": 4569,
    "5234": 4570,
    "7dc9": 4571,
    "\u2581module": 4572,
    "\u2581createprocessw": 4573,
    "175": 4574,
    "325": 4575,
    "9f0": 4576,
    "\u2581peek": 4577,
    "\u2581post": 4578,
    "88d": 4579,
    "1cfd": 4580,
    "1f45": 4581,
    "d4a8": 4582,
    "\u25810x4195": 4583,
    "\u2581iswow64": 4584,
    "\u2581module32": 4585,
    "\u25810x3020302": 4586,
    "\u2581iswow64process": 4587,
    "\u2581getsystemdefaultuilanguage": 4588,
    "ly": 4589,
    "3cb": 4590,
    "orgex": 4591,
    "\u2581writ": 4592,
    "\u25810x417": 4593,
    "systemtime": 4594,
    "\u25810x1210f50": 4595,
    "88c": 4596,
    "d05": 4597,
    "51ce": 4598,
    "\u2581setbk": 4599,
    "\u25810x40ca": 4600,
    "\u2581writec": 4601,
    "\u25810x40a538": 4602,
    "\u25810x40b3a0": 4603,
    "\u25810x1210ee0": 4604,
    "\u25810x1210f70": 4605,
    "\u25810xfeedf000": 4606,
    "\u25810xfeee009f": 4607,
    "36b": 4608,
    "80a": 4609,
    "fon": 4610,
    "8b34": 4611,
    "keya": 4612,
    "\u25810x461500": 4613,
    "\u25810x1211eb4": 4614,
    "\u2581mapviewoffile": 4615,
    "\u2581createsemaphorew": 4616,
    "1e8": 4617,
    "274": 4618,
    "f24": 4619,
    "fe4": 4620,
    "0012": 4621,
    "45a2": 4622,
    "536c": 4623,
    "5920": 4624,
    "\u25810xe3": 4625,
    "\u25810x80e0": 4626,
    "\u25810xffad": 4627,
    "\u25810x77000": 4628,
    "9c6": 4629,
    "bb8": 4630,
    "d57": 4631,
    "d98": 4632,
    "e38": 4633,
    "ec6": 4634,
    "f7f0": 4635,
    "\u25810x288": 4636,
    "\u25810x181bc0": 4637,
    "\u25810x42c0e0": 4638,
    "vm": 4639,
    "fc1b": 4640,
    "a84f1": 4641,
    "\u25810x6a": 4642,
    "\u25810x436": 4643,
    "\u25810x40a548": 4644,
    "\u25810x42a402": 4645,
    "\u25810x42a410": 4646,
    "\u25810x1211888": 4647,
    "7a4": 4648,
    "ce7": 4649,
    "\u25810x100fdd58": 4650,
    "7d1": 4651,
    "a12": 4652,
    "b28": 4653,
    "df8": 4654,
    "ea2": 4655,
    "d1cc": 4656,
    "icli": 4657,
    "\u2581ssp": 4658,
    "\u25810x99a0": 4659,
    "\u2581sspicli": 4660,
    "\u25810x41f750": 4661,
    "\u25810x12115c4": 4662,
    "\u25810xfeee00a0": 4663,
    "\u25810xfeee00a1": 4664,
    "\u2581comparestringa": 4665,
    "75c": 4666,
    "97f": 4667,
    "d07": 4668,
    "5c98": 4669,
    "e000": 4670,
    "\u25810x41f6c0": 4671,
    "\u25810x41f780": 4672,
    "\u25810x1210e70": 4673,
    "\u25810x1210e90": 4674,
    "\u25810xfeee00a2": 4675,
    "\u2581getvolumeinformationw": 4676,
    "936": 4677,
    "9880": 4678,
    "\u25810x44c4": 4679,
    "\u25810x7d20": 4680,
    "\u25810x409ab4": 4681,
    "\u25810x409ab5": 4682,
    "\u25810x410acd": 4683,
    "\u25810x410ace": 4684,
    "\u25810x46b188": 4685,
    "\u25810x12119f0": 4686,
    "\u2581tsldrl666": 4687,
    "1e0": 4688,
    "206": 4689,
    "706": 4690,
    "aa3": 4691,
    "4058": 4692,
    "\u25810xc7": 4693,
    "\u25810xe2": 4694,
    "ervicec": 4695,
    "\u25810x41d8": 4696,
    "\u2581getlogicaldrive": 4697,
    "\u2581getuserdefaultlcid": 4698,
    "32a": 4699,
    "9d6": 4700,
    "a11": 4701,
    "a6fb": 4702,
    "\u25810x4ad0": 4703,
    "\u25810x53e4": 4704,
    "\u25810x9020": 4705,
    "\u25810xffdb": 4706,
    "procedure": 4707,
    "12a": 4708,
    "b7f": 4709,
    "ff4": 4710,
    "1800": 4711,
    "\u25810x6f6": 4712,
    "\u25810x53e0": 4713,
    "abc": 4714,
    "d80": 4715,
    "f738": 4716,
    "ba104": 4717,
    "\u25810x84b0": 4718,
    "\u2581getlogicaldrivestring": 4719,
    "bfc": 4720,
    "\u2581dx": 4721,
    "eaac": 4722,
    "\u25810xdf": 4723,
    "\u25810x4c0": 4724,
    "unction": 4725,
    "\u25810x40b5": 4726,
    "\u25810x1210e40": 4727,
    "\u25810x1210fc0": 4728,
    "b82": 4729,
    "b354": 4730,
    "\u2581sfc": 4731,
    "\u25810x208": 4732,
    "\u25810x8280": 4733,
    "\u25810x10021f": 4734,
    "\u25810x4175f4": 4735,
    "\u25810x584d24": 4736,
    "\u25810x1210fa0": 4737,
    "\u25810x12117ec": 4738,
    "738": 4739,
    "a10": 4740,
    "fae": 4741,
    "\u2581sa": 4742,
    "\u25810x87": 4743,
    "\u25810xe7": 4744,
    "\u25810x8310": 4745,
    "786": 4746,
    "9c9": 4747,
    "\u2581os": 4748,
    "4e9c": 4749,
    "f8e4": 4750,
    "\u2581inf": 4751,
    "\u25810xe8": 4752,
    "\u25810x4554b0": 4753,
    "\u25810x1210e2b": 4754,
    "\u2581regsetvalueexa": 4755,
    "ld": 4756,
    "ash": 4757,
    "e5f0": 4758,
    "nextw": 4759,
    "\u25810xf4": 4760,
    "\u25810x606": 4761,
    "\u2581interne": 4762,
    "\u25810x1211894": 4763,
    "\u25810x1211ef4": 4764,
    "822": 4765,
    "917": 4766,
    "da4": 4767,
    "3cf0": 4768,
    "ac18": 4769,
    "\u25810x3010": 4770,
    "\u25810x42d0": 4771,
    "\u25810x4780": 4772,
    "6cf": 4773,
    "962": 4774,
    "49c0": 4775,
    "6a68": 4776,
    "e423": 4777,
    "f5fb": 4778,
    "pipe": 4779,
    "\u25810x9d": 4780,
    "\u25810x424": 4781,
    "\u25810x447": 4782,
    "\u25810x43b4": 4783,
    "\u25810x1210f00": 4784,
    "\u25810x121178c": 4785,
    "\u2581getcursor": 4786,
    "b26": 4787,
    "3c28": 4788,
    "\u25810x100b": 4789,
    "\u25810x54a8": 4790,
    "\u2581getconsolemode": 4791,
    "545": 4792,
    "\u25810x417d": 4793,
    "\u25810x7c91": 4794,
    "\u25810x2200220": 4795,
    "a6a": 4796,
    "ba0": 4797,
    "1580": 4798,
    "da1c": 4799,
    "\u2581rsa": 4800,
    "\u2581dxgi": 4801,
    "\u25810x411": 4802,
    "\u25810x6f00": 4803,
    "\u2581ldrget": 4804,
    "\u2581rsaenh": 4805,
    "ataddress": 4806,
    "\u2581dxgidebug": 4807,
    "\u2581defwindowproc": 4808,
    "procedureaddress": 4809,
    "\u2581filetimetosystemtime": 4810,
    "\u2581ldrgetprocedureaddress": 4811,
    "8c5": 4812,
    "11b8": 4813,
    "cdd7": 4814,
    "\u2581vfp": 4815,
    "ec97c": 4816,
    "\u25810xfeee00a3": 4817,
    "\u2581accessviolationataddress": 4818,
    "13f": 4819,
    "a80": 4820,
    "mit": 4821,
    "ton": 4822,
    "9918": 4823,
    "\u2581fre": 4824,
    "popup": 4825,
    "\u25810x9e": 4826,
    "\u25810x3c0": 4827,
    "\u25810x7b7": 4828,
    "atetime": 4829,
    "\u25810xffdc": 4830,
    "\u2581winhttp": 4831,
    "eresource": 4832,
    "\u2581iswindow": 4833,
    "\u25810x1211fe4": 4834,
    "002": 4835,
    "316": 4836,
    "43b": 4837,
    "f98": 4838,
    "f844": 4839,
    "timet": 4840,
    "\u25810xc3": 4841,
    "\u25810x7100": 4842,
    "\u2581gettex": 4843,
    "\u25810x120f7a8": 4844,
    "\u25810x1211d2c": 4845,
    "2bc": 4846,
    "9ce": 4847,
    "e72": 4848,
    "64c6": 4849,
    "fc360": 4850,
    "\u25810x5e": 4851,
    "\u2581globalf": 4852,
    "visualfox": 4853,
    "\u25810x435403": 4854,
    "\u25810x435404": 4855,
    "\u25810x435405": 4856,
    "\u25810x435406": 4857,
    "\u25810x537500": 4858,
    "\u2581createprocessa": 4859,
    "\u2581setfileattributesw": 4860,
    "aa0": 4861,
    "d73": 4862,
    "f27": 4863,
    "\u25810x48b0": 4864,
    "\u25810x1211994": 4865,
    "\u2581dllonexit": 4866,
    "visualfoxpro": 4867,
    "b54": 4868,
    "bb9": 4869,
    "7064": 4870,
    "\u25810x57c": 4871,
    "\u25810x7460": 4872,
    "\u25810xffed": 4873,
    "\u25810x350b8": 4874,
    "\u25810x409411": 4875,
    "\u25810x409412": 4876,
    "\u25810x409413": 4877,
    "\u25810x409414": 4878,
    "\u25810x409415": 4879,
    "\u25810x409416": 4880,
    "\u25810x409417": 4881,
    "\u25810x40a3e9": 4882,
    "\u25810x40a3ea": 4883,
    "\u25810x40a3eb": 4884,
    "\u25810x40a3ec": 4885,
    "\u25810x40a3ed": 4886,
    "\u25810x40a3ee": 4887,
    "\u25810x40a3ef": 4888,
    "\u2581internet": 4889,
    "\u25810x1000130": 4890,
    "\u25810x1211784": 4891,
    "\u25810x1211cd0": 4892,
    "\u25810x2050000": 4893,
    "\u2581freeenvironmentstringsa": 4894,
    "py": 4895,
    "146": 4896,
    "a0f": 4897,
    "fic": 4898,
    "2468": 4899,
    "55e7": 4900,
    "b08c": 4901,
    "f7e7": 4902,
    "okup": 4903,
    "\u25810x40ea": 4904,
    "\u25810x23533": 4905,
    "\u25810x435407": 4906,
    "\u25810x1210f30": 4907,
    "\u25810xfeee00a4": 4908,
    "\u25810xfeee00a5": 4909,
    "\u2581systemtimet": 4910,
    "tokeninformation": 4911,
    "993": 4912,
    "43e5": 4913,
    "6564": 4914,
    "b5b4": 4915,
    "bdf0": 4916,
    "\u25810xb2": 4917,
    "\u2581shell": 4918,
    "\u25810x1210ed0": 4919,
    "dos": 4920,
    "43d4": 4921,
    "ff48": 4922,
    "767574": 4923,
    "\u25810x497": 4924,
    "\u25810x4222": 4925,
    "\u25810x45d3": 4926,
    "\u2581cannot": 4927,
    "\u25810x1211ea0": 4928,
    "\u25810x77767574": 4929,
    "005": 4930,
    "972": 4931,
    "12e7": 4932,
    "37d0": 4933,
    "d006c": 4934,
    "\u25810xe4": 4935,
    "\u25810xeb": 4936,
    "\u2581vfp6": 4937,
    "\u25810x602": 4938,
    "\u25810x6900": 4939,
    "\u2581lookup": 4940,
    "\u25810x435408": 4941,
    "\u25810x435409": 4942,
    "\u25810x43540a": 4943,
    "\u25810x43540b": 4944,
    "\u25810x43540c": 4945,
    "\u25810x6d006c": 4946,
    "\u25810x6f006e": 4947,
    "\u25810x710070": 4948,
    "\u25810x770076": 4949,
    "\u25810x790078": 4950,
    "\u25810x1211ef0": 4951,
    "741": 4952,
    "b006a": 4953,
    "\u25810x232": 4954,
    "\u25810x690068": 4955,
    "\u25810x6b006a": 4956,
    "\u25810x730072": 4957,
    "\u25810x750074": 4958,
    "\u25810x7b007a": 4959,
    "\u25810x7d007c": 4960,
    "\u25810x7f007e": 4961,
    "pp": 4962,
    "1cb0": 4963,
    "fc54": 4964,
    "\u25810xe6": 4965,
    "\u25810x180c": 4966,
    "\u25810x7a10": 4967,
    "\u25810xfff4": 4968,
    "\u25810x1211f8c": 4969,
    "\u25810xfeee00bc": 4970,
    "\u2581getsyscolorbrush": 4971,
    "162": 4972,
    "322": 4973,
    "net": 4974,
    "3626": 4975,
    "a7978": 4976,
    "\u25810x4b00": 4977,
    "\u25810x7e81": 4978,
    "\u25810xffd0": 4979,
    "\u25810x43540d": 4980,
    "\u25810x7b7a7978": 4981,
    "\u25810xfeee00a7": 4982,
    "\u2581sendmessagea": 4983,
    "26d": 4984,
    "f30": 4985,
    "run": 4986,
    "2482": 4987,
    "a0ef": 4988,
    "virtual": 4989,
    "\u25810x78c0": 4990,
    "\u25810x429000": 4991,
    "\u25810x491994": 4992,
    "a61": 4993,
    "12a3": 4994,
    "9d50": 4995,
    "a7b0": 4996,
    "f3e7": 4997,
    "\u25810x4530": 4998,
    "\u2581globaladd": 4999,
    "\u25810xfeee00a6": 5000,
    "\u2581setfiletime": 5001,
    "imetofiletime": 5002,
    "66d": 5003,
    "2020": 5004,
    "6861": 5005,
    "a9ef0": 5006,
    "\u25810x430fec": 5007,
    "\u25810x43540e": 5008,
    "\u25810x43540f": 5009,
    "\u2581exitthread": 5010,
    "\u2581gettokeninformation": 5011,
    "447": 5012,
    "bvm": 5013,
    "rec": 5014,
    "7000": 5015,
    "7170": 5016,
    "9448": 5017,
    "9920": 5018,
    "f8e6": 5019,
    "\u25810x40e9": 5020,
    "\u25810x4680": 5021,
    "\u25810x44f8c8": 5022,
    "\u25810xfeee00a8": 5023,
    "bc3": 5024,
    "ebad": 5025,
    "rand": 5026,
    "fdc48": 5027,
    "rwlock": 5028,
    "\u25810x74d0": 5029,
    "\u25810xffd1": 5030,
    "\u25810x430db0": 5031,
    "\u25810x44f850": 5032,
    "\u25810x44f868": 5033,
    "\u25810x44f880": 5034,
    "\u25810x44f898": 5035,
    "\u25810x44f8b0": 5036,
    "\u25810x44f8f8": 5037,
    "\u25810x44f940": 5038,
    "\u25810x44f958": 5039,
    "\u25810x44f970": 5040,
    "\u25810x44f988": 5041,
    "\u25810xfeee00a9": 5042,
    "\u2581initializesrwlock": 5043,
    "b91": 5044,
    "81eb": 5045,
    "atch": 5046,
    "f8d1": 5047,
    "\u2581unmap": 5048,
    "connect": 5049,
    "\u25810x7eac": 5050,
    "\u25810x7ec4": 5051,
    "\u25810x7ec5": 5052,
    "\u2581command": 5053,
    "\u25810x42168c": 5054,
    "\u25810x1211f6c": 5055,
    "\u2581unmapviewoffile": 5056,
    "609": 5057,
    "658": 5058,
    "e93": 5059,
    "\u25810x4b6": 5060,
    "\u25810xffae": 5061,
    "\u25810x4c100": 5062,
    "\u25810x41e93e": 5063,
    "\u25810x41ebfa": 5064,
    "\u25810x41ebfb": 5065,
    "\u25810x42168b": 5066,
    "\u25810x47ee50": 5067,
    "\u25810x566f18": 5068,
    "\u25810x121192f": 5069,
    "38f": 5070,
    "615": 5071,
    "b66": 5072,
    "c06": 5073,
    "\u2581la": 5074,
    "208d": 5075,
    "965b": 5076,
    "98c0": 5077,
    "dfdc": 5078,
    "\u25810xca": 5079,
    "\u25810x3cc": 5080,
    "\u25810x43a": 5081,
    "3727170": 5082,
    "\u25810x6766": 5083,
    "\u25810x1210eb0": 5084,
    "\u25810x73727170": 5085,
    "\u2581getsystemdefault": 5086,
    "2c1": 5087,
    "755": 5088,
    "d45": 5089,
    "3526": 5090,
    "96d8": 5091,
    "d03f": 5092,
    "beloc": 5093,
    "\u25810xea": 5094,
    "\u25810x475": 5095,
    "f7e7d7c": 5096,
    "\u25810x7e88": 5097,
    "belocated": 5098,
    "\u25810x43a4b0": 5099,
    "\u25810x441806": 5100,
    "\u25810x441808": 5101,
    "\u25810x44180a": 5102,
    "\u25810x1211bfc": 5103,
    "\u25810x1211cfc": 5104,
    "\u25810x7f7e7d7c": 5105,
    "\u25810xfeee00aa": 5106,
    "40e": 5107,
    "f2a": 5108,
    "f5c": 5109,
    "90e4": 5110,
    "38358": 5111,
    "anden": 5112,
    "\u25810x28c": 5113,
    "3626160": 5114,
    "\u25810x4b20": 5115,
    "\u25810x7dac": 5116,
    "\u25810x7dad": 5117,
    "\u25810x422980": 5118,
    "\u2581deleteob": 5119,
    "\u25810x63626160": 5120,
    "\u25810x67666564": 5121,
    "\u25810xfeee00ab": 5122,
    "\u25810xfeee00ae": 5123,
    "\u2581getfullnamea": 5124,
    "ig": 5125,
    "701": 5126,
    "a088": 5127,
    "eb80": 5128,
    "artup": 5129,
    "\u25810xec": 5130,
    "\u25810x41b8": 5131,
    "\u25810x4555": 5132,
    "\u25810x181c10": 5133,
    "\u25810x4228e1": 5134,
    "\u25810x423cf0": 5135,
    "\u25810x44180c": 5136,
    "\u2581lstrcmpw": 5137,
    "\u25810xfeee00ac": 5138,
    "\u2581wakeconditionvariable": 5139,
    "9e0": 5140,
    "c0b": 5141,
    "b6a6": 5142,
    "\u2581sub": 5143,
    "fa000": 5144,
    "\u25810xf2": 5145,
    "\u25810xf3": 5146,
    "\u25810x4420": 5147,
    "\u2581program": 5148,
    "\u25810x42286e": 5149,
    "\u25810x42286f": 5150,
    "\u25810x4228e2": 5151,
    "\u25810x422963": 5152,
    "\u25810x422964": 5153,
    "\u25810x42297f": 5154,
    "\u25810x4229c1": 5155,
    "\u25810x4229c2": 5156,
    "\u25810x4229fa": 5157,
    "\u25810x4229fb": 5158,
    "\u25810x422a0d": 5159,
    "\u25810x422a0e": 5160,
    "\u25810x42329e": 5161,
    "\u25810x42329f": 5162,
    "\u25810x4233fc": 5163,
    "\u25810x423cef": 5164,
    "\u25810x4e39b4": 5165,
    "\u2581expanden": 5166,
    "\u25810x1211788": 5167,
    "\u2581setscroll": 5168,
    "\u25810xfeee00ad": 5169,
    "6e8": 5170,
    "b6a6968": 5171,
    "\u25810x7e74": 5172,
    "\u25810x7e75": 5173,
    "\u2581submit": 5174,
    "\u25810x181be8": 5175,
    "\u25810x6b6a6968": 5176,
    "\u2581submitthread": 5177,
    "\u2581closethreadpoolwork": 5178,
    "\u2581createthreadpoolwork": 5179,
    "\u2581submitthreadpoolwork": 5180,
    "\u2581setfileinformationbyhandle": 5181,
    "5c6": 5182,
    "794": 5183,
    "986": 5184,
    "ad5": 5185,
    "\u2581tryac": 5186,
    "\u25810x4a60": 5187,
    "\u25810xcccc": 5188,
    "\u25810x429903": 5189,
    "\u25810x44180e": 5190,
    "\u25810x54a4c4": 5191,
    "\u25810x77000723": 5192,
    "\u2581freeresource": 5193,
    "\u2581tryacquiresrwlockexclusive": 5194,
    "5ac": 5195,
    "845a": 5196,
    "fc50": 5197,
    "a120b": 5198,
    "\u25810x22c": 5199,
    "\u25810x48c0": 5200,
    "atethread": 5201,
    "\u25810x181c38": 5202,
    "\u25810x429902": 5203,
    "\u25810x42990c": 5204,
    "\u25810x42990d": 5205,
    "\u25810x429920": 5206,
    "\u25810x429921": 5207,
    "\u25810x441810": 5208,
    "\u25810x441812": 5209,
    "\u25810x441814": 5210,
    "\u25810x441816": 5211,
    "\u25810x1210d90": 5212,
    "\u25810x1210e2c": 5213,
    "\u25810x1210f8c": 5214,
    "\u25810x1211ba4": 5215,
    "133": 5216,
    "7f6": 5217,
    "84c": 5218,
    "d77": 5219,
    "b028": 5220,
    "de23": 5221,
    "eab8": 5222,
    "\u25810x4880": 5223,
    "\u25810x7e78": 5224,
    "\u25810x40300": 5225,
    "\u25810x42992a": 5226,
    "\u25810x42992b": 5227,
    "\u25810x1210e20": 5228,
    "\u25810x121189c": 5229,
    "\u2581coinitialize": 5230,
    "\u258150": 5231,
    "ed24": 5232,
    "\u25810x4336": 5233,
    "\u25810x7dc8": 5234,
    "\u25810x7e79": 5235,
    "\u25810xfeee01c": 5236,
    "307": 5237,
    "78a2": 5238,
    "e022": 5239,
    "e2a4": 5240,
    "\u25810xd4": 5241,
    "\u25810xef": 5242,
    "\u25810x164": 5243,
    "\u25810x441818": 5244,
    "\u25810x1211d14": 5245,
    "\u25810x1211f38": 5246,
    "l6660drl6660drl6660drl6660drl6660drl6660drl6660drl6660drl6660": 5247,
    "ab4": 5248,
    "b74": 5249,
    "bc40": 5250,
    "febc": 5251,
    "e6d6c": 5252,
    "place": 5253,
    "\u25810xc2": 5254,
    "\u25810xda": 5255,
    "\u25810xfe": 5256,
    "\u25810x428": 5257,
    "\u25810x4e80": 5258,
    "\u25810xffaf": 5259,
    "\u25810x6f6e6d6c": 5260,
    "375": 5261,
    "7a8": 5262,
    "a36": 5263,
    "aa2": 5264,
    "adc0": 5265,
    "f047": 5266,
    "imag": 5267,
    "endar": 5268,
    "erect": 5269,
    "sourc": 5270,
    "\u25810x49d0": 5271,
    "\u25810x7c40": 5272,
    "\u25810xffd9": 5273,
    "calendar": 5274,
    "\u25810x1211fb0": 5275,
    "353": 5276,
    "849": 5277,
    "bd2": 5278,
    "f6c": 5279,
    "\u25810x4226": 5280,
    "\u25810x411c10": 5281,
    "\u25810x44181a": 5282,
    "\u25810x44181c": 5283,
    "\u25810x44181e": 5284,
    "\u25810x44d250": 5285,
    "\u25810x1210f80": 5286,
    "\u2581globalrealloc": 5287,
    "172": 5288,
    "ba7": 5289,
    "c0c": 5290,
    "eb6": 5291,
    "\u2581class": 5292,
    "\u25810x40aa": 5293,
    "\u25810x71a0": 5294,
    "\u25810x7e7c": 5295,
    "\u25810x7e7d": 5296,
    "\u2581calloc": 5297,
    "\u25810x20009": 5298,
    "6c2": 5299,
    "ded": 5300,
    "b820": 5301,
    "d96c": 5302,
    "d3f00": 5303,
    "lorer": 5304,
    "\u25810x4551": 5305,
    "\u25810x545678": 5306,
    "\u25810x1210ed8": 5307,
    "\u25810x1210fe0": 5308,
    "\u25810x5265c28": 5309,
    "345": 5310,
    "389": 5311,
    "52e": 5312,
    "e14": 5313,
    "fdb": 5314,
    "3843": 5315,
    "\u25810xb6": 5316,
    "\u25810xd6": 5317,
    "ompati": 5318,
    "\u25810x22e": 5319,
    "\u25810x120de": 5320,
    "\u2581writeconsolew": 5321,
    "165": 5322,
    "f0b": 5323,
    "faa": 5324,
    "16a6": 5325,
    "3c90": 5326,
    "60e4": 5327,
    "\u25810x2b2": 5328,
    "\u25810x770": 5329,
    "\u25810x40af": 5330,
    "\u25810xfeee00af": 5331,
    "\u2581getcursorpos": 5332,
    "154": 5333,
    "283": 5334,
    "af1": 5335,
    "d63": 5336,
    "de2": 5337,
    "24c7": 5338,
    "6c3c": 5339,
    "b7f8": 5340,
    "bd10": 5341,
    "f606": 5342,
    "lang": 5343,
    "\u25810xb5": 5344,
    "\u25810xd1": 5345,
    "\u25810xe1": 5346,
    "\u25810x226": 5347,
    "\u25810x990": 5348,
    "\u25810x4235": 5349,
    "\u25810xffc2": 5350,
    "\u2581riched20": 5351,
    "\u25810xfeee00b0": 5352,
    "\u2581getexitcode": 5353,
    "\u2581getmessagew": 5354,
    "\u2581heapdestroy": 5355,
    "507": 5356,
    "ec3": 5357,
    "f34": 5358,
    "a57b": 5359,
    "b594": 5360,
    "d8c8": 5361,
    "ec80": 5362,
    "\u25810xffdd": 5363,
    "\u25810x1211e5c": 5364,
    "\u25810xfeee00b1": 5365,
    "448": 5366,
    "914": 5367,
    "96e": 5368,
    "108a": 5369,
    "35000": 5370,
    "\u25810xfd": 5371,
    "\u25810x3f6": 5372,
    "\u25810x4a30": 5373,
    "ompatible": 5374,
    "\u25810x421030": 5375,
    "\u25810x7eabc0": 5376,
    "\u25810x12116fc": 5377,
    "\u2581regopenkeya": 5378,
    "105": 5379,
    "a86": 5380,
    "9380": 5381,
    "langid": 5382,
    "\u25810x150": 5383,
    "\u25810x7070": 5384,
    "\u25810x97a0": 5385,
    "\u25810x52663": 5386,
    "\u2581environ": 5387,
    "\u25810x1211e74": 5388,
    "\u2581getexitcodeprocess": 5389,
    "40a": 5390,
    "e1c": 5391,
    "ioc": 5392,
    "led": 5393,
    "3cd8": 5394,
    "5560": 5395,
    "e446": 5396,
    "\u25810x7ef0": 5397,
    "\u25810x58000": 5398,
    "4b0": 5399,
    "a1a": 5400,
    "d32": 5401,
    "move": 5402,
    "f9000": 5403,
    "\u25810xd5": 5404,
    "\u25810x210": 5405,
    "\u25810x5b5": 5406,
    "\u25810x40f0": 5407,
    "\u25810x7620": 5408,
    "\u25810x7dc0": 5409,
    "\u25810x7e89": 5410,
    "\u2581getfullnamew": 5411,
    "\u2581terminatethread": 5412,
    "287": 5413,
    "334": 5414,
    "3ac": 5415,
    "555": 5416,
    "8c4": 5417,
    "f53": 5418,
    "f71": 5419,
    "84d8": 5420,
    "ce11": 5421,
    "\u2581ext": 5422,
    "91000": 5423,
    "\u25810xfa": 5424,
    "\u25810x130": 5425,
    "\u25810x42e9": 5426,
    "\u25810x9810": 5427,
    "\u25810x120f5": 5428,
    "deleteatom": 5429,
    "\u2581globaldeleteatom": 5430,
    "sb": 5431,
    "2c6": 5432,
    "33e": 5433,
    "fca": 5434,
    "d387": 5435,
    "f7b6": 5436,
    "param": 5437,
    "\u25810xfb": 5438,
    "\u25810x7cb0": 5439,
    "\u25810x12114bc": 5440,
    "\u2581localrealloc": 5441,
    "\u2581setfileinformationbyhandlew": 5442,
    "\u2581getfileinformationbyhandleexw": 5443,
    "1a4": 5444,
    "540": 5445,
    "772": 5446,
    "882": 5447,
    "a98": 5448,
    "ba9": 5449,
    "ffcb": 5450,
    "idto": 5451,
    "\u25810x474": 5452,
    "\u2581regenumkey": 5453,
    "7c2": 5454,
    "e75": 5455,
    "f97": 5456,
    "fcd": 5457,
    "b4f9": 5458,
    "esid": 5459,
    "ultip": 5460,
    "upper": 5461,
    "dialog": 5462,
    "formultip": 5463,
    "\u25810x100220": 5464,
    "\u25810x4093a4": 5465,
    "\u25810x4093ac": 5466,
    "\u25810x44c280": 5467,
    "\u25810x44d500": 5468,
    "\u25810x566b14": 5469,
    "\u25810x593748": 5470,
    "\u2581allocate": 5471,
    "\u25810x1211960": 5472,
    "\u25810xfeee00b3": 5473,
    "\u25810xfeee00b4": 5474,
    "andinitializ": 5475,
    "\u2581getmenuinfo": 5476,
    "andinitializesid": 5477,
    "\u2581allocateandinitializesid": 5478,
    "245": 5479,
    "790": 5480,
    "d65": 5481,
    "ecd": 5482,
    "edf": 5483,
    "f22": 5484,
    "1848": 5485,
    "d91c": 5486,
    "named": 5487,
    "\u25810xc6": 5488,
    "\u25810x488": 5489,
    "\u25810x4370": 5490,
    "\u25810x7320": 5491,
    "\u25810x23534": 5492,
    "\u25810xfeee00b2": 5493,
    "formultipleob": 5494,
    "\u2581getlogicaldrivestringsa": 5495,
    "00d": 5496,
    "1d1": 5497,
    "9fb0": 5498,
    "bc97": 5499,
    "\u2581scr": 5500,
    "latsb": 5501,
    "\u25810xc5": 5502,
    "\u25810xff90": 5503,
    "\u25810x50e10": 5504,
    "\u25810x1211954": 5505,
    "5cb": 5506,
    "96b": 5507,
    "\u2581op": 5508,
    "28de": 5509,
    "bc20": 5510,
    "382d9": 5511,
    "\u25810x4450": 5512,
    "\u25810x4470": 5513,
    "9fd": 5514,
    "acl": 5515,
    "dfb": 5516,
    "6418": 5517,
    "9222": 5518,
    "e600": 5519,
    "a440b": 5520,
    "\u25810xcb": 5521,
    "\u25810xce": 5522,
    "\u2581srand": 5523,
    "\u25810x40a4": 5524,
    "\u25810x40c98c": 5525,
    "\u25810x120faa8": 5526,
    "\u25810x1210d1b": 5527,
    "\u25810x1210f60": 5528,
    "\u25810xfeee00b5": 5529,
    "aaaaaaaaaaaaaaaa": 5530,
    "923": 5531,
    "e3e": 5532,
    "eff": 5533,
    "a2f8": 5534,
    "b4ad": 5535,
    "croll": 5536,
    "\u25810xbf": 5537,
    "\u25810x1e4": 5538,
    "\u25810x42a": 5539,
    "\u2581getscroll": 5540,
    "\u2581gettempfilenamea": 5541,
    "55c": 5542,
    "9de": 5543,
    "bdb": 5544,
    "e03": 5545,
    "ef8": 5546,
    "textw": 5547,
    "\u25810x427": 5548,
    "\u25810x577": 5549,
    "\u2581readc": 5550,
    "\u25810x3820": 5551,
    "\u25810x9030": 5552,
    "88a": 5553,
    "a89": 5554,
    "205c": 5555,
    "2409": 5556,
    "31c0": 5557,
    "3f20": 5558,
    "bccc": 5559,
    "f55e": 5560,
    "prop": 5561,
    "\u25810x47f": 5562,
    "\u25810x3f20": 5563,
    "\u25810x7c16": 5564,
    "\u25810x410770": 5565,
    "\u25810x41de48": 5566,
    "\u25810x43a480": 5567,
    "\u25810x53e4a0": 5568,
    "\u25810x1211f08": 5569,
    "\u25810x2357bc0": 5570,
    "3c1": 5571,
    "f03": 5572,
    "30c4": 5573,
    "5075": 5574,
    "b068": 5575,
    "b374": 5576,
    "e5c0": 5577,
    "\u2581cpp": 5578,
    "fileex": 5579,
    "\u25810x47ab": 5580,
    "\u25810x7b60": 5581,
    "\u25810x60000": 5582,
    "debughook": 5583,
    "\u25810x7ee001": 5584,
    "\u25810x7ee002": 5585,
    "\u25810x7ee003": 5586,
    "\u25810x7ee004": 5587,
    "\u25810x7ee005": 5588,
    "\u25810x7ee006": 5589,
    "\u25810x7ee007": 5590,
    "\u25810x7ee008": 5591,
    "\u25810x7ee009": 5592,
    "\u25810x7ee00a": 5593,
    "\u25810x7ee00b": 5594,
    "\u25810x7ee00c": 5595,
    "\u25810x7ee00d": 5596,
    "\u25810x7ee00e": 5597,
    "\u25810x7ee00f": 5598,
    "\u25810x7ee010": 5599,
    "\u25810x7ee011": 5600,
    "\u25810x7ee012": 5601,
    "\u25810x7ee013": 5602,
    "\u25810x7ee014": 5603,
    "\u25810x7ee015": 5604,
    "\u25810x7ee016": 5605,
    "\u25810x7ee017": 5606,
    "\u25810x7ee018": 5607,
    "\u25810x7ee019": 5608,
    "\u25810x1211118": 5609,
    "\u2581cppdebughook": 5610,
    "\u2581formatmessagew": 5611,
    "187": 5612,
    "1de": 5613,
    "957": 5614,
    "9eb": 5615,
    "a67": 5616,
    "aa4": 5617,
    "ed6": 5618,
    "f96": 5619,
    "384c": 5620,
    "84ee": 5621,
    "93a8": 5622,
    "a9c0": 5623,
    "b6b0": 5624,
    "9d000": 5625,
    "\u25810xdd": 5626,
    "\u25810x2f2": 5627,
    "\u25810x4a70": 5628,
    "\u25810x7020": 5629,
    "\u25810x8f20": 5630,
    "\u25810x90f0": 5631,
    "\u2581explorer": 5632,
    "\u25810x1211f68": 5633,
    "b73": 5634,
    "e61": 5635,
    "f3f": 5636,
    "939c": 5637,
    "9cf6": 5638,
    "font": 5639,
    "\u25810xd9": 5640,
    "\u25810x1b2": 5641,
    "stringlen": 5642,
    "\u25810x42c070": 5643,
    "\u25810x42c0a8": 5644,
    "fromstream": 5645,
    "\u25810x1210f84": 5646,
    "\u25810x1211e94": 5647,
    "\u25810xfeee00b7": 5648,
    "\u2581applicationerror": 5649,
    "125": 5650,
    "202": 5651,
    "306": 5652,
    "971": 5653,
    "aad": 5654,
    "cod": 5655,
    "506c": 5656,
    "a6b4": 5657,
    "dddc": 5658,
    "f538": 5659,
    "itor": 5660,
    "\u2581comm": 5661,
    "\u25810x71c0": 5662,
    "\u25810x7db1": 5663,
    "\u25810x7f10": 5664,
    "\u2581createc": 5665,
    "ofiletime": 5666,
    "\u25810x1211e38": 5667,
    "\u25810xfeee00b8": 5668,
    "\u2581findwindowa": 5669,
    "\u2581systemtimetofiletime": 5670,
    "168": 5671,
    "f83": 5672,
    "fc20": 5673,
    "lipr": 5674,
    "34502": 5675,
    "dc1b4": 5676,
    "\u25810xbd": 5677,
    "\u2581begin": 5678,
    "\u25810x120ff": 5679,
    "\u2581classes": 5680,
    "\u25810xfeee00b6": 5681,
    "\u2581mapvirtual": 5682,
    "965": 5683,
    "b37": 5684,
    "d4d": 5685,
    "8110": 5686,
    "d22c": 5687,
    "\u25810xbb": 5688,
    "\u25810x4368": 5689,
    "\u25810x70e0": 5690,
    "44444444": 5691,
    "\u25810x40a3f0": 5692,
    "\u25810x447f4c": 5693,
    "\u25810xfeee00b9": 5694,
    "bf5": 5695,
    "d22": 5696,
    "f50": 5697,
    "f51": 5698,
    "f9e": 5699,
    "da34": 5700,
    "fe70": 5701,
    "1e000": 5702,
    "40284": 5703,
    "\u25810x5a1": 5704,
    "\u25810x40d9": 5705,
    "\u25810x4093d1": 5706,
    "\u25810x4093d2": 5707,
    "\u25810x4093d3": 5708,
    "\u25810x40a3d0": 5709,
    "\u25810x1210f88": 5710,
    "\u25810x2840284": 5711,
    "d82": 5712,
    "df1": 5713,
    "f64": 5714,
    "5118": 5715,
    "66aa": 5716,
    "e445": 5717,
    "etch": 5718,
    "\u25810xed": 5719,
    "\u25810xf7": 5720,
    "\u25810x4374": 5721,
    "codethread": 5722,
    "\u25810x1211f58": 5723,
    "\u25810xfeee00bb": 5724,
    "\u2581getexitcodethread": 5725,
    "142": 5726,
    "510": 5727,
    "924": 5728,
    "97c": 5729,
    "adm": 5730,
    "28ac": 5731,
    "bd64": 5732,
    "\u25810x20a": 5733,
    "\u25810x444": 5734,
    "\u25810x1211eb0": 5735,
    "\u2581getuserdefaultuilanguage": 5736,
    "77f": 5737,
    "f54": 5738,
    "ffa0": 5739,
    "\u25810xf9": 5740,
    "\u25810xbca": 5741,
    "\u25810x120f8": 5742,
    "\u25810x1210f20": 5743,
    "ax": 5744,
    "b01": 5745,
    "b3c": 5746,
    "uta": 5747,
    "17e8": 5748,
    "b474": 5749,
    "accel": 5750,
    "context": 5751,
    "\u25810x7e85": 5752,
    "\u25810x85d0": 5753,
    "\u25810xff91": 5754,
    "writeptr": 5755,
    "\u25810x1210e80": 5756,
    "\u25810x1210f28": 5757,
    "\u2581isbadwriteptr": 5758,
    "\u2581regqueryvalueexw": 5759,
    "fd6": 5760,
    "tan": 5761,
    "3c70": 5762,
    "5150": 5763,
    "a844": 5764,
    "e860": 5765,
    "e8ce": 5766,
    "lear": 5767,
    "\u25810xe9": 5768,
    "\u25810x3810": 5769,
    "\u25810x7e84": 5770,
    "\u25810xf003f": 5771,
    "\u25810x42ff40": 5772,
    "\u25810xfeee00ba": 5773,
    "\u2581createcompatible": 5774,
    "1b2": 5775,
    "91a": 5776,
    "6c40": 5777,
    "7b50": 5778,
    "9498": 5779,
    "de7f": 5780,
    "e8c1": 5781,
    "\u25810xee": 5782,
    "\u25810x9010": 5783,
    "247": 5784,
    "576": 5785,
    "bd0": 5786,
    "ore": 5787,
    "\u2581rb": 5788,
    "\u25810xffc3": 5789,
    "\u25810x442808": 5790,
    "\u25810x1210ebc": 5791,
    "memorystatus": 5792,
    "\u2581globaladdatoma": 5793,
    "\u2581globalmemorystatus": 5794,
    "7ff": 5795,
    "dlg32": 5796,
    "fileexw": 5797,
    "\u25810x120e": 5798,
    "\u25810x412d": 5799,
    "\u25810x4c42": 5800,
    "\u25810x7db4": 5801,
    "\u25810x7db5": 5802,
    "\u25810xd000": 5803,
    "\u25810x41f738": 5804,
    "\u25810x442806": 5805,
    "\u25810x44280a": 5806,
    "\u25810x44280c": 5807,
    "\u25810x44280e": 5808,
    "\u25810x442810": 5809,
    "\u25810x442812": 5810,
    "\u25810x442814": 5811,
    "\u25810x442816": 5812,
    "\u25810x442818": 5813,
    "\u25810x44281a": 5814,
    "\u25810x44281c": 5815,
    "\u25810x44281e": 5816,
    "\u25810x4df006": 5817,
    "\u25810x4df008": 5818,
    "\u25810x4df00a": 5819,
    "\u25810x4df00c": 5820,
    "\u25810x4df00e": 5821,
    "\u25810x4df010": 5822,
    "\u25810x4df012": 5823,
    "\u25810x4df014": 5824,
    "\u25810x4df016": 5825,
    "\u25810xfeee00be": 5826,
    "\u2581getdateformatw": 5827,
    "\u2581removedirectoryw": 5828,
    "0007": 5829,
    "16e7": 5830,
    "341f": 5831,
    "3844": 5832,
    "7168": 5833,
    "7ef1": 5834,
    "aaf6": 5835,
    "d108": 5836,
    "d4b0": 5837,
    "dbc0": 5838,
    "e8f8": 5839,
    "92000": 5840,
    "eentry": 5841,
    "\u25810x358": 5842,
    "\u25810x3ac": 5843,
    "\u25810x7a40": 5844,
    "\u25810x1210e60": 5845,
    "\u25810xfeee00bd": 5846,
    "18c": 5847,
    "846": 5848,
    "e3f": 5849,
    "eaa": 5850,
    "0066": 5851,
    "184d": 5852,
    "ting": 5853,
    "\u25810xc1": 5854,
    "\u25810xf6": 5855,
    "\u25810xffd6": 5856,
    "\u2581comdlg32": 5857,
    "\u25810x1211d44": 5858,
    "517": 5859,
    "752": 5860,
    "9b8": 5861,
    "ee3": 5862,
    "1734": 5863,
    "18ff": 5864,
    "84f2": 5865,
    "904c": 5866,
    "9eac": 5867,
    "atal": 5868,
    "f8d0": 5869,
    "79000": 5870,
    "emutex": 5871,
    "\u25810x504": 5872,
    "\u25810x452b": 5873,
    "\u25810x4ec0": 5874,
    "\u25810x6500": 5875,
    "\u25810x75b0": 5876,
    "\u25810x7770": 5877,
    "\u2581enable": 5878,
    "\u25810x4df018": 5879,
    "\u25810x1210ecc": 5880,
    "\u25810x1210f98": 5881,
    "\u2581setcurrentdirectoryw": 5882,
    "2ec": 5883,
    "6aa": 5884,
    "beb": 5885,
    "28e6": 5886,
    "52e8": 5887,
    "59bc": 5888,
    "b1d0": 5889,
    "b3f0": 5890,
    "e4c0": 5891,
    "10060": 5892,
    "flush": 5893,
    "\u25810x3f24": 5894,
    "\u25810x4ee0": 5895,
    "\u25810x7310": 5896,
    "privilege": 5897,
    "\u25810x1210e00": 5898,
    "\u25810x1210f94": 5899,
    "5d6": 5900,
    "7ce": 5901,
    "a0e": 5902,
    "fa3": 5903,
    "5614": 5904,
    "93dc": 5905,
    "b3f8": 5906,
    "cc58": 5907,
    "30062": 5908,
    "\u25810xb9": 5909,
    "\u2581disp": 5910,
    "\u2581fatal": 5911,
    "semutex": 5912,
    "\u25810x5026c": 5913,
    "\u25810x630062": 5914,
    "\u25810x650064": 5915,
    "\u25810x670066": 5916,
    "\u25810x1210f40": 5917,
    "\u25810xfeee00bf": 5918,
    "versioninfow": 5919,
    "\u2581releasemutex": 5920,
    "\u2581gettempfilenamew": 5921,
    "\u2581setthreadpreferreduilanguages": 5922,
    "a74": 5923,
    "e1d": 5924,
    "izn": 5925,
    "w32": 5926,
    "10a4": 5927,
    "51d1": 5928,
    "\u25810xc9": 5929,
    "iznadm": 5930,
    "uncher": 5931,
    "\u25810x496": 5932,
    "\u2581trans": 5933,
    "\u25810x18cc": 5934,
    "\u25810x4c00": 5935,
    "\u25810x7ec8": 5936,
    "\u25810x7ec9": 5937,
    "\u25810x4cf00": 5938,
    "\u25810x40a92c": 5939,
    "\u25810x40a93c": 5940,
    "\u25810x40f688": 5941,
    "\u25810x419638": 5942,
    "\u25810x484003": 5943,
    "\u25810x484004": 5944,
    "\u25810x484005": 5945,
    "\u25810x484006": 5946,
    "\u25810x484007": 5947,
    "\u25810x484008": 5948,
    "\u25810x484009": 5949,
    "\u25810x48400a": 5950,
    "\u25810x48400b": 5951,
    "\u25810x48400c": 5952,
    "\u25810x48400d": 5953,
    "\u25810x48400e": 5954,
    "\u25810x48400f": 5955,
    "\u25810x4df01a": 5956,
    "\u25810x4df01c": 5957,
    "\u25810x4df01e": 5958,
    "\u25810x610060": 5959,
    "\u2581triznadm": 5960,
    "\u25810x1210ef0": 5961,
    "\u25810x1211b84": 5962,
    "\u25810x100fdd70": 5963,
    "\u25810xfeee00c0": 5964,
    "2d8": 5965,
    "aa6": 5966,
    "6446": 5967,
    "inki": 5968,
    "\u2581lib": 5969,
    "\u25810x4089": 5970,
    "\u2581replace": 5971,
    "\u25810x47b158": 5972,
    "\u25810x1211d24": 5973,
    "\u25810xfeee00c1": 5974,
    "\u25810xfeee00c2": 5975,
    "\u25810xfeee00c3": 5976,
    "\u2581globalfind": 5977,
    "556": 5978,
    "716": 5979,
    "9e2": 5980,
    "b7e": 5981,
    "\u2581he": 5982,
    "37e2": 5983,
    "53b0": 5984,
    "6872": 5985,
    "b082": 5986,
    "cc3d": 5987,
    "\u25810x1104": 5988,
    "\u25810x4445": 5989,
    "\u2581launcher": 5990,
    "\u25810x1210e50": 5991,
    "\u25810x1211e00": 5992,
    "\u2581getsystemtimes": 5993,
    "3d6": 5994,
    "76e": 5995,
    "e1e": 5996,
    "\u258120": 5997,
    "0036": 5998,
    "9cad": 5999,
    "a7e6": 6000,
    "d58c": 6001,
    "entr": 6002,
    "f6fc": 6003,
    "\u25810x415e": 6004,
    "\u25810x4483": 6005,
    "\u25810x7380": 6006,
    "\u25810x7c70": 6007,
    "\u2581dispatch": 6008,
    "\u25810x1210e28": 6009,
    "\u25810x1210f54": 6010,
    "\u25810x1210f90": 6011,
    "3f6": 6012,
    "797": 6013,
    "b75": 6014,
    "e9a": 6015,
    "f7c": 6016,
    "ify": 6017,
    "3230": 6018,
    "35ce": 6019,
    "78d0": 6020,
    "acti": 6021,
    "c055": 6022,
    "f060": 6023,
    "rchr": 6024,
    "d04df": 6025,
    "\u25810x1f1": 6026,
    "\u25810x4122": 6027,
    "indirect": 6028,
    "\u25810x436408": 6029,
    "\u25810x1210f10": 6030,
    "\u25810x1211684": 6031,
    "\u25810xfeee00c4": 6032,
    "2b0": 6033,
    "3c5": 6034,
    "8c7": 6035,
    "e90": 6036,
    "\u2581sn": 6037,
    "5432": 6038,
    "69bc": 6039,
    "945e": 6040,
    "99b9": 6041,
    "bd58": 6042,
    "f638": 6043,
    "ture": 6044,
    "\u25814d5": 6045,
    "\u25810xf5": 6046,
    "\u25810xecc": 6047,
    "\u25810x40d6": 6048,
    "\u25810x42ad": 6049,
    "usttoken": 6050,
    "\u2581msvcr100": 6051,
    "\u25810x1210f34": 6052,
    "\u25810x3010301": 6053,
    "\u25810xfeee00d7": 6054,
    "194": 6055,
    "379": 6056,
    "996": 6057,
    "e35": 6058,
    "ff2": 6059,
    "2625": 6060,
    "2c2c": 6061,
    "5c68": 6062,
    "8143": 6063,
    "98e7": 6064,
    "9e28": 6065,
    "a8d8": 6066,
    "a9a8": 6067,
    "e442": 6068,
    "fd000": 6069,
    "\u25810x1b1": 6070,
    "\u25810xc74": 6071,
    "\u25810x40d7": 6072,
    "\u25810x7b98": 6073,
    "\u25810x99d0": 6074,
    "\u2581verify": 6075,
    "\u25810x436403": 6076,
    "\u25810x436404": 6077,
    "\u25810x436405": 6078,
    "\u25810x436406": 6079,
    "\u25810x436407": 6080,
    "\u25810x436409": 6081,
    "\u25810x43640a": 6082,
    "\u25810x43640b": 6083,
    "\u25810x43640c": 6084,
    "\u25810x43640d": 6085,
    "\u25810x43640e": 6086,
    "\u25810x43640f": 6087,
    "privileges": 6088,
    "\u2581processidto": 6089,
    "\u2581registerclassexw": 6090,
    "usttokenprivileges": 6091,
    "\u2581processidtosessionid": 6092,
    "362": 6093,
    "365": 6094,
    "5a6": 6095,
    "769": 6096,
    "a3f": 6097,
    "23cc": 6098,
    "9040": 6099,
    "a042": 6100,
    "a264": 6101,
    "eb28": 6102,
    "\u25810xe5": 6103,
    "\u25810x6e4": 6104,
    "\u25810xa6c": 6105,
    "\u25810x42b4": 6106,
    "\u25810x44ed": 6107,
    "\u25810x5a45": 6108,
    "tivewindow": 6109,
    "757": 6110,
    "aa1": 6111,
    "5f6c": 6112,
    "6408": 6113,
    "7874": 6114,
    "7d24": 6115,
    "92d0": 6116,
    "acdb": 6117,
    "e5f4": 6118,
    "ff34": 6119,
    "ocus": 6120,
    "\u2581work": 6121,
    "\u25810x7db9": 6122,
    "\u25810x1211c14": 6123,
    "258": 6124,
    "785": 6125,
    "b20": 6126,
    "1787": 6127,
    "3268": 6128,
    "34b8": 6129,
    "a2a0": 6130,
    "ee00": 6131,
    "f795": 6132,
    "fa2c": 6133,
    "\u2581hels": 6134,
    "apture": 6135,
    "\u25810x7db8": 6136,
    "\u2581atexit": 6137,
    "\u25810x42b408": 6138,
    "\u25810x44ea08": 6139,
    "\u2581helsinki": 6140,
    "\u25810x1210ea0": 6141,
    "\u25810xfeee00c6": 6142,
    "pi": 6143,
    "803": 6144,
    "66ec": 6145,
    "9f7c": 6146,
    "ae40": 6147,
    "b850": 6148,
    "f884": 6149,
    "d49e4": 6150,
    "\u25810x23c": 6151,
    "\u25810x466": 6152,
    "\u25810x416b": 6153,
    "\u25810x8ae0": 6154,
    "\u25810x97b0": 6155,
    "\u2581getmenu": 6156,
    "\u25810x56b880": 6157,
    "\u2581selectob": 6158,
    "\u2581charupper": 6159,
    "\u25810xfeee00c5": 6160,
    "\u25810xfeee00c7": 6161,
    "b12": 6162,
    "lid": 6163,
    "\u2581ne": 6164,
    "13e8": 6165,
    "1f34": 6166,
    "2484": 6167,
    "3231": 6168,
    "3635": 6169,
    "505c": 6170,
    "68fe": 6171,
    "95b7": 6172,
    "a4de": 6173,
    "da93": 6174,
    "ddad": 6175,
    "e74d": 6176,
    "fcec": 6177,
    "hash": 6178,
    "95000": 6179,
    "\u25810x5ab": 6180,
    "\u25810x5ec": 6181,
    "\u25810x944": 6182,
    "\u25810x7e90": 6183,
    "\u25810x1210e27": 6184,
    "\u25810x1211d10": 6185,
    "\u25810xfeee00c8": 6186,
    "\u2581lookupprivilege": 6187,
    "198": 6188,
    "2c3": 6189,
    "10f0": 6190,
    "b71d": 6191,
    "d3a9": 6192,
    "d956": 6193,
    "ible": 6194,
    "\u2581fai": 6195,
    "7519e": 6196,
    "\u25810x40b1": 6197,
    "\u25810x40b6": 6198,
    "\u25810x7e8c": 6199,
    "\u2581failed": 6200,
    "\u25810x42b403": 6201,
    "\u25810x42b404": 6202,
    "\u25810x42b405": 6203,
    "\u25810x42b406": 6204,
    "\u25810x42b407": 6205,
    "\u25810x42b409": 6206,
    "\u25810x42b40a": 6207,
    "\u25810x42b40b": 6208,
    "\u25810x42b40c": 6209,
    "\u25810x42b40d": 6210,
    "\u25810x42b40e": 6211,
    "\u25810x42b40f": 6212,
    "\u25810x43a438": 6213,
    "\u25810x1211674": 6214,
    "357": 6215,
    "368": 6216,
    "951": 6217,
    "a43": 6218,
    "b72": 6219,
    "dc5": 6220,
    "349c": 6221,
    "5554": 6222,
    "7a50": 6223,
    "91e0": 6224,
    "9850": 6225,
    "a67c": 6226,
    "ec35": 6227,
    "\u25810xb04": 6228,
    "\u2581check": 6229,
    "\u25810x448b": 6230,
    "\u2581flatsb": 6231,
    "\u25810x1211dc4": 6232,
    "\u25810x1211e60": 6233,
    "\u25810x1211ebc": 6234,
    "\u2581registers": 6235,
    "2e2": 6236,
    "f91": 6237,
    "uld": 6238,
    "2ca4": 6239,
    "32bb": 6240,
    "70ce": 6241,
    "70e4": 6242,
    "72e7": 6243,
    "90d8": 6244,
    "a8df": 6245,
    "dd43": 6246,
    "f580": 6247,
    "e5d5c": 6248,
    "longa": 6249,
    "uldnot": 6250,
    "\u25810x144": 6251,
    "\u25810x42b": 6252,
    "\u25810xafc": 6253,
    "\u25810xe00": 6254,
    "\u25810x40e6": 6255,
    "\u25810x7e8d": 6256,
    "\u25810x8650": 6257,
    "\u25810x4b4a4": 6258,
    "\u25810x4093f1": 6259,
    "\u25810x4093f2": 6260,
    "\u25810x4093f3": 6261,
    "\u25810x40a3d8": 6262,
    "\u25810x416488": 6263,
    "\u25810x1210df0": 6264,
    "\u25810x1210e2f": 6265,
    "\u25810x1211884": 6266,
    "\u25810x5f5e5d5c": 6267,
    "\u2581peekmessagea": 6268,
    "\u2581charlowerbuff": 6269,
    "71f": 6270,
    "ce6": 6271,
    "d0d": 6272,
    "18a7": 6273,
    "2e60": 6274,
    "3238": 6275,
    "38ee": 6276,
    "a023": 6277,
    "a5f8": 6278,
    "d1d4": 6279,
    "f3e0": 6280,
    "imer": 6281,
    "a5958": 6282,
    "\u25810x6a0": 6283,
    "\u25810x4048": 6284,
    "\u25810x409f": 6285,
    "\u25810x5756": 6286,
    "\u25810x82c0": 6287,
    "\u25810x9820": 6288,
    "\u2581oleload": 6289,
    "\u25810x404180": 6290,
    "\u25810x404184": 6291,
    "\u25810x404190": 6292,
    "\u25810x416408": 6293,
    "\u25810x41645c": 6294,
    "\u25810x4786e0": 6295,
    "\u25810x121185c": 6296,
    "\u25810x5b5a5958": 6297,
    "\u25810xfeee00c9": 6298,
    "\u25810xfeee00ca": 6299,
    "\u25810xfeee00cb": 6300,
    "\u2581lcmapstringa": 6301,
    "ervicectrlhandler": 6302,
    "\u2581oleloadfromstream": 6303,
    "\u2581setthreadpriority": 6304,
    "\u2581registerservicectrlhandler": 6305,
    "179": 6306,
    "560": 6307,
    "2860": 6308,
    "2cf9": 6309,
    "385b": 6310,
    "3898": 6311,
    "3f16": 6312,
    "7140": 6313,
    "75a7": 6314,
    "9138": 6315,
    "9dfd": 6316,
    "e090": 6317,
    "e7f0": 6318,
    "fe20": 6319,
    "43518": 6320,
    "99000": 6321,
    "\u25810x3f7": 6322,
    "f4e4d4c": 6323,
    "\u25810x4139": 6324,
    "\u25810x7e91": 6325,
    "\u25810x7ed0": 6326,
    "\u25810x19000": 6327,
    "\u25810x404178": 6328,
    "\u25810x4076aa": 6329,
    "\u25810x4076ab": 6330,
    "\u25810x5b2bd0": 6331,
    "\u25810x1210e1b": 6332,
    "\u25810x4b4a4948": 6333,
    "\u25810x4f4e4d4c": 6334,
    "\u25810x57565554": 6335,
    "2f2": 6336,
    "2ec0": 6337,
    "69f8": 6338,
    "6fb4": 6339,
    "709c": 6340,
    "8c80": 6341,
    "91bd": 6342,
    "acd9": 6343,
    "ance": 6344,
    "bcb3": 6345,
    "db68": 6346,
    "eea1": 6347,
    "f9ef": 6348,
    "a1918": 6349,
    "e08e8": 6350,
    "focus": 6351,
    "inthe": 6352,
    "ea94a8": 6353,
    "\u25810x3b3": 6354,
    "\u2581opent": 6355,
    "\u25810x1211898": 6356,
    "\u2581openthread": 6357,
    "\u2581readconsolew": 6358,
    "003": 6359,
    "570": 6360,
    "93d": 6361,
    "c03": 6362,
    "f41": 6363,
    "fd0": 6364,
    "39cc": 6365,
    "3bd2": 6366,
    "3fb5": 6367,
    "5208": 6368,
    "569c": 6369,
    "6e7c": 6370,
    "8374": 6371,
    "b0ac": 6372,
    "b477": 6373,
    "b5cc": 6374,
    "f5e3": 6375,
    "f769": 6376,
    "938f3": 6377,
    "ef456": 6378,
    "\u25810x4ac": 6379,
    "\u25810x1900": 6380,
    "\u25810x408c": 6381,
    "\u25810x4f00": 6382,
    "\u25810x5352": 6383,
    "\u25810x8ad0": 6384,
    "\u25810x40000": 6385,
    "\u25810x43424": 6386,
    "\u2581geticon": 6387,
    "\u25810x1211cf0": 6388,
    "\u25810x1211db0": 6389,
    "\u25810x1211ea4": 6390,
    "belocatedinthe": 6391,
    "uldnotbelocatedinthe": 6392,
    "58c": 6393,
    "683": 6394,
    "9ac": 6395,
    "ade": 6396,
    "baa": 6397,
    "02ed": 6398,
    "1484": 6399,
    "35cc": 6400,
    "37ad": 6401,
    "3870": 6402,
    "5486": 6403,
    "63d7": 6404,
    "70c4": 6405,
    "7622": 6406,
    "9ca0": 6407,
    "a370": 6408,
    "d264": 6409,
    "dd91": 6410,
    "f228": 6411,
    "f331": 6412,
    "fbb0": 6413,
    "1e2f8": 6414,
    "20408": 6415,
    "35b00": 6416,
    "52316": 6417,
    "528e9": 6418,
    "74dac": 6419,
    "a9000": 6420,
    "ea7c7": 6421,
    "fe5b2": 6422,
    "\u25817z50": 6423,
    "\u25817z9a": 6424,
    "\u25817zda": 6425,
    "\u25817zff": 6426,
    "02eddc": 6427,
    "171f34": 6428,
    "1deda0": 6429,
    "2c2c67": 6430,
    "6cbea4": 6431,
    "7a503e": 6432,
    "7c5826": 6433,
    "\u25817z2e7": 6434,
    "\u25817z34c": 6435,
    "\u25817z74c": 6436,
    "\u25817z77f": 6437,
    "\u25817z8d0": 6438,
    "38c5920": 6439,
    "a11ff34": 6440,
    "d956130": 6441,
    "ec46c00": 6442,
    "f77eaac": 6443,
    "\u25810x7f02": 6444,
    "\u25810x8c60": 6445,
    "\u25817z2e60": 6446,
    "\u25817z3042": 6447,
    "\u25817z30be": 6448,
    "\u25817z6fb4": 6449,
    "35b001ac": 6450,
    "528e9d28": 6451,
    "ea7c7ee8": 6452,
    "ef456a04": 6453,
    "\u25817z6da26": 6454,
    "\u25817zfe5b2": 6455,
    "\u25817z02eddc": 6456,
    "\u25817z1deda0": 6457,
    "\u25817z2c2c67": 6458,
    "\u25817z72341f": 6459,
    "\u25817z72b71d": 6460,
    "\u25817z7a503e": 6461,
    "\u25817z7c5826": 6462,
    "\u25817z8938f3": 6463,
    "\u25817zda6cbe": 6464,
    "\u25817zffeb28": 6465,
    "\u25810x1210e1c": 6466,
    "\u25810x1211180": 6467,
    "\u25810x1211a4c": 6468,
    "\u25810x1211d48": 6469,
    "\u25810x43424140": 6470,
    "\u25817z2d956130": 6471,
    "\u25817z2e606e7c": 6472,
    "\u25817z35b001ac": 6473,
    "\u25817z50ea94a8": 6474,
    "\u25817z528e9d28": 6475,
    "\u25817z638c5920": 6476,
    "\u25817z6ec46c00": 6477,
    "\u25817z6fb469c0": 6478,
    "\u25817z72171f34": 6479,
    "\u25817z74c20408": 6480,
    "\u25817z77fe08e8": 6481,
    "\u25817z8d01e2f8": 6482,
    "\u25817z9a6cbea4": 6483,
    "\u25817zca11ff34": 6484,
    "\u25817zcf77eaac": 6485,
    "\u25817zea7c7ee8": 6486,
    "\u25817zef456a04": 6487,
    "\u2581mapvirtualkeyw": 6488,
    "dy": 6489,
    "641": 6490,
    "2041": 6491,
    "2498": 6492,
    "4b00": 6493,
    "5f64": 6494,
    "6caa": 6495,
    "974e": 6496,
    "bc48": 6497,
    "d4d8": 6498,
    "df40": 6499,
    "e0da": 6500,
    "e886": 6501,
    "ff42": 6502,
    "32728": 6503,
    "64544": 6504,
    "e1d1c": 6505,
    "e3d3c": 6506,
    "\u25810x248": 6507,
    "\u25810x518": 6508,
    "\u25810x4360": 6509,
    "\u25810x47ed": 6510,
    "\u25810x7428": 6511,
    "\u25810x24397": 6512,
    "\u25810x1210e24": 6513,
    "\u25810x1211cf4": 6514,
    "\u25810x3f3e3d3c": 6515,
    "\u25810x47464544": 6516,
    "rl6660dl6660d": 6517,
    "57a": 6518,
    "b6d": 6519,
    "ync": 6520,
    "3cee": 6521,
    "4e93": 6522,
    "5040": 6523,
    "6dd4": 6524,
    "8278": 6525,
    "9768": 6526,
    "ad26": 6527,
    "bcc7": 6528,
    "dccc": 6529,
    "e778": 6530,
    "efa2": 6531,
    "\u2581dac": 6532,
    "1c3a8": 6533,
    "2c8bd": 6534,
    "435e4": 6535,
    "68b2b": 6536,
    "773d7": 6537,
    "91124": 6538,
    "9c315": 6539,
    "9f931": 6540,
    "async": 6541,
    "d4c26": 6542,
    "13fcc8": 6543,
    "15f435": 6544,
    "385b5c": 6545,
    "4339cc": 6546,
    "51184c": 6547,
    "5610f0": 6548,
    "57b4f9": 6549,
    "73eac8": 6550,
    "74dac5": 6551,
    "79e860": 6552,
    "7d2465": 6553,
    "931ad0": 6554,
    "d49e46": 6555,
    "dd79dc": 6556,
    "e4c038": 6557,
    "f0604c": 6558,
    "f46bc6": 6559,
    "17e8278": 6560,
    "307f769": 6561,
    "75a7be8": 6562,
    "a008143": 6563,
    "a042439": 6564,
    "d48e5f4": 6565,
    "\u25810x412b": 6566,
    "\u25810x4484": 6567,
    "\u25810x7038": 6568,
    "\u25810x88b0": 6569,
    "00000000": 6570,
    "15e435e4": 6571,
    "32bbbd58": 6572,
    "773d7b5c": 6573,
    "79e86030": 6574,
    "92283f20": 6575,
    "9f931acc": 6576,
    "cf385b5c": 6577,
    "efa2db10": 6578,
    "\u25810x12113": 6579,
    "17872c8bd": 6580,
    "4339ccaec": 6581,
    "9c051184c": 6582,
    "\u25810x333231": 6583,
    "\u25810x71e000": 6584,
    "\u25810x7d2778": 6585,
    "15f4356872": 6586,
    "50817e8278": 6587,
    "a02313fcc8": 6588,
    "a8df931ad0": 6589,
    "b477dd79dc": 6590,
    "c0775a7be8": 6591,
    "d48e5f4ffc": 6592,
    "\u25810x1211cbc": 6593,
    "\u25817z2e766ec": 6594,
    "15e435e4720": 6595,
    "\u2581setbkcolor": 6596,
    "\u2581getfiletime": 6597,
    "a042439f0604c": 6598,
    "\u25817z2c2c679c315": 6599,
    "\u25817z2e606e7c338": 6600,
    "\u25817z35b001ac3ad": 6601,
    "\u25817zfe5b2e4c038": 6602,
    "\u2581defwindowproca": 6603,
    "\u25817z02eddca008143": 6604,
    "\u25817z638c592068b2b": 6605,
    "\u25817z7a503e307f769": 6606,
    "\u25817z304215f4356872": 6607,
    "\u25817z50ea94a85610f0": 6608,
    "\u25817z528e9d2857b4f9": 6609,
    "\u25817z6da2617872c8bd": 6610,
    "\u25817z6ec46c0073eac8": 6611,
    "\u25817z6fb469c074dac5": 6612,
    "\u25817z77fe08e87d2465": 6613,
    "\u25817zcf77eaacd49e46": 6614,
    "\u25817zef456a04f46bc6": 6615,
    "\u25817z30be15e435e4720": 6616,
    "\u25817zffeb289c051184c": 6617,
    "\u25817z1deda0a02313fcc8": 6618,
    "\u25817z2d95613032bbbd58": 6619,
    "\u25817z2e766ec4339ccaec": 6620,
    "\u25817z34ca042439f0604c": 6621,
    "\u25817z72171f34773d7b5c": 6622,
    "\u25817z72341fc0775a7be8": 6623,
    "\u25817z72b71db477dd79dc": 6624,
    "\u25817z74c2040879e86030": 6625,
    "\u25817z7c582650817e8278": 6626,
    "\u25817z8938f3d48e5f4ffc": 6627,
    "\u25817z8d01e2f892283f20": 6628,
    "\u25817z9a6cbea49f931acc": 6629,
    "\u25817zca11ff34cf385b5c": 6630,
    "\u25817zda6cbea8df931ad0": 6631,
    "\u25817zea7c7ee8efa2db10": 6632,
    "5c9": 6633,
    "f82": 6634,
    "187f": 6635,
    "1e00": 6636,
    "58c6": 6637,
    "60c3": 6638,
    "7711": 6639,
    "81a7": 6640,
    "9df4": 6641,
    "a19b": 6642,
    "ad0c": 6643,
    "b419": 6644,
    "f07c": 6645,
    "22120": 6646,
    "a5884": 6647,
    "e2d2c": 6648,
    "363534": 6649,
    "3f16bc": 6650,
    "\u25810x103": 6651,
    "\u25810x4227": 6652,
    "asynckey": 6653,
    "\u25810x1210ef4": 6654,
    "\u25810x2f2e2d2c": 6655,
    "\u25810x33323130": 6656,
    "\u25810x37363534": 6657,
    "\u25810xfeee00cc": 6658,
    "\u2581getasynckey": 6659,
    "\u2581getasynckeystate": 6660,
    "a7b": 6661,
    "a92": 6662,
    "4367": 6663,
    "5544": 6664,
    "72ff": 6665,
    "9308": 6666,
    "a1e7": 6667,
    "a5f0": 6668,
    "e51c": 6669,
    "40a37": 6670,
    "9374c": 6671,
    "98818": 6672,
    "9c4a3": 6673,
    "a0122": 6674,
    "a2928": 6675,
    "a3938": 6676,
    "a4b97": 6677,
    "a5000": 6678,
    "e4b97": 6679,
    "ece58": 6680,
    "161514": 6681,
    "262524": 6682,
    "37e219": 6683,
    "65dd43": 6684,
    "7c63d7": 6685,
    "7c80d8": 6686,
    "7d03d6": 6687,
    "7f0ebc": 6688,
    "86a4de": 6689,
    "9385ac": 6690,
    "c3b0ac": 6691,
    "d45eb7": 6692,
    "\u25810x464": 6693,
    "\u25810x7e0": 6694,
    "10824ac": 6695,
    "18a7408": 6696,
    "438ad26": 6697,
    "505cdb5": 6698,
    "7ef19dc": 6699,
    "b374d0c": 6700,
    "d3a9504": 6701,
    "dd91184": 6702,
    "erclass": 6703,
    "\u25810x40b9": 6704,
    "\u25810x4220": 6705,
    "\u25810x4718": 6706,
    "\u25810x7118": 6707,
    "\u25810x7348": 6708,
    "\u25810x78f8": 6709,
    "\u25810x7ab8": 6710,
    "\u25810x8cb0": 6711,
    "\u25810x98e0": 6712,
    "28791124": 6713,
    "2c3c4367": 6714,
    "2cf99222": 6715,
    "38c32728": 6716,
    "7c80d824": 6717,
    "974e9b5c": 6718,
    "a4b97708": 6719,
    "d4d9c4a3": 6720,
    "e87a0122": 6721,
    "f4c9374c": 6722,
    "65dd43ffc": 6723,
    "a58849cf6": 6724,
    "c3b0ace48": 6725,
    "\u25810x6ab800": 6726,
    "\u2581createen": 6727,
    "1c3a8ece58": 6728,
    "a077ef19dc": 6729,
    "d05b374d0c": 6730,
    "\u25810x1211708": 6731,
    "\u25810x1211a00": 6732,
    "\u25810x1211eb8": 6733,
    "18a7408a7e6": 6734,
    "5486dd91184": 6735,
    "6caa438ad26": 6736,
    "8c80d3a9504": 6737,
    "\u25810x17161514": 6738,
    "\u25810x1b1a1918": 6739,
    "\u25810x1f1e1d1c": 6740,
    "\u25810x23222120": 6741,
    "\u25810x27262524": 6742,
    "\u25810x2b2a2928": 6743,
    "\u25810x3b3a3938": 6744,
    "\u2581getmenuitem": 6745,
    "2c3c436792000": 6746,
    "securitydescriptor": 6747,
    "\u25817z1deda0a02313fcc8283": 6748,
    "\u25817z35b001ac3ad65dd43ffc": 6749,
    "\u25817zffeb289c051184c40a37": 6750,
    "\u25817z528e9d2857b4f9505cdb5": 6751,
    "\u25817z77fe08e87d246510824ac": 6752,
    "\u25817zda6cbea8df931ad0e4b97": 6753,
    "\u25817z2d95613032bbbd5837e219": 6754,
    "\u25817z2e606e7c3386caa438ad26": 6755,
    "\u25817z34ca042439f0604c3f16bc": 6756,
    "\u25817z6ec46c0073eac828791124": 6757,
    "\u25817z6fb469c074dac5e87a0122": 6758,
    "\u25817z72171f34773d7b5c7c63d7": 6759,
    "\u25817z72b71db477dd79dc7d03d6": 6760,
    "\u25817z74c2040879e860307f0ebc": 6761,
    "\u25817z7a503e307f769a58849cf6": 6762,
    "\u25817z7c582650817e827886a4de": 6763,
    "\u25817z8938f3d48e5f4ffc9385ac": 6764,
    "\u25817zca11ff34cf385b5cd45eb7": 6765,
    "\u25817zcf77eaacd49e46d4d9c4a3": 6766,
    "\u25817zef456a04f46bc62cf99222": 6767,
    "\u25817zfe5b2e4c03818a7408a7e6": 6768,
    "\u25817z02eddca0081438c80d3a9504": 6769,
    "\u25817z2c2c679c3152c3c436792000": 6770,
    "\u25817z2e766ec4339ccaec38c32728": 6771,
    "\u25817z304215f43568721c3a8ece58": 6772,
    "\u25817z30be15e435e4720c3b0ace48": 6773,
    "\u25817z50ea94a85610f0d05b374d0c": 6774,
    "\u25817z638c592068b2b5486dd91184": 6775,
    "\u25817z6da2617872c8bda077ef19dc": 6776,
    "\u25817z72341fc0775a7be87c80d824": 6777,
    "\u25817z8d01e2f892283f20974e9b5c": 6778,
    "\u25817z9a6cbea49f931acca4b97708": 6779,
    "\u25817zea7c7ee8efa2db10f4c9374c": 6780,
    "546": 6781,
    "af3": 6782,
    "1350": 6783,
    "3042": 6784,
    "8897": 6785,
    "a01e": 6786,
    "b0c5": 6787,
    "c164": 6788,
    "deab": 6789,
    "ee9a": 6790,
    "f7af": 6791,
    "tons": 6792,
    "6c4be": 6793,
    "80e40": 6794,
    "98378": 6795,
    "eeaff": 6796,
    "\u25810x654": 6797,
    "\u25810x4900": 6798,
    "\u25810x7188": 6799,
    "\u25810x71f8": 6800,
    "\u25810x7268": 6801,
    "\u25810x72d8": 6802,
    "\u25810x73b8": 6803,
    "\u25810x7498": 6804,
    "\u25810x7c08": 6805,
    "\u25810x7cc0": 6806,
    "\u25810x7d58": 6807,
    "\u25810x7e20": 6808,
    "\u25810x70000": 6809,
    "\u25810x434000": 6810,
    "\u25810x435402": 6811,
    "\u25810x1210f5c": 6812,
    "\u25810x1211e84": 6813,
    "\u25810x53525150": 6814,
    "\u25810xfeee00cd": 6815,
    "\u25810xfeee00ce": 6816,
    "\u2581beginpaint": 6817,
    "5ec": 6818,
    "760": 6819,
    "a19": 6820,
    "1291": 6821,
    "1cad": 6822,
    "2084": 6823,
    "28f0": 6824,
    "35dd": 6825,
    "6e30": 6826,
    "8c97": 6827,
    "9538": 6828,
    "9617": 6829,
    "9fad": 6830,
    "aba5": 6831,
    "c5d8": 6832,
    "ebb0": 6833,
    "f49f": 6834,
    "1260f": 6835,
    "201b1": 6836,
    "42d60": 6837,
    "430fd": 6838,
    "43d18": 6839,
    "605da": 6840,
    "647e3": 6841,
    "9489c": 6842,
    "b00dc": 6843,
    "b0490": 6844,
    "d0875": 6845,
    "dd383": 6846,
    "f277e": 6847,
    "namic": 6848,
    "18822a": 6849,
    "3b9f7c": 6850,
    "3fb52a": 6851,
    "40312a": 6852,
    "74f7ac": 6853,
    "7d1576": 6854,
    "81a734": 6855,
    "98d985": 6856,
    "a9dfd3": 6857,
    "ac0888": 6858,
    "42d60b5": 6859,
    "7711d9c": 6860,
    "b48bcb3": 6861,
    "f5e3d50": 6862,
    "\u25810x7508": 6863,
    "\u25810x7578": 6864,
    "\u25810x75e8": 6865,
    "\u25810x7658": 6866,
    "\u25810x76c8": 6867,
    "\u25810x7738": 6868,
    "\u25810x77a8": 6869,
    "\u25810x7818": 6870,
    "\u25810x7888": 6871,
    "\u25810x7968": 6872,
    "\u25810x79d8": 6873,
    "\u25810x7a48": 6874,
    "\u25810x7b28": 6875,
    "\u25810x7c78": 6876,
    "\u25810x7ce8": 6877,
    "10deeaff": 6878,
    "247f277e": 6879,
    "3de98378": 6880,
    "605da95c": 6881,
    "647e3780": 6882,
    "6c843518": 6883,
    "70ce9dfd": 6884,
    "72ff6dd4": 6885,
    "88443d18": 6886,
    "943d0875": 6887,
    "9489c352": 6888,
    "98818a33": 6889,
    "9c74f7ac": 6890,
    "b00dce43": 6891,
    "e03dd383": 6892,
    "f9ef939c": 6893,
    "58c6201b1": 6894,
    "18822a3268": 6895,
    "3898ac0888": 6896,
    "98d98513e8": 6897,
    "ba10452316": 6898,
    "\u25810x1210e23": 6899,
    "\u25810x1210fb0": 6900,
    "\u25810x1211de4": 6901,
    "14c87711d9c": 6902,
    "a59042d60b5": 6903,
    "\u25810xfeee00cf": 6904,
    "e1000f5e3d50": 6905,
    "\u2581getusernamea": 6906,
    "\u25817zef456a04f46bc62cf9922268fe": 6907,
    "\u25817z02eddca0081438c80d3a95041260f": 6908,
    "\u25817z7c582650817e827886a4deb48bcb3": 6909,
    "\u25817zda6cbea8df931ad0e4b9770ce9dfd": 6910,
    "\u25817z1deda0a02313fcc8283a59042d60b5": 6911,
    "\u25817z2c2c679c3152c3c4367920003b9f7c": 6912,
    "\u25817z2d95613032bbbd5837e219943d0875": 6913,
    "\u25817z2e606e7c3386caa438ad26e03dd383": 6914,
    "\u25817z304215f43568721c3a8ece583fb52a": 6915,
    "\u25817z30be15e435e4720c3b0ace4840312a": 6916,
    "\u25817z34ca042439f0604c3f16bc88443d18": 6917,
    "\u25817z35b001ac3ad65dd43ffcba10452316": 6918,
    "\u25817z528e9d2857b4f9505cdb558c6201b1": 6919,
    "\u25817z6da2617872c8bda077ef19dc7d1576": 6920,
    "\u25817z6ec46c0073eac828791124647e3780": 6921,
    "\u25817z6fb469c074dac5e87a0122247f277e": 6922,
    "\u25817z72171f34773d7b5c7c63d798818a33": 6923,
    "\u25817z72341fc0775a7be87c80d82481a734": 6924,
    "\u25817z74c2040879e860307f0ebc6c843518": 6925,
    "\u25817z7a503e307f769a58849cf69489c352": 6926,
    "\u25817z9a6cbea49f931acca4b97708a9dfd3": 6927,
    "\u25817zcf77eaacd49e46d4d9c4a310deeaff": 6928,
    "\u25817zfe5b2e4c03818a7408a7e6b00dce43": 6929,
    "\u25817z2e766ec4339ccaec38c327283de98378": 6930,
    "\u25817z50ea94a85610f0d05b374d0c605da95c": 6931,
    "\u25817z638c592068b2b5486dd9118472ff6dd4": 6932,
    "\u25817z72b71db477dd79dc7d03d618822a3268": 6933,
    "\u25817z77fe08e87d246510824ac14c87711d9c": 6934,
    "\u25817z8938f3d48e5f4ffc9385ac3898ac0888": 6935,
    "\u25817z8d01e2f892283f20974e9b5c9c74f7ac": 6936,
    "\u25817zca11ff34cf385b5cd45eb798d98513e8": 6937,
    "\u25817zea7c7ee8efa2db10f4c9374cf9ef939c": 6938,
    "\u25817zffeb289c051184c40a37e1000f5e3d50": 6939,
    "gl": 6940,
    "53d": 6941,
    "94d": 6942,
    "eb5": 6943,
    "f1b": 6944,
    "5b7c": 6945,
    "784d": 6946,
    "7a98": 6947,
    "a596": 6948,
    "a5fc": 6949,
    "c0c8": 6950,
    "leng": 6951,
    "bd000": 6952,
    "class": 6953,
    "\u25810x238": 6954,
    "\u25810x438": 6955,
    "dynamic": 6956,
    "etchblt": 6957,
    "\u25810x7ea0": 6958,
    "\u25810x8f30": 6959,
    "\u2581msvcr71": 6960,
    "\u2581endpaint": 6961,
    "\u25810x1210e68": 6962,
    "\u25810x1210e8c": 6963,
    "\u2581ef": 6964,
    "1541": 6965,
    "946c": 6966,
    "9623": 6967,
    "a11c": 6968,
    "bbed": 6969,
    "c490": 6970,
    "d3e4": 6971,
    "f9df": 6972,
    "\u2581yap": 6973,
    "1d406": 6974,
    "3dedb": 6975,
    "405c0": 6976,
    "55786": 6977,
    "5ca38": 6978,
    "604a4": 6979,
    "74844": 6980,
    "87508": 6981,
    "96375": 6982,
    "dc672": 6983,
    "ff15f": 6984,
    "offil": 6985,
    "round": 6986,
    "tings": 6987,
    "\u2581pbvm": 6988,
    "148499": 6989,
    "543287": 6990,
    "7486cd": 6991,
    "9dd264": 6992,
    "b0904c": 6993,
    "f19768": 6994,
    "\u25810x4b0": 6995,
    "35ddd18": 6996,
    "58af062": 6997,
    "60e4115": 6998,
    "7874db8": 6999,
    "a844db8": 7000,
    "b87eb80": 7001,
    "bc895b7": 7002,
    "e4422ed": 7003,
    "e48ee9a": 7004,
    "f062fc0": 7005,
    "\u25810x7ce0": 7006,
    "00000004": 7007,
    "0012f49f": 7008,
    "2c823bd2": 7009,
    "3042f9df": 7010,
    "5040c5d8": 7011,
    "658405c0": 7012,
    "7825ca38": 7013,
    "87508ecc": 7014,
    "8c977a00": 7015,
    "98455786": 7016,
    "9dd264ec": 7017,
    "a19b5410": 7018,
    "d8496375": 7019,
    "ffff0000": 7020,
    "procedur": 7021,
    "\u25810x4093d4": 7022,
    "54328711b8": 7023,
    "58af062fbc": 7024,
    "7486cd90d8": 7025,
    "b4835ddd18": 7026,
    "dc67280e40": 7027,
    "e48ee9af48": 7028,
    "e886b0904c": 7029,
    "\u25810x1210e18": 7030,
    "15417874db8": 7031,
    "35cef062fc0": 7032,
    "b0490f19768": 7033,
    "b87eb803dedb": 7034,
    "\u25817z35b001ac3ad65dd43ffcba10452316604a4": 7035,
    "\u25817z6fb469c074dac5e87a0122247f277e74844": 7036,
    "\u25817zca11ff34cf385b5cd45eb798d98513e8deab": 7037,
    "\u25817z2d95613032bbbd5837e219943d0875e4422ed": 7038,
    "\u25817z2e766ec4339ccaec38c327283de98378430fd": 7039,
    "\u25817z304215f43568721c3a8ece583fb52aa844db8": 7040,
    "\u25817z74c2040879e860307f0ebc6c843518bc895b7": 7041,
    "\u25817zcf77eaacd49e46d4d9c4a310deeaff60e4115": 7042,
    "\u25817zea7c7ee8efa2db10f4c9374cf9ef939cff15f": 7043,
    "\u25817z2c2c679c3152c3c4367920003b9f7c5040c5d8": 7044,
    "\u25817z2e606e7c3386caa438ad26e03dd3833042f9df": 7045,
    "\u25817z30be15e435e4720c3b0ace4840312a98455786": 7046,
    "\u25817z34ca042439f0604c3f16bc88443d18d8496375": 7047,
    "\u25817z6da2617872c8bda077ef19dc7d15762c823bd2": 7048,
    "\u25817zef456a04f46bc62cf9922268feb87eb803dedb": 7049,
    "\u25817zfe5b2e4c03818a7408a7e6b00dce430012f49f": 7050,
    "\u25817zffeb289c051184c40a37e1000f5e3d50148499": 7051,
    "\u25817z02eddca0081438c80d3a95041260f15417874db8": 7052,
    "\u25817z1deda0a02313fcc8283a59042d60b554328711b8": 7053,
    "\u25817z50ea94a85610f0d05b374d0c605da95c658405c0": 7054,
    "\u25817z528e9d2857b4f9505cdb558c6201b1dc67280e40": 7055,
    "\u25817z638c592068b2b5486dd9118472ff6dd47825ca38": 7056,
    "\u25817z6ec46c0073eac828791124647e3780b4835ddd18": 7057,
    "\u25817z72171f34773d7b5c7c63d798818a33e886b0904c": 7058,
    "\u25817z72341fc0775a7be87c80d82481a7347486cd90d8": 7059,
    "\u25817z72b71db477dd79dc7d03d618822a326887508ecc": 7060,
    "\u25817z77fe08e87d246510824ac14c87711d9c8c977a00": 7061,
    "\u25817z7a503e307f769a58849cf69489c352e48ee9af48": 7062,
    "\u25817z7c582650817e827886a4deb48bcb3b0490f19768": 7063,
    "\u25817z8938f3d48e5f4ffc9385ac3898ac08889dd264ec": 7064,
    "\u25817z8d01e2f892283f20974e9b5c9c74f7aca19b5410": 7065,
    "\u25817z9a6cbea49f931acca4b97708a9dfd358af062fbc": 7066,
    "\u25817zda6cbea8df931ad0e4b9770ce9dfd35cef062fc0": 7067,
    "503": 7068,
    "955": 7069,
    "a18": 7070,
    "app": 7071,
    "e3c": 7072,
    "1afb": 7073,
    "54ca": 7074,
    "961c": 7075,
    "a070": 7076,
    "a7de": 7077,
    "a845": 7078,
    "b166": 7079,
    "b7b4": 7080,
    "dows": 7081,
    "e970": 7082,
    "ff86": 7083,
    "hort": 7084,
    "37940": 7085,
    "58800": 7086,
    "7d000": 7087,
    "94100": 7088,
    "ad457": 7089,
    "e6ab8": 7090,
    "\u25810x43d": 7091,
    "\u25810x4098": 7092,
    "\u25810x4258": 7093,
    "\u25810xa0c0": 7094,
    "\u25810x120fd": 7095,
    "\u25810x1210a64": 7096,
    "\u25810x1210a84": 7097,
    "\u25810x1210e08": 7098,
    "\u25810x1210e84": 7099,
    "\u25810x1210e88": 7100,
    "\u25810x1210f68": 7101,
    "\u2581waitformultipleob": 7102,
    "241": 7103,
    "547": 7104,
    "b22": 7105,
    "dae": 7106,
    "fc1": 7107,
    "ff5": 7108,
    "0048": 7109,
    "12f8": 7110,
    "16d3": 7111,
    "2f00": 7112,
    "44f6": 7113,
    "46e0": 7114,
    "51ec": 7115,
    "6c91": 7116,
    "7865": 7117,
    "962a": 7118,
    "9658": 7119,
    "9b3e": 7120,
    "a5b3": 7121,
    "ad80": 7122,
    "b0e0": 7123,
    "b823": 7124,
    "b9e7": 7125,
    "bf20": 7126,
    "c4d4": 7127,
    "e272": 7128,
    "mous": 7129,
    "1b088": 7130,
    "1d198": 7131,
    "203c0": 7132,
    "3c4e8": 7133,
    "43c4c": 7134,
    "6aaa6": 7135,
    "88c88": 7136,
    "8c76e": 7137,
    "911a4": 7138,
    "9d1b4": 7139,
    "aa302": 7140,
    "1c0905": 7141,
    "363c54": 7142,
    "5208e8": 7143,
    "704ce3": 7144,
    "7d4c26": 7145,
    "888439": 7146,
    "8bd6ec": 7147,
    "8bf3ed": 7148,
    "b42c8c": 7149,
    "bc4e93": 7150,
    "d1ccc4": 7151,
    "ec352c": 7152,
    "f42c8c": 7153,
    "\u25810x980": 7154,
    "2484755": 7155,
    "44f6fcf": 7156,
    "8897437": 7157,
    "9087622": 7158,
    "a7de374": 7159,
    "\u25810x44e5": 7160,
    "\u2581device": 7161,
    "37ad6e30": 7162,
    "64181afb": 7163,
    "6aaa6238": 7164,
    "6c4e6ab8": 7165,
    "70c4a01e": 7166,
    "8bf3ed50": 7167,
    "8c76eb44": 7168,
    "91bdd678": 7169,
    "94100bc0": 7170,
    "9617f3e0": 7171,
    "a2f8c164": 7172,
    "a6c1b088": 7173,
    "b419aaf6": 7174,
    "000043c4c": 7175,
    "9448203c0": 7176,
    "bc4e937b8": 7177,
    "\u25810x41b868": 7178,
    "\u2581getshort": 7179,
    "3c4e89d1b4": 7180,
    "b445ec352c": 7181,
    "fc4a7de374": 7182,
    "freememory": 7183,
    "\u25810x1210a78": 7184,
    "\u25810x1210e48": 7185,
    "\u25810x1210e58": 7186,
    "\u25810x1210f44": 7187,
    "\u25810x1211da4": 7188,
    "\u2581loadiconw": 7189,
    "24847552ec0": 7190,
    "5208e81d198": 7191,
    "972c44f6fcf": 7192,
    "ddad8897437": 7193,
    "fdc48363c54": 7194,
    "\u2581initialize": 7195,
    "704ce3d1ccc4": 7196,
    "\u25817z02eddca0081438c80d3a95041260f15417874db81cad": 7197,
    "\u25817zef456a04f46bc62cf9922268feb87eb803dedb1c0905": 7198,
    "\u25817z304215f43568721c3a8ece583fb52aa844db870c4a01e": 7199,
    "\u25817z6da2617872c8bda077ef19dc7d15762c823bd29087622": 7200,
    "\u25817z35b001ac3ad65dd43ffcba10452316604a4972c44f6fcf": 7201,
    "\u25817z638c592068b2b5486dd9118472ff6dd47825ca387d4c26": 7202,
    "\u25817z6ec46c0073eac828791124647e3780b4835ddd18888439": 7203,
    "\u25817z6fb469c074dac5e87a0122247f277e74844ddad8897437": 7204,
    "\u25817z72171f34773d7b5c7c63d798818a33e886b0904c8bd6ec": 7205,
    "\u25817z9a6cbea49f931acca4b97708a9dfd358af062fbcb42c8c": 7206,
    "\u25817zcf77eaacd49e46d4d9c4a310deeaff60e4115bc4e937b8": 7207,
    "\u25817zda6cbea8df931ad0e4b9770ce9dfd35cef062fc0f42c8c": 7208,
    "\u25817zea7c7ee8efa2db10f4c9374cf9ef939cff15f000043c4c": 7209,
    "\u25817zfe5b2e4c03818a7408a7e6b00dce430012f49f64181afb": 7210,
    "\u25817zffeb289c051184c40a37e1000f5e3d50148499b419aaf6": 7211,
    "\u25817z2e606e7c3386caa438ad26e03dd3833042f9df9448203c0": 7212,
    "\u25817z1deda0a02313fcc8283a59042d60b554328711b837ad6e30": 7213,
    "\u25817z2c2c679c3152c3c4367920003b9f7c5040c5d8b445ec352c": 7214,
    "\u25817z2d95613032bbbd5837e219943d0875e4422ed24847552ec0": 7215,
    "\u25817z2e766ec4339ccaec38c327283de98378430fdfdc48363c54": 7216,
    "\u25817z30be15e435e4720c3b0ace4840312a98455786fc4a7de374": 7217,
    "\u25817z34ca042439f0604c3f16bc88443d18d84963753c4e89d1b4": 7218,
    "\u25817z50ea94a85610f0d05b374d0c605da95c658405c06aaa6238": 7219,
    "\u25817z528e9d2857b4f9505cdb558c6201b1dc67280e406c4e6ab8": 7220,
    "\u25817z72341fc0775a7be87c80d82481a7347486cd90d88bf3ed50": 7221,
    "\u25817z72b71db477dd79dc7d03d618822a326887508ecc8c76eb44": 7222,
    "\u25817z74c2040879e860307f0ebc6c843518bc895b75208e81d198": 7223,
    "\u25817z77fe08e87d246510824ac14c87711d9c8c977a0091bdd678": 7224,
    "\u25817z7a503e307f769a58849cf69489c352e48ee9af4894100bc0": 7225,
    "\u25817z7c582650817e827886a4deb48bcb3b0490f197689617f3e0": 7226,
    "\u25817z8938f3d48e5f4ffc9385ac3898ac08889dd264eca2f8c164": 7227,
    "\u25817z8d01e2f892283f20974e9b5c9c74f7aca19b5410a6c1b088": 7228,
    "\u25817zca11ff34cf385b5cd45eb798d98513e8deab704ce3d1ccc4": 7229,
    "ei": 7230,
    "ms": 7231,
    "305": 7232,
    "585": 7233,
    "9d0": 7234,
    "af0": 7235,
    "b76": 7236,
    "ddc": 7237,
    "2c50": 7238,
    "44a0": 7239,
    "787c": 7240,
    "8b20": 7241,
    "93d6": 7242,
    "a2af": 7243,
    "bc2c": 7244,
    "c0c2": 7245,
    "c9e5": 7246,
    "e599": 7247,
    "ec28": 7248,
    "f344": 7249,
    "hild": 7250,
    "a58b0": 7251,
    "lseek": 7252,
    "reate": 7253,
    "\u2581star": 7254,
    "adc0de": 7255,
    "\u25810x1327": 7256,
    "\u25810x4016": 7257,
    "\u25810x59e3": 7258,
    "\u25810x8b50": 7259,
    "\u25810x4e300": 7260,
    "\u25810x100fdb": 7261,
    "\u25810x41f000": 7262,
    "\u25810x435410": 7263,
    "\u25810x43f6b0": 7264,
    "\u25810x7c16a0": 7265,
    "\u25810x1210e17": 7266,
    "\u25810x1210e1f": 7267,
    "\u25810x1210e94": 7268,
    "\u25810x1211424": 7269,
    "dynamiclink": 7270,
    "\u25810xdeadc0de": 7271,
    "\u2581theprocedur": 7272,
    "dynamiclinklibrary": 7273,
    "\u2581theprocedureentry": 7274,
    "uldnotbelocatedinthedynamiclinklibrary": 7275,
    "ty": 7276,
    "686": 7277,
    "99b": 7278,
    "fa0": 7279,
    "for": 7280,
    "0060": 7281,
    "104c": 7282,
    "2950": 7283,
    "323e": 7284,
    "3da8": 7285,
    "741d": 7286,
    "8798": 7287,
    "8b94": 7288,
    "9c76": 7289,
    "9eaa": 7290,
    "a413": 7291,
    "a880": 7292,
    "b828": 7293,
    "bc26": 7294,
    "e89b": 7295,
    "f384": 7296,
    "fa38": 7297,
    "fc61": 7298,
    "2c1ed": 7299,
    "3cd3c": 7300,
    "4c7b8": 7301,
    "4fa44": 7302,
    "58682": 7303,
    "6fd0b": 7304,
    "7174c": 7305,
    "919d4": 7306,
    "96e43": 7307,
    "abe80": 7308,
    "e2b94": 7309,
    "f001e": 7310,
    "f1df0": 7311,
    "3cee5e": 7312,
    "4b1291": 7313,
    "4d5c98": 7314,
    "508e9a": 7315,
    "53b02e": 7316,
    "72833c": 7317,
    "908daa": 7318,
    "93a82e": 7319,
    "962bc8": 7320,
    "dc1d41": 7321,
    "fd4950": 7322,
    "ontrol": 7323,
    "3844f28": 7324,
    "780962a": 7325,
    "952e8c4": 7326,
    "9936684": 7327,
    "c4d4698": 7328,
    "f088c88": 7329,
    "\u25810x7dbc": 7330,
    "\u25810x7dbd": 7331,
    "\u25810x7e94": 7332,
    "2c1ed152": 7333,
    "34b952e8": 7334,
    "3cd3cabc": 7335,
    "4c7b8b4c": 7336,
    "4fa44000": 7337,
    "6fd0bec4": 7338,
    "7174c744": 7339,
    "911a49dc": 7340,
    "919d47d0": 7341,
    "9b3e506c": 7342,
    "a81f1df0": 7343,
    "abe80d14": 7344,
    "e8f82950": 7345,
    "\u25810x577fd8": 7346,
    "37940e2b94": 7347,
    "38f952e8c4": 7348,
    "3c54962bc8": 7349,
    "3cee5e14c8": 7350,
    "508e9a93dc": 7351,
    "908daa961c": 7352,
    "aa3021d406": 7353,
    "b08272833c": 7354,
    "c490fd4950": 7355,
    "\u25810x1210e14": 7356,
    "\u25810x1210e4c": 7357,
    "\u25810x1210eb4": 7358,
    "\u25810x12117e8": 7359,
    "\u25810x1211e18": 7360,
    "\u25810x1211e70": 7361,
    "\u25810x5265c3c": 7362,
    "3844f284010": 7363,
    "f088c888b94": 7364,
    "\u2581gettimeformatw": 7365,
    "\u25817zfe5b2e4c03818a7408a7e6b00dce430012f49f64181afbdc1d41": 7366,
    "\u25817z77fe08e87d246510824ac14c87711d9c8c977a0091bdd67896e43": 7367,
    "\u25817zea7c7ee8efa2db10f4c9374cf9ef939cff15f000043c4c780962a": 7368,
    "\u25817z02eddca0081438c80d3a95041260f15417874db81cadaa3021d406": 7369,
    "\u25817z2c2c679c3152c3c4367920003b9f7c5040c5d8b445ec352c4b1291": 7370,
    "\u25817z2e606e7c3386caa438ad26e03dd3833042f9df9448203c0c4d4698": 7371,
    "\u25817z2e766ec4339ccaec38c327283de98378430fdfdc48363c544d5c98": 7372,
    "\u25817z34ca042439f0604c3f16bc88443d18d84963753c4e89d1b453b02e": 7373,
    "\u25817z74c2040879e860307f0ebc6c843518bc895b75208e81d19893a82e": 7374,
    "\u25817z9a6cbea49f931acca4b97708a9dfd358af062fbcb42c8c34b952e8": 7375,
    "\u25817zef456a04f46bc62cf9922268feb87eb803dedb1c090537940e2b94": 7376,
    "\u25817zffeb289c051184c40a37e1000f5e3d50148499b419aaf62c1ed152": 7377,
    "\u25817z7a503e307f769a58849cf69489c352e48ee9af4894100bc09936684": 7378,
    "\u25817z1deda0a02313fcc8283a59042d60b554328711b837ad6e303cd3cabc": 7379,
    "\u25817z2d95613032bbbd5837e219943d0875e4422ed24847552ec04c7b8b4c": 7380,
    "\u25817z304215f43568721c3a8ece583fb52aa844db870c4a01e3844f284010": 7381,
    "\u25817z30be15e435e4720c3b0ace4840312a98455786fc4a7de3744fa44000": 7382,
    "\u25817z35b001ac3ad65dd43ffcba10452316604a4972c44f6fcf3c54962bc8": 7383,
    "\u25817z50ea94a85610f0d05b374d0c605da95c658405c06aaa62386fd0bec4": 7384,
    "\u25817z528e9d2857b4f9505cdb558c6201b1dc67280e406c4e6ab87174c744": 7385,
    "\u25817z638c592068b2b5486dd9118472ff6dd47825ca387d4c26b08272833c": 7386,
    "\u25817z6da2617872c8bda077ef19dc7d15762c823bd29087622f088c888b94": 7387,
    "\u25817z6ec46c0073eac828791124647e3780b4835ddd18888439908daa961c": 7388,
    "\u25817z6fb469c074dac5e87a0122247f277e74844ddad8897437508e9a93dc": 7389,
    "\u25817z72171f34773d7b5c7c63d798818a33e886b0904c8bd6ecc490fd4950": 7390,
    "\u25817z72341fc0775a7be87c80d82481a7347486cd90d88bf3ed50911a49dc": 7391,
    "\u25817z72b71db477dd79dc7d03d618822a326887508ecc8c76eb44919d47d0": 7392,
    "\u25817z7c582650817e827886a4deb48bcb3b0490f197689617f3e09b3e506c": 7393,
    "\u25817z8938f3d48e5f4ffc9385ac3898ac08889dd264eca2f8c164a81f1df0": 7394,
    "\u25817z8d01e2f892283f20974e9b5c9c74f7aca19b5410a6c1b088abe80d14": 7395,
    "\u25817zca11ff34cf385b5cd45eb798d98513e8deab704ce3d1ccc4e8f82950": 7396,
    "\u25817zcf77eaacd49e46d4d9c4a310deeaff60e4115bc4e937b83cee5e14c8": 7397,
    "\u25817zda6cbea8df931ad0e4b9770ce9dfd35cef062fc0f42c8c38f952e8c4": 7398,
    "av": 7399,
    "dfd": 7400,
    "e32": 7401,
    "\u2581mi": 7402,
    "1598": 7403,
    "5c80": 7404,
    "5e9b": 7405,
    "668b": 7406,
    "66d7": 7407,
    "8cbf": 7408,
    "9a9c": 7409,
    "a1b0": 7410,
    "b5b2": 7411,
    "d3e0": 7412,
    "f444": 7413,
    "glti": 7414,
    "20135": 7415,
    "2c63c": 7416,
    "enter": 7417,
    "\u25810x41b": 7418,
    "\u25810x4346": 7419,
    "\u25810xff92": 7420,
    "opwindow": 7421,
    "\u25810x5c000": 7422,
    "\u25810x1210df8": 7423,
    "\u25810x1210dfb": 7424,
    "\u25810x1210e44": 7425,
    "\u25810x1210eac": 7426,
    "\u25810x1210f08": 7427,
    "\u25810x1210f24": 7428,
    "\u25810x12117fc": 7429,
    "\u25810x1211b8c": 7430,
    "\u2581setcursor": 7431,
    "\u2581localfilet": 7432,
    "\u2581globalhandle": 7433,
    "\u2581readprocessmemory": 7434,
    "\u2581theprocedureentrypoint": 7435,
    "\u2581localfiletimetofiletime": 7436,
    "793": 7437,
    "7df": 7438,
    "a60": 7439,
    "bfd": 7440,
    "sel": 7441,
    "\u258167": 7442,
    "37de": 7443,
    "5080": 7444,
    "9b18": 7445,
    "9e00": 7446,
    "b059": 7447,
    "bc89": 7448,
    "f4d1": 7449,
    "fd7c": 7450,
    "3a470": 7451,
    "4058d": 7452,
    "41fa2": 7453,
    "7cfe8": 7454,
    "a8fa4": 7455,
    "b10e6": 7456,
    "b23e4": 7457,
    "c0be7": 7458,
    "cc4ec": 7459,
    "clear": 7460,
    "e4468": 7461,
    "e8905": 7462,
    "ec06e": 7463,
    "ee1e8": 7464,
    "ee834": 7465,
    "3049c0": 7466,
    "38ee58": 7467,
    "51a1e7": 7468,
    "544e9c": 7469,
    "59bc88": 7470,
    "6cf538": 7471,
    "74f71b": 7472,
    "92d0f2": 7473,
    "ce8ac4": 7474,
    "e05282": 7475,
    "fa635c": 7476,
    "length": 7477,
    "\u25810x437": 7478,
    "\u25810x470": 7479,
    "5868226": 7480,
    "activec": 7481,
    "visible": 7482,
    "\u25810x7e95": 7483,
    "201351f0": 7484,
    "41fa275c": 7485,
    "54ca9ca0": 7486,
    "769b23e4": 7487,
    "8798dfdc": 7488,
    "91aee834": 7489,
    "93c0f07c": 7490,
    "9623a5f0": 7491,
    "9640a67c": 7492,
    "96c3a470": 7493,
    "a064ad0c": 7494,
    "ad457a90": 7495,
    "b10e69b4": 7496,
    "b823f7af": 7497,
    "c0be7945": 7498,
    "ee1e85f0": 7499,
    "f3847168": 7500,
    "\u25810x120ec": 7501,
    "9040e8905": 7502,
    "c9e5cc4ec": 7503,
    "2498ce8ac4": 7504,
    "98526cf538": 7505,
    "b85038ee58": 7506,
    "bc26fa635c": 7507,
    "e05282f580": 7508,
    "\u25810x1210e0b": 7509,
    "\u25810x1210e13": 7510,
    "\u25810x1210f14": 7511,
    "\u25810x1210f35": 7512,
    "\u25810x1210fb8": 7513,
    "\u25810x23533e0": 7514,
    "\u2581movefilea": 7515,
    "3049c0a8fa4": 7516,
    "\u25810x100fdb58": 7517,
    "\u2581sofaddress": 7518,
    "\u25817zda6cbea8df931ad0e4b9770ce9dfd35cef062fc0f42c8c38f952e8c4fe": 7519,
    "\u25817z34ca042439f0604c3f16bc88443d18d84963753c4e89d1b453b02e4058d": 7520,
    "\u25817zfe5b2e4c03818a7408a7e6b00dce430012f49f64181afbdc1d415868226": 7521,
    "1ae": 7522,
    "75d": 7523,
    "7c0": 7524,
    "8c8": 7525,
    "a73": 7526,
    "ddf": 7527,
    "f32": 7528,
    "1dac": 7529,
    "26be": 7530,
    "34a3": 7531,
    "43b8": 7532,
    "4d40": 7533,
    "94b8": 7534,
    "981e": 7535,
    "anag": 7536,
    "d444": 7537,
    "d6ff": 7538,
    "e7f4": 7539,
    "ebug": 7540,
    "fd91": 7541,
    "00a0b": 7542,
    "40bb8": 7543,
    "dd608": 7544,
    "foreg": 7545,
    "times": 7546,
    "\u2581winc": 7547,
    "lass32": 7548,
    "\u2581users": 7549,
    "\u25810x73d0": 7550,
    "\u2581wtsget": 7551,
    "datetime": 7552,
    "\u25810x41f030": 7553,
    "foreground": 7554,
    "\u25810x1210df3": 7555,
    "\u25810x1210df4": 7556,
    "\u25810x1210df9": 7557,
    "\u25810x1210e03": 7558,
    "\u25810x1210e0f": 7559,
    "\u25810x1210e2d": 7560,
    "\u25810x1210ee8": 7561,
    "\u25810x1210ef8": 7562,
    "\u25810x1210f0c": 7563,
    "\u25810x1210f18": 7564,
    "\u25810x1210f4c": 7565,
    "\u25810x1210f58": 7566,
    "\u2581winclass32": 7567,
    "activeconsole": 7568,
    "foregroundwindow": 7569,
    "\u2581wtsgetactiveconsole": 7570,
    "\u2581wtsgetactiveconsolesessionid": 7571,
    "5c2": 7572,
    "d30": 7573,
    "ede": 7574,
    "16d2": 7575,
    "3564": 7576,
    "43a4": 7577,
    "49a1": 7578,
    "5793": 7579,
    "908c": 7580,
    "a690": 7581,
    "a898": 7582,
    "bcdb": 7583,
    "cc78": 7584,
    "e0cb": 7585,
    "e843": 7586,
    "f1f1": 7587,
    "f230": 7588,
    "321a0": 7589,
    "555f4": 7590,
    "56403": 7591,
    "647a1": 7592,
    "95234": 7593,
    "9b670": 7594,
    "9bea0": 7595,
    "a02a4": 7596,
    "b26bd": 7597,
    "b634c": 7598,
    "dfce7": 7599,
    "2c20c0": 7600,
    "30ec58": 7601,
    "472084": 7602,
    "59f0f9": 7603,
    "685ee2": 7604,
    "68ae05": 7605,
    "74f964": 7606,
    "7bc180": 7607,
    "96d544": 7608,
    "98e74d": 7609,
    "af6258": 7610,
    "ec56c8": 7611,
    "f74f70": 7612,
    "f8aace": 7613,
    "\u25810x45c": 7614,
    "58291e0": 7615,
    "8278e11": 7616,
    "\u25810x1810": 7617,
    "\u2581memcpy": 7618,
    "579351ec": 7619,
    "57a95234": 7620,
    "60c39fa2": 7621,
    "647a1d78": 7622,
    "79456403": 7623,
    "8cbf3c90": 7624,
    "9b4a02a4": 7625,
    "9b670330": 7626,
    "9bea0124": 7627,
    "9df4e778": 7628,
    "a130ec58": 7629,
    "a38321a0": 7630,
    "a58b09c0": 7631,
    "b26bd744": 7632,
    "c018784d": 7633,
    "f344e2a4": 7634,
    "\u25810x1327ec": 7635,
    "\u25810x40aca0": 7636,
    "\u25810x980218": 7637,
    "544e9cb059": 7638,
    "685ee2e51c": 7639,
    "92d0f2bc97": 7640,
    "a413af6258": 7641,
    "ec56c844a0": 7642,
    "\u25810x1210ded": 7643,
    "\u25810x1210dee": 7644,
    "\u25810x1210def": 7645,
    "\u25810x1210df1": 7646,
    "\u25810x1210df2": 7647,
    "\u25810x1210df5": 7648,
    "\u25810x1210df6": 7649,
    "\u25810x1210df7": 7650,
    "\u25810x1210dfa": 7651,
    "\u25810x1210dfc": 7652,
    "\u25810x1210dfd": 7653,
    "\u25810x1210dfe": 7654,
    "\u25810x1210dff": 7655,
    "\u25810x1210e01": 7656,
    "\u25810x1210e02": 7657,
    "\u25810x1210e04": 7658,
    "\u25810x1210e05": 7659,
    "\u25810x1210e06": 7660,
    "\u25810x1210e07": 7661,
    "\u25810x1210e09": 7662,
    "\u25810x1210e0a": 7663,
    "\u25810x1210e0c": 7664,
    "\u25810x1210e0d": 7665,
    "\u25810x1210e0e": 7666,
    "\u25810x1210e11": 7667,
    "\u25810x1210e12": 7668,
    "\u25810x1210e15": 7669,
    "\u25810x1210e16": 7670,
    "\u25810x1210e19": 7671,
    "\u25810x1210e1a": 7672,
    "\u25810x1210e1d": 7673,
    "\u25810x1210e1e": 7674,
    "\u25810x1210e21": 7675,
    "\u25810x1210e22": 7676,
    "\u25810x1210e25": 7677,
    "\u25810x1210e26": 7678,
    "\u25810x1210e29": 7679,
    "\u25810x1210e2a": 7680,
    "\u25810x1210e2e": 7681,
    "\u25810x1210e31": 7682,
    "\u25810x1210e32": 7683,
    "\u25810x1210e33": 7684,
    "\u25810x1210e35": 7685,
    "\u25810x1210e36": 7686,
    "\u25810x1210e37": 7687,
    "\u25810x1210e38": 7688,
    "\u25810x1210e39": 7689,
    "\u25810x1210e3a": 7690,
    "\u25810x1210e3b": 7691,
    "\u25810x1210e3c": 7692,
    "\u25810x1210e3d": 7693,
    "\u25810x1210e3e": 7694,
    "\u25810x1210e3f": 7695,
    "\u25810x1210e41": 7696,
    "\u25810x1210e42": 7697,
    "\u25810x1210e43": 7698,
    "\u25810x1210e45": 7699,
    "\u25810x1210e46": 7700,
    "\u25810x1210e47": 7701,
    "\u25810x1210e49": 7702,
    "\u25810x1210e4a": 7703,
    "\u25810x1210e4b": 7704,
    "\u25810x1210e4d": 7705,
    "\u25810x1210e4e": 7706,
    "\u25810x1210e4f": 7707,
    "\u25810x1210e51": 7708,
    "\u25810x1210e52": 7709,
    "\u25810x1210e53": 7710,
    "\u25810x1210e54": 7711,
    "\u25810x1210e55": 7712,
    "\u25810x1210e56": 7713,
    "\u25810x1210e57": 7714,
    "\u25810x1210e59": 7715,
    "\u25810x1210e5a": 7716,
    "\u25810x1210e5b": 7717,
    "\u25810x1210e5c": 7718,
    "\u25810x1210e5d": 7719,
    "\u25810x1210e5e": 7720,
    "\u25810x1210e5f": 7721,
    "\u25810x1210e61": 7722,
    "\u25810x1210e62": 7723,
    "\u25810x1210e63": 7724,
    "\u25810x1210e64": 7725,
    "\u25810x1210e65": 7726,
    "\u25810x1210e66": 7727,
    "\u25810x1210e67": 7728,
    "\u25810x1210e69": 7729,
    "\u25810x1210e6a": 7730,
    "\u25810x1210e6b": 7731,
    "\u25810x1210e6c": 7732,
    "\u25810x1210e6d": 7733,
    "\u25810x1210e6e": 7734,
    "\u25810x1210e6f": 7735,
    "\u25810x1210e71": 7736,
    "\u25810x1210e72": 7737,
    "\u25810x1210e73": 7738,
    "\u25810x1210e74": 7739,
    "\u25810x1210e75": 7740,
    "\u25810x1210e76": 7741,
    "\u25810x1210e77": 7742,
    "\u25810x1210e78": 7743,
    "\u25810x1210e79": 7744,
    "\u25810x1210e7a": 7745,
    "\u25810x1210e7b": 7746,
    "\u25810x1210e7c": 7747,
    "\u25810x1210e7d": 7748,
    "\u25810x1210e7e": 7749,
    "\u25810x1210e7f": 7750,
    "\u25810x1210e81": 7751,
    "\u25810x1210e82": 7752,
    "\u25810x1210e83": 7753,
    "\u25810x1210e85": 7754,
    "\u25810x1210e86": 7755,
    "\u25810x1210e87": 7756,
    "\u25810x1210e89": 7757,
    "\u25810x1210e8a": 7758,
    "\u25810x1210e8b": 7759,
    "\u25810x1210e8d": 7760,
    "\u25810x1210e9f": 7761,
    "\u25810x1210ea1": 7762,
    "\u25810x1210ea2": 7763,
    "\u25810x1210ea3": 7764,
    "\u25810x1210ea4": 7765,
    "\u25810x1210ea5": 7766,
    "\u25810x1210ea6": 7767,
    "\u25810x1210ea7": 7768,
    "\u25810x1210ea8": 7769,
    "\u25810x1210ea9": 7770,
    "\u25810x1210eaa": 7771,
    "\u25810x1210eab": 7772,
    "\u25810x1210ead": 7773,
    "\u25810x1210eae": 7774,
    "\u25810x1210eaf": 7775,
    "\u25810x1210eb1": 7776,
    "\u25810x1210eb2": 7777,
    "\u25810x1210eb3": 7778,
    "\u25810x1210eb5": 7779,
    "\u25810x1210eb6": 7780,
    "\u25810x1210eb7": 7781,
    "\u25810x1210eb8": 7782,
    "\u25810x1210eb9": 7783,
    "\u25810x1210eba": 7784,
    "\u25810x1210ebb": 7785,
    "\u25810x1210ebd": 7786,
    "\u25810x1210ebe": 7787,
    "\u25810x1210ebf": 7788,
    "\u25810x1210ec1": 7789,
    "\u25810x1210ec2": 7790,
    "\u25810x1210ec3": 7791,
    "\u25810x1210ec4": 7792,
    "\u25810x1210ec5": 7793,
    "\u25810x1210ec6": 7794,
    "\u25810x1210ec7": 7795,
    "\u25810x1210ec8": 7796,
    "\u25810x1210ec9": 7797,
    "\u25810x1210eca": 7798,
    "\u25810x1210ecb": 7799,
    "\u25810x1210efc": 7800,
    "\u25810x1210fa2": 7801,
    "68ae05dfce7": 7802,
    "7b508278e11": 7803,
    "794564039fa2": 7804,
    "b10e69b4b634c": 7805,
    "\u2581variantclear": 7806,
    "41fa275c472084": 7807,
    "54ca9ca059f0f9": 7808,
    "74f71b647a1d78": 7809,
    "769b23e47bc180": 7810,
    "91aee83496d544": 7811,
    "93c0f07c98e74d": 7812,
    "f3847168f8aace": 7813,
    "b823f7af58291e0": 7814,
    "b85038ee58555f4": 7815,
    "\u2581getdateformata": 7816,
    "\u2581regsetvalueexw": 7817,
    "201351f0c018784d": 7818,
    "51a1e7ec56c844a0": 7819,
    "544e9cb05974f964": 7820,
    "59bc88685ee2e51c": 7821,
    "8798dfdc8cbf3c90": 7822,
    "92d0f2bc97f74f70": 7823,
    "9623a5f09b4a02a4": 7824,
    "9640a67c9b670330": 7825,
    "96c3a4709bea0124": 7826,
    "a064ad0ca58b09c0": 7827,
    "ad457a90b26bd744": 7828,
    "bc26fa635c2c20c0": 7829,
    "c0be794560c39fa2": 7830,
    "ee1e85f0f344e2a4": 7831,
    "c9e5cc4eca38321a0": 7832,
    "2498ce8ac49df4e778": 7833,
    "98526cf538579351ec": 7834,
    "e05282f58057a95234": 7835,
    "3049c0a8fa4a130ec58": 7836,
    "9040e8905a413af6258": 7837,
    "ke": 7838,
    "363": 7839,
    "78f": 7840,
    "e5c": 7841,
    "\u2581d0": 7842,
    "1e20": 7843,
    "247d": 7844,
    "48d5": 7845,
    "5fac": 7846,
    "7054": 7847,
    "91cc": 7848,
    "9240": 7849,
    "939a": 7850,
    "b095": 7851,
    "d11c": 7852,
    "e8eb": 7853,
    "itch": 7854,
    "94632": 7855,
    "a08d5": 7856,
    "a6604": 7857,
    "anager": 7858,
    "lgitem": 7859,
    "\u25810x10f": 7860,
    "\u25810x38c": 7861,
    "\u25810x4d0": 7862,
    "\u25810x510": 7863,
    "ameters": 7864,
    "\u25810x10020": 7865,
    "\u25810x100098": 7866,
    "\u25810x441804": 7867,
    "\u25810x5b2be8": 7868,
    "\u25810x6ab818": 7869,
    "\u25810x7d2790": 7870,
    "parameters": 7871,
    "\u25810x1210e8e": 7872,
    "\u25810x1210e8f": 7873,
    "\u25810x1210e91": 7874,
    "\u25810x1210e92": 7875,
    "\u25810x1210e93": 7876,
    "\u25810x1210e95": 7877,
    "\u25810x1210e96": 7878,
    "\u25810x1210e97": 7879,
    "\u25810x1210e98": 7880,
    "\u25810x1210e99": 7881,
    "\u25810x1210e9a": 7882,
    "\u25810x1210e9b": 7883,
    "\u25810x1210e9c": 7884,
    "\u25810x1210e9d": 7885,
    "\u25810x1210e9e": 7886,
    "\u25810x1210ecd": 7887,
    "\u25810x1210ece": 7888,
    "\u25810x1210ecf": 7889,
    "\u25810x1210ed1": 7890,
    "\u25810x1210ed2": 7891,
    "\u25810x1210ed3": 7892,
    "\u25810x1210ed4": 7893,
    "\u25810x1210ed5": 7894,
    "\u25810x1210ed6": 7895,
    "\u25810x1210ed7": 7896,
    "\u25810x1210ed9": 7897,
    "\u25810x1210eda": 7898,
    "\u25810x1210edb": 7899,
    "\u25810x1210edc": 7900,
    "\u25810x1210edd": 7901,
    "\u25810x1210ede": 7902,
    "\u25810x1210edf": 7903,
    "\u25810x1210ee1": 7904,
    "\u25810x1210ee2": 7905,
    "\u25810x1210ee3": 7906,
    "\u25810x1210ee4": 7907,
    "\u25810x1210ee5": 7908,
    "\u25810x1210ee6": 7909,
    "\u25810x1210ee7": 7910,
    "\u25810x1210ee9": 7911,
    "\u25810x1210eea": 7912,
    "\u25810x1210eeb": 7913,
    "\u25810x1210eec": 7914,
    "\u25810x1210eed": 7915,
    "\u25810x1210eee": 7916,
    "\u25810x1210eef": 7917,
    "\u25810x1210ef1": 7918,
    "\u25810x1210ef2": 7919,
    "\u25810x1210ef3": 7920,
    "\u25810x1210ef5": 7921,
    "\u25810x1210ef6": 7922,
    "\u25810x1210ef7": 7923,
    "\u25810x1210ef9": 7924,
    "\u25810x1210efa": 7925,
    "\u25810x1210efb": 7926,
    "\u25810x1210efd": 7927,
    "\u25810x1210efe": 7928,
    "\u25810x1210eff": 7929,
    "\u25810x1210f01": 7930,
    "\u25810x1210f02": 7931,
    "\u25810x1210f03": 7932,
    "\u25810x1210f04": 7933,
    "\u25810x1210f05": 7934,
    "\u25810x1210f06": 7935,
    "\u25810x1210f07": 7936,
    "\u25810x1210f09": 7937,
    "\u25810x1210f0a": 7938,
    "\u25810x1210f0b": 7939,
    "\u25810x1210f0d": 7940,
    "\u25810x1210f0e": 7941,
    "\u25810x1210f0f": 7942,
    "\u25810x1210f11": 7943,
    "\u25810x1210f12": 7944,
    "\u25810x1210f13": 7945,
    "\u25810x1210f15": 7946,
    "\u25810x1210f16": 7947,
    "\u25810x1210f17": 7948,
    "\u25810x1210f19": 7949,
    "\u25810x1210f1a": 7950,
    "\u25810x1210f1b": 7951,
    "\u25810x1210f1c": 7952,
    "\u25810x1210f1d": 7953,
    "\u25810x1210f1e": 7954,
    "\u25810x1210f1f": 7955,
    "\u25810x1210f21": 7956,
    "\u25810x1210f22": 7957,
    "\u25810x1210f23": 7958,
    "\u25810x1210f25": 7959,
    "\u25810x1210f26": 7960,
    "\u25810x1210f27": 7961,
    "\u25810x1210f29": 7962,
    "\u25810x1210f2a": 7963,
    "\u25810x1210f2b": 7964,
    "\u25810x1210f2c": 7965,
    "\u25810x1210f2d": 7966,
    "\u25810x1210f2e": 7967,
    "\u25810x1210f2f": 7968,
    "\u25810x1210f31": 7969,
    "\u25810x1210f32": 7970,
    "\u25810x1210f33": 7971,
    "\u25810x1210f36": 7972,
    "\u25810x1210f37": 7973,
    "\u25810x1210f38": 7974,
    "\u25810x1210f39": 7975,
    "\u25810x1210f3a": 7976,
    "\u25810x1210f3b": 7977,
    "\u25810x1210f3c": 7978,
    "\u25810x1210f3d": 7979,
    "\u25810x1210f3e": 7980,
    "\u25810x1210f3f": 7981,
    "\u25810x1210f41": 7982,
    "\u25810x1210f42": 7983,
    "\u25810x1210f43": 7984,
    "\u25810x1210f45": 7985,
    "\u25810x1210f46": 7986,
    "\u25810x1210f47": 7987,
    "\u25810x1210f48": 7988,
    "\u25810x1210f49": 7989,
    "\u25810x1210f4a": 7990,
    "\u25810x1210f4b": 7991,
    "\u25810x1210f4d": 7992,
    "\u25810x1210f4e": 7993,
    "\u25810x1210f4f": 7994,
    "\u25810x1210f51": 7995,
    "\u25810x1210f52": 7996,
    "\u25810x1210f53": 7997,
    "\u25810x1210f55": 7998,
    "\u25810x1210f56": 7999,
    "\u25810x1210f57": 8000,
    "\u25810x1210f59": 8001,
    "\u25810x1210f5a": 8002,
    "\u25810x1210f5b": 8003,
    "\u25810x1210f5d": 8004,
    "\u25810x1210f5e": 8005,
    "\u25810x1210f5f": 8006,
    "\u25810x1210f61": 8007,
    "\u25810x1210f62": 8008,
    "\u25810x1210f63": 8009,
    "\u25810x1210f65": 8010,
    "\u25810x1210f66": 8011,
    "\u25810x1210f67": 8012,
    "\u25810x1210f69": 8013,
    "\u25810x1210f6a": 8014,
    "\u25810x1210f6b": 8015,
    "\u25810x1210f6c": 8016,
    "\u25810x1210f6d": 8017,
    "\u25810x1210f6e": 8018,
    "\u25810x1210f6f": 8019,
    "\u25810x1210f71": 8020,
    "\u25810x1210f72": 8021,
    "\u25810x1210f73": 8022,
    "\u25810x1210f74": 8023,
    "\u25810x1210f75": 8024,
    "\u25810x1210f76": 8025,
    "\u25810x1210f77": 8026,
    "\u25810x1210f78": 8027,
    "\u25810x1210f79": 8028,
    "\u25810x1210f7a": 8029,
    "\u25810x1210f7b": 8030,
    "\u25810x1210f7c": 8031,
    "\u25810x1210f7d": 8032,
    "\u25810x1210f7e": 8033,
    "\u25810x1210f7f": 8034,
    "\u25810x1210f81": 8035,
    "\u25810x1210f82": 8036,
    "\u25810x1210f83": 8037,
    "\u25810x1210f85": 8038,
    "\u25810x1210f86": 8039,
    "\u25810x1210f87": 8040,
    "\u25810x1210f89": 8041,
    "\u25810x1210f8a": 8042,
    "\u25810x1210f8b": 8043,
    "\u25810x1210f8d": 8044,
    "\u25810x1210f8e": 8045,
    "\u25810x1210f8f": 8046,
    "\u25810x1210f91": 8047,
    "\u25810x1210f92": 8048,
    "\u25810x1210f93": 8049,
    "\u25810x1210f95": 8050,
    "\u25810x1210f96": 8051,
    "\u25810x1210f97": 8052,
    "\u25810x1210f99": 8053,
    "\u25810x1210f9a": 8054,
    "\u25810x10005c64": 8055,
    "\u2581writeprocessmemory": 8056,
    "845": 8057,
    "f10": 8058,
    "f12": 8059,
    "11d8": 8060,
    "503c": 8061,
    "689c": 8062,
    "81de": 8063,
    "8c5f": 8064,
    "9233": 8065,
    "9382": 8066,
    "a876": 8067,
    "ab35": 8068,
    "adcc": 8069,
    "b1b7": 8070,
    "b442": 8071,
    "c236": 8072,
    "1471c": 8073,
    "40914": 8074,
    "5a7d4": 8075,
    "64094": 8076,
    "74920": 8077,
    "75000": 8078,
    "8c5fe": 8079,
    "a1105": 8080,
    "a8a97": 8081,
    "b3f6c": 8082,
    "b7923": 8083,
    "dac38": 8084,
    "f1756": 8085,
    "43d4e0": 8086,
    "5beea1": 8087,
    "5ccfae": 8088,
    "5e9b56": 8089,
    "91e599": 8090,
    "9880e7": 8091,
    "a31b44": 8092,
    "aab166": 8093,
    "b0c5a8": 8094,
    "e89bfb": 8095,
    "\u25810x613": 8096,
    "1808c5f": 8097,
    "1cfdd12": 8098,
    "309e0da": 8099,
    "b5b2330": 8100,
    "bc2cb46": 8101,
    "\u25810x4564": 8102,
    "\u25810x56fc": 8103,
    "1031471c": 8104,
    "104c46e0": 8105,
    "14c8c5fe": 8106,
    "18d5bf20": 8107,
    "545f1756": 8108,
    "640941e4": 8109,
    "741d9eaa": 8110,
    "94632344": 8111,
    "9d1dac38": 8112,
    "a0705f6c": 8113,
    "a08d5ff8": 8114,
    "a1105dec": 8115,
    "a6574920": 8116,
    "a8a97e68": 8117,
    "b792340c": 8118,
    "f86b3f6c": 8119,
    "c0c2e4468": 8120,
    "\u2581translat": 8121,
    "187f43d4e0": 8122,
    "309e0da9f8": 8123,
    "e89bfba1b0": 8124,
    "\u25810x1210d98": 8125,
    "\u2581destroyen": 8126,
    "668bb5b2330": 8127,
    "b0c5a85a7d4": 8128,
    "dosdatetime": 8129,
    "7b508278e11bc2cb46": 8130,
    "68ae05dfce794632344": 8131,
    "794564039fa21808c5f": 8132,
    "\u2581outputdebugstringw": 8133,
    "769b23e47bc1809880e7": 8134,
    "98526cf538579351ec5cb": 8135,
    "f3847168f8aace1cfdd12": 8136,
    "41fa275c472084104c46e0": 8137,
    "51a1e7ec56c844a05beea1": 8138,
    "544e9cb05974f9645e9b56": 8139,
    "54ca9ca059f0f9545f1756": 8140,
    "8798dfdc8cbf3c9091e599": 8141,
    "a064ad0ca58b09c0aab166": 8142,
    "\u2581filetimetodosdatetime": 8143,
    "\u2581createenvironmentblock": 8144,
    "201351f0c018784d741d9eaa": 8145,
    "2498ce8ac49df4e778a31b44": 8146,
    "59bc88685ee2e51c640941e4": 8147,
    "74f71b647a1d78187f43d4e0": 8148,
    "91aee83496d544e89bfba1b0": 8149,
    "92d0f2bc97f74f709d1dac38": 8150,
    "93c0f07c98e74d309e0da9f8": 8151,
    "9623a5f09b4a02a4a0705f6c": 8152,
    "9640a67c9b670330a08d5ff8": 8153,
    "96c3a4709bea0124a1105dec": 8154,
    "ad457a90b26bd744b792340c": 8155,
    "b10e69b4b634c668bb5b2330": 8156,
    "b823f7af58291e0c0c2e4468": 8157,
    "bc26fa635c2c20c01031471c": 8158,
    "c0be794560c39fa214c8c5fe": 8159,
    "e05282f58057a952345ccfae": 8160,
    "ee1e85f0f344e2a4f86b3f6c": 8161,
    "\u2581destroyenvironmentblock": 8162,
    "c9e5cc4eca38321a0a8a97e68": 8163,
    "b85038ee58555f4b0c5a85a7d4": 8164,
    "3049c0a8fa4a130ec58a6574920": 8165,
    "9040e8905a413af625818d5bf20": 8166,
    "3b0": 8167,
    "a28": 8168,
    "cac": 8169,
    "utd": 8170,
    "14ab": 8171,
    "2694": 8172,
    "671c": 8173,
    "74c8": 8174,
    "9cd1": 8175,
    "a158": 8176,
    "a73a": 8177,
    "ab7d": 8178,
    "b526": 8179,
    "b8d3": 8180,
    "bc13": 8181,
    "db77": 8182,
    "ec73": 8183,
    "erat": 8184,
    "f6e4": 8185,
    "f708": 8186,
    "b5b34": 8187,
    "\u25810x4e5": 8188,
    "\u25810x592": 8189,
    "\u25810x607": 8190,
    "\u25810x4032": 8191,
    "\u25810x42b0": 8192,
    "\u25810x8cf0": 8193,
    "\u25810x8f50": 8194,
    "\u2581llseek": 8195,
    "\u25810x12e00": 8196,
    "\u25810x44c418": 8197,
    "\u25810x1210f9b": 8198,
    "\u25810x1210f9c": 8199,
    "\u25810x1210f9d": 8200,
    "\u25810x1210f9e": 8201,
    "\u25810x1210f9f": 8202,
    "\u25810x1210fa1": 8203,
    "\u25810x1210fa3": 8204,
    "\u25810x1210fa4": 8205,
    "\u25810x1210fa5": 8206,
    "\u25810x1210fa6": 8207,
    "\u25810x1210fa7": 8208,
    "\u25810x1210fa8": 8209,
    "\u25810x1210fa9": 8210,
    "\u25810x1210faa": 8211,
    "\u25810x1210fab": 8212,
    "\u25810x1210fac": 8213,
    "\u25810x1210fad": 8214,
    "\u25810x1210fae": 8215,
    "\u25810x1210faf": 8216,
    "\u25810x1210fb1": 8217,
    "\u25810x1210fb2": 8218,
    "\u25810x1210fb3": 8219,
    "\u25810x1210fb4": 8220,
    "\u25810x1210fb5": 8221,
    "\u25810x1210fb6": 8222,
    "\u25810x1210fb7": 8223,
    "\u25810x1210fb9": 8224,
    "\u25810x1210fba": 8225,
    "\u25810x1210fbb": 8226,
    "\u25810x1210fbc": 8227,
    "\u25810x1210fbd": 8228,
    "\u25810x1210fbe": 8229,
    "\u25810x1210fbf": 8230,
    "\u2581fatalerror": 8231,
    "205": 8232,
    "34f": 8233,
    "501": 8234,
    "929": 8235,
    "bed": 8236,
    "\u2581eh": 8237,
    "1478": 8238,
    "1790": 8239,
    "28e5": 8240,
    "2b10": 8241,
    "3f3c": 8242,
    "63a5": 8243,
    "6663": 8244,
    "82ef": 8245,
    "8ae8": 8246,
    "a19c": 8247,
    "b5dd": 8248,
    "d550": 8249,
    "d874": 8250,
    "dc3a": 8251,
    "e85c": 8252,
    "f004": 8253,
    "\u2581log": 8254,
    "1b308": 8255,
    "1c643": 8256,
    "36ac5": 8257,
    "5fac0": 8258,
    "60e3a": 8259,
    "692f9": 8260,
    "70bf6": 8261,
    "a121f": 8262,
    "a636b": 8263,
    "ab5d1": 8264,
    "adcfd": 8265,
    "f85e2": 8266,
    "\u2581call": 8267,
    "14fe44": 8268,
    "1dfc1b": 8269,
    "40a841": 8270,
    "846a31": 8271,
    "9aeb46": 8272,
    "a33406": 8273,
    "ae402f": 8274,
    "bcb890": 8275,
    "f60bd8": 8276,
    "output": 8277,
    "\u25810x9c8": 8278,
    "16d3db4": 8279,
    "1dacb60": 8280,
    "1e00b90": 8281,
    "2c50718": 8282,
    "36ac5b0": 8283,
    "60e3a3c": 8284,
    "88afd7c": 8285,
    "d8366d7": 8286,
    "\u25810x413a": 8287,
    "\u25810x41c6": 8288,
    "\u25810x99e0": 8289,
    "1c643db2": 8290,
    "58970bf6": 8291,
    "5c6849a1": 8292,
    "5fac04b0": 8293,
    "a2440914": 8294,
    "a596bc48": 8295,
    "a5b3bcd4": 8296,
    "a636bac8": 8297,
    "ab7da5fc": 8298,
    "adcfdb44": 8299,
    "dccdec5b": 8300,
    "ee00dec5b": 8301,
    "2c63c1b308": 8302,
    "3c22c50718": 8303,
[...]
