{
    "<pad>": 0,
    "<unk>": 1,
    "<mask>": 2,
    "\u25810": 3,
    "\u25810x": 4,
    "00": 5,
    "er": 6,
    "ne": 7,
    "32": 8,
    "\u2581k": 9,
    "l32": 10,
    "erne": 11,
    "ernel32": 12,
    "\u2581kernel32": 13,
    "\u25810x1": 14,
    "et": 15,
    "\u25810x0": 16,
    "\u25810x4": 17,
    "al": 18,
    "ee": 19,
    "get": 20,
    "ti": 21,
    "ec": 22,
    "\u25810xf": 23,
    "in": 24,
    "\u2581get": 25,
    "0000": 26,
    "\u25810x7": 27,
    "ad": 28,
    "oc": 29,
    "re": 30,
    "000": 31,
    "st": 32,
    "eee": 33,
    "\u25810xfeee": 34,
    "iti": 35,
    "\u25810x12": 36,
    "one": 37,
    "le": 38,
    "ss": 39,
    "val": 40,
    "pr": 41,
    "ls": 42,
    "ue": 43,
    "value": 44,
    "proc": 45,
    "\u25810x121": 46,
    "\u25810x77": 47,
    "getvalue": 48,
    "lsgetvalue": 49,
    "on": 50,
    "cal": 51,
    "ar": 52,
    "sec": 53,
    "secti": 54,
    "riti": 55,
    "ritical": 56,
    "riticalsecti": 57,
    "\u2581n": 58,
    "or": 59,
    "\u2581none": 60,
    "\u2581getproc": 61,
    "\u25810xfeee000": 62,
    "add": 63,
    "ress": 64,
    "address": 65,
    "\u2581c": 66,
    "\u2581getprocaddress": 67,
    "en": 68,
    "loc": 69,
    "us": 70,
    "\u2581s": 71,
    "ter": 72,
    "user": 73,
    "\u2581user": 74,
    "000000": 75,
    "de": 76,
    "\u2581user32": 77,
    "f0": 78,
    "\u2581m": 79,
    "ff": 80,
    "\u25810x1211": 81,
    "ecriticalsecti": 82,
    "\u25810x77000000": 83,
    "\u25810x40": 84,
    "ap": 85,
    "la": 86,
    "\u25810x46": 87,
    "\u2581t": 88,
    "\u2581f": 89,
    "\u2581in": 90,
    "err": 91,
    "har": 92,
    "error": 93,
    "last": 94,
    "lasterror": 95,
    "a0": 96,
    "\u25810xfeee0001": 97,
    "\u2581tlsgetvalue": 98,
    "co": 99,
    "\u25810xfeee00": 100,
    "an": 101,
    "iz": 102,
    "em": 103,
    "aliz": 104,
    "itializ": 105,
    "\u2581l": 106,
    "he": 107,
    "\u2581initializ": 108,
    "xt": 109,
    "\u2581initializecriticalsecti": 110,
    "\u2581en": 111,
    "90": 112,
    "po": 113,
    "heap": 114,
    "next": 115,
    "alloc": 116,
    "\u2581char": 117,
    "\u2581charnext": 118,
    "str": 119,
    "is": 120,
    "\u2581heap": 121,
    "te": 122,
    "\u2581set": 123,
    "\u25810x8": 124,
    "\u25810x5": 125,
    "rt": 126,
    "and": 127,
    "40": 128,
    "poin": 129,
    "\u25810xfa0": 130,
    "pointer": 131,
    "\u2581flsgetvalue": 132,
    "depointer": 133,
    "\u2581d": 134,
    "ow": 135,
    "\u25810x2": 136,
    "\u2581is": 137,
    "\u2581w": 138,
    "\u2581ms": 139,
    "lea": 140,
    "\u25810x45": 141,
    "ing": 142,
    "by": 143,
    "d0": 144,
    "a5": 145,
    "\u25810x100": 146,
    "bc": 147,
    "\u25810x41": 148,
    "vc": 149,
    "onex": 150,
    "cm": 151,
    "nt": 152,
    "string": 153,
    "read": 154,
    "\u2581msvc": 155,
    "\u2581msvcrt": 156,
    "oad": 157,
    "\u2581getlasterror": 158,
    "fi": 159,
    "\u2581initializecriticalsectionex": 160,
    "\u2581load": 161,
    "10": 162,
    "00000": 163,
    "\u2581setlasterror": 164,
    "\u25810x3": 165,
    "\u2581heapalloc": 166,
    "\u25810x40a5": 167,
    "\u25810x10": 168,
    "inf": 169,
    "id": 170,
    "local": 171,
    "e4": 172,
    "\u25810x43": 173,
    "\u2581enco": 174,
    "\u2581encodepointer": 175,
    "\u25810x1000": 176,
    "\u2581charnextw": 177,
    "\u25810xc": 178,
    "\u25810x45f0": 179,
    "cmp": 180,
    "hand": 181,
    "\u25810x1210": 182,
    "93": 183,
    "f8": 184,
    "ind": 185,
    "78": 186,
    "byte": 187,
    "ecriticalsection": 188,
    "18": 189,
    "leav": 190,
    "\u2581leav": 191,
    "\u2581leavecriticalsection": 192,
    "ffff": 193,
    "\u2581enter": 194,
    "criticalsecti": 195,
    "criticalsection": 196,
    "\u2581entercriticalsection": 197,
    "\u2581mem": 198,
    "\u2581memcmp": 199,
    "mo": 200,
    "yst": 201,
    "ystem": 202,
    "\u25810x41f0": 203,
    "ll": 204,
    "70": 205,
    "\u25810x41f040": 206,
    "\u25810x400000": 207,
    "60": 208,
    "info": 209,
    "50": 210,
    "unt": 211,
    "\u2581charnexta": 212,
    "c0": 213,
    "vi": 214,
    "ul": 215,
    "li": 216,
    "indow": 217,
    "\u25810x4690": 218,
    "du": 219,
    "eco": 220,
    "\u2581initializecriticalsection": 221,
    "ac": 222,
    "count": 223,
    "\u25810x4e4": 224,
    "ess": 225,
    "\u25810x42": 226,
    "locale": 227,
    "dule": 228,
    "module": 229,
    "ed": 230,
    "30": 231,
    "ex": 232,
    "ur": 233,
    "\u2581getmodule": 234,
    "sle": 235,
    "\u25810x7d": 236,
    "20": 237,
    "dbc": 238,
    "\u2581dll": 239,
    "tr": 240,
    "slead": 241,
    "\u2581isdbc": 242,
    "\u2581isdbcslead": 243,
    "\u2581isdbcsleadbyte": 244,
    "\u25810x46d0": 245,
    "\u2581loadstring": 246,
    "\u25810x4093": 247,
    "b0": 248,
    "handle": 249,
    "ulti": 250,
    "idec": 251,
    "idechar": 252,
    "indows": 253,
    "e0": 254,
    "\u2581windows": 255,
    "\u2581deco": 256,
    "\u2581decodepointer": 257,
    "ea": 258,
    "ent": 259,
    "file": 260,
    "28": 261,
    "sp": 262,
    "\u25810x6": 263,
    "readp": 264,
    "op": 265,
    "bad": 266,
    "\u25810x40a5d": 267,
    "\u2581isbad": 268,
    "\u25810xc000": 269,
    "readptr": 270,
    "\u2581isbadreadptr": 271,
    "\u2581getc": 272,
    "\u25810xff": 273,
    "spin": 274,
    "spincount": 275,
    "andspincount": 276,
    "\u2581initializecriticalsectionandspincount": 277,
    "ce": 278,
    "80": 279,
    "\u2581getlocale": 280,
    "94": 281,
    "fr": 282,
    "\u2581system": 283,
    "\u25810x1211f": 284,
    "66": 285,
    "\u2581system32": 286,
    "\u25810x46f0": 287,
    "14": 288,
    "om": 289,
    "\u25810x44": 290,
    "ate": 291,
    "10000": 292,
    "infoa": 293,
    "it": 294,
    "\u25810x7e": 295,
    "cc": 296,
    "yp": 297,
    "98": 298,
    "br": 299,
    "ual": 300,
    "\u2581loadstringa": 301,
    "b8": 302,
    "tet": 303,
    "ary": 304,
    "virt": 305,
    "virtual": 306,
    "ment": 307,
    "\u25810x78": 308,
    "process": 309,
    "rent": 310,
    "urrent": 311,
    "f4": 312,
    "\u25810xf00": 313,
    "\u25810xfffff": 314,
    "brary": 315,
    "\u25810xfffffff": 316,
    "12": 317,
    "ect": 318,
    "64": 319,
    "\u25810x10c": 320,
    "a8": 321,
    "\u2581a": 322,
    "let": 323,
    "\u2581virtual": 324,
    "ag": 325,
    "38": 326,
    "34": 327,
    "di": 328,
    "\u25810x1211c": 329,
    "58": 330,
    "74": 331,
    "hread": 332,
    "free": 333,
    "d8": 334,
    "ey": 335,
    "tion": 336,
    "68": 337,
    "qu": 338,
    "\u2581getst": 339,
    "c4": 340,
    "\u2581multi": 341,
    "bytet": 342,
    "bytetow": 343,
    "\u2581multibytetow": 344,
    "\u2581multibytetowidechar": 345,
    "\u2581getlocaleinfoa": 346,
    "\u25810x47": 347,
    "c8": 348,
    "a4": 349,
    "d4": 350,
    "e8": 351,
    "\u25810xfeee001": 352,
    "library": 353,
    "quer": 354,
    "lo": 355,
    "lock": 356,
    "\u2581cre": 357,
    "me": 358,
    "69": 359,
    "hi": 360,
    "\u25810x400": 361,
    "\u25810x4378": 362,
    "ype": 363,
    "un": 364,
    "b4": 365,
    "na": 366,
    "def": 367,
    "\u2581getcurrent": 368,
    "\u25810x1211d": 369,
    "key": 370,
    "15": 371,
    "75": 372,
    "\u2581local": 373,
    "fc": 374,
    "filet": 375,
    "\u25810x7de": 376,
    "thread": 377,
    "\u2581loadlibrary": 378,
    "\u2581gets": 379,
    "rst": 380,
    "ri": 381,
    "d10000": 382,
    "\u25810x77d10000": 383,
    "\u25810x1c": 384,
    "\u2581re": 385,
    "\u2581inter": 386,
    "\u25810x9": 387,
    "age": 388,
    "var": 389,
    "up": 390,
    "cmap": 391,
    "\u2581lcmap": 392,
    "\u2581lcmapstring": 393,
    "2c": 394,
    "\u25810x1210e": 395,
    "7c": 396,
    "24": 397,
    "handlew": 398,
    "ch": 399,
    "\u2581interlock": 400,
    "\u2581p": 401,
    "\u25810x1210f": 402,
    "\u2581getmodulehandlew": 403,
    "26": 404,
    "\u2581g": 405,
    "rect": 406,
    "\u25810x90": 407,
    "tom": 408,
    "1c": 409,
    "\u2581ap": 410,
    "56": 411,
    "\u2581getsystem": 412,
    "54": 413,
    "query": 414,
    "\u2581interlocked": 415,
    "\u2581heapfree": 416,
    "5c": 417,
    "\u2581getmodulehand": 418,
    "19": 419,
    "ers": 420,
    "ab": 421,
    "tomulti": 422,
    "\u2581widechar": 423,
    "tomultibyte": 424,
    "\u2581widechartomultibyte": 425,
    "rement": 426,
    "\u25810x4610": 427,
    "open": 428,
    "\u2581getmodulehandlea": 429,
    "\u25810x770": 430,
    "rector": 431,
    "\u2581create": 432,
    "ol": 433,
    "\u25811": 434,
    "\u2581virtualquery": 435,
    "aa": 436,
    "3c": 437,
    "\u25810x12117": 438,
    "vw": 439,
    "so": 440,
    "\u25810x20": 441,
    "\u25810xffffffff": 442,
    "dc": 443,
    "lm": 444,
    "director": 445,
    "\u25810x1211c18": 446,
    "xy": 447,
    "xyz": 448,
    "klm": 449,
    "nop": 450,
    "ghi": 451,
    "uvw": 452,
    "qrst": 453,
    "uvwxyz": 454,
    "\u2581abc": 455,
    "nopqrst": 456,
    "defghi": 457,
    "klmnopqrst": 458,
    "\u2581abcdefghi": 459,
    "klmnopqrstuvwxyz": 460,
    "\u2581localalloc": 461,
    "infow": 462,
    "\u25810x18": 463,
    "\u25810x3f": 464,
    "orm": 465,
    "mm": 466,
    "\u25810x70": 467,
    "\u2581reg": 468,
    "91": 469,
    "\u2581getti": 470,
    "\u25810xcd": 471,
    "71": 472,
    "3d": 473,
    "6c": 474,
    "exw": 475,
    "\u25810x1211e": 476,
    "9c": 477,
    "\u25810xfeee0004": 478,
    "f5": 479,
    "ear": 480,
    "ck": 481,
    "\u2581getfilet": 482,
    "\u2581getfiletype": 483,
    "wa": 484,
    "dhandle": 485,
    "fa": 486,
    "f9": 487,
    "\u2581lstr": 488,
    "art": 489,
    "\u25810x12119": 490,
    "\u2581getstdhandle": 491,
    "44": 492,
    "ckcount": 493,
    "\u2581gettickcount": 494,
    "vers": 495,
    "1a": 496,
    "of": 497,
    "emp": 498,
    "se": 499,
    "\u25810x104": 500,
    "\u25810xfeee0": 501,
    "67": 502,
    "\u25810x5f8": 503,
    "directory": 504,
    "versi": 505,
    "at": 506,
    "ron": 507,
    "3e": 508,
    "\u25810x5f800000": 509,
    "sset": 510,
    "sw": 511,
    "\u2581lcmapstringw": 512,
    "mea": 513,
    "\u25812": 514,
    "1000": 515,
    "\u2581loadstringw": 516,
    "\u25810x7d90": 517,
    "b7": 518,
    "\u2581var": 519,
    "lsset": 520,
    "lssetvalue": 521,
    "inc": 522,
    "viron": 523,
    "88": 524,
    "dr": 525,
    "\u2581ex": 526,
    "\u2581read": 527,
    "16": 528,
    "ut": 529,
    "vironment": 530,
    "lsalloc": 531,
    "\u25810xa": 532,
    "\u25810x54": 533,
    "db": 534,
    "\u25810xfeee0002": 535,
    "35": 536,
    "increment": 537,
    "\u2581interlockedincrement": 538,
    "3f": 539,
    "filena": 540,
    "\u25810xfeee0000": 541,
    "\u25810x14": 542,
    "l66": 543,
    "\u25810x78000000": 544,
    "\u2581b": 545,
    "artup": 546,
    "earch": 547,
    "\u25810x4c": 548,
    "bf": 549,
    "b2": 550,
    "\u2581h": 551,
    "da": 552,
    "l6660": 553,
    "\u2581find": 554,
    "df": 555,
    "\u2581getcurrentthread": 556,
    "comm": 557,
    "\u25810x200": 558,
    "\u25810xfeee002": 559,
    "\u25810xfeee004": 560,
    "\u2581getstartup": 561,
    "rite": 562,
    "api": 563,
    "\u2581getmodulefilena": 564,
    "a40": 565,
    "1e": 566,
    "line": 567,
    "39": 568,
    "\u25810x79": 569,
    "\u25810x40a": 570,
    "ng": 571,
    "\u2581search": 572,
    "valid": 573,
    "ation": 574,
    "drl6660": 575,
    "b5": 576,
    "\u2581apis": 577,
    "37": 578,
    "\u25810xfeee0003": 579,
    "b9": 580,
    "84": 581,
    "b6": 582,
    "andline": 583,
    "\u25810x80": 584,
    "\u2581fr": 585,
    "\u25810x4670": 586,
    "\u2581getcurrentthreadid": 587,
    "\u2581getcomm": 588,
    "\u2581getcommandline": 589,
    "\u2581open": 590,
    "ware": 591,
    "tware": 592,
    "\u2581temp": 593,
    "\u25810x33": 594,
    "\u2581loadlibraryexw": 595,
    "ba": 596,
    "\u2581getlocaleinfow": 597,
    "f6": 598,
    "92": 599,
    "vironmentstring": 600,
    "\u2581o": 601,
    "oftware": 602,
    "drl6660drl6660": 603,
    "e7": 604,
    "\u2581hkey": 605,
    "bd": 606,
    "\u2581software": 607,
    "17": 608,
    "\u25810x88": 609,
    "res": 610,
    "ic": 611,
    "e5": 612,
    "f7": 613,
    "\u2581co": 614,
    "\u25810x4350": 615,
    "\u25810x49": 616,
    "\u2581getcp": 617,
    "\u2581getcpinfo": 618,
    "e10000": 619,
    "\u25810x77e10000": 620,
    "int": 621,
    "\u25810x7de0": 622,
    "\u2581flssetvalue": 623,
    "\u25810x435": 624,
    "lose": 625,
    "vironmentstringsw": 626,
    "bu": 627,
    "\u25810x40934": 628,
    "\u25810x43780": 629,
    "a2": 630,
    "\u25810xfeee005": 631,
    "\u2581getversi": 632,
    "11": 633,
    "96": 634,
    "um": 635,
    "\u2581flsalloc": 636,
    "\u25817": 637,
    "be": 638,
    "\u2581de": 639,
    "\u25810x800": 640,
    "\u25810xf002": 641,
    "\u25810xf001": 642,
    "\u25810xf003": 643,
    "\u25810xfeee0005": 644,
    "\u2581x": 645,
    "\u25810x3394": 646,
    "ve": 647,
    "\u2581getcurrentprocess": 648,
    "eex": 649,
    "dd": 650,
    "789": 651,
    "36": 652,
    "\u2581str": 653,
    "a6": 654,
    "form": 655,
    "97": 656,
    "95": 657,
    "\u2581ad": 658,
    "\u25810x8000": 659,
    "\u25810x7f": 660,
    "api32": 661,
    "locales": 662,
    "\u25810xfeee008": 663,
    "e6": 664,
    "ot": 665,
    "window": 666,
    "\u25810x7a": 667,
    "\u25810x7b": 668,
    "\u2581lstrle": 669,
    "22": 670,
    "1234": 671,
    "es": 672,
    "onso": 673,
    "56789": 674,
    "\u258101234": 675,
    "\u25810123456789": 676,
    "from": 677,
    "55": 678,
    "\u25810x8c": 679,
    "\u2581adv": 680,
    "\u2581advapi32": 681,
    "76": 682,
    "pres": 683,
    "type": 684,
    "\u25810xfff": 685,
    "filea": 686,
    "onsole": 687,
    "\u25810x7e70": 688,
    "cep": 689,
    "tu": 690,
    "yo": 691,
    "\u25810x4c4": 692,
    "\u25810x48": 693,
    "\u25810x7c": 694,
    "directoryw": 695,
    "present": 696,
    "enu": 697,
    "\u2581loadlibrarya": 698,
    "e2": 699,
    "a9": 700,
    "ime": 701,
    "f1": 702,
    "vari": 703,
    "\u2581locales": 704,
    "\u25817z": 705,
    "lob": 706,
    "a7": 707,
    "\u25810x7000": 708,
    "\u25810x526": 709,
    "ception": 710,
    "\u2581glob": 711,
    "\u2581current": 712,
    "list": 713,
    "menu": 714,
    "ila": 715,
    "\u2581sh": 716,
    "d5": 717,
    "\u2581gdi": 718,
    "\u25810x102": 719,
    "72": 720,
    "wor": 721,
    "dex": 722,
    "\u25810x73": 723,
    "f2": 724,
    "filew": 725,
    "cp": 726,
    "33": 727,
    "\u25810x50": 728,
    "\u25810x1f4": 729,
    "\u2581getsystemti": 730,
    "ber": 731,
    "dec": 732,
    "\u2581win": 733,
    "filetime": 734,
    "\u2581virtualalloc": 735,
    "pool": 736,
    "eb": 737,
    "\u25810x7f8": 738,
    "\u25810x21000": 739,
    "\u2581lcmapstringex": 740,
    "\u2581lread": 741,
    "ra": 742,
    "\u25810x40a5ce": 743,
    "\u25810x40a5d0": 744,
    "\u25810x40a5d2": 745,
    "\u25810x40a5d4": 746,
    "\u25810x40a5d6": 747,
    "\u25810x40a5d8": 748,
    "\u25810x40a5da": 749,
    "\u25810x1f400": 750,
    "\u2581ws": 751,
    "write": 752,
    "to": 753,
    "print": 754,
    "3a": 755,
    "mess": 756,
    "\u25810x52": 757,
    "work": 758,
    "8c": 759,
    "fil": 760,
    "9d": 761,
    "9a": 762,
    "\u2581getstring": 763,
    "\u25810x120": 764,
    "bo": 765,
    "b1": 766,
    "ting": 767,
    "ith": 768,
    "900": 769,
    "cpy": 770,
    "\u2581gdi32": 771,
    "processor": 772,
    "\u25810x3f75": 773,
    "fd": 774,
    "\u25810x44f8": 775,
    "\u25810xfeee0006": 776,
    "\u2581al": 777,
    "typew": 778,
    "\u2581strn": 779,
    "\u25810x169": 780,
    "\u2581getstringtypew": 781,
    "\u2581geten": 782,
    "\u25810x7d91": 783,
    "b3": 784,
    "4c": 785,
    "\u2581li": 786,
    "fea": 787,
    "\u2581l1": 788,
    "\u2581fi": 789,
    "\u2581strncmp": 790,
    "\u25810x4d": 791,
    "31": 792,
    "\u2581page": 793,
    "\u25810x76": 794,
    "ture": 795,
    "mew": 796,
    "\u2581getac": 797,
    "menuinfo": 798,
    "\u25810xfeee006": 799,
    "48": 800,
    "ob": 801,
    "\u25810x12116": 802,
    "sfiletime": 803,
    "\u25810x4a": 804,
    "\u2581getstartupinfoa": 805,
    "\u25810xd": 806,
    "e9": 807,
    "\u2581regopen": 808,
    "\u2581regopenkey": 809,
    "all": 810,
    "yper": 811,
    "forman": 812,
    "\u2581setmenuinfo": 813,
    "\u2581quer": 814,
    "\u2581queryper": 815,
    "\u2581queryperforman": 816,
    "feature": 817,
    "\u2581isprocessor": 818,
    "featurepresent": 819,
    "\u2581isprocessorfeaturepresent": 820,
    "\u2581getacp": 821,
    "\u2581core": 822,
    "\u25810x7f800": 823,
    "con": 824,
    "7d": 825,
    "a1": 826,
    "\u2581getprocess": 827,
    "\u2581getmodulefilenamea": 828,
    "decrement": 829,
    "\u2581interlockeddecrement": 830,
    "variab": 831,
    "inform": 832,
    "set": 833,
    "\u2581getcommandlinea": 834,
    "b00": 835,
    "79": 836,
    "\u25810xfeee0007": 837,
    "sour": 838,
    "\u25810x75": 839,
    "\u2581getsystemtimea": 840,
    "\u2581getsystemtimeasfiletime": 841,
    "ant": 842,
    "exa": 843,
    "\u25810x72": 844,
    "unter": 845,
    "\u25810x74": 846,
    "29": 847,
    "7e": 848,
    "dexception": 849,
    "\u2581wsprint": 850,
    "ceco": 851,
    "cecounter": 852,
    "\u2581queryperformancecounter": 853,
    "\u2581lstrlena": 854,
    "filter": 855,
    "af": 856,
    "\u2581readwrite": 857,
    "unhandle": 858,
    "dexceptionfilter": 859,
    "unhandledexceptionfilter": 860,
    "\u25810x71": 861,
    "\u2581com": 862,
    "\u2581library": 863,
    "\u25810xb": 864,
    "put": 865,
    "\u25810x460": 866,
    "ble": 867,
    "\u2581api": 868,
    "\u25810x4750": 869,
    "\u2581global": 870,
    "information": 871,
    "code": 872,
    "\u2581getsystemdirectoryw": 873,
    "\u2581getcurrentprocessid": 874,
    "\u25810x1211dc0": 875,
    "\u25810x56": 876,
    "e1": 877,
    "\u25810x12115": 878,
    "ction": 879,
    "99": 880,
    "acc": 881,
    "first": 882,
    "25": 883,
    "num": 884,
    "cre": 885,
    "d6": 886,
    "dll": 887,
    "defa": 888,
    "\u25810x4e": 889,
    "defaul": 890,
    "\u2581with": 891,
    "\u2581wc": 892,
    "\u25810x7de1": 893,
    "lic": 894,
    "ack": 895,
    "atet": 896,
    "\u2581alter": 897,
    "\u2581bor": 898,
    "\u2581altered": 899,
    "\u25810xfeee01": 900,
    "\u25810x7ee": 901,
    "hel": 902,
    "\u2581getmodulefilenamew": 903,
    "\u25810x5266": 904,
    "\u25810x771": 905,
    "mode": 906,
    "\u2581delet": 907,
    "\u2581getstartupinfow": 908,
    "\u25810x12117f8": 909,
    "77": 910,
    "\u25810x30": 911,
    "2e": 912,
    "\u2581r": 913,
    "d1": 914,
    "\u25810x4c42": 915,
    "met": 916,
    "close": 917,
    "9e": 918,
    "messag": 919,
    "\u25810x42a40": 920,
    "00c": 921,
    "adwork": 922,
    "5f": 923,
    "\u25810x44f9": 924,
    "\u2581pf": 925,
    "7a": 926,
    "\u2581setunhandledexceptionfilter": 927,
    "\u2581getthread": 928,
    "\u25810x60": 929,
    "\u2581regi": 930,
    "handl": 931,
    "eeen": 932,
    "\u2581freeen": 933,
    "bb": 934,
    "nd": 935,
    "\u25810x220": 936,
    "\u25810x569": 937,
    "d9": 938,
    "resour": 939,
    "f3": 940,
    "d2": 941,
    "\u2581free": 942,
    "\u25810xe": 943,
    "pa": 944,
    "\u2581invalid": 945,
    "\u2581sl": 946,
    "308": 947,
    "fe": 948,
    "\u2581getversionex": 949,
    "\u2581i": 950,
    "908": 951,
    "106": 952,
    "ad0": 953,
    "\u2581isvalid": 954,
    "land": 955,
    "\u2581borland": 956,
    "default": 957,
    "c6": 958,
    "\u2581getenvironmentstringsw": 959,
    "52": 960,
    "\u2581getprocessheap": 961,
    "\u2581key": 962,
    "\u25810x1211e0": 963,
    "stru": 964,
    "\u2581getcommandlinew": 965,
    "\u25810x4b": 966,
    "\u25810x12116d8": 967,
    "\u2581freeenvironmentstringsw": 968,
    "7b": 969,
    "\u25810xfffffff6": 970,
    "\u25810x12114": 971,
    "create": 972,
    "eep": 973,
    "\u2581getversion": 974,
    "va": 975,
    "fw": 976,
    "db10": 977,
    "\u2581wsprintfw": 978,
    "\u2581ole": 979,
    "\u25810xfffffff5": 980,
    "directorya": 981,
    "\u25810xfffffff4": 982,
    "ys": 983,
    "struction": 984,
    "\u25810x1211918": 985,
    "86": 986,
    "date": 987,
    "for": 988,
    "5e": 989,
    "\u25810x7ec": 990,
    "13": 991,
    "\u2581close": 992,
    "number": 993,
    "\u25810x78c": 994,
    "drl6660drl6660drl6660drl6660": 995,
    "\u25810x78c00000": 996,
    "\u25810x2a": 997,
    "\u2581sleep": 998,
    "\u2581createt": 999,
    "der": 1000,
    "bug": 1001,
    "db10106": 1002,
    "\u25810x1db10106": 1003,
    "tim": 1004,
    "version": 1005,
    "hreadpool": 1006,
    "\u25810x5265c": 1007,
    "002": 1008,
    "vaila": 1009,
    "vailable": 1010,
    "access": 1011,
    "\u2581getconsole": 1012,
    "th": 1013,
    "73": 1014,
    "\u25810x7e71": 1015,
    "\u25810xffc": 1016,
    "5d": 1017,
    "debug": 1018,
    "\u2581write": 1019,
    "\u2581wa": 1020,
    "urs": 1021,
    "1b": 1022,
    "\u25810x13": 1023,
    "\u25810x7830": 1024,
    "fb": 1025,
    "\u25810x1211dd4": 1026,
    "62": 1027,
    "\u2581findfirst": 1028,
    "ute": 1029,
    "\u25810x44f8e0": 1030,
    "achi": 1031,
    "rive": 1032,
    "ating": 1033,
    "achine": 1034,
    "\u2581machine": 1035,
    "timer": 1036,
    "3b": 1037,
    "\u25810x19": 1038,
    "variable": 1039,
    "lor": 1040,
    "realloc": 1041,
    "\u25810x5f5": 1042,
    "load": 1043,
    "ition": 1044,
    "\u2581available": 1045,
    "term": 1046,
    "eexw": 1047,
    "dition": 1048,
    "ies": 1049,
    "\u2581init": 1050,
    "\u25813": 1051,
    "your": 1052,
    "\u2581closehandle": 1053,
    "\u2581setfile": 1054,
    "\u2581findclose": 1055,
    "d3": 1056,
    "9f": 1057,
    "\u25810x105": 1058,
    "\u25810x422": 1059,
    "\u25810xf0019": 1060,
    "\u25810x8a": 1061,
    "ster": 1062,
    "\u25810x53": 1063,
    "\u2581e": 1064,
    "\u2581instruction": 1065,
    "\u25810x3f75f": 1066,
    "i64": 1067,
    "\u2581xmm": 1068,
    "\u2581xmmi64": 1069,
    "\u2581instructions": 1070,
    "\u25810x82": 1071,
    "day": 1072,
    "\u25810x5f500000": 1073,
    "\u25810x169bf": 1074,
    "2000": 1075,
    "resource": 1076,
    "\u2581tlssetvalue": 1077,
    "nw": 1078,
    "processlist": 1079,
    "\u2581getconsoleprocesslist": 1080,
    "\u25810x69": 1081,
    "\u2581regopenkeyexw": 1082,
    "page": 1083,
    "ae": 1084,
    "ver": 1085,
    "\u2581tlsalloc": 1086,
    "itprocess": 1087,
    "180": 1088,
    "\u25810x8810": 1089,
    "\u25810x4015": 1090,
    "\u25810x40a5cc": 1091,
    "\u25810x40a5dc": 1092,
    "lus": 1093,
    "\u25810x9000": 1094,
    "\u25810x50000": 1095,
    "82": 1096,
    "\u25810x24": 1097,
    "ro": 1098,
    "uage": 1099,
    "\u25810x429": 1100,
    "input": 1101,
    "lass": 1102,
    "\u2581heapcreate": 1103,
    "nguage": 1104,
    "ee0": 1105,
    "\u25810x7810": 1106,
    "codepage": 1107,
    "\u2581isvalidcodepage": 1108,
    "\u2581getthreadlocale": 1109,
    "\u2581access": 1110,
    "c2": 1111,
    "85": 1112,
    "\u2581heaprealloc": 1113,
    "ecount": 1114,
    "65": 1115,
    "d7": 1116,
    "\u25810x43500": 1117,
    "ile": 1118,
    "pro": 1119,
    "ity": 1120,
    "ef": 1121,
    "45": 1122,
    "tri": 1123,
    "bute": 1124,
    "tribute": 1125,
    "ilanguage": 1126,
    "42": 1127,
    "loating": 1128,
    "\u25810x569b00": 1129,
    "lsfree": 1130,
    "748": 1131,
    "bc0": 1132,
    "61": 1133,
    "63": 1134,
    "mp": 1135,
    "ata": 1136,
    "948": 1137,
    "ursor": 1138,
    "\u2581lstrcpy": 1139,
    "handlecount": 1140,
    "point": 1141,
    "\u2581sethandlecount": 1142,
    "\u25810x70cc": 1143,
    "a3": 1144,
    "\u2581register": 1145,
    "7f": 1146,
    "\u2581freelibrary": 1147,
    "\u25810x32": 1148,
    "\u2581findfirstfilew": 1149,
    "\u25810x8d": 1150,
    "\u25810x40152c": 1151,
    "ion": 1152,
    "51": 1153,
    "ofc": 1154,
    "\u2581setthread": 1155,
    "\u25810x46b0": 1156,
    "\u25810x47b0": 1157,
    "2a": 1158,
    "ttribute": 1159,
    "fromstr": 1160,
    "930": 1161,
    "\u2581malloc": 1162,
    "\u25810x5265c14": 1163,
    "780": 1164,
    "1d": 1165,
    "280": 1166,
    "\u2581shel": 1167,
    "\u25810x1211758": 1168,
    "\u25810x40933d": 1169,
    "\u25810x40933e": 1170,
    "\u25810x40933f": 1171,
    "\u25810x409340": 1172,
    "\u25810x409341": 1173,
    "\u25810x409342": 1174,
    "\u25810x409343": 1175,
    "\u25810x28": 1176,
    "arg": 1177,
    "\u25810x12118": 1178,
    "ock": 1179,
    "\u25810x17": 1180,
    "older": 1181,
    "\u25810x1211908": 1182,
    "\u2581map": 1183,
    "eric": 1184,
    "\u25810x7aa0": 1185,
    "640": 1186,
    "edc": 1187,
    "\u25810x12114b8": 1188,
    "pri": 1189,
    "fileattribute": 1190,
    "end": 1191,
    "icon": 1192,
    "\u25810x79d0": 1193,
    "1f": 1194,
    "\u25810x1211718": 1195,
    "wait": 1196,
    "\u25810x8b": 1197,
    "\u2581setfilepointer": 1198,
    "\u25810x15": 1199,
    "mage": 1200,
    "ord": 1201,
    "color": 1202,
    "not": 1203,
    "6a": 1204,
    "\u2581app": 1205,
    "\u2581getnumber": 1206,
    "\u25810x4967": 1207,
    "ang": 1208,
    "ofconsole": 1209,
    "\u2581getnumberofconsole": 1210,
    "directories": 1211,
    "\u2581readfile": 1212,
    "\u25810x43540": 1213,
    "\u2581flsfree": 1214,
    "cursor": 1215,
    "\u25810x4094": 1216,
    "53": 1217,
    "59": 1218,
    "gi": 1219,
    "ero": 1220,
    "23": 1221,
    "\u25810x1211e04": 1222,
    "aps": 1223,
    "ma": 1224,
    "\u2581getmessag": 1225,
    "ser": 1226,
    "\u25810x430": 1227,
    "\u2581setdefault": 1228,
    "inputs": 1229,
    "\u25810x1211c98": 1230,
    "\u2581getnumberofconsoleinputs": 1231,
    "27": 1232,
    "\u2581process": 1233,
    "\u25810x1211f8": 1234,
    "keyw": 1235,
    "89": 1236,
    "dlldirectories": 1237,
    "\u2581setdefaultdlldirectories": 1238,
    "sa": 1239,
    "yn": 1240,
    "ditionvariable": 1241,
    "\u25810xfeee0008": 1242,
    "b40": 1243,
    "temp": 1244,
    "own": 1245,
    "\u2581drive": 1246,
    "\u2581se": 1247,
    "ho": 1248,
    "\u25810x409": 1249,
    "\u25810x22": 1250,
    "you": 1251,
    "boar": 1252,
    "\u25810x437": 1253,
    "\u2581st": 1254,
    "\u2581con": 1255,
    "\u25810x38": 1256,
    "folder": 1257,
    "d000": 1258,
    "e3": 1259,
    "508": 1260,
    "\u2581exitprocess": 1261,
    "\u2581gen": 1262,
    "\u2581gettemp": 1263,
    "\u2581floating": 1264,
    "\u25810x11": 1265,
    "\u2581out": 1266,
    "\u25810x2000": 1267,
    "804": 1268,
    "\u25810x7ea": 1269,
    "ecute": 1270,
    "5b": 1271,
    "\u25810x4c42c0": 1272,
    "\u25810x8f": 1273,
    "\u25810x567": 1274,
    "\u25810x1e": 1275,
    "\u2581relea": 1276,
    "\u2581globalalloc": 1277,
    "\u25810xfeee0009": 1278,
    "\u2581nt": 1279,
    "time": 1280,
    "\u2581initterm": 1281,
    "\u2581wcs": 1282,
    "\u2581process32": 1283,
    "\u25810xfeee000b": 1284,
    "\u25810xfeee000a": 1285,
    "\u25810x44f928": 1286,
    "\u25810x16": 1287,
    "\u25810x1211dcc": 1288,
    "\u2581loadcursor": 1289,
    "\u25810xfeee000c": 1290,
    "46": 1291,
    "bit": 1292,
    "\u2581creates": 1293,
    "57": 1294,
    "slen": 1295,
    "\u2581wcslen": 1296,
    "\u2581virtualfree": 1297,
    "\u25810x1211b": 1298,
    "stringa": 1299,
    "inal": 1300,
    "\u2581wcscpy": 1301,
    "\u2581lstrlenw": 1302,
    "\u25810xfeee0010": 1303,
    "rw": 1304,
    "cec": 1305,
    "\u2581image": 1306,
    "\u25810xfeee000d": 1307,
    "\u25810xfeee000e": 1308,
    "008": 1309,
    "eext": 1310,
    "\u25810xfeee0014": 1311,
    "\u25810x2c": 1312,
    "\u25810xfeee0015": 1313,
    "low": 1314,
    "\u2581th": 1315,
    "vie": 1316,
    "\u2581exe": 1317,
    "\u25810x1210900": 1318,
    "\u25810xfeee0013": 1319,
    "\u2581mapvirtual": 1320,
    "\u25810xfeee0012": 1321,
    "\u2581generic": 1322,
    "\u25810xfeee000f": 1323,
    "\u25810xfeee0016": 1324,
    "\u25810x1210ec": 1325,
    "\u25810xfeee0011": 1326,
    "prot": 1327,
    "ynch": 1328,
    "\u2581file": 1329,
    "\u2581mapvirtualkeyw": 1330,
    "\u2581vari": 1331,
    "\u25810x1f": 1332,
    "\u2581getfile": 1333,
    "c5": 1334,
    "004": 1335,
    "ct": 1336,
    "\u2581wait": 1337,
    "\u2581ole32": 1338,
    "\u25810x51a": 1339,
    "\u25810x21": 1340,
    "6e": 1341,
    "ownload": 1342,
    "eextra": 1343,
    "\u2581getversionexa": 1344,
    "\u2581delete": 1345,
    "\u2581imagelist": 1346,
    "6b": 1347,
    "2f": 1348,
    "sof": 1349,
    "\u2581synch": 1350,
    "\u2581shell32": 1351,
    "\u25810x410": 1352,
    "2d": 1353,
    "2b": 1354,
    "\u25810x434": 1355,
    "\u2581clo": 1356,
    "ordinal": 1357,
    "\u25810x4000": 1358,
    "\u25810x566": 1359,
    "vice": 1360,
    "\u2581ordinal": 1361,
    "6f": 1362,
    "\u25810xcc": 1363,
    "\u2581creat": 1364,
    "\u2581loadlibraryw": 1365,
    "\u2581getw": 1366,
    "eextrainfo": 1367,
    "\u2581getmessageextrainfo": 1368,
    "\u25810x1211fd8": 1369,
    "\u2581regopenkeyexa": 1370,
    "fo": 1371,
    "cs": 1372,
    "cadwork": 1373,
    "\u25810x1211f7c": 1374,
    "ame": 1375,
    "\u2581writefile": 1376,
    "\u25810x700c": 1377,
    "\u25810x1a": 1378,
    "\u25810x67": 1379,
    "cf": 1380,
    "protect": 1381,
    "vicec": 1382,
    "f10000": 1383,
    "ts": 1384,
    "\u25810x1210f8": 1385,
    "c7": 1386,
    "\u2581getuser": 1387,
    "call": 1388,
    "\u25810x1211fd0": 1389,
    "\u25810x7f00": 1390,
    "map": 1391,
    "de9": 1392,
    "21": 1393,
    "\u25810x69000000": 1394,
    "comp": 1395,
    "\u2581lstrcmp": 1396,
    "\u25810x1211dc8": 1397,
    "\u25810x77f10000": 1398,
    "5a": 1399,
    "ision": 1400,
    "flow": 1401,
    "\u25810x704c": 1402,
    "\u2581virtualprotect": 1403,
    "update": 1404,
    "\u25810x708c": 1405,
    "\u2581no": 1406,
    "back": 1407,
    "41": 1408,
    "net": 1409,
    "9000": 1410,
    "\u2581waitfor": 1411,
    "og": 1412,
    "off": 1413,
    "\u25810x1211528": 1414,
    "\u25810xfeee0017": 1415,
    "allock": 1416,
    "\u25810xa0": 1417,
    "\u25810x423": 1418,
    "\u25810x84": 1419,
    "\u25810x40a3": 1420,
    "\u2581deletecriticalsection": 1421,
    "\u25810xfeee0018": 1422,
    "\u2581createfilew": 1423,
    "sk": 1424,
    "\u25810x1210d": 1425,
    "\u25810x4c32": 1426,
    "\u2581globallock": 1427,
    "\u25810x57": 1428,
    "\u2581closet": 1429,
    "\u2581closethreadpool": 1430,
    "\u2581createthreadpool": 1431,
    "\u25810xfeee0019": 1432,
    "9b": 1433,
    "5000": 1434,
    "isting": 1435,
    "rwlock": 1436,
    "sc": 1437,
    "c3": 1438,
    "\u2581getversionexw": 1439,
    "ref": 1440,
    "\u25810x79f0": 1441,
    "\u2581code": 1442,
    "\u25810x42b40": 1443,
    "\u25810x101": 1444,
    "\u25810xfeee001a": 1445,
    "lp": 1446,
    "\u25810x83": 1447,
    "\u25810x43640": 1448,
    "messagea": 1449,
    "the": 1450,
    "\u25810xfeee005f": 1451,
    "ub": 1452,
    "econ": 1453,
    "\u2581createfilea": 1454,
    "8a": 1455,
    "am": 1456,
    "class": 1457,
    "refer": 1458,
    "yarg": 1459,
    "bers": 1460,
    "ange": 1461,
    "\u25810x58": 1462,
    "\u2581getfileattribute": 1463,
    "\u2581di": 1464,
    "text": 1465,
    "b08": 1466,
    "\u2581inst": 1467,
    "files": 1468,
    "board": 1469,
    "yscolor": 1470,
    "\u2581getsyscolor": 1471,
    "pal": 1472,
    "palet": 1473,
    "\u2581ch": 1474,
    "rag": 1475,
    "c08": 1476,
    "message": 1477,
    "\u25810xfeee0040": 1478,
    "soft": 1479,
    "cb": 1480,
    "\u25810x12119c0": 1481,
    "aaaa": 1482,
    "ca": 1483,
    "ger": 1484,
    "\u25810x4ab0": 1485,
    "pare": 1486,
    "c9": 1487,
    "help": 1488,
    "\u25810x214": 1489,
    "\u25810x7850": 1490,
    "c04": 1491,
    "tin": 1492,
    "\u2581ma": 1493,
    "ccc": 1494,
    "\u25810x4554": 1495,
    "f08": 1496,
    "gear": 1497,
    "\u2581codegear": 1498,
    "d08": 1499,
    "\u25810x3c": 1500,
    "\u25810x8e": 1501,
    "und": 1502,
    "94c": 1503,
    "div": 1504,
    "\u25810x10000": 1505,
    "\u25810xfeee001c": 1506,
    "\u25810x1210e8": 1507,
    "offile": 1508,
    "icro": 1509,
    "f74": 1510,
    "\u2581existing": 1511,
    "184": 1512,
    "\u25814": 1513,
    "e44": 1514,
    "\u25810x1210e0": 1515,
    "icrosoft": 1516,
    "\u2581compare": 1517,
    "708": 1518,
    "\u25810xfde9": 1519,
    "de0": 1520,
    "\u25810x1210f4": 1521,
    "\u25810x484": 1522,
    "\u2581output": 1523,
    "\u2581outputdebug": 1524,
    "938": 1525,
    "oper": 1526,
    "lphi": 1527,
    "\u2581delphi": 1528,
    "\u25810x4615": 1529,
    "\u25810xfeee001b": 1530,
    "ence": 1531,
    "\u2581un": 1532,
    "\u25810x4f": 1533,
    "\u25810xfeee001d": 1534,
    "\u2581drag": 1535,
    "eck": 1536,
    "d04": 1537,
    "a50": 1538,
    "8e": 1539,
    "\u2581releas": 1540,
    "initializ": 1541,
    "\u25810x5a": 1542,
    "\u25810x43b7": 1543,
    "informationby": 1544,
    "\u25810x34": 1545,
    "cd": 1546,
    "mem": 1547,
    "\u2581pr": 1548,
    "\u2581variant": 1549,
    "ust": 1550,
    "\u25810x420": 1551,
    "lect": 1552,
    "\u25810x47c0": 1553,
    "ember": 1554,
    "808": 1555,
    "bits": 1556,
    "\u25810x42900": 1557,
    "ockob": 1558,
    "\u2581getstockob": 1559,
    "ctl32": 1560,
    "\u2581comctl32": 1561,
    "ive": 1562,
    "6d": 1563,
    "\u25810x68": 1564,
    "\u2581fibers": 1565,
    "cli": 1566,
    "ename": 1567,
    "3000": 1568,
    "\u25810x8cc0": 1569,
    "stry": 1570,
    "\u25810x1210e4": 1571,
    "300": 1572,
    "\u2581getsysteminfo": 1573,
    "alog": 1574,
    "trol": 1575,
    "inst": 1576,
    "\u2581microsoft": 1577,
    "\u2581getde": 1578,
    "320": 1579,
    "\u25810x1210ee": 1580,
    "\u25810x1210f0": 1581,
    "a04": 1582,
    "\u25810x98": 1583,
    "callback": 1584,
    "variant": 1585,
    "pooltimer": 1586,
    "188": 1587,
    "\u25810x1211948": 1588,
    "\u2581getdc": 1589,
    "redu": 1590,
    "threadp": 1591,
    "referredu": 1592,
    "threadpreferredu": 1593,
    "threadpreferreduilanguage": 1594,
    "threadpreferreduilanguages": 1595,
    "\u25810x1b": 1596,
    "\u25810x29": 1597,
    "\u2581shget": 1598,
    "debugger": 1599,
    "debuggerpresent": 1600,
    "47": 1601,
    "pt": 1602,
    "operation": 1603,
    "drl6660drl6660drl6660drl6660drl6660drl6660drl6660drl6660": 1604,
    "metri": 1605,
    "988": 1606,
    "\u25810x7ec0": 1607,
    "c1": 1608,
    "\u25810x7de4": 1609,
    "\u25810x7de5": 1610,
    "\u25810x7930": 1611,
    "clus": 1612,
    "\u25810x567a40": 1613,
    "change": 1614,
    "cea": 1615,
    "\u2581loadcursora": 1616,
    "\u2581outputdebugstringa": 1617,
    "\u25810x4790": 1618,
    "\u25810x1210ed": 1619,
    "atex": 1620,
    "\u25810x7ee0": 1621,
    "\u2581loadicon": 1622,
    "\u2581isdebuggerpresent": 1623,
    "\u25810x1211cc0": 1624,
    "clusive": 1625,
    "rwlockex": 1626,
    "rwlockexclusive": 1627,
    "\u25810x4600": 1628,
    "\u25810x25": 1629,
    "\u25810x1804": 1630,
    "\u2581createa": 1631,
    "\u25810xffff": 1632,
    "\u25810xfeee001e": 1633,
    "4b": 1634,
    "\u25810x1211a": 1635,
    "vicecaps": 1636,
    "\u2581getdevicecaps": 1637,
    "\u25810x1211958": 1638,
    "verflow": 1639,
    "errormode": 1640,
    "\u2581seterrormode": 1641,
    "a256": 1642,
    "view": 1643,
    "\u25810xfeee001f": 1644,
    "metrics": 1645,
    "\u2581getsystemmetrics": 1646,
    "\u2581sha256": 1647,
    "\u25810x437808": 1648,
    "\u25810x437806": 1649,
    "\u25810x43780a": 1650,
    "\u25810x43780c": 1651,
    "\u25810x43780e": 1652,
    "\u25810x437810": 1653,
    "\u25810x437812": 1654,
    "\u25810x437814": 1655,
    "\u25810x437816": 1656,
    "\u25810x437818": 1657,
    "\u25810x43781a": 1658,
    "\u25810x43781c": 1659,
    "\u25810x43781e": 1660,
    "\u25810x4d70": 1661,
    "\u2581process32next": 1662,
    "\u25810x7ee00": 1663,
    "afile": 1664,
    "want": 1665,
    "een": 1666,
    "\u25810xfeee0020": 1667,
    "\u25810x120fa": 1668,
    "system": 1669,
    "ke": 1670,
    "\u2581crt": 1671,
    "\u25810x44d4": 1672,
    "\u2581rand": 1673,
    "ace": 1674,
    "\u25810x1211f28": 1675,
    "\u25810x1211748": 1676,
    "\u25810x7d10": 1677,
    "\u25810x2e": 1678,
    "\u25810x1211728": 1679,
    "43": 1680,
    "\u25810x198": 1681,
    "\u25810x4229": 1682,
    "bstr": 1683,
    "bstrfrom": 1684,
    "\u2581varbstrfrom": 1685,
    "service": 1686,
    "buff": 1687,
    "\u25810x8a40": 1688,
    "lush": 1689,
    "\u25810x19a": 1690,
    "saf": 1691,
    "urity": 1692,
    "\u2581currentversion": 1693,
    "\u2581execute": 1694,
    "ip": 1695,
    "\u25810x40933c": 1696,
    "\u25810x40f6": 1697,
    "\u25810x88a0": 1698,
    "\u25810x1211bc0": 1699,
    "e88": 1700,
    "5500000": 1701,
    "\u25810x1212000": 1702,
    "\u25810x7700": 1703,
    "conditionvariable": 1704,
    "\u25810x64": 1705,
    "\u25810x8ad0": 1706,
    "emap": 1707,
    "\u25810x409344": 1708,
    "isk": 1709,
    "\u25810x4418": 1710,
    "\u258132": 1711,
    "\u25810x1211ee0": 1712,
    "\u25810x4228": 1713,
    "0000000": 1714,
    "\u25810x1d": 1715,
    "sing": 1716,
    "ool": 1717,
    "out": 1718,
    "\u2581getd": 1719,
    "ink": 1720,
    "\u2581z": 1721,
    "f000": 1722,
    "\u25810x40a3d": 1723,
    "\u25810x99": 1724,
    "cy": 1725,
    "\u2581remo": 1726,
    "\u2581getfileattributesw": 1727,
    "\u2581select": 1728,
    "\u2581comparestring": 1729,
    "b48": 1730,
    "\u2581cop": 1731,
    "\u2581registerclass": 1732,
    "\u25810x1210ea": 1733,
    "\u25810x2439": 1734,
    "\u2581tr": 1735,
    "\u25810xa000": 1736,
    "uter": 1737,
    "leob": 1738,
    "\u25810x94": 1739,
    "\u25810x3f75f60": 1740,
    "metafile": 1741,
    "computer": 1742,
    "\u25810x4710": 1743,
    "\u25810x23": 1744,
    "\u2581initializes": 1745,
    "\u2581getsystemtime": 1746,
    "\u25810x91": 1747,
    "localename": 1748,
    "security": 1749,
    "\u25810x12119ac": 1750,
    "fe8": 1751,
    "\u2581releasedc": 1752,
    "\u25810x63": 1753,
    "\u2581lstrcmpa": 1754,
    "ill": 1755,
    "81": 1756,
    "\u25810x3000": 1757,
    "b000": 1758,
    "\u25810x519": 1759,
    "a84": 1760,
    "\u2581copy": 1761,
    "\u25810x2d": 1762,
    "\u25810x1211c90": 1763,
    "8d": 1764,
    "\u25810x42332": 1765,
    "\u25810x1211e08": 1766,
    "aff": 1767,
    "\u25810x40b": 1768,
    "\u25810x3f75f30": 1769,
    "\u25810x4c4308": 1770,
    "74c": 1771,
    "\u2581olea": 1772,
    "mask": 1773,
    "cad": 1774,
    "\u25810x42990": 1775,
    "sup": 1776,
    "\u2581plea": 1777,
    "eent": 1778,
    "668": 1779,
    "lation": 1780,
    "licence": 1781,
    "ory": 1782,
    "f80": 1783,
    "lw": 1784,
    "\u25810x1075": 1785,
    "box": 1786,
    "c8c": 1787,
    "\u2581mon": 1788,
    "\u25810x7cd0": 1789,
    "\u2581createsemap": 1790,
    "4e": 1791,
    "bar": 1792,
    "93c": 1793,
    "\u25810x80c0": 1794,
    "stre": 1795,
    "hor": 1796,
    "\u25810x4371": 1797,
    "108": 1798,
    "ryp": 1799,
    "\u25810x1211308": 1800,
    "\u25810x1211578": 1801,
    "essage": 1802,
    "ly": 1803,
    "\u2581flush": 1804,
    "ab8": 1805,
    "\u2581control": 1806,
    "\u2581localfree": 1807,
    "oyou": 1808,
    "\u2581enum": 1809,
    "hot": 1810,
    "\u2581rt": 1811,
    "e48": 1812,
    "\u2581rtl": 1813,
    "\u25810x1211c80": 1814,
    "\u25810x67000000": 1815,
    "qa": 1816,
    "\u25810x5d": 1817,
    "1a0": 1818,
    "ires": 1819,
    "\u2581em": 1820,
    "ray": 1821,
    "\u25810x3e": 1822,
    "\u25810x4290": 1823,
    "\u25810x97": 1824,
    "\u25810x1211f64": 1825,
    "\u25810x1211f20": 1826,
    "\u2581au": 1827,
    "\u25810x7df0": 1828,
    "iled": 1829,
    "formatex": 1830,
    "\u25810x4730": 1831,
    "\u25810x37": 1832,
    "248": 1833,
    "ull": 1834,
    "spec": 1835,
    "cef": 1836,
    "keyboard": 1837,
    "\u2581u": 1838,
    "metafilebits": 1839,
    "\u25810x7de8": 1840,
    "\u25810x7de9": 1841,
    "\u2581cryp": 1842,
    "\u2581gettime": 1843,
    "\u25810x1211fcc": 1844,
    "\u2581getenvironment": 1845,
    "edi": 1846,
    "\u25810x7d00": 1847,
    "\u25810x1211ccc": 1848,
    "ec0": 1849,
    "a00": 1850,
    "singleob": 1851,
    "\u2581cadwork": 1852,
    "100": 1853,
    "\u25810x47a0": 1854,
    "880": 1855,
    "\u25810x8001": 1856,
    "\u2581getsystemdirectorya": 1857,
    "messagew": 1858,
    "\u25810x7ed": 1859,
    "\u2581update": 1860,
    "wantto": 1861,
    "stream": 1862,
    "b44": 1863,
    "\u25810x7340": 1864,
    "\u25810x1211efc": 1865,
    "\u2581waitforsingleob": 1866,
    "87": 1867,
    "\u2581loadlibraryexa": 1868,
    "ernet": 1869,
    "\u25810x49c8": 1870,
    "with": 1871,
    "\u25810xe0": 1872,
    "\u25810x4e5": 1873,
    "\u25810x7dec": 1874,
    "\u25810x7ded": 1875,
    "oy": 1876,
    "\u258120": 1877,
    "buffers": 1878,
    "nex": 1879,
    "\u25810x1211780": 1880,
    "\u25810x85": 1881,
    "\u25810x1211fd4": 1882,
    "\u25810x55": 1883,
    "\u2581start": 1884,
    "\u2581mar": 1885,
    "lwapi": 1886,
    "\u2581shlwapi": 1887,
    "104": 1888,
    "utex": 1889,
    "\u25810x1211e30": 1890,
    "\u25810x1211f2c": 1891,
    "\u25810x2f": 1892,
    "\u25810x1211dd0": 1893,
    "\u25810xfee": 1894,
    "barcad": 1895,
    "barcadero": 1896,
    "\u2581lstrcpyna": 1897,
    "\u2581embarcadero": 1898,
    "ong": 1899,
    "stroy": 1900,
    "\u2581getkeyboard": 1901,
    "\u2581nov": 1902,
    "\u25810xc00": 1903,
    "f04": 1904,
    "econditionvariable": 1905,
    "\u25810x7ad0": 1906,
    "gical": 1907,
    "inmetafilebits": 1908,
    "eexa": 1909,
    "logical": 1910,
    "\u25810x7540": 1911,
    "\u2581getlogical": 1912,
    "hen": 1913,
    "ast": 1914,
    "sn": 1915,
    "\u25810x48400": 1916,
    "rectory": 1917,
    "acqu": 1918,
    "\u2581sat": 1919,
    "\u2581msvcr": 1920,
    "\u25810x7df1": 1921,
    "ken": 1922,
    "\u25810x7090": 1923,
    "\u2581registry": 1924,
    "link": 1925,
    "\u2581crypt": 1926,
    "variablea": 1927,
    "\u25810x7c000000": 1928,
    "\u2581ntdll": 1929,
    "\u25810xfeee0021": 1930,
    "\u2581aug": 1931,
    "namea": 1932,
    "\u2581oc": 1933,
    "termin": 1934,
    "\u25810x60c6": 1935,
    "4a": 1936,
    "4d": 1937,
    "937": 1938,
    "memory": 1939,
    "\u25810xfeee0022": 1940,
    "host": 1941,
    "\u25810x44d4b8": 1942,
    "initialize": 1943,
    "e000": 1944,
    "\u2581loadicona": 1945,
    "ries": 1946,
    "teent": 1947,
    "\u25810x7714": 1948,
    "teentries": 1949,
    "\u2581wsprintfa": 1950,
    "paletteentries": 1951,
    "\u2581getwinmetafilebits": 1952,
    "\u25810xfeee008b": 1953,
    "\u2581gettempw": 1954,
    "head": 1955,
    "f0000": 1956,
    "\u25810x1211f00": 1957,
    "\u2581sun": 1958,
    "\u25810x3b": 1959,
    "\u25810x41c0": 1960,
    "f0c": 1961,
    "\u2581termin": 1962,
    "\u2581dec": 1963,
    "\u25810x2b": 1964,
    "drive": 1965,
    "\u25810xfeee0027": 1966,
    "\u25810x65": 1967,
    "\u2581getthreadpreferreduilanguages": 1968,
    "\u2581show": 1969,
    "uary": 1970,
    "\u25810xfeee0024": 1971,
    "\u2581may": 1972,
    "\u2581tue": 1973,
    "sday": 1974,
    "\u2581wed": 1975,
    "apshot": 1976,
    "profile": 1977,
    "bc8": 1978,
    "help32": 1979,
    "oolhelp32": 1980,
    "snapshot": 1981,
    "environment": 1982,
    "\u25810xfeee0026": 1983,
    "oolhelp32snapshot": 1984,
    "\u2581createtoolhelp32snapshot": 1985,
    "sti": 1986,
    "\u25810x7eab": 1987,
    "\u25810xfeee0023": 1988,
    "\u2581to": 1989,
    "\u2581dragob": 1990,
    "\u25810x1211f97": 1991,
    "\u25810xfeee0025": 1992,
    "ans": 1993,
    "\u2581download": 1994,
    "\u25810xfeee012": 1995,
    "4f": 1996,
    "\u25810x43a4": 1997,
    "\u25810x496760": 1998,
    "isp": 1999,
    "clip": 2000,
    "full": 2001,
    "acquires": 2002,
    "\u2581lock": 2003,
    "main": 2004,
    "acquiresrwlockexclusive": 2005,
    "\u2581ext": 2006,
    "\u25810xd0": 2007,
    "\u25810x36": 2008,
    "\u25810xfeee010": 2009,
    "\u2581gettempa": 2010,
    "fromstream": 2011,
    "\u25810x5638": 2012,
    "meto": 2013,
    "\u2581be": 2014,
    "\u25810x421": 2015,
    "\u2581getwindows": 2016,
    "\u25810x8811": 2017,
    "suped": 2018,
    "keall": 2019,
    "\u2581wakeall": 2020,
    "\u2581wakeallconditionvariable": 2021,
    "a44": 2022,
    "\u25810x31": 2023,
    "\u25810x566a40": 2024,
    "il": 2025,
    "\u25810x44f910": 2026,
    "\u25810x80000000": 2027,
    "\u25810x7712": 2028,
    "lec": 2029,
    "\u25810x7715": 2030,
    "98c": 2031,
    "gra": 2032,
    "\u25810x430880": 2033,
    "\u25810x41c044": 2034,
    "\u25810x35": 2035,
    "\u2581oleload": 2036,
    "variablew": 2037,
    "\u2581oleloadfromstream": 2038,
    "8b": 2039,
    "gram": 2040,
    "\u2581type": 2041,
    "f88": 2042,
    "\u2581getsystempaletteentries": 2043,
    "\u2581run": 2044,
    "\u2581mo": 2045,
    "affin": 2046,
    "itymask": 2047,
    "\u25810x4614": 2048,
    "affinitymask": 2049,
    "earray": 2050,
    "zero": 2051,
    "valu": 2052,
    "330": 2053,
    "vol": 2054,
    "\u25810x6f": 2055,
    "\u25810x4620": 2056,
    "9c0": 2057,
    "\u2581floatingpoint": 2058,
    "scri": 2059,
    "vile": 2060,
    "byzero": 2061,
    "\u25810x4960": 2062,
    "isionbyzero": 2063,
    "\u25810x86": 2064,
    "\u2581invalidvariant": 2065,
    "\u25810x437820": 2066,
    "\u2581setup": 2067,
    "\u25810x437804": 2068,
    "\u2581dra": 2069,
    "\u2581getclass": 2070,
    "208": 2071,
    "\u2581err": 2072,
    "\u2581error": 2073,
    "\u25810x437a": 2074,
    "\u25810x4e30": 2075,
    "\u25810x42992": 2076,
    "delet": 2077,
    "listhead": 2078,
    "\u2581initializeslisthead": 2079,
    "\u25810x4c32c0": 2080,
    "\u25810x1211508": 2081,
    "b14": 2082,
    "\u25810x41a0": 2083,
    "\u2581getprocessaffinitymask": 2084,
    "\u25810x409a": 2085,
    "fa2": 2086,
    "\u2581deletefilea": 2087,
    "\u2581process32nextw": 2088,
    "\u25810x169bf74": 2089,
    "edex": 2090,
    "\u25810x51af": 2091,
    "\u2581interlockedex": 2092,
    "ym": 2093,
    "\u25810xb8": 2094,
    "\u2581lstrcpynw": 2095,
    "\u25810x7910": 2096,
    "\u2581interlockedexchange": 2097,
    "script": 2098,
    "\u2581message": 2099,
    "condition": 2100,
    "bool": 2101,
    "\u2581varr": 2102,
    "\u25810x4bd0": 2103,
    "4fromstr": 2104,
    "\u25810x40a93": 2105,
    "new": 2106,
    "768": 2107,
    "6000": 2108,
    "\u25810x3b7": 2109,
    "\u25810x4df0": 2110,
    "\u25810x53000000": 2111,
    "328": 2112,
    "338": 2113,
    "\u25810x412": 2114,
    "\u2581prec": 2115,
    "\u2581point": 2116,
    "\u2581errata": 2117,
    "\u2581precision": 2118,
    "a000": 2119,
    "\u25810x4d50": 2120,
    "\u25810x7718": 2121,
    "\u25810x3a": 2122,
    "ed8": 2123,
    "\u25810xfeee014": 2124,
    "b60": 2125,
    "240": 2126,
    "\u25810x1211f30": 2127,
    "ha": 2128,
    "iv": 2129,
    "\u25810x46e0": 2130,
    "\u25818": 2131,
    "yarg1": 2132,
    "\u2581createwindow": 2133,
    "bcc": 2134,
    "\u25810x5b": 2135,
    "download": 2136,
    "\u25810xfeee0046": 2137,
    "cc4": 2138,
    "\u25810xfeee0045": 2139,
    "\u25810x1211f78": 2140,
    "current": 2141,
    "\u25810x404": 2142,
    "\u2581setenvironment": 2143,
    "\u25810x3d": 2144,
    "\u25810xa1": 2145,
    "\u25810x120faa8": 2146,
    "\u2581messagebox": 2147,
    "\u2581fmode": 2148,
    "tes": 2149,
    "\u2581getlocaleinfo": 2150,
    "volu": 2151,
    "emutex": 2152,
    "\u25810x12118f8": 2153,
    "\u2581draw": 2154,
    "\u2581comparestringex": 2155,
    "esour": 2156,
    "\u25810x3f75f8": 2157,
    "\u2581getlocaleinfoex": 2158,
    "\u25810x1211f88": 2159,
    "cc8": 2160,
    "788": 2161,
    "00210": 2162,
    "\u25810x1211928": 2163,
    "\u25810x8260": 2164,
    "vate": 2165,
    "\u25810x2439f74": 2166,
    "\u2581getfileinformationby": 2167,
    "\u25810x59": 2168,
    "\u2581getmain": 2169,
    "any": 2170,
    "speci": 2171,
    "\u2581doyou": 2172,
    "\u25810x169bf64": 2173,
    "\u25810x39": 2174,
    "b7c": 2175,
    "\u2581yo": 2176,
    "program": 2177,
    "\u25810x1210df": 2178,
    "\u25810xfeee0028": 2179,
    "69c": 2180,
    "\u2581process32first": 2181,
    "\u258117": 2182,
    "\u25810x5c": 2183,
    "ret": 2184,
    "\u25810x7d95": 2185,
    "\u25810xfeee0044": 2186,
    "heck": 2187,
    "privile": 2188,
    "\u25810x65500000": 2189,
    "\u2581setfileattribute": 2190,
    "1b4": 2191,
    "orsaf": 2192,
    "\u25810x41aa": 2193,
    "orsafearray": 2194,
    "a48": 2195,
    "descript": 2196,
    "504": 2197,
    "securitydescript": 2198,
    "ow64": 2199,
    "140": 2200,
    "volume": 2201,
    "\u25810x7bd0": 2202,
    "pack": 2203,
    "\u25810x7710": 2204,
    "a88": 2205,
    "d4c": 2206,
    "yarg2": 2207,
    "\u25810x1211f74": 2208,
    "\u25810x43f0": 2209,
    "privileg": 2210,
    "\u25810x1211c04": 2211,
    "e4c": 2212,
    "ec8": 2213,
    "\u25810x61": 2214,
    "\u25810x7d94": 2215,
    "\u25816": 2216,
    "brus": 2217,
    "\u2581registerwindow": 2218,
    "7000": 2219,
    "\u2581getuserdefault": 2220,
    "will": 2221,
    "\u25810x169bf94": 2222,
    "40c": 2223,
    "\u25810x4086": 2224,
    "\u25810x92": 2225,
    "fp": 2226,
    "\u25810x8f70": 2227,
    "68c": 2228,
    "\u2581sets": 2229,
    "\u2581getdate": 2230,
    "ffc": 2231,
    "\u2581of": 2232,
    "endoffile": 2233,
    "run": 2234,
    "\u25810x121193c": 2235,
    "\u25810x7be0": 2236,
    "\u2581beg": 2237,
    "\u25810x44180": 2238,
    "resourcew": 2239,
    "\u25810x4088": 2240,
    "\u25810x60c690": 2241,
    "\u2581version": 2242,
    "\u25810x1211e28": 2243,
    "onts": 2244,
    "\u25810x40a5a0": 2245,
    "trl": 2246,
    "\u2581aaa": 2247,
    "alogs": 2248,
    "\u2581fonts": 2249,
    "\u25810x7719": 2250,
    "\u2581findnext": 2251,
    "eme": 2252,
    "ext": 2253,
    "lex": 2254,
    "xth": 2255,
    "a08": 2256,
    "\u25810x405": 2257,
    "\u258112": 2258,
    "\u25810x1211d04": 2259,
    "localiz": 2260,
    "406": 2261,
    "e08": 2262,
    "pos": 2263,
    "ee8": 2264,
    "\u2581getcurrentdirectorya": 2265,
    "f4c": 2266,
    "\u2581localiz": 2267,
    "\u25810x563868": 2268,
    "uilanguage": 2269,
    "\u2581localization": 2270,
    "\u2581createprocess": 2271,
    "\u25810x403": 2272,
    "fac": 2273,
    "\u2581getwindow": 2274,
    "3c4": 2275,
    "\u258128": 2276,
    "\u25810x1211a04": 2277,
    "b8c": 2278,
    "\u25810x41e": 2279,
    "\u2581loadresource": 2280,
    "408": 2281,
    "34c": 2282,
    "608": 2283,
    "linkw": 2284,
    "windows": 2285,
    "sto": 2286,
    "\u25810x4096": 2287,
    "\u2581install": 2288,
    "\u2581shfolder": 2289,
    "ping": 2290,
    "884": 2291,
    "388": 2292,
    "ut32": 2293,
    "dater": 2294,
    "\u2581oleaut32": 2295,
    "\u25810x1211dfc": 2296,
    "stitu": 2297,
    "ubstitu": 2298,
    "ubstitutes": 2299,
    "\u2581fontsubstitutes": 2300,
    "ses": 2301,
    "\u2581getkeyboardtype": 2302,
    "imeto": 2303,
    "filemap": 2304,
    "\u25810x45f1": 2305,
    "filemapping": 2306,
    "985": 2307,
    "name": 2308,
    "\u25810x8a80": 2309,
    "\u2581globalfree": 2310,
    "\u25810x4428": 2311,
    "\u25810x6d": 2312,
    "\u25810xa2": 2313,
    "\u25810x7f0": 2314,
    "\u2581findresour": 2315,
    "\u25810x7a80": 2316,
    "\u25810x7ab0": 2317,
    "freesp": 2318,
    "\u2581getdisk": 2319,
    "\u2581getdiskfreesp": 2320,
    "\u25810x7150": 2321,
    "\u25810x27": 2322,
    "que": 2323,
    "\u25810xfeee0029": 2324,
    "volumeinformation": 2325,
    "\u2581getvolumeinformation": 2326,
    "instal": 2327,
    "\u25810x7ff": 2328,
    "9c2": 2329,
    "ackg": 2330,
    "\u25810x43b6": 2331,
    "ols": 2332,
    "\u25810x121194c": 2333,
    "\u2581wnet": 2334,
    "f48": 2335,
    "\u258115": 2336,
    "\u258114": 2337,
    "\u258134": 2338,
    "\u2581the": 2339,
    "\u25810xfeee015": 2340,
    "\u25810xfeee0043": 2341,
    "myarg2": 2342,
    "package": 2343,
    "3c0": 2344,
    "\u25810x73f0": 2345,
    "\u25810xfeee002d": 2346,
    "rac": 2347,
    "\u25810x508": 2348,
    "26c": 2349,
    "\u258124": 2350,
    "\u2581loadcursorw": 2351,
    "\u25815": 2352,
    "\u2581send": 2353,
    "\u25810x72a0": 2354,
    "ns": 2355,
    "a81": 2356,
    "\u25810xfeee002f": 2357,
    "\u2581getfileinformationbyhandl": 2358,
    "370": 2359,
    "\u2581destroy": 2360,
    "brush": 2361,
    "\u25810x435000": 2362,
    "\u25810x41f7": 2363,
    "lication": 2364,
    "yarg1myarg2": 2365,
    "\u25810xfeee002a": 2366,
    "\u25810x2100210": 2367,
    "polic": 2368,
    "base": 2369,
    "\u2581wts": 2370,
    "\u25810x7ec1": 2371,
    "\u25810x364": 2372,
    "ymbo": 2373,
    "\u25810x406": 2374,
    "section": 2375,
    "ymbolic": 2376,
    "\u25810x40a59e": 2377,
    "\u2581getthreaduilanguage": 2378,
    "\u25810xa4": 2379,
    "private": 2380,
    "\u25810x45f2": 2381,
    "\u25810x40a5a2": 2382,
    "\u25810x40a5a4": 2383,
    "\u25810x40a5a6": 2384,
    "\u25810x40a5a8": 2385,
    "\u25810x40a5aa": 2386,
    "2c4": 2387,
    "packageid": 2388,
    "\u2581getcurrentpackageid": 2389,
    "\u25810x4093e8": 2390,
    "\u2581dw": 2391,
    "\u25810x7690": 2392,
    "\u2581setprocess": 2393,
    "ymboliclinkw": 2394,
    "\u2581createsymboliclinkw": 2395,
    "dep": 2396,
    "\u2581corex": 2397,
    "\u25810x4093e5": 2398,
    "\u25810x4093e6": 2399,
    "\u25810x4093e7": 2400,
    "932": 2401,
    "\u25810x40a582": 2402,
    "\u25810x40a584": 2403,
    "\u25810x40a586": 2404,
    "\u25810x40a588": 2405,
    "588": 2406,
    "\u25810x40a58a": 2407,
    "\u25810x40a580": 2408,
    "\u25810xfeee002c": 2409,
    "privateprofile": 2410,
    "\u2581corexitprocess": 2411,
    "\u25810xa8": 2412,
    "\u25810x40a57e": 2413,
    "160": 2414,
    "\u25810x1211f18": 2415,
    "\u25810xfeee002b": 2416,
    "\u25810x7270": 2417,
    "\u25810x8230": 2418,
    "\u25810xfeee002e": 2419,
    "internet": 2420,
    "viewoffile": 2421,
    "\u2581freelibraryw": 2422,
    "\u25810x7300": 2423,
    "env": 2424,
    "wow64": 2425,
    "horeexw": 2426,
    "poolwait": 2427,
    "callbacks": 2428,
    "processwrite": 2429,
    "\u2581waitforthread": 2430,
    "pooltimercallbacks": 2431,
    "\u2581flushprocesswrite": 2432,
    "\u2581setthreadpoolwait": 2433,
    "\u2581createsemaphoreexw": 2434,
    "\u2581setthreadpooltimer": 2435,
    "\u2581closethreadpoolwait": 2436,
    "\u2581closethreadpooltimer": 2437,
    "\u2581createthreadpoolwait": 2438,
    "\u2581createthreadpooltimer": 2439,
    "\u2581flushprocesswritebuffers": 2440,
    "\u2581waitforthreadpooltimercallbacks": 2441,
    "urns": 2442,
    "returns": 2443,
    "ornumber": 2444,
    "hencallback": 2445,
    "hencallbackreturns": 2446,
    "\u2581getcurrentprocessornumber": 2447,
    "\u2581freelibrarywhencallbackreturns": 2448,
    "\u25810x78a0": 2449,
    "\u2581createthread": 2450,
    "ton": 2451,
    "\u25810x1211f84": 2452,
    "\u2581initializeconditionvariable": 2453,
    "earchmode": 2454,
    "\u2581setsearchmode": 2455,
    "b88": 2456,
    "ce8": 2457,
    "\u2581v": 2458,
    "atalogs": 2459,
    "atch": 2460,
    "\u25810x77e0": 2461,
    "\u25810xa7": 2462,
    "\u25810x41b0": 2463,
    "\u2581oleinitialize": 2464,
    "quit": 2465,
    "a70": 2466,
    "paint": 2467,
    "\u25810x1211ef8": 2468,
    "648": 2469,
    "\u25810x48f8": 2470,
    "tp": 2471,
    "\u25810xaa": 2472,
    "policy": 2473,
    "vchost": 2474,
    "\u25810x7900": 2475,
    "\u2581lstrcpya": 2476,
    "\u25810x4e50": 2477,
    "\u25810x1211f10": 2478,
    "\u25810xb0": 2479,
    "984": 2480,
    "\u2581uxth": 2481,
    "\u2581uxtheme": 2482,
    "bc5": 2483,
    "namew": 2484,
    "\u25810x41a044": 2485,
    "584": 2486,
    "typ": 2487,
    "token": 2488,
    "\u2581svchost": 2489,
    "\u25810x5f": 2490,
    "\u25810x4340": 2491,
    "plor": 2492,
    "500000": 2493,
    "\u2581ofresource": 2494,
    "\u2581gettickcount64": 2495,
    "ec4": 2496,
    "\u25810x1211fc4": 2497,
    "plorer": 2498,
    "\u25810x95": 2499,
    "deppolicy": 2500,
    "\u2581begin": 2501,
    "\u25810x121157c": 2502,
    "\u25810xff8": 2503,
    "\u25810xfeee0030": 2504,
    "\u2581setprocessdeppolicy": 2505,
    "\u2581createfilemapping": 2506,
    "80c": 2507,
    "\u25810x7e80": 2508,
    "\u25810x12117a4": 2509,
    "120": 2510,
    "\u25810x4093e9": 2511,
    "\u25810x4093ea": 2512,
    "\u25810x4093eb": 2513,
    "\u2581setcurrent": 2514,
    "ea8": 2515,
    "aaaaaaaa": 2516,
    "606": 2517,
    "\u25810x4630": 2518,
    "vio": 2519,
    "data": 2520,
    "\u2581mul": 2521,
    "\u25810x45f4": 2522,
    "\u2581muldiv": 2523,
    "204": 2524,
    "278": 2525,
    "\u25810x51": 2526,
    "\u25810xea": 2527,
    "\u25810xfeee0031": 2528,
    "\u25810x1211fc8": 2529,
    "cor": 2530,
    "\u25810x42c0": 2531,
    "\u25810x7717": 2532,
    "\u2581getdiskfreespac": 2533,
    "\u25810x1211cf8": 2534,
    "be8": 2535,
    "ateprocess": 2536,
    "pi": 2537,
    "\u258130": 2538,
    "\u25810x437b": 2539,
    "\u25810x4614d0": 2540,
    "c84": 2541,
    "\u2581createexw": 2542,
    "\u2581setfileinformationby": 2543,
    "\u25810xfeee003b": 2544,
    "902": 2545,
    "f8a": 2546,
    "\u2581enumsystem": 2547,
    "d88": 2548,
    "\u25810x40c": 2549,
    "\u25810x40935d": 2550,
    "\u25810x40935e": 2551,
    "\u25810x40935f": 2552,
    "\u25810x409360": 2553,
    "\u25810x409361": 2554,
    "\u25810x409362": 2555,
    "\u25810x409363": 2556,
    "e84": 2557,
    "\u25810x7e74": 2558,
    "\u25810x7e75": 2559,
    "\u2581fa": 2560,
    "\u25810x45f5": 2561,
    "\u25810xfeee0041": 2562,
    "ok": 2563,
    "inter": 2564,
    "\u25810xfeee0042": 2565,
    "folderw": 2566,
    "\u25810x7e78": 2567,
    "\u25810x100000": 2568,
    "\u25810x7e79": 2569,
    "\u25810x45f8": 2570,
    "\u25810xfeee0033": 2571,
    "\u25810x45f3": 2572,
    "\u25810x45f6": 2573,
    "ee4": 2574,
    "\u25810xfeee0032": 2575,
    "\u25810xfeee0049": 2576,
    "\u2581findresourcea": 2577,
    "\u25810x45f7": 2578,
    "\u25810x45f9": 2579,
    "\u25810x46a0": 2580,
    "\u25810xfeee0035": 2581,
    "\u25810x7e7c": 2582,
    "70c": 2583,
    "\u25812d": 2584,
    "enum": 2585,
    "\u25810x45fa": 2586,
    "\u25810x7e7d": 2587,
    "\u2581deletefilew": 2588,
    "a58": 2589,
    "\u25810x9c": 2590,
    "\u25810x26": 2591,
    "special": 2592,
    "\u25810xfeee0034": 2593,
    "\u2581shgetspecial": 2594,
    "\u25810x4700": 2595,
    "\u25810xfeee003f": 2596,
    "eek": 2597,
    "\u2581pi": 2598,
    "\u2581userenv": 2599,
    "\u25810xfeee0062": 2600,
    "\u25810xfeee0065": 2601,
    "\u2581getwindowsdirectorya": 2602,
    "\u25810x1211f38": 2603,
    "\u25810xfeee0039": 2604,
    "pass": 2605,
    "\u25810x45fe": 2606,
    "\u2581iswow64": 2607,
    "setinformation": 2608,
    "\u2581iswow64process": 2609,
    "15c": 2610,
    "ac4": 2611,
    "\u25810x4601": 2612,
    "itthread": 2613,
    "\u2581terminateprocess": 2614,
    "\u2581ra": 2615,
    "\u2581check": 2616,
    "palette": 2617,
    "124": 2618,
    "ac0": 2619,
    "\u25810x407": 2620,
    "\u25810x45ff": 2621,
    "\u25810xfeee0066": 2622,
    "\u25810x408": 2623,
    "\u25810x169b": 2624,
    "\u25810x181": 2625,
    "\u25810xfeee0037": 2626,
    "502": 2627,
    "\u2581up": 2628,
    "\u25810x4df": 2629,
    "\u25810x45fd": 2630,
    "\u25810xfeee0036": 2631,
    "\u25810x42a1": 2632,
    "\u25810xfeee0038": 2633,
    "\u25810x7e81": 2634,
    "\u25810x1211e2c": 2635,
    "\u25810xfeee0067": 2636,
    "340": 2637,
    "\u25810x43400": 2638,
    "\u2581createw": 2639,
    "b46": 2640,
    "\u25810x4800": 2641,
    "\u25810x7e85": 2642,
    "\u25810xfeee003d": 2643,
    "fore": 2644,
    "\u25810x7e84": 2645,
    "\u25810xfeee003a": 2646,
    "\u25810xfeee0047": 2647,
    "\u2581unhandledexceptionfilter": 2648,
    "7a8": 2649,
    "9c1": 2650,
    "ef0": 2651,
    "\u25810xfeee003e": 2652,
    "\u2581gdip": 2653,
    "delete": 2654,
    "\u25810x42b9": 2655,
    "\u2581q": 2656,
    "de8": 2657,
    "130": 2658,
    "688": 2659,
    "validate": 2660,
    "\u2581windowsnt": 2661,
    "\u2581heapvalidate": 2662,
    "66c": 2663,
    "d48": 2664,
    "mapi": 2665,
    "\u2581ass": 2666,
    "\u25810x4606": 2667,
    "\u25810xfeee003c": 2668,
    "\u2581findwindow": 2669,
    "600": 2670,
    "720": 2671,
    "lecs": 2672,
    "\u25810x202": 2673,
    "closekey": 2674,
    "variablecs": 2675,
    "\u2581regclosekey": 2676,
    "\u2581sleepcondition": 2677,
    "\u2581sleepconditionvariablecs": 2678,
    "cel": 2679,
    "e04": 2680,
    "\u25810xfeee0053": 2681,
    "\u2581lockresource": 2682,
    "trols": 2683,
    "\u25810x7060": 2684,
    "\u25810x7df5": 2685,
    "df0": 2686,
    "\u25810x7df4": 2687,
    "\u2581dwmapi": 2688,
    "e28": 2689,
    "\u25810x62": 2690,
    "\u2581getclassinfoa": 2691,
    "d28": 2692,
    "regi": 2693,
    "\u2581setwindow": 2694,
    "\u25810x1211f3c": 2695,
    "\u2581exem": 2696,
    "\u25810x2e7": 2697,
    "\u25810x78d0": 2698,
    "\u25810x1211d30": 2699,
    "\u2581cryptbase": 2700,
    "\u2581exemyarg1myarg2": 2701,
    "iseex": 2702,
    "\u2581raiseex": 2703,
    "\u2581raiseexception": 2704,
    "904": 2705,
    "\u25810x422a0": 2706,
    "lay": 2707,
    "vis": 2708,
    "\u2581heapsetinformation": 2709,
    "9e4": 2710,
    "\u25810x40ab": 2711,
    "\u2581remove": 2712,
    "dateresour": 2713,
    "\u25810xfeee004a": 2714,
    "\u2581po": 2715,
    "\u25810x7d50": 2716,
    "\u25810x4232": 2717,
    "\u25810x71b0": 2718,
    "220": 2719,
    "erw": 2720,
    "ded": 2721,
    "coree": 2722,
    "\u2581mscoree": 2723,
    "\u25810xfeee0048": 2724,
    "118": 2725,
    "\u25810x440": 2726,
    "iserror": 2727,
    "\u25810x4540": 2728,
    "\u2581shellex": 2729,
    "bd4": 2730,
    "d84": 2731,
    "\u25810x1211b08": 2732,
    "\u25810x7716": 2733,
    "\u25810x8af0": 2734,
    "\u25810x63000000": 2735,
    "\u25810x3f2000": 2736,
    "\u25810x417d": 2737,
    "len": 2738,
    "368": 2739,
    "\u2581createfilemappinga": 2740,
    "38c": 2741,
    "\u25810x42b964": 2742,
    "548": 2743,
    "e05": 2744,
    "\u25810x1211e24": 2745,
    "\u2581createdirectoryw": 2746,
    "1cc": 2747,
    "940": 2748,
    "c88": 2749,
    "tinue": 2750,
    "\u25810xa3": 2751,
    "violation": 2752,
    "\u25810x1211f48": 2753,
    "9a8": 2754,
    "dc0": 2755,
    "ready": 2756,
    "\u2581strcmp": 2757,
    "\u25810xfeee005e": 2758,
    "784": 2759,
    "\u25810x1211c08": 2760,
    "684": 2761,
    "\u25810xfeee0068": 2762,
    "\u2581findresourcew": 2763,
    "74d": 2764,
    "ac8": 2765,
    "\u25810x6c": 2766,
    "\u25810x4967a8": 2767,
    "\u2581createdirectorya": 2768,
    "f85": 2769,
    "pre": 2770,
    "\u2581regquery": 2771,
    "\u2581extrac": 2772,
    "\u2581shgetspecialfolderw": 2773,
    "ocket": 2774,
    "\u25810x93": 2775,
    "\u2581youm": 2776,
    "\u25810x518": 2777,
    "\u25810xfeee0060": 2778,
    "\u25810xfeee0069": 2779,
    "\u258118": 2780,
    "50000": 2781,
    "\u25810x40f": 2782,
    "\u25810x423326": 2783,
    "\u25810x423327": 2784,
    "atom": 2785,
    "\u25810xbd": 2786,
    "\u25810xfeee0061": 2787,
    "\u25810xfeee004d": 2788,
    "c87": 2789,
    "fc4": 2790,
    "344": 2791,
    "\u2581acquiresrwlockexclusive": 2792,
    "item": 2793,
    "\u25810xfeee004b": 2794,
    "\u25810xfeee004c": 2795,
    "b30": 2796,
    "dfd": 2797,
    "\u25810x4cb0": 2798,
    "controls": 2799,
    "\u25810xfeee0063": 2800,
    "ormat": 2801,
    "\u25810x502": 2802,
    "\u25810xfeee005c": 2803,
    "\u25810xfeee005a": 2804,
    "d8c": 2805,
    "\u25810x1211f24": 2806,
    "\u25810x4c3": 2807,
    "app": 2808,
    "\u2581fe": 2809,
    "\u2581comm": 2810,
    "\u25810xfeee0050": 2811,
    "\u25810xfeee0055": 2812,
    "\u25810xfeee005b": 2813,
    "\u25810xfeee004e": 2814,
    "\u2581getenvironmentvariablew": 2815,
    "\u25810x75d0": 2816,
    "3e6": 2817,
    "\u25810x1211f34": 2818,
    "\u2581controlfp": 2819,
    "\u25810xfeee0054": 2820,
    "\u25810x89": 2821,
    "\u25810x7b40": 2822,
    "ea4": 2823,
    "\u25810xfeee004f": 2824,
    "3a8": 2825,
    "\u25810xfeee006a": 2826,
    "\u25810x560": 2827,
    "\u25810x30000": 2828,
    "\u25810xfeee0052": 2829,
    "\u2581end": 2830,
    "network": 2831,
    "\u25810xfeee0051": 2832,
    "\u25810xfeee0057": 2833,
    "78c": 2834,
    "b0c": 2835,
    "\u2581sc": 2836,
    "302": 2837,
    "\u25810x7bf0": 2838,
    "edirectory": 2839,
    "\u25810xfeee0084": 2840,
    "801": 2841,
    "f46": 2842,
    "\u25810x45fc": 2843,
    "clipboar": 2844,
    "\u25810xfeee0056": 2845,
    "ty": 2846,
    "\u2581your": 2847,
    "\u25810x7b90": 2848,
    "aw": 2849,
    "led": 2850,
    "conne": 2851,
    "\u25810xfeee0058": 2852,
    "\u25810xfeee0059": 2853,
    "\u2581commode": 2854,
    "93e": 2855,
    "\u25810x7870": 2856,
    "744": 2857,
    "\u2581filet": 2858,
    "\u2581print": 2859,
    "\u2581filetimeto": 2860,
    "no": 2861,
    "\u25810x1211e1c": 2862,
    "ay": 2863,
    "324": 2864,
    "long": 2865,
    "10c": 2866,
    "3b8": 2867,
    "740": 2868,
    "common": 2869,
    "709": 2870,
    "\u25810x1211fc0": 2871,
    "\u2581initcommon": 2872,
    "\u2581initcommoncontrols": 2873,
    "\u25810x4470": 2874,
    "\u25810x5265": 2875,
    "\u2581enumsystemlocales": 2876,
    "ld": 2877,
    "\u25810xac": 2878,
    "\u25810xfeee005d": 2879,
    "\u25810x4cf0": 2880,
    "ff8": 2881,
    "\u25810xfeee0064": 2882,
    "30000": 2883,
    "ument": 2884,
    "e58": 2885,
    "nal": 2886,
    "\u25810x1211f80": 2887,
    "\u2581getlogicaldrive": 2888,
    "60c": 2889,
    "\u2581createwindowexa": 2890,
    "3a4": 2891,
    "\u25810x4c10": 2892,
    "\u2581outof": 2893,
    "install": 2894,
    "\u25810x169bc": 2895,
    "\u25810xfeee018": 2896,
    "\u2581getsystemtimes": 2897,
    "1b8": 2898,
    "\u2581aa": 2899,
    "\u25810x96": 2900,
    "\u25810x7b10": 2901,
    "\u25810x1211f70": 2902,
    "\u2581shgetfile": 2903,
    "\u25810x40b4": 2904,
    "68b": 2905,
    "148": 2906,
    "409": 2907,
    "failed": 2908,
    "\u25810x6970": 2909,
    "\u25810x1211f04": 2910,
    "hore": 2911,
    "\u2581noaccess": 2912,
    "544": 2913,
    "ass": 2914,
    "\u2581opena": 2915,
    "\u25810x7030": 2916,
    "363": 2917,
    "ecall": 2918,
    "700": 2919,
    "ecom": 2920,
    "\u25810xa5": 2921,
    "\u25810x7a50": 2922,
    "\u2581getuserdefaultlocalename": 2923,
    "mb": 2924,
    "vet": 2925,
    "f00": 2926,
    "978": 2927,
    "\u25810x7390": 2928,
    "\u25810x74e0": 2929,
    "\u25810x7750": 2930,
    "704": 2931,
    "bitmap": 2932,
    "\u25810x40a3f": 2933,
    "reque": 2934,
    "\u25810x534": 2935,
    "50c": 2936,
    "\u25810x40a5ac": 2937,
    "\u2581showwindow": 2938,
    "\u2581remov": 2939,
    "\u25810x7cf0": 2940,
    "\u25810x40a3e": 2941,
    "\u25810xfeee006c": 2942,
    "\u2581accessviolation": 2943,
    "230": 2944,
    "\u2581ns": 2945,
    "instruction": 2946,
    "\u2581createmutex": 2947,
    "this": 2948,
    "\u25810xa6": 2949,
    "\u25810xbc": 2950,
    "\u2581instal": 2951,
    "1b0": 2952,
    "382": 2953,
    "\u258119": 2954,
    "\u25810xa9": 2955,
    "\u2581getdateformatex": 2956,
    "\u2581isvalidlocalename": 2957,
    "been": 2958,
    "\u25810x1211e14": 2959,
    "\u2581gettimeformatex": 2960,
    "\u2581enumsystemlocalesex": 2961,
    "\u25810x66": 2962,
    "\u25810x771a": 2963,
    "\u25810xfeedf": 2964,
    "\u2581charpre": 2965,
    "ning": 2966,
    "\u25810x181b": 2967,
    "defaultu": 2968,
    "\u2581nsiserror": 2969,
    "\u25810x7210": 2970,
    "\u25810x8090": 2971,
    "\u25810xfeee0087": 2972,
    "565": 2973,
    "\u25810x72d0": 2974,
    "\u25810xfeee006b": 2975,
    "ad4": 2976,
    "d40": 2977,
    "d44": 2978,
    "e8c": 2979,
    "\u25810x6a6": 2980,
    "\u25810x7e00": 2981,
    "\u25810x77002": 2982,
    "\u2581setcurrentdirectorya": 2983,
    "defaultuilanguage": 2984,
    "\u25810x52660": 2985,
    "\u25810xfeee0090": 2986,
    "\u25810x42a0": 2987,
    "1e4": 2988,
    "\u25810x7f7": 2989,
    "only": 2990,
    "bd0": 2991,
    "\u2581sn": 2992,
    "\u2581failed": 2993,
    "a02": 2994,
    "\u25810x461518": 2995,
    "e00": 2996,
    "\u25810x7ae0": 2997,
    "localtime": 2998,
    "a0000": 2999,
    "\u25810x75a0": 3000,
    "\u25810x8cf0": 3001,
    "\u2581releases": 3002,
    "\u25810x7600": 3003,
    "nexplorer": 3004,
    "\u25810x4af4": 3005,
    "\u25810x71e0": 3006,
    "\u25810xfffe": 3007,
    "\u25810xfeee008e": 3008,
    "wind": 3009,
    "ccess": 3010,
    "\u25810xffe1": 3011,
    "ati": 3012,
    "\u2581sa": 3013,
    "\u25810x4607": 3014,
    "348": 3015,
    "32cs": 3016,
    "\u2581snap": 3017,
    "printer": 3018,
    "\u2581th32cs": 3019,
    "creating": 3020,
    "e80": 3021,
    "\u25810xfc": 3022,
    "\u25810x7240": 3023,
    "\u25810xfeee006e": 3024,
    "\u25810x144": 3025,
    "bbc": 3026,
    "\u25810x7660": 3027,
    "\u25810x7720": 3028,
    "\u25810xfeee006d": 3029,
    "ei": 3030,
    "\u258110": 3031,
    "\u25810x593": 3032,
    "draw": 3033,
    "\u2581messageboxa": 3034,
    "cid": 3035,
    "9c7": 3036,
    "\u25810xf8": 3037,
    "\u2581trans": 3038,
    "\u25810x7a20": 3039,
    "\u25810xffe0": 3040,
    "\u2581runtime": 3041,
    "\u25810xfeee0088": 3042,
    "\u2581findfirstfilea": 3043,
    "\u2581registerclassexa": 3044,
    "ecc": 3045,
    "ways": 3046,
    "echeck": 3047,
    "\u2581exception": 3048,
    "fc2": 3049,
    "\u25810x76f0": 3050,
    "\u25810x7eaba8": 3051,
    "a4c": 3052,
    "\u2581rtlun": 3053,
    "\u25810x76c0": 3054,
    "644": 3055,
    "\u2581rtlunwind": 3056,
    "\u25810x7480": 3057,
    "\u25810x40b3": 3058,
    "\u25810xffe4": 3059,
    "\u25810x7d99": 3060,
    "servicew": 3061,
    "dl": 3062,
    "ethread": 3063,
    "\u25810xfeee0070": 3064,
    "\u2581setenvironmentvariablea": 3065,
    "b5c": 3066,
    "\u25810x419": 3067,
    "\u25810x7180": 3068,
    "\u25810x4c42d8": 3069,
    "\u25810x4c42f0": 3070,
    "\u25810xfeee019": 3071,
    "par": 3072,
    "\u25810x480": 3073,
    "\u25810x1009": 3074,
    "\u25810x4010": 3075,
    "\u25810x5265d": 3076,
    "945": 3077,
    "\u25810x77b0": 3078,
    "f40": 3079,
    "\u2581can": 3080,
    "\u25810x4d5": 3081,
    "\u25810x7330": 3082,
    "\u25810xfeee0077": 3083,
    "805": 3084,
    "\u25810x7120": 3085,
    "\u25810x7570": 3086,
    "\u25810x7ba0": 3087,
    "\u25810xfeee0079": 3088,
    "\u25810x70c0": 3089,
    "\u2581getprivateprofile": 3090,
    "\u25810x7990": 3091,
    "\u25810x7360": 3092,
    "\u258135": 3093,
    "\u25810x10a": 3094,
    "\u25810x44c2": 3095,
    "\u25810x7840": 3096,
    "\u2581regset": 3097,
    "\u2581y": 3098,
    "\u2581sept": 3099,
    "\u25810x4076": 3100,
    "\u25810xfeee006f": 3101,
    "\u25810xfeee0076": 3102,
    "\u2581sep": 3103,
    "fff0": 3104,
    "\u25810x74b0": 3105,
    "\u25810x79c0": 3106,
    "\u25810xfeee0078": 3107,
    "\u25810xfeee007b": 3108,
    "\u25810x7510": 3109,
    "\u25810xfeee007a": 3110,
    "f58": 3111,
    "\u25810x9a": 3112,
    "\u25810x7450": 3113,
    "\u25810xfeee0071": 3114,
    "3d4": 3115,
    "604": 3116,
    "\u25810x7960": 3117,
    "\u25810xffbb": 3118,
    "\u25810xffbd": 3119,
    "\u25810xffbe": 3120,
    "\u25810xfeee0074": 3121,
    "384": 3122,
    "bound": 3123,
    "\u25810x73c0": 3124,
    "\u25810xffba": 3125,
    "\u25810xffbc": 3126,
    "b98": 3127,
    "b0000": 3128,
    "\u25810x300": 3129,
    "\u25810x7da0": 3130,
    "\u25810xfffd": 3131,
    "284": 3132,
    "670": 3133,
    "roll": 3134,
    "\u25810xffb7": 3135,
    "\u25810xffb8": 3136,
    "\u25810xffb9": 3137,
    "\u25810xfeee0073": 3138,
    "lt": 3139,
    "e0c": 3140,
    "fdd": 3141,
    "\u25810x7420": 3142,
    "\u25810xfffc": 3143,
    "eb8": 3144,
    "\u25810x7630": 3145,
    "e4b8": 3146,
    "\u2581feb": 3147,
    "\u25810xfeee0072": 3148,
    "\u2581setfilepointerex": 3149,
    "\u25810x7d98": 3150,
    "730": 3151,
    "\u25810x70f0": 3152,
    "\u2581febr": 3153,
    "\u25810xffb6": 3154,
    "\u25810xffbf": 3155,
    "\u25810xfeee0075": 3156,
    "\u25810xfeee007c": 3157,
    "\u2581getlogicaldrivestring": 3158,
    "pril": 3159,
    "river": 3160,
    "tober": 3161,
    "onexit": 3162,
    "\u2581april": 3163,
    "\u2581august": 3164,
    "\u2581november": 3165,
    "\u2581september": 3166,
    "\u2581apr": 3167,
    "ispatch": 3168,
    "\u25810x1005": 3169,
    "\u25810x45fb": 3170,
    "756": 3171,
    "\u25810x3e8": 3172,
    "\u25810x78f0": 3173,
    "963": 3174,
    "eni": 3175,
    "pati": 3176,
    "\u25810x401": 3177,
    "\u25810xfffb": 3178,
    "\u2581cl": 3179,
    "\u2581regsetvalu": 3180,
    "\u2581oct": 3181,
    "\u25810x7b70": 3182,
    "d58": 3183,
    "\u2581tmp": 3184,
    "\u25810x7780": 3185,
    "\u25810xffb5": 3186,
    "\u25810x13fff0": 3187,
    "\u25810xfeee008c": 3188,
    "\u25810x43f6": 3189,
    "7f4": 3190,
    "\u25810xc8": 3191,
    "\u25810x3f4": 3192,
    "\u2581setdll": 3193,
    "\u25810x52662": 3194,
    "b10": 3195,
    "ist": 3196,
    "\u25810x414": 3197,
    "uar": 3198,
    "\u25810x40d8": 3199,
    "\u25810x435002": 3200,
    "\u25810x435004": 3201,
    "\u25810x435006": 3202,
    "\u25810x435008": 3203,
    "\u25810x43500a": 3204,
    "\u25810x43500c": 3205,
    "\u25810x43500e": 3206,
    "\u25810x435010": 3207,
    "\u25810x435018": 3208,
    "profil": 3209,
    "\u25810x7d9c": 3210,
    "\u25810x7d9d": 3211,
    "\u25810x435014": 3212,
    "920": 3213,
    "oci": 3214,
    "\u25810x435016": 3215,
    "696": 3216,
    "1a4": 3217,
    "ce9": 3218,
    "1030": 3219,
    "\u25810xfeee007d": 3220,
    "\u25810xfeee0086": 3221,
    "\u25810x87": 3222,
    "\u25810x644": 3223,
    "patible": 3224,
    "\u258126": 3225,
    "\u2581div": 3226,
    "index": 3227,
    "\u25810xfeee007f": 3228,
    "\u25810xfeee0081": 3229,
    "d85": 3230,
    "sst": 3231,
    "une": 3232,
    "\u25810xab": 3233,
    "printf": 3234,
    "\u25810xfeee008d": 3235,
    "92e": 3236,
    "af4": 3237,
    "\u25810x44280": 3238,
    "\u25810xfeee007e": 3239,
    "\u25810xfeee008a": 3240,
    "ows": 3241,
    "uly": 3242,
    "anuary": 3243,
    "\u2581march": 3244,
    "\u2581december": 3245,
    "\u2581february": 3246,
    "\u2581outofmemory": 3247,
    "90c": 3248,
    "atus": 3249,
    "\u25810x5617": 3250,
    "\u2581october": 3251,
    "\u25810xfeee0082": 3252,
    "\u25810xfeee0083": 3253,
    "\u2581getlocaltime": 3254,
    "acl": 3255,
    "\u25810xc0": 3256,
    "\u25810x41f": 3257,
    "\u25810x7f4": 3258,
    "\u2581monday": 3259,
    "\u2581sunday": 3260,
    "\u2581tuesday": 3261,
    "\u25810xfeee0080": 3262,
    "\u25810xfeee0085": 3263,
    "\u2581thu": 3264,
    "nesday": 3265,
    "\u25810x504": 3266,
    "\u2581wednesday": 3267,
    "\u25810xfeee008f": 3268,
    "\u2581createpalette": 3269,
    "\u2581getenvironmentvariablea": 3270,
    "928": 3271,
    "edit": 3272,
    "ursday": 3273,
    "\u25810xffa0": 3274,
    "\u25810xffb4": 3275,
    "\u2581thursday": 3276,
    "\u25810x3f75e88": 3277,
    "\u2581fri": 3278,
    "\u25810x7da1": 3279,
    "\u25810xffa1": 3280,
    "able": 3281,
    "\u25810xffa2": 3282,
    "\u25810xffcd": 3283,
    "\u25810x435012": 3284,
    "\u25810x4c3308": 3285,
    "gn": 3286,
    "iday": 3287,
    "urday": 3288,
    "\u2581friday": 3289,
    "\u2581saturday": 3290,
    "windowproc": 3291,
    "\u25810xfffa": 3292,
    "\u2581move": 3293,
    "ocon": 3294,
    "\u2581are": 3295,
    "\u2581setthreadlocale": 3296,
    "728": 3297,
    "anget": 3298,
    "\u25810x56c": 3299,
    "\u25810xfeee017": 3300,
    "unlock": 3301,
    "\u25810x41a9": 3302,
    "\u25810xffa3": 3303,
    "\u2581updatewindow": 3304,
    "\u25810x1b2": 3305,
    "\u25810x5199": 3306,
    "f28": 3307,
    "9260": 3308,
    "\u25810x181c": 3309,
    "\u25810x4605": 3310,
    "\u25810xffe5": 3311,
    "exception": 3312,
    "\u2581process32firstw": 3313,
    "\u25810x1211f1c": 3314,
    "\u2581createcom": 3315,
    "application": 3316,
    "\u2581createcompatible": 3317,
    "\u25810xfeee0089": 3318,
    "7bc": 3319,
    "ef4": 3320,
    "\u25810xffa4": 3321,
    "70000": 3322,
    "\u25810x48f898": 3323,
    "\u2581getcurrentdirectoryw": 3324,
    "9cc": 3325,
    "\u25810x6e": 3326,
    "\u2581inte": 3327,
    "\u25810x4604": 3328,
    "647": 3329,
    "90000": 3330,
    "\u25810xad": 3331,
    "\u2581setfileattributesa": 3332,
    "360": 3333,
    "f18": 3334,
    "\u2581asser": 3335,
    "\u25810xb000": 3336,
    "\u2581interfac": 3337,
    "\u25810x1210ec0": 3338,
    "\u25810x1211f6c": 3339,
    "950": 3340,
    "sub": 3341,
    "\u25810x1211d08": 3342,
    "150": 3343,
    "6e0": 3344,
    "\u2581stack": 3345,
    "\u25810xffe6": 3346,
    "blt": 3347,
    "\u2581dup": 3348,
    "ternal": 3349,
    "changet": 3350,
    "\u25810x7db0": 3351,
    "\u2581variantchanget": 3352,
    "bk": 3353,
    "\u25810xffa5": 3354,
    "safecall": 3355,
    "dateresourcea": 3356,
    "\u25810xffa6": 3357,
    "7038": 3358,
    "\u2581cli": 3359,
    "state": 3360,
    "\u25810xb3": 3361,
    "178": 3362,
    "288": 3363,
    "3e1": 3364,
    "\u2581ws2": 3365,
    "\u25810xffa7": 3366,
    "\u25810x44c250": 3367,
    "\u2581assertion": 3368,
    "5c0": 3369,
    "d00": 3370,
    "\u2581external": 3371,
    "\u2581interfacen": 3372,
    "privileged": 3373,
    "\u2581def": 3374,
    "found": 3375,
    "fc0": 3376,
    "\u2581disk": 3377,
    "\u25810x4c30": 3378,
    "\u25810x8c60": 3379,
    "calls": 3380,
    "insafecall": 3381,
    "\u25810x1211f4c": 3382,
    "\u2581exceptioninsafecall": 3383,
    "5cc": 3384,
    "b84": 3385,
    "\u25810x7dc8": 3386,
    "\u25810x1211ef0": 3387,
    "\u2581peek": 3388,
    "\u25810x43501a": 3389,
    "\u2581registerclassa": 3390,
    "\u25810x46c0": 3391,
    "9bc": 3392,
    "\u2581op": 3393,
    "\u25810x51b": 3394,
    "\u25810x4608": 3395,
    "\u2581doyouwantto": 3396,
    "\u2581setthreadpreferreduilanguages": 3397,
    "d18": 3398,
    "\u25810x2d4": 3399,
    "running": 3400,
    "filename": 3401,
    "3f0": 3402,
    "fad": 3403,
    "onc": 3404,
    "deni": 3405,
    "allyour": 3406,
    "notfound": 3407,
    "\u2581createmutexa": 3408,
    "\u2581openanexplorer": 3409,
    "ond": 3410,
    "\u25810x4400": 3411,
    "\u25810xffa8": 3412,
    "\u2581setdlldirectoryw": 3413,
    "under": 3414,
    "\u25810xf0": 3415,
    "367": 3416,
    "ae8": 3417,
    "frominternet": 3418,
    "ypec": 3419,
    "bounds": 3420,
    "ypecast": 3421,
    "\u25810xffa9": 3422,
    "\u25810x3020": 3423,
    "\u25810xffce": 3424,
    "argument": 3425,
    "\u25810x75500000": 3426,
    "\u2581privileged": 3427,
    "pointeroperation": 3428,
    "\u2581assertionfailed": 3429,
    "cla": 3430,
    "\u2581rang": 3431,
    "leaccess": 3432,
    "\u2581rangecheck": 3433,
    "\u2581getlogicalprocessor": 3434,
    "1c0": 3435,
    "de4": 3436,
    "eed": 3437,
    "gero": 3438,
    "omany": 3439,
    "outof": 3440,
    "\u2581chit": 3441,
    "classt": 3442,
    "pointo": 3443,
    "otsuped": 3444,
    "callsnot": 3445,
    "floating": 3446,
    "overflow": 3447,
    "\u2581toomany": 3448,
    "openfiles": 3449,
    "\u2581integero": 3450,
    "indexoutof": 3451,
    "callsnotsuped": 3452,
    "classtypecast": 3453,
    "floatingpoint": 3454,
    "pointoverflow": 3455,
    "divisionbyzero": 3456,
    "\u2581errorcreating": 3457,
    "\u2581divisionbyzero": 3458,
    "indexoutofbounds": 3459,
    "\u2581integeroverflow": 3460,
    "\u2581invalidfilename": 3461,
    "\u2581rangecheckerror": 3462,
    "\u2581toomanyopenfiles": 3463,
    "\u2581externalexception": 3464,
    "\u2581interfacenotsuped": 3465,
    "\u2581errorcreatingvariant": 3466,
    "\u2581invalidfloatingpoint": 3467,
    "\u2581variantcallsnotsuped": 3468,
    "\u2581floatingpointoverflow": 3469,
    "\u2581invalidpointeroperation": 3470,
    "\u2581floatingpointdivisionbyzero": 3471,
    "\u2581invalidfloatingpointoperation": 3472,
    "946": 3473,
    "bey": 3474,
    "fa8": 3475,
    "beyond": 3476,
    "denied": 3477,
    "\u25810x3bc": 3478,
    "numeric": 3479,
    "typecon": 3480,
    "\u25810xffcf": 3481,
    "underflow": 3482,
    "\u2581diskfull": 3483,
    "\u2581fileaccess": 3484,
    "\u2581readbeyond": 3485,
    "numericinput": 3486,
    "\u2581globalunlock": 3487,
    "typeconversion": 3488,
    "\u2581stackoverflow": 3489,
    "\u2581fileaccessdenied": 3490,
    "\u2581invalidnumericinput": 3491,
    "\u2581readbeyondendoffile": 3492,
    "\u2581invalidclasstypecast": 3493,
    "\u2581privilegedinstruction": 3494,
    "\u2581floatingpointunderflow": 3495,
    "\u2581invalidvariantoperation": 3496,
    "\u2581invalidvarianttypeconversion": 3497,
    "738": 3498,
    "d0000": 3499,
    "\u25810x1211f40": 3500,
    "a38": 3501,
    "ongle": 3502,
    "\u25810x4828": 3503,
    "\u2581duplic": 3504,
    "ecadwork": 3505,
    "\u25810x76500000": 3506,
    "\u2581getlogicalprocessorinformation": 3507,
    "1e2": 3508,
    "antee": 3509,
    "stackg": 3510,
    "\u25810xffb3": 3511,
    "uarantee": 3512,
    "\u25810x43501c": 3513,
    "\u25810x43501e": 3514,
    "\u25810x435020": 3515,
    "\u25810x435022": 3516,
    "\u25810x435028": 3517,
    "\u25810x43502a": 3518,
    "\u25810x43502c": 3519,
    "\u25810x43502e": 3520,
    "\u25810x435030": 3521,
    "stackguarantee": 3522,
    "\u2581setthreadstackguarantee": 3523,
    "1d0": 3524,
    "358": 3525,
    "97f": 3526,
    "mod": 3527,
    "c000": 3528,
    "\u25810x7e89": 3529,
    "\u25810xffb0": 3530,
    "vicectrl": 3531,
    "au": 3532,
    "404": 3533,
    "\u2581shellexecute": 3534,
    "7ec": 3535,
    "\u25810x7da4": 3536,
    "\u25810xfff9": 3537,
    "\u25810xfeee016": 3538,
    "\u25810xffb1": 3539,
    "\u25810xffb2": 3540,
    "\u2581initcommoncontrolsex": 3541,
    "d68": 3542,
    "\u2581ini": 3543,
    "\u25810xffaa": 3544,
    "a41": 3545,
    "20000": 3546,
    "\u25810xbe": 3547,
    "\u2581releasesrwlockexclusive": 3548,
    "\u2581strlen": 3549,
    "\u2581copyfilea": 3550,
    "db0": 3551,
    "970": 3552,
    "\u2581zip": 3553,
    "areex": 3554,
    "ypeex": 3555,
    "\u25810x7da5": 3556,
    "compareex": 3557,
    "\u2581getmessagea": 3558,
    "\u2581removedirectory": 3559,
    "\u2581variantchangetypeex": 3560,
    "\u2581interlockedcompareex": 3561,
    "228": 3562,
    "2c8": 3563,
    "974": 3564,
    "374": 3565,
    "d3c": 3566,
    "texta": 3567,
    "\u25810x40a7": 3568,
    "3a5": 3569,
    "\u2581createsemaphore": 3570,
    "\u2581interlockedcompareexchange": 3571,
    "218": 3572,
    "d70": 3573,
    "dat": 3574,
    "\u2581mso": 3575,
    "7d0": 3576,
    "\u2581lstrc": 3577,
    "\u2581setupapi": 3578,
    "neg": 3579,
    "\u25810x7e88": 3580,
    "9f0": 3581,
    "e87": 3582,
    "mul": 3583,
    "xor": 3584,
    "\u2581wi": 3585,
    "em32": 3586,
    "idiv": 3587,
    "\u2581varcy": 3588,
    "\u2581varor": 3589,
    "\u2581varr8": 3590,
    "\u2581varadd": 3591,
    "\u2581varand": 3592,
    "\u2581varcmp": 3593,
    "\u2581vardiv": 3594,
    "\u2581varmod": 3595,
    "\u2581varmul": 3596,
    "\u2581varneg": 3597,
    "\u2581varnot": 3598,
    "\u2581varsub": 3599,
    "\u2581varxor": 3600,
    "\u2581varbool": 3601,
    "\u2581vardate": 3602,
    "\u2581varidiv": 3603,
    "\u2581varcyfromstr": 3604,
    "\u2581vari4fromstr": 3605,
    "\u2581varr4fromstr": 3606,
    "\u2581varr8fromstr": 3607,
    "\u2581varbstrfromcy": 3608,
    "\u2581varboolfromstr": 3609,
    "\u2581vardatefromstr": 3610,
    "\u2581varbstrfrombool": 3611,
    "\u2581varbstrfromdate": 3612,
    "\u25810x450": 3613,
    "\u25810x7c70": 3614,
    "\u2581msvcr90": 3615,
    "\u25810x107568": 3616,
    "\u25810xfeee0094": 3617,
    "605": 3618,
    "934": 3619,
    "\u25810x4012": 3620,
    "\u25810x4602": 3621,
    "\u25810x1211e44": 3622,
    "\u2581post": 3623,
    "a10": 3624,
    "b78": 3625,
    "\u25810x7db4": 3626,
    "\u25810x7db5": 3627,
    "anag": 3628,
    "\u25810x420fe8": 3629,
    "\u25810x3f75f7c": 3630,
    "\u2581hton": 3631,
    "\u25810x7704": 3632,
    "\u25810x7708": 3633,
    "3e0": 3634,
    "ad8": 3635,
    "\u25810xfff8": 3636,
    "\u2581isvalidlocale": 3637,
    "\u25810x41a9f0": 3638,
    "b50": 3639,
    "\u25810xffcc": 3640,
    "\u25810x100300": 3641,
    "\u25810x455480": 3642,
    "\u25810x1211db8": 3643,
    "\u2581crtdll": 3644,
    "\u25810x401000": 3645,
    "6cb": 3646,
    "\u2581mso97": 3647,
    "d78": 3648,
    "\u25810x20a": 3649,
    "\u2581extract": 3650,
    "\u2581snapprocess": 3651,
    "3c8": 3652,
    "b70": 3653,
    "bc6": 3654,
    "d2c": 3655,
    "\u2581registerwindowmessagew": 3656,
    "ops": 3657,
    "4bb8": 3658,
    "3f8": 3659,
    "ority": 3660,
    "priority": 3661,
    "py": 3662,
    "958": 3663,
    "\u25810x455468": 3664,
    "144": 3665,
    "7c5": 3666,
    "50c0": 3667,
    "ee08": 3668,
    "reate": 3669,
    "securitydescriptor": 3670,
    "bf0": 3671,
    "\u25810x1808": 3672,
    "\u25810x5937": 3673,
    "\u2581oleacc": 3674,
    "\u2581apphelp": 3675,
    "9b4": 3676,
    "db5": 3677,
    "\u25810x3f75f84": 3678,
    "\u25810x3f75f8c": 3679,
    "bb0": 3680,
    "ater": 3681,
    "bcat": 3682,
    "opsys": 3683,
    "\u25810x6b": 3684,
    "\u25810xffe2": 3685,
    "\u2581propsys": 3686,
    "bcatq": 3687,
    "\u25810x42b4": 3688,
    "\u2581always": 3689,
    "\u2581clbcatq": 3690,
    "00220": 3691,
    "\u25810x771c": 3692,
    "\u2581initialize": 3693,
    "350": 3694,
    "ac5": 3695,
    "d38": 3696,
    "\u25810x1211f50": 3697,
    "\u25810x2200220": 3698,
    "364": 3699,
    "are": 3700,
    "oem": 3701,
    "\u2581format": 3702,
    "\u2581lstrcata": 3703,
    "\u25810x1211fbc": 3704,
    "11c": 3705,
    "ed4": 3706,
    "sid": 3707,
    "\u25810x4196": 3708,
    "372": 3709,
    "3e8": 3710,
    "d0c": 3711,
    "3a20": 3712,
    "\u25810xfff7": 3713,
    "12c": 3714,
    "\u25810x40ac": 3715,
    "\u25810x4760": 3716,
    "\u25810x12119f0": 3717,
    "944": 3718,
    "\u2581isc": 3719,
    "d50": 3720,
    "\u25810x1211c94": 3721,
    "\u2581getsyscolorbrush": 3722,
    "145": 3723,
    "\u25810x4356": 3724,
    "\u25810xfeee0091": 3725,
    "\u25810xfeee0092": 3726,
    "244": 3727,
    "b54": 3728,
    "start": 3729,
    "\u25810xffe7": 3730,
    "a45": 3731,
    "e0000": 3732,
    "\u2581variantorsafearray": 3733,
    "\u2581errorcreatingvariantorsafearray": 3734,
    "\u2581variantorsafearrayindexoutofbounds": 3735,
    "200": 3736,
    "682": 3737,
    "6b6": 3738,
    "\u2581invalidargument": 3739,
    "\u2581sys": 3740,
    "\u25810x432": 3741,
    "\u25810x44f": 3742,
    "ai": 3743,
    "\u25810x140": 3744,
    "\u25810xffe3": 3745,
    "\u2581regqueryvalu": 3746,
    "c48": 3747,
    "\u25810x40e5": 3748,
    "\u25810x4bb0": 3749,
    "\u25810x47a00": 3750,
    "\u25810x1211ed8": 3751,
    "os": 3752,
    "nam": 3753,
    "\u2581mei": 3754,
    "\u25810x7da8": 3755,
    "\u25810x1211fb8": 3756,
    "778": 3757,
    "ff0": 3758,
    "ociate": 3759,
    "\u25810x5265e": 3760,
    "if": 3761,
    "1e8": 3762,
    "225": 3763,
    "6c8": 3764,
    "ession": 3765,
    "310": 3766,
    "60000": 3767,
    "\u25810x12110": 3768,
    "\u2581defwindowproc": 3769,
    "d15": 3770,
    "once": 3771,
    "\u25810x1211e4c": 3772,
    "\u25810x5265f": 3773,
    "a78": 3774,
    "\u25810x7da9": 3775,
    "\u25810x502dc": 3776,
    "9d8": 3777,
    "hed": 3778,
    "pass2": 3779,
    "\u25810x42e": 3780,
    "\u25810x42a4": 3781,
    "\u2581regedit": 3782,
    "\u2581meipass2": 3783,
    "9fc": 3784,
    "has": 3785,
    "\u2581int": 3786,
    "\u25810x42a00": 3787,
    "\u2581comparestringw": 3788,
    "ht": 3789,
    "ae0": 3790,
    "\u25810x8c70": 3791,
    "\u25810x1211f0c": 3792,
    "\u25810xfeee0093": 3793,
    "uti": 3794,
    "\u25810x7af0": 3795,
    "\u25810x8d80": 3796,
    "as": 3797,
    "su": 3798,
    "\u25810x40a540": 3799,
    "\u2581loadiconw": 3800,
    "3e5": 3801,
    "664": 3802,
    "hook": 3803,
    "laun": 3804,
    "ordacl": 3805,
    "\u2581please": 3806,
    "\u25810x5617a8": 3807,
    "\u25810x1211eac": 3808,
    "\u2581duplicate": 3809,
    "securitydescriptordacl": 3810,
    "66e": 3811,
    "fec": 3812,
    "\u2581try": 3813,
    "launch": 3814,
    "clipboardf": 3815,
    "\u25810x4125": 3816,
    "\u25810x8aa0": 3817,
    "\u2581memset": 3818,
    "\u25810x429260": 3819,
    "ry": 3820,
    "ups": 3821,
    "\u25810x4420": 3822,
    "\u25810x5e": 3823,
    "\u25810x40a53a": 3824,
    "\u25810x40a53c": 3825,
    "\u25810x40a53e": 3826,
    "\u25810x40a542": 3827,
    "\u25810x40a544": 3828,
    "1ac": 3829,
    "905": 3830,
    "\u25810x40a546": 3831,
    "64c": 3832,
    "\u25810x8c90": 3833,
    "ig": 3834,
    "\u25810x47f0": 3835,
    "\u2581getcomputer": 3836,
    "6c00": 3837,
    "\u25810x448": 3838,
    "\u2581getvolumeinformationa": 3839,
    "\u25810x4bcc": 3840,
    "\u25810x7dac": 3841,
    "\u25810x7dad": 3842,
    "menuitem": 3843,
    "114": 3844,
    "20c": 3845,
    "3ac": 3846,
    "6ec": 3847,
    "\u25810x47b1": 3848,
    "\u25810x8c30": 3849,
    "98d": 3850,
    "\u25810xae": 3851,
    "\u25810x200020": 3852,
    "\u25810x4093e4": 3853,
    "\u25810x44e4b8": 3854,
    "006": 3855,
    "cc6": 3856,
    "\u2581duplicatehandle": 3857,
    "\u25810xfeee0097": 3858,
    "\u25810x2100": 3859,
    "fd4": 3860,
    "\u25810x80e0": 3861,
    "\u2581regcreate": 3862,
    "fig": 3863,
    "\u2581dialog": 3864,
    "uld": 3865,
    "\u25810x4095": 3866,
    "d24": 3867,
    "3de": 3868,
    "\u25810x7e4": 3869,
    "\u25810x5188": 3870,
    "dc9": 3871,
    "\u25810x50850": 3872,
    "\u2581lstrcmpi": 3873,
    "\u25810x12117f4": 3874,
    "2b0": 3875,
    "378": 3876,
    "ects": 3877,
    "\u25810x1211808": 3878,
    "\u25810xfeee0098": 3879,
    "\u2581af": 3880,
    "\u25810x1fa": 3881,
    "\u2581findnextfilew": 3882,
    "bec": 3883,
    "e74": 3884,
    "\u2581pleasec": 3885,
    "\u25810xfeee0095": 3886,
    "\u25810x478": 3887,
    "stringw": 3888,
    "381": 3889,
    "3ad": 3890,
    "\u25810x8280": 3891,
    "ge": 3892,
    "758": 3893,
    "e69": 3894,
    "fe0": 3895,
    "gro": 3896,
    "\u2581wm": 3897,
    "acti": 3898,
    "\u25810x8ab0": 3899,
    "pc": 3900,
    "318": 3901,
    "6cd": 3902,
    "\u2581findnextfilea": 3903,
    "994": 3904,
    "egi": 3905,
    "ally": 3906,
    "prec": 3907,
    "really": 3908,
    "vebeen": 3909,
    "already": 3910,
    "session": 3911,
    "\u25810x1211dbc": 3912,
    "\u2581registerwindowmessagea": 3913,
    "122": 3914,
    "\u2581ts": 3915,
    "\u25810xfeee0096": 3916,
    "\u2581regcreatekey": 3917,
    "6c5": 3918,
    "f78": 3919,
    "\u25810x8ba0": 3920,
    "\u25810xfeee0099": 3921,
    "316": 3922,
    "32c": 3923,
    "a80": 3924,
    "onceex": 3925,
    "ecuteonce": 3926,
    "\u2581initonceex": 3927,
    "\u2581peekmessagea": 3928,
    "\u2581getdiskfreespaceexa": 3929,
    "\u2581initonceexecuteonce": 3930,
    "1f4": 3931,
    "\u2581res": 3932,
    "handler": 3933,
    "\u25810xfff6": 3934,
    "\u25810x409aa4": 3935,
    "\u2581registerclipboardf": 3936,
    "\u25810x409aa5": 3937,
    "210": 3938,
    "304": 3939,
    "zone": 3940,
    "\u25810x7cc0": 3941,
    "\u2581initializesecuritydescriptor": 3942,
    "2bc": 3943,
    "allocate": 3944,
    "\u2581regdelete": 3945,
    "\u2581mapviewoffile": 3946,
    "\u2581setfileinformationbyhandlew": 3947,
    "\u2581getfileinformationbyhandleexw": 3948,
    "983": 3949,
    "a0c": 3950,
    "\u25810xffc6": 3951,
    "\u2581stem32": 3952,
    "\u2581youmust": 3953,
    "315": 3954,
    "a85": 3955,
    "ncy": 3956,
    "\u25810x1211f54": 3957,
    "\u25810xfeee009a": 3958,
    "sand": 3959,
    "366": 3960,
    "e6c": 3961,
    "\u25817z6": 3962,
    "\u25817z72": 3963,
    "\u25810x7db1": 3964,
    "\u25810x1211a44": 3965,
    "acd": 3966,
    "d05": 3967,
    "\u2581mail": 3968,
    "valuea": 3969,
    "52e8": 3970,
    "oemcp": 3971,
    "\u2581getoemcp": 3972,
    "zoneinformation": 3973,
    "cc5": 3974,
    "\u2581resum": 3975,
    "\u25810x47ee": 3976,
    "cefreque": 3977,
    "\u25810x169bc9c": 3978,
    "cefrequency": 3979,
    "\u2581resumethread": 3980,
    "\u2581gettimezoneinformation": 3981,
    "\u2581queryperformancefrequency": 3982,
    "2w": 3983,
    "a5c": 3984,
    "aa0": 3985,
    "bfb": 3986,
    "atoma": 3987,
    "\u25810x188": 3988,
    "ae2": 3989,
    "fon": 3990,
    "rivet": 3991,
    "clipboard": 3992,
    "\u25810x40a5b0": 3993,
    "\u25810x40a5b8": 3994,
    "connection": 3995,
    "\u2581getdrivet": 3996,
    "\u2581setbk": 3997,
    "\u25810xffd2": 3998,
    "f05": 3999,
    "205": 4000,
    "d46": 4001,
    "d5c": 4002,
    "e9d": 4003,
    "3c54": 4004,
    "\u25810xffab": 4005,
    "\u25810x40a5b4": 4006,
    "\u25810xcf0000": 4007,
    "\u25819": 4008,
    "\u25810x81": 4009,
    "\u25810x40a59c": 4010,
    "\u25810x40a5ae": 4011,
    "\u25810x40a5b2": 4012,
    "\u25810x40a5b6": 4013,
    "\u25810x40a5ba": 4014,
    "\u25810x7f8003": 4015,
    "\u25810x7f8004": 4016,
    "\u25810x7f8005": 4017,
    "\u25810x7f8006": 4018,
    "\u25810x7f8007": 4019,
    "\u25810x7f8008": 4020,
    "\u25810x7f8009": 4021,
    "\u25810x7f800a": 4022,
    "\u25810x7f800b": 4023,
    "\u25810x7f800c": 4024,
    "\u25810x7f800d": 4025,
    "\u25810x7f800e": 4026,
    "\u25810x7f800f": 4027,
    "282": 4028,
    "334": 4029,
    "7b8": 4030,
    "eec": 4031,
    "\u2581this": 4032,
    "\u25810x1211438": 4033,
    "\u2581getfileinformationbyhandleex": 4034,
    "format": 4035,
    "\u25810x3f20": 4036,
    "\u25810x8bd0": 4037,
    "\u25810x1211edc": 4038,
    "\u2581tsl": 4039,
    "\u25810x4c0": 4040,
    "\u25810x120f8": 4041,
    "\u25810x40935c": 4042,
    "\u25810x4093ec": 4043,
    "\u25810x40a58c": 4044,
    "\u25810x569b48": 4045,
    "\u25810xfeedf0": 4046,
    "im": 4047,
    "aa4": 4048,
    "\u25810x7230": 4049,
    "\u25810x8d00": 4050,
    "connection2w": 4051,
    "77e": 4052,
    "f8c": 4053,
    "ansi": 4054,
    "\u25810xffcb": 4055,
    "\u25810x3b7fb": 4056,
    "fied": 4057,
    "\u25810x350": 4058,
    "\u25810xffd3": 4059,
    "\u25810x40a57c": 4060,
    "\u25810xfeee009b": 4061,
    "\u25810x1211cec": 4062,
    "a54": 4063,
    "fd8": 4064,
    "7c58": 4065,
    "\u25810x2b4": 4066,
    "\u25810x8d20": 4067,
    "770": 4068,
    "\u2581setsecuritydescriptordacl": 4069,
    "a730": 4070,
    "isea": 4071,
    "\u2581884": 4072,
    "\u25810xb7": 4073,
    "\u25810x41eb": 4074,
    "precisea": 4075,
    "\u25810xfeee009c": 4076,
    "\u2581getsystemtimeprecisea": 4077,
    "40d": 4078,
    "aa8": 4079,
    "c4c": 4080,
    "exit": 4081,
    "\u25810x4bc": 4082,
    "\u25810x8c10": 4083,
    "\u25810x120ee": 4084,
    "a6c": 4085,
    "c8f": 4086,
    "f71": 4087,
    "drl66": 4088,
    "\u25810x7f5": 4089,
    "\u2581tsldrl66": 4090,
    "\u2581setfileattributesw": 4091,
    "\u2581getsystemtimepreciseasfiletime": 4092,
    "00e": 4093,
    "\u2581isctype": 4094,
    "7e8": 4095,
    "apis": 4096,
    "\u25810x43f": 4097,
    "apisansi": 4098,
    "\u2581arefile": 4099,
    "\u2581beginpaint": 4100,
    "\u2581arefileapisansi": 4101,
    "754": 4102,
    "b94": 4103,
    "931": 4104,
    "\u25810x8814": 4105,
    "\u2581endpaint": 4106,
    "998": 4107,
    "can": 4108,
    "\u25810x7f9": 4109,
    "\u25810x8be0": 4110,
    "\u2581transla": 4111,
    "srw": 4112,
    "\u25810x5040": 4113,
    "\u25810x120e6": 4114,
    "conditionvariablesrw": 4115,
    "\u2581sleepconditionvariablesrw": 4116,
    "\u25810x4cf": 4117,
    "\u25810x8d60": 4118,
    "\u2581appdata": 4119,
    "\u25810x1211ce0": 4120,
    "1e5": 4121,
    "eac": 4122,
    "\u25810x7dc0": 4123,
    "270": 4124,
    "df5": 4125,
    "f19": 4126,
    "\u25810xffac": 4127,
    "\u25810x4012db": 4128,
    "ab5": 4129,
    "d80": 4130,
    "onsolew": 4131,
    "\u25810x8cd0": 4132,
    "\u25810x20019": 4133,
    "\u25810x1211d2c": 4134,
    "\u25810xfeee011": 4135,
    "3f7": 4136,
    "b34": 4137,
    "b58": 4138,
    "\u2581createprocessa": 4139,
    "son": 4140,
    "\u25810x8c00": 4141,
    "\u25810x1210f64": 4142,
    "352": 4143,
    "d6c": 4144,
    "init": 4145,
    "\u25810x40b9": 4146,
    "\u25810x4233": 4147,
    "\u2581tryacquiresrwlockexclusive": 4148,
    "7ce": 4149,
    "9c8": 4150,
    "\u25810x47e0": 4151,
    "\u25810x79a0": 4152,
    "f39": 4153,
    "ethe": 4154,
    "\u25810x8bb0": 4155,
    "\u25810x8c40": 4156,
    "\u2581setendoffile": 4157,
    "54c": 4158,
    "7f0": 4159,
    "b18": 4160,
    "icence": 4161,
    "716": 4162,
    "d34": 4163,
    "\u25810x115": 4164,
    "14c": 4165,
    "718": 4166,
    "d0f": 4167,
    "\u25810x1211f44": 4168,
    "\u2581sendmessagea": 4169,
    "919": 4170,
    "sters": 4171,
    "option": 4172,
    "\u25810x110": 4173,
    "\u25810x8ca0": 4174,
    "\u25810xffc5": 4175,
    "\u2581getmodulehandl": 4176,
    "3ff": 4177,
    "a05": 4178,
    "\u2581date": 4179,
    "\u2581reset": 4180,
    "\u2581unmap": 4181,
    "\u2581unmapviewoffile": 4182,
    "ted": 4183,
    "\u25810x3001": 4184,
    "\u2581getfull": 4185,
    "\u2581tlsfree": 4186,
    "\u25810x100fdd": 4187,
    "\u2581shgetfileinfow": 4188,
    "\u25810x42a190": 4189,
    "\u25810x1211ec8": 4190,
    "407": 4191,
    "\u25810x9020": 4192,
    "\u25810xffec": 4193,
    "\u2581program": 4194,
    "\u25810x7a10": 4195,
    "\u25810x437ad": 4196,
    "5ec": 4197,
    "\u25813d": 4198,
    "aler": 4199,
    "\u25810x70a8": 4200,
    "fbc": 4201,
    "\u25810x437bc": 4202,
    "\u25810x437c4": 4203,
    "\u25810x4371e6": 4204,
    "\u25810x4371e7": 4205,
    "\u2581createsemaphorew": 4206,
    "954": 4207,
    "\u25810x416": 4208,
    "\u25810x1076": 4209,
    "\u25810x1210c": 4210,
    "dfc": 4211,
    "\u25810x409364": 4212,
    "\u2581createprocessw": 4213,
    "9b6": 4214,
    "b7c3": 4215,
    "\u25810x53000": 4216,
    "\u25810x1211e40": 4217,
    "d55": 4218,
    "\u2581om": 4219,
    "image": 4220,
    "\u25810x43b7b9": 4221,
    "\u25810x43b7c3": 4222,
    "24c": 4223,
    "3b0": 4224,
    "ee2": 4225,
    "\u25810x415c": 4226,
    "3b5": 4227,
    "a69": 4228,
    "olf": 4229,
    "\u2581golf": 4230,
    "9c9": 4231,
    "b68": 4232,
    "dicon": 4233,
    "ock32": 4234,
    "secor": 4235,
    "\u25810xaf": 4236,
    "\u25810x7db8": 4237,
    "\u2581omsecor": 4238,
    "\u2581wsock32": 4239,
    "associate": 4240,
    "associatedicon": 4241,
    "\u2581initializesrwlock": 4242,
    "\u2581extractassociatedicon": 4243,
    "\u25810x4444": 4244,
    "\u25810xffca": 4245,
    "\u25810xfeee01a": 4246,
    "\u25810xb4": 4247,
    "\u2581cannot": 4248,
    "atethread": 4249,
    "\u2581setenvironmentvariablew": 4250,
    "23d": 4251,
    "f34": 4252,
    "c018": 4253,
    "vert": 4254,
    "l6660d": 4255,
    "\u25810x7fc": 4256,
    "\u25810x412565": 4257,
    "\u25810x412566": 4258,
    "\u2581getenvironmentstring": 4259,
    "\u2581getuserdefaultuilanguage": 4260,
    "888": 4261,
    "\u25810x7db9": 4262,
    "\u2581exitthread": 4263,
    "93d": 4264,
    "\u25810x8815": 4265,
    "\u2581sprintf": 4266,
    "\u25810x1211e20": 4267,
    "a90": 4268,
    "b04": 4269,
    "b90": 4270,
    "e68": 4271,
    "\u25810x454bb8": 4272,
    "\u2581dispatch": 4273,
    "\u25810x12116c0": 4274,
    "ssp": 4275,
    "\u25810x1211790": 4276,
    "pp": 4277,
    "\u25810x535": 4278,
    "\u2581regenum": 4279,
    "\u2581userprofil": 4280,
    "drl6660drl6660drl6660drl6660drl6660": 4281,
    "60e": 4282,
    "\u25810x9f": 4283,
    "per": 4284,
    "direct": 4285,
    "\u25810x4e39": 4286,
    "\u25810xffef": 4287,
    "fed": 4288,
    "ons": 4289,
    "ystate": 4290,
    "\u2581getfileattributesa": 4291,
    "bb8": 4292,
    "f44": 4293,
    "f49": 4294,
    "\u25810x600": 4295,
    "741": 4296,
    "918": 4297,
    "\u2581sr": 4298,
    "3cf0": 4299,
    "123": 4300,
    "ervice": 4301,
    "installed": 4302,
    "\u2581getenvironmentstrings": 4303,
    "1c7": 4304,
    "dd4": 4305,
    "\u25810x4603": 4306,
    "\u2581charprevw": 4307,
    "\u2581add": 4308,
    "22c": 4309,
    "log": 4310,
    "\u25810x1211738": 4311,
    "386": 4312,
    "586": 4313,
    "da9": 4314,
    "\u25810x40b8": 4315,
    "\u2581terminatethread": 4316,
    "645": 4317,
    "unction": 4318,
    "3e2": 4319,
    "634": 4320,
    "a4c4": 4321,
    "\u2581files": 4322,
    "\u2581internet": 4323,
    "70e": 4324,
    "bb4": 4325,
    "\u25810x40a0": 4326,
    "bd8": 4327,
    "d72": 4328,
    "edu": 4329,
    "f7c": 4330,
    "ort": 4331,
    "procedu": 4332,
    "37c": 4333,
    "3cc": 4334,
    "a19": 4335,
    "\u25810x1002": 4336,
    "\u2581strcpy": 4337,
    "\u2581createdi": 4338,
    "\u2581getmodulehandleexw": 4339,
    "ce2": 4340,
    "edp": 4341,
    "\u25810x411b": 4342,
    "\u2581getusernamea": 4343,
    "6b2": 4344,
    "tem": 4345,
    "\u2581deleteob": 4346,
    "\u2581flushfile": 4347,
    "\u2581flushfilebuffers": 4348,
    "f7a8": 4349,
    "\u25810xbf": 4350,
    "\u25810xfff5": 4351,
    "\u25810x1211f5c": 4352,
    "19e": 4353,
    "gex": 4354,
    "\u2581txt": 4355,
    "\u25810xd8": 4356,
    "\u25810x754": 4357,
    "copy": 4358,
    "\u25810x90f0": 4359,
    "dac": 4360,
    "f60": 4361,
    "\u25810x4990": 4362,
    "bfc": 4363,
    "entin": 4364,
    "\u2581filenotfound": 4365,
    "\u2581defwindowproca": 4366,
    "cod": 4367,
    "da0": 4368,
    "\u25810x1b5": 4369,
    "\u25810x7bc": 4370,
    "6c4": 4371,
    "aec": 4372,
    "block": 4373,
    "\u2581getexit": 4374,
    "\u25810x12119a0": 4375,
    "234": 4376,
    "294": 4377,
    "\u25810xffc8": 4378,
    "63c": 4379,
    "dca": 4380,
    "lip": 4381,
    "arta": 4382,
    "\u25810x430fec": 4383,
    "158": 4384,
    "\u25810x7b00": 4385,
    "\u25810x44f8c8": 4386,
    "c89": 4387,
    "eaa": 4388,
    "f84": 4389,
    "medi": 4390,
    "\u2581ntm": 4391,
    "\u2581ntmarta": 4392,
    "\u25810x10005c": 4393,
    "\u25810x4093a5": 4394,
    "\u25810x4093a6": 4395,
    "\u25810x4093a7": 4396,
    "\u25810x4093a8": 4397,
    "\u25810x4093a9": 4398,
    "\u25810x4093aa": 4399,
    "\u25810x4093ab": 4400,
    "\u25810x430db0": 4401,
    "\u25810x44f850": 4402,
    "\u25810x44f868": 4403,
    "\u25810x44f880": 4404,
    "\u25810x44f898": 4405,
    "\u25810x44f8b0": 4406,
    "\u25810x44f8f8": 4407,
    "\u25810x44f940": 4408,
    "\u25810x44f958": 4409,
    "\u25810x44f970": 4410,
    "\u25810x44f988": 4411,
    "sg": 4412,
    "xf": 4413,
    "582": 4414,
    "66a": 4415,
    "thi": 4416,
    "\u25810x770c": 4417,
    "\u25810x7711": 4418,
    "\u25810x7dbc": 4419,
    "\u25810x7dbd": 4420,
    "\u25810x42168c": 4421,
    "\u25810x4175": 4422,
    "\u25810xffad": 4423,
    "\u2581beginup": 4424,
    "\u25810x41e93e": 4425,
    "\u25810x41ebfa": 4426,
    "\u25810x41ebfb": 4427,
    "\u25810x42168b": 4428,
    "3e4": 4429,
    "56c": 4430,
    "ff4": 4431,
    "ormata": 4432,
    "\u25810x41f6": 4433,
    "\u25810x1211d50": 4434,
    "5c6": 4435,
    "lack": 4436,
    "\u25810x44c": 4437,
    "\u25810x4229c1": 4438,
    "\u25810x1211e58": 4439,
    "\u2581437": 4440,
    "\u2581ftp": 4441,
    "licen": 4442,
    "\u25810xffc7": 4443,
    "software": 4444,
    "\u2581translatem": 4445,
    "\u2581messageboxw": 4446,
    "enh": 4447,
    "othe": 4448,
    "\u25810x437b7": 4449,
    "\u25810x410acd": 4450,
    "\u25810x410ace": 4451,
    "\u25810x461548": 4452,
    "fa4": 4453,
    "7170": 4454,
    "ackgro": 4455,
    "\u25810x4066": 4456,
    "\u2581allocate": 4457,
    "\u2581directory": 4458,
    "yourcomputer": 4459,
    "rey": 4460,
    "days": 4461,
    "find": 4462,
    "\u2581atex": 4463,
    "dealer": 4464,
    "\u25810x22e": 4465,
    "\u25810x698": 4466,
    "\u25811days": 4467,
    "\u25810x4041": 4468,
    "\u2581atexit": 4469,
    "\u2581border": 4470,
    "havebeen": 4471,
    "\u2581backgro": 4472,
    "allcadwork": 4473,
    "\u2581intermedi": 4474,
    "reallywantto": 4475,
    "\u2581openanexploreron": 4476,
    "128": 4477,
    "a64": 4478,
    "a65": 4479,
    "ens": 4480,
    "9920": 4481,
    "esid": 4482,
    "\u2581new": 4483,
    "\u2581sub": 4484,
    "\u2581wak": 4485,
    "\u25810xba": 4486,
    "\u25810x492": 4487,
    "\u25810x7bc00000": 4488,
    "andinitializ": 4489,
    "andinitializesid": 4490,
    "\u2581wakeconditionvariable": 4491,
    "\u2581allocateandinitializesid": 4492,
    "362": 4493,
    "750": 4494,
    "96c": 4495,
    "b06": 4496,
    "bc4": 4497,
    "\u2581mpr": 4498,
    "\u25810x28c": 4499,
    "\u25810x7c90": 4500,
    "\u2581getlogicaldrivestringsa": 4501,
    "pk": 4502,
    "1c8": 4503,
    "d60": 4504,
    "ension": 4505,
    "\u2581registers": 4506,
    "69e": 4507,
    "e054": 4508,
    "\u25810x422980": 4509,
    "\u25810x423cf0": 4510,
    "\u2581dllonexit": 4511,
    "1cb": 4512,
    "b82": 4513,
    "\u2581memcpy": 4514,
    "\u25810x42286e": 4515,
    "\u25810x42286f": 4516,
    "\u25810x4228e1": 4517,
    "\u25810x4228e2": 4518,
    "\u25810x422963": 4519,
    "\u25810x422964": 4520,
    "\u25810x42297f": 4521,
    "\u25810x4229c2": 4522,
    "\u25810x4229fa": 4523,
    "\u25810x4229fb": 4524,
    "\u25810x422a0d": 4525,
    "\u25810x422a0e": 4526,
    "\u25810x42329e": 4527,
    "\u25810x42329f": 4528,
    "\u25810x4233fc": 4529,
    "\u25810x423cef": 4530,
    "\u25810x697070": 4531,
    "6e5": 4532,
    "f90": 4533,
    "usp": 4534,
    "\u2581subm": 4535,
    "poolwork": 4536,
    "\u2581releasemutex": 4537,
    "\u2581submitthread": 4538,
    "\u2581closethreadpoolwork": 4539,
    "\u2581createthreadpoolwork": 4540,
    "\u2581submitthreadpoolwork": 4541,
    "\u2581setfileinformationbyhandle": 4542,
    "ed0": 4543,
    "\u2581lo": 4544,
    "ible": 4545,
    "andar": 4546,
    "\u25810xc4": 4547,
    "\u25810x4300": 4548,
    "\u25810x7dc1": 4549,
    "\u25810x8e90": 4550,
    "\u2581launch": 4551,
    "\u2581registerclipboardformata": 4552,
    "\u2581ie": 4553,
    "\u25810x411c": 4554,
    "isation": 4555,
    "\u25810x8410": 4556,
    "adc": 4557,
    "pop": 4558,
    "ower": 4559,
    "\u25810x7f6": 4560,
    "\u25810x429902": 4561,
    "\u25810x429903": 4562,
    "\u25810x42990c": 4563,
    "\u25810x42990d": 4564,
    "\u25810x429920": 4565,
    "\u25810x429921": 4566,
    "745": 4567,
    "9c4": 4568,
    "llow": 4569,
    "longa": 4570,
    "\u2581exit": 4571,
    "\u25810x604": 4572,
    "\u25810xffe8": 4573,
    "\u2581unlock": 4574,
    "\u25810x40f6a8": 4575,
    "\u25810x42992a": 4576,
    "\u25810x42992b": 4577,
    "\u25810x42a403": 4578,
    "\u25810x42a404": 4579,
    "\u25810x42a405": 4580,
    "\u25810x42a406": 4581,
    "\u25810x42a407": 4582,
    "\u25810x42a408": 4583,
    "\u25810x42a409": 4584,
    "\u25810x42a40a": 4585,
    "\u25810x42a40b": 4586,
    "\u25810x42a40c": 4587,
    "\u25810x42a40d": 4588,
    "\u25810x42a40e": 4589,
    "\u25810x42a40f": 4590,
    "186": 4591,
    "status": 4592,
    "\u2581gettempfilena": 4593,
    "3b6": 4594,
    "\u2581ri": 4595,
    "\u25810xde": 4596,
    "\u2581evie": 4597,
    "ground": 4598,
    "\u25810x7a4": 4599,
    "\u25810x4195": 4600,
    "\u25810x84b0": 4601,
    "\u25810xffc4": 4602,
    "\u25810xffc9": 4603,
    "beb": 4604,
    "f8d": 4605,
    "\u2581gb": 4606,
    "\u2581wr": 4607,
    "\u2581psc": 4608,
    "\u2581vie": 4609,
    "\u25810x4aa0": 4610,
    "foreground": 4611,
    "foregroundwindow": 4612,
    "6a0": 4613,
    "\u25810x82f0": 4614,
    "\u2581module": 4615,
    "1dd": 4616,
    "238": 4617,
    "e10": 4618,
    "\u2581qa": 4619,
    "\u2581selectob": 4620,
    "332": 4621,
    "f70": 4622,
    "pla": 4623,
    "53a0": 4624,
    "client": 4625,
    "\u2581createwindowexw": 4626,
    "312": 4627,
    "578": 4628,
    "e64": 4629,
    "edcc": 4630,
    "75000": 4631,
    "\u2581module32": 4632,
    "75a": 4633,
    "b20": 4634,
    "bed": 4635,
    "d06": 4636,
    "\u2581if": 4637,
    "35000": 4638,
    "\u25810x40a92e": 4639,
    "\u25810x40a930": 4640,
    "\u25810x40a932": 4641,
    "\u25810x40a934": 4642,
    "\u25810x40a936": 4643,
    "\u25810x40a938": 4644,
    "\u25810x40a93a": 4645,
    "\u2581shellexecutew": 4646,
    "\u2581removedirectorya": 4647,
    "1a7": 4648,
    "379": 4649,
    "7ac": 4650,
    "ablet": 4651,
    "\u25810x164": 4652,
    "processmemory": 4653,
    "\u2581regsetvalueexw": 4654,
    "69c0": 4655,
    "ed24": 4656,
    "\u2581conne": 4657,
    "\u25810x3f22": 4658,
    "a1a": 4659,
    "d10": 4660,
    "\u2581findwindowa": 4661,
    "ched": 4662,
    "\u25810x7c40": 4663,
    "\u25810xffd0": 4664,
    "\u2581riched": 4665,
    "\u2581geticon": 4666,
    "\u25810x1210e34": 4667,
    "db4": 4668,
    "39000": 4669,
    "69000": 4670,
    "\u25810x8330": 4671,
    "\u25810x4540e0": 4672,
    "1d8": 4673,
    "b38": 4674,
    "40284": 4675,
    "\u2581back": 4676,
    "\u25810x4164": 4677,
    "\u25810x4b40": 4678,
    "\u25810x8310": 4679,
    "\u25810x2840284": 4680,
    "1d5": 4681,
    "685": 4682,
    "757": 4683,
    "outa": 4684,
    "\u25810x4c50c0": 4685,
    "\u25810x1211e90": 4686,
    "af0": 4687,
    "bff": 4688,
    "indi": 4689,
    "lity": 4690,
    "\u25810x8340": 4691,
    "\u25810xffc2": 4692,
    "\u25810xfff4": 4693,
    "\u2581createfon": 4694,
    "\u2581getcursor": 4695,
    "3ce": 4696,
    "94a": 4697,
    "be7": 4698,
    "emo": 4699,
    "lot": 4700,
    "\u2581writ": 4701,
    "\u25810x7d20": 4702,
    "\u25810x1211e98": 4703,
    "fc8": 4704,
    "\u258150": 4705,
    "relea": 4706,
    "selec": 4707,
    "\u2581openprocess": 4708,
    "528": 4709,
    "\u25810xb2": 4710,
    "\u25810x88c0": 4711,
    "\u2581writec": 4712,
    "\u25810x3020302": 4713,
    "\u2581setbkcolor": 4714,
    "775": 4715,
    "b56": 4716,
    "\u2581exp": 4717,
    "proces": 4718,
    "\u25810x3820": 4719,
    "\u25810x698b8c": 4720,
    "\u25810x12117c8": 4721,
    "f69": 4722,
    "\u2581ac": 4723,
    "eth": 4724,
    "f1e": 4725,
    "\u25810x40d9": 4726,
    "register": 4727,
    "a98": 4728,
    "b28": 4729,
    "our": 4730,
    "\u25810x7890": 4731,
    "\u25810xffc1": 4732,
    "afe": 4733,
    "amet": 4734,
    "354": 4735,
    "678": 4736,
    "aut": 4737,
    "etw": 4738,
    "accel": 4739,
    "910": 4740,
    "b63": 4741,
    "daa": 4742,
    "toc": 4743,
    "20c0": 4744,
    "olec": 4745,
    "\u2581cau": 4746,
    "\u2581htons": 4747,
    "egistry": 4748,
    "\u2581caution": 4749,
    "\u25810x1211bfc": 4750,
    "\u2581getwindowsdirectoryw": 4751,
    "7c7": 4752,
    "e42": 4753,
    "3ef0": 4754,
    "\u2581opent": 4755,
    "ervicectrl": 4756,
    "\u2581openthread": 4757,
    "\u2581registerservicectrl": 4758,
    "152": 4759,
    "bd5": 4760,
    "f77": 4761,
    "ope": 4762,
    "\u2581append": 4763,
    "171": 4764,
    "380": 4765,
    "b4c": 4766,
    "chr": 4767,
    "d98": 4768,
    "\u25810x4020": 4769,
    "\u25810x78c0": 4770,
    "201": 4771,
    "itor": 4772,
    "reen": 4773,
    "3d000": 4774,
    "frame": 4775,
    "\u25810x6a": 4776,
    "3ed": 4777,
    "a28": 4778,
    "e94": 4779,
    "fox": 4780,
    "entr": 4781,
    "\u2581for": 4782,
    "10381": 4783,
    "\u2581getprivateprofilestringa": 4784,
    "1f0": 4785,
    "\u2581vc": 4786,
    "opene": 4787,
    "\u25810x7460": 4788,
    "fic": 4789,
    "formatw": 4790,
    "\u25810x7dc4": 4791,
    "dlg": 4792,
    "ff40": 4793,
    "valuew": 4794,
    "forcadwork": 4795,
    "\u25810x1210e30": 4796,
    "3e7": 4797,
    "ce1": 4798,
    "d14": 4799,
    "\u2581cqa": 4800,
    "\u2581scqa": 4801,
    "\u2581pscqa": 4802,
    "\u25810x2280": 4803,
    "vironmentstringsa": 4804,
    "980": 4805,
    "ecode": 4806,
    "\u2581socket": 4807,
    "964": 4808,
    "roniz": 4809,
    "\u25810x42a": 4810,
    "\u25810x57c": 4811,
    "ocreate": 4812,
    "\u25810x7dc5": 4813,
    "\u25810x8d30": 4814,
    "\u25810x47ee08": 4815,
    "\u2581synchroniz": 4816,
    "314": 4817,
    "2c55": 4818,
    "\u2581wtsapi32": 4819,
    "b80": 4820,
    "f45": 4821,
    "0048": 4822,
    "\u25810x42c": 4823,
    "networklicence": 4824,
    "264": 4825,
    "d43": 4826,
    "b47c": 4827,
    "1e000": 4828,
    "\u25810xba8": 4829,
    "\u2581translatemessage": 4830,
    "1d1": 4831,
    "9b0": 4832,
    "ecd": 4833,
    "betw": 4834,
    "e1d4": 4835,
    "ypea": 4836,
    "scroll": 4837,
    "between": 4838,
    "\u25810x7f80": 4839,
    "\u25810xcccc": 4840,
    "692": 4841,
    "765": 4842,
    "\u25810x43b4": 4843,
    "\u25810x593748": 4844,
    "1c6": 4845,
    "fb0": 4846,
    "71000": 4847,
    "\u25810xdf": 4848,
    "\u25810x407b": 4849,
    "\u25810x4d80": 4850,
    "\u25810x51a0": 4851,
    "\u25810x74d0": 4852,
    "a30": 4853,
    "10301": 4854,
    "\u25810xebad": 4855,
    "\u25810x3010301": 4856,
    "\u2581getdrivetypea": 4857,
    "b880": 4858,
    "\u25810xffae": 4859,
    "\u2581sldrl6660drl6660drl6660drl6660drl6660drl6660drl6660drl6660": 4860,
    "ba8": 4861,
    "lcid": 4862,
    "remo": 4863,
    "\u2581getdi": 4864,
    "3c5": 4865,
    "aad": 4866,
    "\u2581fre": 4867,
    "ualfox": 4868,
    "\u25810x160": 4869,
    "dd8": 4870,
    "f03": 4871,
    "\u25810x7ef0": 4872,
    "243": 4873,
    "fd0": 4874,
    "tex": 4875,
    "\u25810x71c0": 4876,
    "sessionid": 4877,
    "textcolor": 4878,
    "3b9": 4879,
    "5bc": 4880,
    "a37": 4881,
    "fba": 4882,
    "\u25810x11000": 4883,
    "\u25810x5607a8": 4884,
    "det": 4885,
    "ongles": 4886,
    "installation": 4887,
    "18a": 4888,
    "isplay": 4889,
    "\u25810x54000": 4890,
    "\u25810x60000": 4891,
    "\u25810xb5": 4892,
    "\u25810x572": 4893,
    "\u25810xebad74": 4894,
    "\u25810x1153ef0": 4895,
    "9fe": 4896,
    "\u2581rec": 4897,
    "2c1": 4898,
    "f084": 4899,
    "902e0": 4900,
    "\u25810x4902e0": 4901,
    "\u25810x563a20": 4902,
    "aab": 4903,
    "bd2": 4904,
    "f5c": 4905,
    "fcc": 4906,
    "7675": 4907,
    "a440": 4908,
    "\u2581opens": 4909,
    "\u2581setst": 4910,
    "aterect": 4911,
    "created": 4912,
    "\u25810x496790": 4913,
    "\u25810x4af460": 4914,
    "\u2581settimer": 4915,
    "\u25810x1210f35": 4916,
    "\u25810x1211768": 4917,
    "1c2": 4918,
    "3a0": 4919,
    "906": 4920,
    "\u25810mb": 4921,
    "ac38": 4922,
    "f4e4": 4923,
    "bd000": 4924,
    "\u2581from": 4925,
    "ensions": 4926,
    "\u25810x8d50": 4927,
    "\u25810xffaf": 4928,
    "\u2581copyfilew": 4929,
    "a32": 4930,
    "b42": 4931,
    "ea0": 4932,
    "\u2581bit": 4933,
    "\u25810x5b2": 4934,
    "\u25810x97a0": 4935,
    "\u2581setstdhandle": 4936,
    "d26": 4937,
    "\u25810x7f10": 4938,
    "75c": 4939,
    "ac2": 4940,
    "dd0": 4941,
    "olid": 4942,
    "15000": 4943,
    "runtime": 4944,
    "\u25810x8b50": 4945,
    "processto": 4946,
    "\u2581postquit": 4947,
    "\u2581postquitmessage": 4948,
    "3ba": 4949,
    "fc5": 4950,
    "cons": 4951,
    "f6fc": 4952,
    "\u25810xdb": 4953,
    "ce0000": 4954,
    "\u25810x3f4000": 4955,
    "706": 4956,
    "9ac": 4957,
    "ptr": 4958,
    "\u2581fil": 4959,
    "e1000": 4960,
    "\u2581vers": 4961,
    "\u25810x7ba": 4962,
    "\u25810x42eb": 4963,
    "\u25810x7070": 4964,
    "\u25810x7620": 4965,
    "580": 4966,
    "dc2": 4967,
    "utton": 4968,
    "\u25810xeb": 4969,
    "\u2581susp": 4970,
    "\u2581service": 4971,
    "\u2581getcomputernamea": 4972,
    "982": 4973,
    "a97": 4974,
    "\u25810x402": 4975,
    "17c": 4976,
    "1514": 4977,
    "\u2581winht": 4978,
    "\u25810x3f29": 4979,
    "\u25810x4770": 4980,
    "\u25810x181b70": 4981,
    "\u25810x7ba00000": 4982,
    "processtoken": 4983,
    "\u2581openprocesstoken": 4984,
    "a67": 4985,
    "a9c": 4986,
    "\u2581freesid": 4987,
    "runtime140": 4988,
    "\u2581vcruntime140": 4989,
    "365": 4990,
    "brow": 4991,
    "c8bd": 4992,
    "\u25810x130": 4993,
    "\u25810x188e": 4994,
    "\u25810x169b7": 4995,
    "35c": 4996,
    "6e8": 4997,
    "a0e": 4998,
    "\u25810x180c": 4999,
    "\u25810x4c51": 5000,
    "\u25810xffc3": 5001,
    "\u25810x1211938": 5002,
    "110": 5003,
    "dos": 5004,
    "f14": 5005,
    "\u2581lib": 5006,
    "\u25810x406698": 5007,
    "\u25810x7eab78": 5008,
    "28d": 5009,
    "9e0": 5010,
    "94a8": 5011,
    "mple": 5012,
    "\u25810x10b": 5013,
    "\u25810x5375": 5014,
    "\u25810x72d8": 5015,
    "14d": 5016,
    "b3c": 5017,
    "287e": 5018,
    "\u2581getob": 5019,
    "\u25810x4a40": 5020,
    "7f7": 5021,
    "a8c": 5022,
    "\u2581ol": 5023,
    "\u25817z2": 5024,
    "\u25817z8": 5025,
    "\u25810xdc": 5026,
    "\u25817z30": 5027,
    "\u25810x70e0": 5028,
    "\u2581suspend": 5029,
    "olidbrush": 5030,
    "\u25810x10000000": 5031,
    "\u2581suspendthread": 5032,
    "\u2581createsolidbrush": 5033,
    "f35": 5034,
    "destroy": 5035,
    "\u25810x44d5": 5036,
    "\u25810x44ed": 5037,
    "\u25810x7100": 5038,
    "\u2581golfinfo": 5039,
    "\u25810x1211f14": 5040,
    "\u2581setwindowpos": 5041,
    "126": 5042,
    "eto": 5043,
    "\u2581ob": 5044,
    "19000": 5045,
    "d7c": 5046,
    "f20": 5047,
    "utd": 5048,
    "nexec": 5049,
    "config": 5050,
    "\u25810xff90": 5051,
    "\u2581winexec": 5052,
    "anew": 5053,
    "erat": 5054,
    "\u25810x417": 5055,
    "\u25810x437038": 5056,
    "923": 5057,
    "b71": 5058,
    "b188": 5059,
    "tindirect": 5060,
    "\u25810x4540b0": 5061,
    "\u25810x7ee000": 5062,
    "\u25810x1211518": 5063,
    "\u2581createfontindirect": 5064,
    "adm": 5065,
    "afc": 5066,
    "b8e": 5067,
    "b91": 5068,
    "\u25810xf1": 5069,
    "\u25810x700": 5070,
    "\u25810x7f8002": 5071,
    "\u25810x7f8010": 5072,
    "\u2581deletedc": 5073,
    "a5d": 5074,
    "\u25810x4030": 5075,
    "\u25810x40a4": 5076,
    "\u25810x7cb0": 5077,
    "\u25810xffdf": 5078,
    "\u2581default": 5079,
    "\u25810x4af478": 5080,
    "10d": 5081,
    "1f8": 5082,
    "54a": 5083,
    "5f0": 5084,
    "bf4": 5085,
    "\u25810x40d": 5086,
    "\u25810x4a80": 5087,
    "\u25810x7b60": 5088,
    "\u25810x7dc9": 5089,
    "\u25810x509e4": 5090,
    "\u25810x52664": 5091,
    "accelerat": 5092,
    "\u25810x43a4c8": 5093,
    "systemtime": 5094,
    "\u25810x1211e8c": 5095,
    "\u2581regqueryvalueexa": 5096,
    "25c": 5097,
    "9ce": 5098,
    "ctrl": 5099,
    "util": 5100,
    "\u25810xb1": 5101,
    "\u25810x1d4": 5102,
    "\u2581wsast": 5103,
    "\u2581wsastartup": 5104,
    "1b5": 5105,
    "eb0": 5106,
    "4000": 5107,
    "a5000": 5108,
    "specw": 5109,
    "\u25810x415": 5110,
    "drawing": 5111,
    "\u2581verset": 5112,
    "\u2581appendw": 5113,
    "\u25810x1211584": 5114,
    "\u2581movefilew": 5115,
    "\u25810xfeedf000": 5116,
    "conditionmask": 5117,
    "\u2581createcompatibledc": 5118,
    "\u2581versetconditionmask": 5119,
    "115": 5120,
    "402": 5121,
    "fb6": 5122,
    "\u2581text": 5123,
    "\u25810x474": 5124,
    "\u25810x100b": 5125,
    "\u25810xfffffffc": 5126,
    "005": 5127,
    "168": 5128,
    "1b2": 5129,
    "26d": 5130,
    "666": 5131,
    "\u25810x798": 5132,
    "\u25810xffe9": 5133,
    "\u2581bitblt": 5134,
    "\u2581removefile": 5135,
    "242": 5136,
    "387": 5137,
    "d4b": 5138,
    "\u25810xc3": 5139,
    "\u25810x7f02": 5140,
    "\u25810x455438": 5141,
    "\u25810x1211cb8": 5142,
    "mt": 5143,
    "325": 5144,
    "44d": 5145,
    "\u25810x3f23": 5146,
    "\u2581settextcolor": 5147,
    "\u2581removefilespecw": 5148,
    "ou": 5149,
    "7de": 5150,
    "bcd4": 5151,
    "d678": 5152,
    "\u2581getstringtyp": 5153,
    "\u2581invalidaterect": 5154,
    "134": 5155,
    "35e4": 5156,
    "\u2581fill": 5157,
    "lotter": 5158,
    "\u25810x7d27": 5159,
    "\u25810x5265c28": 5160,
    "servicehandle": 5161,
    "\u2581closeservicehandle": 5162,
    "202": 5163,
    "650": 5164,
    "empty": 5165,
    "\u25810x6f6": 5166,
    "\u25810x40b7": 5167,
    "\u25810x7310": 5168,
    "\u2581lstrcmpia": 5169,
    "\u2581dispatchmessagea": 5170,
    "a68": 5171,
    "f91": 5172,
    "ails": 5173,
    "\u25810x4cb00": 5174,
    "\u2581getthreadpriority": 5175,
    "b76": 5176,
    "whi": 5177,
    "91000": 5178,
    "\u25810x584": 5179,
    "\u2581srand": 5180,
    "\u25810x7380": 5181,
    "\u25810x75b0": 5182,
    "\u25810x7770": 5183,
    "\u25810x48f894": 5184,
    "40f": 5185,
    "91c": 5186,
    "e92": 5187,
    "ableto": 5188,
    "\u25810x7fa": 5189,
    "\u25810x85d0": 5190,
    "\u25810x40f937": 5191,
    "\u25810x1211d7c": 5192,
    "00a": 5193,
    "c8a": 5194,
    "12b8": 5195,
    "68c8": 5196,
    "orary": 5197,
    "uldnot": 5198,
    "\u25810x6e7": 5199,
    "\u25810x47d0": 5200,
    "\u25810x6ab8": 5201,
    "\u25810x83e0": 5202,
    "3915": 5203,
    "b81c": 5204,
    "icen": 5205,
    "ssetup": 5206,
    "\u25810x4e2": 5207,
    "\u25810x3f24": 5208,
    "\u25810x4b80": 5209,
    "\u25810x8f20": 5210,
    "\u25810x1211ed4": 5211,
    "9d6": 5212,
    "zip": 5213,
    "follow": 5214,
    "\u25810xffde": 5215,
    "following": 5216,
    "\u2581getforegroundwindow": 5217,
    "3c6": 5218,
    "ceb": 5219,
    "ipe": 5220,
    "b5000": 5221,
    "\u25810x417c": 5222,
    "\u25810x42ed": 5223,
    "\u25810x7dd0": 5224,
    "\u25810x41aab0": 5225,
    "\u25810x1211e88": 5226,
    "\u2581createcompatiblebitmap": 5227,
    "6b0": 5228,
    "6d7": 5229,
    "9f8": 5230,
    "f24": 5231,
    "ther": 5232,
    "\u25810x3f28": 5233,
    "\u25810x41aa80": 5234,
    "\u25810x1211cfc": 5235,
    "\u25810x1211ddc": 5236,
    "wil": 5237,
    "24ac": 5238,
    "80d8": 5239,
    "9228": 5240,
    "\u2581cod": 5241,
    "cmanag": 5242,
    "\u25810x41ab": 5243,
    "\u25810x7500": 5244,
    "informati": 5245,
    "\u25810x1211ad4": 5246,
    "\u2581thisprogram": 5247,
    "vb": 5248,
    "527": 5249,
    "6d8": 5250,
    "a06": 5251,
    "b1c": 5252,
    "pdf": 5253,
    "web": 5254,
    "000c": 5255,
    "\u25810xd2": 5256,
    "\u25810xe00": 5257,
    "\u25810x461500": 5258,
    "\u2581openscmanag": 5259,
    "ece": 5260,
    "now": 5261,
    "edfrom": 5262,
    "yourpc": 5263,
    "\u25810x4de": 5264,
    "\u25810x7e0": 5265,
    "\u25810x7dcc": 5266,
    "\u25810x169be": 5267,
    "\u2581application": 5268,
    "\u2581getusernamew": 5269,
    "aaaaaaaaaaaaaaaa": 5270,
    "ui": 5271,
    "d1c": 5272,
    "node": 5273,
    "\u25810x120f": 5274,
    "\u25810x41c4": 5275,
    "\u25810x45cd": 5276,
    "\u25810xffdd": 5277,
    "\u25810x1211888": 5278,
    "\u2581installation": 5279,
    "5a0": 5280,
    "dc67": 5281,
    "pire": 5282,
    "sthe": 5283,
    "advis": 5284,
    "\u2581demo": 5285,
    "before": 5286,
    "\u25810x7b98": 5287,
    "\u25810x7dcd": 5288,
    "\u25810x58000": 5289,
    "beforeyou": 5290,
    "674": 5291,
    "c45": 5292,
    "artn": 5293,
    "grey": 5294,
    "itis": 5295,
    "undb": 5296,
    "word": 5297,
    "codes": 5298,
    "\u2581bind": 5299,
    "\u2581itis": 5300,
    "inting": 5301,
    "stries": 5302,
    "\u25810x636": 5303,
    "edfiles": 5304,
    "withthi": 5305,
    "\u25810x45b1": 5306,
    "\u2581prints": 5307,
    "catalogs": 5308,
    "continue": 5309,
    "swindows": 5310,
    "undblack": 5311,
    "\u2581charlow": 5312,
    "isalready": 5313,
    "ocontinue": 5314,
    "ofcadwork": 5315,
    "\u25810x437800": 5316,
    "\u2581clientin": 5317,
    "abletoquit": 5318,
    "informatik": 5319,
    "sbeforeyou": 5320,
    "\u2581itisadvis": 5321,
    "\u2581startfile": 5322,
    "clientnumber": 5323,
    "\u2581pleasecheck": 5324,
    "withthissetup": 5325,
    "\u2581intermediate": 5326,
    "allyourrunning": 5327,
    "\u2581doyouwanttore": 5328,
    "\u2581dialogswindows": 5329,
    "\u2581backgroundblack": 5330,
    "sbeforeyoucontinue": 5331,
    "\u2581doyoureallywantto": 5332,
    "\u2581itisadvisabletoquit": 5333,
    "\u2581filetimetosystemtime": 5334,
    "allyourrunningapplication": 5335,
    "sbeforeyoucontinuewiththissetup": 5336,
    "\u2581itisadvisabletoquitallyourrunningapplication": 5337,
    "2de": 5338,
    "ec9": 5339,
    "\u2581x0": 5340,
    "bcb8": 5341,
    "39fa2": 5342,
    "datet": 5343,
    "\u25810x7ec4": 5344,
    "190": 5345,
    "\u25810x210": 5346,
    "\u25810x82c0": 5347,
    "\u25810x9810": 5348,
    "\u25810xffc0": 5349,
    "filesfrom": 5350,
    "\u25810x1211d60": 5351,
    "ci": 5352,
    "154": 5353,
    "dd5": 5354,
    "fae": 5355,
    "\u2581ro": 5356,
    "2ca4": 5357,
    "ad000": 5358,
    "b9000": 5359,
    "\u25810x41b1": 5360,
    "available": 5361,
    "\u25810x3f3000": 5362,
    "\u25810x83e014": 5363,
    "localfiletime": 5364,
    "\u2581getconsolemode": 5365,
    "\u2581filetimetolocalfiletime": 5366,
    "19c": 5367,
    "27e": 5368,
    "hoo": 5369,
    "\u25810xbb": 5370,
    "driver": 5371,
    "\u25810x1211d44": 5372,
    "\u25810x6ce0000": 5373,
    "772": 5374,
    "18d5": 5375,
    "7d4c": 5376,
    "enter": 5377,
    "\u2581choo": 5378,
    "\u25810x40f5": 5379,
    "\u25810x7dd1": 5380,
    "\u25810x7dd4": 5381,
    "\u25810x7dd5": 5382,
    "\u25810x7dd8": 5383,
    "\u25810x7dd9": 5384,
    "\u25810x435024": 5385,
    "\u2581textouta": 5386,
    "30f": 5387,
    "e2e": 5388,
    "30ec": 5389,
    "37ad": 5390,
    "a448": 5391,
    "79000": 5392,
    "\u25810x435026": 5393,
    "\u25810x435032": 5394,
    "\u2581lstrcmpw": 5395,
    "\u25810x1211e50": 5396,
    "\u25810x1211fb0": 5397,
    "thiscomputer": 5398,
    "7c8": 5399,
    "936": 5400,
    "e2b": 5401,
    "laser": 5402,
    "\u25810x40c4": 5403,
    "\u25810x7ddc": 5404,
    "\u25810x7ddd": 5405,
    "\u2581registerclassexw": 5406,
    "36b": 5407,
    "f0f9": 5408,
    "\u25810xe8": 5409,
    "\u25810xfe": 5410,
    "\u25810x7118": 5411,
    "\u25810x7428": 5412,
    "\u25810x4033e6": 5413,
    "3ae": 5414,
    "672": 5415,
    "5eb7": 5416,
    "dec5b": 5417,
    "\u25810x12108": 5418,
    "\u25810x20009": 5419,
    "\u2581gethost": 5420,
    "88d": 5421,
    "b05": 5422,
    "ddata": 5423,
    "\u25810xb9": 5424,
    "\u25810x424": 5425,
    "eresour": 5426,
    "\u25810x409e": 5427,
    "\u25810x71f8": 5428,
    "\u25810x7738": 5429,
    "\u25810x78f8": 5430,
    "\u25810x8490": 5431,
    "eresource": 5432,
    "\u25810x4e2de0": 5433,
    "\u25810xfeee009d": 5434,
    "13d": 5435,
    "164": 5436,
    "dified": 5437,
    "\u25810x4b4": 5438,
    "\u25810x59e": 5439,
    "\u25810x7038": 5440,
    "\u25810x7188": 5441,
    "\u25810x7348": 5442,
    "\u25810x7578": 5443,
    "\u25810xff91": 5444,
    "\u2581freeresource": 5445,
    "b7f": 5446,
    "3382": 5447,
    "\u25810x7268": 5448,
    "\u25810x73b8": 5449,
    "\u25810x7498": 5450,
    "\u25810x508d0": 5451,
    "\u2581convert": 5452,
    "\u2581readonly": 5453,
    "\u2581charpreva": 5454,
    "207": 5455,
    "\u25810xe7": 5456,
    "\u25810x7508": 5457,
    "\u25810x509a8": 5458,
    "15f": 5459,
    "a1c": 5460,
    "b39": 5461,
    "ine": 5462,
    "\u25810x452": 5463,
    "\u25810x5ab0": 5464,
    "\u25810x75e8": 5465,
    "\u25810x7658": 5466,
    "\u25810x76c8": 5467,
    "\u2581destroyicon": 5468,
    "\u2581shgetfileinfoa": 5469,
    "322": 5470,
    "\u2581os": 5471,
    "icli": 5472,
    "\u25810x59d": 5473,
    "\u25810x40e9": 5474,
    "\u25810x7ab8": 5475,
    "\u25810x40a3d1": 5476,
    "\u25810x40a3d2": 5477,
    "\u25810x40a3d3": 5478,
    "licenceson": 5479,
    "\u2581drawtexta": 5480,
    "790": 5481,
    "f51": 5482,
    "f54": 5483,
    "pkg": 5484,
    "3880": 5485,
    "3e3d": 5486,
    "bdf0": 5487,
    "c0f0": 5488,
    "f435": 5489,
    "\u25810x77a8": 5490,
    "\u25810x7c08": 5491,
    "\u25810x7d58": 5492,
    "\u25810xffeb": 5493,
    "servicestatus": 5494,
    "\u2581writeconsolew": 5495,
    "\u2581sfc": 5496,
    "\u2581ssp": 5497,
    "\u25810x40b5": 5498,
    "\u25810x7818": 5499,
    "\u25810x7888": 5500,
    "\u25810x7968": 5501,
    "\u25810x79d8": 5502,
    "\u25810x7a48": 5503,
    "\u25810x7b28": 5504,
    "\u25810x7c78": 5505,
    "\u25810x7ce8": 5506,
    "\u2581sspicli": 5507,
    "e76": 5508,
    "git": 5509,
    "msg": 5510,
    "okup": 5511,
    "\u2581inf": 5512,
    "\u25810x3f25": 5513,
    "\u25810x7e30": 5514,
    "\u25810xffd4": 5515,
    "\u2581lookup": 5516,
    "747": 5517,
    "92c": 5518,
    "\u2581ba": 5519,
    "\u25810x4609": 5520,
    "\u25810x573c": 5521,
    "\u25810x99a0": 5522,
    "\u25810x1211eb4": 5523,
    "dc7": 5524,
    "fa6": 5525,
    "\u25810x4364": 5526,
    "\u25810x1211d4c": 5527,
    "6c9": 5528,
    "\u25810xfeee009e": 5529,
    "ba0": 5530,
    "f37": 5531,
    "14de": 5532,
    "6684": 5533,
    "c480": 5534,
    "\u25810x419638": 5535,
    "\u25810x1211ebc": 5536,
    "17e": 5537,
    "b87": 5538,
    "f1d": 5539,
    "26c4": 5540,
    "\u25814d5": 5541,
    "17000": 5542,
    "\u25810xb6": 5543,
    "\u25810xc5": 5544,
    "\u25810x7aa": 5545,
    "\u25810x8f50": 5546,
    "\u2581riched20": 5547,
    "7137": 5548,
    "dfor": 5549,
    "\u25810x9e": 5550,
    "\u2581ifyou": 5551,
    "\u25810xffea": 5552,
    "\u2581getdibits": 5553,
    "willinstall": 5554,
    "ph": 5555,
    "vec": 5556,
    "drag": 5557,
    "\u25810xe2": 5558,
    "\u25810xac0": 5559,
    "\u25810x9030": 5560,
    "\u2581ntquery": 5561,
    "\u25810x1211d8c": 5562,
    "\u2581comparestringa": 5563,
    "f76": 5564,
    "\u2581dx": 5565,
    "11bc": 5566,
    "fbf8": 5567,
    "\u2581ldr": 5568,
    "\u25810xe4": 5569,
    "\u25810x3f2": 5570,
    "\u25810x418": 5571,
    "\u25810xfff3": 5572,
    "\u25810x14475": 5573,
    "\u2581connect": 5574,
    "\u2581setscroll": 5575,
    "\u25810xfeee009f": 5576,
    "\u2581writeprivateprofile": 5577,
    "b66": 5578,
    "e7ac": 5579,
    "ecta": 5580,
    "\u25810x4e80": 5581,
    "\u25810x6900": 5582,
    "\u25810x6f00": 5583,
    "\u2581iswindow": 5584,
    "5234": 5585,
    "\u2581ver": 5586,
    "b0cbc": 5587,
    "cc000": 5588,
    "\u25810x9d": 5589,
    "toyour": 5590,
    "\u25810x288": 5591,
    "\u25810x4491": 5592,
    "\u25810x4533": 5593,
    "\u25810x9110": 5594,
    "\u25810xfeedf200": 5595,
    "b62": 5596,
    "b74": 5597,
    "74f9": 5598,
    "b640": 5599,
    "\u25810xc7": 5600,
    "\u25810xf4": 5601,
    "byname": 5602,
    "\u25810x4be": 5603,
    "\u25810x8ce0": 5604,
    "\u25810x40a3d4": 5605,
    "\u25810x40f660": 5606,
    "b17": 5607,
    "f8e7": 5608,
    "\u25810x42d0": 5609,
    "\u25810x1210d90": 5610,
    "\u25810x1211a30": 5611,
    "\u2581gethostbyname": 5612,
    "\u2581regcreatekeyexa": 5613,
    "utdown": 5614,
    "\u25810x43c": 5615,
    "\u25810x500": 5616,
    "rl6660d": 5617,
    "\u25810x4c33": 5618,
    "\u25810x4e00": 5619,
    "\u25810x51000": 5620,
    "\u2581environ": 5621,
    "\u25810x1211e34": 5622,
    "\u25810xfeee00a1": 5623,
    "28c": 5624,
    "f42": 5625,
    "f5e": 5626,
    "\u2581rsa": 5627,
    "\u2581wor": 5628,
    "\u25810xd3": 5629,
    "\u25810x7b7": 5630,
    "\u25810xffd8": 5631,
    "\u2581rsaenh": 5632,
    "procedure": 5633,
    "selection": 5634,
    "\u2581systemti": 5635,
    "\u25810xfeee00a0": 5636,
    "\u2581localrealloc": 5637,
    "\u2581getsystemdefaultuilanguage": 5638,
    "ce7": 5639,
    "006c": 5640,
    "6088": 5641,
    "\u25810xd5": 5642,
    "\u2581dxgi": 5643,
    "\u25810x428": 5644,
    "\u25810x8430": 5645,
    "\u25810x4c32d8": 5646,
    "\u25810x4c32f0": 5647,
    "\u2581dxgidebug": 5648,
    "\u25810xfeee00a2": 5649,
    "\u2581getcursorpos": 5650,
    "695": 5651,
    "960": 5652,
    "ab0": 5653,
    "ba6": 5654,
    "ea7": 5655,
    "4010": 5656,
    "50f4": 5657,
    "\u25810xc2": 5658,
    "listmsg": 5659,
    "\u25810x42ea": 5660,
    "\u25810x107538": 5661,
    "\u25810x40a230": 5662,
    "\u2581commctrl": 5663,
    "\u25810x1210dec": 5664,
    "\u2581draglistmsg": 5665,
    "\u2581getmessagew": 5666,
    "\u2581regsetvalueexa": 5667,
    "3f3": 5668,
    "4058": 5669,
    "a064": 5670,
    "\u25810xd4": 5671,
    "\u25810x4780": 5672,
    "e8ca": 5673,
    "\u2581log": 5674,
    "blead": 5675,
    "\u2581call": 5676,
    "\u2581ismb": 5677,
    "\u25810x41ce": 5678,
    "\u25810x42ec": 5679,
    "\u25810x572c": 5680,
    "\u25810x7ed0": 5681,
    "\u25810x1211fdc": 5682,
    "\u25810x2000000": 5683,
    "\u2581ismbblead": 5684,
    "\u2581createfontindirecta": 5685,
    "a12": 5686,
    "a24": 5687,
    "bb5": 5688,
    "da26": 5689,
    "b1000": 5690,
    "useth": 5691,
    "\u25810xea6b": 5692,
    "\u25810x421708": 5693,
    "\u25810x6d006c": 5694,
    "\u25810x6f006e": 5695,
    "\u25810x710070": 5696,
    "\u25810x770076": 5697,
    "\u25810x790078": 5698,
    "\u2581formatmessagea": 5699,
    "\u2581getvolumeinformationw": 5700,
    "6d4": 5701,
    "711": 5702,
    "sin": 5703,
    "6925": 5704,
    "ecut": 5705,
    "b006a": 5706,
    "\u25810x44c4": 5707,
    "\u25810x42c0e0": 5708,
    "\u25810x690068": 5709,
    "\u25810x6b006a": 5710,
    "\u25810x730072": 5711,
    "\u25810x750074": 5712,
    "\u25810x7b007a": 5713,
    "\u25810x7d007c": 5714,
    "\u25810x7f007e": 5715,
    "698": 5716,
    "723": 5717,
    "1cd8": 5718,
    "eaac": 5719,
    "\u2581cal": 5720,
    "\u25810x490": 5721,
    "\u25810x422e": 5722,
    "\u25810x7b80": 5723,
    "\u25810x83e6": 5724,
    "\u25810xffdc": 5725,
    "\u25810x4153a0": 5726,
    "\u2581fillrect": 5727,
    "\u2581freeenvironmentstringsa": 5728,
    "398": 5729,
    "577": 5730,
    "7dc": 5731,
    "972": 5732,
    "e40": 5733,
    "e5c": 5734,
    "6564": 5735,
    "b414": 5736,
    "6d7363": 5737,
    "767574": 5738,
    "author": 5739,
    "\u25810x44d": 5740,
    "\u25810x4692": 5741,
    "\u2581gdiplus": 5742,
    "\u25810x77767574": 5743,
    "\u25810xe06d7363": 5744,
    "1c5": 5745,
    "7d8": 5746,
    "abc": 5747,
    "cho": 5748,
    "f15": 5749,
    "3a08": 5750,
    "tive": 5751,
    "\u25810xec": 5752,
    "\u2581work": 5753,
    "\u2581getke": 5754,
    "\u25810x4b00": 5755,
    "\u25810xffd5": 5756,
    "\u25810x40a538": 5757,
    "\u2581failedto": 5758,
    "\u2581getkeystate": 5759,
    "13c": 5760,
    "dup": 5761,
    "536c": 5762,
    "64c0": 5763,
    "a7978": 5764,
    "\u25810x208": 5765,
    "\u25810x41d8": 5766,
    "\u2581msvcr71": 5767,
    "d45": 5768,
    "df4": 5769,
    "\u2581he": 5770,
    "ectex": 5771,
    "\u25810xef": 5772,
    "e749fc": 5773,
    "\u25810x22c": 5774,
    "\u25810xffed": 5775,
    "\u2581device": 5776,
    "\u25810x40a3d5": 5777,
    "\u25810x40a3d6": 5778,
    "\u25810x40a3d7": 5779,
    "\u25810x40a548": 5780,
    "\u25810x7b7a7978": 5781,
    "\u25810xfeee00a3": 5782,
    "510": 5783,
    "56c8": 5784,
    "members": 5785,
    "\u25810x429e": 5786,
    "\u25810x4a20": 5787,
    "\u25810x71a0": 5788,
    "\u25810x12112": 5789,
    "\u2581createdib": 5790,
    "1d4": 5791,
    "hip": 5792,
    "\u2581vfp": 5793,
    "\u25810x2012": 5794,
    "\u25810x7ec5": 5795,
    "\u2581onexit": 5796,
    "visualfox": 5797,
    "membership": 5798,
    "\u2581checktoken": 5799,
    "\u2581checktokenmembership": 5800,
    "b5e": 5801,
    "ba4": 5802,
    "\u2581us": 5803,
    "inki": 5804,
    "7d000": 5805,
    "\u2581comp": 5806,
    "\u25810x436": 5807,
    "\u25810x4b6": 5808,
    "\u2581choose": 5809,
    "lipboard": 5810,
    "\u2581getlogicaldrivestringsw": 5811,
    "448": 5812,
    "a18": 5813,
    "a31": 5814,
    "b97": 5815,
    "dfe": 5816,
    "4090": 5817,
    "7a00": 5818,
    "e100": 5819,
    "a84f1": 5820,
    "\u25810x7eac": 5821,
    "\u25810x42a402": 5822,
    "\u25810x42a410": 5823,
    "visualfoxpro": 5824,
    "\u2581createdibsection": 5825,
    "\u2581getuserdefaultlcid": 5826,
    "1ae": 5827,
    "395": 5828,
    "ec2": 5829,
    "fc6": 5830,
    "9d50": 5831,
    "\u2581sen": 5832,
    "locate": 5833,
    "\u2581string": 5834,
    "function": 5835,
    "\u25810x100fdd58": 5836,
    "c0c": 5837,
    "9448": 5838,
    "16c00": 5839,
    "ac000": 5840,
    "ffff0000": 5841,
    "openenum": 5842,
    "\u25810x77000": 5843,
    "\u2581wnetopenenum": 5844,
    "\u2581getdiskfreespaceexw": 5845,
    "66d": 5846,
    "69a": 5847,
    "bf8": 5848,
    "2c90": 5849,
    "anual": 5850,
    "\u25810xe6": 5851,
    "\u25810x6b2": 5852,
    "\u25810xffdb": 5853,
    "\u25810x41f6c0": 5854,
    "\u25810x41f750": 5855,
    "\u25810x41f780": 5856,
    "\u25810xfeee00a4": 5857,
    "\u2581wnetopenenumw": 5858,
    "798": 5859,
    "9a4": 5860,
    "ffa": 5861,
    "fd70": 5862,
    "\u25810x132": 5863,
    "\u25810x232": 5864,
    "3727170": 5865,
    "\u25810x6766": 5866,
    "\u25810x300175": 5867,
    "\u25810x46b188": 5868,
    "\u25810xba8b68": 5869,
    "\u25810x73727170": 5870,
    "\u25810xfeee00a5": 5871,
    "\u25810xfeee00bc": 5872,
    "e794": 5873,
    "26160": 5874,
    "alicen": 5875,
    "\u25810x4210": 5876,
    "\u2581folder": 5877,
    "21a": 5878,
    "\u2581at": 5879,
    "3d77": 5880,
    "\u2581recv": 5881,
    "\u25810x41a": 5882,
    "\u25810x41d": 5883,
    "\u25810x3f27": 5884,
    "\u25810x4551": 5885,
    "\u25810x7ec8": 5886,
    "\u25810x63626160": 5887,
    "\u25810x67666564": 5888,
    "752": 5889,
    "fe4": 5890,
    "3d1cc": 5891,
    "92000": 5892,
    "ngine": 5893,
    "\u25810xda": 5894,
    "\u2581hels": 5895,
    "\u25810x8fc0": 5896,
    "\u25810x9010": 5897,
    "\u2581licence": 5898,
    "\u2581helsinki": 5899,
    "6a68": 5900,
    "d250": 5901,
    "b6a69": 5902,
    "\u25810x41c": 5903,
    "\u25810x4554b0": 5904,
    "\u25810x12117e8": 5905,
    "lg": 5906,
    "3cb": 5907,
    "5b0": 5908,
    "686": 5909,
    "b6a6968": 5910,
    "\u25810x42b1": 5911,
    "\u25810x20000": 5912,
    "\u25810x52000": 5913,
    "\u25810x12117fc": 5914,
    "\u25810x6b6a6968": 5915,
    "imetofiletime": 5916,
    "f83": 5917,
    "tsb": 5918,
    "ved": 5919,
    "30c4": 5920,
    "93a8": 5921,
    "f844": 5922,
    "55000": 5923,
    "latsb": 5924,
    "\u2581vfp6": 5925,
    "\u25810x40ea": 5926,
    "\u25810x41de": 5927,
    "\u25810x10021f": 5928,
    "\u25810x584d24": 5929,
    "\u25810xfeee00a6": 5930,
    "\u25810xfeee00a7": 5931,
    "vm": 5932,
    "sel": 5933,
    "0004": 5934,
    "1a80": 5935,
    "ac18": 5936,
    "e5f0": 5937,
    "f8e4": 5938,
    "71de0": 5939,
    "\u25810xed": 5940,
    "\u25810xf7": 5941,
    "\u25810x40ca": 5942,
    "\u2581winhttp": 5943,
    "\u25810x107598": 5944,
    "\u25810xfeee00a8": 5945,
    "b7e": 5946,
    "f96": 5947,
    "fdc": 5948,
    "3130": 5949,
    "4e9c": 5950,
    "\u25810x8420": 5951,
    "\u2581calloc": 5952,
    "\u25810xfeee00a9": 5953,
    "0x": 5954,
    "376": 5955,
    "3b4": 5956,
    "74e": 5957,
    "c85": 5958,
    "ffcb": 5959,
    "\u25810x3f26": 5960,
    "\u2581error0x": 5961,
    "\u2581startser": 5962,
    "\u25810x12117ec": 5963,
    "\u25810x1211cd0": 5964,
    "235": 5965,
    "39c": 5966,
    "b21": 5967,
    "izn": 5968,
    "b354": 5969,
    "iznadm": 5970,
    "\u25810x4680": 5971,
    "\u2581createp": 5972,
    "\u2581triznadm": 5973,
    "\u2581wnetenum": 5974,
    "\u25810x1211de8": 5975,
    "\u2581wnetenumresourcew": 5976,
    "165": 5977,
    "96e": 5978,
    "1580": 5979,
    "5014": 5980,
    "alle": 5981,
    "cept": 5982,
    "\u2581tol": 5983,
    "e6d6c": 5984,
    "\u25810x40aa": 5985,
    "\u2581tolower": 5986,
    "\u2581selectan": 5987,
    "\u25810x121178c": 5988,
    "\u25810x6f6e6d6c": 5989,
    "\u25810xfeee00aa": 5990,
    "943": 5991,
    "wit": 5992,
    "\u25811c": 5993,
    "90e4": 5994,
    "keya": 5995,
    "prop": 5996,
    "\u25810xfb": 5997,
    "\u25810x238": 5998,
    "\u25810x5b5": 5999,
    "\u2581updat": 6000,
    "\u25810x3f21": 6001,
    "\u25810x4e300": 6002,
    "\u25810x120f7a8": 6003,
    "\u25810x1211fe4": 6004,
    "\u2581openscmanagerw": 6005,
    "665": 6006,
    "7c6": 6007,
    "7e0": 6008,
    "pies": 6009,
    "ba000": 6010,
    "\u25810xffd1": 6011,
    "\u2581ntopen": 6012,
    "\u25810x567a88": 6013,
    "\u25810xfeee00ac": 6014,
    "ce5": 6015,
    "da1c": 6016,
    "e7d7c": 6017,
    "f5fba": 6018,
    "textw": 6019,
    "\u25810xdd": 6020,
    "\u25810xe5": 6021,
    "\u25810x2b2": 6022,
    "\u25810x411": 6023,
    "\u25810x496": 6024,
    "located": 6025,
    "\u25810x7df9": 6026,
    "\u25810xffee": 6027,
    "\u2581ldrget": 6028,
    "\u2581wnetadd": 6029,
    "belocated": 6030,
    "\u2581setclass": 6031,
    "\u25810x12115c4": 6032,
    "\u25810x7f7e7d7c": 6033,
    "\u25810xfeee00ab": 6034,
    "000000ffff0000": 6035,
    "\u2581ntopensection": 6036,
    "procedureaddress": 6037,
    "\u2581ldrgetprocedureaddress": 6038,
    "333": 6039,
    "9d000": 6040,
    "fd000": 6041,
    "\u25810x4016": 6042,
    "\u25810x53e0": 6043,
    "\u2581gettext": 6044,
    "\u25810x1211ea0": 6045,
    "\u25810x1211f8c": 6046,
    "\u2581tsldrl666": 6047,
    "\u25810xfeee00ae": 6048,
    "\u2581wnetaddconnection2w": 6049,
    "3bc": 6050,
    "7a5": 6051,
    "b67": 6052,
    "2468": 6053,
    "b2c0": 6054,
    "12f88": 6055,
    "croll": 6056,
    "\u2581pass": 6057,
    "e50000": 6058,
    "\u25810x40a5bc": 6059,
    "\u2581getscroll": 6060,
    "\u25810xfeee00ad": 6061,
    "\u25810xfffffffe": 6062,
    "96d": 6063,
    "ations": 6064,
    "\u25810x40e": 6065,
    "\u25810x42a7": 6066,
    "\u25810x99d0": 6067,
    "inmodule": 6068,
    "\u2581geticoninfo": 6069,
    "389": 6070,
    "64c6": 6071,
    "b08c": 6072,
    "bfba": 6073,
    "lang": 6074,
    "fc360": 6075,
    "\u25810x3c0": 6076,
    "\u25810x470": 6077,
    "\u25810x990": 6078,
    "\u25810x7ce0": 6079,
    "\u25810x107658": 6080,
    "\u25810x537500": 6081,
    "\u25810x6e7ab8": 6082,
    "\u25810x1211e94": 6083,
    "\u25810x5265c3c": 6084,
    "198": 6085,
    "34d": 6086,
    "11ff": 6087,
    "5410": 6088,
    "anden": 6089,
    "setting": 6090,
    "\u25810x8a60": 6091,
    "\u2581thefile": 6092,
    "\u25810x1211784": 6093,
    "\u25810x3820382": 6094,
    "\u2581globaladd": 6095,
    "\u2581heapdestroy": 6096,
    "c49": 6097,
    "db2": 6098,
    "uni": 6099,
    "37d0": 6100,
    "\u2581afx": 6101,
    "\u25810xee": 6102,
    "\u25810x488": 6103,
    "\u25810x40e4": 6104,
    "\u25810x40f4": 6105,
    "\u25810x350b8": 6106,
    "\u25810x409411": 6107,
    "\u25810x409412": 6108,
    "\u25810x409413": 6109,
    "\u25810x409414": 6110,
    "\u25810x409415": 6111,
    "\u25810x409416": 6112,
    "\u25810x409417": 6113,
    "\u25810x40a3e9": 6114,
    "\u25810x40a3ea": 6115,
    "\u25810x40a3eb": 6116,
    "\u25810x40a3ec": 6117,
    "\u25810x40a3ed": 6118,
    "\u25810x40a3ee": 6119,
    "\u25810x40a3ef": 6120,
    "\u2581drawicon": 6121,
    "\u25810x1000130": 6122,
    "\u25810x1211684": 6123,
    "\u25810x1211e54": 6124,
    "l6660drl6660drl6660drl6660drl6660drl6660drl6660drl6660drl6660": 6125,
    "\u2581hg": 6126,
    "1800": 6127,
    "b028": 6128,
    "beb4": 6129,
    "fa000": 6130,
    "stina": 6131,
    "\u25810xca": 6132,
    "\u2581next": 6133,
    "stination": 6134,
    "\u25810x4e39b4": 6135,
    "\u2581expanden": 6136,
    "\u25810x1211f58": 6137,
    "\u2581findwindoww": 6138,
    "\u2581getkeyboardstate": 6139,
    "20e": 6140,
    "7cc": 6141,
    "ddf": 6142,
    "a9000": 6143,
    "place": 6144,
    "\u25810x544": 6145,
    "\u25810x1211788": 6146,
    "accelerator": 6147,
    "\u2581openservicew": 6148,
    "was": 6149,
    "1cb0": 6150,
    "3030": 6151,
    "6444": 6152,
    "d591": 6153,
    "lete": 6154,
    "\u25810xf2": 6155,
    "\u25810x4450": 6156,
    "\u25810x3810381": 6157,
    "98c0": 6158,
    "desk": 6159,
    "\u25812db": 6160,
    "\u2581tim": 6161,
    "\u25810x103": 6162,
    "\u25810x2ac": 6163,
    "\u2581empty": 6164,
    "\u25810x42a6": 6165,
    "\u25810x452b": 6166,
    "\u25810x435403": 6167,
    "\u25810x435404": 6168,
    "\u25810x435405": 6169,
    "\u25810x435406": 6170,
    "\u2581setclipboar": 6171,
    "\u2581getsystemdefault": 6172,
    "\u2581setclipboarddata": 6173,
    "drb": 6174,
    "fdb": 6175,
    "\u25813db": 6176,
    "e6ab8": 6177,
    "popup": 6178,
    "\u25812drb": 6179,
    "\u25812dvb": 6180,
    "\u25810x40c7": 6181,
    "\u25810x45d3": 6182,
    "\u25810x4ad0": 6183,
    "\u25810xf874": 6184,
    "\u2581closec": 6185,
    "\u25810x1211d24": 6186,
    "\u2581openclipboard": 6187,
    "\u2581closeclipboard": 6188,
    "\u2581emptyclipboard": 6189,
    "ned": 6190,
    "3818": 6191,
    "\u2581bak": 6192,
    "\u2581when": 6193,
    "cancel": 6194,
    "request": 6195,
    "\u25810x7edc": 6196,
    "\u2581change": 6197,
    "\u2581hgdraw": 6198,
    "\u25810x429000": 6199,
    "\u2581wnetcancel": 6200,
    "\u2581wnetcancelconnection2w": 6201,
    "3a3": 6202,
    "5c5": 6203,
    "df8": 6204,
    "tic": 6205,
    "fc54": 6206,
    "\u2581bat": 6207,
    "\u25810x73f": 6208,
    "\u25810x4966": 6209,
    "\u25810x8cb0": 6210,
    "\u25810x417d20": 6211,
    "\u25810x41b0b8": 6212,
    "\u25810x435407": 6213,
    "\u25810x1211eb8": 6214,
    "\u25810x2280228": 6215,
    "\u2581formatmessagew": 6216,
    "e70": 6217,
    "2482": 6218,
    "7688": 6219,
    "eatom": 6220,
    "eexist": 6221,
    "orrect": 6222,
    "\u25810x47ab": 6223,
    "\u25810x5456": 6224,
    "\u25810x7e20": 6225,
    "\u25810xa264": 6226,
    "\u25810x43a4b0": 6227,
    "\u25810x1211de4": 6228,
    "\u2581fileexist": 6229,
    "6f0": 6230,
    "7b7": 6231,
    "bf5": 6232,
    "da8": 6233,
    "f8b": 6234,
    "bf3c": 6235,
    "6d000": 6236,
    "\u258120220": 6237,
    "\u25814d5a9": 6238,
    "\u25810x7df8": 6239,
    "\u25810x97b0": 6240,
    "registry": 6241,
    "\u25810xfeee00b1": 6242,
    "\u2581getmenuitem": 6243,
    "tokeninformation": 6244,
    "\u2581writeprocessmemory": 6245,
    "2ed": 6246,
    "b12": 6247,
    "d42": 6248,
    "\u2581kk": 6249,
    "31c0": 6250,
    "f8e6": 6251,
    "fa61": 6252,
    "a9ef0": 6253,
    "\u25810xd7": 6254,
    "ection": 6255,
    "\u25810x6e4": 6256,
    "\u25810x419c": 6257,
    "\u25810x8028": 6258,
    "\u25810x99e0": 6259,
    "\u25810x435408": 6260,
    "\u25810x435409": 6261,
    "\u25810x43540a": 6262,
    "\u25810x43540b": 6263,
    "\u25810x43540c": 6264,
    "\u25810xfeee00af": 6265,
    "\u25810xfeee00b0": 6266,
    "162": 6267,
    "cew": 6268,
    "fe5": 6269,
    "ial": 6270,
    "9e00": 6271,
    "00003": 6272,
    "dialog": 6273,
    "\u25810x4239": 6274,
    "00000004": 6275,
    "\u25814d5a900003": 6276,
    "\u2581setfiletime": 6277,
    "\u25814d5a90000300000004": 6278,
    "\u25814d5a90000300000004000000ffff0000": 6279,
    "ore": 6280,
    "tac": 6281,
    "9880": 6282,
    "a088": 6283,
    "ec80": 6284,
    "owned": 6285,
    "\u25810xe3": 6286,
    "socket": 6287,
    "\u25810x429d": 6288,
    "\u2581closesocket": 6289,
    "\u2581lcmapstringa": 6290,
    "f95": 6291,
    "faa": 6292,
    "6c10": 6293,
    "e600": 6294,
    "move": 6295,
    "40000": 6296,
    "\u25810xfa": 6297,
    "\u25810x3cc": 6298,
    "\u25810x4e3": 6299,
    "console": 6300,
    "\u25810x4370": 6301,
    "\u25810x43540d": 6302,
    "\u25810x4c4230": 6303,
    "\u25810x1211f08": 6304,
    "\u2581getwindowdc": 6305,
    "\u2581regopenkeya": 6306,
    "\u2581lookupprivileg": 6307,
    "172": 6308,
    "33e": 6309,
    "anc": 6310,
    "bd7": 6311,
    "ocus": 6312,
    "\u25810xd6": 6313,
    "display": 6314,
    "onsolec": 6315,
    "\u25810x40e7": 6316,
    "\u25810x49d0": 6317,
    "\u2581cancel": 6318,
    "password": 6319,
    "\u25810x42a730": 6320,
    "\u25810x42a731": 6321,
    "\u25810x47ee50": 6322,
    "\u25810x482854": 6323,
    "\u25810x482870": 6324,
    "\u25810x4c4248": 6325,
    "\u25810x4c4260": 6326,
    "\u25810x4c4278": 6327,
    "\u25810x4c4290": 6328,
    "\u25810x4c42a8": 6329,
    "\u25810x4c4320": 6330,
    "\u25810x4c4338": 6331,
    "\u25810x4c4350": 6332,
    "\u25810x4c4368": 6333,
    "\u25810x566f18": 6334,
    "\u25810x121192f": 6335,
    "\u2581getconsolec": 6336,
    "\u2581shellexecut": 6337,
    "\u2581setclasslonga": 6338,
    "\u2581startservicew": 6339,
    "7f2": 6340,
    "\u2581ls": 6341,
    "emory": 6342,
    "\u25810xce": 6343,
    "\u25810x1810": 6344,
    "\u25810x1211994": 6345,
    "\u2581getfullnamew": 6346,
    "245": 6347,
    "3d6": 6348,
    "914": 6349,
    "9ee": 6350,
    "b26": 6351,
    "eb80": 6352,
    "idto": 6353,
    "\u25810xcb": 6354,
    "\u25810x118": 6355,
    "\u25810x4555": 6356,
    "\u25810x8650": 6357,
    "\u2581sample": 6358,
    "\u25810x43540e": 6359,
    "\u25810x43540f": 6360,
    "\u25810x1211e0c": 6361,
    "\u25810x1211fa0": 6362,
    "\u2581setservicestatus": 6363,
    "9dc": 6364,
    "a20": 6365,
    "cut": 6366,
    "ef8": 6367,
    "\u25810xf9": 6368,
    "\u2581short": 6369,
    "\u25810x70000": 6370,
    "\u25810x47b158": 6371,
    "\u25810xfeee00b4": 6372,
    "642": 6373,
    "849": 6374,
    "be0": 6375,
    "c4f": 6376,
    "d69": 6377,
    "wer": 6378,
    "6a31": 6379,
    "\u25810x150": 6380,
    "\u25810x412d": 6381,
    "\u25810x4222": 6382,
    "\u25810x48b0": 6383,
    "\u25810x169bd": 6384,
    "\u25810x429a81": 6385,
    "\u2581shortcut": 6386,
    "\u25810xfeee00b2": 6387,
    "\u25810xfeee00b3": 6388,
    "xe": 6389,
    "a7c": 6390,
    "lem": 6391,
    "\u25810xc6": 6392,
    "\u25810x4a60": 6393,
    "\u25810x7e50": 6394,
    "dispatch": 6395,
    "\u25810x437ae4": 6396,
    "\u25810x121185c": 6397,
    "\u25810xfeee00b5": 6398,
    "vicectrldispatch": 6399,
    "\u2581gettokeninformation": 6400,
    "\u2581startservicectrldispatch": 6401,
    "258": 6402,
    "3fa": 6403,
    "785": 6404,
    "aga": 6405,
    "f02": 6406,
    "adc0": 6407,
    "\u2581sdl": 6408,
    "f9000": 6409,
    "pleob": 6410,
    "button": 6411,
    "\u25810xa26": 6412,
    "\u25810x4085": 6413,
    "formulti": 6414,
    "\u25810x437207": 6415,
    "\u25810x437208": 6416,
    "\u25810x437ad2": 6417,
    "\u25810x437ad3": 6418,
    "\u25810x437ae3": 6419,
    "\u25810x437b63": 6420,
    "\u25810x437b64": 6421,
    "\u25810x437b7b": 6422,
    "\u25810x437b7c": 6423,
    "\u25810x437bbd": 6424,
    "\u25810x437bbe": 6425,
    "\u25810x437bce": 6426,
    "\u25810x437bcf": 6427,
    "\u25810x437c42": 6428,
    "\u25810x437c43": 6429,
    "\u25810x4c5158": 6430,
    "metofiletime": 6431,
    "formultipleob": 6432,
    "\u2581systemtimetofiletime": 6433,
    "19d": 6434,
    "916": 6435,
    "a34": 6436,
    "afd": 6437,
    "ec5": 6438,
    "3526": 6439,
    "b8000": 6440,
    "viewer": 6441,
    "uration": 6442,
    "usttoken": 6443,
    "writeptr": 6444,
    "\u25810x429e2b": 6445,
    "\u25810x429e2c": 6446,
    "\u25810x434d1c": 6447,
    "\u25810x43b7a9": 6448,
    "\u25810x43b7aa": 6449,
    "\u25810x54a4c4": 6450,
    "\u25810x1211894": 6451,
    "\u25810x77000723": 6452,
    "\u2581getconsolecp": 6453,
    "\u2581isbadwriteptr": 6454,
    "\u2581regqueryvalueexw": 6455,
    "845a": 6456,
    "bd10": 6457,
    "febc": 6458,
    "\u25810xcf": 6459,
    "\u25810x2f2": 6460,
    "\u25810x107688": 6461,
    "\u25810x422ebe": 6462,
    "\u25810x43b7b3": 6463,
    "\u25810x43b7b4": 6464,
    "\u25810x43b7b8": 6465,
    "\u25810x43b7ba": 6466,
    "\u25810x43b7c4": 6467,
    "privileges": 6468,
    "usttokenprivileges": 6469,
    "sh": 6470,
    "e1a": 6471,
    "f3e": 6472,
    "focus": 6473,
    "\u2581fast": 6474,
    "langid": 6475,
    "plotter": 6476,
    "\u25810x1210ed0": 6477,
    "\u25810x12116fc": 6478,
    "\u25810x121189c": 6479,
    "\u25810x1211954": 6480,
    "\u25810x1211e80": 6481,
    "\u2581getfullnamea": 6482,
    "\u2581extractassociatediconw": 6483,
    "1a6": 6484,
    "55c": 6485,
    "774": 6486,
    "9b8": 6487,
    "a5e": 6488,
    "f2c": 6489,
    "rap": 6490,
    "0064": 6491,
    "1918": 6492,
    "78a2": 6493,
    "de23": 6494,
    "99000": 6495,
    "bb000": 6496,
    "apture": 6497,
    "\u25810x3f8": 6498,
    "connect": 6499,
    "\u25810x4530": 6500,
    "\u25810x7e8c": 6501,
    "\u25810x1210e10": 6502,
    "\u25810x1210f8c": 6503,
    "\u25810x1211e84": 6504,
    "\u2581coinitialize": 6505,
    "\u2581extractassociatedicona": 6506,
    "396": 6507,
    "58c": 6508,
    "7c1": 6509,
    "9a1": 6510,
    "chi": 6511,
    "e2c": 6512,
    "gcc": 6513,
    "eab8": 6514,
    "fine": 6515,
    "pixe": 6516,
    "\u2581cpp": 6517,
    "reent": 6518,
    "\u25810xffda": 6519,
    "\u2581libgcc": 6520,
    "drawings": 6521,
    "debughook": 6522,
    "\u25810x3f5000": 6523,
    "\u25810x1211e38": 6524,
    "\u25810x1211e74": 6525,
    "\u2581charlower": 6526,
    "\u25810xfeee00b7": 6527,
    "\u2581cppdebughook": 6528,
    "\u2581createservicew": 6529,
    "555": 6530,
    "\u2581ha": 6531,
    "e1ea": 6532,
    "etch": 6533,
    "bc000": 6534,
    "endar": 6535,
    "tomati": 6536,
    "\u25810x464": 6537,
    "\u25810x606": 6538,
    "\u25810x42e9": 6539,
    "\u25810x4a30": 6540,
    "\u25810x7e8d": 6541,
    "calendar": 6542,
    "\u25810x5c000": 6543,
    "390": 6544,
    "545": 6545,
    "646": 6546,
    "bb7": 6547,
    "e14": 6548,
    "d8c8": 6549,
    "f066": 6550,
    "\u2581you": 6551,
    "output": 6552,
    "\u25810x711": 6553,
    "\u25810x52668": 6554,
    "\u25810x5266c": 6555,
    "\u25810x83e610": 6556,
    "\u25810x1211cbc": 6557,
    "\u25810x2050000": 6558,
    "\u25810xfeee00b8": 6559,
    "\u2581lookupprivilege": 6560,
    "systeminformation": 6561,
    "\u2581gettempfilenamea": 6562,
    "166": 6563,
    "2a8": 6564,
    "654": 6565,
    "7ff": 6566,
    "60e4": 6567,
    "7540": 6568,
    "9380": 6569,
    "dddc": 6570,
    "\u2581all": 6571,
    "\u25810xd1": 6572,
    "\u25810x444": 6573,
    "\u25810x573": 6574,
    "\u25810x7730": 6575,
    "\u25810x7e51": 6576,
    "\u25810x7ec9": 6577,
    "\u25810x411c10": 6578,
    "\u25810x42b190": 6579,
    "\u25810x42eace": 6580,
    "\u25810x44d250": 6581,
    "\u25810x1211e64": 6582,
    "codeprocess": 6583,
    "\u25810xfeee00b6": 6584,
    "\u2581getexitcodeprocess": 6585,
    "2d8": 6586,
    "993": 6587,
    "b69": 6588,
    "b75": 6589,
    "bc1": 6590,
    "ces": 6591,
    "dff": 6592,
    "f30": 6593,
    "f42c": 6594,
    "\u2581dir": 6595,
    "ended": 6596,
    "\u25810xf3": 6597,
    "\u25810x577": 6598,
    "hasbeen": 6599,
    "\u25810x457c": 6600,
    "\u2581monitor": 6601,
    "\u25810x1210f70": 6602,
    "\u25810xfeee00b9": 6603,
    "versioninfow": 6604,
    "\u2581shellexecuteexw": 6605,
    "\u2581startservicectrldispatcherw": 6606,
    "d3d": 6607,
    "f07": 6608,
    "3cd8": 6609,
    "10060": 6610,
    "ab000": 6611,
    "anies": 6612,
    "\u25810xe9": 6613,
    "ration": 6614,
    "\u2581query": 6615,
    "unicode": 6616,
    "\u25810x4235": 6617,
    "\u25810x6300": 6618,
    "\u25810x6700": 6619,
    "\u25810xffd6": 6620,
    "\u2581getmenu": 6621,
    "\u25810x545678": 6622,
    "\u25810x56c750": 6623,
    "\u2581fileexistsw": 6624,
    "105": 6625,
    "6c2": 6626,
    "73e": 6627,
    "bda": 6628,
    "bde": 6629,
    "fb4": 6630,
    "2838": 6631,
    "b820": 6632,
    "\u25810x1e4": 6633,
    "\u25810x9c8": 6634,
    "\u25810x7ecc": 6635,
    "\u25810x120de": 6636,
    "\u25810x120f5": 6637,
    "\u25810x630062": 6638,
    "\u25810x650064": 6639,
    "\u25810x670066": 6640,
    "deleteatom": 6641,
    "\u25810x1210e90": 6642,
    "\u25810x1210f50": 6643,
    "\u25810xfeee00bb": 6644,
    "\u2581globaldeleteatom": 6645,
    "aa6": 6646,
    "b2d": 6647,
    "geo": 6648,
    "top": 6649,
    "zer": 6650,
    "d96c": 6651,
    "prob": 6652,
    "\u2581net": 6653,
    "33000": 6654,
    "\u25810xf6": 6655,
    "\u25810x47a": 6656,
    "\u25810x4720": 6657,
    "\u25810x3b7fc": 6658,
    "\u25810x610060": 6659,
    "configuration": 6660,
    "206": 6661,
    "16a6": 6662,
    "array": 6663,
    "zerom": 6664,
    "\u25810xfd": 6665,
    "\u2581list": 6666,
    "problem": 6667,
    "\u25810x41b8": 6668,
    "\u25810x5357": 6669,
    "\u2581enable": 6670,
    "\u2581flatsb": 6671,
    "\u2581rtlzerom": 6672,
    "\u2581rtlzeromemory": 6673,
    "1e9": 6674,
    "997": 6675,
    "aaa": 6676,
    "3844": 6677,
    "b1d0": 6678,
    "98527": 6679,
    "\u25810xd9": 6680,
    "fileex": 6681,
    "\u25810x40d7": 6682,
    "\u25810x40f0": 6683,
    "\u25810x57eb": 6684,
    "\u2581shutdown": 6685,
    "\u2581findwindowexa": 6686,
    "fa0": 6687,
    "ofi": 6688,
    "1110": 6689,
    "\u2581pro": 6690,
    "bf000": 6691,
    "\u25810x9b": 6692,
    "\u25810xe1": 6693,
    "\u25810x4ec0": 6694,
    "\u25810x421030": 6695,
    "\u25810x7eabc0": 6696,
    "\u25810xfeee00ba": 6697,
    "167": 6698,
    "287": 6699,
    "108a": 6700,
    "33c4": 6701,
    "3534": 6702,
    "3f20": 6703,
    "797c": 6704,
    "61000": 6705,
    "be000": 6706,
    "times": 6707,
    "\u25810x4b0": 6708,
    "\u25810x605": 6709,
    "\u25810x406c": 6710,
    "\u25810x4880": 6711,
    "\u25810x7541": 6712,
    "handlerw": 6713,
    "9830": 6714,
    "fc20": 6715,
    "imag": 6716,
    "34000": 6717,
    "95000": 6718,
    "ustom": 6719,
    "\u25810x52663": 6720,
    "dateresourcew": 6721,
    "a83": 6722,
    "bd6": 6723,
    "\u2581sk": 6724,
    "00a0": 6725,
    "ce11": 6726,
    "imer": 6727,
    "\u2581old": 6728,
    "\u25810xc1": 6729,
    "active": 6730,
    "details": 6731,
    "loading": 6732,
    "\u25810x181b48": 6733,
    "\u25810x1211e00": 6734,
    "\u25810xfeee00bd": 6735,
    "\u2581regenumkey": 6736,
    "3f9": 6737,
    "630": 6738,
    "7e7": 6739,
    "eas": 6740,
    "76c8": 6741,
    "7b50": 6742,
    "a5958": 6743,
    "which": 6744,
    "codeex": 6745,
    "\u2581endup": 6746,
    "\u25810x415e": 6747,
    "\u25810x40a40": 6748,
    "todownload": 6749,
    "\u25810x1210ed8": 6750,
    "\u25810xfeee00be": 6751,
    "\u2581registerservicectrlhandlerw": 6752,
    "311": 6753,
    "bab": 6754,
    "e72": 6755,
    "a57b": 6756,
    "\u2581skip": 6757,
    "\u25810x423a": 6758,
    "\u25810x51af6": 6759,
    "\u25810x562838": 6760,
    "\u25810x563888": 6761,
    "\u25810x563a08": 6762,
    "\u25810x569b30": 6763,
    "\u25810x1210f80": 6764,
    "\u2581shellexecutea": 6765,
    "77c": 6766,
    "98e": 6767,
    "\u2581ur": 6768,
    "3230": 6769,
    "b738": 6770,
    "ed60": 6771,
    "orig": 6772,
    "tine": 6773,
    "\u2581not": 6774,
    "dd000": 6775,
    "\u25810x574": 6776,
    "\u25810x10e9": 6777,
    "\u25810x4ee0": 6778,
    "\u25810x9820": 6779,
    "\u25810xffd9": 6780,
    "original": 6781,
    "\u25810x1210e70": 6782,
    "\u25810x1210ee0": 6783,
    "\u2581updateresourcea": 6784,
    "\u2581endupdateresourcea": 6785,
    "\u2581beginupdateresourcea": 6786,
    "c06": 6787,
    "d0b": 6788,
    "f64": 6789,
    "b4f9": 6790,
    "bc97": 6791,
    "\u2581tra": 6792,
    "geoid": 6793,
    "\u25810xf5": 6794,
    "willex": 6795,
    "\u25810x45c": 6796,
    "\u25810x515": 6797,
    "updated": 6798,
    "\u25810x7ed1": 6799,
    "\u25810x86d8": 6800,
    "\u2581backup": 6801,
    "\u25810x43f00": 6802,
    "\u25810x52665": 6803,
    "ssoftware": 6804,
    "\u25810x100220": 6805,
    "\u25810x4093a4": 6806,
    "\u25810x4093ac": 6807,
    "\u25810x43a480": 6808,
    "\u25810x44c280": 6809,
    "\u25810x44d500": 6810,
    "\u25810x566b14": 6811,
    "\u25810x1210e2c": 6812,
    "\u25810xfeee00bf": 6813,
    "\u2581getmenuinfo": 6814,
    "\u2581getusergeoid": 6815,
    "194": 6816,
    "397": 6817,
    "3ea": 6818,
    "anf": 6819,
    "f50": 6820,
    "1960": 6821,
    "swith": 6822,
    "\u25810xc9": 6823,
    "context": 6824,
    "\u25810x40e6": 6825,
    "istingfile": 6826,
    "\u25810x1210eb0": 6827,
    "\u25810x1211dc4": 6828,
    "18c": 6829,
    "his": 6830,
    "\u258103": 6831,
    "d310": 6832,
    "f538": 6833,
    "\u2581sup": 6834,
    "187f4": 6835,
    "29000": 6836,
    "382d9": 6837,
    "ustbe": 6838,
    "\u2581htonl": 6839,
    "\u25810x7e94": 6840,
    "indirect": 6841,
    "\u2581strcpyw": 6842,
    "downloaded": 6843,
    "\u25810x1210e20": 6844,
    "securityinfo": 6845,
    "\u2581commandline": 6846,
    "\u2581module32next": 6847,
    "wo": 6848,
    "d82": 6849,
    "2010": 6850,
    "205c": 6851,
    "28de": 6852,
    "2f00": 6853,
    "384c": 6854,
    "3c28": 6855,
    "9384": 6856,
    "9f94": 6857,
    "exist": 6858,
    "theco": 6859,
    "\u25810x7e95": 6860,
    "\u25810x417d50": 6861,
    "registered": 6862,
    "\u25810x1210fc0": 6863,
    "\u25810x12117b0": 6864,
    "\u25810xfeee00c0": 6865,
    "\u2581globalrealloc": 6866,
    "\u2581beginupdateresourcew": 6867,
    "687": 6868,
    "6f1": 6869,
    "990": 6870,
    "c44": 6871,
    "fax": 6872,
    "ofa": 6873,
    "sav": 6874,
    "suc": 6875,
    "3f00": 6876,
    "allh": 6877,
    "aper": 6878,
    "b374": 6879,
    "damm": 6880,
    "dfa0": 6881,
    "duet": 6882,
    "edby": 6883,
    "ofit": 6884,
    "resp": 6885,
    "seto": 6886,
    "\u25812to": 6887,
    "14000": 6888,
    "acode": 6889,
    "befor": 6890,
    "beren": 6891,
    "doyou": 6892,
    "eceiv": 6893,
    "elect": 6894,
    "enthe": 6895,
    "eyour": 6896,
    "fully": 6897,
    "mutex": 6898,
    "onthe": 6899,
    "phone": 6900,
    "pires": 6901,
    "swill": 6902,
    "texts": 6903,
    "\u2581clic": 6904,
    "\u2581zipp": 6905,
    "allzip": 6906,
    "arenot": 6907,
    "custom": 6908,
    "forany": 6909,
    "licenc": 6910,
    "orutil": 6911,
    "pirein": 6912,
    "setthe": 6913,
    "stothe": 6914,
    "succes": 6915,
    "tineld": 6916,
    "willbe": 6917,
    "\u25810x6a0": 6918,
    "\u2581youma": 6919,
    "\u2581yours": 6920,
    "ageduet": 6921,
    "allhisp": 6922,
    "artners": 6923,
    "backups": 6924,
    "ecodeis": 6925,
    "hotline": 6926,
    "ingyour": 6927,
    "onsible": 6928,
    "piresin": 6929,
    "stoyour": 6930,
    "\u25810x1814": 6931,
    "\u25810x4150": 6932,
    "\u25810x4c78": 6933,
    "\u25810x8d90": 6934,
    "\u2581contac": 6935,
    "customer": 6936,
    "fromther": 6937,
    "helpdesk": 6938,
    "inyourpc": 6939,
    "llicence": 6940,
    "piration": 6941,
    "pressthe": 6942,
    "validfor": 6943,
    "verwrite": 6944,
    "yourcode": 6945,
    "\u2581allregi": 6946,
    "\u2581already": 6947,
    "\u2581pleaser": 6948,
    "\u2581pleases": 6949,
    "ecatalogs": 6950,
    "incadwork": 6951,
    "releaseto": 6952,
    "\u25810x4175f4": 6953,
    "\u25810x42c070": 6954,
    "\u25810x42c0a8": 6955,
    "\u2581explorer": 6956,
    "\u2581printing": 6957,
    "\u2581tocreate": 6958,
    "\u2581unsetthe": 6959,
    "andallhisp": 6960,
    "arenotresp": 6961,
    "foranydamm": 6962,
    "laserframe": 6963,
    "licencefor": 6964,
    "userprofil": 6965,
    "\u25810x1211708": 6966,
    "\u2581temporary": 6967,
    "\u2581transform": 6968,
    "ageduetothe": 6969,
    "etocontinue": 6970,
    "installedon": 6971,
    "isationofit": 6972,
    "succesfully": 6973,
    "yourcadwork": 6974,
    "\u25810xfeee00c1": 6975,
    "\u25810xfeee00d7": 6976,
    "\u2581bordergrey": 6977,
    "\u2581clientinfo": 6978,
    "originalfile": 6979,
    "sandcatalogs": 6980,
    "willexpirein": 6981,
    "\u2581zippedfiles": 6982,
    "allregistered": 6983,
    "codeexpiresin": 6984,
    "stothedefault": 6985,
    "\u2581sinformation": 6986,
    "customernumber": 6987,
    "\u2581allregistries": 6988,
    "\u2581borderwindows": 6989,
    "\u2581pleasecallyour": 6990,
    "\u2581installationfor": 6991,
    "andallhispartners": 6992,
    "arenotresponsible": 6993,
    "orutilisationofit": 6994,
    "yourcadworkdealer": 6995,
    "\u2581printslaserframe": 6996,
    "\u2581unsetthedownload": 6997,
    "allcadworksoftware": 6998,
    "allregisteredcodes": 6999,
    "forcadworkhavebeen": 7000,
    "\u2581cadworkinformatik": 7001,
    "sandcatalogsinyourpc": 7002,
    "foranydammageduetothe": 7003,
    "\u2581downloadfrominternet": 7004,
    "\u2581doyoureallywanttoremo": 7005,
    "\u2581temporarycodeexpiresin": 7006,
    "\u2581thisprogramwillinstall": 7007,
    "orutilisationofitssoftware": 7008,
    "\u2581allregistriesforcadworkhavebeen": 7009,
    "foranydammageduetotheinstallation": 7010,
    "andallhispartnersarenotresponsible": 7011,
    "allcadworksoftwaresandcatalogsinyourpc": 7012,
    "\u2581downloadfrominternetallregisteredcodes": 7013,
    "\u2581cadworkinformatikandallhispartnersarenotresponsible": 7014,
    "foranydammageduetotheinstallationorutilisationofitssoftware": 7015,
    "\u2581thisprogramwillinstallallcadworksoftwaresandcatalogsinyourpc": 7016,
    "125": 7017,
    "7fd": 7018,
    "fbf": 7019,
    "b870": 7020,
    "e5d5c": 7021,
    "\u25810x457": 7022,
    "ticonex": 7023,
    "\u25810x40d4": 7024,
    "\u25810x1210fa0": 7025,
    "\u25810x1211118": 7026,
    "\u25810x5f5e5d5c": 7027,
    "\u25810xfeee00c2": 7028,
    "\u25810xfeee00c3": 7029,
    "\u2581destroywindow": 7030,
    "\u2581extracticonex": 7031,
    "\u2581getstringtypea": 7032,
    "274": 7033,
    "79f": 7034,
    "d9c": 7035,
    "dc8": 7036,
    "oct": 7037,
    "32000": 7038,
    "argvw": 7039,
    "\u25810x5ab": 7040,
    "toargvw": 7041,
    "\u25810x48c0": 7042,
    "\u25810x79b0": 7043,
    "\u25810x5b5a5958": 7044,
    "\u25810xfeee00c4": 7045,
    "\u2581extracticonexw": 7046,
    "\u2581removedirectoryw": 7047,
    "\u2581commandlinetoargvw": 7048,
    "1e7": 7049,
    "313": 7050,
    "5d0": 7051,
    "7c2": 7052,
    "9ad": 7053,
    "ivq": 7054,
    "b4ad": 7055,
    "d91c": 7056,
    "tocre": 7057,
    "\u25810x4226": 7058,
    "\u25810x8660": 7059,
    "tocreatet": 7060,
    "\u25810x181b98": 7061,
    "\u25810x41b070": 7062,
    "\u25810x1210f84": 7063,
    "\u25810x1211cf0": 7064,
    "2ac": 7065,
    "306": 7066,
    "b6c": 7067,
    "fc1": 7068,
    "2409": 7069,
    "5118": 7070,
    "bccc": 7071,
    "f86b": 7072,
    "1a000": 7073,
    "64000": 7074,
    "\u25810x412e": 7075,
    "\u25810x1210e40": 7076,
    "\u25810x1211d14": 7077,
    "\u25810x1e00000": 7078,
    "\u25810x1e50000": 7079,
    "\u2581outputdebugstringw": 7080,
    "589": 7081,
    "def0": 7082,
    "e4c0": 7083,
    "e860": 7084,
    "ffa0": 7085,
    "\u2581uti": 7086,
    "16000": 7087,
    "dc1b4": 7088,
    "\u25810x475": 7089,
    "\u25810x1824": 7090,
    "\u25810x47ed": 7091,
    "\u25810x9210": 7092,
    "\u25810x120ff": 7093,
    "\u25810xb0000": 7094,
    "\u25810x40e500": 7095,
    "\u2581processidto": 7096,
    "\u2581getdateformatw": 7097,
    "\u2581processidtosessionid": 7098,
    "\u2581setcurrentdirectoryw": 7099,
    "fx": 7100,
    "77f": 7101,
    "b72": 7102,
    "d30": 7103,
    "d73": 7104,
    "84ee": 7105,
    "9fb0": 7106,
    "c488": 7107,
    "ed000": 7108,
    "octls": 7109,
    "fileexw": 7110,
    "\u25810x3736": 7111,
    "\u25810x4a70": 7112,
    "\u25810x8c20": 7113,
    "\u25810x8e50": 7114,
    "\u25810x9050": 7115,
    "\u2581ioctls": 7116,
    "codethread": 7117,
    "\u2581dialogbox": 7118,
    "\u2581lstrcmpiw": 7119,
    "\u2581ioctlsocket": 7120,
    "\u2581getexitcodethread": 7121,
    "7d24": 7122,
    "bb18": 7123,
    "da34": 7124,
    "utor": 7125,
    "18000": 7126,
    "a8000": 7127,
    "\u25810x447": 7128,
    "utorial": 7129,
    "\u25810x4640": 7130,
    "ingcadwork": 7131,
    "\u25810x1210f88": 7132,
    "\u25810x1211e78": 7133,
    "\u25810xfeee00c6": 7134,
    "\u2581pleasewait": 7135,
    "301": 7136,
    "303": 7137,
    "9b7": 7138,
    "d79": 7139,
    "ify": 7140,
    "\u2581qt": 7141,
    "2625": 7142,
    "2998": 7143,
    "506c": 7144,
    "69bc": 7145,
    "f638": 7146,
    "25000": 7147,
    "b7000": 7148,
    "viewof": 7149,
    "\u25810xbd4": 7150,
    "\u2581users": 7151,
    "\u25810x44000": 7152,
    "mapviewof": 7153,
    "\u25810x409698": 7154,
    "\u25810x6970a0": 7155,
    "\u25810x1210f00": 7156,
    "\u25810x1211f68": 7157,
    "\u2581openmutex": 7158,
    "\u25810x54500000": 7159,
    "\u25810xfeee00c5": 7160,
    "\u25810xfeee00c7": 7161,
    "\u25810xfeee00c8": 7162,
    "mapviewofsection": 7163,
    "ta": 7164,
    "138": 7165,
    "d0a": 7166,
    "b6b0": 7167,
    "eba0": 7168,
    "7c000": 7169,
    "80000": 7170,
    "notin": 7171,
    "\u2581utility": 7172,
    "\u25810x300174": 7173,
    "\u25810x4096a0": 7174,
    "\u25810x40a3f0": 7175,
    "\u25810x567678": 7176,
    "\u25810x572c10": 7177,
    "\u25810x1211960": 7178,
    "3d7": 7179,
    "91a": 7180,
    "e89": 7181,
    "f0b": 7182,
    "75c4": 7183,
    "a6b4": 7184,
    "e445": 7185,
    "anfdr": 7186,
    "\u2581exed": 7187,
    "\u25810x38c": 7188,
    "\u25810x3ac": 7189,
    "\u25810x47f": 7190,
    "formata": 7191,
    "\u2581listen": 7192,
    "\u2581sanfdr": 7193,
    "\u2581verify": 7194,
    "\u25810x4093d1": 7195,
    "\u25810x4093d2": 7196,
    "\u25810x4093d3": 7197,
    "\u25810x409696": 7198,
    "\u25810x40969a": 7199,
    "\u25810x40969c": 7200,
    "\u25810x40969e": 7201,
    "\u25810x4096a2": 7202,
    "\u25810x40a92c": 7203,
    "\u25810x40a93c": 7204,
    "\u25810x448ad0": 7205,
    "yourauthor": 7206,
    "yourauthorisation": 7207,
    "2c0": 7208,
    "a76": 7209,
    "d22": 7210,
    "39cc": 7211,
    "649d": 7212,
    "a9c0": 7213,
    "ache": 7214,
    "add0": 7215,
    "bd64": 7216,
    "bemo": 7217,
    "31000": 7218,
    "\u25810xbca": 7219,
    "\u25810x4484": 7220,
    "\u25810x4ba0": 7221,
    "bemodified": 7222,
    "\u25810x1210f28": 7223,
    "directoryto": 7224,
    "\u2581showrunning": 7225,
    "\u2581showrunninglicenceson": 7226,
    "pe": 7227,
    "14f": 7228,
    "298": 7229,
    "554": 7230,
    "563": 7231,
    "d64": 7232,
    "f9f": 7233,
    "2068": 7234,
    "3c70": 7235,
    "5554": 7236,
    "9042": 7237,
    "ccf5": 7238,
    "d0d6": 7239,
    "edec": 7240,
    "12000": 7241,
    "\u25810x570": 7242,
    "\u25810x5ec": 7243,
    "\u25810x41d1": 7244,
    "\u25810x4368": 7245,
    "\u25810x8de0": 7246,
    "\u25810x8ef0": 7247,
    "\u25810x1211ba4": 7248,
    "\u25810xfeee00c9": 7249,
    "\u25810xfeee00ca": 7250,
    "\u25810xfeee00cb": 7251,
    "\u2581globalfind": 7252,
    "mi": 7253,
    "2ec": 7254,
    "94d": 7255,
    "a29": 7256,
    "d41": 7257,
    "f10": 7258,
    "28ac": 7259,
    "75ce": 7260,
    "dlg32": 7261,
    "f5000": 7262,
    "\u25810x5a7": 7263,
    "ectlock": 7264,
    "options": 7265,
    "\u2581accept": 7266,
    "notowned": 7267,
    "itialized": 7268,
    "\u25810x1733c4": 7269,
    "\u25810x1211180": 7270,
    "\u25810x1211ef4": 7271,
    "supfunction": 7272,
    "notinitialized": 7273,
    "ectlocknotowned": 7274,
    "\u2581monitorsupfunction": 7275,
    "\u2581monitorsupfunctionnotinitialized": 7276,
    "219": 7277,
    "eae": 7278,
    "ysi": 7279,
    "0036": 7280,
    "18ff": 7281,
    "de7f": 7282,
    "e8c1": 7283,
    "28000": 7284,
    "74000": 7285,
    "extex": 7286,
    "oryst": 7287,
    "\u25810x73d0": 7288,
    "\u25810x8a70": 7289,
    "\u25810x4b4a4": 7290,
    "\u2581creater": 7291,
    "orystatus": 7292,
    "\u25810x181c60": 7293,
    "\u25810x181c88": 7294,
    "13e": 7295,
    "142": 7296,
    "5d6": 7297,
    "65d": 7298,
    "78e": 7299,
    "f75": 7300,
    "\u2581ph": 7301,
    "17e8": 7302,
    "bd58": 7303,
    "ee70": 7304,
    "f8bd": 7305,
    "37000": 7306,
    "\u2581inet": 7307,
    "namedp": 7308,
    "\u25810x44c9": 7309,
    "\u25810x5756": 7310,
    "\u25810xa010": 7311,
    "\u25810x7c000": 7312,
    "\u25810x42ff40": 7313,
    "\u2581comdlg32": 7314,
    "\u25810x1210f30": 7315,
    "\u2581globalmem": 7316,
    "\u2581globalmemorystatus": 7317,
    "1c4": 7318,
    "323": 7319,
    "33f": 7320,
    "6aa": 7321,
    "fb8": 7322,
    "5478": 7323,
    "core": 7324,
    "\u2581184": 7325,
    "f4e4d4c": 7326,
    "\u25810x40e8": 7327,
    "\u25810x41e9": 7328,
    "\u25810x5718": 7329,
    "\u25810x7e90": 7330,
    "\u2581exedows": 7331,
    "\u2581rtlinit": 7332,
    "\u25810x40300c": 7333,
    "\u25810x1210e2b": 7334,
    "\u25810x12114bc": 7335,
    "\u25810x4b4a4948": 7336,
    "\u25810x4f4e4d4c": 7337,
    "\u25810x57565554": 7338,
    "76e": 7339,
    "baa": 7340,
    "c23": 7341,
    "rchr": 7342,
    "5d000": 7343,
    "6c000": 7344,
    "7447d": 7345,
    "b3000": 7346,
    "flush": 7347,
    "\u2581getpe": 7348,
    "\u25810x1074": 7349,
    "\u25810x3332": 7350,
    "stringlen": 7351,
    "\u25810x1211e5c": 7352,
    "\u25810x3b7fb98": 7353,
    "\u25810x3b7fbe0": 7354,
    "ik": 7355,
    "199": 7356,
    "f06": 7357,
    "f98": 7358,
    "w32": 7359,
    "8d3c": 7360,
    "b3f0": 7361,
    "cc58": 7362,
    "d478": 7363,
    "ynam": 7364,
    "3e000": 7365,
    "ername": 7366,
    "\u25810x358": 7367,
    "visible": 7368,
    "\u2581charup": 7369,
    "\u25810x43424": 7370,
    "\u25810x64000": 7371,
    "\u25810x41f738": 7372,
    "\u25810x441806": 7373,
    "\u25810x441808": 7374,
    "\u25810x44180a": 7375,
    "\u25810x44180c": 7376,
    "\u25810x44180e": 7377,
    "\u25810x441810": 7378,
    "\u25810x441812": 7379,
    "\u25810x441814": 7380,
    "\u25810x441816": 7381,
    "\u25810xea6b70": 7382,
    "\u2581msvcr100": 7383,
    "\u2581getpeername": 7384,
    "\u2581loadaccelerator": 7385,
    "385": 7386,
    "90e": 7387,
    "935": 7388,
    "a60": 7389,
    "bba": 7390,
    "bdc": 7391,
    "16e7": 7392,
    "5614": 7393,
    "c055": 7394,
    "59000": 7395,
    "93000": 7396,
    "\u25810x10f": 7397,
    "\u25810x455": 7398,
    "etchblt": 7399,
    "\u25810x1860": 7400,
    "\u25810x1900": 7401,
    "\u25810xc0000": 7402,
    "\u25810x43424140": 7403,
    "143": 7404,
    "1a1": 7405,
    "b65": 7406,
    "\u2581rb": 7407,
    "1e1d": 7408,
    "84f2": 7409,
    "e0c0": 7410,
    "\u2581amo": 7411,
    "64544": 7412,
    "aa000": 7413,
    "b4000": 7414,
    "b6000": 7415,
    "d9000": 7416,
    "ffcdd": 7417,
    "untof": 7418,
    "3e3d3c": 7419,
    "ynamic": 7420,
    "\u25810x17d4": 7421,
    "\u25810x4089": 7422,
    "\u25810x5a45": 7423,
    "\u25810x7320": 7424,
    "specified": 7425,
    "\u2581amountof": 7426,
    "\u25810x3f3e3d3c": 7427,
    "\u25810x47464544": 7428,
    "\u25810xfeee00cc": 7429,
    "uldnotbelocated": 7430,
    "75e": 7431,
    "be2": 7432,
    "row": 7433,
    "3040": 7434,
    "aaf6": 7435,
    "b2f8": 7436,
    "b335": 7437,
    "b3f8": 7438,
    "bd74": 7439,
    "eb50": 7440,
    "f8d0": 7441,
    "a1000": 7442,
    "b2000": 7443,
    "\u25810x248": 7444,
    "\u25810x510": 7445,
    "\u25810x824": 7446,
    "filewas": 7447,
    "standar": 7448,
    "\u25810x4013": 7449,
    "\u25810x1075c8": 7450,
    "\u25810x1075f8": 7451,
    "\u25810x107628": 7452,
    "\u25810x441818": 7453,
    "\u2581thespecified": 7454,
    "\u2581module32first": 7455,
    "filewasnotfound": 7456,
    "uldnotbelocatedint": 7457,
    "\u2581thespecifiedfilewasnotfound": 7458,
    "lu": 7459,
    "170": 7460,
    "7df": 7461,
    "c0a": 7462,
    "ff5": 7463,
    "red": 7464,
    "53b0": 7465,
    "fa63": 7466,
    "yout": 7467,
    "22120": 7468,
    "65000": 7469,
    "e2d2c": 7470,
    "ysical": 7471,
    "\u2581readc": 7472,
    "7161514": 7473,
    "\u25810x188e00": 7474,
    "\u2581physical": 7475,
    "\u25810x17161514": 7476,
    "\u25810x2f2e2d2c": 7477,
    "\u25810x33323130": 7478,
    "\u25810x37363534": 7479,
    "\u25810xfeee00cd": 7480,
    "\u25810xfeee00ce": 7481,
    "962": 7482,
    "1576": 7483,
    "1734": 7484,
    "3718": 7485,
    "3e30": 7486,
    "5c98": 7487,
    "fff8": 7488,
    "\u2581nto": 7489,
    "1c000": 7490,
    "38000": 7491,
    "3f000": 7492,
    "98000": 7493,
    "a2928": 7494,
    "1a1918": 7495,
    "1e1d1c": 7496,
    "262524": 7497,
    "3a3938": 7498,
    "layout": 7499,
    "\u25810x654": 7500,
    "\u25810xc74": 7501,
    "\u25810x1818": 7502,
    "\u25810x40f1": 7503,
    "\u25810x7020": 7504,
    "outputcp": 7505,
    "\u25810xf003f": 7506,
    "\u2581replace": 7507,
    "youwantto": 7508,
    "\u25810x40b3a0": 7509,
    "\u25810x1211d10": 7510,
    "\u25810xfeee01c": 7511,
    "\u25810x1b1a1918": 7512,
    "\u25810x1f1e1d1c": 7513,
    "\u25810x23222120": 7514,
    "\u25810x27262524": 7515,
    "\u25810x2b2a2928": 7516,
    "\u25810x3b3a3938": 7517,
    "\u25810xfeee00cf": 7518,
    "3fc": 7519,
    "\u258100": 7520,
    "10a4": 7521,
    "341f": 7522,
    "7140": 7523,
    "7168": 7524,
    "25150": 7525,
    "e9b5c": 7526,
    "\u25810x5a1": 7527,
    "\u25810x18cc": 7528,
    "\u25810x574c": 7529,
    "\u25810x7d40": 7530,
    "\u25810x9090": 7531,
    "\u25810x2ac45": 7532,
    "\u25810x7b000": 7533,
    "\u25810x40287e": 7534,
    "\u25810x437116": 7535,
    "\u25810x437117": 7536,
    "\u25810x44181a": 7537,
    "\u25810x44181c": 7538,
    "\u25810x44181e": 7539,
    "\u25810x100fdd70": 7540,
    "\u25810x53525150": 7541,
    "003": 7542,
    "67a": 7543,
    "7f5": 7544,
    "99c": 7545,
    "ini": 7546,
    "ome": 7547,
    "\u2581pb": 7548,
    "1390": 7549,
    "13e8": 7550,
    "35ce": 7551,
    "39f0": 7552,
    "b554": 7553,
    "\u25810x4374": 7554,
    "\u25810x468b": 7555,
    "\u25810x7c91": 7556,
    "\u25810x5026c": 7557,
    "ataddress": 7558,
    "799": 7559,
    "c05": 7560,
    "e55": 7561,
    "1260": 7562,
    "37e2": 7563,
    "7c35": 7564,
    "93dc": 7565,
    "atal": 7566,
    "b082": 7567,
    "dows": 7568,
    "raph": 7569,
    "\u25810x550": 7570,
    "\u2581fatal": 7571,
    "\u25810x413a": 7572,
    "\u25810x7e91": 7573,
    "\u25810x43b6e9": 7574,
    "\u25810x43b6f3": 7575,
    "\u25810x452bf8": 7576,
    "ynamiclink": 7577,
    "\u2581globaladdatoma": 7578,
    "ynamiclinklibrary": 7579,
    "\u2581accessviolationataddress": 7580,
    "290": 7581,
    "aa1": 7582,
    "ed6": 7583,
    "15e4": 7584,
    "26e0": 7585,
    "2a90": 7586,
    "7b5c": 7587,
    "9108": 7588,
    "d8b4": 7589,
    "df40": 7590,
    "hash": 7591,
    "\u25810xa6c": 7592,
    "\u25810x4122": 7593,
    "\u25810x28000": 7594,
    "\u25810x68000": 7595,
    "\u25810x1211eb0": 7596,
    "unicodestring": 7597,
    "\u2581getconsoleoutputcp": 7598,
    "9e8": 7599,
    "b07": 7600,
    "idi": 7601,
    "2c2c": 7602,
    "b94c": 7603,
    "eb28": 7604,
    "a4000": 7605,
    "d04df": 7606,
    "e9000": 7607,
    "ecomm": 7608,
    "orgex": 7609,
    "\u2581wine": 7610,
    "utility": 7611,
    "\u25810x1104": 7612,
    "\u25810x42b0": 7613,
    "\u25810x9170": 7614,
    "\u25810xff92": 7615,
    "\u25810xfff2": 7616,
    "localdrive": 7617,
    "\u25810x1211d88": 7618,
    "\u25810x1211e68": 7619,
    "toyourlocaldrive": 7620,
    "9a0": 7621,
    "af8": 7622,
    "3518": 7623,
    "a8d8": 7624,
    "d9c4": 7625,
    "c4000": 7626,
    "\u25810x3b6": 7627,
    "\u25810x944": 7628,
    "\u25810x4070": 7629,
    "\u25810x457e": 7630,
    "\u25810x7ecd": 7631,
    "\u25810xa0c0": 7632,
    "\u25810x40000": 7633,
    "installer": 7634,
    "\u25810x42b408": 7635,
    "\u25810x561960": 7636,
    "\u25810x1210f60": 7637,
    "\u2581setthreadpriority": 7638,
    "\u2581rtlinitunicodestring": 7639,
    "155": 7640,
    "7e3": 7641,
    "88b": 7642,
    "e31": 7643,
    "313f": 7644,
    "35dd": 7645,
    "5040": 7646,
    "b148": 7647,
    "e5f4": 7648,
    "ee38": 7649,
    "36000": 7650,
    "3a000": 7651,
    "46000": 7652,
    "\u25810x44c0": 7653,
    "topwindow": 7654,
    "\u25810x43a438": 7655,
    "\u2581charlowerbuff": 7656,
    "\u2581waitformultipleob": 7657,
    "2e0": 7658,
    "b2a": 7659,
    "e1d": 7660,
    "9ca0": 7661,
    "a2f8": 7662,
    "c4a7": 7663,
    "3c000": 7664,
    "58000": 7665,
    "queue": 7666,
    "\u25810x4c1": 7667,
    "\u25810x614": 7668,
    "\u25810x4346": 7669,
    "\u25810x90c0": 7670,
    "\u25810x98e0": 7671,
    "\u2581backups": 7672,
    "\u25810x1211b5c": 7673,
    "f9e": 7674,
    "5892": 7675,
    "784d": 7676,
    "9eac": 7677,
    "a67c": 7678,
    "ee00": 7679,
    "78000": 7680,
    "iocon": 7681,
    "\u2581midi": 7682,
    "lgitem": 7683,
    "\u25810x126": 7684,
    "\u25810x52c": 7685,
    "\u25810x4197": 7686,
    "\u25810x7a40": 7687,
    "\u25810x1210ebc": 7688,
    "\u25810x1211898": 7689,
    "\u25810x1211ee8": 7690,
    "\u2581localfilet": 7691,
    "\u2581gettempfilenamew": 7692,
    "\u2581localfiletimetofiletime": 7693,
    "2268": 7694,
    "38ad": 7695,
    "3d18": 7696,
    "6408": 7697,
    "6872": 7698,
    "a4de": 7699,
    "b4b8": 7700,
    "\u2581uni": 7701,
    "\u25810x4d0": 7702,
    "\u25810x4fd": 7703,
    "\u25810x120e": 7704,
    "\u25810x1820": 7705,
    "\u25810x414b8": 7706,
    "\u2581updater": 7707,
    "attribute": 7708,
    "racatalogs": 7709,
    "\u2581deviceiocon": 7710,
    "\u2581readconsolew": 7711,
    "2ef": 7712,
    "2f2": 7713,
    "68a": 7714,
    "da7": 7715,
    "ice": 7716,
    "2433": 7717,
    "2aa8": 7718,
    "3150": 7719,
    "88c8": 7720,
    "9035": 7721,
    "9958": 7722,
    "a5f0": 7723,
    "d49e4": 7724,
    "\u25810x1828": 7725,
    "\u25810x414a": 7726,
    "\u25810x7ead": 7727,
    "\u25810x1210d1": 7728,
    "\u25810x188d3c": 7729,
    "\u25810x42b498": 7730,
    "\u25810x56b880": 7731,
    "\u25810x573c10": 7732,
    "34e": 7733,
    "3b3": 7734,
    "9c6": 7735,
    "ada": 7736,
    "b5f": 7737,
    "23cc": 7738,
    "54d8": 7739,
    "66ec": 7740,
    "bc48": 7741,
    "d154": 7742,
    "d358": 7743,
    "da93": 7744,
    "dbc0": 7745,
    "demo": 7746,
    "f884": 7747,
    "hell": 7748,
    "\u25810x7e98": 7749,
    "\u25810x7e99": 7750,
    "\u25810x91f2": 7751,
    "\u2581getcli": 7752,
    "\u25810x1211ea4": 7753,
    "342": 7754,
    "924": 7755,
    "c86": 7756,
    "db6": 7757,
    "dd1": 7758,
    "e35": 7759,
    "ert": 7760,
    "2e60": 7761,
    "38ee": 7762,
    "5578": 7763,
    "6485": 7764,
    "77dd": 7765,
    "7a50": 7766,
    "c4a0": 7767,
    "d956": 7768,
    "dce4": 7769,
    "ight": 7770,
    "leng": 7771,
    "66000": 7772,
    "7519e": 7773,
    "longw": 7774,
    "ouble": 7775,
    "22b3f0": 7776,
    "\u25810x83e": 7777,
    "\u25810x980": 7778,
    "\u25810x441f": 7779,
    "\u25810x7e9c": 7780,
    "\u25810x41b0a0": 7781,
    "\u25810x1210ecc": 7782,
    "\u25810x1211674": 7783,
    "\u25810x1211ed0": 7784,
    "\u2581deviceiocontrol": 7785,
    "gs": 7786,
    "195": 7787,
    "e9a": 7788,
    "f68": 7789,
    "ff2": 7790,
    "1e00": 7791,
    "33e8": 7792,
    "35e0": 7793,
    "3870": 7794,
    "3f16": 7795,
    "5f6c": 7796,
    "91b8": 7797,
    "91bd": 7798,
    "c4e8": 7799,
    "db68": 7800,
    "eral": 7801,
    "ff15": 7802,
    "gine": 7803,
    "e5000": 7804,
    "updat": 7805,
    "\u25810xafc": 7806,
    "\u25810xb04": 7807,
    "\u25810xecc": 7808,
    "browser": 7809,
    "usethis": 7810,
    "\u25810x1830": 7811,
    "\u25810x4740": 7812,
    "\u25810x7e9d": 7813,
    "\u25810x7ea0": 7814,
    "\u2581general": 7815,
    "dcatalogs": 7816,
    "\u25810x40f690": 7817,
    "\u25810x1211480": 7818,
    "\u25810x1211d48": 7819,
    "\u2581setcursor": 7820,
    "standardcatalogs": 7821,
    "gl": 7822,
    "260": 7823,
    "4c5": 7824,
    "71f": 7825,
    "99d": 7826,
    "ede": 7827,
    "\u258111": 7828,
    "\u2581ci": 7829,
    "1ef0": 7830,
    "2cf9": 7831,
    "505c": 7832,
    "5320": 7833,
    "679c": 7834,
    "6fb4": 7835,
    "72e7": 7836,
    "77fe": 7837,
    "79dc": 7838,
    "8268": 7839,
    "9138": 7840,
    "92d0": 7841,
    "b4b6": 7842,
    "b720": 7843,
    "mous": 7844,
    "38c32": 7845,
    "68000": 7846,
    "points": 7847,
    "\u25810x1840": 7848,
    "\u25810x184c": 7849,
    "\u25810x3f2a": 7850,
    "\u25810x40d6": 7851,
    "\u25810x4174": 7852,
    "\u25810x4528": 7853,
    "\u25810x88d0": 7854,
    "\u25810x416488": 7855,
    "\u2581checking": 7856,
    "\u25810x1211b84": 7857,
    "\u2581utilityto": 7858,
    "windowshook": 7859,
    "547": 7860,
    "7d4": 7861,
    "dcb": 7862,
    "fd6": 7863,
    "1f50": 7864,
    "4215": 7865,
    "50ea": 7866,
    "5610": 7867,
    "5f64": 7868,
    "6e7c": 7869,
    "7410": 7870,
    "74f7": 7871,
    "939c": 7872,
    "b0ac": 7873,
    "d3a9": 7874,
    "ddad": 7875,
    "f795": 7876,
    "fc42": 7877,
    "\u25810x1848": 7878,
    "\u25810x412c": 7879,
    "\u2581double": 7880,
    "\u25810x10020": 7881,
    "\u25810x404180": 7882,
    "\u25810x416408": 7883,
    "\u25810x41645c": 7884,
    "\u25810x417cd8": 7885,
    "\u25810x4786e0": 7886,
    "\u25810x1211e70": 7887,
    "\u25810x1211ea8": 7888,
    "indirectory": 7889,
    "updatecadwork": 7890,
    "5c9": 7891,
    "74b": 7892,
    "75d": 7893,
    "bc9": 7894,
    "f82": 7895,
    "fb5": 7896,
    "fcd": 7897,
    "\u2581sp": 7898,
    "12f4": 7899,
    "2860": 7900,
    "6460": 7901,
    "69a5": 7902,
    "9385": 7903,
    "9df4": 7904,
    "a5fc": 7905,
    "bcc7": 7906,
    "ee9a": 7907,
    "f922": 7908,
    "35b00": 7909,
    "\u25810x4a5": 7910,
    "\u25810x1838": 7911,
    "\u25810x4055": 7912,
    "\u25810x404184": 7913,
    "\u25810x404190": 7914,
    "\u25810x436408": 7915,
    "\u25810x5b2bd0": 7916,
    "\u25810x1210f98": 7917,
    "\u2581attribute": 7918,
    "\u2581globalhandle": 7919,
    "\u2581verifyversioninfow": 7920,
    "war": 7921,
    "2550": 7922,
    "2857": 7923,
    "32bb": 7924,
    "4c40": 7925,
    "604c": 7926,
    "9640": 7927,
    "98e7": 7928,
    "ad80": 7929,
    "asyn": 7930,
    "bf38": 7931,
    "cf38": 7932,
    "eea1": 7933,
    "f3e0": 7934,
    "f9ef": 7935,
    "acca4": 7936,
    "e08e8": 7937,
    "\u25810x537": 7938,
    "\u25810x1834": 7939,
    "\u25810x4032": 7940,
    "\u25810x405c": 7941,
    "\u25810x7ea5": 7942,
    "\u25810x404178": 7943,
    "\u25810x12118d8": 7944,
    "\u25810x1211db0": 7945,
    "ce6": 7946,
    "cke": 7947,
    "3cee": 7948,
    "40e8": 7949,
    "5560": 7950,
    "773d": 7951,
    "8844": 7952,
    "9091": 7953,
    "ad0c": 7954,
    "ec35": 7955,
    "20408": 7956,
    "38c59": 7957,
    "3b000": 7958,
    "52316": 7959,
    "67000": 7960,
    "938f3": 7961,
    "a0424": 7962,
    "deda0": 7963,
    "e6b00": 7964,
    "ef456": 7965,
    "cename": 7966,
    "\u25810x7e8": 7967,
    "asyncke": 7968,
    "\u25810x1844": 7969,
    "\u25810x1858": 7970,
    "\u25810x4069": 7971,
    "\u25810x82d0": 7972,
    "\u25810x8f30": 7973,
    "\u25810x169b9": 7974,
    "\u25810x19000": 7975,
    "\u25810x42b403": 7976,
    "\u25810x42b404": 7977,
    "\u25810x42b405": 7978,
    "\u25810x42b406": 7979,
    "\u25810x42b407": 7980,
    "\u25810x42b409": 7981,
    "\u25810x42b40a": 7982,
    "\u25810x42b40b": 7983,
    "\u25810x42b40c": 7984,
    "\u25810x42b40d": 7985,
    "\u25810x42b40e": 7986,
    "\u25810x42b40f": 7987,
    "\u25810x436403": 7988,
    "\u25810x436404": 7989,
    "\u25810x436405": 7990,
    "\u25810x436406": 7991,
    "\u25810x436407": 7992,
    "\u25810x436409": 7993,
    "\u25810x43640a": 7994,
    "\u25810x43640b": 7995,
    "\u25810x43640c": 7996,
    "\u25810x43640d": 7997,
    "\u25810x43640e": 7998,
    "\u25810x43640f": 7999,
    "\u25810x447088": 8000,
    "\u25810x1210e28": 8001,
    "\u25810x1210f54": 8002,
    "\u25810x1210f94": 8003,
    "\u25810x1211a4c": 8004,
    "\u25810x5265c50": 8005,
    "\u2581getasyncke": 8006,
    "\u2581updateregistry": 8007,
    "\u2581getasynckeystate": 8008,
    "3dc": 8009,
    "f6c": 8010,
    "02ed": 8011,
    "19e5": 8012,
    "2498": 8013,
    "312a": 8014,
    "3fb5": 8015,
    "5840": 8016,
    "69b2": 8017,
    "7622": 8018,
    "9308": 8019,
    "961c": 8020,
    "a4a0": 8021,
    "cf77": 8022,
    "e03a": 8023,
    "f430": 8024,
    "lear": 8025,
    "\u25817z1": 8026,
    "1e2f8": 8027,
    "9a6cb": 8028,
    "9c352": 8029,
    "c0775": 8030,
    "cidto": 8031,
    "da6cb": 8032,
    "ea7c7": 8033,
    "fe5b2": 8034,
    "olcid": 8035,
    "\u25817zca": 8036,
    "\u25817zff": 8037,
    "11ff34": 8038,
    "171f34": 8039,
    "528e9d": 8040,
    "7c5826": 8041,
    "b71db4": 8042,
    "be15e4": 8043,
    "enamet": 8044,
    "\u25810x184": 8045,
    "\u25810x4c5": 8046,
    "\u25817z2e7": 8047,
    "\u25817z34c": 8048,
    "\u25817z74c": 8049,
    "\u25817z77f": 8050,
    "\u25817z8d0": 8051,
    "d956130": 8052,
    "da26178": 8053,
    "ec46c00": 8054,
    "\u25810x182c": 8055,
    "\u25810x183c": 8056,
    "\u25810x4718": 8057,
    "\u25817z02ed": 8058,
    "\u25817z2c2c": 8059,
    "\u25817z2e60": 8060,
    "\u25817z50ea": 8061,
    "\u25817z6fb4": 8062,
    "\u25817z7a50": 8063,
    "\u25817zcf77": 8064,
    "\u2581lcidto": 8065,
    "35b001ac": 8066,
    "9a6cbea4": 8067,
    "da6cbea8": 8068,
    "ef456a04": 8069,
    "\u25817zea7c7": 8070,
    "\u25817zfe5b2": 8071,
    "\u25810x71e000": 8072,
    "\u25817z1deda0": 8073,
    "\u25817z304215": 8074,
    "\u25817z528e9d": 8075,
    "\u25817z638c59": 8076,
    "\u25817z72341f": 8077,
    "\u25817z7c5826": 8078,
    "\u25817z8938f3": 8079,
    "\u25817zffeb28": 8080,
    "\u25810x1210f20": 8081,
    "\u25810x1211b8c": 8082,
    "enametolcid": 8083,
    "\u25817z2c2c679c": 8084,
    "\u25817z2d956130": 8085,
    "\u25817z2e606e7c": 8086,
    "\u25817z30be15e4": 8087,
    "\u25817z34ca0424": 8088,
    "\u25817z35b001ac": 8089,
    "\u25817z50ea94a8": 8090,
    "\u25817z6da26178": 8091,
    "\u25817z6ec46c00": 8092,
    "\u25817z6fb469c0": 8093,
    "\u25817z72171f34": 8094,
    "\u25817z72b71db4": 8095,
    "\u25817z74c20408": 8096,
    "\u25817z77fe08e8": 8097,
    "\u25817z7a503e30": 8098,
    "\u25817z8d01e2f8": 8099,
    "\u25817z9a6cbea4": 8100,
    "\u25817zca11ff34": 8101,
    "\u25817zcf77eaac": 8102,
    "\u25817zda6cbea8": 8103,
    "\u25817zef456a04": 8104,
    "stinationdrive": 8105,
    "\u2581lcidtolocalename": 8106,
    "\u2581localenametolcid": 8107,
    "ax": 8108,
    "265": 8109,
    "737": 8110,
    "9c5": 8111,
    "de5": 8112,
    "f32": 8113,
    "303c": 8114,
    "5b5c": 8115,
    "6418": 8116,
    "7552": 8117,
    "9d1b": 8118,
    "a9a8": 8119,
    "e51c": 8120,
    "e778": 8121,
    "ee8e": 8122,
    "6caa4": 8123,
    "94000": 8124,
    "namet": 8125,
    "browse": 8126,
    "\u25810x1312": 8127,
    "\u25810x4360": 8128,
    "\u25810x7702": 8129,
    "\u25810x40619d": 8130,
    "\u25810x40619e": 8131,
    "\u25810x447040": 8132,
    "\u25810x45d154": 8133,
    "cadworkint": 8134,
    "\u25810x1211884": 8135,
    "\u25810xc0000409": 8136,
    "rl6660dl6660d": 8137,
    "361": 8138,
    "bae": 8139,
    "38f9": 8140,
    "3f6c": 8141,
    "72ff": 8142,
    "96e4": 8143,
    "99b4": 8144,
    "ae40": 8145,
    "b2e2": 8146,
    "b5cc": 8147,
    "bcb3": 8148,
    "bf70": 8149,
    "dd91": 8150,
    "e4b9": 8151,
    "f9df": 8152,
    "00814": 8153,
    "1c3a8": 8154,
    "208e8": 8155,
    "2c3c4": 8156,
    "91124": 8157,
    "972c4": 8158,
    "9f931": 8159,
    "a7be8": 8160,
    "df931": 8161,
    "2068b2": 8162,
    "3ad65d": 8163,
    "4339cc": 8164,
    "5610f0": 8165,
    "72c8bd": 8166,
    "73eac8": 8167,
    "74dac5": 8168,
    "79e860": 8169,
    "7d2465": 8170,
    "f46bc6": 8171,
    "gineer": 8172,
    "17e8278": 8173,
    "313fcc8": 8174,
    "35e4720": 8175,
    "d48e5f4": 8176,
    "ee8efa2": 8177,
    "\u25810x419a": 8178,
    "2857b4f9": 8179,
    "3152c3c4": 8180,
    "32bbbd58": 8181,
    "3386caa4": 8182,
    "39f0604c": 8183,
    "72c8bda0": 8184,
    "773d7b5c": 8185,
    "77dd79dc": 8186,
    "79e86030": 8187,
    "92283f20": 8188,
    "cf385b5c": 8189,
    "d49e46d4": 8190,
    "dca00814": 8191,
    "df931ad0": 8192,
    "f4356872": 8193,
    "\u2581command": 8194,
    "4339ccaec": 8195,
    "\u25810x430bc8": 8196,
    "\u25810x566a88": 8197,
    "\u25810x7d2778": 8198,
    "50817e8278": 8199,
    "a02313fcc8": 8200,
    "c0775a7be8": 8201,
    "d48e5f4ffc": 8202,
    "\u25817z2e766ec": 8203,
    "ee8efa2db10": 8204,
    "\u25817zfe5b2e4c0": 8205,
    "\u25817zffeb289c0": 8206,
    "\u25817z7a503e307f7": 8207,
    "\u25817z02eddca00814": 8208,
    "\u25817z638c592068b2": 8209,
    "\u25817z9a6cbea49f931": 8210,
    "\u25817z304215f4356872": 8211,
    "\u25817z35b001ac3ad65d": 8212,
    "\u25817z50ea94a85610f0": 8213,
    "\u25817z528e9d2857b4f9": 8214,
    "\u25817z6ec46c0073eac8": 8215,
    "\u25817z6fb469c074dac5": 8216,
    "\u25817z77fe08e87d2465": 8217,
    "\u25817zef456a04f46bc6": 8218,
    "\u25817z30be15e435e4720": 8219,
    "\u25817z1deda0a02313fcc8": 8220,
    "\u25817z2c2c679c3152c3c4": 8221,
    "\u25817z2d95613032bbbd58": 8222,
    "\u25817z2e606e7c3386caa4": 8223,
    "\u25817z2e766ec4339ccaec": 8224,
    "\u25817z34ca042439f0604c": 8225,
    "\u25817z6da2617872c8bda0": 8226,
    "\u25817z72171f34773d7b5c": 8227,
    "\u25817z72341fc0775a7be8": 8228,
    "\u25817z72b71db477dd79dc": 8229,
    "\u25817z74c2040879e86030": 8230,
    "\u25817z7c582650817e8278": 8231,
    "\u25817z8938f3d48e5f4ffc": 8232,
    "\u25817z8d01e2f892283f20": 8233,
    "\u25817zca11ff34cf385b5c": 8234,
    "\u25817zcf77eaacd49e46d4": 8235,
    "\u25817zda6cbea8df931ad0": 8236,
    "\u25817zea7c7ee8efa2db10": 8237,
    "69b": 8238,
    "7f9": 8239,
    "f38": 8240,
    "2b10": 8241,
    "3aa4": 8242,
    "60e0": 8243,
    "7f0e": 8244,
    "9538": 8245,
    "9cf6": 8246,
    "afc8": 8247,
    "bc4e": 8248,
    "14c87": 8249,
    "a0122": 8250,
    "3f16bc": 8251,
    "length": 8252,
    "\u25810x5d5": 8253,
    "\u25810x1868": 8254,
    "\u25810x40c5": 8255,
    "\u25810x7c16": 8256,
    "veupdate": 8257,
    "\u25810x50e10": 8258,
    "\u25810x7ee001": 8259,
    "\u25810x7ee002": 8260,
    "\u25810x7ee003": 8261,
    "\u25810x7ee004": 8262,
    "\u25810x7ee005": 8263,
    "\u25810x7ee006": 8264,
    "\u25810x7ee007": 8265,
    "\u25810x7ee008": 8266,
    "\u25810x7ee009": 8267,
    "\u25810x7ee00a": 8268,
    "\u25810x7ee00b": 8269,
    "\u25810x7ee00c": 8270,
    "\u25810x7ee00d": 8271,
    "\u25810x7ee00e": 8272,
    "\u25810x7ee00f": 8273,
    "\u25810x7ee010": 8274,
    "\u25810x7ee011": 8275,
    "\u25810x7ee012": 8276,
    "\u25810x7ee013": 8277,
    "\u25810x7ee014": 8278,
    "\u25810x7ee015": 8279,
    "\u25810x7ee016": 8280,
    "\u25810x7ee017": 8281,
    "\u25810x7ee018": 8282,
    "\u25810x7ee019": 8283,
    "701": 8284,
    "\u2581d0": 8285,
    "3096": 8286,
    "4178": 8287,
    "5c80": 8288,
    "7542": 8289,
    "7a90": 8290,
    "ba24": 8291,
    "c164": 8292,
    "c4be": 8293,
    "d1d4": 8294,
    "dc7d": 8295,
    "e090": 8296,
    "e89d": 8297,
    "f062": 8298,
    "f228": 8299,
    "f9b0": 8300,
    "283a5": 8301,
    "38c80": 8302,
    "408a7": 8303,
    "9374c": 8304,
    "94100": 8305,
    "a3268": 8306,
    "ac088": 8307,
    "b5486": 8308,
    "ece58": 8309,
    "ffcba": 8310,
    "\u2581line": 8311,
    "2cf992": 8312,
    "37e219": 8313,
    "3818a7": 8314,
    "77ef19": 8315,
    "7c80d8": 8316,
    "7d03d6": 8317,
    "86a4de": 8318,
    "b97708": 8319,
    "c3b0ac": 8320,
    "d45eb7": 8321,
    "d9c4a3": 8322,
    "\u25810x1f8": 8323,
    "\u25810x23c": 8324,
    "\u25810x562": 8325,
    "\u25810x5e0": 8326,
    "10824ac": 8327,
    "4c40a37": 8328,
    "505cdb5": 8329,
    "69a5884": 8330,
    "9112464": 8331,
    "a012224": 8332,
    "b374d0c": 8333,
    "d3a9504": 8334,
    "dd91184": 8335,
    "paramet": 8336,
    "\u25810x7260": 8337,
    "36792000": 8338,
    "38ad26e0": 8339,
    "38c32728": 8340,
    "9385ac38": 8341,
    "974e9b5c": 8342,
    "d43ffcba": 8343,
    "f4c9374c": 8344,
    "\u25810x3b7f4": 8345,
    "c3b0ace48": 8346,
    "\u25810x181bc0": 8347,
    "\u25810x6ab800": 8348,
    "\u2581createen": 8349,
    "1c3a8ece58": 8350,
    "2879112464": 8351,
    "2cf9922268": 8352,
    "d05b374d0c": 8353,
    "e87a012224": 8354,
    "\u25810x1210e00": 8355,
    "\u25810x1210e80": 8356,
    "\u25810x1211850": 8357,
    "\u25810x1211a38": 8358,
    "3818a7408a7": 8359,
    "51184c40a37": 8360,
    "69a58849cf6": 8361,
    "acca4b97708": 8362,
    "38c80d3a9504": 8363,
    "b5486dd91184": 8364,
    "\u25817z72171f34773d7b5c7c6": 8365,
    "\u25817z74c2040879e860307f0e": 8366,
    "\u25817zfe5b2e4c03818a7408a7": 8367,
    "\u25817zffeb289c051184c40a37": 8368,
    "\u25817z1deda0a02313fcc8283a5": 8369,
    "\u25817z528e9d2857b4f9505cdb5": 8370,
    "\u25817z77fe08e87d246510824ac": 8371,
    "\u25817z2d95613032bbbd5837e219": 8372,
    "\u25817z34ca042439f0604c3f16bc": 8373,
    "\u25817z35b001ac3ad65dd43ffcba": 8374,
    "\u25817z6da2617872c8bda077ef19": 8375,
    "\u25817z72341fc0775a7be87c80d8": 8376,
    "\u25817z72b71db477dd79dc7d03d6": 8377,
    "\u25817z7a503e307f769a58849cf6": 8378,
    "\u25817z7c582650817e827886a4de": 8379,
    "\u25817zca11ff34cf385b5cd45eb7": 8380,
    "\u25817zcf77eaacd49e46d4d9c4a3": 8381,
    "\u25817z02eddca0081438c80d3a9504": 8382,
    "\u25817z2c2c679c3152c3c436792000": 8383,
    "\u25817z2e606e7c3386caa438ad26e0": 8384,
    "\u25817z2e766ec4339ccaec38c32728": 8385,
    "\u25817z304215f43568721c3a8ece58": 8386,
    "\u25817z30be15e435e4720c3b0ace48": 8387,
    "\u25817z50ea94a85610f0d05b374d0c": 8388,
    "\u25817z638c592068b2b5486dd91184": 8389,
    "\u25817z6ec46c0073eac82879112464": 8390,
    "\u25817z6fb469c074dac5e87a012224": 8391,
    "\u25817z8938f3d48e5f4ffc9385ac38": 8392,
    "\u25817z8d01e2f892283f20974e9b5c": 8393,
    "\u25817z9a6cbea49f931acca4b97708": 8394,
    "\u25817zea7c7ee8efa2db10f4c9374c": 8395,
    "\u25817zef456a04f46bc62cf9922268": 8396,
    "\u2581registerservicectrlhandler": 8397,
    "1f1": 8398,
    "585": 8399,
    "af1": 8400,
    "e93": 8401,
    "1168": 8402,
    "1a1e": 8403,
    "280e": 8404,
    "381e": 8405,
    "3af6": 8406,
    "58c6": 8407,
    "5e14": 8408,
    "86b0": 8409,
    "9058": 8410,
    "a9df": 8411,
    "c0c8": 8412,
    "c490": 8413,
    "scan": 8414,
    "1d198": 8415,
    "23bd2": 8416,
    "3dd38": 8417,
    "c8c34": 8418,
    "\u25810x187c": 8419,
    "\u25810x3b7f": 8420,
    "ofaddress": 8421,
    "\u25810x455120": 8422,
    "\u25810x1210e60": 8423,
    "\u25810x1211df8": 8424,
    "\u25810x1211e18": 8425,
    "\u25810x3f75e08": 8426,
    "\u2581gettimeformatw": 8427,
    "2af": 8428,
    "7dd": 8429,
    "a9a": 8430,
    "ade": 8431,
    "28f0": 8432,
    "2980": 8433,
    "7a95": 8434,
    "ad45": 8435,
    "deab": 8436,
    "e010": 8437,
    "10dee": 8438,
    "18822": 8439,
    "1a734": 8440,
    "201b1": 8441,
    "b0490": 8442,
    "d0875": 8443,
    "d5000": 8444,
    "f5e3d": 8445,
    "\u2581play": 8446,
    "3b9f7c": 8447,
    "3d7988": 8448,
    "605da9": 8449,
    "72ff6d": 8450,
    "74f7ac": 8451,
    "770ce9": 8452,
    "7e3780": 8453,
    "7f277e": 8454,
    "98d985": 8455,
    "bc6c84": 8456,
    "chools": 8457,
    "\u25810x438": 8458,
    "\u25810x4ec": 8459,
    "18a33e8": 8460,
    "9042d60": 8461,
    "b48bcb3": 8462,
    "dce4300": 8463,
    "\u25810x185c": 8464,
    "\u25810x4220": 8465,
    "\u25810x4820": 8466,
    "\u2581myarg1": 8467,
    "10452316": 8468,
    "10deeaff": 8469,
    "2481a734": 8470,
    "3dd38330": 8471,
    "3fb52aa8": 8472,
    "88443d18": 8473,
    "943d0875": 8474,
    "9489c352": 8475,
    "9c74f7ac": 8476,
    "a9dfd358": 8477,
    "dc7d1576": 8478,
    "f9ef939c": 8479,
    "58c6201b1": 8480,
    "18822a3268": 8481,
    "98d98513e8": 8482,
    "bc6c843518": 8483,
    "e1000f5e3d": 8484,
    "e4b9770ce9": 8485,
    "parameters": 8486,
    "\u25810x1210e50": 8487,
    "\u25810x1210f34": 8488,
    "\u25810x1210f40": 8489,
    "\u25810x1210f90": 8490,
    "\u25810x1211e60": 8491,
    "9042d60b554": 8492,
    "\u2581openmutexa": 8493,
    "e6b00dce4300": 8494,
    "3d798818a33e8": 8495,
    "\u25817z30be15e435e4720c3b0ace4840": 8496,
    "\u25817z77fe08e87d246510824ac14c87": 8497,
    "\u25817z8938f3d48e5f4ffc9385ac3898": 8498,
    "\u25817zda6cbea8df931ad0e4b9770ce9": 8499,
    "\u25817zef456a04f46bc62cf9922268fe": 8500,
    "\u25817z2e766ec4339ccaec38c327283de": 8501,
    "\u25817z02eddca0081438c80d3a95041260": 8502,
    "\u25817z7c582650817e827886a4deb48bcb3": 8503,
    "\u25817z2c2c679c3152c3c4367920003b9f7c": 8504,
    "\u25817z2d95613032bbbd5837e219943d0875": 8505,
    "\u25817z34ca042439f0604c3f16bc88443d18": 8506,
    "\u25817z35b001ac3ad65dd43ffcba10452316": 8507,
    "\u25817z50ea94a85610f0d05b374d0c605da9": 8508,
    "\u25817z528e9d2857b4f9505cdb558c6201b1": 8509,
    "\u25817z638c592068b2b5486dd9118472ff6d": 8510,
    "\u25817z6da2617872c8bda077ef19dc7d1576": 8511,
    "\u25817z6ec46c0073eac828791124647e3780": 8512,
    "\u25817z6fb469c074dac5e87a0122247f277e": 8513,
    "\u25817z72341fc0775a7be87c80d82481a734": 8514,
    "\u25817z74c2040879e860307f0ebc6c843518": 8515,
    "\u25817z7a503e307f769a58849cf69489c352": 8516,
    "\u25817zcf77eaacd49e46d4d9c4a310deeaff": 8517,
    "\u25817zffeb289c051184c40a37e1000f5e3d": 8518,
    "\u25817z1deda0a02313fcc8283a59042d60b554": 8519,
    "\u25817z2e606e7c3386caa438ad26e03dd38330": 8520,
    "\u25817z304215f43568721c3a8ece583fb52aa8": 8521,
    "\u25817z72171f34773d7b5c7c63d798818a33e8": 8522,
    "\u25817z72b71db477dd79dc7d03d618822a3268": 8523,
    "\u25817z8d01e2f892283f20974e9b5c9c74f7ac": 8524,
    "\u25817z9a6cbea49f931acca4b97708a9dfd358": 8525,
    "\u25817zca11ff34cf385b5cd45eb798d98513e8": 8526,
[...]
