{
    "<pad>": 0,
    "<unk>": 1,
    "<mask>": 2,
    "\u25810": 3,
    "\u25810x": 4,
    "00": 5,
    "er": 6,
    "ne": 7,
    "32": 8,
    "\u2581k": 9,
    "l32": 10,
    "erne": 11,
    "ernel32": 12,
    "\u2581kernel32": 13,
    "\u25810x1": 14,
    "et": 15,
    "\u25810x4": 16,
    "\u25810x0": 17,
    "al": 18,
    "ee": 19,
    "get": 20,
    "ti": 21,
    "ec": 22,
    "\u25810xf": 23,
    "\u2581get": 24,
    "in": 25,
    "0000": 26,
    "ad": 27,
    "\u25810x7": 28,
    "oc": 29,
    "re": 30,
    "st": 31,
    "000": 32,
    "iti": 33,
    "eee": 34,
    "\u25810xfeee": 35,
    "\u25810x12": 36,
    "le": 37,
    "one": 38,
    "ss": 39,
    "ar": 40,
    "pr": 41,
    "proc": 42,
    "\u25810x121": 43,
    "\u2581c": 44,
    "\u25810x77": 45,
    "cal": 46,
    "sec": 47,
    "secti": 48,
    "riti": 49,
    "ritical": 50,
    "riticalsecti": 51,
    "us": 52,
    "val": 53,
    "\u2581getproc": 54,
    "user": 55,
    "on": 56,
    "dre": 57,
    "\u2581user": 58,
    "ls": 59,
    "ue": 60,
    "addre": 61,
    "address": 62,
    "\u2581getprocaddress": 63,
    "value": 64,
    "\u2581user32": 65,
    "\u2581n": 66,
    "loc": 67,
    "\u25810x40": 68,
    "\u2581m": 69,
    "\u2581none": 70,
    "f0": 71,
    "getvalue": 72,
    "lsgetvalue": 73,
    "or": 74,
    "\u2581s": 75,
    "000000": 76,
    "\u25810xfeee000": 77,
    "en": 78,
    "har": 79,
    "ff": 80,
    "\u25810x77000000": 81,
    "ter": 82,
    "ecriticalsecti": 83,
    "\u25810x1211": 84,
    "de": 85,
    "ap": 86,
    "\u2581in": 87,
    "la": 88,
    "a0": 89,
    "xt": 90,
    "em": 91,
    "\u2581f": 92,
    "\u25810x46": 93,
    "\u2581t": 94,
    "next": 95,
    "\u2581char": 96,
    "err": 97,
    "error": 98,
    "\u2581charnext": 99,
    "last": 100,
    "lasterror": 101,
    "\u25810xfeee00": 102,
    "40": 103,
    "\u2581l": 104,
    "iz": 105,
    "aliz": 106,
    "itializ": 107,
    "\u2581initializ": 108,
    "te": 109,
    "\u25810xfeee0001": 110,
    "\u2581initializecriticalsecti": 111,
    "an": 112,
    "is": 113,
    "he": 114,
    "rt": 115,
    "\u2581tlsgetvalue": 116,
    "alloc": 117,
    "str": 118,
    "heap": 119,
    "co": 120,
    "\u2581heap": 121,
    "\u2581en": 122,
    "\u25810x8": 123,
    "\u25810x5": 124,
    "\u25810xfa0": 125,
    "bc": 126,
    "\u2581set": 127,
    "and": 128,
    "\u2581ms": 129,
    "by": 130,
    "\u2581is": 131,
    "\u2581w": 132,
    "\u25810x45": 133,
    "po": 134,
    "90": 135,
    "a5": 136,
    "vc": 137,
    "\u2581msvc": 138,
    "\u25810x2": 139,
    "\u2581msvcrt": 140,
    "ow": 141,
    "\u25810x41": 142,
    "cm": 143,
    "\u2581flsgetvalue": 144,
    "poin": 145,
    "\u2581d": 146,
    "lea": 147,
    "pointer": 148,
    "ing": 149,
    "onex": 150,
    "\u25810x100": 151,
    "10": 152,
    "depointer": 153,
    "oad": 154,
    "d0": 155,
    "string": 156,
    "\u25810x40a5": 157,
    "\u2581load": 158,
    "\u2581initializecriticalsectionex": 159,
    "93": 160,
    "00000": 161,
    "fi": 162,
    "byte": 163,
    "\u25810x1210": 164,
    "cmp": 165,
    "nt": 166,
    "\u2581charnextw": 167,
    "\u25810x3": 168,
    "local": 169,
    "read": 170,
    "\u25810x43": 171,
    "\u25810x45f0": 172,
    "\u2581getlasterror": 173,
    "e4": 174,
    "inf": 175,
    "\u25810x10": 176,
    "\u2581heapalloc": 177,
    "id": 178,
    "\u2581charnexta": 179,
    "ind": 180,
    "78": 181,
    "\u2581setlasterror": 182,
    "\u2581mem": 183,
    "\u2581memcmp": 184,
    "\u25810xc": 185,
    "sle": 186,
    "\u25810x41f0": 187,
    "\u25810x41f040": 188,
    "dbc": 189,
    "60": 190,
    "f8": 191,
    "hand": 192,
    "slead": 193,
    "\u2581isdbc": 194,
    "\u2581isdbcslead": 195,
    "\u2581isdbcsleadbyte": 196,
    "stem": 197,
    "ystem": 198,
    "50": 199,
    "\u25810x4093": 200,
    "ecriticalsection": 201,
    "ffff": 202,
    "indow": 203,
    "leav": 204,
    "\u2581leav": 205,
    "\u2581leavecriticalsection": 206,
    "\u25810x1000": 207,
    "info": 208,
    "c0": 209,
    "criticalsecti": 210,
    "criticalsection": 211,
    "tercriticalsection": 212,
    "\u2581entercriticalsection": 213,
    "\u25810x400000": 214,
    "mo": 215,
    "ll": 216,
    "18": 217,
    "70": 218,
    "\u2581enco": 219,
    "\u2581encodepointer": 220,
    "ac": 221,
    "20": 222,
    "ul": 223,
    "li": 224,
    "du": 225,
    "indows": 226,
    "30": 227,
    "locale": 228,
    "ed": 229,
    "ex": 230,
    "\u25810x4e4": 231,
    "dule": 232,
    "\u2581windows": 233,
    "module": 234,
    "\u2581initializecriticalsection": 235,
    "\u2581dll": 236,
    "\u2581getmodule": 237,
    "b0": 238,
    "unt": 239,
    "94": 240,
    "\u25810x42": 241,
    "ess": 242,
    "\u2581loadstring": 243,
    "e0": 244,
    "ulti": 245,
    "count": 246,
    "idec": 247,
    "idechar": 248,
    "80": 249,
    "ea": 250,
    "eco": 251,
    "ur": 252,
    "vi": 253,
    "\u25810x40a5d": 254,
    "\u2581system": 255,
    "66": 256,
    "\u2581system32": 257,
    "handle": 258,
    "file": 259,
    "cc": 260,
    "ent": 261,
    "14": 262,
    "\u25810x6": 263,
    "\u25810xc000": 264,
    "\u25810xff": 265,
    "tr": 266,
    "fr": 267,
    "10000": 268,
    "infoa": 269,
    "\u2581getlocale": 270,
    "28": 271,
    "ce": 272,
    "\u2581loadstringa": 273,
    "op": 274,
    "\u2581getc": 275,
    "b8": 276,
    "br": 277,
    "f4": 278,
    "sp": 279,
    "ary": 280,
    "\u25810x46f0": 281,
    "\u25810x46d0": 282,
    "\u25810x7d": 283,
    "brary": 284,
    "\u2581deco": 285,
    "\u2581decodepointer": 286,
    "98": 287,
    "\u25810x1211f": 288,
    "a8": 289,
    "74": 290,
    "spin": 291,
    "spincount": 292,
    "andspincount": 293,
    "\u2581initializecriticalsectionandspincount": 294,
    "om": 295,
    "yp": 296,
    "64": 297,
    "12": 298,
    "\u25810x4690": 299,
    "58": 300,
    "it": 301,
    "34": 302,
    "e8": 303,
    "d4": 304,
    "bad": 305,
    "38": 306,
    "a4": 307,
    "readp": 308,
    "ate": 309,
    "ment": 310,
    "free": 311,
    "\u25810x44": 312,
    "c8": 313,
    "ect": 314,
    "d8": 315,
    "tet": 316,
    "rent": 317,
    "\u2581isbad": 318,
    "\u25810x78": 319,
    "urrent": 320,
    "\u25810x47": 321,
    "readptr": 322,
    "\u2581isbadreadptr": 323,
    "di": 324,
    "\u25810xfffff": 325,
    "ag": 326,
    "\u2581getlocaleinfoa": 327,
    "68": 328,
    "\u25810xfffffff": 329,
    "\u25810xf00": 330,
    "let": 331,
    "library": 332,
    "\u2581a": 333,
    "b4": 334,
    "\u2581local": 335,
    "15": 336,
    "hread": 337,
    "\u25810x4378": 338,
    "process": 339,
    "\u25810x10c": 340,
    "fc": 341,
    "\u25810x400": 342,
    "\u2581getst": 343,
    "bytet": 344,
    "\u2581multi": 345,
    "bytetow": 346,
    "\u2581multibytetow": 347,
    "\u2581multibytetowidechar": 348,
    "1c": 349,
    "2c": 350,
    "ey": 351,
    "lo": 352,
    "lock": 353,
    "\u2581loadlibrary": 354,
    "\u25810x1210e": 355,
    "\u25810x1211d": 356,
    "7c": 357,
    "na": 358,
    "69": 359,
    "5c": 360,
    "\u25810x1210f": 361,
    "d10000": 362,
    "\u25810x77d10000": 363,
    "ype": 364,
    "\u25810x7e": 365,
    "\u25810x9": 366,
    "\u2581cre": 367,
    "tion": 368,
    "54": 369,
    "me": 370,
    "ual": 371,
    "\u25810x4610": 372,
    "\u2581getcurrent": 373,
    "24": 374,
    "virt": 375,
    "virtual": 376,
    "def": 377,
    "hi": 378,
    "rst": 379,
    "3c": 380,
    "6c": 381,
    "\u2581localalloc": 382,
    "\u2581gets": 383,
    "19": 384,
    "filet": 385,
    "thread": 386,
    "un": 387,
    "\u2581re": 388,
    "\u2581getmodulehand": 389,
    "\u2581heapfree": 390,
    "\u2581virtual": 391,
    "\u2581getmodulehandlea": 392,
    "ch": 393,
    "key": 394,
    "dc": 395,
    "\u2581inter": 396,
    "rect": 397,
    "var": 398,
    "age": 399,
    "\u2581ap": 400,
    "\u2581interlock": 401,
    "\u2581g": 402,
    "56": 403,
    "aa": 404,
    "cmap": 405,
    "\u2581lcmap": 406,
    "\u2581lcmapstring": 407,
    "\u25810xfeee0": 408,
    "tom": 409,
    "26": 410,
    "\u2581getsystem": 411,
    "ri": 412,
    "\u25810x12117": 413,
    "tu": 414,
    "ab": 415,
    "9c": 416,
    "3d": 417,
    "16": 418,
    "rector": 419,
    "\u2581interlocked": 420,
    "tomulti": 421,
    "\u2581widechar": 422,
    "tomultibyte": 423,
    "\u2581widechartomultibyte": 424,
    "qu": 425,
    "44": 426,
    "director": 427,
    "\u2581p": 428,
    "ers": 429,
    "rement": 430,
    "dr": 431,
    "f5": 432,
    "l66": 433,
    "17": 434,
    "\u2581create": 435,
    "so": 436,
    "\u25810x18": 437,
    "l6660": 438,
    "1a": 439,
    "open": 440,
    "3e": 441,
    "\u25810x20": 442,
    "quer": 443,
    "handlew": 444,
    "\u25810x90": 445,
    "vw": 446,
    "\u25810xffffffff": 447,
    "\u2581lstr": 448,
    "drl6660": 449,
    "\u2581getmodulehandlew": 450,
    "ear": 451,
    "\u2581reg": 452,
    "3f": 453,
    "emp": 454,
    "mm": 455,
    "lm": 456,
    "xy": 457,
    "klm": 458,
    "ghi": 459,
    "xyz": 460,
    "opq": 461,
    "rstu": 462,
    "\u2581abc": 463,
    "opqrstu": 464,
    "vwxyz": 465,
    "defghi": 466,
    "nopqrstu": 467,
    "klmnopqrstu": 468,
    "\u2581abcdefghi": 469,
    "klmnopqrstuvwxyz": 470,
    "exw": 471,
    "\u25810xcd": 472,
    "75": 473,
    "1e": 474,
    "a2": 475,
    "\u25810x1211e": 476,
    "bf": 477,
    "\u25810x1211c": 478,
    "drl6660drl6660": 479,
    "\u25810x70": 480,
    "orm": 481,
    "\u25810x33": 482,
    "\u25810x7de": 483,
    "11": 484,
    "b2": 485,
    "88": 486,
    "directory": 487,
    "\u25810x104": 488,
    "ut": 489,
    "96": 490,
    "a6": 491,
    "35": 492,
    "\u25810x14": 493,
    "\u2581getfilet": 494,
    "df": 495,
    "\u2581getfiletype": 496,
    "dhandle": 497,
    "ol": 498,
    "1000": 499,
    "vers": 500,
    "\u2581getstdhandle": 501,
    "mea": 502,
    "39": 503,
    "\u25810x40a": 504,
    "earch": 505,
    "versi": 506,
    "\u25810x12119": 507,
    "\u25810x5f8": 508,
    "\u25810x5f800000": 509,
    "\u2581o": 510,
    "db": 511,
    "vir": 512,
    "\u25810x3394": 513,
    "viron": 514,
    "se": 515,
    "da": 516,
    "\u2581read": 517,
    "infow": 518,
    "vironment": 519,
    "b7": 520,
    "37": 521,
    "\u2581lcmapstringw": 522,
    "\u25810xfeee0004": 523,
    "\u2581find": 524,
    "\u25810x78000000": 525,
    "\u25810x54": 526,
    "84": 527,
    "c4": 528,
    "b5": 529,
    "\u25817": 530,
    "a40": 531,
    "\u2581var": 532,
    "\u2581temp": 533,
    "f2": 534,
    "92": 535,
    "filena": 536,
    "\u25810x1c": 537,
    "sset": 538,
    "lsset": 539,
    "lssetvalue": 540,
    "sw": 541,
    "\u25810x770": 542,
    "\u2581search": 543,
    "\u25810x40934": 544,
    "\u2581ex": 545,
    "\u25810x435": 546,
    "1d": 547,
    "lsalloc": 548,
    "e7": 549,
    "f6": 550,
    "inc": 551,
    "\u25810xfeee002": 552,
    "\u2581getti": 553,
    "wa": 554,
    "\u25810xa": 555,
    "\u25810xfeee0000": 556,
    "f7": 557,
    "\u25810xfeee0002": 558,
    "\u25810xfeee004": 559,
    "comm": 560,
    "55": 561,
    "increment": 562,
    "\u2581interlockedincrement": 563,
    "bd": 564,
    "ba": 565,
    "b6": 566,
    "tup": 567,
    "artup": 568,
    "\u2581loadlibraryexw": 569,
    "api": 570,
    "\u2581getcurrentthread": 571,
    "bu": 572,
    "\u25817z": 573,
    "\u2581getmodulefilena": 574,
    "97": 575,
    "\u2581apis": 576,
    "fa": 577,
    "\u25810x4350": 578,
    "13": 579,
    "\u2581getstartup": 580,
    "e10000": 581,
    "\u25810x77e10000": 582,
    "line": 583,
    "\u25810x80": 584,
    "91": 585,
    "andline": 586,
    "\u2581getcomm": 587,
    "\u2581fr": 588,
    "ft": 589,
    "ck": 590,
    "\u2581getcommandline": 591,
    "\u25810x43780": 592,
    "\u25810x88": 593,
    "ckcount": 594,
    "\u2581gettickcount": 595,
    "\u25810x200": 596,
    "\u25810x79": 597,
    "lose": 598,
    "67": 599,
    "\u2581getcurrentthreadid": 600,
    "95": 601,
    "query": 602,
    "at": 603,
    "rite": 604,
    "a7": 605,
    "9e": 606,
    "be": 607,
    "9d": 608,
    "\u2581h": 609,
    "\u25810xfeee0003": 610,
    "vironmentstring": 611,
    "\u25810x4c": 612,
    "fd": 613,
    "72": 614,
    "\u2581getversi": 615,
    "900": 616,
    "\u25810x8000": 617,
    "ng": 618,
    "\u2581open": 619,
    "valid": 620,
    "\u2581loadstringw": 621,
    "\u25810x800": 622,
    "filea": 623,
    "\u2581getcp": 624,
    "\u2581str": 625,
    "\u2581getcpinfo": 626,
    "cp": 627,
    "res": 628,
    "36": 629,
    "\u25810x7d90": 630,
    "um": 631,
    "\u25810x102": 632,
    "\u2581x": 633,
    "e5": 634,
    "\u2581hkey": 635,
    "\u2581so": 636,
    "vironmentstringsw": 637,
    "\u2581flssetvalue": 638,
    "e6": 639,
    "\u2581co": 640,
    "\u25810x7f8": 641,
    "window": 642,
    "directoryw": 643,
    "1b": 644,
    "ware": 645,
    "\u2581de": 646,
    "ftware": 647,
    "e2": 648,
    "\u2581ad": 649,
    "\u2581software": 650,
    "ation": 651,
    "eex": 652,
    "76": 653,
    "\u25810xf001": 654,
    "\u25810xf002": 655,
    "\u25810xf003": 656,
    "ic": 657,
    "\u25810x169": 658,
    "\u2581loadlibrarya": 659,
    "\u2581flsalloc": 660,
    "\u2581lstrle": 661,
    "int": 662,
    "b9": 663,
    "\u25810x7b": 664,
    "f9": 665,
    "onso": 666,
    "789": 667,
    "cpy": 668,
    "\u25810x7a": 669,
    "\u2581virtualquery": 670,
    "\u25810xfeee0005": 671,
    "\u2581getcurrentprocess": 672,
    "71": 673,
    "lob": 674,
    "\u25810x73": 675,
    "\u2581glob": 676,
    "api32": 677,
    "8c": 678,
    "dd": 679,
    "filew": 680,
    "22": 681,
    "form": 682,
    "\u25810x48": 683,
    "eb": 684,
    "\u25810x7000": 685,
    "\u2581gdi": 686,
    "onsole": 687,
    "\u2581win": 688,
    "\u25810x7f800": 689,
    "\u25811": 690,
    "vari": 691,
    "cep": 692,
    "ve": 693,
    "\u25810xfff": 694,
    "put": 695,
    "1f": 696,
    "1234": 697,
    "\u25810x40a5ce": 698,
    "\u25810x40a5d0": 699,
    "\u25810x40a5d2": 700,
    "\u25810x40a5d4": 701,
    "\u25810x40a5d6": 702,
    "\u25810x40a5d8": 703,
    "\u25810x40a5da": 704,
    "56789": 705,
    "\u258101234": 706,
    "\u25810123456789": 707,
    "type": 708,
    "\u2581ws": 709,
    "pres": 710,
    "\u2581adv": 711,
    "present": 712,
    "\u2581advapi32": 713,
    "dex": 714,
    "ber": 715,
    "\u2581wc": 716,
    "\u2581sh": 717,
    "ime": 718,
    "9a": 719,
    "ra": 720,
    "mess": 721,
    "\u25810x7c": 722,
    "48": 723,
    "ception": 724,
    "\u25810x4d": 725,
    "print": 726,
    "es": 727,
    "dec": 728,
    "\u25810x12117f8": 729,
    "3a": 730,
    "\u25810xb": 731,
    "52": 732,
    "locales": 733,
    "5e": 734,
    "\u25810x76": 735,
    "5f": 736,
    "\u25810x526": 737,
    "\u2581b": 738,
    "77": 739,
    "\u25810x120": 740,
    "\u2581getlocaleinfow": 741,
    "\u25810xfeee008": 742,
    "filetime": 743,
    "\u25810x1211c18": 744,
    "\u2581virtualalloc": 745,
    "\u25810x460": 746,
    "\u2581al": 747,
    "list": 748,
    "\u25810x1f4": 749,
    "\u2581current": 750,
    "\u25810x42a40": 751,
    "\u2581li": 752,
    "\u2581gdi32": 753,
    "\u25810x60": 754,
    "4c": 755,
    "bo": 756,
    "from": 757,
    "\u2581lread": 758,
    "\u2581l1": 759,
    "\u25810x21000": 760,
    "d6": 761,
    "\u2581lcmapstringex": 762,
    "9f": 763,
    "ob": 764,
    "\u25810x50": 765,
    "\u25810x1f400": 766,
    "\u2581locales": 767,
    "d2": 768,
    "\u2581wsprint": 769,
    "\u25810x75": 770,
    "\u25810x3f": 771,
    "\u25810x72": 772,
    "\u2581getstring": 773,
    "\u25810xfeee0006": 774,
    "\u25810x7de0": 775,
    "\u2581core": 776,
    "exa": 777,
    "33": 778,
    "\u25810x49": 779,
    "\u2581getsystemti": 780,
    "\u2581strn": 781,
    "ila": 782,
    "\u2581lstrlena": 783,
    "pool": 784,
    "\u2581getmodulefilenamea": 785,
    "drl6660drl6660drl6660drl6660": 786,
    "d5": 787,
    "close": 788,
    "62": 789,
    "ot": 790,
    "\u25810x4670": 791,
    "b1": 792,
    "ith": 793,
    "write": 794,
    "\u25810x4a": 795,
    "b3": 796,
    "\u2581geten": 797,
    "enu": 798,
    "\u2581strncmp": 799,
    "\u2581getcommandlinea": 800,
    "\u2581getstartupinfoa": 801,
    "\u2581getsystemdirectoryw": 802,
    "\u25810x4e": 803,
    "sour": 804,
    "\u2581getac": 805,
    "mode": 806,
    "af": 807,
    "\u2581fi": 808,
    "typew": 809,
    "\u25810x7ee": 810,
    "\u2581getstringtypew": 811,
    "first": 812,
    "\u25810x71": 813,
    "mew": 814,
    "\u2581library": 815,
    "fil": 816,
    "\u2581ole": 817,
    "variab": 818,
    "tered": 819,
    "\u25810xfeee01": 820,
    "\u2581with": 821,
    "\u2581altered": 822,
    "e9": 823,
    "\u2581global": 824,
    "menu": 825,
    "\u25810xfeee0007": 826,
    "\u2581page": 827,
    "\u25810x74": 828,
    "erform": 829,
    "erforman": 830,
    "\u2581quer": 831,
    "\u2581queryp": 832,
    "\u2581queryperforman": 833,
    "decrement": 834,
    "\u2581interlockeddecrement": 835,
    "\u2581getacp": 836,
    "7e": 837,
    "num": 838,
    "\u25810x7e70": 839,
    "\u2581com": 840,
    "fea": 841,
    "5d": 842,
    "processor": 843,
    "bug": 844,
    "ting": 845,
    "7d": 846,
    "dll": 847,
    "\u25810x12115": 848,
    "acc": 849,
    "im": 850,
    "c6": 851,
    "ture": 852,
    "\u2581regopen": 853,
    "sfiletime": 854,
    "\u2581regopenkey": 855,
    "\u2581api": 856,
    "bb": 857,
    "99": 858,
    "debug": 859,
    "dexception": 860,
    "c2": 861,
    "messag": 862,
    "filter": 863,
    "\u25810xd": 864,
    "directorya": 865,
    "\u25810x7f": 866,
    "up": 867,
    "unhandle": 868,
    "dexceptionfilter": 869,
    "unhandledexceptionfilter": 870,
    "unter": 871,
    "31": 872,
    "\u25810x12116": 873,
    "\u2581findfirst": 874,
    "\u25810x43500": 875,
    "\u2581getprocess": 876,
    "\u25810x30": 877,
    "\u25810xe": 878,
    "f1": 879,
    "feature": 880,
    "\u2581isprocessor": 881,
    "featurepresent": 882,
    "\u2581isprocessorfeaturepresent": 883,
    "\u25810xfeee006": 884,
    "ceco": 885,
    "cecounter": 886,
    "\u2581queryperformancecounter": 887,
    "\u25810x4b": 888,
    "7a": 889,
    "\u25810x8c": 890,
    "\u2581getcurrentprocessid": 891,
    "79": 892,
    "\u2581delet": 893,
    "2e": 894,
    "5b": 895,
    "\u2581free": 896,
    "set": 897,
    "a9": 898,
    "\u2581getsystemtimea": 899,
    "\u2581readwrite": 900,
    "\u2581getsystemtimeasfiletime": 901,
    "\u25810x7ec": 902,
    "86": 903,
    "\u2581findclose": 904,
    "defa": 905,
    "\u25810x4750": 906,
    "f3": 907,
    "defaul": 908,
    "fe": 909,
    "a1": 910,
    "\u25810x169bf": 911,
    "inform": 912,
    "information": 913,
    "number": 914,
    "42": 915,
    "fw": 916,
    "cre": 917,
    "\u2581wsprintfw": 918,
    "\u25810x1211dd4": 919,
    "\u2581getthread": 920,
    "\u25810x5f5": 921,
    "\u2581r": 922,
    "\u25810x1211e0": 923,
    "\u2581getversion": 924,
    "ae": 925,
    "\u25810x1211dc0": 926,
    "59": 927,
    "input": 928,
    "106": 929,
    "\u2581getstartupinfow": 930,
    "ction": 931,
    "db10": 932,
    "\u2581regi": 933,
    "\u2581getmodulefilenamew": 934,
    "\u25810x220": 935,
    "\u2581setunhandledexceptionfilter": 936,
    "\u25812": 937,
    "\u25810x5f500000": 938,
    "con": 939,
    "73": 940,
    "\u25810x19": 941,
    "eeen": 942,
    "\u2581freeen": 943,
    "handl": 944,
    "nd": 945,
    "7b": 946,
    "82": 947,
    "met": 948,
    "\u2581getversionex": 949,
    "\u2581bor": 950,
    "\u25810x7d91": 951,
    "\u2581findfirstfilew": 952,
    "\u25810x52": 953,
    "d3": 954,
    "\u2581init": 955,
    "\u2581invalid": 956,
    "\u2581getprocessheap": 957,
    "default": 958,
    "land": 959,
    "db10106": 960,
    "\u2581borland": 961,
    "\u25810x1db10106": 962,
    "45": 963,
    "\u25810xfffffff6": 964,
    "\u2581getenvironmentstringsw": 965,
    "create": 966,
    "\u2581getcommandlinew": 967,
    "\u2581pf": 968,
    "menuinfo": 969,
    "908": 970,
    "\u2581freeenvironmentstringsw": 971,
    "ble": 972,
    "d9": 973,
    "term": 974,
    "source": 975,
    "hel": 976,
    "access": 977,
    "\u25810x24": 978,
    "\u2581getnumber": 979,
    "3b": 980,
    "\u2581setfile": 981,
    "ofc": 982,
    "ofconsole": 983,
    "\u2581getnumberofconsole": 984,
    "\u25810x82": 985,
    "\u25810xfffffff5": 986,
    "\u2581wa": 987,
    "\u25810xfffffff4": 988,
    "pa": 989,
    "\u25810x4094": 990,
    "dep": 991,
    "\u25810x47b0": 992,
    "53": 993,
    "51": 994,
    "\u2581gett": 995,
    "stru": 996,
    "\u25810x2a": 997,
    "inputs": 998,
    "\u2581getnumberofconsoleinputs": 999,
    "struction": 1000,
    "00c": 1001,
    "5a": 1002,
    "\u25810x43540": 1003,
    "\u2581setmenuinfo": 1004,
    "\u2581key": 1005,
    "atet": 1006,
    "\u25810x5265c": 1007,
    "fb": 1008,
    "\u25810x40933d": 1009,
    "\u25810x40933e": 1010,
    "\u25810x40933f": 1011,
    "\u25810x409340": 1012,
    "\u2581isvalid": 1013,
    "\u25810x409341": 1014,
    "\u25810x409342": 1015,
    "\u25810x409343": 1016,
    "\u25810x56": 1017,
    "\u25810x105": 1018,
    "002": 1019,
    "180": 1020,
    "b40": 1021,
    "va": 1022,
    "29": 1023,
    "ant": 1024,
    "\u2581close": 1025,
    "ef": 1026,
    "780": 1027,
    "\u25810x69": 1028,
    "d1": 1029,
    "a3": 1030,
    "\u25810xffc": 1031,
    "ition": 1032,
    "57": 1033,
    "to": 1034,
    "\u25810x53": 1035,
    "dition": 1036,
    "variable": 1037,
    "748": 1038,
    "640": 1039,
    "7f": 1040,
    "version": 1041,
    "\u25810x40a5cc": 1042,
    "\u25810x40a5dc": 1043,
    "\u2581wcs": 1044,
    "image": 1045,
    "itprocess": 1046,
    "\u2581getmessag": 1047,
    "\u2581write": 1048,
    "slen": 1049,
    "\u2581wcslen": 1050,
    "\u25810x12114": 1051,
    "hreadpool": 1052,
    "61": 1053,
    "\u25810x50000": 1054,
    "\u2581lstrcpy": 1055,
    "e1": 1056,
    "\u2581wcscpy": 1057,
    "lus": 1058,
    "lass": 1059,
    "d7": 1060,
    "\u25810x9000": 1061,
    "tim": 1062,
    "\u25810x1210900": 1063,
    "urs": 1064,
    "ys": 1065,
    "\u25810x12116d8": 1066,
    "ack": 1067,
    "\u25810x7de1": 1068,
    "tri": 1069,
    "stringa": 1070,
    "46": 1071,
    "bute": 1072,
    "tribute": 1073,
    "vaila": 1074,
    "vailable": 1075,
    "hine": 1076,
    "\u2581regist": 1077,
    "\u2581mac": 1078,
    "pri": 1079,
    "\u2581machine": 1080,
    "ee0": 1081,
    "\u2581freelibrary": 1082,
    "\u2581setfilepointer": 1083,
    "\u25810x17": 1084,
    "804": 1085,
    "ttribute": 1086,
    "fileattribute": 1087,
    "\u25810x567": 1088,
    "63": 1089,
    "\u2581available": 1090,
    "\u2581tlsalloc": 1091,
    "\u25810x1211918": 1092,
    "\u2581closehandle": 1093,
    "2a": 1094,
    "\u2581getthreadlocale": 1095,
    "308": 1096,
    "\u25810x13": 1097,
    "ating": 1098,
    "eext": 1099,
    "\u25810x7830": 1100,
    "bc0": 1101,
    "day": 1102,
    "\u2581access": 1103,
    "6a": 1104,
    "ad0": 1105,
    "\u2581instruction": 1106,
    "rive": 1107,
    "timer": 1108,
    "i64": 1109,
    "\u2581tlssetvalue": 1110,
    "\u2581xmm": 1111,
    "\u2581xmmi64": 1112,
    "\u2581instructions": 1113,
    "\u2581e": 1114,
    "\u2581createt": 1115,
    "\u2581readfile": 1116,
    "eextra": 1117,
    "eextrainfo": 1118,
    "\u2581getmessageextrainfo": 1119,
    "\u25810x7ea": 1120,
    "\u25810x8810": 1121,
    "\u25810x7810": 1122,
    "ecount": 1123,
    "23": 1124,
    "\u2581heapcreate": 1125,
    "948": 1126,
    "eexw": 1127,
    "\u2581malloc": 1128,
    "nw": 1129,
    "\u25810x1211f8": 1130,
    "\u25810x3f2": 1131,
    "\u2581out": 1132,
    "\u2581ole32": 1133,
    "\u2581app": 1134,
    "c7": 1135,
    "\u2581image": 1136,
    "arg": 1137,
    "\u2581register": 1138,
    "65": 1139,
    "ies": 1140,
    "edc": 1141,
    "\u25810xf0019": 1142,
    "\u25810x1211dcc": 1143,
    "\u25810x22": 1144,
    "930": 1145,
    "handlecount": 1146,
    "defaultdll": 1147,
    "directories": 1148,
    "\u2581setdefaultdll": 1149,
    "\u2581setdefaultdlldirectories": 1150,
    "\u2581sethandlecount": 1151,
    "004": 1152,
    "25": 1153,
    "\u2581initterm": 1154,
    "ro": 1155,
    "\u25810x78c": 1156,
    "codep": 1157,
    "\u25810x409": 1158,
    "\u25810x78c00000": 1159,
    "resource": 1160,
    "\u25810x1211758": 1161,
    "\u2581imagelist": 1162,
    "\u2581sl": 1163,
    "008": 1164,
    "lic": 1165,
    "\u25810x4015": 1166,
    "ang": 1167,
    "\u25810x1210ec": 1168,
    "\u25810x5265c14": 1169,
    "ursor": 1170,
    "27": 1171,
    "\u25810x8f": 1172,
    "point": 1173,
    "\u25810x42b40": 1174,
    "codepage": 1175,
    "\u2581isvalidcodepage": 1176,
    "bit": 1177,
    "\u25810x57": 1178,
    "\u25810x15": 1179,
    "cf": 1180,
    "eric": 1181,
    "\u25810x40a3": 1182,
    "\u2581lstrcmp": 1183,
    "lsfree": 1184,
    "\u25810x28": 1185,
    "\u25810x7e71": 1186,
    "c5": 1187,
    "\u2581gettemp": 1188,
    "fromstr": 1189,
    "\u2581virtualfree": 1190,
    "ger": 1191,
    "realloc": 1192,
    "\u25810x16": 1193,
    "41": 1194,
    "ute": 1195,
    "\u25810x43640": 1196,
    "loating": 1197,
    "\u2581shel": 1198,
    "ho": 1199,
    "\u2581getw": 1200,
    "\u2581exitprocess": 1201,
    "9000": 1202,
    "ion": 1203,
    "\u25810x38": 1204,
    "2d": 1205,
    "\u2581setthread": 1206,
    "f10000": 1207,
    "\u2581drive": 1208,
    "\u2581loadlibraryw": 1209,
    "boar": 1210,
    "ngu": 1211,
    "\u25810x434": 1212,
    "\u25810x77f10000": 1213,
    "508": 1214,
    "lor": 1215,
    "nguage": 1216,
    "ct": 1217,
    "2000": 1218,
    "ile": 1219,
    "\u25810x2000": 1220,
    "ditionvariable": 1221,
    "ilanguage": 1222,
    "2b": 1223,
    "2f": 1224,
    "\u2581regopenkeyexw": 1225,
    "der": 1226,
    "6f": 1227,
    "\u25810x410": 1228,
    "\u25810x1211e04": 1229,
    "\u25810xfeee0008": 1230,
    "\u2581getversionexa": 1231,
    "e3": 1232,
    "\u25810x40152c": 1233,
    "\u25810x771": 1234,
    "ors": 1235,
    "\u2581globalalloc": 1236,
    "de9": 1237,
    "\u2581getconsole": 1238,
    "am": 1239,
    "rw": 1240,
    "9b": 1241,
    "\u25810x11": 1242,
    "d000": 1243,
    "eep": 1244,
    "43": 1245,
    "\u2581output": 1246,
    "\u2581outputdebug": 1247,
    "\u25810x7e8": 1248,
    "icon": 1249,
    "cursor": 1250,
    "date": 1251,
    "\u25810x4615": 1252,
    "rag": 1253,
    "f74": 1254,
    "sa": 1255,
    "\u2581regopenkeyexa": 1256,
    "\u25810x7aa0": 1257,
    "\u2581wait": 1258,
    "\u25810x2c": 1259,
    "\u25810x1f": 1260,
    "end": 1261,
    "94c": 1262,
    "\u25810x1e": 1263,
    "\u2581getfileattribute": 1264,
    "\u25810x79d0": 1265,
    "ts": 1266,
    "\u2581relea": 1267,
    "\u2581gen": 1268,
    "\u25810xfeee0009": 1269,
    "\u25810x1a": 1270,
    "time": 1271,
    "\u2581flsfree": 1272,
    "\u25810x1210f8": 1273,
    "6e": 1274,
    "ov": 1275,
    "yn": 1276,
    "\u25810xfeee000b": 1277,
    "map": 1278,
    "ccc": 1279,
    "\u2581sleep": 1280,
    "\u25810x12118": 1281,
    "938": 1282,
    "\u25810xfeee000a": 1283,
    "drl6660drl6660drl6660drl6660drl6660drl6660drl6660drl6660": 1284,
    "6b": 1285,
    "\u25810x484": 1286,
    "\u25810x567a40": 1287,
    "color": 1288,
    "4b": 1289,
    "low": 1290,
    "\u25810x42900": 1291,
    "\u25810xfeee000c": 1292,
    "\u2581drag": 1293,
    "\u25810x4c4": 1294,
    "\u2581nt": 1295,
    "\u2581deletecriticalsection": 1296,
    "ity": 1297,
    "\u25810x1211b": 1298,
    "\u2581generic": 1299,
    "\u25810xfeee0040": 1300,
    "\u2581outputdebugstringa": 1301,
    "d08": 1302,
    "\u25810x1211908": 1303,
    "ma": 1304,
    "\u2581vari": 1305,
    "ord": 1306,
    "de0": 1307,
    "808": 1308,
    "708": 1309,
    "prot": 1310,
    "f08": 1311,
    "\u25810xfde9": 1312,
    "pro": 1313,
    "wait": 1314,
    "47": 1315,
    "yarg": 1316,
    "\u2581floating": 1317,
    "cec": 1318,
    "\u25810x12114b8": 1319,
    "\u25810xfeee0010": 1320,
    "\u2581exe": 1321,
    "\u25810xfeee000e": 1322,
    "\u2581virtualprot": 1323,
    "\u25810xfeee000d": 1324,
    "\u25810xfeee0014": 1325,
    "\u25810xfeee0015": 1326,
    "\u2581getfile": 1327,
    "\u25810x1211528": 1328,
    "ca": 1329,
    "\u25810x1211718": 1330,
    "mp": 1331,
    "not": 1332,
    "\u25810x5266": 1333,
    "c3": 1334,
    "\u25810xfeee0013": 1335,
    "\u25810x44d4": 1336,
    "\u25810xfeee0016": 1337,
    "\u25810xfeee0012": 1338,
    "5000": 1339,
    "\u25810x67": 1340,
    "\u25810xfeee000f": 1341,
    "\u25810xfeee0011": 1342,
    "\u2581delete": 1343,
    "\u2581heaprealloc": 1344,
    "8a": 1345,
    "\u2581createfilea": 1346,
    "\u2581shell32": 1347,
    "\u2581virtualprotect": 1348,
    "cb": 1349,
    "\u25810xcc": 1350,
    "\u25810x1210d": 1351,
    "meta": 1352,
    "\u25810x1210e8": 1353,
    "\u25810x21": 1354,
    "\u25810x1210e4": 1355,
    "\u25810x1210e0": 1356,
    "\u2581waitf": 1357,
    "\u2581loadcursor": 1358,
    "184": 1359,
    "\u25810x1210f4": 1360,
    "\u25810x70cc": 1361,
    "bits": 1362,
    "ange": 1363,
    "debugger": 1364,
    "c08": 1365,
    "debuggerpresent": 1366,
    "\u25810x58": 1367,
    "\u25810x10000": 1368,
    "ock": 1369,
    "rwlock": 1370,
    "\u25810x4790": 1371,
    "\u2581creates": 1372,
    "\u25810x40a3d": 1373,
    "vie": 1374,
    "ata": 1375,
    "5500000": 1376,
    "4e": 1377,
    "\u25810x7ec0": 1378,
    "\u25810x1211f7c": 1379,
    "\u25810x1211fd8": 1380,
    "\u25810x8a": 1381,
    "text": 1382,
    "a50": 1383,
    "metafile": 1384,
    "\u25810x4f": 1385,
    "\u25810x84": 1386,
    "89": 1387,
    "\u2581isdebuggerpresent": 1388,
    "\u2581writefile": 1389,
    "load": 1390,
    "aps": 1391,
    "board": 1392,
    "\u25810x7ee0": 1393,
    "\u25810x8e": 1394,
    "\u25810x47c0": 1395,
    "\u25810x8b": 1396,
    "\u2581lstrlenw": 1397,
    "ynch": 1398,
    "\u2581synch": 1399,
    "allock": 1400,
    "\u2581con": 1401,
    "\u25810x2439": 1402,
    "\u2581creat": 1403,
    "\u25810x1211fd0": 1404,
    "older": 1405,
    "\u25810x7f00": 1406,
    "c04": 1407,
    "\u25810xa0": 1408,
    "folder": 1409,
    "processlist": 1410,
    "\u2581getconsoleprocesslist": 1411,
    "c8c": 1412,
    "initializ": 1413,
    "\u2581file": 1414,
    "\u2581globallock": 1415,
    "flow": 1416,
    "ctl32": 1417,
    "\u25810x40b": 1418,
    "\u2581comctl32": 1419,
    "\u25810x7ee00": 1420,
    "cd": 1421,
    "\u25810x1210ee": 1422,
    "\u25810x1210f0": 1423,
    "\u25810x519": 1424,
    "inal": 1425,
    "\u2581lstrcmpa": 1426,
    "4f": 1427,
    "bers": 1428,
    "ordinal": 1429,
    "d04": 1430,
    "\u25810x1b": 1431,
    "\u25810x496": 1432,
    "\u2581registerc": 1433,
    "pal": 1434,
    "palet": 1435,
    "\u2581ordinal": 1436,
    "ta": 1437,
    "\u25810x5a": 1438,
    "change": 1439,
    "vicec": 1440,
    "isting": 1441,
    "\u25810x40933c": 1442,
    "off": 1443,
    "\u25810x46b0": 1444,
    "21": 1445,
    "econ": 1446,
    "\u2581clo": 1447,
    "\u2581existing": 1448,
    "all": 1449,
    "\u25810x1210ed": 1450,
    "\u25810x69000000": 1451,
    "\u25810x32": 1452,
    "ero": 1453,
    "\u25810x98": 1454,
    "\u25810x409344": 1455,
    "300": 1456,
    "6d": 1457,
    "\u25810xfeee001a": 1458,
    "\u2581fin": 1459,
    "\u25810xfeee0017": 1460,
    "\u2581findre": 1461,
    "\u25810x4d70": 1462,
    "a04": 1463,
    "\u25810x420": 1464,
    "\u25810x83": 1465,
    "\u25810xfeee0018": 1466,
    "lp": 1467,
    "\u25810xfeee0019": 1468,
    "aaaa": 1469,
    "\u25810x88a0": 1470,
    "\u25810x1212000": 1471,
    "\u25810x1804": 1472,
    "pare": 1473,
    "ision": 1474,
    "stre": 1475,
    "sc": 1476,
    "message": 1477,
    "errormode": 1478,
    "\u2581seterrormode": 1479,
    "c9": 1480,
    "fe8": 1481,
    "a00": 1482,
    "div": 1483,
    "\u25810x8d": 1484,
    "\u2581getuser": 1485,
    "4d": 1486,
    "metafilebits": 1487,
    "\u2581fibers": 1488,
    "\u25810x1211958": 1489,
    "\u2581getfileattributesw": 1490,
    "offile": 1491,
    "\u2581localfree": 1492,
    "\u25810x29": 1493,
    "\u25810x79f0": 1494,
    "ric": 1495,
    "\u2581shget": 1496,
    "\u25810x101": 1497,
    "87": 1498,
    "stream": 1499,
    "ace": 1500,
    "trol": 1501,
    "cea": 1502,
    "\u25810x4967": 1503,
    "\u2581se": 1504,
    "a256": 1505,
    "\u25810x437808": 1506,
    "\u25810xfeee001c": 1507,
    "\u2581sha256": 1508,
    "\u25810x437806": 1509,
    "\u25810x43780a": 1510,
    "\u25810x43780c": 1511,
    "\u25810x43780e": 1512,
    "\u25810x437810": 1513,
    "\u25810x437812": 1514,
    "\u25810x437814": 1515,
    "\u25810x437816": 1516,
    "\u25810x437818": 1517,
    "\u25810x43781a": 1518,
    "\u25810x43781c": 1519,
    "\u25810x43781e": 1520,
    "\u25810x700c": 1521,
    "\u25810x34": 1522,
    "\u2581closet": 1523,
    "\u2581closethreadpool": 1524,
    "\u2581createthreadpool": 1525,
    "\u25810x99": 1526,
    "668": 1527,
    "\u2581setc": 1528,
    "\u2581compare": 1529,
    "oper": 1530,
    "\u25810x49c8": 1531,
    "\u25810x4000": 1532,
    "\u25810x1211ccc": 1533,
    "clus": 1534,
    "b08": 1535,
    "\u25810xfeee010": 1536,
    "\u25810x3c": 1537,
    "100": 1538,
    "ive": 1539,
    "320": 1540,
    "\u2581variant": 1541,
    "\u25810x4290": 1542,
    "ecute": 1543,
    "clusive": 1544,
    "\u25810x1210ea": 1545,
    "rwlockex": 1546,
    "rwlockexclusive": 1547,
    "inmetafilebits": 1548,
    "leob": 1549,
    "\u25810xfeee001d": 1550,
    "mem": 1551,
    "\u25810x1211e08": 1552,
    "\u25810xfeee001b": 1553,
    "1a0": 1554,
    "ember": 1555,
    "ryp": 1556,
    "49": 1557,
    "f80": 1558,
    "ok": 1559,
    "\u25810x214": 1560,
    "\u2581createfilew": 1561,
    "\u25810x60c6": 1562,
    "\u25810x704c": 1563,
    "\u25810x25": 1564,
    "\u25810x44d4b8": 1565,
    "\u2581getd": 1566,
    "\u25810x708c": 1567,
    "\u25810x12119c0": 1568,
    "soft": 1569,
    "\u2581loadcursora": 1570,
    "\u2581getwinmetafilebits": 1571,
    "\u25810x1211748": 1572,
    "f48": 1573,
    "\u25810x44f8": 1574,
    "ay": 1575,
    "messagea": 1576,
    "ub": 1577,
    "rypt": 1578,
    "\u2581releas": 1579,
    "\u2581createa": 1580,
    "lphi": 1581,
    "\u2581delphi": 1582,
    "\u25810x80c0": 1583,
    "gi": 1584,
    "ockob": 1585,
    "\u2581getstockob": 1586,
    "\u25810x41c0": 1587,
    "call": 1588,
    "\u25810x7850": 1589,
    "icro": 1590,
    "988": 1591,
    "icrosoft": 1592,
    "\u2581getversionexw": 1593,
    "out": 1594,
    "variant": 1595,
    "\u2581dragob": 1596,
    "\u25810x1211f97": 1597,
    "\u25810x4418": 1598,
    "\u2581getde": 1599,
    "\u25810x68": 1600,
    "\u2581loadlibraryexa": 1601,
    "\u2581map": 1602,
    "\u25810x7eab": 1603,
    "fromstream": 1604,
    "74c": 1605,
    "\u25810x1d": 1606,
    "\u25810x4710": 1607,
    "und": 1608,
    "operation": 1609,
    "\u25810x48400": 1610,
    "\u25810x23": 1611,
    "\u2581getkey": 1612,
    "\u25810x4600": 1613,
    "\u25810x593": 1614,
    "\u25810x1211a": 1615,
    "ory": 1616,
    "\u2581getdc": 1617,
    "\u2581getsystemdirectorya": 1618,
    "\u25810x41c044": 1619,
    "\u25810x2d": 1620,
    "\u2581oleload": 1621,
    "\u25810xfeee012": 1622,
    "\u2581oleloadfromstream": 1623,
    "\u2581crypt": 1624,
    "\u25810x5d": 1625,
    "108": 1626,
    "\u25810x4554": 1627,
    "buff": 1628,
    "system": 1629,
    "\u25810x97": 1630,
    "\u2581wsprintfa": 1631,
    "\u25814": 1632,
    "f4c": 1633,
    "e44": 1634,
    "\u25810x43a4": 1635,
    "1b4": 1636,
    "lush": 1637,
    "e48": 1638,
    "ena": 1639,
    "\u2581microsoft": 1640,
    "erflow": 1641,
    "vice": 1642,
    "\u2581initializes": 1643,
    "\u25810x4614": 1644,
    "\u25810x7d10": 1645,
    "\u25810x47a0": 1646,
    "\u25810xfeee001e": 1647,
    "isk": 1648,
    "\u2581rand": 1649,
    "\u25810x1211f28": 1650,
    "8e": 1651,
    "\u2581getsysteminfo": 1652,
    "ork": 1653,
    "\u25810x169bf74": 1654,
    "informationby": 1655,
    "cy": 1656,
    "\u25810xfeee001f": 1657,
    "3000": 1658,
    "yscolor": 1659,
    "\u2581getsyscolor": 1660,
    "ec0": 1661,
    "eexa": 1662,
    "\u25810x1211308": 1663,
    "\u25810x1211578": 1664,
    "\u2581un": 1665,
    "\u25810x55": 1666,
    "c1": 1667,
    "\u25810x2e": 1668,
    "\u25810x7090": 1669,
    "vicecaps": 1670,
    "\u2581getdevicecaps": 1671,
    "\u25810x8001": 1672,
    "messagew": 1673,
    "\u25810xfeee0020": 1674,
    "\u25810x1211f20": 1675,
    "emap": 1676,
    "essage": 1677,
    "\u25810xa000": 1678,
    "oy": 1679,
    "a84": 1680,
    "\u2581olea": 1681,
    "orsing": 1682,
    "orsingleob": 1683,
    "\u2581msvcr": 1684,
    "\u2581th": 1685,
    "\u25810x422": 1686,
    "\u25810x1210df": 1687,
    "initialize": 1688,
    "sk": 1689,
    "memory": 1690,
    "\u2581control": 1691,
    "qa": 1692,
    "\u2581aaa": 1693,
    "\u2581crt": 1694,
    "\u2581pr": 1695,
    "\u25810x1211e30": 1696,
    "stroy": 1697,
    "bc8": 1698,
    "back": 1699,
    "\u2581waitforsingleob": 1700,
    "\u25810xfeee014": 1701,
    "f88": 1702,
    "environment": 1703,
    "box": 1704,
    "callback": 1705,
    "b44": 1706,
    "\u25810x2439f74": 1707,
    "pooltimer": 1708,
    "\u2581i": 1709,
    "\u25810x1211dd0": 1710,
    "conditionvariable": 1711,
    "bstr": 1712,
    "keyw": 1713,
    "bstrfrom": 1714,
    "\u2581varbstrfrom": 1715,
    "\u25810x94": 1716,
    "metric": 1717,
    "\u25810x40a93": 1718,
    "\u2581lstrcpyna": 1719,
    "cc8": 1720,
    "eent": 1721,
    "lip": 1722,
    "\u25810xffff": 1723,
    "\u2581gettempa": 1724,
    "\u2581loadicon": 1725,
    "b14": 1726,
    "sourcea": 1727,
    "\u25810x1211948": 1728,
    "f30": 1729,
    "qui": 1730,
    "\u25810x169bf64": 1731,
    "408": 1732,
    "\u2581registerclass": 1733,
    "a44": 1734,
    "comp": 1735,
    "lw": 1736,
    "\u2581st": 1737,
    "\u25810xd0": 1738,
    "\u25810x1211dc8": 1739,
    "\u25810x63": 1740,
    "\u25810x3f75": 1741,
    "\u2581enum": 1742,
    "\u2581releasedc": 1743,
    "\u25810x2b": 1744,
    "\u25810x7340": 1745,
    "\u25810x67000000": 1746,
    "\u25810xc00": 1747,
    "\u2581wak": 1748,
    "\u25810x1211780": 1749,
    "\u25810x169bf94": 1750,
    "\u25810x7540": 1751,
    "932": 1752,
    "profile": 1753,
    "\u2581code": 1754,
    "\u25810x7930": 1755,
    "\u2581currentversion": 1756,
    "namea": 1757,
    "\u25810x60c690": 1758,
    "98c": 1759,
    "atex": 1760,
    "gear": 1761,
    "\u2581codegear": 1762,
    "pt": 1763,
    "\u25810x65500000": 1764,
    "view": 1765,
    "\u2581getkeyboard": 1766,
    "\u25810x1211f2c": 1767,
    "ref": 1768,
    "a044": 1769,
    "ray": 1770,
    "\u25810x64": 1771,
    "8d": 1772,
    "\u25810x4ab0": 1773,
    "\u25810x37": 1774,
    "\u25810x7700": 1775,
    "\u25810x1211cc0": 1776,
    "variablea": 1777,
    "\u25810x4088": 1778,
    "69c": 1779,
    "of": 1780,
    "0000000": 1781,
    "\u2581tr": 1782,
    "erre": 1783,
    "\u25810x4096": 1784,
    "\u25810x4c42": 1785,
    "\u2581process": 1786,
    "330": 1787,
    "188": 1788,
    "\u2581comparestring": 1789,
    "b000": 1790,
    "lwapi": 1791,
    "\u2581shlwapi": 1792,
    "fo": 1793,
    "\u2581u": 1794,
    "3c4": 1795,
    "\u25810x4086": 1796,
    "edex": 1797,
    "metrics": 1798,
    "\u2581getsystemmetrics": 1799,
    "\u25810x4730": 1800,
    "ink": 1801,
    "\u2581interlockedex": 1802,
    "\u25810x2f": 1803,
    "\u2581interlockedexchange": 1804,
    "9c0": 1805,
    "host": 1806,
    "help": 1807,
    "\u2581createsemap": 1808,
    "\u2581mon": 1809,
    "\u25810x40a5a0": 1810,
    "ename": 1811,
    "\u25810x3e": 1812,
    "\u25810x8f70": 1813,
    "\u2581rt": 1814,
    "\u25810x1211fcc": 1815,
    "248": 1816,
    "acqui": 1817,
    "\u25810x198": 1818,
    "\u2581type": 1819,
    "\u2581flush": 1820,
    "\u25810x8cc0": 1821,
    "\u2581rtl": 1822,
    "b00": 1823,
    "104": 1824,
    "econditionvariable": 1825,
    "\u2581z": 1826,
    "d4c": 1827,
    "\u25810x19a": 1828,
    "\u2581getcurrentdirectorya": 1829,
    "erredu": 1830,
    "hreadp": 1831,
    "hreadpref": 1832,
    "erreduilanguage": 1833,
    "hreadpreferreduilanguage": 1834,
    "\u25810x65": 1835,
    "f04": 1836,
    "\u25810x4960": 1837,
    "b60": 1838,
    "head": 1839,
    "\u2581getclass": 1840,
    "d58": 1841,
    "hreadpreferreduilanguages": 1842,
    "40c": 1843,
    "main": 1844,
    "\u25810x4e30": 1845,
    "\u25810xfeee0021": 1846,
    "\u25810xfeee015": 1847,
    "\u2581setenvironment": 1848,
    "768": 1849,
    "4a": 1850,
    "\u25810xfeee0022": 1851,
    "iv": 1852,
    "stry": 1853,
    "valu": 1854,
    "\u25810x44f9": 1855,
    "ries": 1856,
    "\u25810x8260": 1857,
    "\u2581message": 1858,
    "eto": 1859,
    "\u25810xfee": 1860,
    "\u25810x404": 1861,
    "\u25810x8811": 1862,
    "\u25810x1211fd4": 1863,
    "\u25810x6f": 1864,
    "\u25810x40a59e": 1865,
    "\u25810x40a5a2": 1866,
    "\u25810x40a5a4": 1867,
    "\u25810x40a5a6": 1868,
    "\u25810x40a5a8": 1869,
    "\u25810x40a5aa": 1870,
    "\u25810xb8": 1871,
    "\u2581gettime": 1872,
    "ug": 1873,
    "\u2581mar": 1874,
    "34c": 1875,
    "b88": 1876,
    "\u25810x437820": 1877,
    "vate": 1878,
    "\u2581remo": 1879,
    "\u25810xfeee0024": 1880,
    "\u2581fmode": 1881,
    "work": 1882,
    "\u25810x437804": 1883,
    "\u25810x1211efc": 1884,
    "\u25810xfeee0027": 1885,
    "648": 1886,
    "\u25810x1211728": 1887,
    "sup": 1888,
    "208": 1889,
    "730": 1890,
    "\u25810x41a044": 1891,
    "cef": 1892,
    "\u25810x408": 1893,
    "yarg1": 1894,
    "\u2581nov": 1895,
    "700": 1896,
    "\u25810x1211f64": 1897,
    "\u2581messagebox": 1898,
    "\u25810x1211f74": 1899,
    "\u25810xfeee0023": 1900,
    "\u25810x1211bc0": 1901,
    "\u25810xfeee0026": 1902,
    "118": 1903,
    "788": 1904,
    "80c": 1905,
    "\u25810x4428": 1906,
    "5cc": 1907,
    "acquires": 1908,
    "acquiresrwlockexclusive": 1909,
    "504": 1910,
    "arc": 1911,
    "\u2581sets": 1912,
    "\u2581deletefilea": 1913,
    "\u2581sat": 1914,
    "\u25810xfeee0025": 1915,
    "608": 1916,
    "\u25810x36": 1917,
    "\u25810x41f7": 1918,
    "\u25810x35": 1919,
    "\u25810x1211ee0": 1920,
    "\u258117": 1921,
    "data": 1922,
    "\u25810xa2": 1923,
    "ed8": 1924,
    "\u25810x85": 1925,
    "160": 1926,
    "130": 1927,
    "240": 1928,
    "\u2581ntdll": 1929,
    "teent": 1930,
    "teentries": 1931,
    "\u25810x4093e8": 1932,
    "paletteentries": 1933,
    "termin": 1934,
    "\u2581oc": 1935,
    "\u25810x4bd0": 1936,
    "\u25810x40935d": 1937,
    "\u25810x40935e": 1938,
    "\u25810x40935f": 1939,
    "\u25810x409360": 1940,
    "\u25810x409361": 1941,
    "\u25810x409362": 1942,
    "\u25810x409363": 1943,
    "\u25810x4093e5": 1944,
    "\u25810x4093e6": 1945,
    "\u25810x4093e7": 1946,
    "1cc": 1947,
    "private": 1948,
    "\u25810x7de4": 1949,
    "\u25810x3a": 1950,
    "\u25810x7de5": 1951,
    "\u2581aug": 1952,
    "e4c": 1953,
    "\u2581lock": 1954,
    "\u25810x4340": 1955,
    "\u25810x1211f88": 1956,
    "privateprofile": 1957,
    "\u25810x40f6": 1958,
    "\u25810x4df0": 1959,
    "\u2581version": 1960,
    "\u2581getwindow": 1961,
    "\u25810x3b": 1962,
    "\u2581getsystemtime": 1963,
    "\u2581shfolder": 1964,
    "\u2581ch": 1965,
    "\u2581mo": 1966,
    "\u2581sun": 1967,
    "\u2581setcurrent": 1968,
    "588": 1969,
    "f8a": 1970,
    "yarg2": 1971,
    "\u25810x12119ac": 1972,
    "606": 1973,
    "\u25810x7d00": 1974,
    "388": 1975,
    "vol": 1976,
    "\u2581getmain": 1977,
    "lec": 1978,
    "\u2581termin": 1979,
    "localename": 1980,
    "\u2581dra": 1981,
    "\u2581run": 1982,
    "ffc": 1983,
    "\u25810x4614d0": 1984,
    "\u2581getenvironment": 1985,
    "ull": 1986,
    "imeto": 1987,
    "\u25810x66": 1988,
    "\u25810x405": 1989,
    "\u25810x120fa": 1990,
    "\u2581getwindows": 1991,
    "\u25810x8a40": 1992,
    "\u2581registry": 1993,
    "spec": 1994,
    "\u2581dec": 1995,
    "\u25810x44c2": 1996,
    "\u25810x7ec1": 1997,
    "f000": 1998,
    "buffers": 1999,
    "\u25810xfeee0046": 2000,
    "aff": 2001,
    "uary": 2002,
    "1b0": 2003,
    "hem": 2004,
    "\u2581may": 2005,
    "\u2581tue": 2006,
    "\u25810x1211f78": 2007,
    "sday": 2008,
    "\u2581lstrcpynw": 2009,
    "\u25810xfeee0045": 2010,
    "\u2581wed": 2011,
    "ervice": 2012,
    "base": 2013,
    "listhead": 2014,
    "\u2581initializeslisthead": 2015,
    "\u25810x31": 2016,
    "\u2581findresourcea": 2017,
    "204": 2018,
    "120": 2019,
    "\u25810x86": 2020,
    "ping": 2021,
    "\u2581loadicona": 2022,
    "\u2581pi": 2023,
    "afear": 2024,
    "\u25810x39": 2025,
    "\u25810x4620": 2026,
    "\u25810x4093e9": 2027,
    "\u25810x4093ea": 2028,
    "\u25810x4093eb": 2029,
    "3a4": 2030,
    "hor": 2031,
    "utex": 2032,
    "904": 2033,
    "ee8": 2034,
    "env": 2035,
    "\u2581wts": 2036,
    "filemap": 2037,
    "\u25810x1075": 2038,
    "filemapping": 2039,
    "fp": 2040,
    "a88": 2041,
    "\u2581v": 2042,
    "e88": 2043,
    "\u2581getkeyboardtype": 2044,
    "\u25810x3d": 2045,
    "polic": 2046,
    "\u25810x2e7": 2047,
    "2c4": 2048,
    "984": 2049,
    "\u25810xfeee0044": 2050,
    "\u2581process32": 2051,
    "ec4": 2052,
    "suped": 2053,
    "pos": 2054,
    "\u2581error": 2055,
    "\u25810x53000000": 2056,
    "ac4": 2057,
    "ce8": 2058,
    "\u25810x7ab0": 2059,
    "\u25810x43f0": 2060,
    "\u25810x4540": 2061,
    "\u2581setprocess": 2062,
    "b46": 2063,
    "370": 2064,
    "\u25810x1211f84": 2065,
    "\u2581dw": 2066,
    "\u25810xe0": 2067,
    "\u25810x7cd0": 2068,
    "\u25810x43400": 2069,
    "a48": 2070,
    "\u25810xaa": 2071,
    "condition": 2072,
    "\u2581loadresource": 2073,
    "15c": 2074,
    "variablew": 2075,
    "volu": 2076,
    "74d": 2077,
    "\u25810x95": 2078,
    "148": 2079,
    "afearray": 2080,
    "full": 2081,
    "privi": 2082,
    "\u25818": 2083,
    "\u2581draw": 2084,
    "bd4": 2085,
    "myarg2": 2086,
    "\u25810x42a1": 2087,
    "heme": 2088,
    "\u2581strcmp": 2089,
    "500000": 2090,
    "\u25810x5c": 2091,
    "earchmode": 2092,
    "\u2581oleinitialize": 2093,
    "\u2581setsearchmode": 2094,
    "280": 2095,
    "dc0": 2096,
    "\u2581uxt": 2097,
    "\u2581uxtheme": 2098,
    "policy": 2099,
    "fac": 2100,
    "\u25810x7bd0": 2101,
    "\u25810x121194c": 2102,
    "\u2581getsystempaletteentries": 2103,
    "leg": 2104,
    "\u2581gettempw": 2105,
    "\u25810x3f75f30": 2106,
    "zero": 2107,
    "\u2581em": 2108,
    "\u25810x44180": 2109,
    "\u25810x1211e28": 2110,
    "yarg1myarg2": 2111,
    "140": 2112,
    "\u25810x566": 2113,
    "endoffile": 2114,
    "124": 2115,
    "\u25810x45f2": 2116,
    "\u2581floatingpoint": 2117,
    "f85": 2118,
    "byzero": 2119,
    "overflow": 2120,
    "isionbyzero": 2121,
    "\u2581mapvirtual": 2122,
    "\u2581cop": 2123,
    "\u25810x440": 2124,
    "eck": 2125,
    "eall": 2126,
    "\u2581invalidvariant": 2127,
    "deppolicy": 2128,
    "\u25810xfeee0028": 2129,
    "secur": 2130,
    "\u25810x435000": 2131,
    "\u2581gdip": 2132,
    "volume": 2133,
    "\u2581wakeall": 2134,
    "\u25810x44f8e0": 2135,
    "\u2581wakeallconditionvariable": 2136,
    "940": 2137,
    "ee4": 2138,
    "mask": 2139,
    "\u2581setprocessdeppolicy": 2140,
    "600": 2141,
    "privileg": 2142,
    "\u2581destroy": 2143,
    "1f4": 2144,
    "fc2": 2145,
    "\u25810x7270": 2146,
    "b48": 2147,
    "\u25810x7ed": 2148,
    "\u25810x45f4": 2149,
    "d28": 2150,
    "\u2581up": 2151,
    "38c": 2152,
    "a58": 2153,
    "vchost": 2154,
    "\u25810x42c0": 2155,
    "\u25810x45f1": 2156,
    "\u2581svchost": 2157,
    "\u2581userenv": 2158,
    "\u25810x80000000": 2159,
    "a08": 2160,
    "584": 2161,
    "\u25810x7c000000": 2162,
    "\u2581createfilemapping": 2163,
    "ac0": 2164,
    "link": 2165,
    "1c0": 2166,
    "93c": 2167,
    "formatex": 2168,
    "378": 2169,
    "ea8": 2170,
    "\u2581loc": 2171,
    "338": 2172,
    "\u25810x45f5": 2173,
    "\u2581mapvirtualkeyw": 2174,
    "be8": 2175,
    "\u25810x4606": 2176,
    "\u2581localiz": 2177,
    "\u2581localization": 2178,
    "freesp": 2179,
    "\u2581getdisk": 2180,
    "\u2581getdiskfreesp": 2181,
    "10c": 2182,
    "985": 2183,
    "d88": 2184,
    "c84": 2185,
    "\u25810x46a0": 2186,
    "720": 2187,
    "e05": 2188,
    "security": 2189,
    "\u25810x45f3": 2190,
    "\u25810x4700": 2191,
    "\u2581of": 2192,
    "a70": 2193,
    "\u25810x45f6": 2194,
    "\u25810x45f8": 2195,
    "\u25810x7a80": 2196,
    "\u2581findnext": 2197,
    "\u25810xfeee017": 2198,
    "\u2581copy": 2199,
    "\u25810x45f7": 2200,
    "\u25810x45f9": 2201,
    "\u25810x169bc": 2202,
    "\u25810xfeee018": 2203,
    "\u25810x6970": 2204,
    "\u25810x7150": 2205,
    "\u25810x1211c98": 2206,
    "\u25810x45fa": 2207,
    "\u2581varr": 2208,
    "4fromstr": 2209,
    "\u2581ofresource": 2210,
    "ust": 2211,
    "bool": 2212,
    "66c": 2213,
    "\u25810x45fe": 2214,
    "\u25810x4601": 2215,
    "\u25810x429": 2216,
    "\u25810xa8": 2217,
    "mapi": 2218,
    "d48": 2219,
    "288": 2220,
    "50c": 2221,
    "\u25810x45ff": 2222,
    "\u25810x7300": 2223,
    "namew": 2224,
    "\u25810x45fd": 2225,
    "\u25810x73f0": 2226,
    "9c4": 2227,
    "item": 2228,
    "\u25810x40a3e": 2229,
    "ec8": 2230,
    "\u25810x6d": 2231,
    "\u25810x46e0": 2232,
    "\u2581dwmapi": 2233,
    "\u25810xfeee0043": 2234,
    "\u25810x72a0": 2235,
    "\u2581lstrcpya": 2236,
    "502": 2237,
    "548": 2238,
    "\u25810x40a582": 2239,
    "\u25810x40a584": 2240,
    "\u25810x40a586": 2241,
    "\u25810x40a588": 2242,
    "\u25810x40a58a": 2243,
    "\u2581cryptbase": 2244,
    "\u2581setfileattribute": 2245,
    "\u25810x40a580": 2246,
    "\u25810x78a0": 2247,
    "\u25810x40a57e": 2248,
    "\u25810x121157c": 2249,
    "b0c": 2250,
    "d84": 2251,
    "barc": 2252,
    "adero": 2253,
    "\u2581embarc": 2254,
    "\u2581embarcadero": 2255,
    "344": 2256,
    "a4c": 2257,
    "\u25810x406": 2258,
    "\u25810x12117a4": 2259,
    "1ac": 2260,
    "\u25810x1211f18": 2261,
    "802": 2262,
    "\u2581regquery": 2263,
    "\u25810x1211c04": 2264,
    "387": 2265,
    "\u25810xa3": 2266,
    "\u25810xa4": 2267,
    "\u25810x364": 2268,
    "\u25810x430": 2269,
    "brus": 2270,
    "\u25810x61": 2271,
    "gical": 2272,
    "state": 2273,
    "\u25810x7900": 2274,
    "tro": 2275,
    "logical": 2276,
    "\u2581no": 2277,
    "ff8": 2278,
    "\u25810xa7": 2279,
    "\u25810x4af4": 2280,
    "\u25810x4e50": 2281,
    "\u2581getlogical": 2282,
    "delet": 2283,
    "volumeinformation": 2284,
    "pre": 2285,
    "\u25810x92": 2286,
    "\u2581getvolumeinformation": 2287,
    "\u2581registerwindow": 2288,
    "\u25810xfeee0029": 2289,
    "\u2581setcurrentdirectorya": 2290,
    "\u2581q": 2291,
    "e04": 2292,
    "\u2581createwindow": 2293,
    "384": 2294,
    "\u25810xfeee002a": 2295,
    "688": 2296,
    "\u25810x7910": 2297,
    "orsafearray": 2298,
    "\u25810xfeee002d": 2299,
    "\u25810x7690": 2300,
    "\u2581initializeconditionvariable": 2301,
    "f44": 2302,
    "\u25810x7eaba8": 2303,
    "\u25810x63000000": 2304,
    "\u2581corex": 2305,
    "\u25810x40a5ac": 2306,
    "\u25810x461518": 2307,
    "\u2581setwindow": 2308,
    "a000": 2309,
    "\u25810x437": 2310,
    "\u25810xfeee002f": 2311,
    "\u2581corexitprocess": 2312,
    "90f": 2313,
    "\u25810xfeee019": 2314,
    "pack": 2315,
    "3c0": 2316,
    "\u25810xfeee002c": 2317,
    "\u25810x407": 2318,
    "\u25810x77e0": 2319,
    "d8c": 2320,
    "278": 2321,
    "cor": 2322,
    "\u2581globalfree": 2323,
    "\u25810x534": 2324,
    "\u25810xfeee002b": 2325,
    "typ": 2326,
    "\u25810x62": 2327,
    "403": 2328,
    "\u25810x403": 2329,
    "net": 2330,
    "\u25810x100000": 2331,
    "\u25810xfeee002e": 2332,
    "fa2": 2333,
    "\u25810x9c": 2334,
    "ym": 2335,
    "744": 2336,
    "que": 2337,
    "\u2581setup": 2338,
    "\u25810x7be0": 2339,
    "ut32": 2340,
    "trols": 2341,
    "\u25810x508": 2342,
    "\u2581oleaut32": 2343,
    "\u25810x91": 2344,
    "\u25810x144": 2345,
    "\u25810x4800": 2346,
    "\u25816": 2347,
    "3b8": 2348,
    "\u25810x42a0": 2349,
    "\u25810x71b0": 2350,
    "\u25810x7ad0": 2351,
    "\u2581createfilemappinga": 2352,
    "ast": 2353,
    "2c8": 2354,
    "902": 2355,
    "\u25810x4df": 2356,
    "emutex": 2357,
    "709": 2358,
    "len": 2359,
    "\u2581exem": 2360,
    "\u25810x1211d30": 2361,
    "\u2581exemyarg1myarg2": 2362,
    "\u2581getthreadpreferreduilanguages": 2363,
    "\u2581mul": 2364,
    "speci": 2365,
    "\u2581muldiv": 2366,
    "\u25810x5f": 2367,
    "684": 2368,
    "ac8": 2369,
    "ans": 2370,
    "\u25810x77002": 2371,
    "\u2581createprocess": 2372,
    "\u2581getuserdefault": 2373,
    "328": 2374,
    "9a8": 2375,
    "\u25810x1211d04": 2376,
    "\u2581getlocaleinfo": 2377,
    "\u2581comparestringex": 2378,
    "e08": 2379,
    "e4b8": 2380,
    "\u25810x5617": 2381,
    "\u25810x1211dfc": 2382,
    "ea4": 2383,
    "f02": 2384,
    "\u25810x169b": 2385,
    "\u2581getlocaleinfoex": 2386,
    "9c7": 2387,
    "d70": 2388,
    "f0000": 2389,
    "\u2581getdiskfreespac": 2390,
    "b8c": 2391,
    "00210": 2392,
    "6cb": 2393,
    "7c5": 2394,
    "\u2581getfileinformationby": 2395,
    "\u2581getdate": 2396,
    "\u25810x1211f00": 2397,
    "\u25810x1211f24": 2398,
    "805": 2399,
    "\u25810x7060": 2400,
    "\u25810x1211a04": 2401,
    "palette": 2402,
    "\u2581getclassinfoa": 2403,
    "704": 2404,
    "\u2581filet": 2405,
    "\u2581controlfp": 2406,
    "\u2581filetimeto": 2407,
    "\u25810x27": 2408,
    "\u2581setenvironmentvariablea": 2409,
    "\u2581aa": 2410,
    "\u25810x30000": 2411,
    "\u25810x1211c90": 2412,
    "\u25810xfeee0030": 2413,
    "e000": 2414,
    "406": 2415,
    "\u25810x7d95": 2416,
    "327": 2417,
    "\u2581err": 2418,
    "\u25810xa6": 2419,
    "9c2": 2420,
    "\u25810x5b": 2421,
    "\u25810x7d50": 2422,
    "3d4": 2423,
    "2e8": 2424,
    "e80": 2425,
    "\u25810x423": 2426,
    "ac5": 2427,
    "e00": 2428,
    "enum": 2429,
    "\u2581createthread": 2430,
    "368": 2431,
    "f46": 2432,
    "\u25810x40c": 2433,
    "\u25810x3000": 2434,
    "\u25810xfeee016": 2435,
    "5c4": 2436,
    "604": 2437,
    "945": 2438,
    "viewoffile": 2439,
    "trl": 2440,
    "\u25810x4d50": 2441,
    "\u2581commode": 2442,
    "\u25810x43f6": 2443,
    "\u2581execute": 2444,
    "\u25810xfeee0031": 2445,
    "setinformation": 2446,
    "closekey": 2447,
    "\u2581regclosekey": 2448,
    "6c4": 2449,
    "1e4": 2450,
    "60c": 2451,
    "\u25810x1211508": 2452,
    "\u25810x1211fc8": 2453,
    "roll": 2454,
    "\u25810x40a7": 2455,
    "\u25810x59": 2456,
    "controls": 2457,
    "\u2581getprivateprofile": 2458,
    "144": 2459,
    "\u25810x1211e14": 2460,
    "\u25810x75d0": 2461,
    "ei": 2462,
    "7f0": 2463,
    "eb8": 2464,
    "lation": 2465,
    "\u25810xfeee0041": 2466,
    "324": 2467,
    "544": 2468,
    "\u2581shgetfile": 2469,
    "\u25810xfeee0042": 2470,
    "340": 2471,
    "\u25810x4630": 2472,
    "\u25810x7d94": 2473,
    "90c": 2474,
    "\u25810xff8": 2475,
    "6e0": 2476,
    "\u25810x502": 2477,
    "\u25810x78d0": 2478,
    "\u25810x1211fc4": 2479,
    "\u2581lockresource": 2480,
    "644": 2481,
    "\u2581be": 2482,
    "\u25810x4cf0": 2483,
    "aaaaaaaa": 2484,
    "\u25810xb0": 2485,
    "\u2581exit": 2486,
    "\u2581prec": 2487,
    "\u2581point": 2488,
    "\u2581errata": 2489,
    "\u2581precision": 2490,
    "\u25810xfeee0033": 2491,
    "950": 2492,
    "d85": 2493,
    "1d4": 2494,
    "\u25810xfeee0032": 2495,
    "\u25810x44c250": 2496,
    "\u2581getwindowsdirectorya": 2497,
    "7038": 2498,
    "brush": 2499,
    "a02": 2500,
    "\u25810x45fc": 2501,
    "\u25810x93": 2502,
    "gn": 2503,
    "coree": 2504,
    "\u25810x4cb0": 2505,
    "\u2581mscoree": 2506,
    "\u25810xfeee0035": 2507,
    "\u25810xfeee003f": 2508,
    "9cc": 2509,
    "cc4": 2510,
    "\u2581ns": 2511,
    "\u25810x40a3f": 2512,
    "\u25810xfeee0034": 2513,
    "409": 2514,
    "9e4": 2515,
    "\u2581tmp": 2516,
    "iserror": 2517,
    "\u2581ra": 2518,
    "linkw": 2519,
    "\u2581charpre": 2520,
    "974": 2521,
    "ormat": 2522,
    "\u25810xf8": 2523,
    "\u25810x7b40": 2524,
    "\u2581unhandledexceptionfilter": 2525,
    "\u2581setdll": 2526,
    "\u2581nsiserror": 2527,
    "common": 2528,
    "a45": 2529,
    "af4": 2530,
    "\u2581initcommon": 2531,
    "\u2581initcommoncontrols": 2532,
    "\u25810x181b": 2533,
    "ateprocess": 2534,
    "\u25810x1211f70": 2535,
    "iled": 2536,
    "sourcew": 2537,
    "\u2581heapsetinformation": 2538,
    "\u2581acquiresrwlockexclusive": 2539,
    "\u25810x75500000": 2540,
    "bcc": 2541,
    "e84": 2542,
    "ret": 2543,
    "\u2581po": 2544,
    "\u25810x414": 2545,
    "1e5": 2546,
    "ef4": 2547,
    "\u25810x1211f80": 2548,
    "\u25810xfeee003b": 2549,
    "\u25810xfeee0036": 2550,
    "\u25810xfeee0037": 2551,
    "\u25810x4607": 2552,
    "\u25810xfeee0049": 2553,
    "\u25810xfeee0038": 2554,
    "fa6": 2555,
    "\u25810x1211c08": 2556,
    "698": 2557,
    "ad4": 2558,
    "bc5": 2559,
    "e58": 2560,
    "scri": 2561,
    "\u25810x7ff": 2562,
    "\u25810xfeee003d": 2563,
    "78c": 2564,
    "package": 2565,
    "\u25810x1211928": 2566,
    "\u25810xfeee0047": 2567,
    "ns": 2568,
    "eb4": 2569,
    "\u2581show": 2570,
    "\u25810xfeee0039": 2571,
    "\u25810xa5": 2572,
    "\u25810x7870": 2573,
    "\u25810xfeee003e": 2574,
    "b98": 2575,
    "de8": 2576,
    "hore": 2577,
    "\u25810x7e00": 2578,
    "\u25810xfeee005f": 2579,
    "\u2581terminateprocess": 2580,
    "a10": 2581,
    "e8c": 2582,
    "onts": 2583,
    "\u2581fonts": 2584,
    "\u25810x7cf0": 2585,
    "\u25810x76500000": 2586,
    "310": 2587,
    "sti": 2588,
    "lecs": 2589,
    "variablecs": 2590,
    "\u2581findfirstfilea": 2591,
    "\u2581sleepcondition": 2592,
    "\u2581sleepconditionvariablecs": 2593,
    "c88": 2594,
    "\u25810x7390": 2595,
    "\u25810xfeee003a": 2596,
    "178": 2597,
    "605": 2598,
    "3a8": 2599,
    "tes": 2600,
    "\u25810x96": 2601,
    "\u25810x2100210": 2602,
    "iseex": 2603,
    "\u25810x74e0": 2604,
    "\u2581raiseex": 2605,
    "\u2581waitfor": 2606,
    "\u25810xfeee0065": 2607,
    "\u2581raiseexception": 2608,
    "edi": 2609,
    "vio": 2610,
    "\u25810x7a50": 2611,
    "\u25810xfeee003c": 2612,
    "b10": 2613,
    "\u25810x7750": 2614,
    "violation": 2615,
    "\u25810x420fe8": 2616,
    "7d0": 2617,
    "\u25810xfeee0066": 2618,
    "\u25810x26": 2619,
    "\u25810x40d8": 2620,
    "\u2581messageboxa": 2621,
    "7b8": 2622,
    "928": 2623,
    "uilanguage": 2624,
    "\u2581setfilepointerex": 2625,
    "9b4": 2626,
    "\u25810x72d0": 2627,
    "b5c": 2628,
    "\u25810xfeee0048": 2629,
    "\u25810xfeee004a": 2630,
    "\u25810xfeee0067": 2631,
    "fc0": 2632,
    "\u25810x7030": 2633,
    "\u25810x1210ec0": 2634,
    "og": 2635,
    "d40": 2636,
    "\u25810x7210": 2637,
    "packageid": 2638,
    "\u2581getcurrentpackageid": 2639,
    "bc4": 2640,
    "ymbo": 2641,
    "\u25810x89": 2642,
    "ymbolic": 2643,
    "738": 2644,
    "bd0": 2645,
    "able": 2646,
    "as": 2647,
    "stitu": 2648,
    "bitmap": 2649,
    "\u25810xfeedf": 2650,
    "\u25810xfeee0053": 2651,
    "3a5": 2652,
    "e87": 2653,
    "ubstitu": 2654,
    "\u25810x8230": 2655,
    "ubstitutes": 2656,
    "ymboliclinkw": 2657,
    "\u2581fontsubstitutes": 2658,
    "\u2581createsymboliclinkw": 2659,
    "\u2581getfileinformationbyhandl": 2660,
    "e74": 2661,
    "\u25810x75a0": 2662,
    "\u25810x7600": 2663,
    "352": 2664,
    "\u25810x40b3": 2665,
    "\u25810x45fb": 2666,
    "\u25810x7ae0": 2667,
    "3c8": 2668,
    "\u2581beg": 2669,
    "\u2581freelibraryw": 2670,
    "hen": 2671,
    "ken": 2672,
    "\u2581noaccess": 2673,
    "\u2581setdlldirectoryw": 2674,
    "descri": 2675,
    "\u25810x480": 2676,
    "\u25810x409a": 2677,
    "\u25810x7b10": 2678,
    "ornumber": 2679,
    "\u2581release": 2680,
    "\u2581getcurrentprocessornumber": 2681,
    "urns": 2682,
    "returns": 2683,
    "hencallback": 2684,
    "processwrite": 2685,
    "hencallbackreturns": 2686,
    "\u2581flushprocesswrite": 2687,
    "\u2581flushprocesswritebuffers": 2688,
    "\u2581freelibrarywhencallbackreturns": 2689,
    "wind": 2690,
    "poolwait": 2691,
    "callbacks": 2692,
    "\u2581waitforthread": 2693,
    "pooltimercallbacks": 2694,
    "\u2581setthreadpoolwait": 2695,
    "\u2581setthreadpooltimer": 2696,
    "\u2581closethreadpoolwait": 2697,
    "\u2581closethreadpooltimer": 2698,
    "\u2581createthreadpoolwait": 2699,
    "\u2581createthreadpooltimer": 2700,
    "\u2581waitforthreadpooltimercallbacks": 2701,
    "\u258132": 2702,
    "horeexw": 2703,
    "rectory": 2704,
    "\u2581createsemaphoreexw": 2705,
    "ext": 2706,
    "\u25810xbc": 2707,
    "section": 2708,
    "\u25810x71e0": 2709,
    "edirectory": 2710,
    "\u25810x7240": 2711,
    "\u25810x7660": 2712,
    "\u25810x7720": 2713,
    "lg": 2714,
    "32c": 2715,
    "\u25810x43f": 2716,
    "\u2581remov": 2717,
    "\u25810x4400": 2718,
    "bc6": 2719,
    "ee08": 2720,
    "\u25810x496760": 2721,
    "ool": 2722,
    "\u25810x401": 2723,
    "\u25810x76f0": 2724,
    "\u25810x40b4": 2725,
    "\u25810x76c0": 2726,
    "5c0": 2727,
    "7c4": 2728,
    "\u25810x412": 2729,
    "\u2581msvcr90": 2730,
    "\u2581releases": 2731,
    "\u25810xfeee004d": 2732,
    "ae0": 2733,
    "b68": 2734,
    "\u25810x7480": 2735,
    "\u25810x8090": 2736,
    "884": 2737,
    "978": 2738,
    "\u25810xc8": 2739,
    "ument": 2740,
    "\u2581rtlun": 2741,
    "\u25810x4012": 2742,
    "\u25810x7180": 2743,
    "\u25810x7a20": 2744,
    "\u25810xfeee004b": 2745,
    "\u25810xfeee0068": 2746,
    "valueexa": 2747,
    "\u2581rtlunwind": 2748,
    "11c": 2749,
    "fc4": 2750,
    "\u25810xac": 2751,
    "folderw": 2752,
    "\u25810x3f2000": 2753,
    "\u25810xfeee004c": 2754,
    "\u2581createdirectorya": 2755,
    "\u25810x4605": 2756,
    "\u2581gettickcount64": 2757,
    "special": 2758,
    "defaultu": 2759,
    "\u2581shgetspecial": 2760,
    "\u25810x7df0": 2761,
    "\u25810xfeee0069": 2762,
    "\u25810x7330": 2763,
    "\u25810x7ba0": 2764,
    "ad8": 2765,
    "b34": 2766,
    "\u2581inst": 2767,
    "\u25810x450": 2768,
    "\u25810x7120": 2769,
    "ow64": 2770,
    "\u25810x7360": 2771,
    "\u25810x7990": 2772,
    "\u25810x42a00": 2773,
    "defaultuilanguage": 2774,
    "f28": 2775,
    "\u25810x4604": 2776,
    "\u25810x77b0": 2777,
    "\u25810xfeee008b": 2778,
    "\u25810x7570": 2779,
    "\u25810x4c42c0": 2780,
    "\u25810x1211f04": 2781,
    "\u25810xfeee0055": 2782,
    "ec9": 2783,
    "\u25810x4076": 2784,
    "ip": 2785,
    "\u25810x70c0": 2786,
    "\u25810x7712": 2787,
    "\u25810xfeee0050": 2788,
    "\u25810x7714": 2789,
    "\u25810x7715": 2790,
    "\u25810x7718": 2791,
    "\u25810x79c0": 2792,
    "ab8": 2793,
    "\u25810x74b0": 2794,
    "\u25810x5617a8": 2795,
    "\u25810x1211c94": 2796,
    "\u25810xfeee004e": 2797,
    "f0c": 2798,
    "\u25810xfeee0054": 2799,
    "\u25810xfeee005e": 2800,
    "70c": 2801,
    "areex": 2802,
    "\u25810x7510": 2803,
    "\u25810x7840": 2804,
    "compareex": 2805,
    "\u2581interlockedcompareex": 2806,
    "3ff": 2807,
    "f58": 2808,
    "\u2581ext": 2809,
    "\u2581mei": 2810,
    "\u25810x73c0": 2811,
    "778": 2812,
    "a78": 2813,
    "ority": 2814,
    "\u25810x181": 2815,
    "\u25810x6a6": 2816,
    "\u25810x7450": 2817,
    "priority": 2818,
    "\u25810xfeee004f": 2819,
    "\u2581interlockedcompareexchange": 2820,
    "lt": 2821,
    "\u25810xfeee005c": 2822,
    "\u25810x7420": 2823,
    "958": 2824,
    "files": 2825,
    "\u25810xfeee0051": 2826,
    "\u25810xfeee0052": 2827,
    "\u2581findresourcew": 2828,
    "7000": 2829,
    "\u25810xa1": 2830,
    "\u25810x4c30": 2831,
    "\u25810x7630": 2832,
    "\u25810x7960": 2833,
    "\u25810xfeee0057": 2834,
    "sn": 2835,
    "00a": 2836,
    "\u25810xfeee005a": 2837,
    "\u25810x6c": 2838,
    "\u25810x70f0": 2839,
    "descript": 2840,
    "\u25810x435002": 2841,
    "\u25810x435004": 2842,
    "\u25810x435006": 2843,
    "\u25810x435008": 2844,
    "\u25810x43500a": 2845,
    "\u25810x43500c": 2846,
    "\u25810x43500e": 2847,
    "\u25810x435010": 2848,
    "\u25810x435018": 2849,
    "\u25810xfeee0064": 2850,
    "302": 2851,
    "334": 2852,
    "ss2": 2853,
    "pass2": 2854,
    "\u25810x435014": 2855,
    "\u2581meipass2": 2856,
    "\u25810xfeee0056": 2857,
    "securitydescript": 2858,
    "\u2581cl": 2859,
    "\u2581end": 2860,
    "\u25810xea": 2861,
    "\u25810x7de8": 2862,
    "\u25810x435016": 2863,
    "\u25810x44e4b8": 2864,
    "9d6": 2865,
    "ong": 2866,
    "\u2581update": 2867,
    "\u25810xfeee005b": 2868,
    "316": 2869,
    "d44": 2870,
    "6c00": 2871,
    "validate": 2872,
    "\u25810xfeee006a": 2873,
    "\u2581heapvalidate": 2874,
    "360": 2875,
    "da0": 2876,
    "\u25810x1211ef8": 2877,
    "\u25810xfeee0059": 2878,
    "\u2581deletefilew": 2879,
    "\u2581ts": 2880,
    "\u2581sys": 2881,
    "paint": 2882,
    "\u25810xfeee0058": 2883,
    "dfd": 2884,
    "ethread": 2885,
    "affin": 2886,
    "itymask": 2887,
    "\u25810x4760": 2888,
    "affinitymask": 2889,
    "handler": 2890,
    "\u25810x7b70": 2891,
    "\u25810x44f928": 2892,
    "\u25810xfeee0063": 2893,
    "244": 2894,
    "\u25810x4608": 2895,
    "\u25810x7de9": 2896,
    "\u25810x7780": 2897,
    "ech": 2898,
    "\u25810x4010": 2899,
    "68c": 2900,
    "\u25810xbd": 2901,
    "\u25810x121193c": 2902,
    "50c0": 2903,
    "lipboard": 2904,
    "\u2581enumsystem": 2905,
    "fb0": 2906,
    "long": 2907,
    "\u25810x435012": 2908,
    "instruction": 2909,
    "\u25810xfeee005d": 2910,
    "\u2581setfileinformationby": 2911,
    "\u25813": 2912,
    "682": 2913,
    "d15": 2914,
    "\u25810x40969": 2915,
    "\u25810x47a00": 2916,
    "\u25810xfeee0060": 2917,
    "\u2581getthreaduilanguage": 2918,
    "784": 2919,
    "b50": 2920,
    "\u2581createexw": 2921,
    "\u25810xfeee0061": 2922,
    "\u25810xfeee0062": 2923,
    "\u2581accessviolation": 2924,
    "\u2581dup": 2925,
    "token": 2926,
    "dc9": 2927,
    "\u25810x1002": 2928,
    "1c4": 2929,
    "920": 2930,
    "boardf": 2931,
    "lipboardf": 2932,
    "b54": 2933,
    "\u25810x41f": 2934,
    "3e5": 2935,
    "cid": 2936,
    "adc": 2937,
    "b84": 2938,
    "\u25810x1211d08": 2939,
    "\u2581fe": 2940,
    "9260": 2941,
    "\u25810x42a4": 2942,
    "localtime": 2943,
    "f8c": 2944,
    "6e8": 2945,
    "bbc": 2946,
    "delete": 2947,
    "\u2581getprocessaffinitymask": 2948,
    "d2c": 2949,
    "\u25817z6": 2950,
    "\u25817z72": 2951,
    "\u25810x7717": 2952,
    "\u2581getenvironmentvariablew": 2953,
    "a90": 2954,
    "hook": 2955,
    "\u25810x7719": 2956,
    "\u2581createdirectoryw": 2957,
    "9d8": 2958,
    "\u25810x4356": 2959,
    "\u25810x47ee": 2960,
    "\u25810x7710": 2961,
    "\u25810x169bc9c": 2962,
    "582": 2963,
    "bc7": 2964,
    "lect": 2965,
    "\u25810xab": 2966,
    "\u2581move": 2967,
    "\u25810x1211f34": 2968,
    "printf": 2969,
    "echeck": 2970,
    "\u25810xfeee006b": 2971,
    "284": 2972,
    "ce9": 2973,
    "d50": 2974,
    "fc8": 2975,
    "\u25810xb000": 2976,
    "\u25810x1211e4c": 2977,
    "\u25810x4602": 2978,
    "364": 2979,
    "7f4": 2980,
    "d0f": 2981,
    "acti": 2982,
    "\u25810x1211f48": 2983,
    "3ad": 2984,
    "70e": 2985,
    "\u25810x1211fc0": 2986,
    "122": 2987,
    "\u2581send": 2988,
    "\u2581regcreate": 2989,
    "3c54": 2990,
    "40b": 2991,
    "\u2581tsl": 2992,
    "\u25810x40935c": 2993,
    "\u25810x4093e4": 2994,
    "tin": 2995,
    "\u2581runtime": 2996,
    "\u2581findwindow": 2997,
    "994": 2998,
    "hot": 2999,
    "\u25810x644": 3000,
    "\u2581duplic": 3001,
    "\u2581regset": 3002,
    "\u25810xfeee006c": 3003,
    "128": 3004,
    "\u25810xffe1": 3005,
    "92e": 3006,
    "d24": 3007,
    "\u25810x43501a": 3008,
    "138": 3009,
    "d3c": 3010,
    "\u25810x181c": 3011,
    "\u2581setupapi": 3012,
    "\u25810xa9": 3013,
    "\u25810xfeee0070": 3014,
    "670": 3015,
    "fa8": 3016,
    "\u2581format": 3017,
    "\u2581process32next": 3018,
    "7c58": 3019,
    "blt": 3020,
    "e28": 3021,
    "eed": 3022,
    "12c": 3023,
    "934": 3024,
    "add": 3025,
    "d68": 3026,
    "drl66": 3027,
    "\u25810x40a59c": 3028,
    "\u2581tsldrl66": 3029,
    "\u2581exception": 3030,
    "\u25810xfeee006e": 3031,
    "apshot": 3032,
    "\u25810xfffe": 3033,
    "\u25810xfeee0077": 3034,
    "\u2581removedirectory": 3035,
    "bk": 3036,
    "df0": 3037,
    "reque": 3038,
    "\u25810x202": 3039,
    "\u25810x7dec": 3040,
    "\u25810x7ded": 3041,
    "\u2581initcommoncontrolsex": 3042,
    "6c8": 3043,
    "\u25810x9b": 3044,
    "\u2581comm": 3045,
    "help32": 3046,
    "\u25810xffe0": 3047,
    "oolhelp32": 3048,
    "\u25810xfeee0079": 3049,
    "\u2581regcreatekey": 3050,
    "cc6": 3051,
    "\u25810xad": 3052,
    "\u25810xfeee006d": 3053,
    "cc5": 3054,
    "snapshot": 3055,
    "oolhelp32snapshot": 3056,
    "\u2581shgetspecialfolderw": 3057,
    "\u2581createtoolhelp32snapshot": 3058,
    "f05": 3059,
    "6000": 3060,
    "uter": 3061,
    "\u2581stem": 3062,
    "\u2581stem32": 3063,
    "\u25815": 3064,
    "354": 3065,
    "\u25810x4210": 3066,
    "\u2581strlen": 3067,
    "3de": 3068,
    "944": 3069,
    "\u25810xfeee0076": 3070,
    "\u2581showwindow": 3071,
    "\u2581sc": 3072,
    "atus": 3073,
    "\u25810xffe4": 3074,
    "\u25810xfeee006f": 3075,
    "\u25810xfeee007b": 3076,
    "366": 3077,
    "692": 3078,
    "998": 3079,
    "fe0": 3080,
    "\u25810x350": 3081,
    "\u25810x1808": 3082,
    "menuitem": 3083,
    "\u25810x4012db": 3084,
    "\u25810x43501c": 3085,
    "\u25810x43501e": 3086,
    "\u25810x435020": 3087,
    "\u25810x435022": 3088,
    "\u25810x435028": 3089,
    "\u25810x43502a": 3090,
    "\u25810x43502c": 3091,
    "\u25810x43502e": 3092,
    "\u25810x435030": 3093,
    "\u25810xfeee0078": 3094,
    "114": 3095,
    "7ce": 3096,
    "bound": 3097,
    "\u25810x5265": 3098,
    "\u25810xfeee007a": 3099,
    "\u25810xfeee0087": 3100,
    "\u2581registerclipboardf": 3101,
    "ecc": 3102,
    "\u2581createw": 3103,
    "18a": 3104,
    "3ac": 3105,
    "905": 3106,
    "lex": 3107,
    "ession": 3108,
    "\u25810x1009": 3109,
    "f78": 3110,
    "os": 3111,
    "th": 3112,
    "ae8": 3113,
    "\u25810x1211d2c": 3114,
    "\u2581windowsnt": 3115,
    "\u25810xfeee0071": 3116,
    "\u2581registerclassa": 3117,
    "\u2581prop": 3118,
    "computer": 3119,
    "\u25810xfeee0074": 3120,
    "\u25810x478": 3121,
    "\u2581apphelp": 3122,
    "1e2": 3123,
    "eek": 3124,
    "sys": 3125,
    "\u2581sept": 3126,
    "\u2581oleacc": 3127,
    "bcat": 3128,
    "\u2581sep": 3129,
    "\u2581propsys": 3130,
    "\u25810xfeee0073": 3131,
    "name": 3132,
    "\u2581oct": 3133,
    "bcatq": 3134,
    "\u2581clbcatq": 3135,
    "\u25810xfeee0072": 3136,
    "\u25810xfeee0088": 3137,
    "006": 3138,
    "6c2": 3139,
    "d05": 3140,
    "\u25810xffbb": 3141,
    "\u25810xffbd": 3142,
    "\u25810xffbe": 3143,
    "oom": 3144,
    "\u25810xffba": 3145,
    "\u25810xffbc": 3146,
    "\u2581getcomputer": 3147,
    "3f7": 3148,
    "888": 3149,
    "970": 3150,
    "\u2581select": 3151,
    "66e": 3152,
    "a6c": 3153,
    "\u25810xffb8": 3154,
    "\u25810xffb9": 3155,
    "\u25810xfeee0075": 3156,
    "\u25810xfeee007c": 3157,
    "1e7": 3158,
    "3e1": 3159,
    "\u25810xf0": 3160,
    "\u25810x46c0": 3161,
    "\u25810xffb7": 3162,
    "\u25810xfffd": 3163,
    "\u25810x100fd": 3164,
    "1a7": 3165,
    "1de": 3166,
    "1e8": 3167,
    "ceex": 3168,
    "status": 3169,
    "375": 3170,
    "f18": 3171,
    "unlock": 3172,
    "\u25810x421": 3173,
    "\u25810xfffc": 3174,
    "\u25810x1211f10": 3175,
    "550": 3176,
    "\u25810x1005": 3177,
    "\u25810x1211db8": 3178,
    "528": 3179,
    "ae2": 3180,
    "\u25810xffb6": 3181,
    "\u25810x120ee": 3182,
    "\u2581regdelete": 3183,
    "7bc": 3184,
    "\u2581ws2": 3185,
    "\u2581lstrc": 3186,
    "\u25810xffbf": 3187,
    "\u2581registerwindowmessagew": 3188,
    "f40": 3189,
    "\u2581feb": 3190,
    "\u25810xc0": 3191,
    "\u25810x2d4": 3192,
    "315": 3193,
    "718": 3194,
    "\u25810x4bb0": 3195,
    "\u25810x409364": 3196,
    "\u25810x4093ec": 3197,
    "664": 3198,
    "ff0": 3199,
    "isp": 3200,
    "\u2581shellex": 3201,
    "\u25810x1211f50": 3202,
    "\u2581createsemaphore": 3203,
    "a20": 3204,
    "pril": 3205,
    "tober": 3206,
    "\u2581febr": 3207,
    "\u2581april": 3208,
    "session": 3209,
    "\u25810xfffb": 3210,
    "\u2581august": 3211,
    "\u2581november": 3212,
    "\u2581september": 3213,
    "348": 3214,
    "df5": 3215,
    "e69": 3216,
    "eni": 3217,
    "f0f": 3218,
    "riv": 3219,
    "une": 3220,
    "oken": 3221,
    "\u2581apr": 3222,
    "\u25810x40e5": 3223,
    "\u25810xfeee011": 3224,
    "\u2581getlocaltime": 3225,
    "tern": 3226,
    "\u2581begin": 3227,
    "\u2581createmutex": 3228,
    "c8f": 3229,
    "texta": 3230,
    "\u25810xffb5": 3231,
    "d0c": 3232,
    "\u25810x40a5b8": 3233,
    "aa4": 3234,
    "index": 3235,
    "\u2581memset": 3236,
    "a0b": 3237,
    "l6660d": 3238,
    "\u25810x448": 3239,
    "\u25810x40a5b0": 3240,
    "\u2581releasesrwlockexclusive": 3241,
    "\u25810x415c": 3242,
    "\u25810x4420": 3243,
    "372": 3244,
    "\u25810x40a5ae": 3245,
    "\u25810x40a5b2": 3246,
    "\u25810x40a5b4": 3247,
    "\u25810x40a5b6": 3248,
    "\u25810x40a5ba": 3249,
    "stringw": 3250,
    "\u25810x7df1": 3251,
    "\u25810x1210f64": 3252,
    "\u25810xfeee007d": 3253,
    "\u25810xfeee007e": 3254,
    "\u25810xfeee0081": 3255,
    "\u2581div": 3256,
    "wow64": 3257,
    "onexit": 3258,
    "\u25810x140": 3259,
    "\u25810xfeee007f": 3260,
    "drl6660drl6660drl6660drl6660drl6660": 3261,
    "valuea": 3262,
    "\u25810x115": 3263,
    "\u25810x5e": 3264,
    "\u25810x7b90": 3265,
    "\u25810x7bf0": 3266,
    "\u25810xfeee0080": 3267,
    "a05": 3268,
    "f93": 3269,
    "toma": 3270,
    "\u25810x6e": 3271,
    "\u25810xbe": 3272,
    "\u25810x1211e44": 3273,
    "\u25810xfeee0082": 3274,
    "\u25810xfeee0086": 3275,
    "\u25810xfeee008e": 3276,
    "\u2581createpalette": 3277,
    "\u2581y": 3278,
    "f39": 3279,
    "afec": 3280,
    "sser": 3281,
    "failed": 3282,
    "\u25810x4c32": 3283,
    "\u25810xffb4": 3284,
    "\u25810x12117f4": 3285,
    "\u25810x1211808": 3286,
    "\u2581createwindowexa": 3287,
    "\u2581getcurrentdirectoryw": 3288,
    "3e7": 3289,
    "uly": 3290,
    "code": 3291,
    "\u2581december": 3292,
    "\u25810x1211f40": 3293,
    "9ef0": 3294,
    "anuary": 3295,
    "\u2581march": 3296,
    "\u2581october": 3297,
    "\u2581february": 3298,
    "\u25810xfeee0083": 3299,
    "d34": 3300,
    "\u25810x81": 3301,
    "\u2581outof": 3302,
    "\u2581monday": 3303,
    "\u2581sunday": 3304,
    "\u2581tuesday": 3305,
    "\u25810x7f8003": 3306,
    "\u25810x7f8004": 3307,
    "\u25810x7f8005": 3308,
    "\u25810x7f8006": 3309,
    "\u25810x7f8007": 3310,
    "\u25810x7f8008": 3311,
    "\u25810x7f8009": 3312,
    "\u25810x7f800a": 3313,
    "\u25810x7f800b": 3314,
    "\u25810x7f800c": 3315,
    "\u25810x7f800d": 3316,
    "\u25810x7f800e": 3317,
    "\u25810x7f800f": 3318,
    "3f0": 3319,
    "atch": 3320,
    "\u2581thu": 3321,
    "nesday": 3322,
    "\u2581wednesday": 3323,
    "\u25810xfeee0084": 3324,
    "\u2581outofmemory": 3325,
    "oem": 3326,
    "ursday": 3327,
    "\u25810xffe6": 3328,
    "\u2581thursday": 3329,
    "\u2581duplicate": 3330,
    "642": 3331,
    "a4c4": 3332,
    "exit": 3333,
    "iday": 3334,
    "\u2581fri": 3335,
    "urday": 3336,
    "\u25810xfffa": 3337,
    "\u2581friday": 3338,
    "\u2581saturday": 3339,
    "\u25810xfeee0085": 3340,
    "\u25810xfeee008c": 3341,
    "1c7": 3342,
    "\u2581lstrcmpi": 3343,
    "3b5": 3344,
    "a97": 3345,
    "\u25810xffa0": 3346,
    "\u25810xffcd": 3347,
    "\u2581lstrcata": 3348,
    "hed": 3349,
    "\u25810x4470": 3350,
    "\u25810x5199": 3351,
    "\u25810xffa1": 3352,
    "\u25810x52660": 3353,
    "\u25810xfeee008a": 3354,
    "\u25810x87": 3355,
    "00e": 3356,
    "ncy": 3357,
    "ternal": 3358,
    "\u25810xffa2": 3359,
    "\u25810xfeee0089": 3360,
    "3ed": 3361,
    "bb4": 3362,
    "\u25810x40ab": 3363,
    "93d": 3364,
    "ee2": 3365,
    "las": 3366,
    "\u25810x5265d": 3367,
    "a54": 3368,
    "f5e": 3369,
    "anget": 3370,
    "\u25810x4e39": 3371,
    "\u25810xffe5": 3372,
    "cefreque": 3373,
    "\u25810x1211e2c": 3374,
    "cefrequency": 3375,
    "\u2581queryperformancefrequency": 3376,
    "a5c": 3377,
    "\u25810x754": 3378,
    "\u2581setthreadlocale": 3379,
    "1d0": 3380,
    "404": 3381,
    "\u25810x7716": 3382,
    "\u25810xffa3": 3383,
    "1d1": 3384,
    "374": 3385,
    "6b6": 3386,
    "afecall": 3387,
    "windowproc": 3388,
    "\u2581interfac": 3389,
    "\u25810x1211e40": 3390,
    "\u25810xfeee008d": 3391,
    "\u2581globalunlock": 3392,
    "\u2581duplicatehandle": 3393,
    "407": 3394,
    "vis": 3395,
    "ater": 3396,
    "\u2581asser": 3397,
    "60e": 3398,
    "fcf": 3399,
    "gex": 3400,
    "drive": 3401,
    "\u2581inte": 3402,
    "valueexw": 3403,
    "218": 3404,
    "634": 3405,
    "b7c": 3406,
    "d38": 3407,
    "\u2581getfull": 3408,
    "exception": 3409,
    "64c": 3410,
    "\u25810xffa4": 3411,
    "\u2581setfileattributesa": 3412,
    "7cc": 3413,
    "ins": 3414,
    "\u25810xae": 3415,
    "\u25810x1211e24": 3416,
    "\u25810xfeee0094": 3417,
    "a0c": 3418,
    "service": 3419,
    "\u25810xffcf": 3420,
    "\u25810x4093a5": 3421,
    "\u25810x4093a6": 3422,
    "\u25810x4093a7": 3423,
    "\u25810x4093a8": 3424,
    "\u25810x4093a9": 3425,
    "\u25810x4093aa": 3426,
    "\u25810x4093ab": 3427,
    "\u25810x40a540": 3428,
    "\u2581enumsystemlocales": 3429,
    "b94": 3430,
    "changet": 3431,
    "\u2581variantchanget": 3432,
    "358": 3433,
    "728": 3434,
    "b97": 3435,
    "\u2581stack": 3436,
    "\u25810xffce": 3437,
    "\u2581external": 3438,
    "\u25810x1211a44": 3439,
    "\u2581assertion": 3440,
    "98d": 3441,
    "d55": 3442,
    "\u2581wm": 3443,
    "\u25810xffb0": 3444,
    "privileged": 3445,
    "\u25810x1211dbc": 3446,
    "\u2581interfacen": 3447,
    "\u2581registerclassexa": 3448,
    "a19": 3449,
    "9852": 3450,
    "found": 3451,
    "\u25810xffb3": 3452,
    "\u2581integer": 3453,
    "\u25810x42a190": 3454,
    "aa8": 3455,
    "alog": 3456,
    "styp": 3457,
    "6c5": 3458,
    "\u2581disk": 3459,
    "\u25810x1fa": 3460,
    "\u25810x40a53a": 3461,
    "\u25810x40a53c": 3462,
    "\u25810x40a53e": 3463,
    "\u25810x40a542": 3464,
    "\u25810x40a544": 3465,
    "3f8": 3466,
    "e10": 3467,
    "ine": 3468,
    "calls": 3469,
    "\u25810xffb1": 3470,
    "\u25810x40a546": 3471,
    "\u25810xfeee008f": 3472,
    "d5c": 3473,
    "\u25810xffb2": 3474,
    "\u25810x120faa8": 3475,
    "a8f": 3476,
    "ab0": 3477,
    "zone": 3478,
    "\u25810x492": 3479,
    "\u25810xffa5": 3480,
    "\u25810x401000": 3481,
    "pp": 3482,
    "3b0": 3483,
    "\u25810xffa6": 3484,
    "\u25810xfff9": 3485,
    "\u25810x429260": 3486,
    "\u2581gettimezone": 3487,
    "\u2581gettimezoneinformation": 3488,
    "tt": 3489,
    "\u25810x7d99": 3490,
    "\u25810x12119a0": 3491,
    "150": 3492,
    "9bc": 3493,
    "prog": 3494,
    "\u25810xffa7": 3495,
    "filename": 3496,
    "insafecall": 3497,
    "\u2581exceptioninsafecall": 3498,
    "123": 3499,
    "deni": 3500,
    "e054": 3501,
    "\u25810xffe2": 3502,
    "notfound": 3503,
    "\u2581getfileattributesa": 3504,
    "242": 3505,
    "5c6": 3506,
    "6b2": 3507,
    "any": 3508,
    "\u2581getdriv": 3509,
    "\u25810x697070": 3510,
    "200": 3511,
    "5ca": 3512,
    "ond": 3513,
    "par": 3514,
    "\u25810x1211e58": 3515,
    "\u2581getlogicaldrive": 3516,
    "ba0": 3517,
    "d18": 3518,
    "een": 3519,
    "enh": 3520,
    "1cb": 3521,
    "ecast": 3522,
    "under": 3523,
    "bounds": 3524,
    "\u25810xffcc": 3525,
    "\u2581getdrivet": 3526,
    "\u2581setendoffile": 3527,
    "3e8": 3528,
    "argument": 3529,
    "\u25810x461548": 3530,
    "\u2581privileged": 3531,
    "\u2581assertionfailed": 3532,
    "ccess": 3533,
    "\u25810x9d": 3534,
    "\u2581rang": 3535,
    "ervicec": 3536,
    "verflow": 3537,
    "creating": 3538,
    "leaccess": 3539,
    "\u25810xfeee0090": 3540,
    "\u2581rangecheck": 3541,
    "pointeroperation": 3542,
    "380": 3543,
    "b28": 3544,
    "clas": 3545,
    "fff0": 3546,
    "outof": 3547,
    "\u25810xfc": 3548,
    "\u2581chit": 3549,
    "\u2581toom": 3550,
    "pointo": 3551,
    "anyopen": 3552,
    "otsuped": 3553,
    "\u25810x4c10": 3554,
    "callsnot": 3555,
    "classtyp": 3556,
    "floating": 3557,
    "lication": 3558,
    "indexoutof": 3559,
    "\u25810x1211f30": 3560,
    "anyopenfiles": 3561,
    "callsnotsuped": 3562,
    "classtypecast": 3563,
    "floatingpoint": 3564,
    "pointoverflow": 3565,
    "divisionbyzero": 3566,
    "\u2581errorcreating": 3567,
    "\u2581findnextfilea": 3568,
    "\u2581divisionbyzero": 3569,
    "indexoutofbounds": 3570,
    "\u2581integeroverflow": 3571,
    "\u2581invalidfilename": 3572,
    "\u2581rangecheckerror": 3573,
    "\u2581toomanyopenfiles": 3574,
    "\u2581externalexception": 3575,
    "\u2581interfacenotsuped": 3576,
    "\u2581errorcreatingvariant": 3577,
    "\u2581invalidfloatingpoint": 3578,
    "\u2581variantcallsnotsuped": 3579,
    "\u2581floatingpointoverflow": 3580,
    "\u2581floatingpointdivisionbyzero": 3581,
    "\u2581invalidfloatingpointoperation": 3582,
    "bey": 3583,
    "\u2581wnet": 3584,
    "beyond": 3585,
    "denied": 3586,
    "numeric": 3587,
    "typecon": 3588,
    "underflow": 3589,
    "\u2581diskfull": 3590,
    "\u2581fileaccess": 3591,
    "\u2581readbeyond": 3592,
    "numericinput": 3593,
    "typeconversion": 3594,
    "\u2581stackoverflow": 3595,
    "\u2581fileaccessdenied": 3596,
    "\u2581invalidnumericinput": 3597,
    "\u2581readbeyondendoffile": 3598,
    "\u2581invalidclasstypecast": 3599,
    "\u2581privilegedinstruction": 3600,
    "\u2581floatingpointunderflow": 3601,
    "\u2581invalidpointeroperation": 3602,
    "\u2581invalidvariantoperation": 3603,
    "\u2581invalidvarianttypeconversion": 3604,
    "\u25810x6b": 3605,
    "\u25810x604": 3606,
    "c018": 3607,
    "\u2581def": 3608,
    "\u25810x42e": 3609,
    "\u25810xffe3": 3610,
    "\u25810x4041": 3611,
    "b58": 3612,
    "\u25810x1b2": 3613,
    "\u25810xba8": 3614,
    "\u25810x3f20": 3615,
    "\u25810xffa8": 3616,
    "\u25810xffe7": 3617,
    "\u2581getuserdefaultlocalename": 3618,
    "dc2": 3619,
    "\u25810x7e80": 3620,
    "8f": 3621,
    "1b8": 3622,
    "\u2581exp": 3623,
    "\u25810x600": 3624,
    "\u25810x40b7": 3625,
    "\u25810xffa9": 3626,
    "145": 3627,
    "\u25810x56c": 3628,
    "edcc": 3629,
    "\u2581getdiskfreespaceexa": 3630,
    "40d": 3631,
    "3a0": 3632,
    "a38": 3633,
    "\u25810x7da0": 3634,
    "\u2581regenum": 3635,
    "\u25810xfeee01a": 3636,
    "982": 3637,
    "d45": 3638,
    "once": 3639,
    "dfc": 3640,
    "mod": 3641,
    "ssp": 3642,
    "\u25810x41f6": 3643,
    "\u2581loadcursorw": 3644,
    "9c8": 3645,
    "a0e": 3646,
    "format": 3647,
    "\u25810x4540e0": 3648,
    "6ec": 3649,
    "\u25810x3f4": 3650,
    "\u25810x9f": 3651,
    "\u25810x41e": 3652,
    "\u2581reset": 3653,
    "\u25810x12110": 3654,
    "ed24": 3655,
    "\u2581updatewindow": 3656,
    "\u2581getdateformatex": 3657,
    "\u2581isvalidlocalename": 3658,
    "\u2581enumsystemlocalesex": 3659,
    "\u25810x411b": 3660,
    "\u25810x417d": 3661,
    "\u25810xffaa": 3662,
    "\u2581remove": 3663,
    "\u25810x1211f38": 3664,
    "\u2581gettimeformatex": 3665,
    "il": 3666,
    "ypeex": 3667,
    "\u25810x4066": 3668,
    "\u25810x7d98": 3669,
    "\u2581variantchangetypeex": 3670,
    "774": 3671,
    "782": 3672,
    "9e2": 3673,
    "sid": 3674,
    "4bb8": 3675,
    "69c0": 3676,
    "ecte": 3677,
    "\u25810xfeee013": 3678,
    "\u25810x13fff0": 3679,
    "\u2581getvolumeinformationa": 3680,
    "64d": 3681,
    "b70": 3682,
    "sub": 3683,
    "ton": 3684,
    "pati": 3685,
    "\u25810x1211eac": 3686,
    "134": 3687,
    "dc4": 3688,
    "e6c": 3689,
    "\u2581post": 3690,
    "\u25810x2b4": 3691,
    "windows": 3692,
    "\u25810x4164": 3693,
    "\u2581getexit": 3694,
    "\u2581getenvironmentvariablea": 3695,
    "d78": 3696,
    "\u25810xd8": 3697,
    "\u25810xfff7": 3698,
    "\u25810x10005c": 3699,
    "\u25810x42a403": 3700,
    "\u25810x42a404": 3701,
    "\u25810x42a405": 3702,
    "\u25810x42a406": 3703,
    "\u25810x42a407": 3704,
    "\u25810x42a408": 3705,
    "\u25810x42a409": 3706,
    "\u25810x42a40a": 3707,
    "\u25810x42a40b": 3708,
    "\u25810x42a40c": 3709,
    "\u25810x42a40d": 3710,
    "\u25810x42a40e": 3711,
    "\u25810x42a40f": 3712,
    "210": 3713,
    "54c": 3714,
    "77f": 3715,
    "9f0": 3716,
    "ormata": 3717,
    "\u25810x419": 3718,
    "397": 3719,
    "neg": 3720,
    "mpati": 3721,
    "\u25810xd2": 3722,
    "\u2581iswow64": 3723,
    "\u2581iswow64process": 3724,
    "12a": 3725,
    "c85": 3726,
    "mul": 3727,
    "idiv": 3728,
    "onceex": 3729,
    "\u25810x47b1": 3730,
    "\u2581varadd": 3731,
    "\u2581varand": 3732,
    "\u2581vardiv": 3733,
    "\u2581varmod": 3734,
    "\u2581varmul": 3735,
    "\u2581varneg": 3736,
    "\u2581varnot": 3737,
    "\u2581varsub": 3738,
    "\u2581varidiv": 3739,
    "ecuteonce": 3740,
    "\u2581initonceex": 3741,
    "\u2581initonceexecuteonce": 3742,
    "26c": 3743,
    "xor": 3744,
    "\u2581varcy": 3745,
    "\u2581varor": 3746,
    "\u2581varr8": 3747,
    "\u25810xfff8": 3748,
    "\u2581varcmp": 3749,
    "\u2581varxor": 3750,
    "\u2581varbool": 3751,
    "\u2581vardate": 3752,
    "\u25810x1211edc": 3753,
    "\u2581varcyfromstr": 3754,
    "\u2581vari4fromstr": 3755,
    "\u2581varr4fromstr": 3756,
    "\u2581varr8fromstr": 3757,
    "\u2581varbstrfromcy": 3758,
    "\u2581varboolfromstr": 3759,
    "\u2581vardatefromstr": 3760,
    "186": 3761,
    "\u2581try": 3762,
    "\u2581varbstrfrombool": 3763,
    "\u2581varbstrfromdate": 3764,
    "110": 3765,
    "931": 3766,
    "e0c": 3767,
    "eac": 3768,
    "\u25810x10a": 3769,
    "\u25810x4228": 3770,
    "\u2581getenvironmentstring": 3771,
    "34b": 3772,
    "946": 3773,
    "993": 3774,
    "a98": 3775,
    "\u25810x572": 3776,
    "\u25810x78f0": 3777,
    "\u25810xffcb": 3778,
    "\u2581copyfilea": 3779,
    "fx": 3780,
    "dow": 3781,
    "f77": 3782,
    "per": 3783,
    "\u25810x7d9c": 3784,
    "\u25810x7d9d": 3785,
    "\u25810x502dc": 3786,
    "\u25810x1211738": 3787,
    "\u25810x1211fbc": 3788,
    "1d5": 3789,
    "20c0": 3790,
    "\u25810x8e90": 3791,
    "gu": 3792,
    "13c": 3793,
    "314": 3794,
    "3e4": 3795,
    "nam": 3796,
    "\u25810x40b8": 3797,
    "mpatible": 3798,
    "prec": 3799,
    "oemcp": 3800,
    "\u2581getoemcp": 3801,
    "\u25810x1211f4c": 3802,
    "50000": 3803,
    "\u25810x4603": 3804,
    "\u25810x80e0": 3805,
    "\u25810x100300": 3806,
    "\u25810x40a58c": 3807,
    "910": 3808,
    "lay": 3809,
    "\u25810xfeee0097": 3810,
    "\u2581registerclipboardformata": 3811,
    "3e6": 3812,
    "9ee": 3813,
    "ff40": 3814,
    "\u25810x47ee08": 3815,
    "\u25810x12117c8": 3816,
    "1d8": 3817,
    "234": 3818,
    "363": 3819,
    "f8d": 3820,
    "3ef0": 3821,
    "\u25810x411c": 3822,
    "\u25810x40a57c": 3823,
    "578": 3824,
    "2c55": 3825,
    "\u25810x57c": 3826,
    "\u25810xfeee0091": 3827,
    "205": 3828,
    "7a8": 3829,
    "9fc": 3830,
    "ispatch": 3831,
    "\u25810x4196": 3832,
    "\u25810x4300": 3833,
    "\u25810x8280": 3834,
    "\u25810xfeee0092": 3835,
    "\u2581isvalidlocale": 3836,
    "\u2581getenvironmentstrings": 3837,
    "a65": 3838,
    "d06": 3839,
    "eec": 3840,
    "mar": 3841,
    "\u25810xc4": 3842,
    "\u25810x47e0": 3843,
    "\u25810x8814": 3844,
    "\u25810x1211e1c": 3845,
    "\u25810xfeee0093": 3846,
    "115": 3847,
    "dcc": 3848,
    "952e8": 3849,
    "\u25810x442": 3850,
    "918": 3851,
    "cel": 3852,
    "run": 3853,
    "\u25810x407b": 3854,
    "\u25810xebad": 3855,
    "\u2581shgetfileinfow": 3856,
    "\u2581getprivateprofilestringa": 3857,
    "304": 3858,
    "b06": 3859,
    "bd8": 3860,
    "\u25810x4c0": 3861,
    "\u25810xfeee0098": 3862,
    "757": 3863,
    "bec": 3864,
    "pop": 3865,
    "\u25810x9a": 3866,
    "\u25810x51a0": 3867,
    "\u25810x7da1": 3868,
    "\u25810x52662": 3869,
    "\u2581sldrl6660drl6660drl6660drl6660drl6660drl6660drl6660drl6660": 3870,
    "318": 3871,
    "7c7": 3872,
    "beb": 3873,
    "\u2581createco": 3874,
    "d60": 3875,
    "dca": 3876,
    "db5": 3877,
    "ed4": 3878,
    "\u25810x432": 3879,
    "\u25810x1211f1c": 3880,
    "\u25810xfeee0095": 3881,
    "\u2581process32first": 3882,
    "\u25810x28c": 3883,
    "\u25810x4967a8": 3884,
    "\u25810x593748": 3885,
    "282": 3886,
    "a85": 3887,
    "ff4": 3888,
    "nect": 3889,
    "\u2581setbk": 3890,
    "econsole": 3891,
    "2de": 3892,
    "6cd": 3893,
    "acd": 3894,
    "da9": 3895,
    "ram": 3896,
    "\u25810xb4": 3897,
    "\u25810x1211f44": 3898,
    "\u25810xfeee0099": 3899,
    "\u2581comparestringw": 3900,
    "\u2581variantorsafearray": 3901,
    "\u2581errorcreatingvariantorsafearray": 3902,
    "\u2581variantorsafearrayindexoutofbounds": 3903,
    "1f0": 3904,
    "7e8": 3905,
    "ed0": 3906,
    "\u2581are": 3907,
    "program": 3908,
    "\u25810x3020": 3909,
    "\u25810x40a6": 3910,
    "\u25810x1211f5c": 3911,
    "\u25810xfeee0096": 3912,
    "\u2581createmutexa": 3913,
    "\u2581shellexecute": 3914,
    "\u2581invalidargument": 3915,
    "\u2581createcompatible": 3916,
    "d43": 3917,
    "\u25810xb7": 3918,
    "\u25810xebad74": 3919,
    "\u25810x1153ef0": 3920,
    "\u25810x1211fb8": 3921,
    "e1d": 3922,
    "ert": 3923,
    "972c": 3924,
    "\u25810x12116c0": 3925,
    "3ce": 3926,
    "75a": 3927,
    "b18": 3928,
    "b78": 3929,
    "943": 3930,
    "dcf": 3931,
    "b880": 3932,
    "f084": 3933,
    "isea": 3934,
    "\u25810xbf": 3935,
    "\u25810x4229": 3936,
    "precisea": 3937,
    "\u2581tlsfree": 3938,
    "\u25810x4af460": 3939,
    "\u2581getsystemtimeprecisea": 3940,
    "ere": 3941,
    "\u25810x40a2": 3942,
    "\u25810x7230": 3943,
    "\u25810x1211790": 3944,
    "ac38": 3945,
    "c8bd": 3946,
    "\u25810x7db0": 3947,
    "\u25810x8815": 3948,
    "\u25810x1211ec8": 3949,
    "\u25810xfeee009a": 3950,
    "580": 3951,
    "a81": 3952,
    "\u25810x5b2": 3953,
    "\u25810x771a": 3954,
    "\u2581getsystemtimepreciseasfiletime": 3955,
    "daa": 3956,
    "\u25810xaf": 3957,
    "\u25810xba": 3958,
    "\u25810x40ac": 3959,
    "\u25810x88c0": 3960,
    "35c": 3961,
    "3cc": 3962,
    "647": 3963,
    "775": 3964,
    "7c9": 3965,
    "fd9": 3966,
    "\u25810x4e5": 3967,
    "\u25810xffd2": 3968,
    "63c": 3969,
    "285c": 3970,
    "\u2581getfileinformationbyhandleex": 3971,
    "00b": 3972,
    "509": 3973,
    "\u25810x7af0": 3974,
    "\u25810x50850": 3975,
    "\u2581mapviewoffile": 3976,
    "301": 3977,
    "eb0": 3978,
    "f1e": 3979,
    "fon": 3980,
    "\u2581res": 3981,
    "\u25810x4692": 3982,
    "allocate": 3983,
    "kg": 3984,
    "\u25819": 3985,
    "98e": 3986,
    "edu": 3987,
    "scroll": 3988,
    "procedu": 3989,
    "\u25810x8410": 3990,
    "\u2581charprevw": 3991,
    "\u2581resum": 3992,
    "trlhandler": 3993,
    "\u2581resumethread": 3994,
    "edit": 3995,
    "af0": 3996,
    "\u25810x43b7": 3997,
    "\u25810x4c50c0": 3998,
    "\u25810x7eab78": 3999,
    "175": 4000,
    "1c8": 4001,
    "\u2581isc": 4002,
    "\u25810xffca": 4003,
    "2c8c": 4004,
    "\u25810xb2": 4005,
    "\u25810x7c90": 4006,
    "\u2581regedit": 4007,
    "1b2": 4008,
    "44d": 4009,
    "962": 4010,
    "fad": 4011,
    "fc6": 4012,
    "pla": 4013,
    "\u25817z2": 4014,
    "\u25817z8": 4015,
    "\u25817z30": 4016,
    "sessionid": 4017,
    "\u25810xfeedf0": 4018,
    "\u25810xfeee009b": 4019,
    "3ba": 4020,
    "7f7": 4021,
    "ac2": 4022,
    "\u25810xde": 4023,
    "\u25810xffc6": 4024,
    "\u2581wtsapi32": 4025,
    "\u2581messageboxw": 4026,
    "695": 4027,
    "955": 4028,
    "aad": 4029,
    "\u25810x44d5": 4030,
    "\u2581gettempfilena": 4031,
    "\u25810x406698": 4032,
    "\u25810xfeee009c": 4033,
    "\u2581openprocess": 4034,
    "917": 4035,
    "d14": 4036,
    "\u25810x5265e": 4037,
    "\u25810x437038": 4038,
    "\u25810x1211d50": 4039,
    "aec": 4040,
    "dater": 4041,
    "\u25810x70a8": 4042,
    "\u25810x7e81": 4043,
    "\u25810x4540b0": 4044,
    "2b0": 4045,
    "srw": 4046,
    "\u25810x8330": 4047,
    "conditionvariablesrw": 4048,
    "\u2581sleepconditionvariablesrw": 4049,
    "bd2": 4050,
    "\u25810x7e74": 4051,
    "\u25810x7e75": 4052,
    "\u25810xffc8": 4053,
    "\u25810x4af478": 4054,
    "\u2581findnextfilew": 4055,
    "a32": 4056,
    "inst": 4057,
    "\u25810x110": 4058,
    "\u2581strcpy": 4059,
    "\u2581getlogicaldrivestring": 4060,
    "80d": 4061,
    "dlg": 4062,
    "\u25810x1b5": 4063,
    "\u25810xfff6": 4064,
    "\u25810x5265f": 4065,
    "\u2581createsemaphorew": 4066,
    "170": 4067,
    "d6c": 4068,
    "f90": 4069,
    "74f7": 4070,
    "94a8": 4071,
    "f7a8": 4072,
    "marta": 4073,
    "\u25810xeb": 4074,
    "\u2581ntmarta": 4075,
    "\u2581defwindowproc": 4076,
    "bcd4": 4077,
    "\u25810x188": 4078,
    "\u25810x8340": 4079,
    "\u25810x20019": 4080,
    "3c5": 4081,
    "bf4": 4082,
    "orgex": 4083,
    "\u25810x10b": 4084,
    "\u25810x1211f3c": 4085,
    "765": 4086,
    "b8e": 4087,
    "b81c": 4088,
    "00220": 4089,
    "\u25810x7f80": 4090,
    "\u25810x455468": 4091,
    "\u25810x455480": 4092,
    "\u25810x2200220": 4093,
    "\u2581getsyscolorbrush": 4094,
    "\u2581initializesrwlock": 4095,
    "\u2581setenvironmentvariablew": 4096,
    "80d8": 4097,
    "bc88": 4098,
    "fore": 4099,
    "\u2581ric": 4100,
    "\u2581the": 4101,
    "\u25810x160": 4102,
    "\u25810x2100": 4103,
    "\u2581riched": 4104,
    "367": 4105,
    "d678": 4106,
    "\u2581getmessagea": 4107,
    "3b9": 4108,
    "\u2581437": 4109,
    "\u25810x7d27": 4110,
    "17c": 4111,
    "d4b": 4112,
    "\u25810x5375": 4113,
    "\u25810x8a80": 4114,
    "\u25810xffec": 4115,
    "\u25810xfffffffc": 4116,
    "923": 4117,
    "a30": 4118,
    "\u25810x7e78": 4119,
    "\u25810x40a92e": 4120,
    "\u25810x40a930": 4121,
    "\u25810x40a932": 4122,
    "\u25810x40a934": 4123,
    "\u25810x40a936": 4124,
    "\u25810x40a938": 4125,
    "\u25810x40a93a": 4126,
    "e42": 4127,
    "\u25810x7e79": 4128,
    "\u25810x1211e98": 4129,
    "\u2581tryacquiresrwlockexclusive": 4130,
    "77e": 4131,
    "35e4": 4132,
    "\u25810xc3": 4133,
    "\u2581filenotfound": 4134,
    "1c2": 4135,
    "1e9": 4136,
    "88d": 4137,
    "\u25810x44ed": 4138,
    "\u25810x40619": 4139,
    "1c6": 4140,
    "270": 4141,
    "3da": 4142,
    "990": 4143,
    "9b0": 4144,
    "\u25810x7e7c": 4145,
    "\u25810x7e7d": 4146,
    "\u25810x44280": 4147,
    "bfc": 4148,
    "3915": 4149,
    "dialog": 4150,
    "\u25810x4020": 4151,
    "\u25810x9020": 4152,
    "\u2581setfileattributesw": 4153,
    "fcd": 4154,
    "\u25810x1d4": 4155,
    "168": 4156,
    "75c": 4157,
    "block": 4158,
    "itthread": 4159,
    "\u2581getlogicalprocessor": 4160,
    "1ea": 4161,
    "3f5": 4162,
    "78e": 4163,
    "be7": 4164,
    "\u2581ie": 4165,
    "12b8": 4166,
    "\u2581sett": 4167,
    "\u25810xffc5": 4168,
    "vironmentstringsa": 4169,
    "3e0": 4170,
    "696": 4171,
    "\u25810x4aa0": 4172,
    "\u25810x7da4": 4173,
    "\u25810x7da5": 4174,
    "\u25810xffab": 4175,
    "\u2581setthreadpreferreduilanguages": 4176,
    "158": 4177,
    "90e": 4178,
    "a64": 4179,
    "e68": 4180,
    "24ac": 4181,
    "9228": 4182,
    "\u25810xffc7": 4183,
    "\u2581flushfile": 4184,
    "\u2581createprocessw": 4185,
    "\u2581flushfilebuffers": 4186,
    "30ec": 4187,
    "lient": 4188,
    "\u2581getmodulehandl": 4189,
    "7c50": 4190,
    "ocket": 4191,
    "datere": 4192,
    "\u25810x7708": 4193,
    "\u2581module": 4194,
    "\u25810x43a4c8": 4195,
    "\u2581getlogicalprocessorinformation": 4196,
    "790": 4197,
    "\u2581evie": 4198,
    "\u2581star": 4199,
    "\u25810x3bc": 4200,
    "\u25810x43b4": 4201,
    "\u25810x45b1": 4202,
    "\u25810xffc9": 4203,
    "\u2581regqueryvalueexa": 4204,
    "14c": 4205,
    "14d": 4206,
    "ccf": 4207,
    "\u2581psc": 4208,
    "\u2581vie": 4209,
    "39fa2": 4210,
    "\u25810xffe8": 4211,
    "\u2581module32": 4212,
    "\u2581getthreadpriority": 4213,
    "382": 4214,
    "3e2": 4215,
    "5bc": 4216,
    "9ce": 4217,
    "b188": 4218,
    "valuew": 4219,
    "\u25810x4e2": 4220,
    "\u25810x1211d7c": 4221,
    "\u25810x1211ddc": 4222,
    "294": 4223,
    "\u25810x42ed": 4224,
    "\u25810xffd3": 4225,
    "758": 4226,
    "aa0": 4227,
    "74cf": 4228,
    "\u2581unmap": 4229,
    "\u25810x44d2": 4230,
    "\u2581unmapviewoffile": 4231,
    "2ca4": 4232,
    "\u25810x461500": 4233,
    "\u2581createprocessa": 4234,
    "350": 4235,
    "93e": 4236,
    "a49": 4237,
    "5eb7": 4238,
    "ansi": 4239,
    "guar": 4240,
    "1ee": 4241,
    "a9c": 4242,
    "dc67": 4243,
    "\u25810xbb": 4244,
    "\u2581extr": 4245,
    "\u25810x40d9": 4246,
    "\u25810x4175": 4247,
    "\u25810x7e84": 4248,
    "\u2581appdata": 4249,
    "\u25810x4c4308": 4250,
    "afe": 4251,
    "pip": 4252,
    "\u2581atex": 4253,
    "\u2581atexit": 4254,
    "processmemory": 4255,
    "309": 4256,
    "7c6": 4257,
    "bcb8": 4258,
    "dec5b": 4259,
    "\u2581wine": 4260,
    "\u25810x7bc": 4261,
    "1a4": 4262,
    "798": 4263,
    "stack": 4264,
    "\u25810x47f0": 4265,
    "\u25810x1210c": 4266,
    "750": 4267,
    "b20": 4268,
    "7137": 4269,
    "69000": 4270,
    "e1000": 4271,
    "\u25810x4095": 4272,
    "\u25810x573c": 4273,
    "\u25810x1211f6c": 4274,
    "\u2581removedirectorya": 4275,
    "126": 4276,
    "36b": 4277,
    "b82": 4278,
    "\u2581qa": 4279,
    "18d5": 4280,
    "3382": 4281,
    "\u25810x40d": 4282,
    "\u25810x42a": 4283,
    "destroy": 4284,
    "9c9": 4285,
    "acl": 4286,
    "b4c": 4287,
    "37ad": 4288,
    "f0ad": 4289,
    "\u25810xdc": 4290,
    "\u25810x428": 4291,
    "\u25810x4b80": 4292,
    "chr": 4293,
    "53a0": 4294,
    "ways": 4295,
    "antee": 4296,
    "\u25810x20a": 4297,
    "\u25810x42eb": 4298,
    "\u25810x5ab0": 4299,
    "\u2581always": 4300,
    "atethread": 4301,
    "guarantee": 4302,
    "\u25810x1211f14": 4303,
    "\u25810x1211f54": 4304,
    "stackguarantee": 4305,
    "\u2581setthreadstackguarantee": 4306,
    "1af": 4307,
    "a448": 4308,
    "ects": 4309,
    "lcid": 4310,
    "class": 4311,
    "\u25810x8ad0": 4312,
    "\u25810xffef": 4313,
    "\u25810x40a3d1": 4314,
    "\u25810x40a3d2": 4315,
    "\u25810x40a3d3": 4316,
    "225": 4317,
    "325": 4318,
    "a80": 4319,
    "bf0": 4320,
    "apis": 4321,
    "\u25810x7b00": 4322,
    "\u25810x7e85": 4323,
    "apisansi": 4324,
    "\u2581arefile": 4325,
    "\u25810x1211438": 4326,
    "\u25810x1211938": 4327,
    "\u2581arefileapisansi": 4328,
    "13d": 4329,
    "esst": 4330,
    "39000": 4331,
    "\u2581memcpy": 4332,
    "processt": 4333,
    "402": 4334,
    "2020": 4335,
    "9640": 4336,
    "a730": 4337,
    "f435": 4338,
    "\u25810x7dc8": 4339,
    "\u25810x7ee000": 4340,
    "\u25810x12119f0": 4341,
    "\u25810x1211e50": 4342,
    "\u2581getcomputernamea": 4343,
    "\u2581wakeconditionvariable": 4344,
    "ly": 4345,
    "a18": 4346,
    "\u2581sub": 4347,
    "\u2581trans": 4348,
    "\u25810x7f8002": 4349,
    "\u25810x7f8010": 4350,
    "\u2581exitthread": 4351,
    "9ac": 4352,
    "erw": 4353,
    "fb6": 4354,
    "35000": 4355,
    "\u25810x40c7": 4356,
    "\u25810xffac": 4357,
    "\u25810x11000": 4358,
    "\u25810xcf0000": 4359,
    "1e0": 4360,
    "a28": 4361,
    "f5000": 4362,
    "\u25810x7e88": 4363,
    "\u25810x4e2de0": 4364,
    "164": 4365,
    "40f": 4366,
    "e92": 4367,
    "ac2d": 4368,
    "\u2581subm": 4369,
    "\u25810x584": 4370,
    "\u25810x40a0": 4371,
    "poolwork": 4372,
    "\u25810x7bc00000": 4373,
    "\u2581sendmessagea": 4374,
    "\u2581submitthread": 4375,
    "\u2581closethreadpoolwork": 4376,
    "\u2581createthreadpoolwork": 4377,
    "\u2581submitthreadpoolwork": 4378,
    "\u2581setfileinformationbyhandle": 4379,
    "git": 4380,
    "\u2581di": 4381,
    "14de": 4382,
    "lead": 4383,
    "\u25810x51": 4384,
    "\u25810x9e": 4385,
    "\u25810x415": 4386,
    "\u25810x7aa": 4387,
    "\u25810x3010": 4388,
    "a3c": 4389,
    "\u2581lib": 4390,
    "\u25810x798": 4391,
    "\u25810x4d80": 4392,
    "\u25810x7df5": 4393,
    "\u25810x1211ad4": 4394,
    "f14": 4395,
    "\u25810x6a": 4396,
    "\u25810x7df4": 4397,
    "24c": 4398,
    "c8a": 4399,
    "pkg": 4400,
    "59f0": 4401,
    "\u25810x14475": 4402,
    "\u2581application": 4403,
    "mbb": 4404,
    "11bc": 4405,
    "fbf8": 4406,
    "icli": 4407,
    "ypea": 4408,
    "\u2581ssp": 4409,
    "\u2581ismbb": 4410,
    "\u25810x4364": 4411,
    "\u2581sspicli": 4412,
    "\u2581ismbblead": 4413,
    "1f8": 4414,
    "654": 4415,
    "f76": 4416,
    "c0f0": 4417,
    "3d000": 4418,
    "\u25810x4533": 4419,
    "\u2581terminatethread": 4420,
    "ty": 4421,
    "6684": 4422,
    "\u2581cqa": 4423,
    "\u2581scqa": 4424,
    "\u25810x59e": 4425,
    "\u2581pscqa": 4426,
    "\u25810x4a40": 4427,
    "\u2581transla": 4428,
    "\u25810x40a3d4": 4429,
    "\u25810x1210e30": 4430,
    "e9d": 4431,
    "f70": 4432,
    "f8b": 4433,
    "has": 4434,
    "11d9": 4435,
    "5234": 4436,
    "f8e7": 4437,
    "\u25810x4a80": 4438,
    "\u25810x1211d4c": 4439,
    "\u2581getdrivetypea": 4440,
    "202": 4441,
    "685": 4442,
    "6d8": 4443,
    "\u2581os": 4444,
    "\u2581sfc": 4445,
    "onsolec": 4446,
    "rl6660d": 4447,
    "\u2581gettext": 4448,
    "af6": 4449,
    "b3c": 4450,
    "74f9": 4451,
    "f4e4": 4452,
    "\u25810xdf": 4453,
    "\u2581peek": 4454,
    "\u25810x97a0": 4455,
    "\u25810x181b70": 4456,
    "\u2581iswindow": 4457,
    "b04": 4458,
    "e76": 4459,
    "1a34": 4460,
    "2c3c": 4461,
    "\u25810x288": 4462,
    "unction": 4463,
    "\u2581charlow": 4464,
    "\u2581getmodulehandleexw": 4465,
    "\u25810xca": 4466,
    "\u25810xe8": 4467,
    "\u25810x4770": 4468,
    "\u25810x107568": 4469,
    "\u2581getstringtyp": 4470,
    "\u2581om": 4471,
    "a064": 4472,
    "\u25810xdb": 4473,
    "\u25810x120f8": 4474,
    "\u2581charpreva": 4475,
    "17e": 4476,
    "66a": 4477,
    "e40": 4478,
    "\u2581dx": 4479,
    "50f4": 4480,
    "e8ca": 4481,
    "popup": 4482,
    "secor": 4483,
    "\u25810x41ce": 4484,
    "\u25810x572c": 4485,
    "\u25810xfff5": 4486,
    "\u25810x169be": 4487,
    "\u2581omsecor": 4488,
    "666": 4489,
    "\u25810x4e00": 4490,
    "\u2581deleteob": 4491,
    "\u2581shgetfileinfoa": 4492,
    "\u2581getsystemdefaultuilanguage": 4493,
    "586": 4494,
    "\u25810xc5": 4495,
    "\u25810xac0": 4496,
    "formatw": 4497,
    "\u25810xffc4": 4498,
    "20e": 4499,
    "40a": 4500,
    "d72": 4501,
    "6088": 4502,
    "da26": 4503,
    "\u25810xf1": 4504,
    "\u25810x7e89": 4505,
    "1d9": 4506,
    "485": 4507,
    "ba6": 4508,
    "1514": 4509,
    "b640": 4510,
    "annot": 4511,
    "\u25810xb5": 4512,
    "\u25810x452": 4513,
    "\u2581program": 4514,
    "\u25810x1211768": 4515,
    "localfiletime": 4516,
    "securitydescriptor": 4517,
    "\u2581filetimetolocalfiletime": 4518,
    "274": 4519,
    "5c7": 4520,
    "96c": 4521,
    "dos": 4522,
    "1f45": 4523,
    "imag": 4524,
    "\u25810x79a0": 4525,
    "\u25810x7a10": 4526,
    "\u25810x90f0": 4527,
    "\u2581getcursor": 4528,
    "\u25810xfeee009d": 4529,
    "1cd8": 4530,
    "1cfd": 4531,
    "\u2581rsa": 4532,
    "\u25810x40f": 4533,
    "\u25810x700": 4534,
    "\u2581rsaenh": 4535,
    "\u2581dispatch": 4536,
    "3ae": 4537,
    "d12": 4538,
    "\u2581dxgi": 4539,
    "\u25810x4be": 4540,
    "\u25810x77000": 4541,
    "\u25810x40a3d5": 4542,
    "\u25810x40a3d6": 4543,
    "\u25810x40a3d7": 4544,
    "\u25810x1211e8c": 4545,
    "\u2581dxgidebug": 4546,
    "\u2581createwindowexw": 4547,
    "\u2581regcreatekeyexa": 4548,
    "bbd": 4549,
    "dd5": 4550,
    "gro": 4551,
    "\u2581lstrcmpia": 4552,
    "\u2581getuserdefaultuilanguage": 4553,
    "448": 4554,
    "909": 4555,
    "b87": 4556,
    "30c4": 4557,
    "4010": 4558,
    "45a2": 4559,
    "\u25810x7f7": 4560,
    "\u25810x4195": 4561,
    "\u25810x8cf0": 4562,
    "536c": 4563,
    "\u25810x41d8": 4564,
    "\u25810x4828": 4565,
    "systemtime": 4566,
    "\u25810x1211cb8": 4567,
    "723": 4568,
    "906": 4569,
    "f96": 4570,
    "d0d4": 4571,
    "a84f1": 4572,
    "longa": 4573,
    "console": 4574,
    "\u25810x12108": 4575,
    "b2c0": 4576,
    "\u2581fre": 4577,
    "\u25810xd3": 4578,
    "\u25810x44c4": 4579,
    "\u25810x100fdd58": 4580,
    "14f": 4581,
    "b27": 4582,
    "bed": 4583,
    "\u2581wr": 4584,
    "eaac": 4585,
    "\u25810xb3": 4586,
    "357": 4587,
    "96d": 4588,
    "ab5": 4589,
    "b66": 4590,
    "f84": 4591,
    "fae": 4592,
    "000c": 4593,
    "\u25810x4d5": 4594,
    "\u25810x84b0": 4595,
    "\u2581registers": 4596,
    "\u2581setscroll": 4597,
    "152": 4598,
    "\u2581op": 4599,
    "\u25810x4227": 4600,
    "\u25810x42ec": 4601,
    "\u25810x771c": 4602,
    "\u25810x7da8": 4603,
    "\u25810x7da9": 4604,
    "\u25810x410acd": 4605,
    "\u25810x410ace": 4606,
    "\u25810x46b188": 4607,
    "\u25810xba8b68": 4608,
    "\u2581lstrcmpw": 4609,
    "\u25810x1211518": 4610,
    "processtoken": 4611,
    "\u2581openprocesstoken": 4612,
    "20be": 4613,
    "3d1cc": 4614,
    "\u25810x200020": 4615,
    "\u2581endpaint": 4616,
    "\u25810x10000000": 4617,
    "\u25810xfeee009e": 4618,
    "\u2581beginpaint": 4619,
    "230": 4620,
    "\u25810xc7": 4621,
    "\u2581setst": 4622,
    "\u25810x4551": 4623,
    "\u2581unlock": 4624,
    "1ae": 4625,
    "1b1": 4626,
    "74e": 4627,
    "\u2581vc": 4628,
    "3d77": 4629,
    "\u25810xd7": 4630,
    "\u25810xffc1": 4631,
    "\u25810x42c0e0": 4632,
    "3cb": 4633,
    "\u25810xe4": 4634,
    "\u25810x40a9": 4635,
    "565": 4636,
    "fbc": 4637,
    "6a68": 4638,
    "\u25810xe2": 4639,
    "\u25810x7dac": 4640,
    "\u25810x7dad": 4641,
    "\u25810x8310": 4642,
    "\u25810x1211e20": 4643,
    "\u2581setstdhandle": 4644,
    "\u2581writeprivateprofile": 4645,
    "\u2581registerwindowmessagea": 4646,
    "6d4": 4647,
    "abd": 4648,
    "b38": 4649,
    "fef": 4650,
    "4e9c": 4651,
    "\u25810x42d0": 4652,
    "\u25810x4b40": 4653,
    "\u25810x7c70": 4654,
    "\u25810x99a0": 4655,
    "\u25810x584d24": 4656,
    "\u25810xfeee009f": 4657,
    "\u2581getvolumeinformationw": 4658,
    "a1a": 4659,
    "a68": 4660,
    "e72": 4661,
    "4090": 4662,
    "93a8": 4663,
    "9448": 4664,
    "ground": 4665,
    "\u25810x7ec4": 4666,
    "\u25810xfff4": 4667,
    "b30": 4668,
    "ec2": 4669,
    "usp": 4670,
    "8082": 4671,
    "ac18": 4672,
    "e794": 4673,
    "f8e4": 4674,
    "\u25810xb6": 4675,
    "6b0": 4676,
    "980": 4677,
    "1a80": 4678,
    "b354": 4679,
    "pipe": 4680,
    "\u25810xe7": 4681,
    "\u25810x402": 4682,
    "\u25810x417": 4683,
    "foreground": 4684,
    "\u25810x1211cd0": 4685,
    "foregroundwindow": 4686,
    "206": 4687,
    "650": 4688,
    "96e": 4689,
    "d10": 4690,
    "\u25810x1211e90": 4691,
    "\u25810xfeee00a1": 4692,
    "\u25810x7d20": 4693,
    "\u2581sprintf": 4694,
    "\u25810x121178c": 4695,
    "\u25810xfeee00a0": 4696,
    "ry": 4697,
    "1c5": 4698,
    "a12": 4699,
    "ook": 4700,
    "9d50": 4701,
    "accel": 4702,
    "\u25810xf4": 4703,
    "\u2581crtdll": 4704,
    "\u25810x42a402": 4705,
    "\u25810x42a410": 4706,
    "\u25810xfeee00a2": 4707,
    "\u2581findwindowa": 4708,
    "fy": 4709,
    "27e": 4710,
    "34e": 4711,
    "381": 4712,
    "5b0": 4713,
    "a83": 4714,
    "e7e7": 4715,
    "\u25810x7c40": 4716,
    "\u25810xffc0": 4717,
    "\u25810x454bb8": 4718,
    "922": 4719,
    "f15": 4720,
    "fdf": 4721,
    "fed": 4722,
    "tem": 4723,
    "drag": 4724,
    "\u2581writ": 4725,
    "\u25810x4609": 4726,
    "\u25810x567a88": 4727,
    "\u25810xfeedf000": 4728,
    "20c": 4729,
    "dc8": 4730,
    "5014": 4731,
    "da1c": 4732,
    "e1d4": 4733,
    "f844": 4734,
    "ec97c": 4735,
    "ordacl": 4736,
    "\u2581getwindowsdirectoryw": 4737,
    "securitydescriptordacl": 4738,
    "2c2": 4739,
    "686": 4740,
    "786": 4741,
    "936": 4742,
    "htt": 4743,
    "90e4": 4744,
    "e5f0": 4745,
    "\u2581inf": 4746,
    "12f88": 4747,
    "\u25810x3f28": 4748,
    "\u25810x40b5": 4749,
    "\u25810x41c4": 4750,
    "\u2581globalf": 4751,
    "\u25810x12115c4": 4752,
    "\u2581getusernamea": 4753,
    "7b0": 4754,
    "9fe": 4755,
    "11b8": 4756,
    "\u25810xb9": 4757,
    "\u25810x1076": 4758,
    "\u25810x40ca": 4759,
    "\u25810x7460": 4760,
    "\u25810xffdf": 4761,
    "\u25810x12118f8": 4762,
    "\u2581filetimetosystemtime": 4763,
    "10d": 4764,
    "322": 4765,
    "3b6": 4766,
    "514": 4767,
    "bb5": 4768,
    "1800": 4769,
    "\u25810x4030": 4770,
    "\u25810x40aa": 4771,
    "\u2581isctype": 4772,
    "\u25810x537500": 4773,
    "\u25810x1210e34": 4774,
    "\u2581createfon": 4775,
    "15f": 4776,
    "1be": 4777,
    "21a": 4778,
    "326": 4779,
    "745": 4780,
    "935": 4781,
    "1580": 4782,
    "26bd": 4783,
    "49c0": 4784,
    "regi": 4785,
    "fc360": 4786,
    "\u25810x3c0": 4787,
    "\u25810x606": 4788,
    "\u2581check": 4789,
    "\u25810x409aa4": 4790,
    "\u2581allocate": 4791,
    "\u25810x1211784": 4792,
    "\u25810x1211a30": 4793,
    "\u2581loadiconw": 4794,
    "\u2581comparestringa": 4795,
    "64c6": 4796,
    "ac68": 4797,
    "esid": 4798,
    "\u25810xd5": 4799,
    "\u25810x7ec5": 4800,
    "\u25810x350b8": 4801,
    "\u25810x409411": 4802,
    "\u25810x409412": 4803,
    "\u25810x409413": 4804,
    "\u25810x409414": 4805,
    "\u25810x409415": 4806,
    "\u25810x409416": 4807,
    "\u25810x409417": 4808,
    "\u25810x409aa5": 4809,
    "\u25810x40a3e9": 4810,
    "\u25810x40a3ea": 4811,
    "\u25810x40a3eb": 4812,
    "\u25810x40a3ec": 4813,
    "\u25810x40a3ed": 4814,
    "\u25810x40a3ee": 4815,
    "\u25810x40a3ef": 4816,
    "\u25810x41f6c0": 4817,
    "\u25810x41f750": 4818,
    "\u25810x41f780": 4819,
    "\u2581selectob": 4820,
    "\u25810x1000130": 4821,
    "\u25810x1211ea0": 4822,
    "\u25810x1211ed8": 4823,
    "\u25810xfeee00a3": 4824,
    "andinitializ": 4825,
    "andinitializesid": 4826,
    "\u2581allocateandinitializesid": 4827,
    "l6660drl6660drl6660drl6660drl6660drl6660drl6660drl6660drl6660": 4828,
    "005": 4829,
    "9a4": 4830,
    "\u25810xed": 4831,
    "\u2581vers": 4832,
    "\u25810x208": 4833,
    "\u25810x7f0": 4834,
    "\u25810x12117ec": 4835,
    "\u2581regsetvalueexa": 4836,
    "34d": 4837,
    "609": 4838,
    "\u2581sa": 4839,
    "bfba": 4840,
    "dc48": 4841,
    "\u25810xd4": 4842,
    "\u25810x40e": 4843,
    "\u25810x7100": 4844,
    "\u25810x7b80": 4845,
    "\u25810x7ed0": 4846,
    "\u25810xffad": 4847,
    "\u25810xffeb": 4848,
    "prop": 4849,
    "\u2581ldr": 4850,
    "40284": 4851,
    "\u25810xffd0": 4852,
    "\u25810x2840284": 4853,
    "ld": 4854,
    "no": 4855,
    "880": 4856,
    "b74": 4857,
    "b7e": 4858,
    "7064": 4859,
    "7675": 4860,
    "ookup": 4861,
    "\u25810x45d3": 4862,
    "\u25810x7dc0": 4863,
    "\u25810x9030": 4864,
    "\u2581lookup": 4865,
    "\u25810x1211ed4": 4866,
    "154": 4867,
    "tive": 4868,
    "\u25810xf2": 4869,
    "\u25810x22e": 4870,
    "runtime": 4871,
    "\u25810x4780": 4872,
    "\u2581setbkcolor": 4873,
    "198": 4874,
    "1cb0": 4875,
    "\u25810xec": 4876,
    "datoma": 4877,
    "\u25810xffc2": 4878,
    "procedure": 4879,
    "\u25810x437800": 4880,
    "\u25810x1211eb4": 4881,
    "\u25810xfeee00bc": 4882,
    "b5a": 4883,
    "b80": 4884,
    "0048": 4885,
    "5410": 4886,
    "7a00": 4887,
    "\u25810xc2": 4888,
    "\u25810x71a0": 4889,
    "\u25810x8c60": 4890,
    "\u2581onexit": 4891,
    "\u25810x10021f": 4892,
    "\u25810xfeee00a4": 4893,
    "398": 4894,
    "752": 4895,
    "996": 4896,
    "9f40": 4897,
    "30000": 4898,
    "a5000": 4899,
    "bd000": 4900,
    "\u2581opens": 4901,
    "\u25810x7890": 4902,
    "\u25810x78c0": 4903,
    "\u25810xa264": 4904,
    "\u2581append": 4905,
    "\u25810xfeee00a5": 4906,
    "\u2581translatem": 4907,
    "d80": 4908,
    "fc5": 4909,
    "\u25810xda": 4910,
    "\u25810xee": 4911,
    "\u25810xef": 4912,
    "\u25810x500": 4913,
    "\u25810x7ba": 4914,
    "\u25810x435024": 4915,
    "\u25810x1211d60": 4916,
    "7b7": 4917,
    "929": 4918,
    "2482": 4919,
    "b028": 4920,
    "d3e0": 4921,
    "f004": 4922,
    "lipr": 4923,
    "a9ef0": 4924,
    "\u25810x53e0": 4925,
    "\u2581geticon": 4926,
    "eresource": 4927,
    "\u25810x435026": 4928,
    "\u25810x435032": 4929,
    "\u25810x4e39b4": 4930,
    "\u2581riched20": 4931,
    "\u25810x1211d8c": 4932,
    "\u2581tsldrl666": 4933,
    "ervicectrlhandler": 4934,
    "\u2581registerservicectrlhandler": 4935,
    "162": 4936,
    "\u25810x436": 4937,
    "\u25810x44c": 4938,
    "\u25810x488": 4939,
    "\u2581winhtt": 4940,
    "runtime140": 4941,
    "\u25810x7ba00000": 4942,
    "\u2581freeresource": 4943,
    "\u2581vcruntime140": 4944,
    "de4": 4945,
    "ptr": 4946,
    "1576": 4947,
    "a088": 4948,
    "fc54": 4949,
    "outa": 4950,
    "tons": 4951,
    "19000": 4952,
    "croll": 4953,
    "\u25810x85d0": 4954,
    "\u25810x169b7": 4955,
    "\u2581getscroll": 4956,
    "7c1": 4957,
    "2468": 4958,
    "\u25810x41c": 4959,
    "16c": 4960,
    "adm": 4961,
    "d98": 4962,
    "dib": 4963,
    "log": 4964,
    "98c0": 4965,
    "b47c": 4966,
    "ec80": 4967,
    "timet": 4968,
    "\u25810x74d0": 4969,
    "\u25810xffe9": 4970,
    "\u25810x3f4000": 4971,
    "\u25810x47ee50": 4972,
    "\u25810x566f18": 4973,
    "\u25810xfeee00a6": 4974,
    "\u25810xfeee00a7": 4975,
    "7f2": 4976,
    "6c10": 4977,
    "79000": 4978,
    "\u25810xfa": 4979,
    "\u25810x409e": 4980,
    "\u25810x1211994": 4981,
    "\u25810x1211ef0": 4982,
    "\u25810xfeee00a8": 4983,
    "\u2581getcursorpos": 4984,
    "ore": 4985,
    "004c": 4986,
    "9880": 4987,
    "anag": 4988,
    "eb80": 4989,
    "fc50": 4990,
    "\u25810xd6": 4991,
    "\u25810xfe": 4992,
    "\u25810x40b9": 4993,
    "\u25810x7713": 4994,
    "\u2581verset": 4995,
    "\u25810x435403": 4996,
    "\u25810x435404": 4997,
    "\u25810x435405": 4998,
    "\u25810x435406": 4999,
    "\u25810xfeee00a9": 5000,
    "conditionmask": 5001,
    "\u2581versetconditionmask": 5002,
    "b6a": 5003,
    "\u2581ac": 5004,
    "3818": 5005,
    "bce6": 5006,
    "75000": 5007,
    "reate": 5008,
    "\u25810x3cc": 5009,
    "\u25810x7db1": 5010,
    "\u2581systemtimet": 5011,
    "165": 5012,
    "22c": 5013,
    "7dd": 5014,
    "901": 5015,
    "lid": 5016,
    "19c4": 5017,
    "1f1d": 5018,
    "68c8": 5019,
    "6a31": 5020,
    "rand": 5021,
    "\u25810x40c4": 5022,
    "\u25810x4222": 5023,
    "\u2581localrealloc": 5024,
    "\u2581defwindowproca": 5025,
    "389": 5026,
    "5c5": 5027,
    "f34": 5028,
    "3e3d": 5029,
    "keya": 5030,
    "55000": 5031,
    "70000": 5032,
    "\u25810xf7": 5033,
    "\u25810x435407": 5034,
    "dateresourcea": 5035,
    "\u2581releasemutex": 5036,
    "\u2581formatmessagea": 5037,
    "b0cbc": 5038,
    "textw": 5039,
    "\u25810x424": 5040,
    "\u2581opent": 5041,
    "\u25810x3820": 5042,
    "\u25810x429000": 5043,
    "\u25810xfeee00aa": 5044,
    "\u2581openthread": 5045,
    "\u2581regsetvalueexw": 5046,
    "\u2581setfileinformationbyhandlew": 5047,
    "\u2581getfileinformationbyhandleexw": 5048,
    "665": 5049,
    "e2c": 5050,
    "f54": 5051,
    "\u2581x0": 5052,
    "\u25810x9c8": 5053,
    "\u25810xa26": 5054,
    "\u25810x120f": 5055,
    "\u25810x180c": 5056,
    "\u25810xf874": 5057,
    "\u25810x54a4c4": 5058,
    "\u25810x1210dec": 5059,
    "\u25810x77000723": 5060,
    "770": 5061,
    "\u2581he": 5062,
    "5cc4": 5063,
    "845a": 5064,
    "bc20": 5065,
    "bec4": 5066,
    "hash": 5067,
    "clipboard": 5068,
    "\u25810x435408": 5069,
    "\u25810x435409": 5070,
    "\u25810x43540a": 5071,
    "\u25810x43540b": 5072,
    "\u25810x43540c": 5073,
    "\u2581globalad": 5074,
    "\u25810xfeee00ab": 5075,
    "\u25810xfeee00ac": 5076,
    "\u2581initialize": 5077,
    "395": 5078,
    "7a5": 5079,
    "inki": 5080,
    "\u25810xe6": 5081,
    "ce0000": 5082,
    "\u25810x40e9": 5083,
    "\u25810x7500": 5084,
    "\u25810x7cc0": 5085,
    "\u25810x121189c": 5086,
    "\u25810xfeee00ae": 5087,
    "94a": 5088,
    "ddf": 5089,
    "f5c": 5090,
    "fox": 5091,
    "fd70": 5092,
    "b5000": 5093,
    "ualfox": 5094,
    "\u25810x7620": 5095,
    "\u25810x7db4": 5096,
    "\u25810x7db5": 5097,
    "\u25810x120e6": 5098,
    "\u25810x40a5bc": 5099,
    "\u25810x43a4b0": 5100,
    "\u25810xfeee00ad": 5101,
    "\u2581freeenvironmentstringsa": 5102,
    "172": 5103,
    "2c1": 5104,
    "d54": 5105,
    "tsb": 5106,
    "9e00": 5107,
    "de23": 5108,
    "9d000": 5109,
    "datet": 5110,
    "latsb": 5111,
    "\u25810xe3": 5112,
    "\u25810xffde": 5113,
    "\u25810x509e4": 5114,
    "\u25810x430880": 5115,
    "\u25810x43540d": 5116,
    "\u25810x44f910": 5117,
    "\u2581movefilew": 5118,
    "py": 5119,
    "2d4": 5120,
    "66d": 5121,
    "7be": 5122,
    "2068": 5123,
    "b820": 5124,
    "etch": 5125,
    "\u25810x416": 5126,
    "\u25810xffc3": 5127,
    "1b5": 5128,
    "238": 5129,
    "9504": 5130,
    "febc": 5131,
    "\u25810xcf": 5132,
    "\u25810x4b6": 5133,
    "\u25810xcccc": 5134,
    "\u25810xffea": 5135,
    "\u25810x1211bfc": 5136,
    "39c": 5137,
    "a0000": 5138,
    "\u25810x47d0": 5139,
    "\u25810x7070": 5140,
    "\u25810x7ef0": 5141,
    "\u25810x411c10": 5142,
    "\u25810x43540e": 5143,
    "\u25810x43540f": 5144,
    "\u25810x44d250": 5145,
    "eab8": 5146,
    "\u25810x544": 5147,
    "\u25810x7f10": 5148,
    "\u25810x9010": 5149,
    "\u25810xffae": 5150,
    "9df": 5151,
    "aba": 5152,
    "40bc": 5153,
    "f066": 5154,
    "92000": 5155,
    "lorer": 5156,
    "\u2581work": 5157,
    "\u25810x602": 5158,
    "\u25810x437a": 5159,
    "\u2581getconsolemode": 5160,
    "aw": 5161,
    "1a8": 5162,
    "a24": 5163,
    "dd0": 5164,
    "78a2": 5165,
    "d8c8": 5166,
    "\u2581add": 5167,
    "\u2581hels": 5168,
    "\u25810x3810": 5169,
    "\u25810x7e30": 5170,
    "\u2581helsinki": 5171,
    "\u2581heapdestroy": 5172,
    "\u2581getuserdefaultlcid": 5173,
    "\u2581initializesecuritydescriptor": 5174,
    "3d6": 5175,
    "ba30": 5176,
    "\u2581ver": 5177,
    "b0000": 5178,
    "param": 5179,
    "sourc": 5180,
    "\u25810x474": 5181,
    "\u25810x4235": 5182,
    "\u25810x71c0": 5183,
    "imetofiletime": 5184,
    "bb0": 5185,
    "e708": 5186,
    "90000": 5187,
    "\u25810x7f4": 5188,
    "\u25810x72d8": 5189,
    "inmodule": 5190,
    "\u25810x22802": 5191,
    "\u2581charlower": 5192,
    "\u2581getsystemdefault": 5193,
    "60e4": 5194,
    "15000": 5195,
    "pleob": 5196,
    "\u25810xdd": 5197,
    "\u25810x418": 5198,
    "\u25810x539": 5199,
    "aterect": 5200,
    "\u25810x9810": 5201,
    "\u2581starts": 5202,
    "formulti": 5203,
    "\u25810x44000": 5204,
    "\u2581settimer": 5205,
    "formultipleob": 5206,
    "379": 5207,
    "68b": 5208,
    "b6c": 5209,
    "dd8": 5210,
    "f9f": 5211,
    "izn": 5212,
    "16a6": 5213,
    "6c3c": 5214,
    "fd000": 5215,
    "iznadm": 5216,
    "\u25810x4990": 5217,
    "\u25810x57eb": 5218,
    "\u25810x70e0": 5219,
    "\u2581environ": 5220,
    "\u25810x421030": 5221,
    "\u25810x7eabc0": 5222,
    "\u2581triznadm": 5223,
    "386": 5224,
    "740": 5225,
    "108a": 5226,
    "3b594": 5227,
    "98527": 5228,
    "\u25810x7a4": 5229,
    "\u25810x3f24": 5230,
    "\u25810x4680": 5231,
    "\u2581ldrget": 5232,
    "\u25810x1211e38": 5233,
    "\u2581setfiletime": 5234,
    "procedureaddress": 5235,
    "\u2581ldrgetprocedureaddress": 5236,
    "1bf": 5237,
    "628": 5238,
    "785": 5239,
    "1a64": 5240,
    "3a20": 5241,
    "acf4": 5242,
    "eatom": 5243,
    "\u25810xcb": 5244,
    "\u25810xe9": 5245,
    "apture": 5246,
    "\u25810x573": 5247,
    "\u25810xffd8": 5248,
    "\u25810x120de": 5249,
    "\u25810x120f5": 5250,
    "\u25810x6ce0000": 5251,
    "\u25810xfeee00b1": 5252,
    "\u2581getfullnamea": 5253,
    "vm": 5254,
    "135": 5255,
    "fa000": 5256,
    "\u25810xb1": 5257,
    "\u25810x40f0": 5258,
    "\u25810x7db9": 5259,
    "\u2581enable": 5260,
    "\u2581getmenu": 5261,
    "\u25810x3020302": 5262,
    "\u25810xfeee00af": 5263,
    "\u25810xfeee00b0": 5264,
    "212": 5265,
    "529": 5266,
    "5c9": 5267,
    "90b": 5268,
    "\u2581ro": 5269,
    "24c7": 5270,
    "5560": 5271,
    "ed60": 5272,
    "indi": 5273,
    "move": 5274,
    "\u25810x4b4": 5275,
    "\u25810x7db8": 5276,
    "\u25810xffdc": 5277,
    "\u25810x3f3000": 5278,
    "\u25810x1210f35": 5279,
    "ge": 5280,
    "116": 5281,
    "f1f": 5282,
    "fdb": 5283,
    "3cd8": 5284,
    "ffcb": 5285,
    "solid": 5286,
    "upper": 5287,
    "\u25810x44f": 5288,
    "\u25810x412d": 5289,
    "\u25810xffd5": 5290,
    "\u25810x42992": 5291,
    "\u25810x54000": 5292,
    "\u25810x40a230": 5293,
    "aaaaaaaaaaaaaaaa": 5294,
    "2ed": 5295,
    "3f20": 5296,
    "b738": 5297,
    "cc000": 5298,
    "ectex": 5299,
    "\u25810xce": 5300,
    "\u25810x4e80": 5301,
    "\u25810x5357": 5302,
    "\u25810x7ec8": 5303,
    "\u2581extrac": 5304,
    "\u25810x40f6a8": 5305,
    "23d": 5306,
    "bfa": 5307,
    "b1d0": 5308,
    "ce11": 5309,
    "idto": 5310,
    "91000": 5311,
    "\u25810xf9": 5312,
    "\u25810x7b60": 5313,
    "\u25810xffaf": 5314,
    "\u25810x4093a4": 5315,
    "\u25810x4093ac": 5316,
    "\u25810x40a538": 5317,
    "\u25810x421708": 5318,
    "\u25810x44c280": 5319,
    "\u25810x44d500": 5320,
    "\u25810x566b14": 5321,
    "\u25810xfeedf200": 5322,
    "258": 5323,
    "a73": 5324,
    "b4f9": 5325,
    "bc97": 5326,
    "\u25810xc6": 5327,
    "active": 5328,
    "\u25810x41d": 5329,
    "\u25810x636": 5330,
    "\u25810x7e0": 5331,
    "\u25810x99d0": 5332,
    "\u25810xffd4": 5333,
    "ce5": 5334,
    "76c8": 5335,
    "ocus": 5336,
    "187f4": 5337,
    "\u25810xf6": 5338,
    "\u25810x8c70": 5339,
    "\u25810x3010301": 5340,
    "\u25810xfeee00b4": 5341,
    "\u2581getmenuinfo": 5342,
    "555": 5343,
    "7d8": 5344,
    "bd5": 5345,
    "acdf": 5346,
    "lang": 5347,
    "\u25810xf3": 5348,
    "\u25810x1e4": 5349,
    "\u25810x444": 5350,
    "\u25810x7cb0": 5351,
    "\u25810x8b50": 5352,
    "\u2581settext": 5353,
    "\u25810x4c32c0": 5354,
    "\u25810x1211cec": 5355,
    "\u25810xfeee00b2": 5356,
    "\u25810xfeee00b3": 5357,
    "\u2581coinitialize": 5358,
    "\u2581shellexecutew": 5359,
    "2b4": 5360,
    "345": 5361,
    "5dd": 5362,
    "95b": 5363,
    "d3d": 5364,
    "eae": 5365,
    "205c": 5366,
    "28de": 5367,
    "9384": 5368,
    "b870": 5369,
    "erat": 5370,
    "place": 5371,
    "\u25810xffee": 5372,
    "\u25810x4e300": 5373,
    "\u25810x40a548": 5374,
    "\u25810x1211e74": 5375,
    "\u2581formatmessagew": 5376,
    "\u2581setsecuritydescriptordacl": 5377,
    "243": 5378,
    "c0c": 5379,
    "faa": 5380,
    "fe5": 5381,
    "ioc": 5382,
    "1960": 5383,
    "3c28": 5384,
    "d310": 5385,
    "down": 5386,
    "e600": 5387,
    "focus": 5388,
    "\u25810xd9": 5389,
    "direct": 5390,
    "langid": 5391,
    "\u25810x100b": 5392,
    "\u25810x40ea": 5393,
    "indirect": 5394,
    "accelerat": 5395,
    "\u25810x1211118": 5396,
    "\u25810x1211cbc": 5397,
    "\u25810x1211d24": 5398,
    "\u25810xfeee00b5": 5399,
    "\u2581getfullnamew": 5400,
    "6a0": 5401,
    "7e7": 5402,
    "\u2581fa": 5403,
    "801d": 5404,
    "\u2581int": 5405,
    "\u25810xd1": 5406,
    "\u25810xfb": 5407,
    "locate": 5408,
    "\u25810x562": 5409,
    "\u2581interne": 5410,
    "\u2581dllonexit": 5411,
    "\u2581getmessagew": 5412,
    "\u2581writeconsole": 5413,
    "b5b": 5414,
    "2409": 5415,
    "atom": 5416,
    "c06c": 5417,
    "ctrl": 5418,
    "\u25810x3f6": 5419,
    "\u25810x42c": 5420,
    "\u25810x8f20": 5421,
    "\u25810x97b0": 5422,
    "\u2581gdiplus": 5423,
    "\u25810x5265c28": 5424,
    "38f": 5425,
    "793": 5426,
    "a76": 5427,
    "b374": 5428,
    "f86b": 5429,
    "d0000": 5430,
    "\u25810xfd": 5431,
    "\u25810x6f6": 5432,
    "\u25810x4450": 5433,
    "\u25810x4ad0": 5434,
    "\u25810x1211cf8": 5435,
    "964": 5436,
    "a4d3": 5437,
    "b4ad": 5438,
    "\u25810xc9": 5439,
    "\u25810x164": 5440,
    "\u2581getob": 5441,
    "\u25810x4150": 5442,
    "\u25810x47ed": 5443,
    "\u25810x7310": 5444,
    "\u25810xffdd": 5445,
    "\u2581cannot": 5446,
    "\u2581explorer": 5447,
    "\u25810x1211684": 5448,
    "\u25810x1211954": 5449,
    "\u2581getlogicaldrivestringsa": 5450,
    "1e6": 5451,
    "287": 5452,
    "7e0": 5453,
    "997": 5454,
    "bf5": 5455,
    "3f00": 5456,
    "84ee": 5457,
    "1d000": 5458,
    "ad000": 5459,
    "\u25810x47f": 5460,
    "nection": 5461,
    "\u25810x412c": 5462,
    "\u25810x42e9": 5463,
    "\u25810x7f02": 5464,
    "\u25810xfff3": 5465,
    "\u25810x508d0": 5466,
    "solidbrush": 5467,
    "\u25810xfeee00b7": 5468,
    "\u2581createsolidbrush": 5469,
    "390": 5470,
    "app": 5471,
    "bde": 5472,
    "5118": 5473,
    "dfa0": 5474,
    "\u25810x7770": 5475,
    "\u25810x509a8": 5476,
    "1cd": 5477,
    "73e": 5478,
    "94d": 5479,
    "afd": 5480,
    "f24": 5481,
    "3844": 5482,
    "7519": 5483,
    "bccc": 5484,
    "f538": 5485,
    "\u2581bit": 5486,
    "7d000": 5487,
    "dc1b4": 5488,
    "\u2581susp": 5489,
    "\u25810x475": 5490,
    "\u25810x5ab": 5491,
    "\u2581srand": 5492,
    "\u25810x6900": 5493,
    "\u25810x6f00": 5494,
    "\u25810x7380": 5495,
    "\u25810x75b0": 5496,
    "\u25810x7ec9": 5497,
    "\u25810x6970a0": 5498,
    "\u25810x1211e0c": 5499,
    "\u25810x1211f0c": 5500,
    "\u25810xfeee00b8": 5501,
    "\u2581setwindowpos": 5502,
    "332": 5503,
    "3d7": 5504,
    "7f6": 5505,
    "9d5": 5506,
    "da34": 5507,
    "ffa0": 5508,
    "\u25810xe5": 5509,
    "context": 5510,
    "\u25810x7541": 5511,
    "\u2581calloc": 5512,
    "\u25810x572c10": 5513,
    "\u25810xfeee00b6": 5514,
    "ph": 5515,
    "914": 5516,
    "d00": 5517,
    "ded": 5518,
    "506c": 5519,
    "7540": 5520,
    "e445": 5521,
    "visi": 5522,
    "atoma": 5523,
    "\u25810xc1": 5524,
    "\u25810x232": 5525,
    "\u25810x8430": 5526,
    "tindirect": 5527,
    "\u25810x43a480": 5528,
    "\u25810xfeee00b9": 5529,
    "\u2581createfontindirect": 5530,
    "13e": 5531,
    "b56": 5532,
    "cod": 5533,
    "e94": 5534,
    "wer": 5535,
    "3130": 5536,
    "649d": 5537,
    "a6b4": 5538,
    "e860": 5539,
    "f078": 5540,
    "\u25810x537": 5541,
    "\u25810xbca": 5542,
    "\u25810x4370": 5543,
    "\u25810x7edc": 5544,
    "deleteatom": 5545,
    "codeprocess": 5546,
    "\u2581globaldeleteatom": 5547,
    "\u2581getexitcodeprocess": 5548,
    "2w": 5549,
    "f0b": 5550,
    "b6b0": 5551,
    "f9000": 5552,
    "named": 5553,
    "\u25810xe1": 5554,
    "dibits": 5555,
    "\u25810x4cf": 5556,
    "\u25810xffdb": 5557,
    "\u2581device": 5558,
    "\u25810x42c070": 5559,
    "\u25810x42c0a8": 5560,
    "\u25810x1211e94": 5561,
    "\u25810x1211fb0": 5562,
    "\u25810xfeee00bb": 5563,
    "\u258150": 5564,
    "7d24": 5565,
    "bd64": 5566,
    "d0d6": 5567,
    "dddc": 5568,
    "f638": 5569,
    "\u25810xf5": 5570,
    "\u25810x10f": 5571,
    "\u25810x411": 5572,
    "\u25810x4e3": 5573,
    "\u25810x422a": 5574,
    "\u25810x8c90": 5575,
    "\u25810x8cb0": 5576,
    "\u25810x8d60": 5577,
    "\u25810xff90": 5578,
    "\u2581internet": 5579,
    "\u25810x1210ed0": 5580,
    "\u2581regopenkeya": 5581,
    "55c": 5582,
    "630": 5583,
    "c06": 5584,
    "2998": 5585,
    "75ce": 5586,
    "\u2581cpp": 5587,
    "\u2581mpr": 5588,
    "anden": 5589,
    "\u25810x3ac": 5590,
    "\u25810x47a": 5591,
    "\u25810x7711": 5592,
    "\u25810x771b": 5593,
    "debughook": 5594,
    "\u25810x121192f": 5595,
    "\u25810x1211cfc": 5596,
    "\u2581cppdebughook": 5597,
    "\u2581regqueryvalueexw": 5598,
    "570": 5599,
    "bff": 5600,
    "d7c": 5601,
    "9042": 5602,
    "9fb0": 5603,
    "e8ce": 5604,
    "ssoc": 5605,
    "connect": 5606,
    "\u25810x415e": 5607,
    "\u25810x41ab": 5608,
    "\u25810x4368": 5609,
    "\u25810x8aa0": 5610,
    "\u25810x99e0": 5611,
    "\u2581suspend": 5612,
    "\u25810x42ff40": 5613,
    "\u25810x121185c": 5614,
    "\u25810x1211d14": 5615,
    "\u2581copyfilew": 5616,
    "\u2581regenumkey": 5617,
    "\u2581suspendthread": 5618,
    "\u2581writeconsolew": 5619,
    "157": 5620,
    "311": 5621,
    "aa6": 5622,
    "b91": 5623,
    "bb8": 5624,
    "d73": 5625,
    "006c": 5626,
    "e8c1": 5627,
    "edec": 5628,
    "20000": 5629,
    "specw": 5630,
    "located": 5631,
    "\u25810x40d7": 5632,
    "\u25810x457c": 5633,
    "\u25810x5718": 5634,
    "\u2581appendw": 5635,
    "\u2581freesid": 5636,
    "belocated": 5637,
    "\u2581expanden": 5638,
    "\u25810xfeee00ba": 5639,
    "\u25810xfeee00d7": 5640,
    "589": 5641,
    "78a": 5642,
    "a29": 5643,
    "f2a": 5644,
    "ort": 5645,
    "5614": 5646,
    "7447d": 5647,
    "\u25810x3f22": 5648,
    "\u25810x41e9": 5649,
    "\u25810x452b": 5650,
    "\u25810x4a20": 5651,
    "\u25810x7dbc": 5652,
    "\u25810x7dbd": 5653,
    "\u25810x7e20": 5654,
    "\u25810xfeee00bd": 5655,
    "\u2581translatemessage": 5656,
    "sh": 5657,
    "1a6": 5658,
    "245": 5659,
    "7fd": 5660,
    "ows": 5661,
    "w32": 5662,
    "6c40": 5663,
    "7819": 5664,
    "b1e0": 5665,
    "64a30": 5666,
    "ssoci": 5667,
    "\u25810x8c30": 5668,
    "\u25810xffed": 5669,
    "\u25810x6d006c": 5670,
    "\u25810x6f006e": 5671,
    "\u25810x710070": 5672,
    "\u25810x770076": 5673,
    "\u25810x790078": 5674,
    "\u25810x1211e88": 5675,
    "\u25810xfeee00be": 5676,
    "\u2581removefile": 5677,
    "\u2581invalidaterect": 5678,
    "9f8": 5679,
    "b082": 5680,
    "cc58": 5681,
    "d108": 5682,
    "95000": 5683,
    "array": 5684,
    "b006a": 5685,
    "extex": 5686,
    "\u25810x38c": 5687,
    "\u2581query": 5688,
    "etchblt": 5689,
    "\u25810x4444": 5690,
    "\u25810x44c9": 5691,
    "\u25810x5a45": 5692,
    "\u25810x12112": 5693,
    "\u25810x53000": 5694,
    "nection2w": 5695,
    "\u25810x690068": 5696,
    "\u25810x6b006a": 5697,
    "\u25810x730072": 5698,
    "\u25810x750074": 5699,
    "\u25810x7b007a": 5700,
    "\u25810x7d007c": 5701,
    "\u25810x7f007e": 5702,
    "mt": 5703,
    "3dc": 5704,
    "bd1": 5705,
    "e89": 5706,
    "de7f": 5707,
    "def0": 5708,
    "ffcdd": 5709,
    "\u25810x18cc": 5710,
    "\u25810x7b98": 5711,
    "\u25810xffd1": 5712,
    "\u25810xffda": 5713,
    "\u2581msvcr71": 5714,
    "\u25810x1211d44": 5715,
    "\u2581getmenuitem": 5716,
    "\u2581settextcolor": 5717,
    "\u2581removefilespecw": 5718,
    "ms": 5719,
    "105": 5720,
    "76b": 5721,
    "ce7": 5722,
    "f97": 5723,
    "\u2581ma": 5724,
    "10a4": 5725,
    "18ff": 5726,
    "amet": 5727,
    "\u25810xe00": 5728,
    "visible": 5729,
    "\u25810x42ad": 5730,
    "\u25810x7e8c": 5731,
    "\u2581flatsb": 5732,
    "ofiletime": 5733,
    "\u2581deletedc": 5734,
    "\u25810x1211584": 5735,
    "\u25810xfeee00bf": 5736,
    "\u2581lookupprivileg": 5737,
    "\u2581systemtimetofiletime": 5738,
    "1cf": 5739,
    "53c": 5740,
    "91a": 5741,
    "a5e": 5742,
    "ec5": 5743,
    "gcc": 5744,
    "3880": 5745,
    "3c70": 5746,
    "52e8": 5747,
    "6968": 5748,
    "70e4": 5749,
    "84f2": 5750,
    "b3f0": 5751,
    "b850": 5752,
    "bd74": 5753,
    "c055": 5754,
    "\u2581fill": 5755,
    "ervicew": 5756,
    "\u25810x3f26": 5757,
    "\u2581libgcc": 5758,
    "\u25810x4153a0": 5759,
    "\u25810x1210ed8": 5760,
    "7de": 5761,
    "13e8": 5762,
    "3414": 5763,
    "3ea5": 5764,
    "aaf6": 5765,
    "bb18": 5766,
    "c000": 5767,
    "e4c0": 5768,
    "\u25810x358": 5769,
    "\u25810x5b5": 5770,
    "\u25810x605": 5771,
    "\u25810x17d4": 5772,
    "\u25810x7eac": 5773,
    "\u25810x169bd": 5774,
    "\u25810x40a3f0": 5775,
    "\u25810x1211de8": 5776,
    "\u2581charupper": 5777,
    "\u25810xfeee00c0": 5778,
    "\u2581getsystemtimes": 5779,
    "5c2": 5780,
    "d27": 5781,
    "53b0": 5782,
    "69bc": 5783,
    "atedi": 5784,
    "empty": 5785,
    "times": 5786,
    "tassoci": 5787,
    "\u25810x4089": 5788,
    "\u25810x40f1": 5789,
    "atedicon": 5790,
    "writeptr": 5791,
    "\u25810x4033e6": 5792,
    "\u25810x419638": 5793,
    "codethread": 5794,
    "\u25810x100fdd70": 5795,
    "\u25810xfeee00c1": 5796,
    "\u2581extractassoci": 5797,
    "\u2581isbadwriteptr": 5798,
    "\u2581getexitcodethread": 5799,
    "\u2581extractassociatedicon": 5800,
    "b12": 5801,
    "15e4": 5802,
    "1734": 5803,
    "17e8": 5804,
    "b4e0": 5805,
    "f6fc": 5806,
    "\u2581low": 5807,
    "\u25810x7b7": 5808,
    "\u25810x48b0": 5809,
    "\u25810x5026c": 5810,
    "\u25810x2000000": 5811,
    "\u25810xfeee00c2": 5812,
    "\u25810xfeee00c3": 5813,
    "\u2581processidto": 5814,
    "servicehandle": 5815,
    "\u2581removedirectoryw": 5816,
    "\u2581closeservicehandle": 5817,
    "\u2581processidtosessionid": 5818,
    "6aa": 5819,
    "db4": 5820,
    "3230": 5821,
    "hild": 5822,
    "\u25810xc74": 5823,
    "\u2581wsast": 5824,
    "\u25810x7ed1": 5825,
    "\u25810x82c0": 5826,
    "\u25810x8ab0": 5827,
    "\u25810x20009": 5828,
    "\u25810xfeee00c4": 5829,
    "\u2581wsastartup": 5830,
    "3f4": 5831,
    "19dc": 5832,
    "26e0": 5833,
    "31c0": 5834,
    "35ce": 5835,
    "3718": 5836,
    "ccf5": 5837,
    "d58c": 5838,
    "\u25810x7428": 5839,
    "\u2581globalfind": 5840,
    "\u2581createcompatibledc": 5841,
    "3ea": 5842,
    "65d": 5843,
    "\u2581ob": 5844,
    "352c": 5845,
    "3e30": 5846,
    "6872": 5847,
    "b94c": 5848,
    "bd58": 5849,
    "eb28": 5850,
    "d04df": 5851,
    "\u25810x173": 5852,
    "\u25810x40a4": 5853,
    "\u25810x4122": 5854,
    "\u25810x49d0": 5855,
    "\u25810x7118": 5856,
    "\u25810x8420": 5857,
    "\u2581creater": 5858,
    "stringlen": 5859,
    "\u25810x1211e00": 5860,
    "\u25810x1211e64": 5861,
    "\u2581lcmapstringa": 5862,
    "1fd": 5863,
    "2ec": 5864,
    "9ad": 5865,
    "d16": 5866,
    "\u2581rb": 5867,
    "1b48": 5868,
    "4058": 5869,
    "93dc": 5870,
    "\u2581mid": 5871,
    "99000": 5872,
    "formata": 5873,
    "\u25810x4484": 5874,
    "\u25810x45cd": 5875,
    "\u25810x7738": 5876,
    "\u2581string": 5877,
    "usttoken": 5878,
    "\u25810x455438": 5879,
    "\u25810x561960": 5880,
    "\u2581peekmessagea": 5881,
    "177": 5882,
    "a25": 5883,
    "aa2": 5884,
    "ab4": 5885,
    "af1": 5886,
    "d9c": 5887,
    "e14": 5888,
    "28e6": 5889,
    "e8f8": 5890,
    "f060": 5891,
    "\u25810x40d4": 5892,
    "\u25810x7348": 5893,
    "\u25810x7578": 5894,
    "\u2581gettoken": 5895,
    "privileges": 5896,
    "\u2581gettempfilenamea": 5897,
    "usttokenprivileges": 5898,
    "\u2581gettokeninformation": 5899,
    "33f": 5900,
    "43c": 5901,
    "52e": 5902,
    "79f": 5903,
    "fic": 5904,
    "1fc0": 5905,
    "7168": 5906,
    "7170": 5907,
    "9222": 5908,
    "b2f8": 5909,
    "core": 5910,
    "\u25810x7038": 5911,
    "\u25810x7188": 5912,
    "\u25810x71f8": 5913,
    "\u25810x7268": 5914,
    "\u25810x73b8": 5915,
    "\u25810x7498": 5916,
    "\u25810x7e90": 5917,
    "\u2581bitblt": 5918,
    "\u2581winhttp": 5919,
    "\u2581module32next": 5920,
    "18c": 5921,
    "6d6": 5922,
    "bdb": 5923,
    "f3e": 5924,
    "1260": 5925,
    "2c2c": 5926,
    "3518": 5927,
    "37e2": 5928,
    "5432": 5929,
    "7b50": 5930,
    "e100": 5931,
    "fff8": 5932,
    "\u2581afx": 5933,
    "\u2581rec": 5934,
    "a844d": 5935,
    "\u2581midi": 5936,
    "\u25810x45c": 5937,
    "\u25810x490": 5938,
    "\u2581print": 5939,
    "\u25810x40e6": 5940,
    "\u25810x7508": 5941,
    "\u25810x7a40": 5942,
    "\u25810x7dc1": 5943,
    "\u25810xfeee00c6": 5944,
    "\u25810xfeee00c8": 5945,
    "ix": 5946,
    "427": 5947,
    "54a": 5948,
    "554": 5949,
    "ef8": 5950,
    "14c8": 5951,
    "313f": 5952,
    "b477": 5953,
    "a9000": 5954,
    "cmanag": 5955,
    "\u25810x6e4": 5956,
    "\u25810x42b9": 5957,
    "\u25810x75e8": 5958,
    "\u25810x7658": 5959,
    "\u25810x76c8": 5960,
    "\u25810x414b8": 5961,
    "\u25810x41f738": 5962,
    "\u25810xfeee00c5": 5963,
    "\u25810xfeee00c7": 5964,
    "\u2581globalrealloc": 5965,
    "\u2581setcurrentdirectoryw": 5966,
    "1ce": 5967,
    "624": 5968,
    "7e3": 5969,
    "9c5": 5970,
    "ada": 5971,
    "f82": 5972,
    "fd2": 5973,
    "1350": 5974,
    "2439": 5975,
    "64ec": 5976,
    "a4de": 5977,
    "a8d8": 5978,
    "ee00": 5979,
    "fc2c": 5980,
    "d49e4": 5981,
    "reent": 5982,
    "\u25810x248": 5983,
    "\u25810x78f8": 5984,
    "\u25810x7ab8": 5985,
    "\u25810x56b880": 5986,
    "\u25810x573c10": 5987,
    "\u25810x1211888": 5988,
    "\u2581openscmanag": 5989,
    "306": 5990,
    "7b9": 5991,
    "94e": 5992,
    "c4f": 5993,
    "dcb": 5994,
    "f60": 5995,
    "fd6": 5996,
    "fd8": 5997,
    "1e24": 5998,
    "6408": 5999,
    "64a8": 6000,
    "66ec": 6001,
    "7b5c": 6002,
    "eb50": 6003,
    "f884": 6004,
    "a7978": 6005,
    "767574": 6006,
    "\u25810x48f8": 6007,
    "\u25810x77a8": 6008,
    "\u25810x7d58": 6009,
    "\u25810x107538": 6010,
    "\u25810x1210e20": 6011,
    "\u25810x1210e2c": 6012,
    "\u25810x1211fa0": 6013,
    "\u25810x77767574": 6014,
    "\u2581lookupprivilege": 6015,
    "\u2581getforegroundwindow": 6016,
    "9d0": 6017,
    "a1d": 6018,
    "d26": 6019,
    "10f0": 6020,
    "1dfc": 6021,
    "2e60": 6022,
    "38ad": 6023,
    "5f6c": 6024,
    "6564": 6025,
    "7140": 6026,
    "7a50": 6027,
    "88c8": 6028,
    "d154": 6029,
    "d956": 6030,
    "e5f4": 6031,
    "ff34": 6032,
    "flush": 6033,
    "22b3f0": 6034,
    "lgitem": 6035,
    "3727170": 6036,
    "erclass": 6037,
    "\u25810x40e4": 6038,
    "\u25810x4374": 6039,
    "\u25810x7818": 6040,
    "\u25810x7888": 6041,
    "\u25810x7968": 6042,
    "\u25810x79d8": 6043,
    "\u25810x7a48": 6044,
    "\u25810x7b28": 6045,
    "\u25810x7c08": 6046,
    "\u25810x7c78": 6047,
    "\u25810x7ce8": 6048,
    "\u25810x7e8d": 6049,
    "\u25810x181b48": 6050,
    "\u25810x409698": 6051,
    "\u25810x1211674": 6052,
    "\u25810x1211dc4": 6053,
    "\u25810x73727170": 6054,
    "\u25810x7b7a7978": 6055,
    "\u25810xfeee00c9": 6056,
    "\u25810xfeee00ca": 6057,
    "\u25810xfeee00cb": 6058,
    "194": 6059,
    "6cf": 6060,
    "bd7": 6061,
    "bvm": 6062,
    "c86": 6063,
    "xec": 6064,
    "\u258112": 6065,
    "3784": 6066,
    "4215": 6067,
    "505c": 6068,
    "79dc": 6069,
    "d8b4": 6070,
    "db68": 6071,
    "ddad": 6072,
    "f430": 6073,
    "ff15": 6074,
    "dlg32": 6075,
    "\u25810x42ea": 6076,
    "\u25810x4a60": 6077,
    "\u2581failed": 6078,
    "\u25810x4096a0": 6079,
    "132": 6080,
    "563": 6081,
    "68f": 6082,
    "b4e": 6083,
    "1f34": 6084,
    "39cc": 6085,
    "3d18": 6086,
    "5c98": 6087,
    "679c": 6088,
    "6fb4": 6089,
    "77fe": 6090,
    "9035": 6091,
    "a2f8": 6092,
    "b3f8": 6093,
    "ca11": 6094,
    "tings": 6095,
    "\u2581call": 6096,
    "\u25810xafc": 6097,
    "\u25810x42b4": 6098,
    "\u25810x437b": 6099,
    "\u25810x43b6": 6100,
    "\u25810x7e91": 6101,
    "\u25810x8f50": 6102,
    "opwindow": 6103,
    "\u2581winexec": 6104,
    "\u25810x4093d1": 6105,
    "\u25810x4093d2": 6106,
    "\u25810x4093d3": 6107,
    "\u25810x409696": 6108,
    "\u25810x40969a": 6109,
    "\u25810x40969c": 6110,
    "\u25810x40969e": 6111,
    "\u25810x4096a2": 6112,
    "\u25810x416488": 6113,
    "\u2581charlowerbuff": 6114,
    "\u2581createcompatiblebitmap": 6115,
    "146": 6116,
    "2f2": 6117,
    "3a3": 6118,
    "\u2581qt": 6119,
    "1390": 6120,
    "2cf9": 6121,
    "3f16": 6122,
    "b4b6": 6123,
    "bf3c": 6124,
    "e0c0": 6125,
    "quit": 6126,
    "\u25814d5": 6127,
    "\u2581nto": 6128,
    "\u25810x210": 6129,
    "\u25810x2b2": 6130,
    "\u25810x40f5": 6131,
    "\u25810x4232": 6132,
    "\u25810x79b0": 6133,
    "\u25810xffd6": 6134,
    "\u25810x416408": 6135,
    "\u25810x41645c": 6136,
    "\u25810x42b408": 6137,
    "\u25810x4786e0": 6138,
    "\u2581comdlg32": 6139,
    "\u2581postquit": 6140,
    "\u2581postquitmessage": 6141,
    "2ef": 6142,
    "9eb": 6143,
    "d79": 6144,
    "ecd": 6145,
    "3870": 6146,
    "50ea": 6147,
    "72e7": 6148,
    "8268": 6149,
    "d358": 6150,
    "da93": 6151,
    "\u25810x417c": 6152,
    "\u25810x60000": 6153,
    "\u25810x5b2bd0": 6154,
    "\u2581registerclassexw": 6155,
    "dl": 6156,
    "760": 6157,
    "f20": 6158,
    "12f4": 6159,
    "1d3c": 6160,
    "3a90": 6161,
    "69b2": 6162,
    "773d": 6163,
    "9958": 6164,
    "c4a0": 6165,
    "61000": 6166,
    "e08e8": 6167,
    "b6a6968": 6168,
    "\u25810x4880": 6169,
    "\u25810x4ec0": 6170,
    "\u25810x7e94": 6171,
    "\u25810x8ba0": 6172,
    "\u2581gethost": 6173,
    "\u25810x1210eb0": 6174,
    "\u25810x1211fe4": 6175,
    "\u25810x6b6a6968": 6176,
    "versioninfow": 6177,
    "\u2581globaladdatoma": 6178,
    "\u2581dispatchmessagea": 6179,
    "3bf": 6180,
    "6d7": 6181,
    "a06": 6182,
    "ba8": 6183,
    "f99": 6184,
    "faf": 6185,
    "msg": 6186,
    "ync": 6187,
    "\u2581sp": 6188,
    "38ee": 6189,
    "5f64": 6190,
    "6e7c": 6191,
    "92d0": 6192,
    "98e7": 6193,
    "b0ac": 6194,
    "b2e2": 6195,
    "b419": 6196,
    "e09b": 6197,
    "ff6d": 6198,
    "init": 6199,
    "\u2581vfp": 6200,
    "38c59": 6201,
    "6d000": 6202,
    "938f3": 6203,
    "async": 6204,
    "\u25810x150": 6205,
    "\u25810x468": 6206,
    "\u25810x4ee0": 6207,
    "\u25810x7e95": 6208,
    "\u25810x7ecc": 6209,
    "\u25810xffd9": 6210,
    "visualfox": 6211,
    "\u25810x42b403": 6212,
    "\u25810x42b404": 6213,
    "\u25810x42b405": 6214,
    "\u25810x42b406": 6215,
    "\u25810x42b407": 6216,
    "\u25810x42b409": 6217,
    "\u25810x42b40a": 6218,
    "\u25810x42b40b": 6219,
    "\u25810x42b40c": 6220,
    "\u25810x42b40d": 6221,
    "\u25810x42b40e": 6222,
    "\u25810x42b40f": 6223,
    "\u25810x43a438": 6224,
    "\u25810x1211e68": 6225,
    "windowshook": 6226,
    "44c": 6227,
    "58c": 6228,
    "daf": 6229,
    "f4f": 6230,
    "02ed": 6231,
    "19e5": 6232,
    "1b64": 6233,
    "1c64": 6234,
    "32bb": 6235,
    "385b": 6236,
    "5cd4": 6237,
    "9ca0": 6238,
    "9dd2": 6239,
    "atal": 6240,
    "b4b8": 6241,
    "b71d": 6242,
    "cf77": 6243,
    "\u2581ini": 6244,
    "1e2f8": 6245,
    "20408": 6246,
    "35b00": 6247,
    "52316": 6248,
    "56a04": 6249,
    "9a6cb": 6250,
    "da6cb": 6251,
    "e0000": 6252,
    "e9d28": 6253,
    "ea7c7": 6254,
    "fe5b2": 6255,
    "\u25817zff": 6256,
    "171f34": 6257,
    "1deda0": 6258,
    "341fc0": 6259,
    "34ca04": 6260,
    "7c5826": 6261,
    "be15e4": 6262,
    "instan": 6263,
    "\u25817z2e7": 6264,
    "\u25817z528": 6265,
    "\u25817z74c": 6266,
    "\u25817z77f": 6267,
    "\u25817z8d0": 6268,
    "\u25817zef4": 6269,
    "\u2581fatal": 6270,
    "d956130": 6271,
    "da26178": 6272,
    "ec46c00": 6273,
    "\u25810x82f0": 6274,
    "\u25817z02ed": 6275,
    "\u25817z2c2c": 6276,
    "\u25817z2e60": 6277,
    "\u25817z50ea": 6278,
    "\u25817z6fb4": 6279,
    "\u25817z7a50": 6280,
    "\u25817zca11": 6281,
    "\u25817zcf77": 6282,
    "35b001ac": 6283,
    "9a6cbea4": 6284,
    "asynckey": 6285,
    "da6cbea8": 6286,
    "ea7c7ee8": 6287,
    "\u25817zfe5b2": 6288,
    "\u25810x404180": 6289,
    "\u25810x404184": 6290,
    "\u25810x404190": 6291,
    "\u25817z1deda0": 6292,
    "\u25817z304215": 6293,
    "\u25817z34ca04": 6294,
    "\u25817z638c59": 6295,
    "\u25817z72b71d": 6296,
    "\u25817z7c5826": 6297,
    "\u25817z8938f3": 6298,
    "\u25817zffeb28": 6299,
    "\u25810xfeee00cc": 6300,
    "\u25817z2c2c679c": 6301,
    "\u25817z2d956130": 6302,
    "\u25817z2e606e7c": 6303,
    "\u25817z30be15e4": 6304,
    "\u25817z35b001ac": 6305,
    "\u25817z50ea94a8": 6306,
    "\u25817z528e9d28": 6307,
    "\u25817z6da26178": 6308,
    "\u25817z6ec46c00": 6309,
    "\u25817z6fb469c0": 6310,
    "\u25817z72171f34": 6311,
    "\u25817z72341fc0": 6312,
    "\u25817z74c20408": 6313,
    "\u25817z77fe08e8": 6314,
    "\u25817z7a503e30": 6315,
    "\u25817z8d01e2f8": 6316,
    "\u25817z9a6cbea4": 6317,
    "\u25817zca11ff34": 6318,
    "\u25817zcf77eaac": 6319,
    "\u25817zda6cbea8": 6320,
    "\u25817zea7c7ee8": 6321,
    "\u25817zef456a04": 6322,
    "memorystatus": 6323,
    "\u2581getasynckey": 6324,
    "\u2581getasynckeystate": 6325,
    "\u2581globalmemorystatus": 6326,
    "67a": 6327,
    "88b": 6328,
    "972": 6329,
    "2a90": 6330,
    "35dd": 6331,
    "35e0": 6332,
    "3f6c": 6333,
    "3fb5": 6334,
    "4b00": 6335,
    "56ac": 6336,
    "56c8": 6337,
    "68fe": 6338,
    "6cec": 6339,
    "7622": 6340,
    "9308": 6341,
    "a077": 6342,
    "ee9a": 6343,
    "efa2": 6344,
    "7f769": 6345,
    "longw": 6346,
    "\u25810xbd4": 6347,
    "\u25810x4226": 6348,
    "\u25810x6766": 6349,
    "\u25810x73d0": 6350,
    "\u25810x7e50": 6351,
    "\u25810x19000": 6352,
    "\u25810xf003f": 6353,
    "\u25810x404178": 6354,
    "\u25810x45d154": 6355,
    "\u25810x1210f70": 6356,
    "\u25810x1211898": 6357,
    "\u25810x1211e5c": 6358,
    "querysystem": 6359,
    "visualfoxpro": 6360,
    "rl6660dl6660d": 6361,
    "\u2581getusernamew": 6362,
    "\u2581waitformultipleob": 6363,
    "querysysteminformation": 6364,
    "75d": 6365,
    "7df": 6366,
    "be2": 6367,
    "e9a": 6368,
    "1360": 6369,
    "2860": 6370,
    "33e8": 6371,
    "4367": 6372,
    "6fd0": 6373,
    "a5f0": 6374,
    "ad0c": 6375,
    "bc48": 6376,
    "00814": 6377,
    "208e8": 6378,
    "26160": 6379,
    "3386c": 6380,
    "775a7": 6381,
    "91124": 6382,
    "9f931": 6383,
    "d4c26": 6384,
    "df931": 6385,
    "2068b2": 6386,
    "3ad65d": 6387,
    "4339cc": 6388,
    "5610f0": 6389,
    "57b4f9": 6390,
    "68721c": 6391,
    "72c8bd": 6392,
    "73eac8": 6393,
    "74dac5": 6394,
    "79e860": 6395,
    "7d2465": 6396,
    "b477dd": 6397,
    "cf385b": 6398,
    "f0604c": 6399,
    "f46bc6": 6400,
    "\u25810x3f7": 6401,
    "17e8278": 6402,
    "313fcc8": 6403,
    "35e4720": 6404,
    "d48e5f4": 6405,
    "\u25810x4718": 6406,
    "\u25810x577f": 6407,
    "\u25810x82d0": 6408,
    "32bbbd58": 6409,
    "3386caa4": 6410,
    "773d7b5c": 6411,
    "775a7be8": 6412,
    "79e86030": 6413,
    "92283f20": 6414,
    "9f931acc": 6415,
    "d49e46d4": 6416,
    "dca00814": 6417,
    "df931ad0": 6418,
    "efa2db10": 6419,
    "4339ccaec": 6420,
    "\u25810x7d2778": 6421,
    "2439f0604c": 6422,
    "50817e8278": 6423,
    "a02313fcc8": 6424,
    "b477dd79dc": 6425,
    "d48e5f4ffc": 6426,
    "f43568721c": 6427,
    "\u25810x1210f50": 6428,
    "\u25810x1211ef4": 6429,
    "\u25817z2e766ec": 6430,
    "\u25810xfeee00cd": 6431,
    "\u25810xfeee00ce": 6432,
    "\u25817zfe5b2e4c0": 6433,
    "\u25817zffeb289c0": 6434,
    "\u25817z2c2c679c315": 6435,
    "\u25817z02eddca00814": 6436,
    "\u25817z638c592068b2": 6437,
    "\u2581getstringtypea": 6438,
    "\u25817z7a503e307f769": 6439,
    "\u25817z35b001ac3ad65d": 6440,
    "\u25817z50ea94a85610f0": 6441,
    "\u25817z528e9d2857b4f9": 6442,
    "\u25817z6da2617872c8bd": 6443,
    "\u25817z6ec46c0073eac8": 6444,
    "\u25817z6fb469c074dac5": 6445,
    "\u25817z77fe08e87d2465": 6446,
    "\u25817zca11ff34cf385b": 6447,
    "\u25817zef456a04f46bc6": 6448,
    "\u25817z30be15e435e4720": 6449,
    "\u25817z1deda0a02313fcc8": 6450,
    "\u25817z2d95613032bbbd58": 6451,
    "\u25817z2e606e7c3386caa4": 6452,
    "\u25817z2e766ec4339ccaec": 6453,
    "\u25817z304215f43568721c": 6454,
    "\u25817z34ca042439f0604c": 6455,
    "\u25817z72171f34773d7b5c": 6456,
    "\u25817z72341fc0775a7be8": 6457,
    "\u25817z72b71db477dd79dc": 6458,
    "\u25817z74c2040879e86030": 6459,
    "\u25817z7c582650817e8278": 6460,
    "\u25817z8938f3d48e5f4ffc": 6461,
    "\u25817z8d01e2f892283f20": 6462,
    "\u25817z9a6cbea49f931acc": 6463,
    "\u25817zcf77eaacd49e46d4": 6464,
    "\u25817zda6cbea8df931ad0": 6465,
    "\u25817zea7c7ee8efa2db10": 6466,
    "219": 6467,
    "3f3": 6468,
    "6e5": 6469,
    "7c0": 6470,
    "a71": 6471,
    "e35": 6472,
    "19d4": 6473,
    "303c": 6474,
    "3096": 6475,
    "3cee": 6476,
    "40e8": 6477,
    "4e93": 6478,
    "6688": 6479,
    "784d": 6480,
    "9df4": 6481,
    "a7e6": 6482,
    "b670": 6483,
    "bcc7": 6484,
    "dce4": 6485,
    "f062": 6486,
    "mous": 6487,
    "80d3a": 6488,
    "a0122": 6489,
    "a5884": 6490,
    "\u25810x40000": 6491,
    "\u25810x436408": 6492,
    "\u25810x1211f58": 6493,
    "\u25810x63626160": 6494,
    "\u25810x67666564": 6495,
    "\u25810xfeee00cf": 6496,
    "lipboarddata": 6497,
    "385": 6498,
    "a1c": 6499,
    "17f3": 6500,
    "1afb": 6501,
    "1fa2": 6502,
    "2498": 6503,
    "4178": 6504,
    "5150": 6505,
    "7f0e": 6506,
    "86dd": 6507,
    "9385": 6508,
    "9538": 6509,
    "96e4": 6510,
    "9cf6": 6511,
    "bcb3": 6512,
    "d9c4": 6513,
    "e090": 6514,
    "e89d": 6515,
    "283a5": 6516,
    "32728": 6517,
    "3a8ec": 6518,
    "40a37": 6519,
    "91184": 6520,
    "974e9": 6521,
    "a3268": 6522,
    "a4b97": 6523,
    "a7408": 6524,
    "e4b97": 6525,
    "e6d6c": 6526,
    "f4c93": 6527,
    "ffcba": 6528,
    "37e219": 6529,
    "51184c": 6530,
    "7c80d8": 6531,
    "7d03d6": 6532,
    "86a4de": 6533,
    "a077ef": 6534,
    "c3b0ac": 6535,
    "d9c4a3": 6536,
    "10824ac": 6537,
    "505cdb5": 6538,
    "9112464": 6539,
    "a012224": 6540,
    "b374d0c": 6541,
    "b5486dd": 6542,
    "\u25810x4a30": 6543,
    "\u25810x8d80": 6544,
    "2c3c4367": 6545,
    "2cf99222": 6546,
    "38ad26e0": 6547,
    "38c32728": 6548,
    "38c80d3a": 6549,
    "3a8ece58": 6550,
    "3f16bc88": 6551,
    "5cd45eb7": 6552,
    "9385ac38": 6553,
    "974e9b5c": 6554,
    "a4b97708": 6555,
    "d43ffcba": 6556,
    "3818a7408": 6557,
    "a58849cf6": 6558,
    "c3b0ace48": 6559,
    "\u25810x181b98": 6560,
    "2879112464": 6561,
    "a077ef19dc": 6562,
    "d05b374d0c": 6563,
    "e87a012224": 6564,
    "\u25810x1211cf0": 6565,
    "\u2581lstrcmpiw": 6566,
    "51184c40a37": 6567,
    "\u25810x6f6e6d6c": 6568,
    "38c80d3a9504": 6569,
    "b5486dd91184": 6570,
    "2c3c436792000": 6571,
    "3818a7408a7e6": 6572,
    "\u2581setthreadpriority": 6573,
    "\u25817z72171f34773d7b5c7c6": 6574,
    "\u25817z74c2040879e860307f0e": 6575,
    "\u25817zffeb289c051184c40a37": 6576,
    "\u25817z1deda0a02313fcc8283a5": 6577,
    "\u25817z528e9d2857b4f9505cdb5": 6578,
    "\u25817z77fe08e87d246510824ac": 6579,
    "\u25817zda6cbea8df931ad0e4b97": 6580,
    "\u25817zea7c7ee8efa2db10f4c93": 6581,
    "\u25817z2d95613032bbbd5837e219": 6582,
    "\u25817z35b001ac3ad65dd43ffcba": 6583,
    "\u25817z72341fc0775a7be87c80d8": 6584,
    "\u25817z72b71db477dd79dc7d03d6": 6585,
    "\u25817z7a503e307f769a58849cf6": 6586,
    "\u25817z7c582650817e827886a4de": 6587,
    "\u25817zca11ff34cf385b5cd45eb7": 6588,
    "\u25817zcf77eaacd49e46d4d9c4a3": 6589,
    "\u25817zef456a04f46bc62cf99222": 6590,
    "\u25817zfe5b2e4c03818a7408a7e6": 6591,
    "\u25817z02eddca0081438c80d3a9504": 6592,
    "\u25817z2c2c679c3152c3c436792000": 6593,
    "\u25817z2e606e7c3386caa438ad26e0": 6594,
    "\u25817z2e766ec4339ccaec38c32728": 6595,
    "\u25817z304215f43568721c3a8ece58": 6596,
    "\u25817z30be15e435e4720c3b0ace48": 6597,
    "\u25817z34ca042439f0604c3f16bc88": 6598,
    "\u25817z50ea94a85610f0d05b374d0c": 6599,
    "\u25817z638c592068b2b5486dd91184": 6600,
    "\u25817z6da2617872c8bda077ef19dc": 6601,
    "\u25817z6ec46c0073eac82879112464": 6602,
    "\u25817z6fb469c074dac5e87a012224": 6603,
    "\u25817z8938f3d48e5f4ffc9385ac38": 6604,
    "\u25817z8d01e2f892283f20974e9b5c": 6605,
    "\u25817z9a6cbea49f931acca4b97708": 6606,
    "a9f": 6607,
    "baa": 6608,
    "fba": 6609,
    "00e0": 6610,
    "1f50": 6611,
    "2084": 6612,
    "3b9f": 6613,
    "5840": 6614,
    "58c6": 6615,
    "7552": 6616,
    "91bd": 6617,
    "a03d": 6618,
    "a9df": 6619,
    "dbc0": 6620,
    "f228": 6621,
    "23bd2": 6622,
    "3dd38": 6623,
    "6c4be": 6624,
    "\u25810x48c0": 6625,
    "\u25810x436403": 6626,
    "\u25810x436404": 6627,
    "\u25810x436405": 6628,
    "\u25810x436406": 6629,
    "\u25810x436407": 6630,
    "\u25810x436409": 6631,
    "\u25810x43640a": 6632,
    "\u25810x43640b": 6633,
    "\u25810x43640c": 6634,
    "\u25810x43640d": 6635,
    "\u25810x43640e": 6636,
    "\u25810x43640f": 6637,
    "\u25810x455120": 6638,
    "235": 6639,
    "48d": 6640,
    "69b": 6641,
    "99d": 6642,
    "e70": 6643,
    "fcc": 6644,
    "0036": 6645,
    "1291": 6646,
    "26be": 6647,
    "28f0": 6648,
    "33c8": 6649,
    "40c5": 6650,
    "42f9": 6651,
    "5478": 6652,
    "6418": 6653,
    "80c0": 6654,
    "86b0": 6655,
    "adc0": 6656,
    "deab": 6657,
    "e51c": 6658,
    "10dee": 6659,
    "18822": 6660,
    "1a734": 6661,
    "201b1": 6662,
    "3de98": 6663,
    "704ce": 6664,
    "70ce9": 6665,
    "9489c": 6666,
    "98ac0": 6667,
    "9ef93": 6668,
    "d0875": 6669,
    "d60b5": 6670,
    "f5e3d": 6671,
    "14c877": 6672,
    "3d7988": 6673,
    "3fb52a": 6674,
    "40312a": 6675,
    "443d18": 6676,
    "605da9": 6677,
    "72ff6d": 6678,
    "74f7ac": 6679,
    "7d1576": 6680,
    "7e3780": 6681,
    "98d985": 6682,
    "bc6c84": 6683,
    "\u25810x7e4": 6684,
    "1260f15": 6685,
    "18a33e8": 6686,
    "9ef939c": 6687,
    "b00dce4": 6688,
    "b48bcb3": 6689,
    "\u25810x4491": 6690,
    "\u25810x4ebf": 6691,
    "\u25810x7ea0": 6692,
    "\u25810x8c20": 6693,
    "10452316": 6694,
    "10deeaff": 6695,
    "2481a734": 6696,
    "3b9f7c50": 6697,
    "3dd38330": 6698,
    "72ff6dd4": 6699,
    "943d0875": 6700,
    "9489c352": 6701,
    "98ac0888": 6702,
    "9c74f7ac": 6703,
    "a9dfd358": 6704,
    "58c6201b1": 6705,
    "9042d60b5": 6706,
    "\u25810x47b158": 6707,
    "18822a3268": 6708,
    "98d98513e8": 6709,
    "b00dce4300": 6710,
    "b48bcb3b04": 6711,
    "bc6c843518": 6712,
    "e1000f5e3d": 6713,
    "74cf9ef939c": 6714,
    "3d798818a33e8": 6715,
    "\u25817zda6cbea8df931ad0e4b9770ce9": 6716,
    "\u25817zef456a04f46bc62cf9922268fe": 6717,
    "\u25817z6fb469c074dac5e87a0122247f2": 6718,
    "\u25817z77fe08e87d246510824ac14c877": 6719,
    "\u25817z2e766ec4339ccaec38c327283de98": 6720,
    "\u25817z1deda0a02313fcc8283a59042d60b5": 6721,
    "\u25817z2d95613032bbbd5837e219943d0875": 6722,
    "\u25817z304215f43568721c3a8ece583fb52a": 6723,
    "\u25817z30be15e435e4720c3b0ace4840312a": 6724,
    "\u25817z34ca042439f0604c3f16bc88443d18": 6725,
    "\u25817z35b001ac3ad65dd43ffcba10452316": 6726,
    "\u25817z50ea94a85610f0d05b374d0c605da9": 6727,
    "\u25817z528e9d2857b4f9505cdb558c6201b1": 6728,
    "\u25817z6da2617872c8bda077ef19dc7d1576": 6729,
    "\u25817z6ec46c0073eac828791124647e3780": 6730,
    "\u25817z72341fc0775a7be87c80d82481a734": 6731,
    "\u25817z74c2040879e860307f0ebc6c843518": 6732,
    "\u25817z7a503e307f769a58849cf69489c352": 6733,
    "\u25817zcf77eaacd49e46d4d9c4a310deeaff": 6734,
    "\u25817zffeb289c051184c40a37e1000f5e3d": 6735,
    "\u25817z02eddca0081438c80d3a95041260f15": 6736,
    "\u25817z2c2c679c3152c3c4367920003b9f7c50": 6737,
    "\u25817z2e606e7c3386caa438ad26e03dd38330": 6738,
    "\u25817z638c592068b2b5486dd9118472ff6dd4": 6739,
    "\u25817z72171f34773d7b5c7c63d798818a33e8": 6740,
    "\u25817z72b71db477dd79dc7d03d618822a3268": 6741,
    "\u25817z7c582650817e827886a4deb48bcb3b04": 6742,
    "\u25817z8938f3d48e5f4ffc9385ac3898ac0888": 6743,
    "\u25817z8d01e2f892283f20974e9b5c9c74f7ac": 6744,
    "\u25817z9a6cbea49f931acca4b97708a9dfd358": 6745,
    "\u25817zca11ff34cf385b5cd45eb798d98513e8": 6746,
    "\u25817zea7c7ee8efa2db10f4c9374cf9ef939c": 6747,
    "\u25817zfe5b2e4c03818a7408a7e6b00dce4300": 6748,
    "a7c": 6749,
    "3da8": 6750,
    "5b2c": 6751,
    "5b7c": 6752,
    "a4a0": 6753,
    "eea1": 6754,
    "fbb0": 6755,
    "leng": 6756,
    "90537": 6757,
    "b5410": 6758,
    "d8496": 6759,
    "\u25810x40d6": 6760,
    "\u25810x4720": 6761,
    "\u25810x7320": 6762,
    "\u25810x8ce0": 6763,
    "\u25810x7c000": 6764,
    "\u2581replace": 6765,
    "\u2581createen": 6766,
    "\u2581destroyicon": 6767,
    "28c": 6768,
    "335": 6769,
    "dae": 6770,
    "dd7": 6771,
    "\u2581sw": 6772,
    "3150": 6773,
    "545f": 6774,
    "5e14": 6775,
    "6922": 6776,
    "8499": 6777,
    "961c": 6778,
    "ae40": 6779,
    "dc3a": 6780,
    "19768": 6781,
    "1d406": 6782,
    "30fdf": 6783,
    "3dedb": 6784,
    "55786": 6785,
    "604a4": 6786,
    "62fbc": 6787,
    "6cd90": 6788,
    "71000": 6789,
    "74844": 6790,
    "87508": 6791,
    "95b75": 6792,
    "c8c97": 6793,
    "e4422": 6794,
    "12f49f": 6795,
    "280e40": 6796,
    "42f9df": 6797,
    "543287": 6798,
    "7825ca": 6799,
    "\u25810x23c": 6800,
    "35ddd18": 6801,
    "417874d": 6802,
    "58405c0": 6803,
    "60e4115": 6804,
    "b87eb80": 6805,
    "dfd35ce": 6806,
    "e48ee9a": 6807,
    "f062fc0": 6808,
    "\u25810x7020": 6809,
    "\u25810x7e51": 6810,
    "2c823bd2": 6811,
    "40c5d8b4": 6812,
    "50148499": 6813,
    "7486cd90": 6814,
    "77e74844": 6815,
    "90f19768": 6816,
    "98455786": 6817,
    "9dd264ec": 6818,
    "a19b5410": 6819,
    "af062fbc": 6820,
    "bc895b75": 6821,
    "d8496375": 6822,
    "11d9c8c97": 6823,
    "378430fdf": 6824,
    "ataddress": 6825,
    "\u25810x1733c4": 6826,
    "54328711b8": 6827,
    "5c658405c0": 6828,
    "b4835ddd18": 6829,
    "dc67280e40": 6830,
    "e48ee9af48": 6831,
    "\u25810x1210e10": 6832,
    "b87eb803dedb": 6833,
    "11d9c8c977a00": 6834,
    "dfd35cef062fc0": 6835,
    "\u2581outputdebugstringw": 6836,
    "\u25817z2d95613032bbbd5837e219943d0875e4422": 6837,
    "\u25817z304215f43568721c3a8ece583fb52aa844d": 6838,
    "\u25817z35b001ac3ad65dd43ffcba10452316604a4": 6839,
    "\u25817z6fb469c074dac5e87a0122247f277e74844": 6840,
    "\u25817z72171f34773d7b5c7c63d798818a33e886b0": 6841,
    "\u25817zca11ff34cf385b5cd45eb798d98513e8deab": 6842,
    "\u25817zea7c7ee8efa2db10f4c9374cf9ef939cff15": 6843,
    "\u25817z72b71db477dd79dc7d03d618822a326887508": 6844,
    "\u25817zcf77eaacd49e46d4d9c4a310deeaff60e4115": 6845,
    "\u25817z02eddca0081438c80d3a95041260f15417874d": 6846,
    "\u25817z2e606e7c3386caa438ad26e03dd3833042f9df": 6847,
    "\u25817z2e766ec4339ccaec38c327283de98378430fdf": 6848,
    "\u25817z30be15e435e4720c3b0ace4840312a98455786": 6849,
    "\u25817z34ca042439f0604c3f16bc88443d18d8496375": 6850,
    "\u25817z638c592068b2b5486dd9118472ff6dd47825ca": 6851,
    "\u25817z6da2617872c8bda077ef19dc7d15762c823bd2": 6852,
    "\u25817z72341fc0775a7be87c80d82481a7347486cd90": 6853,
    "\u25817z74c2040879e860307f0ebc6c843518bc895b75": 6854,
    "\u25817zef456a04f46bc62cf9922268feb87eb803dedb": 6855,
    "\u25817zfe5b2e4c03818a7408a7e6b00dce430012f49f": 6856,
    "\u25817zffeb289c051184c40a37e1000f5e3d50148499": 6857,
    "\u25817z1deda0a02313fcc8283a59042d60b554328711b8": 6858,
    "\u25817z2c2c679c3152c3c4367920003b9f7c5040c5d8b4": 6859,
    "\u25817z50ea94a85610f0d05b374d0c605da95c658405c0": 6860,
    "\u25817z528e9d2857b4f9505cdb558c6201b1dc67280e40": 6861,
    "\u25817z6ec46c0073eac828791124647e3780b4835ddd18": 6862,
    "\u25817z77fe08e87d246510824ac14c87711d9c8c977a00": 6863,
    "\u25817z7a503e307f769a58849cf69489c352e48ee9af48": 6864,
    "\u25817z7c582650817e827886a4deb48bcb3b0490f19768": 6865,
    "\u25817z8938f3d48e5f4ffc9385ac3898ac08889dd264ec": 6866,
    "\u25817z8d01e2f892283f20974e9b5c9c74f7aca19b5410": 6867,
    "\u25817z9a6cbea49f931acca4b97708a9dfd358af062fbc": 6868,
    "\u25817zda6cbea8df931ad0e4b9770ce9dfd35cef062fc0": 6869,
    "926": 6870,
    "9c6": 6871,
    "b76": 6872,
    "bar": 6873,
    "ce6": 6874,
    "\u2581ef": 6875,
    "\u2581sn": 6876,
    "286c": 6877,
    "3238": 6878,
    "45ec": 6879,
    "51ec": 6880,
    "9623": 6881,
    "a7de": 6882,
    "adaa": 6883,
    "bea0": 6884,
    "c4d4": 6885,
    "e010": 6886,
    "ebb0": 6887,
    "37508": 6888,
    "58800": 6889,
    "ecc8c": 6890,
    "\u2581wave": 6891,
    "\u25810x510": 6892,
    "\u25810x9802": 6893,
    "\u25810xff91": 6894,
    "\u25810x40a3d0": 6895,
    "\u25810x40a92c": 6896,
    "\u25810x40a93c": 6897,
    "\u25810x1210a84": 6898,
    "\u2581accessviolationataddress": 6899,
    "7dc": 6900,
    "845": 6901,
    "aae": 6902,
    "c9e": 6903,
    "da7": 6904,
    "db6": 6905,
    "e8e": 6906,
    "ff5": 6907,
    "1d78": 6908,
    "44f6": 6909,
    "787c": 6910,
    "8439": 6911,
    "a5b3": 6912,
    "abc4": 6913,
    "ac4c": 6914,
    "b5cc": 6915,
    "bc26": 6916,
    "be90": 6917,
    "c889": 6918,
    "1b088": 6919,
    "1d198": 6920,
    "203c0": 6921,
    "43c4c": 6922,
    "6aaa6": 6923,
    "6c4e6": 6924,
    "6ecc4": 6925,
    "88974": 6926,
    "94100": 6927,
    "bf3ed": 6928,
    "dc1d4": 6929,
    "emenu": 6930,
    "363c54": 6931,
    "37ad6e": 6932,
    "847552": 6933,
    "888439": 6934,
    "9617f3": 6935,
    "a2f8c1": 6936,
    "b42c8c": 6937,
    "bc4e93": 6938,
    "c4a01e": 6939,
    "f42c8c": 6940,
    "\u25810x103": 6941,
    "3c4e89d": 6942,
    "3d1ccc4": 6943,
    "44f6fcf": 6944,
    "904c8bd": 6945,
    "9087622": 6946,
    "a7de374": 6947,
    "ecc8c76": 6948,
    "\u25810x1327": 6949,
    "\u25810x44c0": 6950,
    "\u25810x8f30": 6951,
    "1c090537": 6952,
    "387d4c26": 6953,
    "45ec352c": 6954,
    "64181afb": 6955,
    "6aaa6238": 6956,
    "6c4e6ab8": 6957,
    "91bdd678": 6958,
    "94100bc0": 6959,
    "a6c1b088": 6960,
    "b419aaf6": 6961,
    "b81cadaa": 6962,
    "d88bf3ed": 6963,
    "847552ec0": 6964,
    "9448203c0": 6965,
    "bc4e937b8": 6966,
    "ddad88974": 6967,
    "208e81d198": 6968,
    "3c4e89d1b4": 6969,
    "b870c4a01e": 6970,
    "dc48363c54": 6971,
    "f000043c4c": 6972,
    "fc4a7de374": 6973,
    "\u25810x1210a78": 6974,
    "\u25810x1211894": 6975,
    "972c44f6fcf": 6976,
    "704ce3d1ccc4": 6977,
    "904c8bd6ecc4": 6978,
    "ed24847552ec0": 6979,
    "\u2581writeprocessmemory": 6980,
    "\u25817z6fb469c074dac5e87a0122247f277e74844ddad88974": 6981,
    "\u25817z72b71db477dd79dc7d03d618822a326887508ecc8c76": 6982,
    "\u25817z304215f43568721c3a8ece583fb52aa844db870c4a01e": 6983,
    "\u25817z6da2617872c8bda077ef19dc7d15762c823bd29087622": 6984,
    "\u25817z02eddca0081438c80d3a95041260f15417874db81cadaa": 6985,
    "\u25817z1deda0a02313fcc8283a59042d60b554328711b837ad6e": 6986,
    "\u25817z35b001ac3ad65dd43ffcba10452316604a4972c44f6fcf": 6987,
    "\u25817z638c592068b2b5486dd9118472ff6dd47825ca387d4c26": 6988,
    "\u25817z6ec46c0073eac828791124647e3780b4835ddd18888439": 6989,
    "\u25817z72341fc0775a7be87c80d82481a7347486cd90d88bf3ed": 6990,
    "\u25817z7c582650817e827886a4deb48bcb3b0490f197689617f3": 6991,
    "\u25817z8938f3d48e5f4ffc9385ac3898ac08889dd264eca2f8c1": 6992,
    "\u25817z9a6cbea49f931acca4b97708a9dfd358af062fbcb42c8c": 6993,
    "\u25817zcf77eaacd49e46d4d9c4a310deeaff60e4115bc4e937b8": 6994,
    "\u25817zda6cbea8df931ad0e4b9770ce9dfd35cef062fc0f42c8c": 6995,
    "\u25817zea7c7ee8efa2db10f4c9374cf9ef939cff15f000043c4c": 6996,
    "\u25817zef456a04f46bc62cf9922268feb87eb803dedb1c090537": 6997,
    "\u25817zfe5b2e4c03818a7408a7e6b00dce430012f49f64181afb": 6998,
    "\u25817zffeb289c051184c40a37e1000f5e3d50148499b419aaf6": 6999,
    "\u25817z2e606e7c3386caa438ad26e03dd3833042f9df9448203c0": 7000,
    "\u25817z2c2c679c3152c3c4367920003b9f7c5040c5d8b445ec352c": 7001,
    "\u25817z2d95613032bbbd5837e219943d0875e4422ed24847552ec0": 7002,
    "\u25817z2e766ec4339ccaec38c327283de98378430fdfdc48363c54": 7003,
    "\u25817z30be15e435e4720c3b0ace4840312a98455786fc4a7de374": 7004,
    "\u25817z34ca042439f0604c3f16bc88443d18d84963753c4e89d1b4": 7005,
    "\u25817z50ea94a85610f0d05b374d0c605da95c658405c06aaa6238": 7006,
    "\u25817z528e9d2857b4f9505cdb558c6201b1dc67280e406c4e6ab8": 7007,
    "\u25817z72171f34773d7b5c7c63d798818a33e886b0904c8bd6ecc4": 7008,
    "\u25817z74c2040879e860307f0ebc6c843518bc895b75208e81d198": 7009,
    "\u25817z77fe08e87d246510824ac14c87711d9c8c977a0091bdd678": 7010,
    "\u25817z7a503e307f769a58849cf69489c352e48ee9af4894100bc0": 7011,
    "\u25817z8d01e2f892283f20974e9b5c9c74f7aca19b5410a6c1b088": 7012,
    "\u25817zca11ff34cf385b5cd45eb798d98513e8deab704ce3d1ccc4": 7013,
    "1ef": 7014,
    "32d": 7015,
    "3df": 7016,
    "5ec": 7017,
    "uld": 7018,
    "13f4": 7019,
    "2950": 7020,
    "2980": 7021,
    "44a0": 7022,
    "a5fc": 7023,
    "aba5": 7024,
    "bf20": 7025,
    "ec28": 7026,
    "ecf7": 7027,
    "imer": 7028,
    "11a49": 7029,
    "a58b0": 7030,
    "\u2581vfp6": 7031,
    "uldnot": 7032,
    "\u25810x654": 7033,
    "\u25810x2269": 7034,
    "\u25810x990f": 7035,
    "\u25810x40bd4": 7036,
    "\u25810x100fdb": 7037,
    "\u25810x181c60": 7038,
    "\u25810x181c88": 7039,
    "\u25810x40619d": 7040,
    "\u25810x40619e": 7041,
    "\u25810x43f6b0": 7042,
    "\u25810x4692b0": 7043,
    "\u25810x1210a64": 7044,
    "\u25810x1210e2b": 7045,
    "\u25810x1210f8c": 7046,
    "\u25810x1211e70": 7047,
    "\u25810x1211ebc": 7048,
    "\u2581drawtexta": 7049,
    "\u2581getconsolec": 7050,
    "lu": 7051,
    "80e": 7052,
    "ist": 7053,
    "1756": 7054,
    "19b7": 7055,
    "37e0": 7056,
    "7054": 7057,
    "7447": 7058,
    "ache": 7059,
    "ba24": 7060,
    "e084": 7061,
    "fc42": 7062,
    "2c1ed": 7063,
    "4c7b8": 7064,
    "4fa44": 7065,
    "7174c": 7066,
    "78096": 7067,
    "88b94": 7068,
    "905a4": 7069,
    "90fd4": 7070,
    "940e2": 7071,
    "abe80": 7072,
    "b9420": 7073,
    "eb449": 7074,
    "3e506c": 7075,
    "4b1291": 7076,
    "4d5c98": 7077,
    "53b02e": 7078,
    "908daa": 7079,
    "93a82e": 7080,
    "962bc8": 7081,
    "f088c8": 7082,
    "output": 7083,
    "\u25810x130": 7084,
    "\u25810x238": 7085,
    "\u25810x532": 7086,
    "\u25810x550": 7087,
    "11a49dc": 7088,
    "19d47d0": 7089,
    "303cd3c": 7090,
    "3844f28": 7091,
    "952e8c0": 7092,
    "96e4330": 7093,
    "9936684": 7094,
    "b082728": 7095,
    "c4d4698": 7096,
    "e9a93dc": 7097,
    "\u25810x44e5": 7098,
    "\u25810x7ecd": 7099,
    "\u25810x8bd0": 7100,
    "2c1ed152": 7101,
    "3021d406": 7102,
    "38f952e8": 7103,
    "4fa44000": 7104,
    "64a81f1d": 7105,
    "6fd0bec4": 7106,
    "90fd4950": 7107,
    "abe80d14": 7108,
    "dc1d4158": 7109,
    "e8f82950": 7110,
    "\u25810x120ff": 7111,
    "\u25810x577fd8": 7112,
    "34b952e8c0": 7113,
    "3c54962bc8": 7114,
    "50911a49dc": 7115,
    "908daa961c": 7116,
    "940e2b9420": 7117,
    "e09b3e506c": 7118,
    "\u25810x1210e90": 7119,
    "\u25810x1211d10": 7120,
    "\u25810x1211e54": 7121,
    "\u25810x1211f8c": 7122,
    "3844f284010": 7123,
    "f088c888b94": 7124,
    "37508e9a93dc": 7125,
    "eb44919d47d0": 7126,
    "\u2581destroywindow": 7127,
    "\u25817zcf77eaacd49e46d4d9c4a310deeaff60e4115bc4e937b83cee": 7128,
    "\u25817zea7c7ee8efa2db10f4c9374cf9ef939cff15f000043c4c78096": 7129,
    "\u25817z1deda0a02313fcc8283a59042d60b554328711b837ad6e303cd3c": 7130,
    "\u25817z2d95613032bbbd5837e219943d0875e4422ed24847552ec04c7b8": 7131,
    "\u25817z528e9d2857b4f9505cdb558c6201b1dc67280e406c4e6ab87174c": 7132,
    "\u25817z638c592068b2b5486dd9118472ff6dd47825ca387d4c26b082728": 7133,
    "\u25817z02eddca0081438c80d3a95041260f15417874db81cadaa3021d406": 7134,
    "\u25817z2c2c679c3152c3c4367920003b9f7c5040c5d8b445ec352c4b1291": 7135,
    "\u25817z2e606e7c3386caa438ad26e03dd3833042f9df9448203c0c4d4698": 7136,
    "\u25817z2e766ec4339ccaec38c327283de98378430fdfdc48363c544d5c98": 7137,
    "\u25817z34ca042439f0604c3f16bc88443d18d84963753c4e89d1b453b02e": 7138,
    "\u25817z74c2040879e860307f0ebc6c843518bc895b75208e81d19893a82e": 7139,
    "\u25817z8938f3d48e5f4ffc9385ac3898ac08889dd264eca2f8c164a81f1d": 7140,
    "\u25817zda6cbea8df931ad0e4b9770ce9dfd35cef062fc0f42c8c38f952e8": 7141,
    "\u25817zfe5b2e4c03818a7408a7e6b00dce430012f49f64181afbdc1d4158": 7142,
    "\u25817zffeb289c051184c40a37e1000f5e3d50148499b419aaf62c1ed152": 7143,
    "\u25817z77fe08e87d246510824ac14c87711d9c8c977a0091bdd67896e4330": 7144,
    "\u25817z7a503e307f769a58849cf69489c352e48ee9af4894100bc09936684": 7145,
    "\u25817z304215f43568721c3a8ece583fb52aa844db870c4a01e3844f284010": 7146,
    "\u25817z30be15e435e4720c3b0ace4840312a98455786fc4a7de3744fa44000": 7147,
    "\u25817z35b001ac3ad65dd43ffcba10452316604a4972c44f6fcf3c54962bc8": 7148,
    "\u25817z50ea94a85610f0d05b374d0c605da95c658405c06aaa62386fd0bec4": 7149,
    "\u25817z6da2617872c8bda077ef19dc7d15762c823bd29087622f088c888b94": 7150,
    "\u25817z6ec46c0073eac828791124647e3780b4835ddd18888439908daa961c": 7151,
    "\u25817z6fb469c074dac5e87a0122247f277e74844ddad8897437508e9a93dc": 7152,
    "\u25817z72171f34773d7b5c7c63d798818a33e886b0904c8bd6ecc490fd4950": 7153,
    "\u25817z72341fc0775a7be87c80d82481a7347486cd90d88bf3ed50911a49dc": 7154,
    "\u25817z72b71db477dd79dc7d03d618822a326887508ecc8c76eb44919d47d0": 7155,
    "\u25817z7c582650817e827886a4deb48bcb3b0490f197689617f3e09b3e506c": 7156,
    "\u25817z8d01e2f892283f20974e9b5c9c74f7aca19b5410a6c1b088abe80d14": 7157,
    "\u25817z9a6cbea49f931acca4b97708a9dfd358af062fbcb42c8c34b952e8c0": 7158,
    "\u25817zca11ff34cf385b5cd45eb798d98513e8deab704ce3d1ccc4e8f82950": 7159,
    "\u25817zef456a04f46bc62cf9922268feb87eb803dedb1c090537940e2b9420": 7160,
    "129": 7161,
    "1c3": 7162,
    "92d": 7163,
    "d83": 7164,
    "1340": 7165,
    "1370": 7166,
    "1550": 7167,
    "1e85": 7168,
    "457a": 7169,
    "54ca": 7170,
    "5544": 7171,
    "562c": 7172,
    "5c80": 7173,
    "645e": 7174,
    "b0c5": 7175,
    "b4c5": 7176,
    "b9e7": 7177,
    "e828": 7178,
    "282f5": 7179,
    "b9000": 7180,
    "dd118": 7181,
    "eaa3c": 7182,
    "\u25810x702": 7183,
    "listmsg": 7184,
    "\u25810x406c": 7185,
    "ffff0000": 7186,
    "\u2581commctrl": 7187,
    "\u25810x120f7a8": 7188,
    "\u25810x2050000": 7189,
    "\u2581draglistmsg": 7190,
    "\u2581globalhandle": 7191,
    "11d": 7192,
    "2c0": 7193,
    "91c": 7194,
    "de5": 7195,
    "f86": 7196,
    "323e": 7197,
    "53a8": 7198,
    "5640": 7199,
    "6460": 7200,
    "727c": 7201,
    "a442": 7202,
    "b43b": 7203,
    "cc78": 7204,
    "e2a4": 7205,
    "1a1e7": 7206,
    "3f7af": 7207,
    "68226": 7208,
    "a8fa4": 7209,
    "e4468": 7210,
    "ee834": 7211,
    "\u2581rect": 7212,
    "1351f0": 7213,
    "38ee58": 7214,
    "4e9cb0": 7215,
    "59bc88": 7216,
    "5cc4ec": 7217,
    "6cf538": 7218,
    "92d0f2": 7219,
    "93c0f0": 7220,
    "9640a6": 7221,
    "96c3a4": 7222,
    "b10e69": 7223,
    "be7945": 7224,
    "c8f384": 7225,
    "ce8ac4": 7226,
    "ee1e85": 7227,
    "fa635c": 7228,
    "\u25810x184": 7229,
    "\u25810x438": 7230,
    "1a1e7ec": 7231,
    "1fa275c": 7232,
    "33c8798": 7233,
    "4058d68": 7234,
    "69b23e4": 7235,
    "\u25810x7c91": 7236,
    "2a9040e8": 7237,
    "544e9cb0": 7238,
    "54ca9ca0": 7239,
    "74f71b64": 7240,
    "91aee834": 7241,
    "93c0f07c": 7242,
    "9623a5f0": 7243,
    "a064ad0c": 7244,
    "b823f7af": 7245,
    "e05282f5": 7246,
    "f0ad457a": 7247,
    "49c0a8fa4": 7248,
    "c9e5cc4ec": 7249,
    "\u2581msvcr100": 7250,
    "2498ce8ac4": 7251,
    "5e14c8f384": 7252,
    "98526cf538": 7253,
    "b85038ee58": 7254,
    "bc26fa635c": 7255,
    "freememory": 7256,
    "\u25810x1211f08": 7257,
    "744769b23e4": 7258,
    "abc41fa275c": 7259,
    "b4c51a1e7ec": 7260,
    "\u25810x100fdb58": 7261,
    "2a9040e8905a4": 7262,
    "5e14c8f3847168": 7263,
    "\u25817zda6cbea8df931ad0e4b9770ce9dfd35cef062fc0f42c8c38f952e8c4f": 7264,
    "\u25817zfe5b2e4c03818a7408a7e6b00dce430012f49f64181afbdc1d415868226": 7265,
    "\u25817z638c592068b2b5486dd9118472ff6dd47825ca387d4c26b08272833c8798": 7266,
    "\u25817z34ca042439f0604c3f16bc88443d18d84963753c4e89d1b453b02e4058d68": 7267,
    "342": 7268,
    "b0f": 7269,
    "17b8": 7270,
    "1918": 7271,
    "1dac": 7272,
    "2c70": 7273,
    "3080": 7274,
    "37de": 7275,
    "4d40": 7276,
    "75ac": 7277,
    "7a95": 7278,
    "94a0": 7279,
    "a45b": 7280,
    "ae05": 7281,
    "bc89": 7282,
    "rchr": 7283,
    "00a0b": 7284,
    "dd608": 7285,
    "e7d7c": 7286,
    "propa": 7287,
    "layout": 7288,
    "\u25810x607": 7289,
    "\u25810x4346": 7290,
    "\u25810x7704": 7291,
    "\u25810x770c": 7292,
    "\u2581waveout": 7293,
    "hmetafile": 7294,
    "\u25810x120fa68": 7295,
    "\u25810x12117e8": 7296,
    "\u25810x12117fc": 7297,
    "\u25810x7f7e7d7c": 7298,
    "\u2581readconsole": 7299,
    "\u2581gettempfilenamew": 7300,
    "155": 7301,
    "3bc": 7302,
    "979": 7303,
    "97c": 7304,
    "b1c": 7305,
    "b9c": 7306,
    "c23": 7307,
    "ene": 7308,
    "pen": 7309,
    "14a8": 7310,
    "1bbc": 7311,
    "2054": 7312,
    "40ba": 7313,
    "48d5": 7314,
    "5793": 7315,
    "939a": 7316,
    "9a70": 7317,
    "a434": 7318,
    "a596": 7319,
    "a845": 7320,
    "cc49": 7321,
    "d6a4": 7322,
    "db15": 7323,
    "e1d8": 7324,
    "ff86": 7325,
    "13af6": 7326,
    "321a0": 7327,
    "555f4": 7328,
    "58291": 7329,
    "744b7": 7330,
    "8278e": 7331,
    "dfce7": 7332,
    "20c010": 7333,
    "30ec58": 7334,
    "34c668": 7335,
    "472084": 7336,
    "5974f9": 7337,
    "59f0f9": 7338,
    "685ee2": 7339,
    "784d74": 7340,
    "7a1d78": 7341,
    "7bc180": 7342,
    "96d544": 7343,
    "98e74d": 7344,
    "9b4a02": 7345,
    "9df4e7": 7346,
    "dfdc8c": 7347,
    "f0f344": 7348,
    "f74f70": 7349,
    "f8aace": 7350,
    "fileex": 7351,
    "regist": 7352,
    "\u25810x458": 7353,
    "\u25810x4b0": 7354,
    "\u25810x7f2": 7355,
    "39fa214": 7356,
    "709bea0": 7357,
    "7a95234": 7358,
    "7c9b670": 7359,
    "90b26bd": 7360,
    "\u25810x414a": 7361,
    "\u25810x44b7": 7362,
    "13af6258": 7363,
    "2c20c010": 7364,
    "56c844a0": 7365,
    "579351ec": 7366,
    "a130ec58": 7367,
    "a38321a0": 7368,
    "a58b09c0": 7369,
    "e7945640": 7370,
    "7b508278e": 7371,
    "ae05dfce7": 7372,
    "be794560c": 7373,
    "\u25810x107598": 7374,
    "\u25810x1327ec": 7375,
    "\u25810x5718f0": 7376,
    "\u25810x980218": 7377,
    "1351f0c018": 7378,
    "685ee2e51c": 7379,
    "709bea0124": 7380,
    "7c9b670330": 7381,
    "8057a95234": 7382,
    "92d0f2bc97": 7383,
    "b10e69b4b6": 7384,
    "dfdc8cbf3c": 7385,
    "f0f344e2a4": 7386,
    "\u25810x1210e70": 7387,
    "\u25810xfeee01b": 7388,
    "7b508278e11bc": 7389,
    "b823f7af58291": 7390,
    "e794564039fa2": 7391,
    "544e9cb05974f9": 7392,
    "54ca9ca059f0f9": 7393,
    "74f71b647a1d78": 7394,
    "91aee83496d544": 7395,
    "93c0f07c98e74d": 7396,
    "9623a5f09b4a02": 7397,
    "b85038ee58555f4": 7398,
    "f0ad457a90b26bd": 7399,
    "1351f0c018784d74": 7400,
    "2498ce8ac49df4e7": 7401,
    "59bc88685ee2e51c": 7402,
    "92d0f2bc97f74f70": 7403,
    "9640a67c9b670330": 7404,
    "96c3a4709bea0124": 7405,
    "a064ad0ca58b09c0": 7406,
    "b10e69b4b634c668": 7407,
    "be794560c39fa214": 7408,
    "ee1e85f0f344e2a4": 7409,
    "49c0a8fa4a130ec58": 7410,
    "744769b23e47bc180": 7411,
    "abc41fa275c472084": 7412,
    "c9e5cc4eca38321a0": 7413,
    "98526cf538579351ec": 7414,
    "bc26fa635c2c20c010": 7415,
    "e05282f58057a95234": 7416,
    "b4c51a1e7ec56c844a0": 7417,
    "5e14c8f3847168f8aace": 7418,
    "2a9040e8905a413af6258": 7419,
    "393": 7420,
    "b22": 7421,
    "ill": 7422,
    "4674": 7423,
    "60db": 7424,
    "9d1d": 7425,
    "adcc": 7426,
    "b4fe": 7427,
    "fa38": 7428,
    "31b44": 7429,
    "60e3a": 7430,
    "74920": 7431,
    "902e0": 7432,
    "94632": 7433,
    "a6604": 7434,
    "activ": 7435,
    "c04b0": 7436,
    "length": 7437,
    "\u25810x40f4": 7438,
    "\u25810xa010": 7439,
    "\u25810x434000": 7440,
    "\u25810x435402": 7441,
    "\u25810x4902e0": 7442,
    "\u25810x496790": 7443,
    "\u25810x58eb50": 7444,
    "\u25810x593700": 7445,
    "\u25810x593730": 7446,
    "\u25810x5b2be8": 7447,
    "\u25810x7d2790": 7448,
    "\u25810x1211960": 7449,
    "\u2581getconsolecp": 7450,
    "9e1": 7451,
    "e93": 7452,
    "\u2581eh": 7453,
    "1a00": 7454,
    "1af4": 7455,
    "2694": 7456,
    "30bf": 7457,
    "3147": 7458,
    "503c": 7459,
    "5cb9": 7460,
    "8c5f": 7461,
    "9658": 7462,
    "9fad": 7463,
    "aab1": 7464,
    "ab7d": 7465,
    "b095": 7466,
    "bd10": 7467,
    "cb28": 7468,
    "104c4": 7469,
    "2cb46": 7470,
    "309e0": 7471,
    "3445c": 7472,
    "40914": 7473,
    "59000": 7474,
    "64094": 7475,
    "9a138": 7476,
    "a08d5": 7477,
    "a1105": 7478,
    "a85a7": 7479,
    "a8a97": 7480,
    "b2330": 7481,
    "c8c5f": 7482,
    "5beea1": 7483,
    "5cb9ae": 7484,
    "5ccfae": 7485,
    "645e9b": 7486,
    "705f6c": 7487,
    "9091e5": 7488,
    "92340c": 7489,
    "9880e7": 7490,
    "byname": 7491,
    "e0c0c2": 7492,
    "\u25810x2f2": 7493,
    "1808c5f": 7494,
    "31b4440": 7495,
    "ameters": 7496,
    "bfba1b0": 7497,
    "\u25810x2012": 7498,
    "\u25810x4069": 7499,
    "\u2581wtsget": 7500,
    "104c46e0": 7501,
    "187f43d4": 7502,
    "18d5bf20": 7503,
    "1d9eaa3c": 7504,
    "309e0da9": 7505,
    "31471cd8": 7506,
    "545f1756": 7507,
    "5beea168": 7508,
    "640941e4": 7509,
    "9d1dac38": 7510,
    "a08d5ff8": 7511,
    "a1105dec": 7512,
    "a6574920": 7513,
    "a8a97e68": 7514,
    "aab16688": 7515,
    "bb5b2330": 7516,
    "f86b3f6c": 7517,
    "b0c5a85a7": 7518,
    "645e9b562c": 7519,
    "78a31b4440": 7520,
    "9091e59958": 7521,
    "946323445c": 7522,
    "a4a0705f6c": 7523,
    "e89bfba1b0": 7524,
    "parameters": 7525,
    "\u25810x1210ebc": 7526,
    "\u25810x12116fc": 7527,
    "\u25810x1211788": 7528,
    "744b792340c": 7529,
    "e0c0c2e4468": 7530,
    "\u2581wtsgetactiv": 7531,
    "\u2581getdateformatw": 7532,
    "econsolesessionid": 7533,
    "7b508278e11bc2cb46": 7534,
    "ae05dfce7946323445c": 7535,
    "dfdc8cbf3c9091e59958": 7536,
    "e794564039fa21808c5f": 7537,
    "be794560c39fa214c8c5f": 7538,
    "54ca9ca059f0f9545f1756": 7539,
    "74f71b647a1d78187f43d4": 7540,
    "93c0f07c98e74d309e0da9": 7541,
    "744769b23e47bc1809880e7": 7542,
    "1351f0c018784d741d9eaa3c": 7543,
    "544e9cb05974f9645e9b562c": 7544,
    "59bc88685ee2e51c640941e4": 7545,
    "5e14c8f3847168f8aace1cfd": 7546,
    "91aee83496d544e89bfba1b0": 7547,
    "92d0f2bc97f74f709d1dac38": 7548,
    "9623a5f09b4a02a4a0705f6c": 7549,
    "9640a67c9b670330a08d5ff8": 7550,
    "96c3a4709bea0124a1105dec": 7551,
    "98526cf538579351ec5cb9ae": 7552,
    "a064ad0ca58b09c0aab16688": 7553,
    "b10e69b4b634c668bb5b2330": 7554,
    "b823f7af58291e0c0c2e4468": 7555,
    "b85038ee58555f4b0c5a85a7": 7556,
    "e05282f58057a952345ccfae": 7557,
    "ee1e85f0f344e2a4f86b3f6c": 7558,
    "49c0a8fa4a130ec58a6574920": 7559,
    "abc41fa275c472084104c46e0": 7560,
    "c9e5cc4eca38321a0a8a97e68": 7561,
    "2498ce8ac49df4e778a31b4440": 7562,
    "bc26fa635c2c20c01031471cd8": 7563,
    "f0ad457a90b26bd744b792340c": 7564,
    "b4c51a1e7ec56c844a05beea168": 7565,
    "2a9040e8905a413af625818d5bf20": 7566,
    "\u2581wtsgetactiveconsolesessionid": 7567,
    "4cf": 7568,
    "577": 7569,
    "65b": 7570,
    "ed6": 7571,
    "1080": 7572,
    "1598": 7573,
    "1f60": 7574,
    "28bc": 7575,
    "32cs": 7576,
    "35c8": 7577,
    "6e55": 7578,
    "9cac": 7579,
    "a158": 7580,
    "a876": 7581,
    "ab5d": 7582,
    "1a11c": 7583,
    "1b308": 7584,
    "36ac5": 7585,
    "digit": 7586,
    "f9ec0": 7587,
    "\u2581snap": 7588,
    "\u25810x17d": 7589,
    "\u25810x4085": 7590,
    "\u25810x43a2": 7591,
    "\u25810x7dc4": 7592,
    "\u2581th32cs": 7593,
    "\u25810x44c418": 7594,
    "\u25810x1211ba4": 7595,
    "\u2581gethostbyname": 7596,
    "392": 7597,
    "39f": 7598,
    "706": 7599,
    "711": 7600,
    "924": 7601,
    "db0": 7602,
    "1168": 7603,
    "11d8": 7604,
    "35a0": 7605,
    "3df1": 7606,
    "5080": 7607,
    "6663": 7608,
    "69a4": 7609,
    "7296": 7610,
    "7d58": 7611,
    "908c": 7612,
    "b8d3": 7613,
    "bc13": 7614,
    "d444": 7615,
    "e843": 7616,
    "ecta": 7617,
    "00b90": 7618,
    "16d3d": 7619,
    "22c50": 7620,
    "33406": 7621,
    "6114f": 7622,
    "7c364": 7623,
    "970bf": 7624,
    "a121f": 7625,
    "a636b": 7626,
    "adcfd": 7627,
    "b461e": 7628,
    "cc5a7": 7629,
    "d45fa": 7630,
    "f85e2": 7631,
    "1c643d": 7632,
    "1dfc1b": 7633,
    "366d79": 7634,
    "ae402f": 7635,
    "bcb890": 7636,
    "\u2581space": 7637,
    "16d3db4": 7638,
    "1dacb60": 7639,
    "1f60bd8": 7640,
    "33406d4": 7641,
    "36ac5b0": 7642,
    "fd919c4": 7643,
    "\u25810x8650": 7644,
    "\u25810x9170": 7645,
    "22c50718": 7646,
    "6114fe44": 7647,
    "63c1b308": 7648,
    "6849a138": 7649,
    "692f9ec0": 7650,
    "970bf634": 7651,
    "a2440914": 7652,
    "a596bc48": 7653,
    "a5b3bcd4": 7654,
    "a636bac8": 7655,
    "a841a11c": 7656,
    "ab7da5fc": 7657,
    "adcfdb44": 7658,
    "afd7c364": 7659,
    "e0846a31": 7660,
    "\u25810x120ec": 7661,
    "d12ae402f": 7662,
    "edccdec5b": 7663,
    "ee00dec5b": 7664,
    "1c643db2f8": 7665,
    "b461e00b90": 7666,
    "d4336ac5b0": 7667,
    "d45fac04b0": 7668,
    "d8516d3db4": 7669,
    "dd60860e3a": 7670,
    "f8a33406d4": 7671,
    "fc61f60bd8": 7672,
    "e8431dacb60": 7673,
    "\u25810xfffffffe": 7674,
    "ae05dfce7946323445c6849a138": 7675,
    "b10e69b4b634c668bb5b2330c08": 7676,
    "dfdc8cbf3c9091e59958970bf634": 7677,
    "7b508278e11bc2cb46e8431dacb60": 7678,
    "91aee83496d544e89bfba1b0a121f": 7679,
    "e794564039fa21808c5fee00dec5b": 7680,
    "74f71b647a1d78187f43d4e0846a31": 7681,
    "be794560c39fa214c8c5fedccdec5b": 7682,
    "ee1e85f0f344e2a4f86b3f6cfd919c4": 7683,
    "1351f0c018784d741d9eaa3c22c50718": 7684,
    "544e9cb05974f9645e9b562c63c1b308": 7685,
    "54ca9ca059f0f9545f17561c643db2f8": 7686,
    "59bc88685ee2e51c640941e4692f9ec0": 7687,
    "92d0f2bc97f74f709d1dac38a2440914": 7688,
    "93c0f07c98e74d309e0da9f8a33406d4": 7689,
    "9623a5f09b4a02a4a0705f6ca596bc48": 7690,
    "9640a67c9b670330a08d5ff8a5b3bcd4": 7691,
    "96c3a4709bea0124a1105deca636bac8": 7692,
    "a064ad0ca58b09c0aab16688afd7c364": 7693,
    "bc26fa635c2c20c01031471cd8366d79": 7694,
    "f0ad457a90b26bd744b792340cbcb890": 7695,
    "49c0a8fa4a130ec58a6574920ab7da5fc": 7696,
    "5e14c8f3847168f8aace1cfdd12ae402f": 7697,
    "744769b23e47bc1809880e7dd60860e3a": 7698,
    "c9e5cc4eca38321a0a8a97e68adcfdb44": 7699,
    "2498ce8ac49df4e778a31b4440a841a11c": 7700,
    "98526cf538579351ec5cb9aeb461e00b90": 7701,
    "b823f7af58291e0c0c2e4468d4336ac5b0": 7702,
    "b85038ee58555f4b0c5a85a7d45fac04b0": 7703,
    "e05282f58057a952345ccfaefc61f60bd8": 7704,
    "2a9040e8905a413af625818d5bf201dfc1b": 7705,
    "abc41fa275c472084104c46e0d8516d3db4": 7706,
    "b4c51a1e7ec56c844a05beea1686114fe44": 7707,
    "701": 7708,
    "aa1": 7709,
    "bc2": 7710,
    "e32": 7711,
    "e8f": 7712,
    "fd4": 7713,
    "39d0": 7714,
    "5be4": 7715,
    "671c": 7716,
    "ad67": 7717,
    "b1b7": 7718,
    "b526": 7719,
    "bad0": 7720,
    "bc24": 7721,
    "c0f5": 7722,
    "d11c": 7723,
    "draw": 7724,
    "e454": 7725,
    "e960": 7726,
    "with": 7727,
    "126a9": 7728,
    "15322": 7729,
    "64d26": 7730,
    "663b5": 7731,
    "a5ff0": 7732,
    "ac90c": 7733,
    "ontrol": 7734,
    "\u25810x1900": 7735,
    "\u25810x41b8": 7736,
    "\u25810x4224": 7737,
    "\u2581beginup": 7738,
    "\u25810x1211dd8": 7739,
    "\u2581findwindoww": 7740,
    "vironmentblock": 7741,
    "environmentblock": 7742,
    "\u2581createenvironmentblock": 7743,
    "\u2581destroyenvironmentblock": 7744,
    "ax": 7745,
    "1d6": 7746,
    "a33": 7747,
    "af7": 7748,
    "d69": 7749,
    "f00": 7750,
    "fdc": 7751,
    "1790": 7752,
    "2616": 7753,
    "453c": 7754,
    "5e58": 7755,
    "5fac": 7756,
    "60e0": 7757,
    "7865": 7758,
    "91cc": 7759,
    "b1ec": 7760,
    "be50": 7761,
    "c8c4": 7762,
    "d0c0": 7763,
    "1deed": 7764,
    "32278": 7765,
    "66880": 7766,
    "68e80": 7767,
    "69640": 7768,
    "69f8b": 7769,
    "6d6ff": 7770,
    "802b7": 7771,
    "9c325": 7772,
    "a19c4": 7773,
    "a63c4": 7774,
    "aabd1": 7775,
    "b0a40": 7776,
    "d84cc": 7777,
    "0081de": 7778,
    "370128": 7779,
    "389122": 7780,
    "3c8b34": 7781,
    "56939a": 7782,
    "908eac": 7783,
    "93d6a4": 7784,
    "b2f638": 7785,
    "\u25810x5d5": 7786,
    "6485b7c": 7787,
    "ad67fe0": 7788,
    "\u25810x1074": 7789,
    "\u25810x40e8": 7790,
    "\u25810x8d00": 7791,
    "64d261a0": 7792,
    "663b5b34": 7793,
    "67066880": 7794,
    "671c68c8": 7795,
    "69640fe8": 7796,
    "6d6ffe28": 7797,
    "6e55fbb0": 7798,
    "9c325324": 7799,
    "a76a6604": 7800,
    "a85a63c4": 7801,
    "aabd1938": 7802,
    "aada19c4": 7803,
    "ab5d17b8": 7804,
    "b0a402ec": 7805,
    "b2f63834": 7806,
    "b4fe2054": 7807,
    "b8d312b8": 7808,
    "bc1312b8": 7809,
    "e8c1deed": 7810,
    "fc232278": 7811,
    "1800cc5a7": 7812,
    "\u25810x3f5000": 7813,
    "\u25810x57eb18": 7814,
    "3c8b34972c": 7815,
    "787c0081de": 7816,
    "b43b93d6a4": 7817,
    "bc89908eac": 7818,
    "\u25810x1210ecc": 7819,
    "e8ca6485b7c": 7820,
    "\u2581systemparameters": 7821,
    "1351f0c018784d741d9eaa3c22c5071827e": 7822,
    "7b508278e11bc2cb46e8431dacb60370128": 7823,
    "ae05dfce7946323445c6849a1386d6ffe28": 7824,
    "b10e69b4b634c668bb5b2330c081800cc5a7": 7825,
    "dfdc8cbf3c9091e59958970bf6349c325324": 7826,
    "ee1e85f0f344e2a4f86b3f6cfd919c4802b7": 7827,
    "544e9cb05974f9645e9b562c63c1b30868e80": 7828,
    "e794564039fa21808c5fee00dec5bbc1312b8": 7829,
    "be794560c39fa214c8c5fedccdec5bb8d312b8": 7830,
    "54ca9ca059f0f9545f17561c643db2f869640fe8": 7831,
    "59bc88685ee2e51c640941e4692f9ec06e55fbb0": 7832,
    "74f71b647a1d78187f43d4e0846a31bc89908eac": 7833,
    "91aee83496d544e89bfba1b0a121fe8ca6485b7c": 7834,
    "92d0f2bc97f74f709d1dac38a2440914a76a6604": 7835,
    "93c0f07c98e74d309e0da9f8a33406d4a85a63c4": 7836,
    "9623a5f09b4a02a4a0705f6ca596bc48aabd1938": 7837,
    "9640a67c9b670330a08d5ff8a5b3bcd4aada19c4": 7838,
    "96c3a4709bea0124a1105deca636bac8ab5d17b8": 7839,
    "a064ad0ca58b09c0aab16688afd7c364b4fe2054": 7840,
    "b823f7af58291e0c0c2e4468d4336ac5b0389122": 7841,
    "f0ad457a90b26bd744b792340cbcb890e8c1deed": 7842,
    "2498ce8ac49df4e778a31b4440a841a11cad67fe0": 7843,
    "49c0a8fa4a130ec58a6574920ab7da5fcb0a402ec": 7844,
    "abc41fa275c472084104c46e0d8516d3db456939a": 7845,
    "c9e5cc4eca38321a0a8a97e68adcfdb44b2f63834": 7846,
    "98526cf538579351ec5cb9aeb461e00b9067066880": 7847,
    "b85038ee58555f4b0c5a85a7d45fac04b064d261a0": 7848,
    "bc26fa635c2c20c01031471cd8366d79b43b93d6a4": 7849,
    "e05282f58057a952345ccfaefc61f60bd8671c68c8": 7850,
    "2a9040e8905a413af625818d5bf201dfc1bfc232278": 7851,
    "5e14c8f3847168f8aace1cfdd12ae402f787c0081de": 7852,
    "744769b23e47bc1809880e7dd60860e3a3c8b34972c": 7853,
    "b4c51a1e7ec56c844a05beea1686114fe44663b5b34": 7854,
    "abe": 7855,
    "bae": 7856,
    "e3e": 7857,
    "14ab": 7858,
    "6965": 7859,
    "6a6c": 7860,
    "7334": 7861,
    "8eb6": 7862,
    "9041": 7863,
    "a350": 7864,
    "b60b": 7865,
    "b77f": 7866,
    "cc66": 7867,
    "e298": 7868,
    "unct": 7869,
    "\u2581qt5": 7870,
    "2c5cc": 7871,
    "3763c": 7872,
    "73b0c": 7873,
    "7de56": 7874,
    "c63a5": 7875,
    "ed000": 7876,
    "\u25810x549": 7877,
    "\u2581lower": 7878,
    "\u2581punct": 7879,
    "\u2581upper": 7880,
    "fileexw": 7881,
    "ocreate": 7882,
    "\u25810x1810": 7883,
    "\u25810x45a0": 7884,
    "\u25810x7dc5": 7885,
    "\u2581xdigit": 7886,
    "function": 7887,
    "\u2581connect": 7888,
    "frompoint": 7889,
    "\u25810x4093f1": 7890,
    "\u25810x4093f2": 7891,
    "\u25810x4093f3": 7892,
    "\u25810x409431": 7893,
    "\u25810x409432": 7894,
    "\u25810x409433": 7895,
    "\u25810x409434": 7896,
    "\u25810x409435": 7897,
    "\u25810x409436": 7898,
    "\u25810x409437": 7899,
    "\u25810x42a1d8": 7900,
    "\u25810x435410": 7901,
    "\u25810x44edc0": 7902,
    "\u25810xf87470": 7903,
    "\u25810x1210ee0": 7904,
    "\u25810x1211708": 7905,
    "\u2581fatalerror": 7906,
    "\u2581shellexecutea": 7907,
    "\u2581wtsfreememory": 7908,
    "\u2581registerservicectrlhandlerexa": 7909,
    "rgn": 7910,
    "2500": 7911,
    "4040": 7912,
    "7aa0": 7913,
    "9034": 7914,
    "905a": 7915,
    "9e28": 7916,
    "ab6e": 7917,
    "b068": 7918,
    "b892": 7919,
    "c8b2": 7920,
    "ea46": 7921,
    "ee61": 7922,
    "374bc": 7923,
    "a5958": 7924,
    "a6cec": 7925,
    "ace3a": 7926,
    "dcfcc": 7927,
    "e0e6c": 7928,
    "e5b10": 7929,
    "f9380": 7930,
    "3915ac": 7931,
    "3915b0": 7932,
    "40ba33": 7933,
    "6b61b8": 7934,
    "6d7363": 7935,
    "737c58": 7936,
    "82d11c": 7937,
    "a45bb9": 7938,
    "ad80c0": 7939,
    "\u25810x3f8": 7940,
    "\u25810x4c5": 7941,
    "\u25810x5e0": 7942,
    "503c278": 7943,
    "d4441b4": 7944,
    "d8c7054": 7945,
    "e0e6cfc": 7946,
    "\u25810x4360": 7947,
    "\u25810x56fc": 7948,
    "\u25810x69a0": 7949,
    "6c42c5cc": 7950,
    "6e8a6cec": 7951,
    "72965b2c": 7952,
    "737c58b4": 7953,
    "8eb6ebb0": 7954,
    "905af430": 7955,
    "a03db77f": 7956,
    "a158b028": 7957,
    "ab6eb880": 7958,
    "ac90c308": 7959,
    "afe3763c": 7960,
    "b00076c8": 7961,
    "b08374bc": 7962,
    "b5ca5ff0": 7963,
    "b81c9538": 7964,
    "ba247d58": 7965,
    "ec2848d5": 7966,
    "82d11c10c": 7967,
    "cb28e5b10": 7968,
    "\u25810x40f660": 7969,
    "a45bb9f7a8": 7970,
    "a8d83915ac": 7971,
    "ac183915b0": 7972,
    "dcfccace3a": 7973,
    "f93807de56": 7974,
    "\u25810x1211f68": 7975,
    "\u25810x169bcfc": 7976,
    "\u25810x3820382": 7977,
    "\u2581deviceioc": 7978,
    "4b00d4441b4": 7979,
    "ff86e0e6cfc": 7980,
    "\u25810xe06d7363": 7981,
    "b64082d11c10c": 7982,
    "\u2581getdiskfreespaceexw": 7983,
    "7b508278e11bc2cb46e8431dacb60370128503c278": 7984,
    "ae05dfce7946323445c6849a1386d6ffe2872965b2c": 7985,
    "dfdc8cbf3c9091e59958970bf6349c325324a158b028": 7986,
    "98526cf538579351ec5cb9aeb461e00b90670668806c2": 7987,
    "93c0f07c98e74d309e0da9f8a33406d4a85a63c4ad80c0": 7988,
    "b10e69b4b634c668bb5b2330c081800cc5a7dcfccace3a": 7989,
    "ee1e85f0f344e2a4f86b3f6cfd919c4802b7f93807de56": 7990,
    "b85038ee58555f4b0c5a85a7d45fac04b064d261a069f8b": 7991,
    "e794564039fa21808c5fee00dec5bbc1312b8ac183915b0": 7992,
    "f0ad457a90b26bd744b792340cbcb890e8c1deedd8c7054": 7993,
    "1351f0c018784d741d9eaa3c22c5071827eb64082d11c10c": 7994,
    "544e9cb05974f9645e9b562c63c1b30868e80ff86e0e6cfc": 7995,
    "54ca9ca059f0f9545f17561c643db2f869640fe86e8a6cec": 7996,
    "59bc88685ee2e51c640941e4692f9ec06e55fbb0737c58b4": 7997,
    "74f71b647a1d78187f43d4e0846a31bc89908eac8eb6ebb0": 7998,
    "91aee83496d544e89bfba1b0a121fe8ca6485b7cab6eb880": 7999,
    "92d0f2bc97f74f709d1dac38a2440914a76a6604ac90c308": 8000,
    "9623a5f09b4a02a4a0705f6ca596bc48aabd1938afe3763c": 8001,
    "9640a67c9b670330a08d5ff8a5b3bcd4aada19c4b00076c8": 8002,
    "96c3a4709bea0124a1105deca636bac8ab5d17b8b08374bc": 8003,
    "a064ad0ca58b09c0aab16688afd7c364b4fe2054ba247d58": 8004,
    "b823f7af58291e0c0c2e4468d4336ac5b0389122a03db77f": 8005,
    "bc26fa635c2c20c01031471cd8366d79b43b93d6a440ba33": 8006,
    "be794560c39fa214c8c5fedccdec5bb8d312b8a8d83915ac": 8007,
    "49c0a8fa4a130ec58a6574920ab7da5fcb0a402ecb5ca5ff0": 8008,
    "b4c51a1e7ec56c844a05beea1686114fe44663b5b346b61b8": 8009,
    "c9e5cc4eca38321a0a8a97e68adcfdb44b2f63834b81c9538": 8010,
    "2498ce8ac49df4e778a31b4440a841a11cad67fe0cb28e5b10": 8011,
    "e05282f58057a952345ccfaefc61f60bd8671c68c86c42c5cc": 8012,
    "2a9040e8905a413af625818d5bf201dfc1bfc232278ec2848d5": 8013,
    "744769b23e47bc1809880e7dd60860e3a3c8b34972c905af430": 8014,
    "abc41fa275c472084104c46e0d8516d3db456939aa45bb9f7a8": 8015,
    "5e14c8f3847168f8aace1cfdd12ae402f787c0081de4b00d4441b4": 8016,
    "77c": 8017,
    "7cf": 8018,
    "7d4": 8019,
    "b3b": 8020,
    "b42": 8021,
    "1e98": 8022,
    "2852": 8023,
    "2c4e": 8024,
    "32af": 8025,
    "37bb": 8026,
    "38f8": 8027,
    "51c0": 8028,
    "659c": 8029,
    "73ba": 8030,
    "75b0": 8031,
    "acb5": 8032,
    "d486": 8033,
    "d850": 8034,
    "e4d3": 8035,
    "ebdf": 8036,
    "ffb2": 8037,
    "\u2581fil": 8038,
    "14600": 8039,
    "5d000": 8040,
    "988f2": 8041,
    "clipr": 8042,
    "f02d6": 8043,
    "\u25810x42b1": 8044,
    "\u25810x7c16": 8045,
    "\u25810x8d20": 8046,
    "\u25810x42b964": 8047,
    "\u25810x7ee001": 8048,
    "\u25810x7ee002": 8049,
    "\u25810x7ee003": 8050,
    "\u25810x7ee004": 8051,
    "\u25810x7ee005": 8052,
    "\u25810x7ee006": 8053,
    "\u25810x7ee007": 8054,
    "\u25810x7ee008": 8055,
    "\u25810x7ee009": 8056,
    "\u25810x7ee00a": 8057,
    "\u25810x7ee00b": 8058,
    "\u25810x7ee00c": 8059,
    "\u25810x7ee00d": 8060,
    "\u25810x7ee00e": 8061,
    "\u25810x7ee00f": 8062,
    "\u25810x7ee010": 8063,
    "\u25810x7ee011": 8064,
    "\u25810x7ee012": 8065,
    "\u25810x7ee013": 8066,
    "\u25810x7ee014": 8067,
    "\u25810x7ee015": 8068,
    "\u25810x7ee016": 8069,
    "\u25810x7ee017": 8070,
    "\u25810x7ee018": 8071,
    "\u25810x7ee019": 8072,
    "\u25810x1210e40": 8073,
    "\u25810x12114bc": 8074,
    "\u2581gettextext": 8075,
    "3c1": 8076,
    "3c6": 8077,
    "aaa": 8078,
    "ce1": 8079,
    "fa0": 8080,
    "ign": 8081,
    "107b": 8082,
    "122b": 8083,
    "2c82": 8084,
    "37c8": 8085,
    "5fa0": 8086,
    "6034": 8087,
    "9382": 8088,
    "96bd": 8089,
    "9d1b": 8090,
    "a415": 8091,
    "b230": 8092,
    "b43c": 8093,
    "bd00": 8094,
    "c2ba": 8095,
    "c740": 8096,
    "ca14": 8097,
    "10cbf": 8098,
    "1ae3f": 8099,
    "1d5f7": 8100,
    "7ae74": 8101,
    "9d1d4": 8102,
    "9d354": 8103,
    "a67f0": 8104,
    "ada70": 8105,
    "baf0b": 8106,
    "bb4a4": 8107,
    "d48c8": 8108,
    "dd5f7": 8109,
    "f3308": 8110,
    "ff497": 8111,
    "387088": 8112,
    "3c0d04": 8113,
    "60e054": 8114,
    "6922e4": 8115,
    "77bcb8": 8116,
    "a71de0": 8117,
    "b7b4b8": 8118,
    "bd42f2": 8119,
    "cc5847": 8120,
    "parent": 8121,
    "\u25810x43b": 8122,
    "\u2581debug": 8123,
    "14de26c": 8124,
    "c2ba7f4": 8125,
    "ea46f1f": 8126,
    "\u25810x4371": 8127,
    "\u25810x4a70": 8128,
    "\u25810x5374": 8129,
    "\u25810x8de0": 8130,
    "00cff497": 8131,
    "126a9ecc": 8132,
    "32381e24": 8133,
    "716922e4": 8134,
    "7334ca14": 8135,
    "73b0ca04": 8136,
    "77bcb844": 8137,
    "78a2b5cc": 8138,
    "93dd48c8": 8139,
    "a442dddc": 8140,
    "a67f0d40": 8141,
    "a845e090": 8142,
    "b0951598": 8143,
    "b1b72020": 8144,
    "b509d354": 8145,
    "b526d3e0": 8146,
    "b5a9d1d4": 8147,
    "baf0bd08": 8148,
    "bf4ada70": 8149,
    "\u25810x188e04": 8150,
    "3870881550": 8151,
    "3c0d04b354": 8152,
    "c8b2a71de0": 8153,
    "f02d6f3308": 8154,
    "\u25810x1211c14": 8155,
    "\u2581getdibits": 8156,
    "554414de26c": 8157,
    "adccc2ba7f4": 8158,
    "cc584715322": 8159,
    "ea46f1f1bbc": 8160,
    "ae05dfce7946323445c6849a1386d6ffe2872965b2c77bcb844": 8161,
    "dfdc8cbf3c9091e59958970bf6349c325324a158b028a67f0d40": 8162,
    "e794564039fa21808c5fee00dec5bbc1312b8ac183915b01d5f7": 8163,
    "7b508278e11bc2cb46e8431dacb60370128503c278554414de26c": 8164,
    "be794560c39fa214c8c5fedccdec5bb8d312b8a8d83915acdd5f7": 8165,
    "744769b23e47bc1809880e7dd60860e3a3c8b34972c905af430958": 8166,
    "b10e69b4b634c668bb5b2330c081800cc5a7dcfccace3a00cff497": 8167,
    "c9e5cc4eca38321a0a8a97e68adcfdb44b2f63834b81c9538bd42f2": 8168,
    "1351f0c018784d741d9eaa3c22c5071827eb64082d11c10c32381e24": 8169,
    "2498ce8ac49df4e778a31b4440a841a11cad67fe0cb28e5b10b7b4b8": 8170,
    "544e9cb05974f9645e9b562c63c1b30868e80ff86e0e6cfc7334ca14": 8171,
    "54ca9ca059f0f9545f17561c643db2f869640fe86e8a6cec73b0ca04": 8172,
    "59bc88685ee2e51c640941e4692f9ec06e55fbb0737c58b478a2b5cc": 8173,
    "74f71b647a1d78187f43d4e0846a31bc89908eac8eb6ebb093dd48c8": 8174,
    "91aee83496d544e89bfba1b0a121fe8ca6485b7cab6eb880b0951598": 8175,
    "92d0f2bc97f74f709d1dac38a2440914a76a6604ac90c308b1b72020": 8176,
    "93c0f07c98e74d309e0da9f8a33406d4a85a63c4ad80c0c8b2a71de0": 8177,
    "9623a5f09b4a02a4a0705f6ca596bc48aabd1938afe3763cb509d354": 8178,
    "9640a67c9b670330a08d5ff8a5b3bcd4aada19c4b00076c8b526d3e0": 8179,
    "96c3a4709bea0124a1105deca636bac8ab5d17b8b08374bcb5a9d1d4": 8180,
    "98526cf538579351ec5cb9aeb461e00b90670668806c2cc584715322": 8181,
    "a064ad0ca58b09c0aab16688afd7c364b4fe2054ba247d58bf4ada70": 8182,
    "b823f7af58291e0c0c2e4468d4336ac5b0389122a03db77fa442dddc": 8183,
    "bc26fa635c2c20c01031471cd8366d79b43b93d6a440ba33a845e090": 8184,
    "ee1e85f0f344e2a4f86b3f6cfd919c4802b7f93807de563c0d04b354": 8185,
    "49c0a8fa4a130ec58a6574920ab7da5fcb0a402ecb5ca5ff0baf0bd08": 8186,
    "abc41fa275c472084104c46e0d8516d3db456939aa45bb9f7a860e054": 8187,
    "b85038ee58555f4b0c5a85a7d45fac04b064d261a069f8bea46f1f1bbc": 8188,
    "e05282f58057a952345ccfaefc61f60bd8671c68c86c42c5cc716922e4": 8189,
    "f0ad457a90b26bd744b792340cbcb890e8c1deedd8c7054adccc2ba7f4": 8190,
    "b4c51a1e7ec56c844a05beea1686114fe44663b5b346b61b83870881550": 8191,
    "2a9040e8905a413af625818d5bf201dfc1bfc232278ec2848d5f02d6f3308": 8192,
    "5e14c8f3847168f8aace1cfdd12ae402f787c0081de4b00d4441b4126a9ecc": 8193,
    "6a4": 8194,
    "9c1": 8195,
    "aef": 8196,
    "bdc": 8197,
    "c02": 8198,
    "det": 8199,
    "ef0": 8200,
    "1538": 8201,
    "4578": 8202,
    "4a3f": 8203,
    "53b2": 8204,
    "5d60": 8205,
    "7775": 8206,
    "7dc9": 8207,
    "b148": 8208,
    "b690": 8209,
    "bd20": 8210,
    "c017": 8211,
    "cf00": 8212,
    "cf2c": 8213,
    "d1fa": 8214,
    "d63d": 8215,
    "d868": 8216,
    "ed74": 8217,
    "56e1d": 8218,
    "58580": 8219,
    "a05e8": 8220,
    "archi": 8221,
    "e83cc": 8222,
    "\u2581text": 8223,
    "\u25810x4c3": 8224,
    "\u25810x4cb": 8225,
    "\u25810x44e4": 8226,
    "\u25810x8c10": 8227,
    "datetime": 8228,
    "emaphore": 8229,
    "vieworgex": 8230,
    "\u25810x107658": 8231,
    "\u25810x4554b0": 8232,
    "\u25810x539138": 8233,
    "\u2581cocreate": 8234,
    "\u25810x1210f60": 8235,
    "\u25810x1211480": 8236,
    "\u2581deviceiocontrol": 8237,
    "11a": 8238,
    "585": 8239,
    "963": 8240,
    "a2c": 8241,
    "sel": 8242,
    "uni": 8243,
    "3295": 8244,
    "3c84": 8245,
    "40c3": 8246,
    "64f2": 8247,
    "6797": 8248,
    "89aa": 8249,
    "997c": 8250,
    "9ebf": 8251,
    "b6ea": 8252,
    "bc68": 8253,
    "bd17": 8254,
    "d3e4": 8255,
    "de88": 8256,
    "ee4e": 8257,
    "f6e4": 8258,
    "trgn": 8259,
    "20520": 8260,
[...]
